e n
e r
i n
Ġ a
Ġ d
Ġ t
c h
Ġ s
e s
o n
i s
Ġ w
u n
Ġt h
i t
Ġ b
r e
Ġ m
Ġ f
a n
a t
i e
o r
Ġ p
Ġth e
Ġ e
Ġ c
Ġ in
Ġ h
a l
t e
a r
i on
Ġ g
Ġ o
r o
i ch
Ġ v
l e
Ġ n
a s
Ġa n
Ġ un
u s
Ã ¼
en t
u r
un g
Ã ¤
o m
l l
Ġ k
Ġd ie
Ġb e
in g
Ġ is
i g
Ġo f
Ġ z
Ġ i
e d
Ġt o
Ġ l
Ġd er
i c
s t
e l
Ġe in
t er
Ġan d
r a
Ġ re
i r
Ġun d
e t
e m
i l
u t
at ion
o l
e it
Ġs t
g e
d en
t en
Ġv er
u m
Ġf or
i es
Ġ r
d er
c t
Ġp ro
Ã ¶
h r
s ch
Ġa u
a m
d e
b er
u l
Ã¼ r
i v
a b
i er
l ich
o t
om m
Ġ er
g en
Ġe u
Ġd as
i m
Ġw ir
ich t
Ġ on
Ġ y
es t
Ġw e
Ġ j
Ġs e
er e
es s
is ch
Ġs ie
Ġa l
an d
Ġf Ã¼r
Ġis t
o s
i d
Ġz u
Ġi m
p e
o w
a ch
Ġd ies
c e
or t
l y
v er
Ġ 2
Ġy o
Ġd e
Ġc on
f f
Ġth is
k t
Ġ 1
is s
Ġm it
Ġau f
Ġv on
0 0
Ġn e
Ġa re
Ġd en
Ġg e
Ġ it
Ġeu ro
i ll
in d
Ã Ł
Ġ (
f t
a y
. .
Ġs o
Ġs ch
Ġp r
Ġc o
q u
Ġa us
Ġd es
c k
er s
it h
Ġh a
ung en
i k
v e
Ġ le
i b
e in
Ġw ith
Ġw h
at e
m en
Ġw er
Ġth at
p p
is t
a d
Ġa b
Ġm o
Ã¼ ber
a g
m ent
s te
an t
us t
i en
Ġh o
omm iss
Ġein e
te l
Ġyo u
Ġe x
n en
Ġ en
Ġs u
Ġ es
Ġa s
Ã¤ n
Ġ ch
f or
a k
Ġp ar
t h
Ġa ll
Ġ Ã¼ber
Ġwer den
Ġ -
o p
a u
a h
Ġal s
ommiss ion
iv e
an n
Ġn icht
Ġw ill
Ġa t
Ġn ot
Ġ ent
Ġv or
i al
it y
s p
Ġs ich
n e
un d
Ġm e
h t
Ġ ich
en d
Ġc om
i f
Ġun s
Ġs h
Ġ um
Ġd o
Ġw as
al l
isch en
a in
z e
Ġ or
w e
Ġs p
Ġs ind
Ġ us
Ġun ter
Ġb y
Ġd em
b en
ion s
Ġha ve
te d
Ġa r
for m
Ġin ter
ro m
s en
r an
r u
ie l
ul d
ung s
Ġt e
Ġn o
s e
a ge
er n
Ġwir d
Ġeuro p
d u
o o
ig en
Ġh er
u re
Ġre g
p t
h en
in e
b e
Ġeuro pe
u g
a hr
Ġau ch
ic k
Ġa d
Ġc an
ar d
Ġg es
Ġb es
Ġp l
sch a
Ġr es
Ġa m
as t
Ġ ro
h al
Ġm in
l ie
ab le
Ġho tel
Ġh e
p l
t s
Ġo ur
u ch
Ġh as
an g
ig e
Ġw or
o g
o uld
Ġf in
Ġ2 00
i a
m e
g r
isch e
us s
Ġb er
Ã¶ n
Ġm an
Ġh ab
u e
t r
Ġi h
Ġf rom
is ter
er t
Ġs te
i z
Ġ qu
Ã¤ t
Ġz ur
i re
Ġcom p
Ġm a
u p
scha ft
Ġn ach
Ġth ere
Ġals o
Ġw ie
Ġp ol
Ġc ommission
p r
Ġdies e
i o
Ġg r
Ġbe i
Ã¤ r
Ġm ar
id ent
Ġyo ur
p ort
et z
m er
ic e
i p
ation s
Ġh at
u b
c c
Ġin form
Ġ .
ll en
ul t
Ġm r
a p
Ġ 3
Ġf o
Ġk Ã¶n
b eit
a il
a re
ct ion
k eit
h eit
a us
f Ã¼
Ġeurope an
is e
h er
it e
ig ht
u d
g es
en s
Ġd ur
ar t
Ġk on
Ġd a
Ġeurop Ã¤
Ġhab en
it ion
er v
Ġf ra
as s
om e
Ġg en
Ġc omm
t z
ra m
Ġg ro
Ġc l
Ġco un
ier t
Ġpar t
.. .
a c
er en
Ġdas s
ig n
r it
ation al
h l
Ġcon t
c l
ch en
Ġt ra
Ġw ar
o ut
Ġinform ation
Ġf re
Ġk ommission
at en
Ġs pe
j e
te t
an k
h e
Ġa g
ier en
f en
em ent
Ġm Ã¶
as e
Ġmo re
g t
Ġinter n
at ed
Ã¼ n
Ġpro du
el t
v el
g er
lich e
b s
Ġne w
ic al
Ġw ur
es e
at es
ĠkÃ¶n nen
en n
c on
Ġw eit
Ġl o
p er
Ã¤ s
ar y
is h
Ġ ra
Ġdur ch
Ġp er
st en
l o
Ġp o
Ġmin ister
ch e
an z
lich en
g ram
o re
h men
Ġa pp
or d
Ġp re
ak e
Ġi hr
Ġpr es
Ã¼ s
y ste
Ġher r
an ce
f e
Ã¶ r
i ff
c ial
Ġ 4
Ġs a
Ġein en
omm en
Ġd is
Ã¤n der
Ġse in
im m
i de
Ġal le
Ġo der
t ra
th er
Ġ1 9
w er
a ck
Ġof f
Ġih re
Ġf e
Ġst r
Ġit s
am ent
Ġf r
Ġk ann
Ġin d
ch n
ut z
i le
t o
em ber
Ġdies er
il d
Ġth ese
b le
Ġd ar
Ġe m
z u
Ġh ow
u te
k s
Ġh ier
n er
k e
Ġein er
m s
l and
Ġb ut
i an
Ġz um
Ġt ran
Ġa cc
o ur
ch t
Ġw ould
b ar
p ro
Ġj ed
Ġbe en
m it
on e
Ġ 5
Ġk ein
a ct
Ã¼ ck
Ġme hr
Ġin st
Ġbe t
Ġg er
Ġwh at
oo d
k ing
ah l
ie d
am e
Ġ2 0
im e
e ar
Ġm ust
Ġsh ould
Ġpro gram
Ġ up
l a
Ġg em
ge b
Ġs erv
Ġp os
Ġne ed
re at
Ġz us
Ġon e
ik e
Ġb r
Ġver y
g lich
Ġsu pp
f ol
a ce
Ġpro ble
) .
p os
Ġv o
ing s
Ġp ers
Ġun ion
Ġn ur
Ġpar l
ie w
Ġs ol
Ġg u
ier ung
Ġw o
h o
Ġso ll
Ġd ire
ut ion
Ġver b
d s
n ah
al ly
re ich
l ic
f r
Ġab out
Ġno ch
Ġg o
Ġs yste
on g
te il
Ġb est
Ġm Ã¼s
Ġcon s
kt ion
Ã¤n d
ib t
Ġwur de
c om
a v
Ġin v
it ies
el y
Ġt r
Ġthe y
ct s
g an
ĠmÃ¼s sen
Ġa v
Ġf l
t schaft
Ġm ein
Ã¤s ident
Ġl ike
Ġa ber
Ġar beit
Ġl a
w ick
f ahr
or s
Ġz w
w o
Ġf ir
ig keit
Ġs it
Ġo ut
m in
Ġp e
Ġh and
ch te
Ġuns er
Ġk l
ig t
ment s
Ġa ut
Ġm ember
Ġh in
p h
sch l
Ġthe ir
Ġwh ich
Ġm on
Ġein em
Ġe v
Ġse hr
o v
Ġpol it
ent s
g lie
ĠeuropÃ¤ ischen
l in
p le
k te
p f
at er
Ġo b
Ġj ahr
Ġi f
Ġf ol
Ã¼ tz
c re
vel op
h n
at ive
ur es
Ġm y
it Ã¤t
der n
ar beit
os e
st a
ib le
ff e
Ġp h
Ġde velop
Ġ u
as sen
m an
Ġb en
Ġver s
Ġw enn
ay s
Ġge gen
al t
.. ..
Ġv iel
Ġon ly
f ore
Ġn ow
k l
Ġge w
Ġb is
ol og
Ã¤ hr
er g
Ġmar k
fÃ¼ hr
on s
Ġges ch
Ġw el
te ll
Ã¤ l
Ġm en
Ġad d
c il
x t
ent r
Ġpro v
am men
ow n
al e
c o
Ġte chn
r y
Ġk o
Ġy ear
Ġintern ational
c ess
Ġb o
ter n
Ġro om
ct ive
ug h
Ġo ther
al s
Ġan y
Ġpres ident
le gen
Ġent wick
Ġne u
Ġ ...
Ġre port
Ġin s
etz t
Ġse e
ne hmen
m o
Ġl ie
Ġe le
Ġj ust
c ed
ÃŁ en
au f
Ġ 6
Ġr at
Ġdies em
Ġim port
Ġan ge
c es
Ġs eit
a ir
sch e
Ġdies es
an ge
Ġg ibt
hal ten
Ġmit glie
l d
l ung
at z
Ġcoun cil
Ġgem ein
c y
Ġb l
Ġuns ere
Ã¶ ff
Ġzus ammen
Ġn at
Ġbes ch
i ent
Ġl and
Ġcoun tr
in t
il ity
Ġh ere
g et
Ġe ing
Ġt er
ig h
Ġsu b
ic es
ate g
Ġst a
Ġsupp ort
1 0
Ġt ime
k en
Ġpr Ã¤sident
Ġst and
Ġwor k
Ġas s
Ġh el
Ġreg ion
Ġst at
w end
m a
u al
sch en
an s
io us
r i
Ġg et
t re
Ġpro je
Ġwh en
Ġo p
Ġfir st
Ġus e
le ich
Ġf ind
Ġs ome
ig er
Ġe t
Ġde c
if ic
Ġp le
Ġpol ic
it te
Ġav ail
o y
Ġw icht
Ġwe bs
Ġ 7
w or
on der
Ġz eit
Ġunter st
f er
i der
Ġo ver
Ġ 0
Ġr est
f l
re e
Ġre qu
Ġsyste m
Ġih nen
Ġa f
00 0
con om
Ġpers on
w ir
ÃŁ er
Ġar t
Ġe ver
u ll
Ġm ed
Ġre c
Ġj o
m ar
Ġ 9
Ġk n
Ġz we
ĠeuropÃ¤ ische
Ġw ere
z en
ll ow
v or
Ġr ight
Ġpro pos
Ġkein e
Ġavail able
Ġp ub
Ġb as
ul ar
et t
Ġb ar
us e
Ġe conom
Ġd iff
le d
Ġa ct
ist r
Ġge b
un den
ab e
Ġm ach
is m
Ġl in
ff en
i den
k ommen
Ġlo c
e ver
at s
Ġb oo
hal t
Ġund er
Ġbe d
Ġst ates
ie le
z eit
Ġfor m
Ġqu al
Ġmark et
Ġs c
Ġen erg
d it
o c
Ġmitglie d
Ġ 8
Ġweit er
Ġa p
o k
Ġg ood
el s
Ġunterst Ã¼tz
d em
Ġa kt
Ġ ,
Ġco ur
Ġver fÃ¼
Ġfo llow
Ġk om
or y
l os
Ġ1 0
Ġgen er
ra uch
Ġin cl
Ġt ake
ag es
ig ung
gen d
Ġc ar
el n
i or
Ġm uss
Ġinv est
f in
d ay
Ġf un
iv en
Ã¤ u
Ġt wo
Ġb us
Ġinformation en
Ġhow ever
Ġqu est
Ġproble m
Ġfin anz
Ġs er
Ġn ational
w n
Ġpe op
Ġre l
Ġag ain
h and
im mer
Ġre v
Ġfin den
Ġs el
Ġtran sp
Ġc le
Ġan t
st er
Ġde b
Ġber icht
Ġwir tschaft
Ġcomm un
w ert
Ġd am
Ġ19 9
Ġsich er
Ġm ay
Ġeurop a
Ġber eit
pt ion
Ġg el
Ġwe ll
w are
ie den
Ġever y
en den
Ġmo st
nah men
Ġf ur
on t
Ġf ran
Ġr icht
Ġtran s
sta aten
Ġpolic y
o ch
Ġ ur
un t
is ten
Ġimport ant
i um
l le
ard s
Ġa c
Ġle g
Ġb u
Ġer w
Ġein z
Ġv is
Ã¤ ch
Ġpeop le
Ġb ere
um ent
Ġman y
Ġaf ter
r ie
s icht
Ġk e
ste ll
Ġb re
Ġfra u
Ġc re
ĠmÃ¶ glich
f ort
l ine
Ġf Ã¼
ent ion
Ġb ie
Ġgr und
Ġmo d
iv es
Ġd r
y s
Ġch ar
Ġin to
ol it
ĠmÃ¶ chte
Ġthere fore
ter s
Ġintern et
Ġg l
ie t
Ġwh o
c ted
Ġ1 2
Ġdies en
Ġor gan
Ġple ase
Ġc ol
Ġh igh
Ġen g
ur al
iss en
Ġc ur
h Ã¶r
Ġparl ament
ch ten
n et
n is
Ã¤l t
Ġin n
Ġs im
hal b
Ġsch l
re i
Ġm ake
Ġv om
i ament
Ġcon c
c ome
Ġwebs ite
Ġind ust
Ġfol gen
Ġm ich
Ġcon f
Ã¶ff ent
ess en
Ã¤ ft
Ġw elt
Ġne ue
Ġsu ch
un kt
e ll
Ġpart ic
Ġapp ro
s s
Ġweit ere
Ġde ut
r icht
ur s
l es
tra g
Ġsit u
Ġdevelop ment
f ra
Ġbe g
Ġd at
ow s
Ġwie der
b al
Ġth an
Ġwor ld
f ach
Ġv iew
Ġte il
Ġis s
in n
Ġa ir
lie ÃŁ
Ġdo es
Ġv al
Ġl u
Ġl ast
Ġd el
in a
r at
Ġen d
z ial
er ung
Ġst ay
s el
Ġsch w
Ġparl iament
for der
el le
en z
fahr en
Ġzw ischen
Ġbe l
Ġp ra
Ġbes te
Ġpro cess
it al
ic t
Ġpr iv
Ġcountr ies
Ġmitglied staaten
Ġf ar
Ġpos s
Ġm ill
Ġver sch
Ġa ff
Ġthe m
Ġserv ice
Ġres p
all s
m al
i x
l ish
Ġwur den
n ung
or g
o us
z ie
Ġkon t
Ġ200 9
Ġma ÃŁ
Ġk omm
Ġstr ateg
a kt
Ġunter nehmen
ot h
if ied
Ġpub lic
Ġein es
Ġg reat
Ġst ar
Ġn um
Ġre al
Ġs k
b st
Ġag re
s er
heit en
Ġfre e
ze ich
Ġgro up
Ġm ain
isch er
Ġd own
Ġbere ich
Ġpro f
Ġ Ã¤nder
Ġo per
Ġm et
Ġhe ute
op er
Ġz e
at h
r ess
k o
Ġfur ther
pr es
Ġc ust
w ort
iss e
u ÃŁ
Ġf est
Ġb itte
u es
at ing
b o
h a
Ġim mer
Ġg ut
Ġpl ay
Ġcur r
st r
Ġgu est
Ġs m
Ġpl ace
Ġc or
Ġcust om
Ġf am
Ġcommission er
g el
it Ã¤
Ġf und
Ġc ent
mit tel
Ġi de
Ã¶ s
Ġmen schen
Ġ1 5
v ed
Ġgro ÃŁ
Ġjed och
s etz
Ġcomp an
Ġma de
a x
air s
Ġacc ess
Ġl ang
ten s
Ġw ant
p ar
Ġzwe i
ic ult
Ġst ate
Ġeconom ic
Ġpro te
we en
kl Ã¤r
Ġpr ess
Ġd u
2 0
Ġste ll
Ġbet ween
ke hr
ch ts
Ã¤ ge
Ġh um
Ġprogram m
Ġe l
Ġre m
Ġyear s
in k
ge ben
Ġen v
g est
st and
Ġe ben
olit ik
is ion
ges ch
a ur
ur n
Ġihr er
Ġt ak
Ġg anz
ĠverfÃ¼ g
Ġkn ow
Ġop en
Ġentwick lung
g ar
Ġp ort
in ess
l er
te gr
Ġb ro
Ġcomp le
is ation
Ġ est
Ġj etzt
iv ers
le g
Ġhab e
ir on
Ġth ro
f ul
Ġer fol
Ġg leich
it t
am en
ad y
a z
Ġda ÃŁ
Ġconc ern
ent ly
Ġd ann
Ġf ull
ver n
Ġl ar
Ġd et
i ze
Ġk le
Ġsa id
Ġf il
Ġserv ices
Ġbe de
Ġg lo
Ġs ign
Ã¤ hl
Ġg ra
Ġe ffe
Ġfin an
Ġprogram me
Ġle ben
Ġs w
Ġb in
Ġgemein s
Ġn un
Ġcont in
Ġsel bst
Ġse c
Ġet w
Ġh is
Ġin tegr
Ġ |
Ġz ahl
Ġon line
Ġaff airs
ommiss ar
Ġg ar
Ġe ff
Ġman ag
ier te
g em
ic s
Ġenv iron
Ġdes ign
Ġsitu ation
k re
Ġtechn olog
Ġm at
ow er
Ġwicht ig
Ġh ol
Ġs ow
p s
h ol
Ġvers ion
Ġbe tr
ra g
imm t
b r
Ġso ft
Ġ x
en g
Ġpr ior
b es
is en
it i
Ġvor schl
we ise
Ġare a
Ġsp iel
Ġre f
Ġc r
Ġein fach
Ġm us
pl oy
Ġenviron ment
h ne
f Ã¼r
Ġihr en
Ġme as
re chen
Ġrev iew
Ġbus iness
Ã¤ m
aur ant
Ġn or
Ġ +
ĠfÃ¼ hr
it ed
Ġw ay
Ġb ild
Ġincl ud
Ġsoll te
nah me
Ġfam il
Ġhum an
Ġha us
Ġsoll ten
Ġj e
u er
Ġfo re
ver s
Ġthro ugh
Ġn et
Ġspe cial
a ut
Ġg Ã¤
Ġver ein
Ġger man
at t
3 0
Ġe qu
Ġdire ct
Ġd ah
ach t
Ġcle ar
d ition
h in
Ġst ud
Ġl oo
Ġgr Ã¶
Ġda zu
Ġunser er
Ġver w
Ġp age
ess ion
Ġ /
Ġd ank
Ġs in
Ġnum ber
Ġbe k
Ġagre ement
Ġer klÃ¤r
Ġde p
Ġdiff er
Ġco st
Ġau ÃŁer
Ġch e
Ġboo king
Ġcomp et
min ister
Ġent sche
Ġth en
Ġv ar
Ġc ann
Ġoff er
Ġev en
Ġinst it
w elt
) ,
Ġfra ge
Ġ1 1
Ã¼ h
ru ct
je ct
Ġz immer
ro und
Ġquest ion
Ġto day
Ġso cial
Ġein ige
Ġmill ion
Ġre p
Ġinn ov
Ġs on
b l
Ã¤ h
Ġroom s
Ġagain st
Ġrest aurant
Ġth ank
it z
Ġs et
Ġall er
Ġg est
Ġwh y
st Ã¤nd
Ġko sten
Ġvo ll
Ġ Ã¶ffent
Ġs ur
Ġ %
y p
Ġand eren
la gen
.... ....
ra ft
iv er
on d
Ġd aten
Ġdam it
Ġv iele
Ġbereit s
Ġrequ ire
Ġin cre
Ġse hen
ro l
3 2
Ġdah er
h ip
Ġh al
oper ation
Ġa gr
Ġit al
Ġaus w
Ġaus ge
Ġb ank
Ġ20 1
r on
Ġprodu cts
Ġreg ul
Ġposs ible
lich er
am p
s o
wir tschaft
Ġc as
Ġs y
at or
te m
g ang
Ġe as
Ġu hr
ab en
Ġbes onder
rit t
Ġdis c
ĠmaÃŁ nahmen
Ġgo vern
Ġn utz
Ġex per
Ġus ed
id es
Ġse ine
s atz
Ġsoft ware
imm ung
ĠgÃ¤ ste
Ġm uch
Ġe ur
Ġcann ot
- -
pp en
Ġs om
Ġmo b
h Ã¤lt
Ġdiffer ent
Ġgener al
Ġo wn
h ing
Ġbe gr
Ġfollow ing
it s
Ġb al
f ten
Ġm or
Ġst ill
Ġb ack
Ġdat a
Ġand ere
Ġvo te
Ġad v
pe ct
sch lieÃŁ
Ġso zial
Ġ1 8
Ġw issen
Ġent sp
v o
il fe
kt ur
Ġre chts
Ġw en
is ed
ien st
ce pt
Ġto o
ing en
Ġte xt
entr al
Ġab st
Ġs l
Ġe igen
Ġor der
Ġp ass
Ġb oth
Ġco uld
Ġneu en
ad t
Ġglo bal
Ġbe lie
eit e
il t
Ġr u
un ter
Ġz ust
Ġse con
in es
Ġre pres
Ġt re
Ġl Ã¤nder
ĠmÃ¶ chten
Ġmit tel
Ġange legen
Ġim pro
Ġad op
2 00
Ġw Ã¼r
k un
Ġd i
wor k
Ġinst all
Ġpartic ular
a de
Ġha d
Ġle t
Ġim ple
Ġa men
ach ten
ze ug
Ġresp ons
Ġre ce
Ġte le
n isse
Ġd ay
Ġver l
Ġc ase
Ġex am
Ġc ert
Ġo hne
aus e
Ġle vel
Ġbie tet
w ard
Ġfo und
Ġpr in
Ġp at
Ġl ong
Ġsicher heit
Ġo pt
Ġb ud
Ġf ut
Ã¤n g
Ġge f
tell t
is p
Ġ :
Ġf all
Ġtransp ort
ich te
iv id
Ġo pp
Ġfra gen
h m
Ġw ind
ut ions
Ġfor t
Ġc ap
Ġum welt
Ġfore ign
Ġre d
Ġw es
Ġz iel
Ġwh ere
cl us
Ġ20 10
ru ck
qu e
Ġpo int
Ġk ur
Ġh Ã¶
Ġwar en
Ġeing e
Ġstat t
al th
Ã¤ re
an der
Ġversch ieden
in s
ut es
Ġe ach
re ady
be wer
Ġaut om
ation en
Ġspe c
â Ĥ
âĤ ¬
Ġal ready
Ġsecon d
Ġre form
Ġst art
Ġto ur
Ġcont act
Ġge ht
Ġ &
Ġs ame
ab ility
Ġhel p
m Ã¶
ain s
Ġaut h
Ġenerg y
Ġt un
en de
3 5
Ġth ree
Ġin iti
Ġm ot
o d
gen ommen
Ġbe it
ar te
Ġwe b
Ġat t
Ġ200 8
Ġn ie
Ġwith out
Ġi r
ien ce
Ġme et
Ġlie gt
Ġf ac
Ġ200 7
Ġamen d
Ġzusammen arbeit
Ġste hen
w ay
Ġcon st
Ġbe f
Ġl assen
Ġbe ing
Ġbre ak
v en
Ġap art
Ġfinan cial
ro p
Ã¤r t
e p
Ã¤t z
Ġverb ess
abe i
ical ly
Ġex p
at ely
Ġoff ers
Ġd abei
l age
ett bewer
Ġv ol
Ġum f
z ahl
m b
ber e
if e
lich keit
Ġmein e
Ġm ak
Ġa ction
Ġcl ick
Ġle tz
Ã¤ ÃŁ
Ġsec ur
Ġh os
v es
ĠÃ¼ber n
le x
ib ility
ick en
Ġdo ch
Ġl i
kun ft
lo ad
Ġr is
Ġa id
ur g
Ġhotel s
Ġact iv
pr ess
Ġregion al
Ġp ay
Ġt ag
Ġc al
Ġm al
Ġqual ity
o unt
Ġapp lic
Ġpl an
Ġsm all
Ġr ates
Ġ1 4
lin ie
Ġd rei
Ġ rom
lich t
ier ten
Ġt reat
Ġem ploy
ul es
Ġre cht
Ġcommun ity
sp ro
Ġf act
Ġex ce
Ġmeas ures
Ġcour se
le ist
Ġm ir
Ã¶r der
k on
r en
i ÃŁ
Ġp ack
Ġc a
Ġth ose
Ġr uss
Ġfut ure
Ġ3 0
Ġer ste
Ġmo dern
Ġges am
Ġne xt
Ġh ar
ic a
u f
Ġho ch
Ġbe fore
Ġm il
Ġnat Ã¼r
as ed
k ten
re ib
Ġeinz el
Ġre du
m ail
Ġcons ider
o ck
ur ch
is l
Ġin de
Ġpolit ical
c a
Ġadd ition
Ġp al
f te
Ġb Ã¼r
Ġind ivid
Ġc ity
ĠkÃ¶n n
l au
Ġ [
b ed
u de
in nen
Ġw ettbewer
Ġgro w
Ġk r
Ġmach en
en ce
Ġdes halb
ct or
Ġk in
Ġi d
n ess
Ġ1 6
Ġre as
an te
Ġangelegen heiten
Ġbe im
Ġsecur ity
Ġpart ner
der s
ct ions
Ġan n
Ġh ist
ist s
Ġer st
Ġwir k
el d
Ġsch on
ann t
t ing
Ġall en
Ġch ange
Ġre le
Ġseit e
p re
Ġh ome
w ays
sch r
Ġtra in
Ġ2 5
Ġch ild
Ã¼n d
Ġjahr en
im in
Ġreview s
Ġtra de
Ġco operation
Ġzur Ã¼ck
ru ktur
gr ess
f alls
Ġste ht
Ġre t
be wert
ater ial
Ġetw as
Ġsin ce
Ġth ink
Ġ Ã¶
Ġbe isp
reich en
s yste
Ġk ommissar
Ġcont rol
Ġagr icult
Ġbede ut
is ierung
Ġgemein schaft
Ġfun ktion
Ġan s
Ġse le
Ġuns eren
Ġiss ue
Ġdown load
Ġer halten
Ġpropos al
ord nung
p unkt
Ġwith in
Ġb rauch
ism us
Ġcomm on
v ing
Ġa ch
Ġst ra
Ġerfol g
ho f
un e
f ast
Ġvis it
ot o
Ġright s
Ġb le
ab il
Ġ âĤ¬
in en
Ġda fÃ¼r
Ġam er
Ġsch ne
Ġben utz
Ġm ult
Ġl og
f ern
Ġcon tr
Ġpos ition
Ġne g
Ġin t
h an
Ġ1 3
cre t
Ġmanag ement
Ġra hmen
s k
Ġhe alth
Ġperson al
Ġdire ctive
cc ess
e c
b au
Ġ2 2
Ġke y
Ġbud get
or en
Ġs ay
eren ce
sp ra
Ġ1 7
is te
ut h
Ġinter est
c ri
Ġver wend
Ġk ol
Ġimple ment
Ġin fr
Ġs al
o b
uch t
r es
re g
bewert ungen
Ġauth or
Ġpre v
Ġprote ction
Ġp ut
Ġdur ing
ich ten
ah n
et s
ah re
Ġr en
Ġdet ail
if ten
Ġpos it
Ġbe c
ĠgrÃ¶ ÃŁ
Ġma j
ĠgÃ¤ste bewertungen
k er
Ã¶ t
Ġw Ã¤hr
Ġleg isl
o ugh
Ġs um
ĠverfÃ¼g ung
Ġs ite
Ġver tre
Ġd ate
Ġdeut sch
ear ch
e f
Ġpres ent
ir d
Ġch o
setz ung
ent ial
Ġer geb
Ġpro ced
Ġf ood
Ġp a
Ġpar k
Ġdo c
Ġres earch
ĠunterstÃ¼tz ung
Ġsu ccess
l an
Ġsta ff
Ġha u
o ff
Ġs ing
m ed
e u
un de
Ġcustom ers
all en
Ġt ax
Ġho use
sp r
un der
ungs ant
Ġcert ain
bere ich
fÃ¼hr t
Ġt el
Ġcons um
Ġg re
Ġan geb
Ġsp an
le t
Ġvorschl ag
g ed
ich er
i pp
Ġl age
Ġcompan y
stell ung
b t
am er
Ġla w
Ġwel come
Ġare as
Ġ2 4
Ġd ial
Ġb il
ar n
it er
Ġn on
Ġk ommen
Ġt est
um s
Ġsch a
ib ution
Ġm er
Ġr ules
Ã¤t ze
Ġhau pt
ol ution
f re
Ġenerg ie
ier ungs
Ġinter ess
schr iften
Ġw ann
ot her
Ġp ower
Ġmember s
Ġstand ard
Ġach ie
mar kt
Ġadd ress
Ġdisc uss
id ed
ed er
Ġre ad
z ess
Ġpriv ate
z iel
p or
Ġex pl
ck en
Ġproble ms
Ġjed er
r or
Ġc ro
Ġt ro
kre t
los sen
Ġpo st
mit ted
w eit
c ing
ĠnatÃ¼r lich
Ġf ahr
Ġbreak fast
ĠmÃ¶glich keit
b urg
Ġwo llen
ar s
gem ein
Ġge ben
Ġsyste ms
Ġm s
uch en
Ġsow ie
itÃ¤ ten
am m
es en
Ġmaj or
Ġab s
Ġt ar
Ġent er
Ġsp ort
f on
as ch
Ġmar kt
Ġd id
Ġda v
sch utz
ant s
Ġwel che
Ġcountr y
Ġdar Ã¼ber
Ġche ck
Ġakt iv
Ġd istr
Ġse cret
Ġst re
Ġall es
Ġl im
ten d
Ġde fin
Ġa k
ĠbÃ¼r ger
a gen
im es
Ġen s
Ġv ide
u en
Ġhos tel
Ġk unden
Ġb ess
ing e
Ġal ways
Ġden n
u ally
Ġunter sch
Ġdis k
Ġj ahre
Ġneed s
Ġsom et
Ġs an
Ġdeb ate
ord in
Ġm ag
ig es
Ġfind et
Ġnew s
Ġ2 1
Ġloo k
og ra
Ġw ort
Ġabst immung
ĠauÃŁer dem
Ġto t
Ġste llen
Ġentsche id
Ġc ult
ant wort
Ġc it
Ġd ienst
is es
Ġl Ã¶s
um en
Ġpart n
rit te
scha ften
Ġres erv
e k
l ungs
st at
Ġch ang
ar ten
ll er
Ġbesch Ã¤ft
Ġver trag
Ġas k
Ġprodu kt
ot t
al en
z us
Ġcour t
Ġl at
z ug
ach e
le gt
Ġcommun ic
Ġcurr ent
Ġver g
Ġreg el
Ġfr Ã¼h
fra ge
Ġge hÃ¶r
g aben
Ġher aus
Ġk m
Ġcol le
k ungen
Ġbu ild
Ġfr ien
5 0
Ġg ol
Ġto p
Ġcomple te
Ġm aterial
Ġprodu ct
Ġm ess
Ġj an
Ġbeisp iel
l ungen
Ġdial og
Ġw ater
Ġdo k
Ġcomm itte
iz ed
Ġkom p
ie f
Ġcom e
Ġautom at
Ġl ife
teil ung
le it
Ġw al
j oy
1 9
ass ung
alt ung
Ġinst r
are d
Ġbet ter
Ġrepres ent
Ġver k
Ġland wirtschaft
y n
c i
Ġtransp ar
Ġkin der
Ġl ist
Ġviel en
Ġen joy
Ġcon clus
Ġl ab
Ġloc ation
Ġg ive
om en
Ġ1 00
Ġv e
Ġarbeit s
Ġ5 0
Ġkl icken
Ġte am
Ġan other
o ber
Ġpre is
ar ch
Ġv i
Ġw in
Ġun ivers
Ġfe hl
Ġihre m
Ġmin utes
le tz
Ġn Ã¤ch
Ġdire kt
ind et
as se
zie h
Ġbest imm
Ġtak en
1 2
ag t
Ġan al
Ġzust Ã¤nd
p olitik
Ġadop ted
ro om
ich ter
Ġne cess
ul ts
Ġus ing
Ġar ch
Ã¤ d
Ġp op
iv ing
iss ion
Ġdec ision
Ġse ver
d ings
Ġt al
Ġpolit ik
Ġleben s
Ġe du
icht s
Ġch ina
Ġherr n
ok rat
Ġsh all
Ġsp ra
ell schaft
Ġme ans
Ġn ah
b ild
Ġquest ions
Ġbelie ve
Ġein mal
Ġm ad
Ġlu x
Ġprov ide
g abe
Ġt em
th e
Ġdem oc
igkeit en
Ġproje ct
Ġv ot
Ġgesch Ã¤ft
Ġf iel
Ġbec ause
Ã¶ l
Ġsta ats
z o
ge w
v ention
Ġpro gress
st Ã¼ck
ĠwÃ¼r de
Ġg ru
Ġcon ne
Ġrep ub
Ġup d
x im
Ġk ult
Ġper fe
Ġview s
f Ã¤h
Ġausw Ã¤rt
ze pt
Ġsh ort
Ġthe ma
Ġ Ġ
Ġcom fort
Ġindust ry
Ġj a
und heit
Ġst adt
Ġpra ct
Ġer forder
gan gen
Ġres ult
Ġ *
Ġw ach
v ement
Ġ !
it es
Ġtra dition
Ġpartn ers
ra gen
Ġbie ten
Ġra d
w ards
fÃ¼hr ung
Ġspe ak
Ġverb rauch
g s
Ġd Ã¼r
ab lish
Ġer n
Ġcent re
ver fahren
Ġrequ est
Ġd om
ge hen
Ġricht linie
Ġschl uss
Ġd ig
ik a
re it
Ġcit iz
Ġj av
au fen
gr und
m on
in o
Ġgl au
Ġfran k
Ġver antwort
Ġst Ã¤r
Ġe c
Ġdar auf
Ġsecret ary
qu is
Ġp ap
as h
Ġwe g
ch er
Ġth ird
in ts
Ġprof ession
Ġne ar
dit ions
Ġall ow
Ġf er
Ġst im
se kret
) :
or te
Ġinstit ution
d r
Ġacc ount
o ol
mÃ¶ glich
Ġg ilt
ch es
ut en
Ġt yp
isch es
Ġreg ard
Ġor ig
Ġmod ified
Ġf isch
Ġsing le
Ġsever al
Ġpro m
Ġaller dings
Ġgr Ã¼n
Ġi i
Ġedu c
Ġgen au
ro w
ĠgroÃŁ e
Ġest ablish
Ġfor sch
Ġn ame
sch ein
Ġsub mitted
Ġkont ro
Ġr un
or n
Ġde f
Ġv ill
Ġbegr Ã¼
Ġt urn
Ġdo ub
ll ent
fe hl
lich es
il ities
p pe
Ġexam ple
Ġbas ed
un kte
u ter
pro gram
Ġcl os
ges tellt
Ġbeste ht
Ġf lex
Ã¼s sel
g o
Ġto ol
Ġho pe
w w
ist ance
land s
Ġlar ge
Ġh ilfe
Ġcommitte e
pr Ã¼
u x
Ġcost s
Ġm uÃŁ
Ġele ct
Ġk re
ĠÃ¼bern achten
Ġt ur
Ġs or
ik el
sp olitik
Ġproje cts
Ġf ern
Ġnot wend
u ge
sekret Ã¤r
t t
Ġgrow th
Ġle a
ens ion
Ġf av
Ġin ner
fol ger
ktion en
ĠÃ¤nder ungsant
Ġdem okrat
Ġfe w
Ġex ist
l ik
Ġiss ues
Ġe ar
Ġt as
1 1
Ġf ile
Ġdetail s
etz en
Ġf Ã¶rder
Ġges undheit
l Ã¤nder
ig ten
iff t
Ġo ption
Ġver kehr
omm end
Ġch r
Ġfe at
Ġloc al
Ġw ish
f ig
o ten
Ġlang u
Ġl ess
Ġr Ã¼ck
Ġkur z
i que
d es
Ġall gemein
Ġbas is
Ġex tre
Ġzu kunft
h Ã¤ng
eng th
b in
Ġa round
Ġerw eit
as st
Ġab ge
ich tet
Ġas pe
Ġinvest ment
Ġpr ice
ot s
ra um
Ġopp ort
Ġt w
Ġse ctor
um ents
Ġben ef
f eren
Ã¤hl en
ing ungen
Ġsein er
am t
Ġchild ren
Ġd an
Ġorig in
d f
Ġsit z
Ġan wend
gr iff
Ġopport un
i ation
Ġproble me
Ġ200 6
Ġsh ow
z Ã¼
Ġsa f
i as
Ġaus sch
Ġjust ice
Ġco p
Ġder zeit
y pe
Ġbrauch en
Ġg ute
Ġne ver
Ġgerman y
Ã¤ gt
Ġappro ach
Ġmet ho
Ġre ally
Ġ2 9
Ġst ruct
Ġ200 0
b et
Ġd one
ÃŁ e
Ġus er
d ing
Ġob je
Ġexce llent
t ag
Ġle ad
Ġem p
Ġzw eit
Ġfor ward
Ġid ent
Ġopt im
ĠauswÃ¤rt ige
b an
iet y
Ġstrateg y
Ġer sten
Ġ( +
il y
c el
Ġcitiz ens
b y
Ġre ach
Ġfo ur
ĠwÃ¤hr end
Ġc are
Ġnecess ary
k ung
an gen
Ġw Ã¤re
b ank
Ġwor king
Ġun t
Ġspec ific
Ġc all
Ġj ul
iv ely
Ġnat ur
d y
Ġbe w
Ġu k
Ġp unkt
Ġpro to
Ġsa gen
Ġfra me
Ġreas on
one y
Ġrec ommend
Ġv ier
r Ã¤n
Ġsh e
Ġap pe
Ġinnov ation
is ions
Ġen de
Ġcontin ue
th ing
Ġmach t
Ġhostel s
Ġwind ows
Ġbesonder s
e hm
Ġprodu ction
Ġy et
Ġbedeut ung
r Ã¤
Ġsch utz
Ġboo k
spra che
Ġc at
if y
Ġintegr ation
en ted
z immer
Ġno v
Ġconclus ions
Ġm ind
ut y
Ġh ard
. )
Ġk Ã¼
Ġno te
Ġm om
Ġcons ult
Ġeben falls
et en
ic ial
Ġleg al
Ã¤s s
is iert
ig ent
enn t
i ft
Ġf ast
ste hen
Ġcommission s
we is
Ġbe come
h aus
Ġagricult ure
Ġsub ject
Ġc entral
c kt
Ġcompan ies
Ġof fen
ug ht
st an
min istr
Ġpartic ip
Ġloc ated
i ate
Ġkont akt
Ġfre i
Ġm em
iv il
Ġa fr
kt or
l ess
m et
Ġk ind
Ġcomm it
ch an
Ġkl ar
Ġo ld
re d
Ġeas y
ing t
Ġrel ations
if iz
Ġop in
Ġtot al
Ã¼ t
cri pt
Ġw a
ch s
Ġim p
Ġstell t
tem ber
u elle
Ġdav on
ier ungen
o un
Ġab le
f s
Ġhist or
ste llen
Ġper form
Ġn Ã¤
Ġmat ter
Ġcle an
Ġdok ument
Ġc e
Ġcompet ition
folger ungen
Ġwar um
ĠunterstÃ¼tz en
c r
Ġse p
Ġw ahl
im ate
Ġbe h
Ġb ig
Ġinv ol
Ġcon ditions
Ġe ib
onder e
ific ation
Ġ 000
Ġwor den
am es
ig r
co ver
Ġh ig
Ġexper ience
ver kehr
Ġf lo
Ġmon th
bes ondere
Ġp an
au er
1 3
Ġ200 4
ĠunterstÃ¼tz t
z w
Ġn ight
Ġacc ord
Ġgovern ment
Ġg iven
c us
Ã¼n st
ĠkÃ¶nn te
Ġtrain ing
Ġf is
ver t
Ġpo ints
Ġiniti ative
Ġemploy ment
Ġdeutsch land
Ġfort sch
Ġlin k
Ġmr s
i j
ri ft
Ġschne ll
Ġsomet hing
as ter
Ġs end
Ġw ahr
b a
leist ungen
ain ed
Ġeduc ation
s h
35 2
Ġhol id
pro du
ul ation
Ġins besondere
Ġfolgen de
Ġben Ã¶t
Ġuntersch ied
Ġj u
en e
im a
Ġal tern
Ġne hmen
o te
Ġv ia
Ġneg ot
Ġwirk lich
is ing
Ġaus tr
Ġactiv ities
io d
se qu
Ġtechnolog y
Ġcurr ently
rit ten
Ġbe hand
r Ã¤ge
d o
Ġc rit
Ġhin aus
Ġkomm t
Ġro le
Ġzus Ã¤tz
et y
Ġport ug
Ġital ien
Ġm ass
ent en
Ġres ults
hal ts
Ġperson en
Ġfolgen den
g ement
wer k
sp l
Ġd ays
4 0
Ġ Ã¼
Ġnicht s
Ġm oney
Ġun ited
Ġand er
........ ........
Ġter ror
Ġmed ia
r ing
g Ã¤n
z entr
ic ient
Ġproje kt
Ġad ministr
and s
Ġer reichen
Ġsu bs
ur y
ier e
Ġd ra
Ġl ight
m Ã¤ÃŁ
Ġalle m
Ġs at
ĠverfÃ¼g bar
Ġsol id
Ġcl ass
Ġdel iver
Ġindust r
it or
Ġpr Ã¼
Ġair port
g ra
fin den
Ġres our
Ġhin ter
m os
Ġ200 5
e hen
i ations
Ġart ikel
Ġc ard
at te
Ġex tra
h mer
Ġk os
i ar
Ġbe ach
h Ã¶
is is
Ġdiff icult
Ġac cept
n a
Ġwettbewer bs
Ġgew Ã¤hr
Ġw ww
Ġwas ser
Ġb ath
el f
Ġ ess
Ġgu ar
Ġvide o
Ġb ra
Ġmom ent
Ġs Ã¼
Ġmein er
Ġb ill
Ġbeg inn
Ġabs ol
Ġkomm un
Ġf a
Ġl ine
Ġincl ude
Ġbe aut
Ġbei den
-- --
Ġgemeins ame
Ġso c
Ġcl ose
Ġto get
Ġc amp
Ġro lle
ber eit
Ġsu per
Ġwor d
iv ed
Ġtoget her
n ing
Ġprodu kte
Ġser ver
Ġon ce
ip le
iv al
Ġsch wer
b our
Ġmob il
Ġres olution
Ġunser em
Ġev ent
Ġarbeit en
c le
Ġb uch
ib en
Ġchr ist
gend a
Ġst abil
re cht
Ġsaf ety
Ġent fern
Ġk ar
Ġp ot
Ġg as
Ġdar f
ik an
Ġ2 3
Ã¤ hn
tel le
Ġam b
hr en
Ġin c
Ġregul ation
Ġa im
Ġindust rie
Ġschluss folgerungen
Ġl ive
Ġle arn
Ġwor ks
ik en
ĠgeschÃ¤ft s
ver b
Ġwer t
h ang
Ġverbrauch er
Ġk or
Ġreg istr
r ic
Ġs ett
Ġguar ante
Ġwer de
Ġb ad
Ġcr isis
Ġfrien d
Ġunt il
Ġens ure
Ġ ort
Ġs en
lie gen
ab ly
Ġeff ort
k a
Ġlin ks
Ġproced ure
Ġt om
Ġbetr ifft
Ġfun ction
we g
Ġkom ple
ver tre
Ġval ue
Ġch allen
at ives
Ġs ust
Ġnach fol
u ff
Ġjo int
Ġweiter hin
Ġde al
ne hmer
Ġjed en
Ġar g
Ġs il
Ġfamil y
Ġoff ice
Ġframe work
g re
pl es
forder ungen
zeich net
Ġdoc ument
Ġsep tember
Ġher vor
Ġk a
Ġextre m
ĠfrÃ¼h stÃ¼ck
Ġide al
Ġver st
Ġd ort
Ġwirtschaft s
Ġre fer
Ġpr ices
Ġres pect
1 5
Ġpropos als
Ġeconom y
Ġentsp rechen
Ġit em
Ġbes ten
Ġcomp uter
Ġbet re
Ġver Ã¶ffent
Ġde cl
Ġinclud ing
Ã¤n de
o hl
ind ung
zo gen
Ġme isten
ers tell
b ru
Ġb or
s a
itÃ¤ ts
Ġob ject
s pe
Ġr und
Ġgel d
Ġber lin
w ach
Ġf air
Ġhe ad
Ġfo cus
Ġwes ent
Ġpers Ã¶n
Ġste p
e x
Ġfav our
at iven
ks am
y l
Ġph ot
Ġbef indet
pf ung
Ġeffe ct
Ġnutz en
Ã¼n ft
Ġstand ards
Ġ4 0
Ġans wer
und es
Ġfin ance
Ġth ings
Ġpres iden
Ġse a
Ġwo hl
Ġ2 7
Ġg ed
ogra ph
f o
Ġsein en
Ġwach st
Ġinfr ast
ko ll
Ġk am
Ġlegisl ation
Ġz entr
. :
Ġstr ong
Ġsol che
2 5
ĠerklÃ¤r te
o ver
Ġso ur
Ġm id
Ġapplic ation
Ġindivid ual
Ġant wort
Ġcre ate
Ġd im
on a
Ġk at
Ġwe ek
Ġat tra
Ġn ice
Ġmeet ing
ze igt
Ġinner halb
Ġge hen
Ã¤nder t
Ġ19 8
Ġv ir
Ġopin ion
fra gen
Ġo cc
Ġ2 8
Ġv an
Ġber ichter
l ing
in er
ll t
reich e
ma ÃŁ
Ġbeste hen
Ġstr ength
syste m
ro du
Ġcommunic ation
Ġp ur
Ġinternational en
Ġvoll stÃ¤nd
es ted
Ġem pf
Ġimplement ation
Ġra pp
Ġwho le
an st
Ġse arch
Ġparlament s
it ions
feren z
Ġc reat
Ġh y
Ġtreat y
Ġele kt
Ġk ap
Ġeing es
Ġt ats
Ġm ic
Ġprov ides
Ġus a
Ġfol gt
ĠlÃ¤nder n
Ġschw ier
Ġj ap
Ġco ver
Ġl itt
lo ck
Ġro ad
Ġb ul
Ġletz ten
Ġver pf
Ġlu ft
Ġfull y
Ġa pr
Ġwelt weit
g lichen
Ġt Ã¤t
on y
ĠdÃ¼r fen
Ġentsche iden
um e
Ġst ock
h ilfe
sch n
Ġtechn ical
Ġpropos ed
Ġb au
Ġkon s
ich en
n t
Ġaddition al
Ġver hand
Ġmor gen
re ch
Ġkein en
Ġfrau en
Ġdig ital
ar ian
Ġwicht ige
Ġbetr ie
bl ick
at ors
c al
ie ten
Ġkult ur
Ġpresiden cy
ad a
as es
Ġso llen
mar k
Ġj un
6 0
as ing
Ġan ges
Ġw at
schl uss
Ġsust ain
Ġlitt le
Ġa genda
Ġof ten
Ġso uth
en cy
Ġreg ister
Ġemp fehl
Ġret urn
Ġrequire d
Ġsign ific
Ġver fahren
Ġf ig
Ġde v
pr Ã¤sident
Ġgen ehm
Ġverschieden en
iz ation
Ġg ent
Ġorgan is
Ġo l
Ġle ist
Ġco de
pl ay
Ġn amen
g ru
Ġum setzung
zieh ungen
Ġk rit
w and
Ġw Ã¼n
Ġper iod
i ra
u tet
Ġgro ÃŁen
Ġt Ã¼r
Ġbe teil
k omm
Ġsie he
Ġrapp orte
ĠlÃ¶s ung
Ġd est
h il
Ġneu es
Ġt v
Ġjan u
Ġart ic
ure d
an a
Ġconf erence
Ġrespons ibility
Ġs ens
Ġvar ious
p ly
Ġent schlieÃŁ
Ġint rodu
Ġw est
Ġbes uch
on ger
Ġcor re
Ġt able
en nen
Ġwissen schaft
w h
Ġ Ã¤u
he b
os s
Ġmo der
Ġto wards
Ġem ail
Ġe g
b are
Ġcont ent
Ġsch we
Ġfiel d
d ruck
Ġs n
if en
o f
Ġt imes
Ġsch lieÃŁ
Ġberichter stat
en zen
we il
ition en
Ġcom pl
Ġ200 3
Ġposit ive
Ġbel g
Ġrem ain
Ġrespons ible
Ġnov ember
ter m
Ġso und
d a
o ve
ile d
as cript
Ġau g
Ġd on
Ġp ict
i os
Ġma xim
ĠfÃ¼hr en
Ġnet work
Ġgre en
Ġsol ution
Ġintern al
Ġli ber
Ġan im
ist an
ber g
Ġnachfol gend
Ġjav ascript
Ġl is
Ġsh are
Ġpo ol
iden ce
mo st
Ġinternational e
Ġc y
Ġmob ile
Ġe igent
Ġson dern
Ġprin c
Ġqu ite
al ity
Ġm Ã¤r
Ġm ention
Ġass oc
Ġbess er
Ġm iss
Ġnach halt
p end
Ġd re
Ġauf ge
Ġser ious
Ġe d
be i
Ġzu gang
Ġw omen
Ġmak es
te chn
Ġcontr ib
un ch
Ġnie der
Ġits elf
vor schriften
Ġver tra
Ġpre m
Ġhin zu
Ġfran ce
Ġperfe ct
Ġhand el
Ġt ru
Ġf al
Ġto wn
Ġme an
te ile
b on
Ġfin al
lie ÃŁen
Ġentscheid ung
Ġam ong
Ġter ms
vo ll
Ġneed ed
Ġf ix
Ġverschieden e
t on
ur ing
Ġfor der
Ġsolid ar
Ġjap an
Ġh il
Ġqual itÃ¤t
Ġpolic ies
Ġde leg
Ġadd ed
Ġn ort
Ġeurop as
k ommissar
at ul
te xt
Ġamend ments
Ġaccord ing
or ted
Ġgegen Ã¼ber
Ġbel ow
Ġenvironment al
l ar
Ġle ider
Ġentfern t
Ġorgan isation
it ter
Ġsta at
Ġconcern s
Ġwen iger
Ġsim ply
Ġverwend et
Ġw ider
Ġparticular ly
m l
Ġunter s
Ġst Ã¤nd
Ġreg ierung
Ġamend ment
Ġth er
at iv
Ġz entral
Ġb a
Ġapp ly
Ġresour ces
Ġt ab
ro ffen
Ġsp a
Ġsch ritt
Ġetw a
u gen
Ġgo ing
Ġl ot
! !
Ġ200 2
p o
a pp
Ġsch Ã¶n
mb h
pl an
Ġfe el
Ġger ichts
f all
Ġsol utions
Ġwo hn
Ġbede utet
Ġinclud ed
Ġhat te
Ġha ppen
ce ed
Ġprov ided
Ġsch ul
Ġb on
Ġpe ace
Ġapart ment
Ġr ange
Ġpub lish
Ġproto koll
Ġapr il
Ġb rit
Ġke ep
Ġprior ity
Ġtr y
Ġbin nen
Ġmic ro
Ġst ation
Ġme chan
Ġpack age
se e
Ġau d
Ġunder stand
Ġp df
Ġer ne
Ġbek annt
in st
Ġent halten
Ġmillion en
Ġre la
Ġcompet it
w a
g leich
ach en
Ġe dit
ur en
ier s
Ġtrans l
Ġg mbh
se hen
ere i
Ġc ut
fr ist
Ġvot es
Ġ ?
v a
Ġfin ally
Ġess ential
Ġpolit ische
Ġher z
Ġin fl
ateg or
Ġholid ay
Ġwe ise
Ġent ire
at ory
Ġbe tra
Ġf Ã¼n
Ġentwick lungs
Ġver f
Ġha pp
Ġex press
Ġfriend ly
ig te
Ġcomfort able
te llen
y r
ĠÃ¼ber prÃ¼
Ġger ne
Ġman uf
Ġden en
Ġcont ra
Ġqu ick
Ġseit en
Ġ )
Ġjed e
Ġcent er
Ã¤ch st
Ġer k
Ġle d
Ġstrateg ie
l t
ip s
Ġau ÃŁen
Ġi p
Ġz iele
ap s
Ġbuild ing
Ġnort h
lin ien
Ġsignific ant
Ġa way
wor ten
Ã¤ch lich
Ġaus sprache
Ġguest s
Ġm io
Ġpro p
Ġinstall ation
le i
c en
re chte
Ġun ver
ĠfÃ¶rder ung
Ġse em
Ġmin im
m ut
re icht
Ã¤m pfung
reib en
f ung
Ġen c
Ġfl ug
Ġapart ments
Ġdoub le
Ġs am
Ġmanuf act
th ers
Ġan f
mit glie
Ġfil es
Ġz ie
um p
Ġwe iÃŁ
Ġj ud
ag ement
Ġprogramm es
Ġgemeins amen
Ġsu re
Ġincre ase
Ġmil it
ck e
Ġent hÃ¤lt
Ġw r
Ġan frage
st ra
st o
fÃ¼hr en
ull y
Ġgroup s
Ġmon itor
pro chen
st adt
Ġvertrag s
e ign
le icht
ab el
ĠÃ¶ffent lichen
Ġre in
Ġdistr ibution
Ġbeaut if
Ġstat ement
b ahn
Ġl iste
f il
ĠhÃ¶ ch
al og
ge legt
Ġmarket s
Ġst ruktur
Ġper man
Ġstat ist
Ġsoc iety
ÃŁ t
Ġvor s
pl atz
Ġcro ss
b el
ein ander
Ġstaats sekretÃ¤r
au ft
ig ungs
Ġab ove
cial ly
Ġcl ub
ac es
Ġmehr ere
Ġpolit ischen
Ġeng lish
umen te
Ġcontin u
Ġges etz
ist ry
Ġble iben
w al
Ġh or
o u
Ġex ch
ll ing
Ġrece ive
Ġen ough
Ġat mos
Ġvor gesch
ish ed
Ġoper ation
Ġevery thing
Ġvorschl Ã¤ge
Ġmus ic
Ġal t
Ġb undes
ges etzt
Ġre i
Ġev ents
Ġt ages
ĠprÃ¤sident in
Ġeigen en
Ġcas es
ges amt
Ġass istance
Ġh im
ress e
Ġan genommen
Ġb it
ĠbeschÃ¤ft igung
Ġf eder
Ġex port
Ġjed es
ies en
Ġsp ain
ik ation
Ġrec og
Ġchang es
m ann
ue llen
u el
is on
op s
Ġfund ament
Ġan zu
Ġcap ital
Ġmit arbeit
Ġgar ant
Ġerforder lich
Ġmo unt
Ġs ag
Ġle it
Ġle ft
Ġar r
Ġw ik
Ġberichterstat ter
Ġjahr es
ig ation
Ġzu dem
Ġtra vel
Ġris k
Ġus ers
Ġc ir
Ġo ber
Ġg al
er k
Ã¤ g
sel f
Ġges ellschaft
Ġfre und
Ġges agt
Ã¤ che
igr ation
Ġyo ung
Ã¤r en
rie ben
Ġatt ention
on es
ra cht
Ġdep uty
Ġhand elt
Ġw Ã¤hlen
Ġb i
Ġes pe
u k
Ġsitz ung
Ġfis her
Ġbro w
Ã¤n ger
ic an
Ġim m
Ġchar ac
Ġen lar
teil t
Ġprofession al
Ġtak es
le ben
Ġg ree
Ġsu ff
lau b
it ution
Ġmus ik
Ġsow ohl
Ġdeb ian
Ġg ab
Ġl ib
end s
z er
Ġfil m
ab hÃ¤ng
Ġvo ted
Ġsa fe
ho ben
Ġlangu age
Ġkon n
Ġsh o
Ġrequire ments
Ġk ern
Ġgem acht
Ġins gesamt
3 7
e g
Ġsch ool
Ġtar get
Ġz un
ar f
Ġor d
ir es
Ġforsch ung
ion en
et te
ver stÃ¤nd
Ġergeb nis
ist ic
Ġpar king
Ġcl imate
Ġwel com
Ġr ent
Ġgr ie
gen cy
Ġph oto
Ġimport ance
Ġergeb nisse
Ġge legen
Ġl es
Ġfac ilities
Ġ200 1
ore d
cr ib
Ġm ut
z ip
i i
ĠnÃ¤ he
Ġer fahr
Ġloo king
Ġse par
Ġhar mon
Ġmo de
Ġind ic
Ġsl ow
Ġsta aten
Ġp ast
ĠgehÃ¶r t
Ġrapporte ur
b est
spro gram
un ately
Ġble ibt
Ġp ak
1 4
Ġr ate
fÃ¤h igkeit
Ġo thers
Ġrela x
a den
Ġg ame
Ġatmos ph
Ã¶ff net
Ġbul gar
i ents
Ġfran z
Ġeffe ctive
d ate
Ġmad am
an ze
s ide
Ġne ben
Ġespe cially
Ġger ade
c ent
Ġpro zess
Ġmak ing
Ġim age
Ġinstit utions
bes ch
une hmen
Ġcho ose
Ġbis her
Ġequ ip
Ġer hÃ¤lt
Ġer hÃ¶
Ġnat ural
Ġnational en
Ġc ivil
1 8
Ġfehl er
Ġn ord
Ġnor mal
Ġverw enden
Ġhand els
3 9
ag er
ll ig
Ġd ist
an ia
k i
k om
Ġinform ations
Ġlie gen
ungs verfahren
Ġstell ung
Ġcre dit
Ġhin sicht
hÃ¶r den
Ġp f
Ġer fÃ¼
Ġportug al
Ġs em
ra cy
Ġzusammen hang
Ġn etz
Ġso gar
Ġbeautif ul
Ġis ra
Ġkl ima
e ib
Ġl onger
Ġg ere
ĠerklÃ¤r ung
h ib
Ġgra ph
ĠfÃ¼n f
ian s
ĠnÃ¤ch sten
Ġag ree
Ġso on
Ġglau be
Ġsp rechen
d om
Ġviel leicht
Ġfrank reich
v ent
Ġricht ung
Ġuk ra
Ġl ow
Ġaug ust
b uch
program m
Ġan sp
Ġer ziel
d am
Ġre chn
Ġgel ten
Ġd ont
iel le
Ġsch rift
Ġb Ã¼
Ġg ran
Ġdirect ly
so ft
w Ã¼r
Ġy es
Ġprom ot
Ġnot hing
d i
Ġimpro ve
Ġwachst um
Ġbl og
ro s
Ġweit eren
at ic
Ġnegot iations
Ġt ype
Ġpra kt
Ġclear ly
ĠverfÃ¼ gt
ĠÃ¶ffent liche
Ġass ess
Ġm use
al ten
g l
Ġhaus halts
Ġauthor ities
g u
at ten
al itÃ¤t
Ġex tern
Ġph il
we isen
Ġma il
schlieÃŁ lich
Ã¤ us
sta at
Ġf ish
f ully
Ġv ice
Ġze igt
Ġk raft
ru ction
cl ub
Ġmein ung
Ġth us
Ġinclud es
oo k
bild ung
Ġo ct
Ġwe il
d ie
g le
al u
maÃŁ nahmen
Ġrestaurant s
Ġverein bar
Ġ6 0
ar en
Ġfar m
Ġh Ã¤t
ne te
ir m
Ġfortsch ritte
Ġpar is
Ġcom b
s eit
Ġzahl en
er st
Ġspan ien
Ġst y
Ġt it
Ġab kommen
4 5
Ġver anst
Ġaus gest
h es
Ġtele fon
Ġverbess erung
Ġinstr ument
Ġreg ions
Ġwettbewer b
Ġme er
Ġle ast
Ġorigin al
Ġoff icial
ho tel
Ġwor ds
Ġre a
richt ung
Ġfinanz en
Ġsim ple
Ġfund s
au ber
Ġprinc iple
p art
ac y
Ġbo ard
Ġstell vertre
Ġf ot
Ġp unkte
Ġmonth s
Ġpur pos
pe cted
Ġau ff
et her
Ġfeat ures
Ġt en
Ġchar ge
Ġs un
Ġsub st
1 7
Ġzw eite
Ġl ange
Ġih n
Ġsustain able
Ġgerichts hof
um b
Ã¤ cht
au en
Ġcal led
u le
geb ung
Ġdet a
Ġital y
Ġvorgesch lagen
l ies
er o
Ġun fort
Ġwen ig
Ġkosten los
hil fen
de ut
Ġnat ure
Ġinfr ing
Ġwh ile
Ġsele ct
Ġpart ies
Ġet c
Ġaus wir
Ġma p
Ġsh own
reib ung
Ġlat est
a i
Ġverwend ung
we gen
Ġkol legen
Ġk op
ien en
Ġn r
Ġch em
im men
Ġconsum er
schn itt
Ġi ll
Ġwill kommen
Ġwin ter
Ã¤hl t
Ġrec ord
Ġt ick
b il
Ġbesch l
Ġm and
or row
Ġj our
Ġtro tz
Ġl ad
Ġs ide
Ġtom orrow
Ġ q
Ġmin istry
Ġver Ã¤nder
Ġac ro
Ġr ural
ar k
Ġanwend ung
an o
Ġk un
halt ung
l Ã¤u
Ġof t
Ġmot or
Ġarch ite
Ġproje kte
Ġflo or
Ġconcern ed
r imin
ung e
Ġbe mer
Ġauf mer
icher heit
Ġperman ent
Ã¼ck sicht
end ing
on en
it en
Ġho urs
Ġfe bru
Ġappro pr
ol le
Ġak zept
Ġstrength en
stell t
Ġcult ure
h end
Ġa ffe
en ch
ĠmÃ¶glichkeit en
Ġinde ed
e llen
ar m
ipp ed
Ġthe men
Ġange zeigt
pres ident
Ġwichtig sten
Ġbr ing
Ġant i
Ġpriv at
yn am
Ġenter pr
Ġpl atz
Ġd ruck
ue ll
f el
Ġc ru
Ġje weil
Ġausw ahl
Ġaussch uss
ent wick
Ġbe m
ze igen
Ã¼s se
Ġrepub lik
Ġpartners hip
Ġo bs
Ġim med
Ġer zeug
Ġma c
ke y
Ġinfring ement
Ġrepub lic
Ġer reicht
Ġho ffe
Ġen able
at tet
Ġtru e
Ġbinnen markt
Ġf Ã¤
f ert
Ġrepresent ative
pp el
ann ten
Ġa ctive
d aten
Ġste uer
Ġverantwort ung
m als
Ġber Ã¼cksicht
Ġminister in
Ġcre ated
Ġeinzel nen
Ġextern al
Ġf ight
Ġrem ains
le men
Ġin tens
Ġz o
a uss
Ġst or
Ġ2 6
Ġjo b
Ġf ive
Ġspiel en
ed en
ster reich
j a
iven ess
Ġhuman it
Ġprev ious
Ġisra el
lie d
Ã¤ ter
Ġbe vor
Ġl Ã¶
it zen
ck er
j ahr
Ġ ut
st ag
Ġequip ment
ĠÃ¤u ÃŁer
Ġun abhÃ¤ng
Ġpre ise
Ġfr ont
omm od
Ġd ivers
Ġd iv
Ġsch ein
Ġbild ung
let ter
Ġextrem ely
9 5
1 6
Ġincre asing
Ġeben e
Ġk ing
Ġein satz
Ġjo bs
Ġver gangen
Ġhel pf
el ess
gesch lossen
st off
Ġver tr
Ġeffort s
z if
ver letz
ire d
Ġbei de
Ġl as
Ġju gend
Ġver d
Ġ8 0
setz en
q l
Ġso fort
Ġob l
Ġhist ory
Ġacc ommod
omm er
Ã¤s ent
Ġerweit erung
Ġkle ine
Ġkle in
Ġp et
Ġse ction
Ġsp ace
Ġaufmer ksam
Ġdar an
t es
and id
Ġbeit rag
Ġl ic
Ġver fol
Ġf it
arbeit en
Ġverst Ã¤r
Ġeff iz
in ation
Ġdec isions
Ġsubs id
for men
Ġent de
Ġgest immt
Ġconcern ing
Ġdienst leistungen
Ġpre p
unter nehmen
Ġpap er
Ġd ad
Ġhal ten
z a
Ġsch le
Ġd in
Ġperform ance
Ġtrans fer
Ġopp os
ĠschlieÃŁ lich
m ore
arbeit ung
Ã¼ lt
Ġgu id
zÃ¼ glich
Ġk ro
mar quis
Ġapplic ations
il ar
Ġl ater
ĠÃ¤nderungsant rag
t y
it ing
9 8
Ġi ra
Ġunfort unately
ur t
Ġer heb
2 4
Ġpot ential
Ġa ktion
Ġpr Ã¤
Ġfr ench
ien ste
Ġbe ziehungen
v iew
Ġl ond
Ġanal ys
ch ter
s c
Ġex ec
v al
Ġbed ingungen
Ġdemoc racy
Ġzun Ã¤chst
Ġp c
Ġro t
Ġcom es
Ġsicherheit s
Ġfundament al
Ġimp act
Ġgen ie
Ġal most
mo te
Ġre chte
Ġbereich en
Ġoct ober
Ġv ize
keit en
Ġgar den
Ġprof it
ĠgrÃ¶ ÃŁer
v ant
Ġreport s
led ge
Ġp assen
Ġex tens
u fen
w ide
Ġl Ã¤nd
Ġmin uten
Ġmed ien
Ġexist ing
Ġgr enz
Ġinteress e
Ġreas ons
Ġb io
Ġex pect
Ġrele ase
v Ã¶l
Ġc am
Ġarbeit spl
Ġfor ce
ĠzustÃ¤nd ige
he im
c ies
Ġd ro
Ġpro ceed
m us
ar tet
Ġn immt
Ġangeb ot
is f
Ġf oto
Ġb lock
rat ic
Ġfre ed
Ġgovern ments
f ace
Ġexch ange
Ġnotwend ig
Ġd ue
Ġcustom er
Ġdemokrat ie
is tet
Ġn u
Ġge geben
Ġopportun ity
t ain
Ġachie ve
ĠkÃ¶n ig
Ġd ynam
Ġkun st
Ġvi ol
Ġlux em
Ġindustr ial
4 6
Ġfl ugh
ĠfÃ¼hr t
Ġenlar gement
at her
or der
at ur
Ġto d
Ġge Ã¤ndert
cl ud
fahr t
stell ungen
Ġdem and
hal te
w ord
Ġbenutz er
Ġsour ce
ight s
Ġfer ien
Ġwes tern
ĠbenÃ¶t igen
Ġe th
Ġdeut lich
Ġb ur
gen er
Ġprop ert
Ġunter b
ph one
k an
or gan
es h
Ġe us
Ġh erstell
Ġra um
h nen
Ġvor bereit
im s
Ġverhand lungen
Ġlo k
Ġwh ether
Ġkom fort
Ġsy n
m p
Ġspe zial
Ġl au
Ġhier zu
j ust
ĠÃ¶ sterreich
Ġf ire
Ġpl ann
Ġeng ine
pp ing
u is
h em
Ã¤l le
Ġs cre
Ġein igen
Ġinnov ative
Ġbath room
Ġsit ting
hn t
Ġcar r
Ġdad urch
Ġagricult ural
l ang
p age
Ġj une
Ġpre c
Ġdis play
Ġk arte
Ġbro ad
Ġvertre ten
c er
Ġh Ã¤u
Ġh am
d ienst
Ġenc our
Ġhelpf ul
Ġt on
Ġobject ives
Ġdevelop ed
Ġartic le
Ġrec ent
Ġun ique
ĠkÃ¶nn ten
er ous
Ġfisher ies
ĠwÃ¼r den
Ġcharac ter
Ġgol f
Ġakt uelle
Ġde z
es ten
Ġco ordin
Ġdank e
Ġlab our
Ġsim ilar
Ġra il
Ġ201 1
Ġth ing
Ġgemeins am
Ġst op
Ġbe finden
Ġeing er
Ġmod el
Ġbe zug
Ġ3 2
Ġo kt
Ġar ran
Ġfreed om
Ã¶ m
Ġcont ain
am a
aus sch
Ġlond on
Ġplay er
Ġcon gr
Ġgesch ichte
0 2
Ġkommission s
Ġresp on
Ġfollow s
ges ellschaft
Ġbar cel
Ġfix ed
le y
Ġdo ing
ic o
ne hm
Ġupd ate
g ing
Ġs ent
ges ehen
Ġrei he
Ġle icht
Ġumf assen
tend ed
s weise
Ġact ions
Ġcertain ly
k ont
Ġeng l
Ġjo in
Ġruss ia
Ġcho ice
Ġex clus
Ġch ance
Ġste u
iss ions
Ġentwick elt
lÃ¤nder n
Ġbl ick
Ġbr ingen
Ġeben so
v ere
Ġden ke
Ġsag te
mo us
Ġbu y
Ġs ix
b re
Ġakt ual
Ġter min
Ġt at
Ġch in
Ġl os
Ġber uf
Ġtra ck
7 5
Ġp ie
Ġup on
mittel n
k arte
Ġbo dy
Ġf ax
Ġcon sequ
aus ch
Ġhe art
w ur
Ġm ight
Ġfe ed
Ġb an
Ġbil der
Ġgr and
k r
Ġauf genommen
Ġt im
Ġm el
Ġdialog ue
ĠgehÃ¶r en
Ġho st
Ġb ug
Ġc d
Ã¤s st
Ġpre par
Ġdar um
Ġdep art
Ġcomplete ly
r id
Ġauf gabe
Ġadop t
fon ds
schl ag
Ġmitarbeit er
Ġ3 5
Ġtre ffen
Ġko ordin
Ġma i
Ġver ordnung
Ġcont ains
Ġs etzen
Ġsh ows
Ġbas ic
ĠÃ¤nder ungen
Ġsu g
Ġabsol ute
ge fÃ¼hrt
ran k
olog ie
Ġlie fer
Ġdisk uss
il le
Ġ4 5
Ġv Ã¶
ate ll
Ġhel fen
Ġgesam ten
Ġfeder al
Ġmar t
Ġstat us
Ġmit t
ar i
Ġgru ppe
Ġst able
Ġihr es
Ġcongr atul
Ġse en
ct ors
Ġpr im
Ġ199 9
Ġconsum ers
er nen
y a
ĠsÃ¼ d
f un
Ġgegen w
Ġjust iz
ĠgrÃ¼n den
it a
an ced
Ġfr ieden
f u
Ġhe iÃŁ
teil en
Ġagreement s
Ġukra ine
sp iel
Ġfre uen
Ġjed em
Ġestablish ed
z i
Ġsp Ã¤ter
Ġbest Ã¤t
Ġre ise
e w
v is
Ġwer k
Ġmar ch
Ġgro und
Ġdis cover
Ġscha ff
l Ã¤ss
Ġfern er
ab les
or f
Ġcult ural
Ġl esen
Ġvor schriften
ha ft
Ġauswir kungen
0 1
im ent
ĠÃ¤nder n
Ġlar ger
Ġrecog n
z t
Ġw to
bar en
Ġf alls
Ġmitglie der
Ġbl ack
Ġev alu
Ġfund ing
mitglie d
Ġrespon se
Ġs us
Ġf ert
Ġsie ht
Ġdevelop ing
Ġi ran
Ġminister ium
Ġaltern ative
Ġder en
Ġacro ss
Ġvir t
Ġwar m
Ġh on
Ġ22 9
n o
Ġwh ite
Ġevery one
Ġfamil ien
Ġhaus halt
Ġabge ord
Ġneu er
Ġf ach
Ġopportun ities
Ġeurop es
bed ingungen
g a
Ġkn own
Ġc ast
% .
st re
Ġele ment
Ġph one
j Ã¤hr
Ġlin ux
Ġproced ures
b u
Ġl ack
Ġre pl
Ġcomm er
zeit ig
ar ing
Ġregion en
Ġobje ctive
u ted
Ġvill a
Ġs ant
Ġsch em
0 5
f rei
Ġal ong
Ġhostels club
9 9
in i
ik o
Ġbu ff
Ġliber al
Ġsch Ã¶
Ġnews letter
ag ing
Ġtak ing
Ġp urch
hen s
Ġbek Ã¤mpfung
3 3
Ġbest immt
Ġg anze
Ġan sicht
er ing
Ġrat her
Ġer schein
Ġh ung
arbeit et
Ġan b
p id
Ġumf ang
Ġlim ited
ie g
Ġform at
Ġcon vention
Ġdo ppel
Ġcomm ents
Ġfr Ã¼
Ġhig her
Ġis land
hl en
Ġres ol
Ġhe ut
Ġrece ived
Ġcap ac
Ġst ability
fr ieden
is ieren
Ġfor um
Ġe mer
Ġgreat er
Ġanal y
Ġw ide
er y
pe kt
p ted
Ġdeb atte
Ġappropr iate
b us
Ġdar in
Ġthank s
Ġguarante e
Ã¤t zen
sp lan
Ġknow ledge
Ġmess age
Ġk ennt
Ġkon ferenz
Ġpr ime
Ġmit teilung
Ġer fahren
Ġpar ts
Ġph p
Ġref le
Ġdesign ed
Ġf ace
Ġher unter
Ġtats Ã¤chlich
Ġi lle
Ġent sch
Ġcomm ent
ĠÃ¼ber ein
Ġjun i
Ġih m
Ġprior ities
han den
ke i
Ġfranz Ã¶s
st att
Ġout side
Ġinfrast ruct
Ġsc ient
Ġn av
Ġand ers
Ġaud io
Ġres ort
Ġsk i
Ġve h
ber icht
ĠÃ¶ffent lichkeit
Ġl ay
Ġhel d
bal d
Ġspe ed
Ġear ly
Ġinvol ved
ol a
Ġinvest itionen
Ġschwe iz
ol d
Ġw all
Ġp en
Ġgesam t
hin der
Ġpract ice
Ġincre ased
Ġtw itter
Ġt age
Ġv ict
ut t
ste in
Ġpart y
Ġsozial e
Ġreg ierungen
griff en
Ġverpf licht
Ġgru ppen
Ġw rit
Ġhal f
Ġcorre ct
Ã¼tz t
richt ungen
Ġopt ions
Ġconne ction
ach sen
Ġvor handen
Ġille g
Ġfor est
ain t
Ġreg ular
Ġallgemein en
Ġsat isf
l ant
Ġgl Ã¼ck
Ġsuccess ful
wÃ¼r d
Ġges tellt
Ġlad ies
l i
er ve
Ġ5 00
Ġsu chen
Ġalle in
Ġbe kommen
Ġwas te
Ġ3 1
Ġgenie ÃŁen
b ung
Ġaus fÃ¼hr
Ġsch n
Ġgesch lossen
Ġter m
ĠÃ¼ br
h y
l en
Ġselbst verstÃ¤nd
Ġgrund lage
Ġcomple x
Ġs ize
Ġk an
Ġricht ig
id ing
mÃ¤ÃŁ ig
Ġpublish ed
Ġp s
Ġ7 5
Ġconf ig
Ġerfol gt
Ġd raft
g ment
Ġver n
zie hen
Ġtreat ment
ass er
Ġs icht
Ġo il
Ġbe ant
Ġmo ve
Ġst o
Ġso bald
Ġ Ã¤hn
itz er
Ġf ail
Ġgrund s
Ġgemeinschaft s
Ġ @
ĠverÃ¶ffent licht
Ġr ich
Ġfur n
la v
Ġagre ed
dr Ã¼ck
Ġer ster
Ġkontro lle
Ġpr int
Ġachie ved
Ġvor auss
Ã¤ um
Ġzu g
asch inen
Ġdenn och
Ġw onder
Ġdim ension
kt iv
Ġan w
Ġbenef it
Ġs lo
Ġf Ã¶r
Ġan gem
an e
la f
Ġask ed
com ing
Ġer stellt
Ġdem on
Ġcor por
Ġru h
ov o
Ġbarcel ona
Ġequ ipped
Ġeff icient
Ġstim me
n es
Ġr um
letz t
Ġw enden
Ġh ot
m el
Ġter ra
Ġrel ig
be k
kl us
Ġrequ ires
Ġjul y
Ġg ast
u z
Ġla unch
Ġunternehmen s
Ġmon t
Ġvar i
Ġ9 0
g liche
Ġha ving
Ġfisch erei
Ġkontro ll
Ġmention ed
Ġsel f
Ġgenehm igt
Ġgrie chen
Ġw under
ab sch
Ġsom it
Ġam ount
Ġsum mer
ad s
Ġhig hl
Ġer r
Ġt or
ru f
Ġho he
alt ungs
Ġ7 0
Ġwe gen
l Ã¶s
Ġl iving
Ġkle inen
Ġpl at
Ġ 00
au pt
Ġpay ment
s b
ar a
Ġber at
b ack
Ġs ter
mb ol
Ġinde pend
Ġd inge
Ġb zw
Ġbe vÃ¶l
Ġelect ron
Ġtas k
Ġspe zie
Ġsupp orted
Ġern st
ĠtÃ¼r kei
Ġple as
gru ppe
Ġokt ober
Ġdire ction
Ġunters uch
p ut
Ġs atell
Ġn am
Ġveh ic
Ġd v
es te
Ġclos ed
Ġmonitor ing
Ġgegenw Ã¤rt
ĠverfÃ¼ gen
ier ter
Ġgew alt
ar ge
Ġaustr ia
Ġm ann
Ġen or
Ġverg leich
h ung
str ateg
Ġte x
Ġwicht iger
Ġdoc uments
h aben
w s
e an
Ġb ran
Ġgef Ã¤hr
stan den
7 0
Ġbo x
Ġru le
ko sten
ra d
Ġscha ffen
Ġzwe if
Ġgleich zeitig
Ġcir c
Ġtra gen
Ġtool s
Ġgeb iet
n issen
as on
Ġprote ct
Ġverkehr s
ll a
ab kommen
Ġer lau
Ġimpro vement
m ission
etz ung
Ġhand eln
Ġs inn
Ġall ows
ied r
Ġto ok
Ġver m
Ġsein em
den ken
ith er
Ġpar te
Ġcom bin
Ġdemoc ratic
Ġein heit
Ġge org
Ġmem o
al tet
Ġk Ã¼nft
Ġur ban
Ġl Ã¤sst
ĠentschlieÃŁ ung
Ġvize prÃ¤sident
us es
Ġdank en
wo hn
Ġstim men
a fen
Ġim pos
- ,
Ġmen sch
iter ran
Ġvertrags verletz
Ġgent lemen
art ige
erv ice
our cen
Ġaut o
un a
at ure
re chts
cri ption
Ġanf ang
Ġauf ent
Ġro und
Ġdat ab
Ġverk auf
Ġs and
it able
Ġk al
te id
wor ks
spro zess
p ack
Ġst unden
Ġbr ief
s on
ic ien
sch t
Ġer mÃ¶glich
Ġdr ing
Ġtages ordnung
ru g
Ġthrough out
l auf
Ġmein en
ind ust
Ġwo chen
Ġausgest attet
Ġelekt ron
Ġbrow ser
Ġk it
Ġav o
x is
Ġf uÃŁ
Ġstar k
Ġfurther more
Ġfig ures
men ted
Ġtra ff
Ġzahl reiche
Ġsor gen
Ġan erk
Ġwirtschaft liche
ĠgewÃ¤hr le
ge f
Ġval id
Ġl aufen
ad o
Ġdec ember
ak ing
os en
b all
Ġsupp ly
ze uge
Ġa ge
Ġt a
amm lung
Ġmore over
z y
it ure
Ġant worten
ĠÃ¤nderungsant rÃ¤ge
ĠlÃ¶s ungen
Ġe ast
ter min
Ġco ll
Ġsitu ated
Ġkre dit
Ġab end
Ġe ither
Ġ $
Ġk Ã¼r
Ġst Ã¤d
Ġex c
olog y
schlieÃŁ end
Ġact ually
amer a
Ġchallen ge
Ġan g
Ġko h
ĠselbstverstÃ¤nd lich
r is
Ġsim pl
Ġlang frist
ze ugen
Ġk il
ber t
bo ard
Ġg oo
em ploy
Ġprev ent
le ment
Ġg ot
Ġse x
Ġcas ino
Ġhumanit arian
Ġstr and
Ġann ual
w ise
Ġo s
an geb
Ã¤n den
Ġviel f
Ġmaterial s
ĠhÃ¤u fig
2 2
Ġg n
n al
Ġcomp on
Ġur spr
8 0
Ġtur key
an ten
Ġem issions
mit t
Ġide a
Ġf ru
ran g
Ġadv ant
Ġne igh
qu ir
st ru
os sen
ie te
Ġkon zentr
i ance
Ġs telle
Ã¼ hr
Ġcon cept
Ġkon kre
Ġverb indung
Ġspra che
Ġgree ce
f eld
wur f
8 6
Ġfre qu
mÃ¶glich keiten
Ġval ues
Ġm is
3 4
Ġpl ug
pl Ã¤tze
Ġstar ted
Ġhapp y
Ġbu ilt
rech end
k erung
Ġf le
ie llen
ter t
Ġpro per
Ġan p
Ġbe wer
Ġum st
Ġeigen e
Ġ4 30
Ġmen u
k raft
Ġl ag
Ġkr ise
ing er
Ġeinge hen
Ġruss land
c ol
Ġn a
la den
Ġchallen ges
5 7
ast ic
Ġauf grund
us ion
Ġvor gesehen
ru ch
Ġbr and
Ġre ich
Ġqu e
Ġzentr um
Ġex hib
Ġbei hilfen
v ious
Ġst age
Ġsupport s
Ġlea ve
Ġsug gest
Ġdecl ar
Ġcommit ment
Ġge k
ind ing
Ġbes tell
Ġmetho d
Ġm ang
Ġcontr ibution
Ġau gen
s v
ĠermÃ¶glich t
Ã¶ hn
sch w
Ġwo che
Ġwal k
Ġgood s
ĠvÃ¶ llig
Ġfra ktion
Ġper h
vers ion
Ġk rie
Ġcon text
Ġbe hÃ¶rden
Ġa ra
Ġbed arf
Ġjanu ary
Ġerfolg reich
Ġg d
Ġam ster
Ġnutz ung
Ġmeas ure
Ġunser es
Ġprocess ed
Ġb ot
Ġun e
Ġa ward
Ġi v
Ġim ages
h under
ill s
Ġco ok
Ã¶ st
Ġperh aps
Ġl ernen
Ġsec ure
con t
Ġex pected
Ġflex ib
id s
enn ung
Ġbetre ffen
l Ã¤nd
Ġbet roffen
Ġkommun ikation
Ġhat ten
ag ed
Ġgut en
Ġob vious
Ġstruct ural
Ġan zahl
Ġlebens mittel
Ġnah e
ill a
Ġtal k
Ġcapac ity
Ġver teid
eren ces
rit ts
p ers
r Ã¼
ĠheiÃŁ t
Ġcon dition
Ġlevel s
e es
er weise
Ġdeut sche
Ġgesam te
Ġtem per
Ġer gÃ¤n
Ġbesch rÃ¤n
ph as
Ġdiscuss ion
0 4
Ġter r
Ġcl ar
Ġquick ly
Ã¤ glich
Ġmat ters
in ter
am b
Ġeinz ig
Ġdurch gefÃ¼hrt
---- ----
Ġdate i
Ġcop yr
Ġann oun
Ġkommissar in
Ġlegisl ative
Ġassoc iation
kont ro
us h
Ġre ady
Ġf an
Ġin halt
Ã¤ te
Ġtradition al
Ġde fen
Ġpar ame
Ġag o
p an
Ġpict ures
ig ungen
Ġr ess
Ġgol d
el ves
Ġpartner schaft
Ġren ov
un sch
Ġd ir
cle ar
i us
i ately
Ġver z
Ġsc ience
Ġbesonder e
Ġaspe cts
Ġc aus
Ġverb unden
Ġsur round
Ġlead ing
Ġte ll
oun ts
Ġschl Ã¼ssel
Ġdra w
Ġein deut
Ġregard ing
Ġsit es
Ġtranspar ency
Ġz ul
d le
Ġsy mbol
Ġpop ular
Ġinfrastruct ure
Ġinterest ing
zeich nung
Ġ3 4
Ġsum mit
Ġflugh afen
Ġse i
Ã¤ chen
Ġbestimm te
qu es
wert ung
Ġhigh ly
Ġdez ember
p al
Ġi re
ri pt
ĠÃ¼ber wach
Ġintegr ated
Ã¼nd et
Ġw ays
Ã¶r per
Ġinstr uments
Ġd ail
Ġsh op
acht ung
Ġminim um
Ġaccommod ation
Ġmarket ing
ll i
Ġtechn ische
Ġphot os
Ġrele vant
Ġste ps
Ġeas ily
Ġsal es
Ġelect ric
k ur
it ra
Ġan satz
Ġlim it
Ġs ommer
Ġb ab
Ġcon ven
0 3
ac ed
Ġele ments
Ġac quis
d is
Ġb ir
Ġv en
me hr
p a
Ġw ritten
Ġdec ided
( )
Ġpl us
w ie
Ġk ir
Ġgro ÃŁer
Ġwork ers
Ġverbess ern
Ġdeta iled
Ġun ions
Ġamster dam
m at
stan ces
al le
mo d
Ġwirtschaft lichen
Ġm Ã¤n
Ġmaxim um
Ġthe ms
Ġapp lies
ĠzusÃ¤tz liche
bo x
Ġdail y
Ġreg eln
Ġminister s
Ġb at
Ġ199 7
Ġze igen
p unkte
ast rop
Ġcomp re
Ġthems elves
ien s
Ġgesundheit s
c s
ig lich
Ġpr Ã¤sent
forder ung
d ed
Ġimpro ved
Ġlangu ages
ĠhÃ¤t te
Ġled iglich
uss els
Ġover all
Ġo st
2 1
en ces
Ġzu frieden
Ġsp ir
Ġzweit ens
Ġmo vement
Ġp ages
Ã¤n gt
Ġ430 3
Ġ ram
an ces
Ġapp o
Ġwicht igen
Ġhome page
Ġvors itz
Ġsty le
Ġgriechen land
Ġganz en
spr Ã¤sident
Ġfrien ds
Ġanzu zeigen
f Ã¤
Ġex act
Ġgoo gle
0 9
Ġfin n
Ġtranspar enz
Ġmuse um
r ichten
at o
Ġindepend ent
s icherheit
Ġzu letzt
Ġ199 8
Ġacc om
lin es
Ġsw iss
pre is
indust rie
us st
Ġau dit
zeich en
es ch
Ġh Ã¶r
pro je
Ġsch iff
Ġ ult
Ġsa ve
ĠÃ¼br igen
Ġsozial en
Ġf on
ffe e
Ġsele cted
Ġre de
Ġ3 00
sprogram m
w ind
Ġm os
Ġber g
0 8
c ia
Ġbe in
Ġsele ction
Ġth umb
Ġausge w
Ġec u
or ial
Ġgrund legen
ur ance
Ġpres ented
Ġbereich e
Ġlar gest
icien cy
Ã¤ st
ck s
Ġobl ig
zus tellen
Ġseem s
Ġph ys
en a
Ġvertragsverletz ungsverfahren
ĠeuropÃ¤ ischer
anz en
Ġstre et
d ra
Ġa gency
ann te
he ad
Ġkonn te
Ġking dom
Ġan ne
ste ad
Ġbr ussels
Ġdirect or
s l
Ġs onder
Ġbe zahl
6 4
Ġbal ance
f a
Ġm un
Ġ201 2
Ġcl a
Ġbr Ã¼ssel
Ġconst ruction
Ġd rit
Ġakt uellen
Ġ ign
Ġfl Ã¼
leit et
Ġafr ica
ĠmÃ¤r z
Ġk reat
g han
u ed
Ġp as
ab on
h aupt
Ġzw ar
Ġbar ro
be zogen
er ien
Ġg ames
Ġfunktion iert
Ġverein igten
Ġpro b
or a
Ġkomm ent
Ġstand punkt
Ġrepres ented
Ġdeleg ation
Ġdemon str
s es
Ġbenutz en
Ġbeh ind
g round
Ġm as
Ġbes uchen
Ġworld wide
Ġvertre ter
Ġvor gehen
pr ession
Ġ201 3
Ġpop ulation
Ġpropert y
Ġbuff et
Ġrad io
fig ur
i ro
Ġrechts vorschriften
Ġin nen
Ġem phas
Ġconf lic
n ail
r ict
Ġ199 5
Ġbest and
Ġfl ash
Ġwebs ites
Ġbenef its
Ġcommer cial
Ġt u
Ġf uer
Ġexper ien
Ġreach ed
Ġjahr hunder
Ġ Ã¶ff
in ted
Ġw id
Ġr ub
ho use
Ġerw arten
Ġire land
Ġbe achten
Ġbeg innen
Ġital ian
Ġautomat isch
Ġtyp es
ĠkÃ¼ che
in form
Ġho hen
Ġschein t
le b
Ġamer ican
Ġinter ested
Ġangeb oten
Ġnah m
Ġpl ant
Ġcomp rom
Ġbl ue
Ġmicro soft
alt ungen
Ġaktiv ieren
Ġkons ult
Ġcompre hens
Ġs ache
w ander
ge gen
es tens
Ġin stead
Ġan ony
Ġk ategor
pe ctive
) ;
Ġaf ghan
Ġ199 6
Ġlis bon
Ġsp re
Ġimmed iately
hal f
Ġrest rict
Ġmed iterran
Ġricht ige
Ġtechnolog ie
ste lle
Ġthumb nail
Ġvertra uen
c ast
Ġrec ently
Ã¤ gen
Ġlo ve
strateg ie
ater al
Ġzeit punkt
Ġpro mote
Ġbed room
Ġgef unden
Ġjul i
ĠkÃ¶nig reich
Ġl ik
Ġd ang
Ġjour nal
Ġ ..
Ġlea ders
................ ................
Ġt ier
Ġver absch
Ġcl ient
Ġs ort
Ġm igration
Ġgen ug
s eite
y m
Ġamer ica
Ġinterest s
Ġcrit er
Ġwrit ing
net en
Ġchang ed
Ġl am
Ġser ies
Ġprin ci
Ġcopyr ight
Ã¤u de
ib ilities
Ġg a
Ġnach t
Ġfamil ie
Ġletz te
Ġdistr ib
Ġs mo
Ġun employ
ĠgrÃ¶ÃŁer es
el ines
ien te
Ġmein es
m m
Ġl iss
Ġheraus forderungen
Ġsolidar ity
Ġaufmerksam keit
Ġg ives
ich ert
et h
uch e
Ġkein er
ge ber
Ġer reich
Ġpo or
Ġkos ovo
Ġmult i
sto ffe
Ġunivers ity
Ġbe ds
Ġpurpos e
Ġin tell
bour g
Ġbrauch t
Ġc alls
Ġan z
Ġst ad
Ġvor liegen
Ġph ase
l s
Ġfo ot
Ġdr ive
il en
fahr ens
ĠgrÃ¶ÃŁ te
z one
iz es
Ġver ring
Ġpers ons
0 7
Ġdatab ase
Ġcon du
Ġerw Ã¤hn
0 6
ien z
Ġw an
or ge
Ã¼tz en
Ġleist ungs
Ġprep ared
Ġas yl
ziel le
Ġqu iet
am s
cc o
bo dy
Ġeigent lich
Ġtod ays
Ġeu ch
Ġge eign
Ġw ire
Ġbess ere
Ġstellung nahme
l ier
u rop
Ġwat ers
it ive
a ction
f i
Ġb ase
Ã¤m p
Ġzweit en
Ġcompetit iveness
Ġwebs eite
Ġstud y
Ġs etzt
Ġbe half
Ġse chs
co de
Ġtechnolog ies
Ġvol ks
en se
Ġmar ia
Ġ19 7
Ġ- -
imm ing
wh ere
l assen
Ġliss abon
Ġmach ine
Ġimple mented
Ġern Ã¤hr
m and
Ġkomp rom
Ġforsch ungs
Ġre cover
Ġvor be
Ġmount ain
Ġagr ar
b ook
Ġad vert
Ġmed ium
Ġschw ar
g as
Ġb and
Ġele g
Ġan trag
Ġrel ated
Ġbill ion
c d
Ġwettbewerbs fÃ¤higkeit
or k
Ġmar g
Ġter rit
Ġpol and
leg ung
ĠÃ¤uÃŁer st
Ġh om
Ġequ al
Ġbestimm ungen
Ġdeliver y
en der
Ġe p
Ġeinz ige
Ġp il
az a
Ġmein em
ĠhÃ¶ he
Ġoff iz
bar keit
m eld
Ġm ission
Ġf ine
Ġdi pl
Ġsch en
Ġm ix
ent ur
Ġatt ack
Ġland es
Ġfinanz ierung
Ġverg essen
komm ens
ĠÃ¤nder ung
Ġprinci ples
ze ch
Ġappro ved
Ġangem essen
hand el
org ung
20 10
Ġmich el
il it
Ġho ff
Ġwik itra
k n
Ġallow ed
Ġvot ing
Ġverb ind
Ġverbess er
h ab
Ġverw altung
Ġwikitra vel
Ġp ath
Ġl iz
Ġr ue
ent lich
Ġum gebung
olog ical
Ã¤u ft
eu ro
Ġreserv ation
Ġkol leg
Ġbeginn ing
e ff
ach ed
Ġeinges etzt
m as
Ġactiv ity
Ġbut ton
Ġd ritt
Ġin f
Ġmy s
Ġe y
Ġl ate
ver age
Ġl isten
Ġfeat ure
Ġe hr
Ġspra chen
Ġf ab
Ġ9 9
Ġbal d
on nen
Ġf ant
Ġh all
ar es
Ġsu p
Ġspe zif
Ġbo ot
Ġpl ans
Ġcol our
ĠerhÃ¤lt lich
Ġun ten
Ġjanu ar
Ġzo ll
Ġeffe cts
Ġappe ar
ic ated
Ġget an
Ġdate ien
3 1
Ġj Ã¤hr
Ġde ep
ne y
Ġyour self
Ġgo es
zeit en
Ġbehand elt
a el
Ġfir ma
pf er
Ã¤l ter
Ġbeispiel sweise
Ġstr ess
ĠfÃ¶r dern
s ie
ch sel
ra hmen
Ġmajor ity
Ġmid dle
Ġd ise
Ġaspe kte
Ġsecond ly
fre und
end es
Ġconsider ed
Ġautomat ically
Ġsen se
ĠvollstÃ¤nd ig
Ġz ivil
ĠwÃ¼n schen
fl Ã¤che
y ch
g ern
Ġein fÃ¼hrung
Ġin it
Ġben ach
Ġpa ar
Ġredu ce
Ġd essen
Ġverein fach
Ġverbess ert
b as
fol ge
Ġerst ens
a ult
g n
Ġyo uth
l ose
Ġth ough
Ġb inding
Ġdec or
Ġth o
Ġprodu ktion
Ġel se
i ber
syste me
ĠgrÃ¶ÃŁ ten
Ġinstitution en
Ġf as
Ġnach bar
Ġbr ingt
ĠlÃ¤nd lichen
Ġneigh bour
Ġdes crib
Ġpol en
Ġdis p
Ġatmosph ere
Ġdom in
Ġinter pre
Ġcol or
Ġp un
Ġsett ing
Ġbusiness es
Ġcru cial
Ġnu clear
ĠbegrÃ¼ ÃŁt
c ement
Ġfinan cing
Ġnational e
Ġkor re
Ġcl ients
Ġemploy ees
ĠfÃ¤ llen
Ġc ards
ul a
Ġamer ikan
i ated
or den
Ġv ac
um in
re gel
ro chen
Ġk enn
Ġherr en
Ġcom ing
Ġdeut schen
gre ifen
Ġbundes minister
w ill
Ġherz lich
Ġt ut
Ġparliament s
z ent
Ġver stehen
a ffen
Ġbe ob
em b
Ġs qu
al ter
Ġra pid
Ġpo ker
Ġzwe ck
an lage
b it
Ġauf bau
Ġuse ful
spr Ã¼
t a
Ġapp lied
Ġsw imming
Ġeff iciency
Ġf ill
iv ity
Ġle isten
leist ungs
Ġwr ong
Ġt au
Ġaktiv itÃ¤ten
es ter
Ġk ennen
Ġscient ific
Ġc zech
Ġn iedr
Ġfiel ds
if ik
Ġsomet imes
Ġanalys is
Ã¤ ger
Ġup gra
Ġsol chen
Ġange geben
Ġconst itution
Ġcontrib ute
Ġassess ment
Ġa cht
sp ort
Ġs ale
Ġrel i
Ġadministr ation
Ġfish ing
3 6
v olle
Ġc os
Ġconsult ation
Ġinfrast ruktur
Ġsho pping
n um
Ġprov isions
Ġtho ught
Ġkos tet
Ġcomprehens ive
z we
Ġdo ll
Ġflex ible
al er
v in
Ġgu ide
Ġrece ption
sch reit
Ġtranspar ent
Ġsp ac
Ġreform s
richt linie
Ġan forderungen
Ġun er
Ġj Ã¼n
her lands
Ġguid elines
2 8
Ġto uch
Ġcon ver
Ġstabil itÃ¤t
Ġvers uchen
Ġwell ness
Ġlo b
Ġmenschen rechte
Ġtour ism
Ġf el
Ġer f
Ġo ben
Ġerfahr ung
Ġeinger ichtet
Ġb ade
Ġpict ure
Ġbe ge
Ġgr enzen
ieren de
end et
Ġm aster
ver trag
Ġv ul
Ġsport s
Ġkann st
Ġst il
Ġur laub
Ġze hn
leist ung
Ġmilit ary
Ġple ased
Ġkont in
b ased
Ġerw artet
Ġscre en
e ch
Ġ ]
g ere
Ġcat alog
ge hend
Ġkam pf
ĠbevÃ¶l kerung
Ġd age
Ġe ch
se ktor
iel t
Ġorganis ations
Ġg Ã¼nst
ad resse
Ġstruct ure
u ert
ol id
ert ain
t est
k m
Ġb ahn
Ġbe hoben
ar ily
ogra f
Ġprior itÃ¤ten
entwick lung
Ġre pe
Ġad resse
Ã¤m t
Ġwat ch
Ġstellvertre ten
Ġd auer
Ġcent ury
Ġwelcom es
Ġal one
m Ã¤r
Ġvill age
Ġb ay
Ġinter essen
Ġte ach
Ã¼ck en
Ġ0 2
Ġmad rid
re ise
Ġwe ak
Ġcarr ied
Ġ3 6
Ġren ew
Ġspra ch
an de
Ġenterpr ise
Ġan gaben
fÃ¼ gen
Ġspan ish
Ġcolle ction
Ġinstitution al
Ġal b
ut r
sen s
organ isation
th eless
Ġje an
Ġumf asst
Ġ essen
Ġan str
Ġtour ist
Ġdipl om
Ġpra g
Ġpass word
w ood
ent al
Ġany thing
ous ly
Ġg all
Ġstud io
Ġnever theless
Ġschaff ung
Ġvis ion
Ġfolgen der
Ġw ine
Ġreal ity
Ġnet herlands
Ġgere cht
Ġrum Ã¤n
Ġc andid
Ġallgemein e
Ġregister ed
s am
w esen
Ġs ession
Ġk Ã¼nst
kt ive
Ġconst ant
Ġexce ption
Ġdiskuss ion
Ġvor teile
Ġus ually
sche ch
sta ats
Ġfrank f
Ġdeclar ation
n ungs
Ġdam en
Ġc ause
Ġbe fÃ¼r
Ġcontra ct
Ġun bed
Ġnot es
Ġerziel t
Ġm m
Ġc entr
Ġinter ior
Ġgener ation
Ġiniti atives
ad es
Ġl ies
Ġdes cription
Ġad just
Ġoffer ed
le ge
Ġwe in
Ġentscheid ungen
k auf
Ġco hes
Ġkom bin
verkehr s
Ġsu ite
Ġcoun ter
Ġerste llen
Ġstra ÃŁen
c omm
Ġp ension
il itÃ¤t
Ġfir m
Ġdisk ut
Ġcongratul ate
Ġson st
f ter
Ġauf trag
he ben
Ġdurch fÃ¼hrung
Ġur g
h op
id ge
Ġother wise
Ġerne ut
Ġfebru ary
itzer land
Ġver halten
Ġl ower
ion al
Ġaus druck
itÃ¤ re
ĠbegrÃ¼ ÃŁe
Ġer d
Ġer ach
zie ht
Ġlie be
Ġbank s
Ã¤n gen
Ġplat form
Ġd ub
Ġjo hn
n ungen
ak ter
Ġmanag er
Ġgrenz Ã¼ber
Ġrem ov
Ġnor m
Ġd au
Ġzu ver
l ds
id ung
Ġpe ter
en te
Ġco sta
Ġcre ation
em it
Ġpo ll
Ġaufent halt
al led
ich erung
Ġwe e
wer te
Ġins el
Ġspiel er
Ġdage gen
Ġb os
at a
e ben
Ġth in
Ġla den
h ere
tr Ã¤ge
man agement
Ġkennt nis
ĠhÃ¶ her
2 7
Ġgleich en
Ġsepar ate
re ten
Ġer s
Ã¼h ungen
leit ung
Ġcriter ia
k arten
Ġp urs
Ġsp o
Ġind em
Ġtr end
Ġgew orden
Ġkult ure
ot he
Ġim pl
Ġpract ical
Ġst rom
Ġvar iety
Ġser b
Ġmich ael
Ġin quir
Ġun gar
icht lich
Ġproceed ings
Ġelectron ic
Ġbed Ã¼r
Ġinit ial
er c
Ġdevelop ments
Ġs Ã¤mt
Ġcons ist
Ġbelie b
Ġprogram ms
Ġbeg in
b and
Ġm i
Ġverw altungs
Ġdefin ition
zieh ung
Ġparticip ation
ĠstÃ¤nd igen
Ġde ath
w asser
Ġh Ã¼
Ġpra xis
Ġs auber
yste m
ken nen
i kt
Ġredu z
Ġobs erv
ak te
Ġauf gaben
Ġaus schlieÃŁlich
Ġlin es
Ġt schech
Ġme x
Ġnet works
ic it
qu em
Ġprodu ced
Ġge fÃ¼hrt
Ġ20 20
Ġcar ry
Ġde termin
Ġregul ations
Ġdi ag
Ġcohes ion
Ġkap ital
Ġi l
ĠnÃ¤ch ste
Ġinvest itions
Ġmed ic
Ġoper ational
Ġide as
Ġadministr ative
Ġplay ers
ov a
in ed
Ġkomple tt
it ch
Ã¤s ser
Ġinde x
Ġcomprom ise
j o
Ġdiscuss ed
4 9
Ġvor her
Ġoper ating
Ġspac ious
Ġal p
Ġhigh est
Ġg ip
Ġbetrie bs
Ġress ourcen
Ġprodu z
ator en
Ġarran gement
Ġstart ing
Ġstaat liche
l ass
Ġv ital
Ġsu d
co pe
Ġte ile
Ġteil en
kt ions
Ġsch ritte
Ġro b
Ġangelegen heit
utz er
3 8
o le
ome ter
Ġspeak er
Ġsubst ant
Ġengl isch
Ġl ake
iz in
statt ung
Ġfor ms
Ġde ine
Ġgro ss
37 9
Ġb ucht
Ġzentr ale
Ġnachhalt ige
Ġl t
Ġfit ness
Ġw and
Ġwind ow
vert y
Ġtr ust
Ġstrateg ic
d ies
Ġgem Ã¤ÃŁ
Ġentsp rechend
Ġregistr ation
Ġb ern
ie b
Ġge Ã¶ffnet
gr Ã¶
Ġw ild
Ġl icht
Ġj em
akt iv
Ġcolle ag
Ġcomp os
Ġwo ll
Ġdec ide
Ã¼ hren
Ġdes p
Ġsu itable
Ġac ce
c ar
c ul
Ã¤m lich
Ġm ik
Ġfor mer
pp er
Ġsur ve
Ġbe y
ie de
Ġwor lds
Ġmys ql
Ġsch reiben
Ġpack ages
Ġplann ing
Ġn Ã¤mlich
Ġref erence
Ġd ritte
res p
du le
forder t
Ġpa id
Ġitem s
k Ã¼n
Ġo k
Ġv ent
Ġk Ã¶rper
on om
Ġpo verty
Ġbestimm ten
ĠbÃ¼ ro
Ġd ut
ad em
Ġor ient
Ġrev olution
ie ter
Ġfot os
Ġregel ung
Ġmar it
ud s
Ġterra ce
l am
Ġkon fl
Ġk y
Ġsch m
Ġch ann
rei ber
Ġunemploy ment
gen e
me er
Ġgleich e
Ġm Ã¼n
Ġpl aces
Ġentwick eln
Ġheraus forderung
Ġhinter grund
Ġtraff ic
Ġh uge
Ġch am
ank en
Ġpat ent
Ġzie hen
Ġpak et
Ġ ig
r ary
Ġwer te
Ġbes itz
Ġmin ute
por ary
Ġkon zept
Ġprote cted
Ġein zu
Ġvide os
on ia
Ã¤n e
mo bil
a ff
Ġbehand lung
ĠbenÃ¶t igt
Ġa ware
Ġc ame
Ġam t
lichkeit en
9 7
w ers
Ġaus reich
ang s
Ġcorpor ate
in den
Ġf akt
ge geben
Ġavo id
Ġbe quem
Ġfam ous
Ġaccess ion
Ġacce pted
Ġhe ar
Ġredu ction
Ġkomple x
Ġforder t
Ġmain tain
Ġarchite ct
Ġdefen ce
Ġsw itzerland
Ġexp ert
Ġ ).
Ġund ert
Ġgeeign et
Ġbarro so
ĠjÃ¼n g
Ġwee ks
w Ã¼n
Ġmult il
Ġverpf lich
ge fÃ¼
l ad
est ic
Ġvor aus
Ġdam age
Ġgut es
Ġfahr en
Ġkm u
ĠzusÃ¤tz lich
Ġco ast
Ġar m
Ġm Ã¼
Ġresp ond
Ġopen ed
n s
Ġw ood
Ġz unehmen
Ġab geschlossen
Ġsol ar
Ġimpro ving
Ġmanufact ur
Ġpat ient
Ġwort h
f Ã¤lle
Ġwire less
Ġw ol
wal d
2 6
Ġfirst ly
Ġgelegen heit
Ġpress ure
Ġentsprechen den
h le
Ġexam ples
Ġste el
Ġgen ommen
sel ves
Ġmain ly
Ġe w
Ġvor gelegt
Ġtest s
utz t
Ġfr esh
Ġopen ing
Ġa lex
Ġschem e
Ġzu griff
Ġtra g
ĠĠ ĠĠ
ut ive
mÃ¶ glichen
ifiz ierung
Ġtrotz dem
Ġspir it
Ġlo st
Ġrep ly
Ġtransl ation
Ġabgeord neten
aussch uss
Ġschrift lich
_ _
n el
ieren den
Ġ201 4
Ġii i
Ġarbeitspl Ã¤tze
Ġd ol
Ġtra ding
Ġerlau bt
Ġback ground
ĠbegrÃ¼ ÃŁen
k ap
Ġy ork
Ġho ur
Ġconf irm
Ġred ner
Ġw unsch
Ġv at
Ġhinsicht lich
d as
Ġver stÃ¤nd
Ġhal te
Ġsal z
Ġfarm ers
Ġanstr eng
d ire
eit s
Ġse ason
Ġbeit ragen
Ġbeit ritts
kommissar in
p ool
ha gen
. ,
ang t
Ġprem ier
Ġerach tens
is a
Ġm alt
Ġcamp a
ik er
Ġse ctors
Ġsh ip
Ġchar ged
Ġschl Ã¤gt
clud ed
h ood
Ġb ag
Ġer hol
Ġdan ach
Ġze ichen
Ġjeder zeit
it ation
ĠÃ¼ber haupt
Ġco re
Ġen han
Ġall oc
Ġ15 0
Ġafghan istan
Ġd istance
Ġf en
Ġden ken
Ġma x
Ġmilit Ã¤r
h ow
ur a
Ġgovern ance
Ġentsprechen de
gru ppen
Ġaus s
Ġsu che
Ġscha den
5 5
r as
Ġreg ime
los igkeit
Ġer wer
ru gs
com es
Ġheut igen
t te
Ġw lan
Ġprin zip
Ġmoder ne
Ġ199 4
Ġbegr iff
Ġdring end
Ġs ach
Ġun z
Ġber u
ateg ory
Ġnieder lan
Ġkit chen
Ġhe im
Ġqu ant
Ġcustom s
in ner
Ġp ain
Ġre ag
Ġde ad
Ġanony mous
Ġs org
Ġkl ass
Ġmode ll
el ie
ens ive
Ġmediterran ean
Ġcampa ign
Ġth reat
Ġmon ate
ĠwÃ¼n sche
ict ion
ust r
Ġber ichte
Ġhin weis
Ġcommunic ations
Ġre formen
Ġlin ie
Ġin sp
Ġar mut
wo hl
Ġabsolute ly
Ġver me
Ġgeb rauch
Ġeng agement
u erung
Ġun mittel
Ġfinanz ielle
Ġprocess es
str Ã¶m
op h
Ġc ell
imm ern
Ġtele phone
Ġir land
Ġoper ations
Ġb ott
il es
Ġvisit ors
Ġbey ond
Ġl it
am ing
ul s
Ġredu ced
Ġkon stru
Ġsur pr
ĠzustÃ¤nd ig
n etz
Ġserv ed
Ġerw achsen
Ġver t
Ã¤n ge
Ġad a
Ġprodu ce
Ġbegr enz
Ġmetho ds
Ġer leich
Ġer eign
Ġprior itÃ¤t
Ġmind estens
w agen
Ġro y
Ġentsp richt
w el
ow ers
Ġeindeut ig
ib e
for dern
Ġele ctions
Ġerfol gen
Ġfrankf urt
Ġd ich
Ġsign al
Ġein richtung
Ġpol y
Ġbetr Ã¤gt
Ġt agen
fl uss
Ġcro at
r ies
Ġf Ã¤h
Ġg ern
Ġges che
Ġa verage
st ar
Ġbro ught
Ġpan or
Ġsuff icient
Ġdis co
Ġinvest igation
Ġrelations hip
a pe
il s
Ġbem Ã¼hungen
Ġver zeich
Ġprov ider
Ġfest ival
sch ul
Ġkon figur
Ġgrow ing
n ach
Ġw ed
Ġw eder
Ġconc entr
Ġs ong
an nen
Ġgo al
ĠprÃ¼ fen
Ġurspr Ã¼n
it el
Ġver sp
Ġer g
Ġbo den
Ġmed ical
part ner
men te
fin anz
Ġvis a
c ard
Ġkl im
Ġd ed
ĠÃ¼ber zeug
Ġum gesetzt
Ã¼s s
Ġmehr heit
Ġauthor ity
schein lich
Ġd Ã¤n
gend es
b Ã¼
ĠÃ¼ber nahme
ĠerklÃ¤r t
Ġread ing
auft rag
Ġhor iz
g Ã¼lt
Ġges pr
Ġhe av
Ġsolidar itÃ¤t
Ġsubsid iar
ĠfrÃ¼ her
Ġver ste
Ġal ter
Ġprogram s
la w
at is
ell schaften
Ġp ed
Ġdv d
qu alitÃ¤t
Ġcop y
Ġsem in
e v
Ġj os
Ġconfig ur
Ġexact ly
Ġprofit ieren
or ies
Ġhoch wert
Ġun be
Ġ Ã¤lter
Ġs le
Ġb ol
Ġn ic
Ġdaten bank
ĠtÃ¤t ig
ak es
4 4
ab or
Ġhuman itÃ¤re
Ġtal king
ist ische
Ġfun ctions
Ġander er
Ġsteu ern
Ġcont ro
asch ine
Ġc ategory
Ġer leben
Ġzeit raum
Ġeffiz ient
Ġprocess ing
ĠverÃ¶ffent lich
te le
Ġge fahr
Ġin fo
Ġbericht s
ump ing
and a
p ak
s et
Ġmor ning
Ġara b
2 9
Ġsu ites
Ġt ief
Ġus es
geb iet
Ġsch laf
Ġfir men
Ġarg ument
Ġwesent lichen
Ġcover ed
Ġsn ow
Ġan nahme
Ġjeweil igen
k or
Ġinter face
Ġsc ript
Ġcontin ues
Ġmon at
Ġbor der
Ġglo b
Ġbeschl uss
Ġleg it
Ġfl or
Ġbesch reibung
zus ch
Ġdef ault
Ġbe wertung
Ġtechn ischen
k el
Ġer sch
kon om
Ġh inge
sp art
gen de
Ġmeet ings
Ġtax ation
Ġmart in
Ġt Ã¤glich
Ġs i
re ci
Ġpre fer
] ]
Ġins ide
Ġk arten
be hÃ¶r
Ġ[ [
Ġwal king
Ġf ul
Ġjav a
Ġfrei heit
Ġverantwort lich
Ġterror ismus
Ġl iter
Ġbon us
j en
ie ll
wer ke
Ġanim al
Ġbe ein
Ġge le
Ġka um
Ġinter vention
Ġrun ning
Ġunbed ingt
c ure
Ġa qu
Ġgesch m
w ahl
ad or
Ġviol ence
Ġprov in
Ġwichtig ste
Ġausge zeichnet
Ġupd ated
Ġkat astrop
Ġfil ter
Ġcompon ents
Ġfon ds
il ien
ib r
Ġyou ll
ick s
schl ossen
Ġins urance
Ġkro at
Ġf u
cre te
Ġconst it
p ap
Ġver wir
hand els
Ġi b
Ġra ised
Ġgeb Ã¤ude
in iti
Ġon es
ĠhÃ¶ch st
Ġl ives
Ġconf idence
Ġpa ul
Ġbelg ium
Ġterror ism
ct ing
Ġmin i
p ass
st immung
Ġno on
Ġ0 1
d own
Ġour selves
Ġman ch
Ġrom ania
ĠernÃ¤hr ung
Ġm ig
ste uer
Ġhol z
Ġset s
amp ag
Ġatmosph Ã¤re
Ġal ten
Ġent ry
Ġglau ben
a e
Ġmon aten
Ġfest gelegt
ĠerfÃ¼ llt
Ġgesch affen
Ġl auf
Ġar ten
Ġregion ale
ca pe
ist a
Ġtr ip
Ġlearn ing
Ġcompetit ive
at ible
Ġj ac
Ġge h
Ġfac ilit
Ġpark plÃ¤tze
Ġgr Ã¼nd
Ġrom e
Ġschwer punkt
ĠÃ¼ber w
Ġmin or
Ġstar ts
Ġbrit ish
Ġanstreng ungen
Ġsp ring
Ġhos p
Ġo mb
Ġbesch lossen
Ġstar ten
Ġspiel t
Ġbenutz t
Ġsup erv
l ast
t v
Ġempfehl en
zentr um
Ġtick ets
Ġsatell ite
Ġso le
Ġsh ower
Ġliz enz
Ġprov ision
Ġdaten schutz
Ġprodukt ions
re l
Ġverabsch ied
Ġch air
ben utzer
ian o
fr ont
Ġze ich
Ġnie mand
Ġer Ã¶r
Ġmehr eren
Ġps ych
Ġf ly
Ġre con
Ġposs ibility
Ġdies be
par k
stand ing
Ġear th
Ġkontakt ieren
ĠtÃ¤t igkeit
m ess
et ten
il er
Ġsy m
Ġanim als
b rit
t ained
Ġt ack
Ġcr ime
ĠberÃ¼cksicht igt
Ġd un
ion e
fÃ¼hr er
Ġadopt ion
y er
Ġqu ot
Ġwieder hol
ĠauÃŁer halb
Ġcommit ted
Ġch an
euro pe
r ik
pp ed
Ġgeb racht
ĠpersÃ¶n lichen
it ude
Ġab ruf
Ġvers ions
Ġanne x
Ġass ist
kon ferenz
Ġmarit ime
Ġn ahr
Ġge ist
Ġbel ar
Ġinfl ation
Ġweiter er
Ġhard ware
Ġsa v
Ġnum erous
20 13
Ġfound ation
Ġfre m
Ġur teil
Ġpal ace
Ġhaupt s
Ġm u
Ġpropos es
Ġp fl
Ġein schlieÃŁlich
ist ischen
igh ted
Ġira q
at ively
ra y
Ġent gegen
Ġmach ines
Ġgar ten
Ġempfehl ungen
Ġle ute
Ġimm igration
Ġth ous
Ġ19 6
Ġspezie ll
Ġrepres ents
g ers
ich ern
Ġarbeit nehmer
Ġwen ige
Ġkonn ten
Ġvehic les
Ġver urs
Ġmon et
Ġaffe cted
Ġro ute
Ġget roffen
Ġmob ility
Ġupd ates
Ġex erc
Ġnot ified
an lagen
Ġfunktion en
Ġomb uds
Ġc ities
Ġwan ted
Ġex ter
Ġanges prochen
4 8
u be
Ġc ant
Ġris ks
Ġstellvertre ter
Ġp or
Ġk ore
Ġrepresent atives
h am
en ze
Ġcurr ency
Ġfunktion ieren
2 000
Ġgem Ã¼t
Ġwel ches
Ġle hr
Ġbetrie b
Ġsp l
Ġinst alled
Ġzuver lÃ¤ss
ie ht
Ġmem ory
Ġcoordin ation
st Ã¤t
Ġdiff erence
Ġrequest s
Ġvorbereit ung
b Ã¼r
Ġs enden
bar er
Ġqual itÃ¤ts
zw ischen
Ġluxem bourg
kÃ¼n fte
Ġe dition
Ġge pl
Ġparte ien
Ġd ram
Ġpl en
200 9
Ġdepart ment
Ġgesche hen
9 6
Ġtr Ã¤gt
Ġbed ro
Ġstud ents
Ġste ts
hl t
Ġre icht
Ġne in
Ġvor haben
Ġsm es
off ice
Ġconflic t
Ġab hÃ¤ng
Ġges prochen
Ġcr imin
ĠstÃ¤r kung
ĠentschlieÃŁ ungsant
Ġentde cken
Ġp in
Ġb all
Ġbe weg
qu ate
Ġrat sprÃ¤sident
Ġmed izin
Ġfebru ar
a der
Ġada pt
Ġe her
Ġge gr
Ġunterschied liche
Ġeleg ant
Ġsubstant ial
ar ia
de p
Ġapp reci
Ġerfahr ungen
Ġver hÃ¤lt
Ġan gel
Ġ4 8
Ġentwick lungen
Ġprob ably
Ġerforder t
u a
Ġgew inn
br ingen
Ġan teil
Ġob st
Ġmot ion
Ġedit ed
p ol
Ġa head
Ġe hem
Ġein wander
Ġout come
Ġfall en
f ree
Ġg Ã¼lt
licher weise
Ġtick et
Ġn Ã¶t
Ġobvious ly
Ġk auf
Ġges etzt
Ã¶r t
Ġcar s
Ġh ans
Ġst ore
ĠÃ¼ber nehmen
Ġgew Ã¼n
tre ten
Ġverb reit
Ġrecommend ations
Ġbab y
Ġal te
Ġsa una
ĠÃ¶ k
Ġs ad
Ġpay ments
Ġstor age
drÃ¼ck lich
Ġadvant age
l as
ag o
we ll
Ġconven ient
a cc
k y
Ġk rank
Ġgr Ã¼
Ġnumber s
ĠprÃ¼ fung
Ġ199 3
Ġvertre ters
Ġpurch ase
Ġein st
Ġarbeit et
Ġrem ember
Ġander es
Ġpleas ant
ĠgrÃ¼n de
Ġaus t
Ġges ehen
Ġer mÃ¶glichen
Ġro ck
Ġun st
Ġsw eden
Ġbil den
ĠschÃ¶ ne
in ary
Ġgen annten
Ġlic ense
9 0
p ub
Ġber aten
Ġ4 00
Ġgegen seit
Ġakzept ieren
Ġcon crete
Ġbar n
Ġans wers
brit ann
Ġgrunds Ã¤tz
Ġinform ieren
Ġappro xim
Ġpriv acy
Ġmat ch
2 3
Ġaus gang
Ġaus bildung
Ġher zen
Ġdis pos
Ġgra f
Ġbeisp iele
Ġtas te
Ġk aufen
Ġbe hinder
Ġis o
ĠprÃ¤sident schaft
Ġch urch
Ġproto col
Ġdesp ite
ens ions
Ġaustr al
vere in
Ġsqu are
Ġabruf bar
gre if
Ġbulgar ia
Ġe isen
Ġadv anced
ar ies
tra gen
Ġdisc rimin
Ġluxem burg
Ġgo als
Ġsy r
z unehmen
im ed
Ġref uge
Ġbeginn t
Ġpar alle
Ġtour ismus
Ġnear by
Ġparame ter
ic ations
Ġr h
Ġgesch Ã¼tzt
Ġteil nehmer
Ġverpflicht ungen
Ġacquis ition
Ġspe zielle
Ġoff ens
ha fte
Ġcreat ing
Ġstatist ics
Ġand re
Ġpar ag
Ġl Ã¤nger
Ġclos ely
Ġentsch ieden
Ġ {
Ġst imm
isch em
Ġent re
Ġant on
Ġiniti ativen
Ġcirc um
ik ations
hol d
Ġim press
ug os
Ġ4 379
Ġm aschinen
ru ption
Ġfre iz
Ġsour ces
ĠkÃ¼r z
Ġc m
Ġg ift
Ġbudget ary
Ġdoub t
Ġilleg al
Ġund erg
em a
Ġco vers
Ġneg ative
b ett
Ġche ap
Ġvergangen en
n Ã¼
Ġer inn
Ġgraph ics
Ġb ib
Ġl oss
Ġkonkre te
Ġbe denken
Ġis lam
Ġschwier ig
b order
v ision
Ġhin blick
ĠstÃ¤r ker
en hagen
Ġc uis
Ġnot ice
Ġbar r
Ġapp arte
m es
Ġs cope
ive au
los s
Ġdeb t
Ġjud gment
Ġwr ite
Ġvereinbar ung
in ing
es c
wor tet
Ġchem ical
Ġconsequ ences
Ġstellvertreten der
ol o
Ġex t
Ġsyste me
Ġeven ing
Ġir gend
Ġpromot ion
is er
Ġn ames
Ġwel chen
Ġlab or
Ġlob by
c raft
Ġg i
Ġaus gaben
Ġlo ad
Ġprov iding
Ġwonder ful
4 7
Ġin halte
Ġ3 7
Ġgen utzt
Ġan lage
ger ufen
Ġpo ten
Ġvielf alt
Ġdiscuss ions
Ġbesuch er
l im
Ġo pfer
Ġent stehen
Ġco ol
Ġsin ne
Ġab schluss
Ġget ting
Ġ199 0
ste chn
Ġhol d
Ġdisk rimin
t ime
te x
Ġfisch ere
Ġcook ies
Ġa de
Ġf ro
Ġpress e
Ġbec ame
Ġb orn
Ġh it
ze ption
pl iz
hin dern
Ġson n
Ġz ert
sp er
Ġad r
eu rop
Ã¤r m
Ġstr ing
Ġphot ograph
un ion
Ġde pos
Ġnotwend igkeit
Ġaim s
Ġbelg ien
Ġwir ksam
Ġdes wegen
Ġsp r
Ġsett ings
ĠvollstÃ¤nd ige
Ġmanch mal
* *
Ġst ory
Ġhervor ragen
Ġauff assung
Ġis ol
Ġbank en
Ġocc as
s ervice
Ġen for
mo de
ipp ing
Ġab satz
Ġc ab
om in
Ġse k
Ġsch re
gew Ã¶hn
Ġve get
am in
Ġse ktor
Ġcontrol s
Ġenterpr ises
Ġmo v
Ġmo dule
end o
Ġvergangen heit
Ġkolleg innen
Ġrele ased
Ã¤ fte
Ġj ur
Ġab sch
Ġend lich
ĠgroÃŁ britann
Ġrom a
uff et
Ġocc ur
9 3
Ġge fÃ¼
Ġbar s
n ot
Ġs ays
Ġab schlieÃŁend
Ġeinfach e
Ġg ott
Ġira k
Ġpress emit
Ġb uchen
comm un
Ġw om
ent y
w eite
Ġcamp ing
ĠflÃ¼ cht
d ienste
v est
Ġchin ese
Ġcuis ine
Ġle gen
ĠbeschÃ¤ft igungs
ission en
Ġst uff
Ġuntersuch ung
Ġkomprom iss
Ġein igung
istr ibution
Ġbit ten
Ġha use
Ġbei hilfe
Ġ3 8
Ġherstell er
ĠrumÃ¤n ien
h re
Ġm ist
Ġan fragen
Ġmod els
g h
geb aut
rÃ¼ st
Ġbelar us
Ġste in
Ġcomple ted
Ġruss ian
Ġlis ted
ig em
sch rift
Ġform ul
Ġgener ally
Ġleit linien
Ġan mer
sch ung
ges tell
Ġvor rang
Ġsorg f
Ġwor te
Ġexp end
Ġangeb ote
ĠerfÃ¼ llen
Ġprepar ation
a f
Ġspe ech
date i
or ient
st ation
komm un
Ġintrodu ced
ĠÃ¶ff nen
Ġverpflich tet
it ten
Ġch ines
Ġent wurf
Ġwieder auf
ĠgrÃ¶ÃŁ ere
Ġmembers hip
Ġbew usst
Ġs au
Ġger ing
Ġdav id
n ern
w aren
us ed
Ġho ffen
ĠÃ¼ber setz
ze hn
Ġhe ard
Ġschw eden
Ġdev ice
Ġol der
Ġrecover y
Ġad ds
chn et
vor schlag
Ġhal b
ĠstÃ¤r ken
Ġkrit erien
Ġelectric ity
Ġun it
Ġpriv aten
Ġjeweil s
Ġevalu ation
Ġse ll
pro zess
syste ms
Ġmonet ary
de b
ĠÃ¼berwach ung
Ġw il
Ġst unde
Ġeuro s
Ġsch ed
Ġsk ype
Ġpro zent
Ġmoder nen
s u
Ġ5 5
Ġkat alog
Ġl en
th ough
techn ik
meld ung
Ġaus ger
Ġerweit er
Ġcrit ic
Ġricht linien
Ġexec utive
Ġextens ive
b ra
n y
Ġh Ã¤lt
al y
Ġco up
Ġus b
iel d
mar ks
Ġr iver
Ġgl ass
Ġmot iv
Ġbesonder en
Ġklima wand
Ġver he
Ġj ack
ĠprÃ¤sident en
Ġlea der
c as
Ġ0 9
Ġanges ichts
Ġsol d
Ġdom ain
ĠsÃ¤mt liche
Ġgeschm ack
p olit
Ġh art
Ġkl are
Ġsm art
Ġfound ed
Ġafr ika
Ġkro es
Ġc amera
Ġ1 000
Ġges p
mittel t
Ġadv ance
Ġgef Ã¶rder
Ġcare fully
Ġcroat ia
Ġform al
Ġverfol gt
Ġlo unge
Ġzahl ungs
Ġorganisation en
Ġincreasing ly
Ġanaly se
o st
Ġg ir
Ġander em
y ing
Ġd ienste
Ġl Ã¤uft
eit en
Ġfor get
id a
Ġexp and
Ġstand s
Ġ0 7
Ġtag ung
Ġehem al
Ġinfl u
Ġchin as
j an
Ġwar ten
Ġabsol ut
Ã¤us er
kontro lle
ĠbedÃ¼r f
5 6
bet rie
Ġsch Ã¼tzen
w an
Ġvers and
and o
Ġchar akter
Ġeinzel heiten
c an
Ġh t
Ġim mobil
Ġferien wohn
Ġh und
Ġconsider able
Ġm ur
Ġg ap
Ġre mo
Ġgu ter
Ġmechan ism
ist ics
Ġgesch ieht
Ġwahr scheinlich
Ġphil os
Ġd or
Ġschwier igkeiten
Ġhil fs
al a
Ġex em
Ġmin der
Ġcrit ical
Ġexclus ive
Ġexhib ition
Ġal though
ap pe
Ġimplement ing
Ġdev ices
Ġprem ium
Ġ #
Ġadvert ising
d orf
Ġein ver
Ġha ft
Ġdeliver ed
Ġkern el
an b
Ġn ations
Ġcor resp
o on
Ġo ly
Ġvol k
ifiz iert
Ġinterpre t
ap ter
ges etz
Ġcommit ments
Ġholid ays
Ġm p
Ġv iv
ip pe
Ġkon sequ
Ġtre ten
ich e
Ġarr ival
kom p
Ġencour age
Ġc ategor
Ġge e
Ġposit iv
ag a
Ġexper ts
Ġgent oo
Ġsicher lich
Ġappro val
Ġunter kunft
Ġtrans form
ĠÃ¶ l
wach st
Ġnetz werk
Ġmalt a
Ã¼t ze
Ġcy pr
Ġrechn ungs
Ġde le
Ġus d
Ġmen ge
Ġany one
Ġris iko
Ġhistor ic
Ġschen gen
Ġr ise
sp unkt
Ġtest ing
er a
Ġer ror
Ġfl at
Ġfol ge
enden ce
l og
Ġaspe kt
Ġwahl en
Ġbenach richt
Ġw inn
Ġme ter
Ġfre ien
pro ble
ĠprÃ¤ z
ĠerwÃ¤hn t
Ġqu ar
Ġha ut
ĠÃ¼ b
Ġhappen ed
ran ce
Ġsupport ing
Ġide e
Ġattra ctive
Ġrein for
Ġpurpos es
v i
Ġein richtungen
att le
Ġerschein t
sie he
re t
Ġbes eit
Ġhe il
Ġgen annt
Ġclass ic
v ak
Ġst ated
Ġhier bei
com p
Ġunst able
Ġg on
Ġj ung
Ġzu vor
be w
g ro
s arge
Ġcontinu ed
ĠlÃ¶ sen
lÃ¶s ung
ĠgegenwÃ¤rt ig
Ġ199 2
f ers
o ul
Ġfor dern
Ġgew esen
fl Ã¼
Ġv in
um n
Ġeas tern
Ġgarant iert
Ġz erst
op t
ake te
Ġflex ibility
Ġin zwischen
Ġst ake
Ġ3 3
av es
Ġoly mp
Ġw ander
ie ben
Ġwe ge
Ġal m
Ġprev ention
Ġer Ã¶ffnet
ĠÃ¼ber all
Ġdin ner
Ġeinzig art
ra ph
Ġer lÃ¤u
Ġle iden
Ġinvest ig
Ġdr in
Ġhistor ical
ĠhÃ¶r en
Ġvul ner
Ġweiter es
Ġdep end
Ġregel mÃ¤ÃŁig
ĠprÃ¼ f
Ġinc or
Ġcreat ive
ann e
Ġhe ll
Ġbeit ritt
program me
c or
Ġa st
Ġeuropean s
Ġcour ses
Ġmet ro
Ġli ft
ic ip
Ġco ffee
Ġentire ly
Ġrechn ung
d urch
d istribution
h u
Ġbig gest
Ġnahr ungs
h el
et ch
Ġr and
Ġtarget s
Ġne elie
Ġverfol gen
ĠgroÃŁbritann ien
an den
ed s
Ġein sch
fl ug
Ġsk ills
vers orgung
Ġpol ice
ĠgewÃ¤hrle isten
ch em
Ġf ein
Ġcomp ar
Ġspe ct
Ã¼h m
Ġpower ful
Ġserv iert
o und
Ġre ch
act ive
Ġparliament ary
Ġwant s
Ġbuch ung
le br
Ġbr ings
Ġass o
Ġanwend ungen
Ġgegr Ã¼ndet
in str
Ġh en
Ġzu ge
Ġinst ruct
Ġfinanz iellen
Ġsk in
verb ind
Ġd ienen
Ġdes kt
Ġbor ders
Ġn Ã¤h
Ġspeak ing
Ġalb um
om et
Ġk g
Ġbe gan
ul y
Ġge prÃ¼
Ġla ut
Ġwesent lich
Ġbem Ã¼
m ing
Ġa cts
Ġs agt
Ġadv ice
5 9
gr enz
Ġeinge fÃ¼hrt
ific ations
Ġbulgar ien
ĠverÃ¤nder ungen
Ġbos n
i at
Ġd ates
Ġser ve
Ġaccom pan
num mer
Ġaus zu
Ġgra du
Ġkroat ien
c ers
l Ã¼ck
Ġunter sche
Ġinform ed
Ġlib rary
Ġunterb rochen
Ġhung ary
Ġw et
el er
Ġexpl or
u als
Ġas pect
des ign
gÃ¤n glich
Ġpar ad
Ġat lant
Ġges chen
Ġfamil ies
bereich e
Ġberat ung
o be
Ġr as
be ziehungen
Ġfar ben
h erstell
produ kte
Ġdon ner
crib e
Ġsch lieÃŁen
Ġ19 57
schl Ã¤ge
Ġeas ier
Ġbe zÃ¼glich
Ġass emb
Ġkrie g
ver w
Ġgro s
Ġbeh av
ĠfrÃ¼hstÃ¼ck sb
Ġsus pend
Ġbat ter
Ġn ennen
ran s
ĠerhÃ¶ ht
Ġdies el
Ġgr atul
Ġ5 46
Ġbe comes
Ġde te
Ġconf ir
Ġson nen
Ġberichterstatter in
er zeug
Ġd uty
Ġprodu kten
Ġdom estic
Ġv ien
ish es
rÃ¤ fte
Ġp ure
Ġl if
ĠÃ¼berprÃ¼ fung
besch reibung
Ġth om
Ġres pekt
teil ungen
Ġtrans ition
Ġdig it
Ġterr asse
Ġcomm and
Ġab schnitt
Ġspec if
ĠnÃ¤ her
Ġis lands
iz ing
Ġparticip ants
Ġocc up
inst itution
n am
ĠgeschÃ¤fts ordnung
Ġdang erous
Ġw ien
Ġc er
Ġer kennen
Ġmark en
Ġplay ing
Ġbug tra
Ã¤mp fen
1 00
Ġg b
um ed
Ġex tended
ĠstÃ¤r k
ĠÃ¼berprÃ¼ fen
Ġcircum stances
on n
Ġent schlossen
Ġgew innen
Ġur s
Ġfac ing
Ġinstr umente
im b
Ġzust immung
Ġanerk ennung
Ġfen ster
Ġer Ã¶ff
Ġg ing
eit her
Ġherunter laden
Ġst ahl
Ġde in
Ġmag az
Ġgd p
Ġricht igen
ch tet
cy cl
Ġtechnolog ien
Ġsl ides
Ġlux ur
Ġbeteil igung
Ġaddress ed
ĠhÃ¶ch ste
k at
Ġmill iar
ĠÃ¼ber gang
Ġdo or
a ktion
ĠmÃ¶glich erweise
Ġse ven
Ġform ular
Ġfollow ed
ĠkÃ¼nst ler
l iste
Ġk urs
Ġder artige
Ġsh ops
Ġverl oren
Ġvol le
Ġbestehen den
Ġo d
Ġres idence
spra ch
Ġpak istan
Ġd us
Ġreg ierungs
Ġdel ic
Ġunivers al
Ġfer r
fu hr
Ġd ach
Ġro ll
Ġce lebr
Ġmass age
Ġremo ve
Ġas ia
Ġfol gendes
h ann
Ġn either
Ġintrodu ction
Ġvict ims
i ot
Ġdefin ed
om b
ass ungs
Ġstr ict
par l
Ġcas h
Ġpal est
Ġn i
Ġwork ed
Ġfis cal
spart ner
Ġentre pr
Ġlux ury
Ġartic les
Ġend gÃ¼lt
Ġpract ices
met ho
Ġkoordin ierung
Ġausreich end
Ġexpend iture
b ad
r ingen
Ġb lo
sp olit
Ġfert ig
ed ing
ers eits
staats sekretÃ¤r
Ġapproxim ately
Ġind ia
Ġdefin it
gen cies
Ġpal Ã¤st
Ġham burg
bÃ¼r ger
h ner
Ġab we
Ġide en
Ġparticip ate
Ġo m
Ġoppos ition
Ġsc en
ĠgroÃŁ es
att form
Ġregul atory
ĠgrenzÃ¼ber schreit
Ġinquir ies
Ġr asch
Ġfre ue
ĠhÃ¤t ten
Ġs ides
Ġear lier
Ġroy al
ĠgewÃ¼n sch
f assung
Ġwh e
Ġbemer kungen
5 00
go ing
Ġwa ffen
Ġc ra
Ġco oper
Ġmanag ed
Ġth urs
Ġin tended
Ġn Ã¼tz
Ġconsum ption
Ġappe ars
Ġyes ter
Ġhil f
Ġvirt ual
Ġcrimin al
Ġvis ual
Ġentsp annen
Ġarrangement s
Ġop ens
Ġrom an
kr ise
p m
Ġver ur
Ġ0 8
jen igen
Ġi con
Ġto urs
Ġmit einander
ran ken
ĠeuropÃ¤ er
Ġges pe
Ġfre ie
Ġacc ounts
Ġinvest ments
Ġposs ibilities
ify ing
on enten
Ġk er
Ġbel ong
Ġmult iple
Ġnatur ally
Ġpromot ing
Ġextens ion
z ig
Ġn ik
Ġdem ands
erv ation
iert es
Ġcons ists
Ġunterschied lichen
Ġeinges ch
c in
Ġd ient
te te
Ġnach dem
Ġkon z
Ġassemb ly
ac cept
Ġper cent
Ġstud ies
Ġstatt finden
Ġrail way
ĠflÃ¼cht l
Ġrele ases
Ġmind est
Ġentrepr ene
be hÃ¶rden
olog ische
Ġerne uer
d et
it ious
Ġim ag
Ġfinanz ierungs
Ġleist ung
date ien
Ġlaunch ed
mÃ¤r kte
d ok
ik al
Ġgeb ieten
Ġteil nahme
Ġpresent ation
inform ationen
Ġbugtra q
Ġs ap
Ġs amm
le hen
us ing
Ġfortsch ritt
ĠbestÃ¤t igt
Ġoffens ichtlich
Ġfal sch
s id
Ġb ip
Ġauth ent
et ragen
be griffen
m lich
Ġer as
Ġdel ay
Ġ201 5
ĠÃ¼bern achtung
Ġre je
Ġch at
sp ar
Ġcomb at
Ġengine ering
Ġpl aced
Ġp ick
Ġle b
imm ungen
Ġout put
Ġwel cher
Ġkommen den
Ġvorsitz es
Ġconfigur ation
Ġchrist ian
Ġveranst altungen
ĠÃ¼ber sch
e le
n or
le un
ge leg
Ġmet al
Ġdok umente
Ġestablish ment
Ġkommissions mitglied
Ġthin king
Ġungar n
Ġto ler
Ġsign ed
ĠgrÃ¶ÃŁ e
ĠstÃ¤nd ig
Ġdeskt op
ic kt
los en
Ġgl as
Ġherstell ung
be auftrag
Ġres erve
Ġwach sen
ĠpersÃ¶n lich
Ġmechan is
Ġbestand teil
Ġj unge
ien d
Ġfra g
Ġproper ly
Ġcandid ate
00 352
Ġs ar
Ġ6 5
ĠmaÃŁ nahme
Ġexpl an
Ġverf assung
Ġerheb lich
Ġlt d
m ot
hal tet
bet ten
Ġbarn ier
Ġ ul
et ic
Ġappro ves
klus ive
y le
is ierte
ro y
Ġr ig
Ġcomp ens
Ġrom ant
Ġnorth ern
Ġra ise
Ġcommun ities
vo llen
Ġli qu
f est
Ġgegen teil
Ġverl assen
Ġzweif el
i Ã¶
Ġun accept
Ġplay ed
Ġver fahrens
etz ungen
Ġvers ucht
Ã¤lt ig
Ġverme iden
Ġsh ared
Ġreg ards
wind igkeit
Ġz one
Ġwe i
Ġmehr wert
Ġgl ad
Ġport al
Ġown ers
Ġmor al
200 8
zus etzen
Ġjahrhunder t
Ġim per
Ġse kt
Ġstrengthen ing
Ġf em
Ġarg ent
Ġansp ruch
Ġrel ativ
Ġhoriz ont
Ġglob ale
z ub
Ġfru it
r um
Ġth re
Ġb ann
Ġl an
Ġal ban
Ġconst ru
Ġzu gÃ¤nglich
ers tellen
Ġgeb iete
Ġinstall ieren
Ã¤ ume
Ġpl aza
Ġdiff erences
Ġindustr ies
Ġhapp ens
Ġst Ã¼ck
Ġwe chsel
Ġent ertain
Ġcal cul
ĠgewÃ¤hrle istet
qu ality
li othe
w iesen
Ġk u
ing u
Ġkur ze
Ġw Ã¤ren
Ġdar aus
Ġover view
pre ise
ĠmÃ¤r kte
Ġgran ted
r ig
Ġ ;
Ġch osen
Ġvor teil
Ġumfassen de
. -
Ġn ationen
Ġthat s
Ġavail ability
Ġ199 1
Ġlangfrist ige
Ġlik ely
Ġpro di
Ġinter view
Ġdirect ory
Ġtar if
Ġrecommend ed
Ġurg ent
m aterial
Ġm ol
ak en
Ġfav or
Ġthurs day
Ġ Ã¤
Ġfact s
Ġinstall iert
Ġdonner stag
Ġgrund satz
Ġgol den
Ġwider sp
ĠÃ¼berprÃ¼ ft
Ġdro gen
ut s
de te
Ġmit te
Ġge ograph
Ġste igen
ĠeuropÃ¤ isches
Ġanp assung
eff iz
Ġc ry
Ġad obe
Ġ% .
Ġo sten
ak ten
Ġpl ants
hand lung
Ġorgan ised
Ġsk y
Ġkonzentr ieren
Ġt aus
Ġan sch
Ġele mente
Ġcolleag ues
ungs ver
Ġaccess ible
Ġmittel meer
Ġverteid igung
Ġd ritten
Ġt y
Ġb ang
ident ial
Ġmark ed
Ġwachst ums
Ġt ie
Ġwir ks
ind est
pl o
Ġinternational er
abil ities
ar io
Ġat tem
Ġfin de
Ġdi am
n d
Ġbr as
Ġconclus ion
Ġpop ul
Ġun ge
Ġact ual
Ġreli able
utz ung
Ġland wir
Ġwoll te
st ud
st ruktur
Ġre act
ten ance
Ġad ults
stehen den
Ġrefer red
Ġsub mit
200 1
inst all
Ġtr ial
Ġbesch wer
Ġbuild ings
r ate
Ġs we
Ġg iving
Ġlink ed
Ġverwir k
9 4
Ġa th
Ġsp richt
Ġnutz bar
Ġsay ing
Ġtas ks
Ġcypr us
Ġl ength
il io
Ġst ol
Ġgel angen
Ġpass wort
ĠgefÃ¶rder t
Ġunaccept able
Ġex cept
Ġdeta ill
ub a
Ġdurch schnitt
Ġglobal isierung
gefÃ¼ gt
Ġparalle l
Ġtelefon isch
Ġkategor ie
Ġgon z
Ġtra ve
Ġ4 7
Ġpeop les
Ġher gestellt
Ġlog o
r est
Ġveranst altung
mitt lung
ure au
Ġimmed iate
Ġf us
Ġber Ã¼hm
Ġsel ten
Ġmobil itÃ¤t
Ġausschuss es
Ġombuds man
Ġs aint
Ġin begriffen
Ġwith dra
Ġleist ungen
ĠverstÃ¤r kt
Ġdrit tens
Ġhaupts Ã¤chlich
at ik
Ġan lagen
Ġinst ance
Ġvers ammlung
Ġland s
go vern
Ġrent al
Ġ ue
Ġzu erst
Ġausge wo
Ġd al
Ġe b
Ġdes k
ail s
Ġpolit ics
Ġsozial es
Ġbestimmt es
Ġht ml
ĠÃ¤u ÃŁ
f ar
Ġh altung
Ġcre d
Ġteil weise
klÃ¤r ung
angeb ot
Ġcomp atible
Ġgo d
Ġakt uell
Ġsw itch
Ġregional en
Ġupgra de
yp ern
Ġnight s
Ġmeer es
Ġplann ed
es telle
ik ing
Ġeurop ol
Ġlim its
u ft
y ear
in os
Ġw ent
Ġrequ ested
Ġkin dern
Ġamb itious
l ern
Ġn ar
Ġbe coming
Ġmen Ã¼
Ġmess e
Ġbein haltet
r ich
Ġcon vin
Ġchar ter
Ġfar b
Ġoffer ing
Ġ25 0
Ġlaw s
Ġspre ad
Ġfor ces
Ġam az
b ur
Ġwichtig es
ĠpersÃ¶n liche
Ġd ry
Ġunter n
Ġglobal en
Ġgenehm igung
de x
Ġge kommen
Ġbesch leun
Ġzeit en
Ã¼ ste
Ġal umin
Ġsh ipping
Ġind ien
Ġget s
Ġflexib ilitÃ¤t
o tel
Ġparlament ar
Ġunterschied lich
pak et
ie gen
Ġein fluss
Ġsie ben
form at
Ġvo ice
Ġstar ke
Ġbal con
g ien
Ġrest ruct
Ġsp end
Ġgen u
Ġreserv ed
Ġl ith
eren z
Ġcouncil s
ĠfrÃ¼hstÃ¼cksb uffet
is ely
Ġp owers
Ġbe e
Ġver hindern
ib ly
Ġfin land
Ġbestell ung
Ġg ain
kt iven
Ġparag raph
in y
Ġk abel
lin k
Ġhon our
Ġa gencies
Ġab zu
Ġnach richten
Ġest im
ĠerklÃ¤r ungen
Ġsum m
ĠstÃ¤d te
ĠgeprÃ¼ ft
Ġeras mus
g ung
is ierungs
or es
ist isch
Ġserious ly
Ġslo vak
Ġpers pective
Ġmain tenance
Ġel imin
Ġmess ages
Ġarbeits losigkeit
Ġt ac
Ġcoun t
ha ber
Ġwirk ung
Ġ29 5
Ġtit el
bek Ã¤mpfung
Ġris iken
Ġexpress ed
Ġdienst leistungs
Ġwish es
Ġniederlan de
is ierten
Ġre isen
et ze
ul ted
Ġra ums
Ġguarante es
Ġsil ver
se c
Ġ0 4
ash ion
weis ung
Ġkoh Ã¤s
Ġe arn
Ġver Ã¤ndert
Ġgen Ã¼
Ġger icht
Ġtr ends
Ġca pt
Ġoptim al
Ġmilliar den
Ġf ischer
vel y
ish ing
ile o
Ġmitglied staat
Ġbetra chten
Ġimprovement s
Ġh Ã¤ngt
hol ders
Ġautomat ic
Ġwunder sch
8 8
Ġjo hann
m aking
Ã¤ fen
Ġent h
Ġpol ize
Ġloo ks
Ġfact ors
Ġba um
Ġsol cher
Ġpass iert
Ġdoll ar
ut ing
Ġmr d
Ġ6 4
gest immt
Ġvoll kommen
200 6
Ġstrong ly
k am
gen ce
Ġaut or
Ġtechn ik
Ġunterst Ã¼tze
Ġkonfl ikt
m iss
Ġkle iner
Ġarchitect ure
f le
t i
ic as
Ġerw art
Ġfact or
Ġglau b
initi ative
Ġb ureau
Ġinform iert
Ġsor ge
soft ware
Ġf eld
qu al
Ġfrei will
o der
Ġv Ã¶l
ic ation
Ġfra ud
Ġdut ch
Ġan c
Ġbeteil igten
e e
v iel
Ġde g
Ġhier fÃ¼r
Ġhand s
Ġlet ter
Ġfour th
Ġst ick
Ġwesent liche
gener al
i pe
r ent
in ian
Ġm erg
Ġex tend
Ġred ing
Ġtyp ical
Ġsafe gu
Ġt enn
Ã¼ ter
zeich nen
Ġdep ends
Ġconne cted
Ġout do
Ġtot ally
Ġenor mous
Ġex pos
Ã¼s sen
ĠbÃ¼r gern
Ġappe al
Ġhighl ight
k urs
Ġb alt
Ġin g
ÃŁ te
Ġho uses
if i
Ã¤hl ten
Ġkr isen
dienst leistungen
Ġhosp ital
or gt
Ġe co
Ġv it
Ġbe ar
Ġman age
Ġcast le
Ġslo ven
Ġech o
ĠgrundsÃ¤tz lich
um m
Ġschle cht
Ġz ut
Ġer fordern
Ġad j
Ġfern se
f Ã¶rder
in ens
ro ad
Ġver sehen
Ġexperien ced
Ġwor ten
Ġdre am
Ġkredit karte
Ġm old
Ġz ypern
el a
Ġzu k
Ġsp iele
Ġfl ag
Ġtele vision
Ġmut ual
Ġrecogn ition
Ġfe e
wo hner
d ro
Ġwe ap
Ġob wohl
Ġpremier minister
id et
Ġbo dies
Ġ6 00
Ġgn u
Ġbesitz t
Ġvien na
b at
Ġst u
Ġaut ob
Ġteil nehmen
Ġfurn ished
Ġex cess
off icial
Ġauf nahme
Ġnat o
Ġguarante ed
Ġbeteil igt
Ġfail ure
mÃ¶ gen
Ġannoun ced
Ġa ktionen
Ġc ad
al d
ident s
Ġbre it
Ġchang ing
Ġlab el
Ġth ail
Ġz Ã¤hlen
Ġman uel
Ġdynam ic
Ġdisplay ed
Ġbe lli
Ġzu ges
Ġfl ight
ma ÃŁen
Ġtry ing
Ġkeiner lei
Ġful fil
Ġaus sicht
hand lungen
Ġsur face
n l
Ġm cc
os ed
ĠÃ¼ber sicht
Ġcomp u
Ã¤l fte
Ġhel ps
Ġoper ators
Ġziel en
gew icht
cent er
Ġge zeigt
Ġsp Ã¤t
Ġ9 5
Ġm all
Ġkop f
l ook
Ġh es
leit en
Ġkonsult ation
yste me
Ġland schaft
Ġ0 6
fÃ¤h ig
ab sicht
Ġj am
Ġho f
Ġspe icher
Ġstruct ures
Ġintens iv
Ġappo inted
Ġi x
Ġded icated
Ġlegit im
Ġein s
her r
Ġdis able
Ġdirect ives
Ġdub lin
Ġzus atz
Ġproble men
Ġrel ating
zeich nete
Ġautom ob
Ġconsider ation
Ġbeaut y
Ġzuk Ã¼nft
e ffe
ab stimmung
Ġbade zimmer
s ers
y pt
Ġpr ize
Ġent w
Ġtra um
Ġem ot
gem Ã¤ÃŁ
Ġexport s
z il
Ã¤ ck
Ġunderstand ing
Ġbelli ard
Ġdoes nt
Ġelekt r
Ġschool s
h me
t ten
Ġein stellungen
Ġempfehl ung
Ġgip fel
b i
Ġt isch
Ġgeb oren
Ġsouth ern
Ġexerc ise
c p
k Ã¼nd
at isch
Ġcont ents
Ġob tain
Ġrecommend ation
Ġdocument ation
europ a
er geb
Ġaus ser
Ġlok alen
i ary
k ar
art a
Ġexp ensive
Ġsignificant ly
Ġcombin ation
regel ung
Ġsuspend ed
v ia
ht ml
con dition
Ġfa iled
Ġstatement s
proje kt
wachst um
Ġspecif ically
v y
Ġin come
em ark
Ġsch uld
Ġgr ant
Ġzus ch
Ġaktion splan
re isen
Ġf at
Ġor al
Ġ3 9
Ġpre d
Ġzum indest
Ġ21 000
Ġf Ã¤lle
Ġan schlieÃŁend
Ġfr on
Ġout standing
Ġrel ation
Ġprof ess
Ġbew Ã¤lt
gef Ã¤hr
Ġex it
Ġsp ot
Ġoption en
wood y
r t
ard o
Ġev idence
olog ischen
Ġfinanz iert
Ġstra ight
Ġpan el
Ġeffect ively
Ġhil ft
Ġconsequ ently
4 1
Ġa er
Ġd iss
Ġs und
Ġf and
te ch
sch er
Ġde iner
Ġboo ks
Ġgall ery
z ul
at lant
Ġun official
Ã¤ ten
Ġdurch aus
Ġ12 0
ĠdÃ¼r fte
Ġlau tet
Ġbot schaft
w es
it tel
Ġan schluss
Ġke pt
Ġcol d
bru ch
Ġhinzu gefÃ¼gt
ĠerhÃ¶ hen
Ġmo ving
Ġav iation
Ġappo int
Ġbenachricht igt
govern ment
5 8
Ġp ier
st ate
Ġbr enn
Ġbeste llen
hol m
Ġschne ller
Ġslow en
7 6
Ġinde p
Ġord nung
Ġschn elle
k as
Ġf uel
Ġein kauf
Ġpro port
Ġcomp ared
Ġag entur
Ġsw ed
stra ÃŁe
rÃ¼st ung
stand s
Ġpil ot
z in
Ġin fe
Ġman che
lÃ¶s ungen
Ġre den
fra ktion
Ġasyl um
Ġklimawand el
Ġst amm
Ġprodu cers
Ġsuff er
Ġvehic le
Ġsu c
Ġmittel punkt
Ġumwelt schutz
i h
w issen
er al
Ġaus bau
Ġsehen s
Ġuntersch iede
Ġdemokrat ischen
Ġp ill
al es
ent ions
Ġder art
zu fÃ¼hren
Ġpropos e
ĠberÃ¼cksicht igen
Ġgele istet
ampag ne
k le
Ã¶ p
Ġj ose
Ġtechnolog ical
Ġinflu ence
Ġcategor ies
Ġattem pt
Ġk as
Ġlo vely
fÃ¼hr ten
Ġdr iving
icher ungs
Ġlay out
k op
z z
Ġbe zeichnet
Ġaus lÃ¤nd
Ġequ ality
Ġbank ing
Ġorder s
Ġachie vement
Ġkomp et
techn ologie
Ġfrequ ently
Ġdise ase
m aschinen
ent sche
sp h
Ġrenew able
Ġchann el
Ġb se
Ġch a
Ġam ounts
Ġwa iting
Ġvors itzen
Ġregular ly
Ġverbesser ungen
Ġdiscrimin ation
b ro
Ġc up
Ġpolit ischer
Ġschw ed
Ġir ish
Ġacc ur
Ġmy self
Ġnutz er
Ġadv oc
Ġbeit rÃ¤ge
Ġgree k
Ġbur den
h ows
it o
Ġus w
ru pt
Ġeinver standen
Ġzus tell
Ġbis lang
Ġstra ÃŁe
Ġoblig ations
Ġp uert
Ġal arm
ver hÃ¤lt
Ġam ts
Ã¤nd ler
Ġbus h
Ġbeg onnen
Ġpap ier
in al
Ġteam s
Ġneues ten
Ġerk ennt
Ġcaus ed
ll y
tz eit
he ber
Ġcor ner
Ġcert ific
rÃ¤ ume
europe an
Ġm b
Ġun gleich
Ã¼ g
Ġbe ur
Ġcon tem
Ġreal itÃ¤t
ief ert
Ġdifficult ies
it u
Ġeu re
form ular
Ġserv es
Ġaff ord
Ġprof ile
Ġindep endence
r al
Ġein stellung
Ġle gt
Ġra ce
Ġgal ileo
Ġsle ep
Ġm Ã¼nd
Ġcl oth
erg ie
ser ver
Ġadv ent
200 7
po int
Ġill ustr
ĠnÃ¤h ere
Ġthe me
ian e
Ġprec isely
Ġcoll abor
x y
z ed
z ne
in tern
Ġto ile
Ġzahl reichen
Ġaustr ian
Ġbetra chtet
Ġr ss
Ġde fe
Ġtit le
Ġmitt l
on ien
ann ung
Ġqual it
Ġther ap
Ġ Ã¤r
Ġchar ges
Ġsl ight
Ġconne ct
Ġmount ains
ing esch
Ġboo st
Ġunivers itÃ¤t
Ġun f
Ġvor zu
ĠnÃ¶t ig
Ġaust ausch
Ã¤ umen
ic ars
mit tag
ĠwÃ¤hr ungs
Ġlead s
Ġmik ro
Ġthom as
k ommission
ge iz
ff end
ass ilio
Ġposit ions
Ġwal d
Ġstim ul
Ġakzept iert
Ġimpos s
Ġinsp ir
Ġb indet
Ġc in
me chan
Ġfr id
Ġfig ure
Ġvorgeschlagen en
Ġbeschl Ã¼sse
Ġvern Ã¼nft
ger Ã¤te
Ġtr uth
Ġvertr Ã¤ge
Ġsp ons
Ġmean ing
Ġt rop
iz it
schl Ã¼ssel
Ġrev ision
Ġtem pl
Ġhistor ischen
Ġassoc iated
Ġforest ry
r aten
Ġd os
Ġp ad
Ġsh ar
Ġehr geiz
ĠÃ¼berzeug t
Ġdepos it
Ġe chte
sch irm
Ġval ley
Ġfar be
Ġwik icars
Ġbes org
Ġgr unde
Ġdescrib ed
Ã¤ den
der ung
Ġme ant
ges ellschaften
Ġimport s
mode ll
z iele
Ġs ah
Ġf ashion
el te
Ġgen der
Ġvorliegen den
parl iament
Ġd rugs
ck et
Ġvor sch
Ġcons olid
Ġrun s
ĠfÃ¤ llt
Ġemer gency
Ġan liegen
Ġr Ã¼
Ġer greifen
Ġget rÃ¤n
amen te
Ġreserv ations
Ġperfe kt
Ġplug in
Ġbahn hof
Ġt iere
Ġp act
Ġv ary
Ġpack aging
Ġcombin ed
Ġd orf
Ġan hang
Ġro s
Ġconsult ing
Ġkrit ik
Ġbemer kung
Ġdivers ity
Ġeth n
Ġviel zahl
y an
ab len
Ġeinzel ne
Ġmut ter
Ġsuc ceed
Ġro h
Ġpfl anzen
Ġk en
Ġz Ã¤hlt
Ġden mark
Ġbesch rieben
Ġ8 5
Ġfran c
Ġair lines
Ġinstall ations
Ġdistr ict
Ġl unch
men s
cl ude
Ġsc ale
Ġide ale
Ġstud ien
Ġglobal isation
Ġfurn iture
Ġtenn is
Ġha fen
Ġle ts
Ġpo ur
Ġeffiz ienz
Ġintell igent
Ġk andid
Ġab onn
ell es
Ġnear ly
is o
Ġ8 00
ĠwÃ¤hr ung
Ġl Ã¤ng
Ġcas a
Ġeinge b
Ġident ified
-------- --------
ĠpalÃ¤st inens
Ġver pack
Ġpro hib
Ġges tern
Ġest ate
fre ie
Ġmag n
Ġmetho de
Ġtable d
Ġky oto
Ġto ba
Ġfor ts
ĠlÃ¤nd liche
sv ors
Ġpatient en
Ġw i
Ġer h
Ġse ien
Ġaus land
ze g
Ġ4 6
Ġverein igte
Ġregel ungen
amt liches
rÃ¤ gen
Ġgrie ch
Ġbeant worten
Ġbeg lÃ¼ck
Ġresol utions
ĠausfÃ¼hr ungen
Ġverabschied et
Ġy e
Ġaus gabe
Ġgesch rieben
Ġinnov ations
Ġletz ter
n ow
Ġs d
Ġan gene
il a
Ġac qu
Ġapplic able
Ġrecog nis
Ġerheb liche
ĠbeglÃ¼ck wÃ¼n
Ġfor men
Ġnicht amtliches
ium s
Ġwa it
Ġfinn land
Ġfant astic
Ġt ap
Ġm essen
Ġaus ges
Ġnun mehr
Ġbal anced
Ġreason able
Ġimposs ible
Ġb org
Ġwe ight
Ġsh utt
Ġmet all
Ġspa ÃŁ
Ġfreund lich
Ġwelcom ed
Ġbetroffen en
Ġbedroom s
ĠjÃ¤hr lich
Ġz immern
Ġpro test
ens wert
Ġtr ifft
Ġtele kommun
sto ffen
vent ions
4 2
Ġt ast
Ġfre unde
Ġvers uch
ha ften
Ġneighbour hood
Ġwe ather
Ġhol ding
Ġexpl ain
Ġsant a
w est
in zip
ust ausch
Ġes c
wir t
Ġkap az
Ġmitt ler
Ġcatalog ue
ic ed
Ġr ing
Ġb Ã¶r
Ġst immt
Ġsub stances
Ġheut ige
Ġtoba cco
ab l
Ġange p
Ġbed ien
weis ungen
ĠschÃ¶ nen
Ġho p
Ġfr ied
Ġrestruct uring
iv itÃ¤t
Ġind ones
Ġerziel en
et a
gr enzen
Ġcomp r
Ġfal le
Ġeinwander ung
Ġer fre
Ġbet t
fol io
Ġur heber
bu ild
Ġign or
Ġyester day
Ġh Ã¤lfte
Ġch amp
Ġlie fern
10 40
Ġfeed back
ĠfranzÃ¶s ischen
Ġi ce
Ġaus nahme
ne w
Ġimmobil ien
Ġslides hows
4 3
Ġo w
Ġre produ
Ġsch auen
hÃ¶r en
Ġinstit ute
Ġtats ache
Ġcompl ain
Ġh ast
Ġn one
Ġz er
el ten
Ġbild et
Ġresour ce
Ġaccording ly
Ġerschein en
urop Ã¤
f an
ch ron
Ġfe ar
Ġverpflicht ung
Ġvorauss etzungen
Ġmanufactur ers
Ġunderg round
Ġgespe ichert
it age
Ġg Ã¼n
ĠfÃ¼hr ung
Ġzimmer beschreibung
Ġaccord ance
Ġga ve
ĠmÃ¼n chen
Ġnach richt
Ġlog in
ĠÃ¼berein kommen
er ie
Ġh ong
Ġyou re
Ġger ichte
Ġberuf s
Ġrestrict ions
Ġcorresp ond
Ġw are
le vel
Ġi ron
Ġge orge
Ġger Ã¤um
ingesch rÃ¤n
c z
g ut
Ġun its
ĠÃ¼ber tragen
Ġar men
Ġintell igen
Ġinstruct ions
Ġde als
au p
Ġele ction
Ġkom pliz
Ġdigit ale
Ġlith u
ic ians
Ġre zeption
au ern
Ġcountr ys
Ġincre ases
Ġindivid uell
abil itÃ¤t
Ġanwend ungs
Ġwohn ung
Ġalumin ium
Ġex isten
Ġzust immen
fun ktion
h or
Ġne utr
Ġiss ued
vo te
Ġentscheiden d
Ġwol f
Ġoutdo or
Ġorgan ization
Ġinn ern
Ġsur f
Ġru he
Ġerweit ert
Ġ198 9
frei heit
Ġver we
Ġr ational
op her
Ġkomm e
schr Ã¤n
Ġd ivid
Ġh under
Ġver letz
fo x
Ġperfect ly
39 6
h ar
Ġin put
Ġkosten lose
Ġsens itive
Ġal ph
Ġmit tag
Ġunter nehmer
Ġhin dern
Ġorgan iz
ĠÃ¼bern ommen
Ġbil ateral
Ġsat ur
Ġzie mlich
Ġbezahl en
Ġres umed
Ġverbraucher schutz
Ġnav igation
Ġentw eder
b rauch
Ġun i
Ġger Ã¤te
Ġbild ungs
Ġdep ending
Ġnachbar schaft
Ġjem and
Ġra w
Ġ9 00
Ġcre ates
Ġmanufact uring
Ġrea ktion
ent er
Ġeing ere
Ġsicher ung
Ġfac ility
Ġca f
Ġtur k
e te
reg eln
Ġbra zil
Ġschul den
Ġaktual isiert
Ġth or
or ca
ant o
me ister
Ġdam als
Ġpun kten
g te
alt y
fra gt
Ġschlaf zimmer
Ġher itage
fr iend
Ġoppos ite
b ach
k rie
Ġs ac
Ġer leb
Ġ4 2
Ġtr uly
minister in
g elt
u ung
Ġw on
et o
Ġal g
Ġauf sicht
Ġqual ified
35 5
Ġpar a
Ġcomp ly
Ġexper ten
Ġkontin u
Ġerwachsen e
Ġsuper ior
Ġerr ichtet
lie ben
Ġpres ents
Ġextre me
Ġmun ich
Ġheav y
Ġr ank
Ġune ingeschrÃ¤n
Ġt ail
Ġbe absicht
Ġall iance
Ġexp ans
Ġfahr zeug
io de
Ġbereit gestellt
Ġval u
zus ammen
Ġaussch uÃŁ
Ġrelax ing
Ġtex ts
Ġlaufen den
Ġadvant ages
Ġpoll ution
Ġdeg ree
v ar
an im
Ġein haltung
Ġr ies
Ġge heim
Ġlo uis
Ġinteress ante
Ġreag ieren
Ġentreprene urs
Ġthail and
l Ã¶
Ġb ru
Ġein be
Ġfe ier
Ġnie mals
Ġsuccess fully
is ory
Ġre mote
ten ds
Ġsch e
Ġab ility
Ġwar ning
Ġspe ichern
Ġhand ling
Ġsub je
Ġprim ary
behÃ¶r de
Ġext ent
c os
Ġj ungen
for d
Ġme ist
Ġko oper
Ġsee k
bal gs
ĠbeschÃ¤ft igt
Ġclos er
Ġerzeug nisse
Ġaut onom
kl ang
Ġderzeit igen
Ġtab les
Ġbe zieht
Ġver hinder
Ġer m
Ġpriv ile
Ġh u
Ġhe ating
Ġcar bon
ĠbÃ¼rger innen
Ġlat in
Ġarbeits markt
Ġtem porary
Ġanb ieten
Ġcaus es
Ġterrit orial
g i
Ġwas hing
Ġdar unter
Ġvo c
Ġeconom ies
Ġe ight
Ġpie balgs
Ġdistrib uted
Ġan griff
Ġ4 3
Ġcontr ary
Ġtop ic
cal led
Ġcy cl
Ġprakt isch
Ġanb ieter
Ġvorauss etzung
Ġthous ands
p c
Ġun a
reg ion
Ġafr ican
Ġcompl iance
Ġphil ippe
ĠunabhÃ¤ng ig
ĠunabhÃ¤ng igkeit
kn own
Ġrefuge es
n ed
Ġin telle
Ġch f
Ã¤u fer
Ġpat tern
an cy
Ġer geben
Ġman ual
b ran
c are
Ġro ot
ang es
Ġdis pl
Ġsein es
Ġnational er
Ġbre ite
Ġbek omm
Ġexpl o
Ġwahr heit
Ġbehand eln
ĠjÃ¼ng sten
Ġkore a
Ġp m
Ġaus drÃ¼cklich
for schung
Ġkein es
Ġdesign s
Ġsumm ary
gen ehm
Ġal co
Ġlo d
Ã¤tz ung
Ġrefer end
Ġver lei
pr Ã¤sent
Ġvol ume
Ġindivid uelle
Ġhealth y
Ġexpect ations
w enden
Ġw iss
Ġab fall
Ġopin ions
Ġa kte
Ġpro ud
lie gt
Ġgra d
Ġarchite ktur
Ġade quate
6 6
sp ap
Ġdar k
Ġsan ktionen
Ġdispos al
Ġent t
pf licht
Ġeigen es
Ġniedr ig
Ġbe le
au g
Ġschweiz er
Ġt ib
Ġt ritt
Ġle on
Ġvor genommen
Ġgew iss
25 5
Ġumst ruktur
ab we
Ġag ent
rauch er
Ġlic ens
ĠdÃ¤n emark
Ġbalcon y
b or
Ġa wa
Ġk de
Ġre mark
Ġcour ts
gel assen
Ġpass ed
Ġret ail
Ġdest ination
Ġauff order
Ġdiesbe zÃ¼glich
ĠentschlieÃŁungsant rag
as te
Ġph arm
ie gel
Ġc able
sch iff
sch ule
ze p
Ġno ise
spra chen
Ġfisch ler
ohl en
organisation en
ĠabhÃ¤ng ig
Ġliqu id
Ġdie jenigen
Ġein tr
Ġcla ims
Ġein druck
Ġge halten
Ġent ste
Ġpleas ure
Ġconfir med
f allen
ro ll
Ġl ager
der t
Ġac adem
Ġfehl t
Ġsor ry
Ġeisen bahn
Ġglaub wÃ¼rd
in vest
sch m
ul ich
Ġvor ange
Ġsome one
Ġoper ate
Ġentertain ment
Ġb urn
Ġm igr
Ġpol ish
Ġdr ink
Ġsan ctions
st Ã¤nde
fahr er
schl uÃŁ
Ġbesorg nis
w in
Ġd ishes
it ag
Ġb m
ce ll
Ġbl u
ĠfÃ¼ llen
Ġspec ies
jÃ¤hr igen
Ġremov ed
Ġre fr
Ġu plo
Ġtax es
Ġobje cts
jÃ¤hr ige
Ġswed ish
d essen
Ġaus stattung
Ġfl ow
Ġfun ktions
Ġex ists
ru fen
ian a
Ġgreat est
Ġinteress ant
Ġless ons
Ġso u
Ġho her
fl Ã¤chen
Ġbetr Ã¤cht
Ġintrodu ce
Ġnahrungs mittel
c am
ies sen
Ġpre isen
Ġaddress es
Ġsu gar
we gs
Ġlo ck
iger ung
wor fen
vertre ter
Ġpassen gers
Ġschwar z
Ġdiskut ieren
a o
h i
Ġd rag
re ifen
Ġan zeigen
Ġto des
ak er
Ġnach frage
Ġmod ul
Ġmenschen rechts
Ġann a
Ġtw in
Ġerreich bar
Ġl abe
ber ge
Ġsupp lement
Ġkr imin
Ġthird ly
zne im
Ġcon cluded
Ġtrans action
Ġli ability
Ġdest roy
re chn
Ġbe we
Ġtab ak
Ġconstant ly
Ġanton io
ag n
Ġme ters
e conom
i ques
r ats
Ġcon dem
Ġerforder lichen
Ġperson ally
fu hren
Ġphys ical
zneim ittel
us te
Ġleaders hip
z ur
Ġbe z
ab ot
Ġauf zu
ĠÃ¼ber trag
v ol
Ġmetho den
Ġmand ate
Ġs ql
Ġb out
Ġp ip
Ġ9 8
Ġredu cing
Ġdownload s
Ġdefin iert
Ġles ung
Ġgepl ant
Ġair craft
Ġwen igen
Ġcontact s
ikan ischen
z ust
Ġsp ending
Ġbo at
Ġruh ig
Ġcondu ct
Ġre ichen
Ġse he
Ġbo und
Ġ9 396
Ġkn ows
Ġmanag ing
Ġproduz iert
Ġsurve y
Ġmig uel
ll es
Ġha ir
Ġgr atis
Ġproje kten
amer ika
ĠverfÃ¼gbar keit
Ġrea der
Ġexclus ively
Ġd isch
Ġb ike
Ġf ans
Ġc s
Ġv el
Ġpers pekt
Ġbess eren
Ġdist in
Ġkomment are
k al
or ten
Ġfl u
Ġget r
Ġverl ieren
Ġbud ap
Ġgraph ik
Ġverd ient
Ġbege ister
Ġh alt
Ġo laf
il ing
Ġsh ape
Ġminister prÃ¤sident
Ġult im
Ġexpert ise
ausschuss es
Ġa ck
Ġvor an
Ġpres ence
wir ken
Ġrel atively
gew Ã¤sser
Ġsubs cribe
nehm ern
Ġim por
ĠÃ¼ber setzung
ĠÃ¼ber blick
Ġsign s
Ġpat ients
Ġinteress iert
Ġbetreffen den
Ġdisco unt
Ġl ose
Ġra re
heb ung
Ġlok ale
Ġferr ero
Ġsehens wÃ¼rd
Ġfrid ay
s ized
at uren
Ġsp am
Ġres pective
Ġkon to
Ġpf licht
Ġzu gleich
Ġgew Ã¤hlt
Ġmet res
Ġsmall er
Ġhinzu fÃ¼gen
Ġgrundlegen de
Ġe is
Ġon going
ver se
ko hol
Ġlet t
Ġspezie llen
Ġreje cted
Ġcompu ters
c m
j et
Ġe ads
Ġan kunft
Ġbe ziehen
Ġpro spe
Ġwebs eiten
Ġamb iente
app o
Ġaudio vis
fÃ¤ llen
wald ner
Ġf ont
Ġir re
Ġvereinfach ung
h ome
l ag
t p
Ġan mel
ig end
Ġtra dem
Ġbl ood
Ġhar m
Ġconne ctions
Ġaccept able
seit en
verein bar
Ġuntern ommen
Ġt ai
at ib
Ġh an
Ġun gefÃ¤hr
Ġl angen
ra ums
Ġaus einander
Ġdem o
con ne
Ġpark platz
Ġdemokrat ische
Ġtemper ature
Ġc u
Ġand ro
tr ib
Ġeinfach er
Ġdeal ing
Ġtab elle
Ġgarant ie
g Ã¼nst
Ġc ott
Ġsa w
ss on
Ġgest alten
Ġnormal erweise
5 2
k ul
Ġt ank
it ar
Ġl av
ach tet
Ġtr ib
Ġass ign
Ġbere cht
Ã¤ss ig
haus halt
ĠverstÃ¤nd nis
Ġsch ule
Ġrechts s
produ ktion
ĠgewÃ¤hr t
k rat
l ike
an wend
Ġl y
Ġpol n
Ġacc eler
Ġinv ite
que llen
Ġbef assen
Ġstre it
Ġsn ack
l ist
Ġvor sicht
eben e
rel ated
st es
Ġch ain
Ġschl uÃŁ
Ġmittel s
Ġvac ation
Ġsud an
ĠvÃ¶l ker
Ġk ra
Ġgen aus
Ġnoch mals
Ġerfolg reiche
Ġcontra cts
Ġgenu ine
d el
u it
Ġsch Ã¼
Ġcomp act
Ġgr ate
are l
Ġgen et
200 3
Ġdiv ision
Ġcentr es
Ġmerg ers
k ult
ik es
av ing
Ġko operation
reit en
Ġther es
ĠmÃ¤n ner
Ġverhe ugen
ie ts
Ġh yp
Ġwe ist
Ġaus stellung
Ġsol ve
Ġverb oten
ĠhÃ¶ here
Ġletz t
Ġens uring
Ġs ir
Ġb Ã¶
ĠerklÃ¤r en
Ġaffe ct
s m
Ġh ill
ier end
Ġeuro zone
Ġcomple ment
Ġcontrib utions
r d
Ġde cre
Ġab sicht
op ol
k w
ik as
Ġpart ition
ac ement
gesch Ã¤ft
ĠauÃŁer ord
Ġarch ive
Ġflo ors
Ġdise ases
Ġdefinit ely
9 2
g os
el ine
hr t
ze ÃŁ
Ġincl usion
Ġequ ally
sk i
a w
Ġn os
Ġein setzen
Ġfe llow
Ġstrateg ies
Ġchrist opher
ĠtÃ¤t igkeiten
Ġnieder lÃ¤nd
mitglied staaten
Ġ5 8
Ġtrans atlant
Ġbal kon
Ġcommitte es
Ġdef icit
angeb ote
Ġcompon ent
Ġdecor ated
Ġdetermin ed
w ater
ers e
Ġges te
Ġmar ine
Ġdire kte
Ã¤hl te
Ġdesign er
Ġtre ated
Ġg am
be handlung
Ġint ention
Ġpropert ies
Ġumst Ã¤nden
Ġat tend
Ġpl ays
Ġdr ivers
Ġbeg ann
ĠgÃ¤ sten
Ġmil ch
Ġpolitik er
Ġkar l
Ġaus geschlossen
ne ter
Ġstr en
Ġumf ass
Ġgarant ieren
Ġsyn th
ic y
Ġfin ished
res erv
Ġhappen ing
Ġfire fox
ĠbedÃ¼rf nisse
f are
is ted
te am
Ġv ista
Ġapp ar
Ġger Ã¤t
Ġmon tag
Ġdr iver
Ġvol unt
Ġtal ks
5 1
i ant
w all
Ġn ation
Ġme at
Ġinc ent
g age
on al
Ġre ject
Ġhe at
Ġviel mehr
Ġlie fert
Ġsub sequ
Ġstud ie
Ġzust and
ĠzusÃ¤tz lichen
Ġpeace ful
Ġincor por
Ġgeschen k
Ġ Ã¤g
Ġwe chs
Ġsch icken
ĠauÃŁer gewÃ¶hn
Ġschn itt
Ġv ie
Ġein klang
ot ten
la ut
Ġrespons ibilities
Ġverz Ã¶
ĠhÃ¼ b
Ġenfor cement
x x
Ġu pper
ok es
Ġbal k
Ġenter ed
Ġnotwend igen
Ġdivid ed
Ġv ess
Ġk ranken
Ġi phone
Ġsch loss
sp re
Ġspe isen
Ġorgan isiert
Ġeg ypt
Ġbudap est
Ġwer bung
cl ass
Ġoff ic
geb iete
hn ung
entr um
Ġgeb Ã¼hren
Ġindivid uals
Ġwed nes
Ġappreci ate
Ġh et
Ġv iet
Ġge fordert
Ġpr est
Ġsc ann
Ġhoch schul
Ġsatisf ied
Ġgrunds Ã¤tze
Ġf ift
Ġbe wegen
ol i
ien ted
Ġwieder um
Ġgeneral dire
Ġvorbe halten
Ġpanor am
ĠkohÃ¤s ion
at ische
as en
ah nen
Ġbr ight
n ik
up s
Ġeinz us
Ġeigen schaften
Ġpuert o
Ġgenaus o
d auer
Ġs ight
Ġl ots
Ġ0 5
Ġpub lik
Ġenerg ies
Ġmod ules
Ġdeleg ations
bahn hof
Ġmac ro
urop a
Ġconsist ent
s ite
el be
Ġcan ada
Ġweit gehend
Ã¼ck e
Ġser vers
Ġgest atten
Ġcontinu ing
Ġvari able
i ÃŁen
Ġver teilt
Ġer b
Ġaus gel
Ġ3 355
Ġgen e
Ġstr eng
Ġrat svors
Ġausge fÃ¼hrt
Ġr ichten
Ġfe es
Ġlang sam
Ġnor way
200 5
Ġstra f
Ġverk aufen
Ġverbind ungen
Ġgrate ful
n os
Ġthe ater
Ġst ored
pl ace
Ġmar ke
con f
Ġstrateg ien
Ġang st
Ġerwart ungen
e z
Ġm w
Ġse g
Ġfre itag
Ġvoll er
Ġansp rechen
Ġx p
ichte te
Ġzunehmen d
cure ment
Ġobst ac
h ard
Ġfunction ing
c at
we bs
Ġbal kan
Ġsuggest ions
Ġausgew Ã¤hlt
Ġbeein fl
Ġt ill
Ġrev en
Ġur lau
Ġrequire ment
200 2
Ġatt ach
Ġfunction al
Ġjour ney
ĠÃ¤hn liche
Ġprint ing
Ġfakt oren
Ġkatastrop hen
ĠsehenswÃ¼rd igkeiten
b b
s mo
Ġd g
ent wurf
Ġl ists
Ġr i
ist ik
gr Ã¼n
Ġmar ina
Ġmil k
Ġbee ind
c n
p ay
Ġen co
ĠmÃ¶ gliche
Ġne un
Ġwor ry
gÃ¤n ge
Ġabgeord nete
Ġdiskrimin ierung
k rit
Ġp y
gen z
Ġent it
Ġent fer
200 4
Ġkomp onenten
zÃ¼ g
Ġentscheiden der
Ġstock s
Ġcham ber
Ġerhol ung
verw altung
Ġweap ons
s hip
Ġinvest ors
Ġestablish ing
Ġtack le
ter ung
Ġen ables
Ġch al
Ġ7 00
Ġgel Ã¶st
Ġbeh aup
Ġkap itel
Ġdin ing
Ġsorgf Ã¤ltig
Ġdisable d
6 8
ak s
Ġsow eit
Ġtax i
Ġedit or
Ġprep are
Ġfel der
Ġro bert
Ġeffe ktiv
Ġverein ten
Ġremain ing
Ġkostenlos en
ur b
hr te
Ġfin ish
Ġ4 4
lau fen
ĠvollstÃ¤nd igen
Ġwerk zeug
Ġasso zi
7 7
Ġsp aces
Ġcan cel
Ġcorrect ly
Ġwet ter
5 4
Ã¤ nen
ir t
id den
Ġar ms
Ġhand y
Ġsor gt
Ġbew Ã¤hr
Ġey e
Ġack now
Ġd rop
Ġk ill
ing ung
ru chs
ick ing
amer as
Ġident ity
Ġdivers e
Ġsyn chron
Ġstol z
Ġlands cape
Ġcl o
ell os
Ġaid s
wh ile
us ive
Ġein schrÃ¤n
Ġar ray
Ġtele commun
Ġnachhalt igen
Ġstatist iken
Ġfrem den
Ġf aster
Ġklima anlage
Ġlandwir te
d re
Ġn omin
Ġsh ift
ze llen
Ġkomm er
ĠvizeprÃ¤sident in
Ġdisp ute
Ġchair man
Ġsonn tag
Ġ3 255
Ġfir ms
Ġel tern
Ġbeach es
Ġc art
Ġz iff
Ġfor th
lich ung
Ġport folio
ĠfÃ¼hr te
Ġreturn s
Ġzweif ellos
w Ã¤r
z ung
Ġb attle
Ġo ce
Ġn iveau
st u
Ġversion en
Ġsur v
Ġachie ving
Ġpie ce
Ġprim arily
Ġrelig ion
Ġoccas ion
Ġuplo ad
Ġwednes day
a id
l ife
un ia
Ġto ld
Ġkon kur
Ġversch w
Ġfocus ed
Ġentscheiden de
sprÃ¼ che
Ġexpans ion
Ġw art
Ġar zneimittel
Ġkl ick
Ġmon day
Ġgemein schaften
Ġeinge gangen
ĠzurÃ¼ck ge
Ġhy per
Ġmann er
Ġexception al
Ġcompens ation
h Ã¤user
Ġc i
ll ung
fr ika
Ġart ists
Ġmain tained
ĠnÃ¤ch ster
Ġjoin ed
Ġbir th
Ġmun icip
Ġereign isse
liothe k
Ġ ),
Ġh d
Ġh orn
Ġn ick
Ġab b
Ġsa ison
Ġgeb Ã¼hr
org ungs
Ġhaus es
Ġcop enhagen
Ġstruktur fonds
Ġimm un
Ġanw es
Ġdiskut iert
Ġkulture lle
ver halten
Ġmin eral
fÃ¼hr ungs
Ġel ig
Ġrep orted
Ġarch iv
Ġindic ated
Ġfor st
Ġqual ifiz
Ġkombin ation
Ã¶ der
ver fol
Ġverl angt
daten bank
effiz ienz
h ops
Ġun c
Ġbet ten
Ġplay a
Ġwissenschaft liche
Ġsalz burg
Ġapparte ment
Ġdrin ks
Ġgratul ieren
m t
Ġp akete
Ġex pression
if ies
Ġsp ent
Ġstre am
ĠkÃ¼nft igen
Ġabend essen
Ġshutt le
it ts
Ġb urg
Ġv ene
au d
ell er
Ġmodern isierung
Ġmaterial ien
Ġverk auft
Ġsustain ability
Ġlabe lling
n ame
Ġj en
ck ung
Ġno ted
Ġfl ights
Ġverring erung
Ġverzeich nis
Ġfreiz eit
Ġp ic
Ġse qu
Ġso gen
Ġdel iber
Ġatt ached
Ġtop ics
Ġverantwort ungs
Ġkontro llen
Ġvalu able
econom ic
im p
Ġunter zeichnet
Ġinv ited
Ġenerg ien
Ġlar g
Ġgef allen
Ġuntersuch ungen
Ġmechanis ms
Ġwiss ens
Ġentt Ã¤us
ro lle
Ġgew onnen
Ġwelcom ing
Ġvorgeschlagen e
95 86
Ġkorre kt
Ġmex ico
Ġbott om
Ġsemin ar
Ġvulner able
or ia
Ã¶r ter
Ġtr ied
bild ungs
ĠergÃ¤n zen
Ġinterpret ation
Ġaus kÃ¼nfte
Ġpl enty
Ġqu elle
Ġsupp l
Ġenhan ced
Ġfacilit ate
Ġbe endet
Ġre cycl
Ġpro curement
iv a
Ġpo d
Ġeng land
Ġnum mer
Ġrich ard
al te
Ġal kohol
Ġstand ort
Ġzahl ungen
eld et
Ġabge le
Ġreturn ed
Ġdau ert
p iel
Ġfor g
lie fer
Ġgu ard
ale z
Ġvi i
Ġconfirm ation
Ġm t
Ġzur zeit
Ġmon ten
Ġdec is
Ġsc ore
Ġheim at
Ġsloven ia
n icht
Ġn an
Ġk arel
st ieg
gen den
id o
Ġhab it
Ġ5 6
Ġben ch
Ġaktiv iert
Ġbetre ffend
ĠverÃ¤nder n
Ġalex ander
u h
Ġp ix
la ir
ĠfÃ¼ hlen
Ġcontrol led
Ġstock holm
Ġalt stadt
Ġjohann es
Ġzentral bank
Ġerlau ben
Ġparame ters
Ġhervorragen de
t able
Ġs ul
Ġh i
Ġre chten
Ġent rance
we chsel
Ġclean ing
Ġword press
Ġelektron ische
Ġers etzt
Ġein iger
Ġst one
act ions
Ġbr idge
gel aden
no st
Ġviv iane
Ġquar ter
c u
g art
n amen
Ġab road
Ġhighl ights
Ġp ia
Ġin klusive
Ġz auber
Ġdis appo
Ġru fen
term ine
Ġvent ure
imed ia
Ġfranc is
k ons
Ġle is
end ar
Ġmost ly
stell ungs
Ġplan et
Ġerzeug t
Ġintens ive
Ġcla im
Ġrepe at
Ġgonz alez
m ill
s ein
Ġs v
Ġm ath
Ġas ht
Ġsich ern
Ġregistr ierung
Ġdritt lÃ¤ndern
Ġlarg ely
ar th
Ġz Ã¼r
Ġde alt
Ġex klus
grund lage
Ġkommun ikations
Ġmail ing
Ġsurround ing
Ġsmo oth
geleg ten
Ġbe trag
Ġj es
Ġins pe
Ġakt ien
Ġdan iel
Ġgb p
Ġsitu ations
Ġforder ungen
Ġjam endo
Ġin hab
Ġh em
Ġwor se
Ġeinz igen
Ġkurz em
Ġmiss ing
Ġrei hen
Ġschem es
Ġbeweg ung
c op
Ġco her
Ġvis ible
ugos law
Ġdus che
er ver
Ġst ations
Ġat om
Ġausge zeichnete
Ġmoment an
Ġcomb ating
Ġliberal isierung
Ġey es
o ft
at iver
Ġer mut
Ġden k
Ġfr ist
Ġ5 2
ĠgrÃ¶ÃŁ eren
gemein schaft
Ġrenov ated
Ġpoten zial
r Ã¤ft
ber to
Ġ4 9
Ġrec ip
Ġlu ck
Ġeffe kt
spe zif
Ġmang el
Ġautob ahn
o gen
Ġp ul
Ġk unde
Ġapp le
ord an
Ġspeak ers
Ġpassen ger
Ġig les
k ter
Ġvo us
Ġviel er
Ġgesch le
Ġreserv ierung
Ġdra wn
Ġcreat ure
Ġclub s
sprogram me
Ġbarr iers
Ġle iter
Ġbes ides
Ġobje kt
ĠgrÃ¼nd ung
friend ly
Ġs zen
ies s
ein richtungen
min ute
Ġgew icht
Ġbas iert
fin ed
Ġdr es
Ġprogramm ing
Ġlas er
Ġferienwohn ung
Ġsafegu ard
u ens
Ġw c
Ġre marks
Ġfol glich
Ġnor den
Ġnor wegen
Ġput in
Ġspo ke
Ġsuppl iers
Ġthe at
Ġin tend
Ġv ig
wend et
ĠkÃ¼nft ig
Ġue ber
d ays
Ġw it
Ġent s
ass ungen
Ġtransport ation
Ġregional politik
Ġkol lege
Ġhaupt stadt
Ġlat ein
app ro
Ġmel den
ĠkÃ¼nft ige
Ġunmittel bar
p at
w ar
Ġer z
Ġas king
Ġsh ares
igt es
Ġ0 3
ĠÃ¶ffent lich
gra d
Ġnahe zu
Ġemphas is
Ġstad tz
ĠÃ¤lter en
Ġkonkur r
Ġb ist
Ã¶ konom
Ġdes ired
Ġum ge
Ġdo g
Ġstr onger
Ġperson nel
Ġbek rÃ¤ft
zÃ¼ ge
Ġpressemit teilung
Ġtarif a
Ġoff ices
Ġover l
Ġloc ations
inst it
Ġparte i
Ġmov ie
7 8
us a
Ġas p
bar ometer
Ġinst ant
Ġgew isse
Ġversch le
Ġdiskuss ionen
Ġew sa
Ġp u
Ġp ull
as ur
Ġan lass
Ġwill ing
aus sprache
ĠbÃ¼rger beauftrag
best immungen
Ġfot ograf
Ġspezif ische
Ġanc ient
Ġprofess or
f akt
Ġd j
Ġt enden
on te
ve c
Ġte a
Ġber ichten
Ġur ge
Ġsure ly
Ġrepl ace
Ġcontem porary
n i
Ġw ies
it ate
ger Ã¤t
Ġfa q
Ġrapporte urs
Ġerr ors
j ud
n ational
o x
u um
ay a
Ġdis aster
Ġem b
Ġbr ut
Ġempf ohlen
Ġsav ings
government al
g ip
Ġn ero
Ġre ve
io x
Ġwes halb
Ġhistor ische
Ġbras ilien
Ġausgewo gen
l ight
Ġa wards
Ġl ug
sp f
Ġspe kt
Ġpay pal
Ġcontr ast
Ġforder ung
Ġnam ed
Ġtex te
ĠkÃ¼r ze
Ġ ....
re ffen
Ġst utt
yp en
Ġrefle ct
Ġcolour s
Ġleis ure
un sten
le bt
Ã¼r en
Ġhe aring
Ġdar lehen
cil iation
bo d
Ġbegrenz t
Ġratsvors itz
us ted
Ġmo ved
Ġmar isa
Ġwel fare
ĠmÃ¶glich st
Ġens ures
Ġturn ed
Ġacht ung
f ir
y e
st al
Ġauf treten
Ġho using
tr y
ake i
Ġapart ament
Ġschul en
Ġtermin al
ĠgegenwÃ¤rt igen
proje kte
Ġwand el
Ġerinn ern
f ang
Ġj ugoslaw
Ġper mit
Ġevery body
feren zen
Ġwall strÃ¶m
Ġanerk annt
Ġalco hol
r ant
Ġmo z
Ġfe uer
Ġwo hnen
Ġcharac ters
Ġarbeitspl atz
Ġcos y
betrie b
re form
ie fer
op oul
Ġgleich er
Ġcompet ence
Ġsam stag
Ġmitt wo
ĠÃ¼brigen s
f isch
Ġse at
and al
end ung
act ory
Ġvorschl Ã¤gen
Ġcat ch
Ġhy dro
Ġobl igation
ĠbÃ¼ro krat
Ġigles ias
m aschine
uch er
Ġorgan ic
Ġnor men
Ġris ik
Ġeffect iveness
t ung
Ġa chten
Ġfest pl
fÃ¶rder ung
Ġangep asst
Ġverw and
Ġspec ified
mÃ¤ÃŁ ige
Ġjapan ese
Ġdepart ure
Ġbrief ly
ĠgrÃ¼ nen
ĠkÃ¼rz lich
a a
Ġd rug
Ġm l
em issionen
Ġer satz
Ġunters ucht
Ġord nungs
a q
n ight
Ġre par
Ġcon gress
au x
we ile
Ġkle ines
mark et
Ġunver zÃ¼glich
last ung
waren ess
Ġalm unia
Ġslight ly
Ġdisch arge
p u
Ġsp ar
Ġges icht
Ġra b
lin ux
Ġtar iff
mitglie der
Ġkategor ien
ĠverÃ¶ffentlich ung
Ġb reat
Ġge zogen
qu ote
Ġeng ag
Ġverl angen
Ġtro ub
Ġberat ungen
Ġconstru ctive
m ach
it ze
tel s
Ġro se
igkeit s
Ġ9 2
Ġmer ely
ĠbeschrÃ¤n kt
Ġasht on
Ġn iger
Ġj er
Ġmay be
Ġbalt ic
Ġabgele hnt
p ot
u ese
ur laub
ang er
Ġgek enn
Ġzivil gesellschaft
Ġlithu ania
g Ã¤
Ġa z
Ġun anim
bere cht
Ġwirk lichkeit
Ġoffen en
Ġkind s
Ġged anken
s w
Ġgew Ã¤sser
Ġfil ms
Ġbedeut en
Ġbrit ischen
Ġansp ruchs
ĠbestÃ¤t igen
Ġagrar politik
Ġslowen ien
v illa
is k
abe llen
Ġcar l
Ġcolle ct
Ġaudit ors
Ġtschech ische
kap az
Ġenth us
er ts
Ġs Ã¤
Ġfran ch
Ġamend ed
Ġcheck s
Ġproport ion
fen ster
Ġmon te
Ġrele v
Ġanmer kungen
Ġexplor er
Ġsund ay
Ġd ans
Ġl ord
Ġme ister
Ġjahr zehn
Ġclear s
Ġstrengthen ed
Ġrelig ious
Ġconver gence
Ġsong s
Ġbalk ans
Ġmonten eg
j u
Ġl iv
Ġ4 1
Ġnav ig
Ġa wareness
Ġon to
Ġcon sens
Ġauf nehmen
Ġaut os
leg ungen
Ġoption al
Ġaim ed
Ġmultil ateral
Ġbm w
a is
Ġe esc
Ġun less
Ġkosten frei
mÃ¤ÃŁ igen
Ġhoff nung
g y
Ġc f
Ġvor bei
Ġind ire
lin ed
Ġgener ated
program ms
Ġattack s
Ġamerikan ischen
Ġchan cen
p ension
an aly
Ġse as
Ġch ron
Ġbere chnet
Ġkr ist
spl ans
Ġweek end
Ġlay er
Ġrapid ly
Ġdelic ious
Ġsatur day
Ġz Ã¶
Ġdass elbe
Ġbed auer
ĠerhÃ¶ hung
Ġprakt ische
Ġkontinu ier
st ock
Ġr s
ct ual
Ġge wer
Ġvor legen
Ġeinge leitet
Ġarr ive
Ġsto ffe
Ġfus ions
Ġwundersch Ã¶
Ġt ram
Ġre lie
Ġge p
Ġmin ib
Ġ4 98
Ġsupp lier
Ġfol der
Ġamer ika
Ġexpl ore
Ġve ter
Ġdef ine
m ont
Ġk amera
Ġnicht raucher
ac in
Ġbl ut
Ġaf tern
Ġbudget s
Ġadjust ment
Ġimpress ive
at abot
Ġeing el
stand ards
Ġexper iment
Ġentscheid et
fert igt
Ġtat atabot
Ġamaz ing
Ġmall orca
ies t
Ġch apter
art ikel
Ġlu c
Ġstrateg ische
Ġinvol vement
Ġsinn voll
Ġkir che
Ġg ate
ver handlungen
Ġhe iz
Ġrot ary
Ġexperien ces
s our
Ġh r
Ġk ul
Ġer nen
Ġbes itzen
iz za
ĠmÃ¶ glichen
ho st
Ġprior itÃ¤ts
Ġgest altet
Ġkurz frist
Ġeinges tellt
Ġviet nam
r iff
Ġer de
Ġaus ged
Ġpl astic
Ġlo an
Ġweltweit en
smo king
Ġmittwo ch
f am
z l
Ġver h
Ġge ziel
Ġsp aren
Ġsol ches
Ġoper ator
Ġitalien ischen
Ġunz ure
b orn
Ġn ine
am i
rom e
Ġsupp lies
Ġverb ot
Ã¼tz ung
Ġdeb ates
Ġoper a
Ġstell te
Ġkandid aten
Ġan meldung
scha ff
tr ie
Ġele gan
vor schlÃ¤ge
Ġoffen e
Ġprovider s
Ġgee ig
Ġentfer nen
k Ã¼
Ġan hand
Ġbe arbeiten
ben e
fr ied
Ġbelie bt
Ġnah en
Ġkan ada
Ġfle isch
Ã¤ sche
Ġab ol
Ġfest gestellt
ĠÃ¼bern immt
Ġpost s
Ġexc iting
__ __
Ġplan ung
Ġvisit ing
Ġdiscuss ing
ĠÃ¤hn lich
p en
Ġer inner
Ġkon g
pro f
Ġins eln
Ġdownload ed
Ġperfe kte
ĠgefÃ¼ hl
Ġrechnungs hof
Ġmagaz ine
) ?
b art
Ġth r
Ġbe am
Ġre gen
ik te
ate ver
Ġange wand
Ġstar s
syste men
ĠkÃ¼ hl
Ġmass ive
Ġattra ctions
Ġscre ens
Ġprag ue
Ġmanufactur er
zusammen arbeit
3 00
m or
Ġh ence
ĠÃ¼ber zeugen
Ġpolit icians
Ġreport ing
Ġverd ienen
Ġaward ed
Ġestim ated
us sen
ĠÃ¼ber ras
iz er
Ġkon ver
ĠfÃ¼hr enden
Ġatt itude
Ġfeel ing
Ġfight ing
ĠprÃ¤sent iert
Ġtib et
y ard
in fr
Ġe at
Ġg one
Ġest onia
bl ing
a ÃŁt
b oo
ach ing
Ġmo use
ore t
Ġdecl ared
ĠfranzÃ¶s isch
Ġa x
Ġv ort
Ġco ckt
Ġwh atever
Ġent standen
sen den
geb racht
ig ern
Ġpolit isch
Ġgel ungen
Ġworks hop
Ġdigital en
Ġsound s
Ġkrank heiten
Ġconsens us
r Ã¼ck
on ik
Ġbe halten
Ġein wohner
Ġver an
Ġus ual
Ġprodu ces
Ġpat ch
Ġcare ful
Ġworks hops
Ġslovak ia
ab et
Ġaus sehen
Ġvor der
Ġcl in
con s
Ġbet ont
fÃ¤h ige
Ġregistr ieren
% )
Ġso f
lie b
ĠmaÃŁ e
aut om
bl og
Ġportug uese
Ġtschech ischen
Ġbehav io
Ġvolunt ary
a j
Ġt Ã¶
al ia
uch ten
Ġsa ved
Ġern annt
Ġcall ing
Ġvereinbar ungen
Ġground s
deb ate
ll ers
Ġher zeg
Ġcomp ress
ĠtÃ¼r k
Ġlau fe
Ġbeant wortet
Ġgespr Ã¤che
ĠÃ¤uÃŁ ern
Ġstutt gart
z te
Ġs age
Ġz in
ic ing
Ġsch mer
ein e
Ġher bst
Ġoffiz ielle
Ġrecycl ing
t ar
Ġre is
Ġpr ison
qu ar
Ġent ries
inge e
Ġshort ly
Ġinvol ves
Ġerleich tern
Ġcoup le
flÃ¼ ge
Ġhonour able
on i
Ġco al
wer ten
Ġarbeit sk
ij k
Ġkomple tte
Ã¤um t
ĠbemÃ¼ hen
Ġkon kret
Ġposit iven
Ġhy gien
Ġbathroom s
lÃ¤ss lich
Ġcondition ing
Ġthor ough
l iz
Ġpar ents
Ġgeb aut
sh op
Ġrelax ation
ĠergÃ¤n zt
p el
Ġp ensions
ll s
Ġbe ige
Ġres iden
Ġmon it
Ġcro w
Ġreason ed
infr ast
Ġo x
Ġan nehmen
Ġmitglie ds
Ġmod elle
Ġgra v
Ġlux us
ĠschÃ¶n sten
ĠfÃ¤h igkeiten
Ġturk ish
Ġman ip
erv es
ĠhÃ¶ch sten
Ġrecord ed
Ġow ner
k unden
er ies
Ġp ush
Ġat trib
sp ace
Ġlo y
olog ien
Ġur l
Ġconsider ably
Ġconsult ative
Ġhinge wiesen
Ġan hÃ¶r
Ġab gerufen
sp rechen
Ġbet rug
Ġstatt dessen
Ġmittler weile
Ġas ien
ted ly
Ġspl it
d ar
Ġv assilio
Ġent zieht
Ġcomm od
Ġwirtschaft spolitik
Ġcol om
Ã¤d t
Ġtradition elle
Ġgesetz gebung
rest aurant
Ġautomob il
Ġp v
ur d
Ġr Ã¶m
Ġ5 3
Ġchar ming
bereich en
Ġmw st
Ġvassilio u
Ġt s
Ġw Ã¤hl
Ġst ift
im al
Ġho ll
Ġfre ude
our s
Ġbest immen
Ġant id
Ġkor rig
wh at
Ġmuse ums
Ġeinheit lichen
Ġconstitution al
Ġpanor ama
Ġreferend um
r ical
Ġp hen
Ġein schl
tr Ã¤cht
Ġ8 8
bl att
Ġsecon ds
ĠnatÃ¼r lichen
bed arf
alen der
Ġka ffee
zi pl
ĠfranzÃ¶s ische
Ġzug unsten
ĠzÃ¼r ich
9 1
al ing
Ġv ic
Ġsich ere
Ġqu art
Ġpart ial
Ġhand le
Ġob tained
Ġverk nÃ¼
Ġident ify
Ġprinc ip
Ġsty lish
Ġlit auen
Ġpalest inian
Ġcorrespond ing
Ġp aint
Ġh iv
le iter
Ġan ze
Ġl s
Ġge pf
Ġle aves
Ġab gesch
gar ten
Ġmittel n
Ġsett lement
Ġdiscover ed
Ġw ines
pe cts
Ġcomm ented
Ġeing etragen
Ġgar age
Ġlat ter
Ġliefer ung
Ġnorm ally
Ġausgezeichnet en
c ache
m ern
Ġto chter
Ġer griffen
Ġcon clude
kt ors
Ġad ult
chn itten
Ġschw ach
Ġvorschlag s
Ġmag ic
Ġliberal isation
Ġkonkre ten
Ġver e
Ġde termine
Ġpl attform
yste ms
rei ft
ĠverfÃ¼gbar en
clud ing
Ġumfassen den
Ġrepe ated
Ġtelecommun ications
k rÃ¤fte
Ġl ind
Ġpro of
Ġent nehmen
ru h
igh ten
Ġaddition ally
Ġnon eth
Ġpartn ern
Ġoptim ale
Ġchrist mas
Ġbestehen de
Ġschaff t
Ġnoneth eless
Ġo t
Ġno body
ang el
Ġ6 6
Ġmor o
Ġorganis ieren
Ġal ters
arbeit ungs
kl ass
Ġinvest ition
Ġtrans actions
Ġgrund rechte
Ġeinfach en
Ġmak ro
Ġkre uz
Ġbeteil igen
Ġslow akei
Ġprevious ly
Ġhochwert ige
v an
Ġt aten
Ġt ested
Ġt esten
Ġb iod
re b
Ġn ull
Ġzu cker
Ġcommission ers
Ġsim ult
Ġmag net
verb rauch
verb indung
Ġauftrag s
verhÃ¤lt nis
Ġs ail
Ġre gener
Ġr io
Ġde ploy
Ġinter f
Ġmr president
Ġra in
Ġpre tt
Ġbild schirm
ĠÃ¶ konom
Ġelekt ro
Ġzentral en
d h
u ern
Ġp ac
Ġre prÃ¤sent
Ġal ger
Ġwh ose
vere ign
Ġresol ve
l u
Ġc ached
Ġk all
Ġl ern
Ġab gestimmt
ain e
Ġviel es
Ġfore cast
ĠstÃ¤nd iger
Ġsubsidiar ity
h s
in ar
Ġst Ã¶r
zahl ungen
spro ble
Ġgip f
Ġtai wan
Ġinhab it
k in
Ġk amen
Ġso vereign
Ġsch Ã¤d
Ġsp itzen
Ġhin weisen
Ġtrans fers
Ġport s
Ġgekenn zeichnet
e ing
Ġf ed
ro ck
Ġst av
Ġeuro barometer
Ġent lang
sp ot
Ġprogram men
cre en
Ġsc r
Ġdr ess
Ġstud enten
jahr es
Ġcritic ism
Ġwinn ers
w ettbewer
Ġt ues
Ġp ir
ber n
Ġch ile
Ġzahl ung
!! !
ĠverstÃ¤r ken
bur ger
Ġzustell betten
r ens
ol es
Ġad ap
scha fter
ac io
Ġut il
Ġhon est
Ġexcess ive
r ise
Ġpro sper
Ġwe alth
Ġde inen
Ġreg ret
Ġevery where
Ġoppos ed
Ġumfang reiche
Ġwid ely
Ġhinge gen
Ġeinkauf s
Ġstadtz entrum
ce ption
Ġso ph
Ġsh ock
Ġcont est
Ġtrans mission
spro je
at ures
ll o
Ġy ang
Ġfo ster
Ġkl asse
Ġinformations gesellschaft
Ġvielf Ã¤lt
Ġtut orial
ĠerÃ¶r tert
Ġverhinder t
Ġunzure ich
Ġt sch
Ġs ab
Ġbe er
Ġ9 6
uk le
Ġhaft ung
b ot
ig are
Ġum zusetzen
Ġkon text
Ġap ache
sel ben
ĠzustÃ¤nd igen
Ġnegot i
ĠlÃ¶ schen
Ġchemical s
infrast ruktur
i for
i pl
Ġh imm
Ġein trag
Ġge fahren
Ġmed ik
Ġerst re
Ġkol le
Ġderzeit ige
Ġshe et
Ġdim it
Ġdecis ive
Ġm ah
Ġpos ted
Ġart ist
Ġset up
Ġtre ib
Ġinvol ve
Ġeigent um
Ġhim self
aff t
Ġgesp ielt
- /
Ġc ds
Ġun for
ah me
Ġsich erstellen
Ġson ne
ec sp
Ġarg uments
spe ed
Ġsubsid ies
Ġfranch ise
5 3
a ustausch
es a
Ġex cluded
ree vy
Ġversch Ã¤r
ĠfrÃ¼h jahr
Ġcongratul ations
fun k
Ġbeeind ruck
Ġentit led
l ers
w ith
Ġc ub
ber gen
Ġfre t
Ġdr Ã¼cken
iet ies
Ġschwer punkte
pub lic
a ktionen
Ġa rom
Ġc v
Ġmar ks
Ġass ets
Ġsekt oren
Ġmonteneg ro
ig a
Ġi cel
Ġfinan ced
ĠfÃ¼hr ungs
Ġenjoy ed
Ġdan ish
Ġempf angen
Ġamong st
Ġreich halt
gere cht
finanz ierung
Ġmehrwert steuer
7 1
f oc
ig u
Ġge legt
Ġdis appe
Ġcons ulted
Ġend ors
Ġkont akte
Ġbil ater
Ġhervor ra
Ġeinzig artige
Ġausges prochen
Ġm aschine
Ġbr un
Ġfl uss
wor ld
Ġtrans it
Ġcost asur
Ġmot her
Ġproduct ivity
ival ent
Ġelektron ischen
Ġbehavio ur
Ġ ll
Ġc ater
Ġun re
Ġzu gelassen
fre ien
Ġkomp atib
Ġappe ll
clud es
te en
Ġge fragt
ien sten
iz z
Ġob ama
Ġprec ise
Ġrecognis ed
Ġcomplain ts
i op
ÃŁ ert
Ġcont ained
Ġgew inner
ĠgroÃŁ zÃ¼g
Ġtour isten
Ġclick ing
Ġcy cle
Ġaftern oon
k ette
u led
an forderungen
at ically
Ġdar stellen
Ġout look
Ġpat ten
Ġ198 0
Ġharmon isierung
Ġencour aging
Ġangemessen e
Ġinf os
qu er
Ġmar co
ud es
Ġrev ised
Ġrem ained
Ġverl Ã¤nger
Ġcut ting
Ġserb ia
es co
at ischen
Ġun n
Ġfind ing
Ġcol ors
Ġgest altung
Ġcam ps
Ġsurround ings
Ġappro x
Ġval en
Ã¼nd ung
Ġfahr t
zentr en
ĠberÃ¼cksicht igung
Ġdres den
Ġm assen
Ġand or
Ġbes ucht
Ġrat ing
Ġdec ades
Ġintegr iert
Ġportug ies
Ġsen ior
Ġtim et
ĠgewÃ¼nsch ten
d or
f ield
k ern
Ġt ip
Ġun g
Ġjo aq
Ġest land
Ġstud ent
Ã¤tz t
ĠkÃ¼ sten
Ġther mal
Ġofficial s
instr ument
Ġanwes end
re tt
Ġass et
Ġbesonder es
Ġprin ted
ĠfÃ¶rder t
Ġwissenschaft lichen
Ġentwicklungs lÃ¤nder
Ġversp rechen
Ġsek unden
Ġjoaq un
b lock
e ps
k u
Ġt ipp
Ġan to
Ġle ichter
ag entur
Ġwel chem
Ġele cted
Ġ7 2
Ġrel ates
Ġconc ert
Ġultim ately
c ommer
p g
ot ive
etz ug
Ġfl ood
Ġac p
Ġreal istic
itt ing
Ġextra ordin
Ġmcc reevy
Ġt ree
Ġn iel
Ġ( *
Ġqu ellen
ank e
Ġx ml
Ġactiv ely
Ġinner es
Ġperform ed
cont ent
Ġunf air
s ing
Ġf assung
Ġan nehm
Ġfor ums
Ġen h
Ġme als
Ġges etze
Ġmitglie dern
Ġ7 9
Ġright ly
bo ot
Ġspan ischen
Ġfahr zeuge
Ġwirtschafts wachstum
Ġdoppel zimmer
Ġaufbau en
Ġeingere icht
Ġa str
Ġwir kt
ak ers
Ġwar n
ows ki
Ġfoot ball
p et
Ġan genehm
Ġum gang
schaft s
Ġpress estelle
Ġput ting
Ġdef end
Ġurg ently
Ġsubsidiar itÃ¤t
Ġc ath
Ġn ett
Ġnew ly
Ġjo e
str asse
Ġerst es
Ġzugriff e
Ġgir ls
Ġletzt lich
Ġp ent
ma de
Ġcontin ental
Ġchild rens
ĠkÃ¼ mm
ĠflÃ¼chtl inge
Ġansch lieÃŁen
Ġenh ance
Ġt i
on ial
Ġz y
Ġgesch Ã¤fte
Ġbl au
Ġcor ruption
Ġeinzel staat
Ġak p
Ġweek ly
Ġkoh Ã¤r
Ġerwer b
Ġverurs acht
Ġmist ake
ur ity
au de
Ġqu o
Ġgesch windigkeit
ron om
ĠgrÃ¼n buch
Ġfunction ality
Ġdecl are
ĠfÃ¤h igkeit
Ġquot as
Ġzerst Ã¶r
Ġaus fÃ¼hrung
Ġstar ken
Ġ201 6
Ġfact ory
Ġcondu cted
ĠgÃ¼nst ig
ĠverzÃ¶ ger
v ille
it als
ir l
Ġver mÃ¶gen
Ġge g
Ġma us
Ã¤r kt
Ġdurch fÃ¼hren
Ġper io
Ġintegr ierte
Ġfort gesetzt
Ġclass es
Ġed el
Ġausgest atte
Ġprotect ing
Ġlik ed
j i
k us
Ġ ie
Ġun mÃ¶glich
Ġein bezogen
Ġgr enze
Ġref ers
Ġindivid ually
Ġkey word
Ġcare er
Ġhard ly
Ġand ern
Ġco d
men Ã¼
Ġgeb oten
Ġakt ive
ĠverÃ¤nder ung
Ġverhalten s
Ġausgang spunkt
Ġeinbe ziehung
c ity
Ġ ub
Ġer setzen
Ġ1 10
Ġ5 7
own ed
Ġfamil iar
Ġzusammenarbeit en
Ġmult imedia
Ġenergie effizienz
Ġstaat lichen
Ġfrieden s
Ġkulture llen
Ġreduz iert
Ġerleb nis
Ġaufforder ung
Ġphen omen
1 60
m ap
Ġwe isen
Ġvor stellen
Ġ6 2
Ġ6 8
Ġfind ings
Ġant ib
Ġsend ing
play er
Ġsurround ed
Ġfret well
Ġb ung
Ġn ukle
Ġbe at
Ġto wer
op hy
Ġsh aring
Ġinter institution
Ġro utes
pl us
Ġind o
Ġem pt
Ġtr ig
Ġspo ken
pap ier
Ġs me
Ġ5 4
Ġgegen stand
Ġconf idential
gel d
Ġverf assungs
Ġarr ived
Ġmos c
Ġcred ibility
Ġadvoc ate
Ġinhabit ants
o is
Ġst orn
ge ht
Ġeuro stat
Ġsh ell
Ġpl Ã¤ne
Ġmeet s
Ġfehl en
vertrag s
Ġchann els
ĠÃ¼bergang s
Ġw Ã¤r
Ġf inger
an en
Ġe en
Ġde ter
Ġar ts
scha ffen
Ġeben en
az z
Ġcompet ent
Ġcal endar
Ġwort laut
Ġlat via
Ġjud icial
wie gend
Ġbeein trÃ¤cht
Ġphilos oph
op en
Ġkon st
Ġapp art
Ġgemein de
Ġincl usive
Ġvis ited
Ġmaxim al
ĠstÃ¤d ten
Ġentste ht
g al
t ot
Ġt ang
Ġr iv
Ġdo ha
Ġinv o
Ġtechn iques
Ġins pect
Ġ6 21
Ġaff il
Ġverschieden er
Ġhar bour
Ġsens ib
besch l
Ġentsch uld
Ġtraff icking
Ġalloc ation
Ġspect ac
Ġer a
Ġby r
ue ller
Ġnach mittag
Ġverb inden
Ġzweit er
Ġcompl icated
Ġcharacter istics
Ġrecogn ise
Ġaccompan ied
build ing
ĠkohÃ¤sion spolitik
g io
n g
Ġo u
ol f
Ġso ul
wer ks
Ġairport s
Ġatlant ic
Ġwei hn
Ġelig ible
Ġicel and
ch ar
Ġb ord
we ge
kre is
ĠschÃ¼ ler
Ġkonver genz
re in
Ġo ste
Ġzu folge
Ġsh ap
her ine
Ġcons ervation
Ġexam ined
Ġkreat ur
Ġsym pt
Ġuntersche iden
Ġgros se
Ġkooper ations
Ġv og
Ġre z
pe g
Ġde ck
Ġch ief
th eit
pr int
imm ungs
Ġdar gestellt
Ġkl aus
Ġeing ang
Ġexist iert
Ġ28 5
Ġbetrie ben
Ġdele te
Ġtues day
c ap
an cing
Ġan reg
st ood
ber ger
Ã¼r zt
Ġwill en
Ġprov ed
Ġzusammen fassung
Ġsam ple
Ġgelten den
p ra
ge ted
ak is
Ġsome what
Ġrem ind
Ġfut ter
Ġwind s
Ġeinge halten
Ġbau en
ĠgÃ¼lt ig
ĠÃ¤g yp
Ġwechs eln
Ġh tel
ver zeich
ver anst
Ġsch lagen
ist ent
ahr en
Ġges tell
Ġsol ide
leich heit
Ġmill ions
Ġhelp ed
Ġreserv es
Ġdokument ation
Ġzug ute
Ġverbreit ung
Ġbureau c
d at
Ġre iter
Ġsch alt
nah m
Ġbl ind
Ġprofession als
ĠschlieÃŁ t
Ġsuff ering
ĠbevÃ¶l ker
cont rol
Ġsmo king
Ġwiederhol en
ĠverhÃ¤lt nis
Ġadvent ure
Ġbout ique
t ion
Ġs atz
as i
Ġum satz
kl asse
Ġhelp ing
Ġbau ern
Ġstruktur en
Ġski ing
Ġanto ine
or ter
Ġc ul
Ġbe ibe
Ġer stellung
Ġla id
Ġvorbereit et
Ġbedro hung
Ġf ang
Ġf elt
Ġk ids
Ġz ero
Ġl or
ne ws
hal le
Ġma ast
Ġprov en
Ã¤ÃŁ t
kon zept
Ġtro cken
Ġrepl aced
Ġresol ved
Ġalloc ated
Ġausger ichtet
Ġprett y
Ġt ort
at i
Ġcan on
Ġcan cer
iz a
Ġqu ad
Ġaccess es
Ġeduc ational
Ġch ic
co un
Ġrecht liche
Ġtradition ellen
Ġverhand lungs
Ġvorhanden en
Ġexplan ation
etzug ang
k ir
Ġs r
Ġno k
lo c
Ġpass ion
Ġcert ified
Ġwohl stand
Ġinfringement s
Ġcontain ing
Ġfakt or
gestell ten
6 5
s ub
Ġa h
ol as
ot te
Ġge we
ad ing
Ġbl an
Ġbas el
ster ne
Ġke ys
Ġchar lie
Ġcontra d
en kt
if er
Ġmar i
foc us
w as
Ġmit ten
Ġspecial ist
Ġvir us
Ġentwicklungs lÃ¤ndern
Ġhor se
Ġpolize i
Ġorganiz ations
g ess
or se
Ġe ign
ul ate
Ġunter liegen
Ġma ps
aus gaben
ger man
ull a
Ġschl ag
Ġbestimm ter
Ġsens ible
Ġbroad cast
Ġtrack s
pub lik
Ġconvin ced
Ġrechtss ache
or ing
Ġer teilt
Ġgen ere
Ġra c
Ġeng ines
Ġtre as
Ġrece iving
ca f
ec d
Ġcolle ge
Ġrecord s
c eng
Ġs is
Ġver grÃ¶
Ġha ar
Ġherr scht
Ġverb ringen
Ġoper ates
Ġx ii
Ġminder heiten
Ġg ang
im o
ft a
Ġgew issen
fl ow
les en
Ġhol ds
Ġdid nt
Ġa le
ie tet
al ed
id ad
Ġsp ieg
Ġdis cl
Ġbesonder er
Ġberuf liche
Ġsicht bar
................................ ................................
Ġbege g
zep te
Ġfift h
Ġk Ã¶st
ir s
ul en
Ġj oy
Ġaus gleich
Ġsu iten
Ġsee ing
ob je
Ġminim al
ari at
Ġgast ronom
Ġmont i
Ġchan ceng
Ġp g
Ġk ab
ber s
Ġle ather
ag ue
Ġsu it
Ġwill st
Ġum gehend
Ġlo ans
Ġwirtschaft licher
Ġport o
ĠfÃ¼hr ende
Ġverl ag
Ġexpl os
Ġemer ging
Ġgeorg ia
Ġbewer tet
Ġberaten de
Ġpier re
arth otel
Ġf akten
Ġver arbeitung
Ġhin weise
ĠstÃ¤r ke
Ġcat herine
ĠsÃ¼ den
Ġserb ien
Ġrecon st
ĠbeglÃ¼ckwÃ¼n schen
Ġoce an
Ġd ance
Ġs ess
st reit
um es
Ġpro ve
ak i
Ġprof il
Ġfest legung
Ġrem ed
Ġbro ch
Ġruss ischen
Ġtown s
Ġrob ust
ugos lav
Ġappoint ment
Ġbyr ne
Ġh ann
Ġdie d
isch ung
Ġbes icht
Ġhe iÃŁen
Ġgen iessen
hand elt
Ġpublic ation
Ġdist ort
Ġgarden s
Ġcertific ate
Ġbung al
Ġp av
Ġle ip
Ġvor lÃ¤u
ahr t
pro to
Ġsing ap
Ġprofession elle
Ġinvestitions bank
aktiv itÃ¤ten
ĠgetrÃ¤n ke
Ġchanceng leichheit
r asch
w Ã¤sche
Ġg ather
Ġz it
Ġpro mo
Ġak vis
Ġdienst ag
Ġkontroll iert
Ġeinheit liche
Ġterrit ory
Ġbeob achten
Ġsched uled
Ġimag ine
Ġing red
f tet
un kten
Ġer hoben
Ġarbeit geber
sk a
Ġaltern ativen
Ġjeden falls
Ġmean while
Ġaugen blick
Ġult ra
Ġvess els
Ġdank bar
Ġterror ist
Ġdest o
Ġb ah
Ġn h
Ġdo ors
Ġhotel zimmer
Ġmar ok
Ġ3 50
br idge
Ġausw Ã¤hlen
Ġorder ed
Ġkur zen
mail s
ĠauswÃ¤rt igen
Ġspezial isiert
Ġaktual isieren
Ġdut ies
Ġpressemit teilungen
m ag
Ġo g
Ġcon form
ast s
Ġtr ips
Ġdel ighted
Ġtar geted
Ġnachhalt igkeit
Ġbran chen
Ġeinst imm
Ġaufsicht s
Ġanmel den
Ġver p
Ġ1 30
Ġle id
ac ion
Ã¤nder ungen
Ġsupp lied
min uten
setz ungen
Ġumf eld
Ġlog istics
lemen te
Ġschein en
Ġkrank heit
Ġintelle ctual
iss es
ang ed
Ġko st
Ġexce ed
reit et
Ġimpos ed
Ġm d
de f
Ġro of
Ġap arthotel
Ġmill enn
Ġwes ten
Ġunivers ities
Ġvier tel
y t
Ġbe ig
Ġbe weis
Ġr ichtet
Ġsie mens
Ġle bt
Ġpre jud
Ġform ats
Ġcolle ctive
Ġunver gess
bezogen e
Ġlett land
Ġforth coming
w p
Ã¶ ch
ier a
Ġwar rant
Ġexc urs
tele fon
Ġapparte ments
Ġkompet enz
Ġst ich
pp elt
sp akt
to ur
Ġfil led
Ġentsp annung
Ġindivid uellen
Ġcitiz en
Ġdeleg ationen
Ġschiff e
Ġverur teilt
Ġuni form
Ġumstruktur ierung
m achen
Ġm und
an i
Ġg Ã¼ter
Ġv ast
ĠÃ¼ber mittelt
Ġsp ann
Ġfr att
Ġem bed
Ġfac ed
Ġmil es
ex e
Ġcorpor ation
Ġberu ht
ĠauÃŁerord entlich
r ied
Ġk Ã¤
Ġver standen
ĠÃ¼ber legungen
Ġbet reiber
Ġumwelt freund
Ġamer icas
Ġfernse h
ro v
om s
Ġr ul
Ġ5 1
vention en
Ġdokument en
Ġschrift liche
stre am
ĠbÃ¶r se
k k
Ġm ira
Ġges ellschaften
Ġpl ast
Ã¶r d
Ġ4 75
Ġmus ste
Ġtre es
Ġmal m
reib ungen
Ġvertra uens
ĠschÃ¶n es
Ġwettbewerb spolitik
ĠnÃ¼tz lich
k ov
v on
ut age
ul ated
Ġy ugoslav
Ġsp az
Ġzwe cke
Ġend orse
zahl en
Ġbenutz ern
ĠkÃ¼ ste
Ġindic ators
fun ktionen
fÃ¤ llig
ĠursprÃ¼n glich
b c
Ġm eld
Ġg aza
Ġn ap
Ġan sehen
Ġl ust
Ġres istance
Ġper mitted
Ġbet a
Ġhand lungs
fÃ¼hr te
Ġsign ature
Ġbef Ã¶rder
Ġabs or
bei hilfen
Ġforder e
Ġvertr ieb
Ġspezif ischen
Ġalp en
Ġjac ques
Ġad m
gr enze
Ġind ik
utz utage
Ġem bar
Ġbeg ins
Ġgest Ã¤rkt
unter st
Ġwesent licher
ĠstaatssekretÃ¤r in
Ġsatisf action
Ġster ne
Ġcollabor ation
Ã¼ ckt
Ġr t
Ġse ctions
ess e
ver ordnung
Ġaus geb
Ġem issionen
zahl ung
gangen en
Ġcontinu ous
Ġmedic ine
dep th
Ġobstac les
Ġm iÃŁ
beit rag
Ġnew spap
Ġjust ified
Ġsw ift
Ġref und
Ġkomp eten
Ġbuch st
Ġgegeben en
Ġhaushalt splan
Ġpurs u
Ġgespr Ã¤ch
Ġbiod ivers
Ġmaast richt
Ġhe utzutage
pr inzip
Ġaut umn
Ġcr ist
Ġcheck ed
gew iesen
Ġzugang s
Ġsex ual
dok ument
Ġhes itate
h Ã¤ngen
t ran
w ing
an sp
Ġp fe
Ġun ne
Ġto urn
Ġund o
ol s
Ġsh ad
Ġup s
Ġgegen satz
Ġrat s
Ġx iv
Ġrep air
Ġris ing
Ġstellung nahmen
Ġnam ens
Ġkonz ert
Ġs ammlung
Ġan re
ed e
ach ts
Ġkl in
cret ary
Ġdialog s
Ġaufge fordert
Ġbetra cht
Ġdead line
entsche id
g ast
h ungen
Ġge he
Ġorgan ized
Ġmus ter
Ġje gliche
Ġkeep ing
wa ffen
ĠunabhÃ¤ng ige
Ġdang er
Ġkrimin alitÃ¤t
an w
Ġwir ken
ĠÃ¼ber rasch
pr Ã¤gt
Ġwirtschaft lich
ress ourcen
Ġbef ug
kon to
ness es
Ġface book
Ġkil ometer
Ġkir chen
Ġsonst ige
Ġbeschwer den
Ġdetaill ierte
Ġnachbarschaft spolitik
Ġwer be
Ġbet rugs
Ġbek annten
ilt on
Ġexam ine
Ġtal ent
Ġvorliegen de
spolit ischen
l or
Ġs izes
Ġh ub
Ġun able
Ġand ris
Ġvor stellung
Ġbereit stellung
Ġcert ification
Ġlook ed
Ġbelg ian
Ġblock s
b ut
n ie
en k
Ġm iet
ic on
Ġwe ar
Ġent lastung
Ġmehr fach
Ġgel iefert
stand ard
Ġbrit ain
Ġcontain er
Ġdau ern
Ġdiesbe zÃ¼
an as
ig ert
Ġein ig
ien ces
geb Ã¼hren
Ġevery day
Ġaccess ories
Ġdist ingu
Ġoffiz iellen
Ġcolleag ue
wÃ¤r ts
z b
in fo
ill ance
Ġle er
Ġar me
ac ing
Ġlin ken
Ġser ie
Ġenc ry
ĠmÃ¤n gel
Ġverring ern
Ġk art
Ġse gment
Ġde kor
Ġverb rechen
Ġbel ast
Ġschwier igen
Ġflug zeug
Ġkop enhagen
Ġwhe el
Ġwashing ton
Ġapartament os
Ġfusions kontrolle
j unkt
Ġd ual
Ġt ips
or ie
Ġvor ge
Ġnach zu
Ġinv ent
Ġbedeut ende
Ġausgew Ã¤hlten
Ġrub ber
metho den
Ġtempl ate
Ġempt y
Ġs achen
Ġc ot
Ġar c
Ġres pected
Ġma re
Ġmein ungs
use hen
Ġcar te
Ġair bus
Ġklar en
Ġrenov iert
v ide
in tens
Ġre h
Ġj etz
Ġinter oper
Ġdar stellung
Ġgeb urt
Ã¤h nen
Ġpat r
Ġprom pt
ĠschÃ¶n heit
Ġverring ert
Ġadap ted
Ġunfor get
e per
Ġs ier
Ġs tern
it is
re formen
st Ã¤r
Ġref erenz
Ġgest artet
Ġmer k
Ġanze ige
o ire
w f
Ġd ict
Ġth res
Ġf ib
Ġdes ire
Ġmitglied schaft
Ġstrateg ischen
Ġfarm ing
Ġton nen
Ġsatell iten
Ġsuperv ision
Ġplen ary
Ġaustral ia
Ġandre as
id as
Ġinter active
ord net
Ġbere chn
Ġgreat ly
Ġinnov ationen
Ġfac es
Ġconsider s
ĠfuÃŁ ball
Ġehemal ige
Ġchamp ions
uropÃ¤ ischen
Ġentrepreneurs hip
Ġoffic er
Ġunne cess
un ts
Ġn Ã¶rd
Ġsh ips
Ġinternet seite
Ġincre d
ĠmÃ¤r kten
Ġsubst ance
ĠstÃ¤d t
ĠhÃ¶her en
Ġsurve illance
Ġprovin z
Ġbosn ien
Ġunc ertain
ing ual
Ġver schl
Ġdes erves
Ġle gend
Ġmar io
Ġpo inted
fe hle
Ġseit dem
Ġgener ate
Ġfinan ces
ĠgewÃ¤hr leistung
Ġmix ed
Ġsurpr ise
ĠglaubwÃ¼rd igkeit
Ġandro ulla
Ġw alls
Ġg un
Ġbe un
Ġbe arbeitung
Ġz a
Ġver mitt
ot ic
Ġauf preis
Ġsch eit
for um
be teil
ĠÃ¶ st
quis ite
ikan ische
Ġbrit ische
ĠursprÃ¼n glichen
6 7
m use
Ġw ont
Ġw ifi
un k
us ch
ur ies
Ġbe ll
em in
Ġst ru
Ġau ge
Ġturn ing
Ġkons olid
hotel s
Ġprepar ing
Ġbundesminister ium
Ġparad ise
ergeb nisse
Ġneutr al
bran che
s itz
ut ical
Ġj ordan
ach ter
Ġge Ã¤u
Ġcour age
Ġinvest ieren
Ġconf erences
Ġstar tet
Ġsozial er
Ġroad s
Ġanges ehen
ew g
b undes
e ec
k es
k ore
on ds
ar ks
Ġk Ã¤mpfen
Ġbe wert
um ps
Ġj ar
Ġab bau
ru ckt
ild et
Ġvers icherungs
Ġcontin ent
Ġherz lichen
mod us
Ġkomment ar
greif ende
Ġehemal igen
Ġphilos ophy
invest itionen
g b
vor haben
Ġamen ities
Ġenable d
Ġlam y
Ġerg ibt
Ġthous and
Ġluxur ious
Ġdispl ays
Ġbeun ruh
f ix
w id
Ġe chten
Ġl Ã¤dt
Ġlie ber
iet ung
Ġverl Ã¤ng
Ġmot to
Ġwest lichen
stra fe
Ġord ner
Ġwochen ende
Ġinquir y
in ations
Ġw oo
Ġin j
sch uld
os ition
Ġab use
Ġme al
Ġar ena
Ġart ik
Ġbed au
Ġans ichten
Ġergeb nissen
Ġkontin ent
Ġimpl ications
Ġp fer
est s
we alth
Ġzw angs
Ġchar les
Ġref erences
Ġsecurity focus
Ġrepresent ation
Ġluft fahrt
ĠweiÃŁ buch
Ġharmon isation
Ġarbeitspl Ã¤tzen
Ġwiederauf bau
iÃ¶ se
Ġprospe cts
Ġziff er
gip fel
Ġmalm strÃ¶m
g ue
Ġa vec
Ġbe herr
Ġfor ced
Ġer kl
ord nungen
Ġpal ma
weil en
Ġbring ing
Ġanw ender
Ġsimpl ification
Ġkonzentr iert
Ġregierungs konferenz
ĠgÃ¼n ter
Ġunn Ã¶t
Ġleip zig
te in
Ġim pression
pe z
ver l
Ġsch reib
Ġab ente
au b
Ġpre ced
Ã¤hr t
hÃ¶r igen
Ġmus ical
Ġgenau e
Ġparticip ating
Ġhung arian
Ġbosn ia
zub auen
fle isch
Ġabonn ieren
} :
Ġd b
Ġb om
Ġin ade
Ġn it
ach es
ach se
Ġgest r
Ġca fe
Ġamb ition
Ġverst Ã¶
Ġfem ale
us ter
el and
Ġver ble
ill igt
ak zept
out h
Ġins ert
wor king
Ġzeit plan
Ġwelt weite
Ġverw Ã¶
Ġbevor zug
Ġaccur ate
anwend ungen
Ġsnack s
Ġb ow
Ġo ught
zeich nungen
Ġregul ierungs
ifiz ieren
Ġtemper atur
Ġperio ds
Ġun w
Ġab kommens
Ġqu ark
Ġfre unden
Ġange wendet
bo den
Ġvar ied
Ġautom otive
Ġerfolg reichen
bil der
c f
f ill
r unde
Ġc ord
ver tr
Ġab ges
sp iele
Ġme g
Ġsp y
Ġstud ios
Ġautom ation
Ġcommon wealth
Ġmer c
Ġeffiz iente
ĠstÃ¤rk ere
ĠuneingeschrÃ¤n kt
Ġsubje cts
c ue
Ġmit ge
Ġab sen
Ġsol ange
Ġexpl icit
Ġbekomm t
, ...
e a
k et
Ġt abellen
Ġbe iz
Ġcon version
Ġum geben
Ġkon front
Ġ9 1
Ġsicher zustellen
acht ungs
Ġtun es
pre m
Ġkommun al
Ġverf asst
herstell ung
Ġverwirk lichung
mechan ismus
k Ã¼r
Ġw ro
Ġp pe
Ġre ly
lich ten
Ġinter ne
Ġ6 3
19 99
Ġhervor ge
Ġverst o
Ġgere gelt
Ġpen alty
Ġconflic ts
Ġs ms
Ġth ir
at om
Ġg ps
Ġer haltung
ass ador
ank a
Ġ5 9
Ġunder stood
rat ing
Ġtreat ies
ĠnatÃ¼r liche
hil f
Ġruh ige
Ġreli ability
gh ter
Ġimper ial
Ġprosper ity
Ġreconst ruction
6 2
8 5
Ġl Ã¤ÃŁt
em ble
Ġauf gebaut
ho b
Ġdat um
Ã¼t ung
Ġcy ber
Ġpassen de
ĠausfÃ¼hr liche
Ġbran che
Ġjahrhunder ts
Ġkorre ktur
Ġrech tzeit
Ġantid umping
Ġtourn ament
Ġcon v
Ġaus gesetzt
Ġkl age
Ġvar ian
Ġcat al
Ġhervor heben
Ġleit et
onen te
Ġumfang reich
Ġangewand t
v d
un er
an y
Ġv ip
Ġk Ã¶l
Ġha z
Ġor ange
Ġar bit
Ġfl Ã¤chen
Ġdevelop ers
stell er
Ġthem es
Ġhead quar
Ġjun ior
Ġerh ielt
v ize
Ã¼ d
Ġho b
Ġro ut
Ġma ur
ace utical
ĠfÃ¼hr er
Ġentwicklungs hilfe
Ġhumanit Ã¤ren
Ġlok al
Ġexter ne
Ġabsch lieÃŁen
or iented
Ġst ays
Ġer lassen
Ġor te
Ġgr ill
cht est
Ġele v
Ġmal ware
Ġdirekt or
ikan en
Ġfreund liche
Ġgrundlegen den
Ġargent in
Ġvalen cia
Ġd ick
Ġfra ktionen
Ġpal acio
ric ted
Ġmaxim ale
fel der
Ġmex iko
verbind ungen
Ġn ue
Ġr ide
Ġpar ks
mer k
Ġbeen den
Ġlie b
Ġrec ru
Ġintegr ierten
Ġinstall er
ĠrÃ¼ck kehr
Ġrea ction
Ġdrit tel
Ġromant ic
Ġvoc ational
Ġurlau bs
ĠbevÃ¶lker ungs
s i
Ġst ammen
Ġso fern
Ġte e
Ġpropos ing
ĠverÃ¶ffent lichen
Ġdecl ine
ĠauÃŁen politik
Ġpurs ue
Ġhindern isse
Ġordnungs gemÃ¤ÃŁ
n ers
Ġs ed
ra gt
ier er
Ġsie g
Ġde aktiv
Ġwh om
ah e
Ġdur ation
Ġla un
Ġregul ierung
Ġir gende
Ġfern sehen
Ġluft verkehrs
stag ung
Ġcomment ing
lad im
Ġcell s
wahl en
Ġthre aten
Ġextraordin ary
Ġunforget table
Ġh ang
Ġo ecd
Ġis nt
Ġl Ã¤nge
Ġtra il
Ġans on
Ġexec ution
Ġsteu erung
dis k
Ġvorsitzen der
itu ation
7 2
8 1
p i
Ġd Ã¼
re c
ĠÃ¼ber s
iz iert
Ġprodu cer
Ġacc ident
Ġev olution
kl ar
Ġregistr iert
Ġaffe cts
Ġaktual isierung
Ġzert ifik
Ġwom an
ĠanhÃ¶r ung
d ial
Ġt anz
re ds
em en
Ġfor ese
Ġcon vert
ad ays
Ġen ds
Ġinter nen
Ġkon junkt
Ġnet ze
Ġverein bart
Ġgest attet
ĠĠ Ġ
bet rag
ban i
Ġentde ckt
meld ungen
l is
p ft
Ġ Ã¶rt
Ġv ibr
Ġan gest
iv als
Ġcan cell
fahr zeuge
Ġass ume
Ġbek Ã¤mpfen
Ġown ed
Ġander erseits
Ġzie ht
Ġkommissions vorschlag
Ġrefle cts
Ġferienwohn ungen
Ġurs achen
Ġwolf gang
Ġv ater
ff er
Ġaus rÃ¼stung
ac kt
wer ken
Ġgeb eten
kehr t
Ġtele com
Ġchr is
Ġprepar ations
Ġchines ischen
Ġsimult ane
as chen
Ġbe ziehung
Ġse lling
ine a
Ġbes orgt
Ġmy th
inn ing
Ġequ ivalent
Ġsy mp
fÃ¤h igen
ĠverstÃ¤r kte
Ġforest s
Ġteach ing
r ates
t rans
Ġ Ã¶ffnet
Ġf uss
Ġan halten
ter ungen
iv ate
Ġco o
Ġall tag
io v
Ġdire kten
Ġnow adays
Ġgew Ã¶hn
Ġlog os
Ġtw enty
Ġident ification
Ġguid ance
Ġrefle cted
Ġult imate
Ġconstit ute
Ġcompar ison
Ġurheber recht
gÃ¤ ste
Ġcolom bani
Ġanson sten
g ten
u ck
Ġs ke
at on
Ġp asst
Ġh ed
le ger
Ġand al
Ġver geben
Ġas ks
Ġma zed
Ġkon sens
Ġdurch zufÃ¼hren
Ġav en
Ġfl Ã¤che
Ġbo y
Ġstand ing
Ġgemeins amer
Ġrespons es
Ġletz tend
Ġtur b
Ġspezial itÃ¤ten
Ġencour aged
Ġgeorg ien
Ġteach ers
ĠentschlieÃŁungsant rÃ¤ge
instr umente
Ġcompr ises
Ġminib ar
Ġauf zunehmen
be weg
wirtschaft ung
Ġnotwend ige
Ġident itÃ¤t
Ġpublish ing
Ġniederlan den
Ġwirksam keit
ĠbemÃ¼ ht
m aster
r asse
z za
sch te
Ġsu cht
Ġus age
wir kung
Ġtext il
Ġexam ination
Ġgef angen
Ġcho ices
Ġdol om
Ġerneuer bare
ĠÃ¤gyp ten
Ġf ather
Ġvor aussch
Ġinternational ly
Ġautomat ische
Ġrad ical
Ġitalien ische
Ġaufge fÃ¼hrt
Ġhorizont al
Ġmittl eren
d umping
le ute
Ġk Ã¼nd
Ġre chen
Ġsch u
Ġbet onen
Ġseit ens
Ġcompan ys
Ġdisc ipl
Ġshow ing
Ġinvol ving
Ġvorauss ichtlich
Ġschwar zen
Ġgeeig nete
ecsp okes
k au
Ġa y
Ġr uÃŁ
kt ure
Ġauf tr
uch s
Ġwor st
Ġste igt
ink el
Ġhom es
ĠÃ¼berw acht
Ġhospital ity
Ġstamm t
Ġmagn ific
Ġein fuhr
ck te
ĠmÃ¶ chtest
Ġsupp osed
Ġange ht
Ġ7 6
Ġed ge
c ase
Ġco in
Ġgr Ã¶s
Ã¤tz ungen
Ġmal ays
Ġbenutz ung
stehen de
Ġpie ces
ĠbeschrÃ¤n ken
ĠbeschrÃ¤n kungen
Ġmedic ines
Ġcontro ller
Ġchal et
Ġmath em
Ġtimet able
Ġandern falls
j er
ie hlt
Ġin se
st il
ir us
Ġinter governmental
Ġcl ock
Ġsa ving
Ġrest aur
Ġlin ien
Ġleg ally
Ġfund ed
Ġru f
Ġspan nen
ĠbeschÃ¤ft igen
Ã¤d chen
Ġdim as
Ġmiss brauch
Ġcandid ates
Ġeinschl Ã¤g
Ġsier ra
ungs maÃŁnahmen
Ġte uer
he iz
Ġpo ul
Ġgegen d
Ġany where
Ġlie chten
Ġdat ens
Ġmet rop
Ġmil an
Ġkor ruption
ĠgefÃ¤hr lich
Ġtrave lling
intern et
Ġlod ge
Ġv il
Ġer zeugen
oo king
Ġtra ditions
Ġkein em
Ġover come
Ġcol umn
net ze
Ġfest stellen
par te
Ġgerichtshof s
sc ale
Ġmensch liche
Ġsole ly
metho de
us er
Ġauf rech
Ġsp er
geb Ã¤ude
Ġla pt
Ġmon opol
Ġgleich gewicht
Ġgemeins ames
Ġfahr rad
Ġarg umente
Ġkons erv
este in
Ġdraw ing
Ġhoff entlich
Ġhund reds
Ġstake holders
b em
m ass
Ġh iking
Ġj ury
qu elle
Ġunter richt
ran ge
tr as
man ager
kl aus
Ġet ik
br es
Ġexpl ained
Ġdre h
spiel en
Ġped ro
Ġstu fe
wirt schaften
anto ine
n iveau
on ed
Ġp ays
Ġn om
Ġl Ã¼
Ġkn app
Ġback up
Ġtag s
Ġfa ith
ograph ic
ĠbÃ¼ cher
dra ul
webs ite
Ġspectac ular
n ia
p ie
Ġse ch
ak a
Ġher um
Ġneu igkeiten
Ġerw Ã¤hnen
Ġrechts grundlage
Ġrecht lichen
ux e
Ġmanufact ure
Ġkomfort abel
Ġtau ch
Ġumfass end
Ġls zl
4 00
f eder
o ured
Ġh idden
te c
Ã¼ re
st ers
st unden
ut a
Ġst rug
id el
Ġ18 0
Ġmot ions
ĠzustÃ¤nd igkeit
gehen de
Ġlearn ed
Ġol ive
Ġpharm aceutical
s creen
an schluss
est r
Ġwer ke
Ġch all
Ġinter im
Ġkon gress
burg h
Ġkomfort able
Ġmarg ot
Ġkenn zeichnung
Ġcompos ition
Ġd iving
Ġb ien
at ch
Ġe f
Ġin ev
Ã¤ glichen
ig s
ite te
Ġcons c
Ġlet ters
Ġcir cle
Ġpartnership s
Ġkunst stoff
Ġbran ch
Ġbewer ber
Ġwirks ame
ĠgenÃ¼ gend
re chten
Ġf oss
Ġk ampagne
Ġr ichter
ab teilung
Ġge arbeitet
Ġvor lage
bar es
Ġschw imm
Ġspec ify
reg ierung
Ġanal og
Ġbenef ic
zw ungen
ograph y
Ġindic ate
Ġprozess e
Ġflugh Ã¤fen
Ġerleich tert
krie g
Ġacknow led
ecspokes antoine
ber ichte
Ġauf s
Ġgr ass
Ġtra ce
Ġapp lik
Ġpolit ically
Ġ6 7
ichte ten
Ġentwicklungs zusammenarbeit
Ġanaly t
bÃ¼ ro
Ġstrict ly
Ġfrancis co
Ġmoro cco
h et
o e
u c
Ġe he
Ġg vo
Ġi z
Ġverb indet
wor te
Ġabst immen
Ġli ikanen
Ġmer ger
Ġschle chte
Ġsatisf actory
Ġzul assen
grenz ung
nor men
h ot
on as
Ġp i
Ã¤ ften
Ġr in
Ġaus nahmen
au ch
Ġfe iert
Ġbr ands
Ġwirtschaft sk
ĠgroÃŁ em
ches ter
Ġ198 8
Ġprotokoll s
Ġverkauf s
Ġamerikan ische
mÃ¤r kten
Ġtelekommun ikations
r ia
r uss
Ġp ina
Ġle aving
ann i
Ġunter zeichnung
Ġro th
Ġfre ut
Ġrechts staat
Ġstruct ured
ij a
Ġverm ieten
rÃ¼ ckt
Ġgir l
unterst Ã¼tzung
Ġin akzept
Ġco des
ck ing
Ġsp amb
Ġben ita
Ġwhen ever
Ġschw ere
Ġpublic ations
Ġhead ing
Ġhighl ighted
ĠmÃ¤n nern
Ġfant ast
p es
Ġc av
Ġr ass
Ġpro s
Ġer led
Ġsch atten
Ġkommission sprÃ¤sident
Ġdurch setzung
zu fÃ¼gen
Ġbut t
Ġfl ach
auf nahme
Ġbro ken
Ġgleich stellung
ĠÃ¤nderungsant rÃ¤gen
Ġempf iehlt
Ġhost ing
Ġernst haft
Ġfas cin
Ġminor ity
Ġgepl ante
Ġincent ives
Ġnegoti ating
Ġantib iot
Ġver lie
and t
Ġex cel
out s
geb ieten
Ġsee king
Ġerst mals
weit ere
ĠsÃ¼ da
Ġempf ang
Ġdemand ing
Ġdistrib ut
ĠfrÃ¼her en
Ġhilf reich
Ġt ruck
is men
Ġm c
Ġr Ã¤ume
Ġj azz
Ġaus Ã¼
gr unde
Ġcons erv
Ġzusammen setzung
Ġgrund lagen
Ġplan en
Ġlandwirtschaft liche
Ġhead s
km ale
gro up
m ung
le ts
us al
Ġab and
Ġch i
Ġher kunft
Ġfre il
Ġfe ll
man s
Ġfil me
Ġstre ets
Ġanim ation
Ġcontrib uted
gu ide
Ġcoordin ated
Ġlangfrist ig
polit ischen
ĠgewÃ¼nsch te
Ġinspe ction
zipl in
ĠverlÃ¤nger ung
Ġandal us
8 7
Ġ ug
Ġin tel
Ġg ram
ced es
Ġange kÃ¼nd
Ġlast ly
bo a
gesch windigkeit
uff icient
komm t
Ġwiederhol t
su ite
Ġgenere ll
Ġp ump
ab kommens
ieren der
anz ar
Ġbl ingee
Ġget ragen
ĠÃ¤nder t
Ġtreat ments
Ġerst klass
Ġstra ÃŁ
lan gen
Ġged acht
Ġcorre ction
Ġstor ies
Ġspre che
Ġprovin ce
Ġkonsequ enzen
Ġclo ud
analy se
Ġrelie f
Ġan weisungen
Ġbe fehl
Ġto x
Ġer sta
Ġcl ause
Ġpost al
Ġanswer ed
Ġtransl ations
proble m
Ġsac r
Ġung laub
k ennt
Ġd Ã¼ssel
Ġs z
Ġnach drÃ¼cklich
Ġsim ul
Ġenv is
Ġ14 0
spe c
Ġerk ki
Ġgal erie
Ġprakt iken
Ġkatastrop he
verzeich nis
a al
d t
Ġs ri
Ġp ag
Ġe cht
Ġc raft
em on
Ġdes erve
Ġor ch
we b
ri x
Ġconcept s
Ġh ein
Ġg ym
Ġbe lo
for ce
ĠÃ¼ber leben
Ġwas ch
Ġpl ate
Ġste igerung
Ã¤r er
Ġval le
Ġvi ii
ww w
bezogen en
Ġoffiz iell
Ġwoll ten
w Ã¤nde
Ġr ang
Ġde cken
Ġsch r
pr Ã¤
Ġem ission
Ġu v
Ġausge geben
Ġcal m
ĠkÃ¶nn t
Ġcolle cted
Ġwin ner
Ġcitizens hip
Ġcompl iment
plan ung
Ġtransl ated
Ġfru cht
Ġconcentr ate
Ġexisten ce
Ġhervorra gend
Ġeign et
f angen
un ning
Ġpro xim
Ġzu grunde
Ġum setzen
Ġgr ants
aus stattung
imm ers
Ġ6 1
Ġverl ust
Ġann ivers
Ġdef izit
Ġcomb ine
stÃ¤t igkeit
un ted
Ġp ow
as is
Ã¤ ub
Ġdo ctor
Ġprodu cing
Ġger inger
zahl t
Ġ13 7
rÃ¤ umen
gÃ¤n ger
Ġadministr ator
Ġimm igr
Ġmensch lichen
inform ation
Ġbib liothek
jan i
ĠschluÃŁ folgerungen
Ġhygien e
Ġkall as
Ġletztend lich
Ġliechten stein
z ern
Ġh ur
ra k
Ġj ames
Ġge ister
Ġha iti
Ġcar los
Ġverw altet
Ġson y
Ġbig ger
Ã¤mp ft
Ġfly ing
Ġgraf ik
ĠgrenzÃ¼berschreit enden
Ġperspekt ive
coun try
Ġ Ã¤lt
re ibt
ur m
Ġz ahn
Ġein iges
Ġminister ial
Ġwhat s
atz en
Ġgel Ã¶
Ġcomple tion
Ġinstit ut
Ġint entions
Ġinstitution ellen
Ġfocus es
Ġbetrie be
Ġmitarbeit ern
Ġlehr er
Ġmazed onien
u ite
re publik
Ġc ache
Ġin gen
Ã¤ der
om er
ver schm
Ġbeg Ã¼nst
Ġdel uxe
Ġadop ts
Ġcal c
ĠzurÃ¼ck zu
Ġerfolg s
Ġdifficult y
Ġenor me
sprozess es
Ġgebrauch t
schaff ung
Ġindo or
m acht
t age
Ġr unde
Ġcon ciliation
Ġind ian
Ġsens or
Ġacro bat
herstell er
Ġcooper ate
Ġb our
Ġin e
Ġg our
Ġn y
ur er
il led
Ã¶ tz
Ġzu behÃ¶r
Ġres ist
Ġpart ly
ac o
Ġgu ided
Ġ9 3
Ġmont age
Ġverzeich nen
Ġsyr ien
Ġchall eng
k und
x i
Ġb ier
Ã¶ ss
Ġes p
ann ter
Ġpres erv
pf l
Ġdown t
Ġerfol ge
ml aga
Ġzentral er
Ġlangfrist igen
Ġanreg ungen
h z
Ġt ub
Ġb ak
Ġthe ory
Ġr ud
ink i
Ġprojekt s
Ġjugend her
ĠhÃ¤u f
ĠbestÃ¤t igung
Ġkonfigur ation
ĠendgÃ¼lt ige
Ġeingesch rÃ¤n
Ġforts etzen
8 4
h our
Ġver ified
sch icht
Ġer lebt
Ġsch ad
Ġzur ich
... ?
ement s
Ġlo hn
Ġinv ites
arbeit s
Ġschl imm
leit ungen
Ġelect rical
Ġoffen bar
Ġbein halten
Ġwom ens
Ġkonz ern
Ġfavor ite
Ġvorange gangenen
m i
m y
Ġm ale
Ġo h
Ġr enn
ste igen
sp arte
Ġqu ote
cl es
Ġinvest oren
ĠauÃŁen beziehungen
Ġexclus ion
Ġclar ify
Ġforst wirtschaft
Ġthe oret
um er
Ġle ichte
Ã¼ber ein
Ã¤n omen
Ġvor Ã¼ber
kehr en
Ġenvironment ally
Ġtun is
Ġtrain ings
Ġkat al
Ġfal sche
Ġconstit utes
Ġexter nen
lim ited
ĠrÃ¶m ischen
proto koll
g reg
i am
i ago
Ġh Ã¤ndler
Ġun o
ges undheit
Ġbet reiben
Ġmen gen
oc ol
Ġbeste uerung
Ġauthor ised
antwort ung
Ġprom ise
feren ces
Ġpf lege
Ġzeich net
Ġwidersp ruch
6 00
c ision
er er
Ġt end
on ic
Ġw Ã¤chst
as ters
Ġan h
Ġbe hÃ¶r
Ġi ve
Ġr ande
Ġj ak
ach te
Ġsich eren
Ġher o
ok raten
Ġant iv
Ġschwier ige
Ã¤g liche
Ġherunter geladen
ĠzuverlÃ¤ss igkeit
Ġgep Ã¤ck
% ,
8 3
p ower
Ġn ative
Ġan hÃ¤ng
im er
Ġho hem
Ġerw arte
Ġmod ular
Ġmer cedes
Ġtw ice
Ġtats Ã¤ch
Ġbemer k
ĠprÃ¤sent ieren
Ġangegeben en
Ġabwe chs
Ġbeschwer de
Ġfratt ini
Ġb icy
Ġv a
ul pt
Ġaus maÃŁ
sp unkte
Ġdis ag
Ġwirk ungs
Ġhaupt bahnhof
Ġta jani
Ġbeseit igung
Ġvor nehmen
iz en
Ġwar s
arbeit er
Ġlie ben
Ġsub t
Ġcap abilities
reg ionen
Ġdeutsch lands
Ġhinzu zufÃ¼gen
Ã¼hr t
Ġarm y
Ġgewinn t
hel m
ĠerÃ¶ff nen
Ġsamm eln
Ġembed ded
Ġsymp ath
Ġspamb ots
: :
f ile
w els
Ġa ro
it as
Ġin tends
ro t
um welt
im ents
Ġsch Ã¤den
Ġaus bildungs
Ġall ah
Ġsh er
Ġno vo
zie llen
Ġbook ed
produ kten
Ġfair ly
Ġneues te
Ġmanufact ured
Ġmand atory
uz z
Ġdepend ent
ĠgrenzÃ¼berschreit ende
Ġakte ure
Ġschmer z
h Ã¤ndler
Ġn ad
Ġun to
ed ia
ic ans
st ab
ach er
Ġle ban
Ġvor gestellt
Ġzusammen halt
ĠgrÃ¼ ne
Ġmunicip al
Ġgleicher maÃŁen
Ġundo ub
, -
Ġw Ã¤l
Ġf lav
Ġro ss
hl ung
Ġhel s
Ġchar m
Ġbro wn
leg te
Ġspecial ized
Ġdeutsch er
Ġverg nÃ¼
Ġresult ing
Ġkre is
Ġsuper b
Ġconfig ure
Ġfle et
Ġunz ul
Ġsuperv isory
Ġsched ule
8 2
an teil
Ġg ib
Ġv acc
Ã¼ se
Ġz Ã¼
Ġtr in
wick lung
hÃ¶r t
Ġspecial ists
Ġobje kte
ĠspÃ¤ter en
Ġbezahl t
Ġreag iert
Ġreh abil
Ġan trÃ¤ge
Ġand r
Ġen em
tr ess
Ġwo bei
Ġ9 7
Ġmag st
Ġaccount ing
Ġsignific ance
Ġstatist ical
Ġnormal en
Ġjournal isten
Ġauss age
Ġgros sen
em ann
ere gel
Ġab teilung
be ing
Ġbo ught
Ġdown lo
spro du
Ġtem por
Ġconven ience
Ġdeep ly
polit ische
Ġsupplement ary
Ġfestpl atte
Ġinade quate
Ġm ieten
st ens
Ġr id
Ġcon ve
Ġsch Ã¤tzen
ant ie
Ġ8 7
Ġmus lim
ĠÃ¶ffent licher
Ġfort unately
Ġtour ists
Ġmobil tel
Ġverste he
Ġaustral ien
Ġrech nen
erzeug nisse
spolit ische
ĠhÃ¼b ner
Ġgene va
/ _
on ing
Ġb aut
ll ar
Ġk az
ic ity
Ġab lauf
Ġentwick ler
Ġfest legen
Ġ16 0
Ġbra in
Ġklein ere
Ġmultil ingual
Ġfrem d
w unsch
ie ller
or ith
ig sten
Ġl ud
Ġch arta
Ġph are
olog ne
Ġfinanz mittel
rei ze
Ġche f
Ġsy ner
Ġpay ing
Ġphil ipp
Ġven ice
Ġjournal ists
Ġtaus ende
Ġbiodivers ity
Ġunnecess ary
Ġl anzar
Ġwer fen
ann ual
Ġkon zer
Ġansp rech
Ġaufent halts
Ġsyr ia
Ġhervorge hoben
Ġp se
Ġe ase
Ġre cre
ver fahrens
gesch ichte
Ġstre t
Ġaccom pl
Ġfas zin
Ġrh ein
Ġhund red
Ġpred ict
Ġscr ut
? ?
k estein
l ong
w Ã¤hr
Ġth ys
Ġc um
be g
Ġman if
Ġfre ight
Ġvis its
Ġbef asst
Ġjan ez
Ġnegot iation
Ġmotor way
Ġverbesser te
kap ital
Ġhimm el
o z
v ii
Ġv r
Ġ3 60
Ġgen annte
che ck
Ġpre l
wir kt
ha i
Ġrep ut
imin ister
ĠâĤ¬ .
Ġpost ing
Ġapproach es
Ġhy draul
schlÃ¼ssel ung
Ġ900 1
Ġstru kture
spec ific
Ġm es
Ġk lo
ol is
den s
Ġfor tz
Ġso hn
Ġeurope aid
Ġdurch s
Ġins ufficient
Ġbl ank
Ġ8 2
Ġsel ber
Ã¼h le
Ġrahmen bedingungen
Ġauthor isation
fil m
Ġober flÃ¤che
Ġmang o
Ġvorgehen sweise
Ġgegenseit ige
sper iode
Ġanmer kung
Ġwoo den
Ġhels inki
b aus
z el
Ġein kommen
Ġr ust
Ġintern etzugang
Ġ20 2
Ġkl assen
Ġreview ed
Ġprogress ive
Ġerweit ern
Ġcover ing
Ġappear ance
ĠjÃ¤hr liche
ĠmilitÃ¤r ische
s Ã¤tze
u ro
Ġb omb
Ġein stellen
ĠgrÃ¶ ÃŁen
Ġtext ile
Ġstarts eite
Ġloss es
Ġd ess
ot ing
qu in
ĠÃ¼ber aus
kre dit
Ġgeneral sekretÃ¤r
Ġemploy ers
Ġabge geben
Ġlib an
Ġbisher igen
Ġsun ny
iedr ich
Ġelse where
sph ase
Ġgriech ischen
vize prÃ¤sident
Ġf if
Ġf usion
ar ma
Ġan reise
em p
Ġst ages
se ktors
Ġfre ely
Ġgem isch
Ġarbeit sprogramm
Ġget re
Ġinvest or
voll stÃ¤nd
Ġverteid igungs
Ġerwer ben
m ain
o fern
z ert
Ġt id
Ġb ass
Ġun verbind
sch reiben
iel ten
Ġgew id
Ġlie bl
Ġgel esen
Ġ! !
Ġprom ises
Ġconsult ations
Ġed in
Ġpas cal
Ġemphas ise
Ġannivers ary
/ +
Ġd oss
Ġf assen
Ġf tp
as er
Ġan geschlossen
Ġl amp
Ġge plan
Ġ( âĤ¬
Ġste fan
schl iess
Ġstay ing
kun st
Ġallow ing
Ġstabil isation
Ġapply ing
Ġmand at
Ġruh igen
Ġkontroll ieren
Ġundert aken
Ġwinn ing
Ġdestroy ed
spf licht
Ġtrig ger
Ġundoub tedly
z immern
ic i
Ġins ofern
Ġerw Ã¤g
Ġbil dern
Ġorigin ally
cript ions
Ġassoc iations
Ġrechn er
kur se
Ġreduz ieren
Ġausser dem
Ġgetr ennt
o ben
z onen
un te
Ġl ady
st one
Ġse ats
Ġma ced
Ġzw Ã¶l
Ġsc ar
Ġsc ene
Ġbereit et
Ġsurpr ising
Ġbol kestein
Ġingred ients
ĠdÃ¼ssel dorf
Ġm ort
Ġe ck
ol er
Ġsch la
Ġas ian
if ikation
fÃ¼ llen
Ġsol ana
Ġbo ards
Ġput s
Ġeg al
Ġwohn ungen
Ġcontinu ously
Ġstor es
Ġton nes
pers onen
Ġcab in
Ġachievement s
Ġalph a
i pt
u ers
Ġg ay
Ġl ig
Ġre ward
Ġy acht
Ġmo ves
Ã¤ch er
Ġlog istik
Ġaccept ance
Ġdim ensions
Ġgesetz es
Ġprohib ited
Ġberecht igt
p df
u v
Ġun esco
Ġsch ott
ens es
Ġvo llen
Ġmir ror
Ġreserv ieren
Ġanzu wenden
Ġsant iago
ĠausfÃ¼hr lich
Ġmeasure ment
kontro llen
Ġprinzip ien
Ġnar row
Ġqualit ativ
Ġbeabsicht igt
ĠÃ¼bertrag ung
Ġthys sen
Ġun us
Ġk ath
Ġl akes
ra id
est yle
ver tra
Ġch ap
Ġcom pe
Ġfre ier
Ġalle ine
Ġqual ifications
Ġeconomic s
Ġfahr er
Ġce caf
Ġrecogn ized
Ġvirt ually
utr ition
kam pf
Ġlatein amerika
Ġc ors
Ġso v
Ġag gress
ov ina
Ġele ctor
produ kt
po st
best Ã¤nde
Ġclar ity
Ġverbunden en
Ġleb end
ĠbewÃ¤lt igung
8 9
en cies
Ġn az
Ġan stieg
am an
Ġcon vers
Ġaus sprechen
sp rechend
Ġ34 4
Ġerkl Ã¤re
Ġmagnific ent
Ġm Ã¤dchen
Ã¼ mer
Ġto lle
ic ate
ier bar
ien e
op es
Ġacc idents
Ġerw iesen
Ġsim on
Ġfest zu
Ġeigen er
Ġpat ents
Ġweb cam
Ġenter ing
Ġstre cke
Ġmonth ly
Ġentde cke
ado x
Ġfan den
Ġmarok ko
d oc
it ative
Ġe zb
Ġc ologne
Ġn erv
Ġpro tot
os ing
Ġad am
Ġcomp uls
etz ten
Ġmehr sprach
Ġeing abe
ĠdÃ¼r ften
Ġold est
Ġinvestig ations
+ +
Ġc ow
st art
Ġmo dem
Ġmar ri
Ġsol v
Ġact ing
Ġinnov ativen
Ġgran de
Ġrenew ed
Ġobserv ation
Ġalp ine
Ġeinzigart igen
Ġbeig etragen
z io
Ġf i
Ġp ear
Ġg f
Ġauf gerufen
Ġinter med
Ġcomm end
Ã¤nder ung
vo ller
Ġcap able
Ġlog ic
Ġmarkt es
Ġgradu ally
ĠgeÃ¤u ÃŁert
v ors
Ġin land
ul ous
Ġj ag
Ġch ocol
Ġlo ved
Ġtran qu
Ġbeg leitet
Ġadv is
Ġadv ise
Ġdi kt
Ġspan isch
Ġsil ence
Ġscient ists
Ġtroub le
Ġspaz ier
in ne
Ġw Ã¶rter
Ġi wf
op f
Ġmar s
Ġbr ill
Ġrest ricted
Ġbon n
Ġkil led
Ġinnen stadt
Ġfirm ly
Ġerinn ert
Ġcloth ing
Ġmittl ere
Ġdisappo int
Ġernen nung
Ġver teilung
Ġvor n
Ġcl ip
Ġvers orgung
Ġgener ationen
Ġproblem los
Ġorgan ise
Ġabst ra
Ġhoch rang
Ġbil anz
Ġinteress ieren
Ġord inary
gl Ã¼ck
Ġsimilar ly
Ġdemonstr ation
Ġverbreit et
Ã¼ste t
Ġschwed ischen
muse um
Ġf ass
Ġk ron
Ġre ib
Ġso il
Ġaus fuhr
ad vant
sp ers
Ġinter akt
lin ks
cess ion
wor ben
Ġgener ations
Ġregul ated
Ġlandwirtschaft lichen
ĠrÃ¼ck en
Ġenthalten en
Ġfeder ation
Ġrecord ing
Ġhung er
Ġster ben
Ġmaintain ing
Ġdele ted
Ġpercent age
Ġsubsequ ently
Ġlanzar ote
d ir
n ism
Ġs alt
an wal
Ã¤ use
Ġj ene
ly ing
ĠÃ¼ber arbeitung
pr im
ame ter
Ġbas ically
Ġgeb lieben
Ġsign als
Ġmanag ers
Ġexce llen
stat us
Ġkre bs
Ġbuy ing
Ġswe et
f ood
h ans
lich em
ot a
sen z
Ġpl ain
Ġbre iten
Ġnutz t
ĠerfÃ¼ llung
Ġarran ge
Ġspl end
Ã¼g igkeit
Ġun limited
Ġl ending
Ġpar adox
ne ider
Ġunter nehm
ran ten
Ġkon zip
Ġpo cket
pro of
ph p
Ġrel ative
Ġspecial ly
Ġresearch ers
Ġstabil itÃ¤ts
Ġcut s
Ġtransfer red
Ġnachbar n
Ġreduz ierung
Ġobserv ed
Ġereign is
Ġoccas ions
Ġschre ibt
kat astrop
ĠkÃ¶l n
Ġf Ã¶der
Ġo tt
Ġn as
Ã¤ llt
ir n
Ġsch licht
Ġle hren
Ġzusammen f
Ġstat ut
Ġbereit en
Ġappro ve
20 20
Ġslow ly
Ġdynam ik
Ġflexib el
kontro ll
grÃ¶ ÃŁe
stechn ik
ĠÃ¼bersetz ungen
Ġtradem arks
Ġphenomen on
Ġliebl ings
de fin
Ġro ugh
uch te
Ġman chen
Ġfra gest
Ġdis advant
pos ition
Ġviel seit
Ġtechn ique
Ġdr ast
hÃ¶r ige
ĠgroÃŁ teil
hol t
Ġgest iegen
Ġnecess arily
!! !!
Ġpurch ased
Ġdiag nost
Ġdiam ant
ĠwÃ¤hl er
Ġannehm lichkeiten
Ġedin burgh
r un
s ol
un ters
Ġb ond
Ġp orn
sch au
ru fe
ern t
Ġbes che
Ġnach stehenden
Ġgr at
Ġko ch
Ġbus es
Ġjav ier
iner y
Ġvertra ulich
fil es
Ġsem i
commer ce
Ġw ille
Ġto ugh
Ġaus blick
Ġab zusch
Ġem u
Ġfl Ã¼ss
Ġfinanz krise
Ġpass ag
Ġexist ieren
Ġshe ets
Ġip od
Ġanp assen
Ġfinn ish
Ġproduz ieren
Ġthreat s
Ġminor ities
Ġmov ies
Ġvorder grund
Ġprincip al
Ġgewid met
ke ep
schl Ã¼sse
Ġbek annte
Ġsecond ary
bewert ung
Ġers ucht
Ġdiag ram
Ġmedizin ische
Ġprel imin
k ok
Ġb und
re ct
Ġg ig
as bourg
om a
Ġl ingu
st yle
Ġqu ery
ges ted
Ġgu inea
Ġtour en
Ġtem po
Ġmechan ical
zer r
ifik ationen
kam mer
ĠauslÃ¤nd ische
sph Ã¤re
Ġwit ness
Ġgipf elt
6 1
a fr
Ġb ios
al m
il der
Ġr Ã¤um
Ġge prÃ¤gt
Ġha ust
Ġme ilen
Ġher ange
Ġgro wn
Ġgem Ã¼se
Ġcons ent
Ġrest ore
ĠfÃ¼ gen
Ġfound ations
ec kt
Ġsum mar
zug ang
Ġsepar ately
vÃ¶l kerung
pid em
Ġrestrict ive
Ġpix el
Ġtheat re
Ġabente uer
prem ier
Ġlaun ches
verschm utzung
ĠbehÃ¶r de
Ġfragest unde
% \
Ġs la
iss on
und ed
Ġkon vert
Ġph ones
Ġgeb iets
Ġther m
Ġzo om
Ġkil omet
Ġgerecht igkeit
Ġverste ht
Ġhilfs bereit
Ġhunder t
Ġforg otten
Ġsess ions
v ier
Ġp aten
Ġin te
il o
Ġle der
Ġqu oten
Ġspe ll
Ġsol o
Ġph Ã¤nomen
Ġrat io
Ġact ors
Ġgeb illigt
Ġdeut liche
Ġbin den
Ġverwend eten
Ġmer cure
Ġaddress ing
Ġinstitution elle
Ġbi om
Ġcomb ines
Ġvertr ie
Ġdrit ter
Ġasso z
Ġbehav ior
Ġtransition al
ĠmÃ¼nd lichen
Ġstav ros
Ġgeg ner
Ġ ud
Ġb id
re le
Ġm ent
Ġf liegen
ie v
Ġh ind
Ġein ander
Ġst an
qu et
men d
Ġev ol
Ġsee le
Ġsc an
Ġoper ated
Ġaccess ed
Ġgemeinschaft lichen
Ġtax pay
Ġevent ually
Ġcreat ivity
Ġwissenschaft ler
ĠbewÃ¤lt igen
Ġfeier n
Ġsou ver
Ġreven ue
ĠprioritÃ¤ts achse
ĠkÃ¼mm ern
d est
g ie
u ay
is st
or gen
Ġh Ã¤user
be cken
Ġ% )
Ġrecht fert
Ġconsider ing
Ġliefer anten
Ġehr lich
Ġchines ische
Ġerfre ut
krit erien
Ġjes us
Ġniel son
Ġmalays ia
b org
p in
er ted
Ġd iox
Ġb og
an ischen
Ġse vere
os h
Ġne hme
ĠÃ¼ber schreit
Ġber l
auf sicht
Ġtrans national
Ġend ed
Ġverw alten
Ġverl auf
Ġconsider ations
Ġren der
Ġerk annt
39 8
deut sch
ĠunabhÃ¤ng igen
dep uty
Ġm ater
ut ter
Ġsie b
op olit
Ġfl ows
Ġentwick elte
Ġgl ac
Ġangeb racht
Ġentscheid ungs
ij n
Ġbinnenmarkt es
Ġilleg alen
Ġenor m
Ġzerst Ã¶rt
wissen schaft
Ġremark able
k Ã¶rper
z ut
Ġin i
Ġn gos
Ġan statt
Ġun ab
Ġaus drÃ¼ck
ad r
etz te
Ġet abl
Ġregard ed
Ġklar heit
Ġkop ieren
mus ik
Ġstress ed
bas is
Ġgerecht fertigt
Ġtherap y
Ġkapaz itÃ¤t
m akers
Ġt reiber
un es
Ġg ard
Ġaus richtung
Ã¤n glich
se cretary
Ġad idas
Ã¼n den
Ġsyste men
Ġbo ats
Ġbed anken
Ġinn ere
vers icherung
Ġdirect ors
Ġpass ieren
ĠgrÃ¶ÃŁ ter
fehl er
fil ter
Ġgal ax
Ġdeclar ations
Ġeffizient er
ĠgemÃ¼t liche
Ġstimm verhalten
Ġbelong s
Ġeintr itt
Ġsoph istic
Ġvoraussch au
y en
Ġs ig
Ġin com
Ġbe ings
Ġpre ferences
av a
Ġaf raid
ond o
Ġdefin ieren
Ġverbrauch ern
Ġarran ged
Ġrub rik
Ġberu h
institution en
iÃ¶ sen
Ġvorsch lagen
Ġtodes strafe
Ġvertrie bs
ie ur
Ġk inn
ut ze
Ġsch icks
Ġqu ell
Ġla ur
fahr ts
Ġsit zen
ri um
Ġeur ora
Ġabst immungs
Ġhealth care
Ġless on
Ġcorre ctions
Ġinfl uen
Ġsto pped
ĠgegenwÃ¤rt ige
Ġsud den
Ġalex and
Ġkonsequ ent
Ġwirtschaftsk rise
Ġgeplan ten
Ġprelimin ary
a ve
Ġan th
Ġto ll
Ġge be
Ġle ct
Ġle istet
ant rÃ¤ge
Ġfr isch
ho le
Ġvers uche
alt ies
Ġsicher gestellt
Ġju an
ĠgewÃ¤hr en
Ġsoc ieties
Ġcommer ce
ĠÃ¤lter e
Ġvolle m
j ack
k ategor
Ġth ick
Ġm ine
em e
Ġde lla
Ġ7 7
Ġakt iven
rie b
Ġel ite
Ġverw ende
Ġmodern es
Ġlebens mitteln
Ġpap ers
Ġlight s
Ġ198 7
Ġjun cker
Ġvict ory
Ġexem pl
ĠerÃ¶ff nung
Ġgeograph ical
ĠbekrÃ¤ft igt
8 00
g ent
Ġw agen
Ġe pidem
Ġg elt
Ġo pf
ra u
Ġj ens
kt oren
Ġhe ight
rit z
ĠmaÃŁ geb
Ġruss ias
Ġaltern ativ
Ġka iser
Ġhy br
Ġwider stand
Ġpc s
regel ungen
Ġobserv ations
Ġcha os
ĠbÃ¼rokrat ie
ĠruÃŁ land
nism Ã¤ÃŁ
. ).
f ab
et r
um mer
Ġsch au
Ġpolit isches
Ġbo oth
wend ung
Ġrest ri
Ġlast ing
Ġdirect ions
Ġrece ives
Ġ17 0
Ġec ological
Ġmom ents
Ġbuch ungs
Ġster e
Ġannoun cement
Ġmovement s
Ġfreiz Ã¼gigkeit
Ġbatter y
Ġtelekommun ikation
Ġcoher ent
Ġarbeitsk rÃ¤fte
Ġp am
Ġg mos
Ġr f
Ġsie d
Ġal c
and in
Ġim bal
Ġge Ã¤nder
pp ort
Ġab fÃ¤lle
Ġgr iff
Ġkon vention
Ġsa fer
Ġmach inery
Ġactiv ate
Ġkr Ã¤fte
Ġsal on
Ġdemoc rat
Ġmem or
Ġwa ve
Ġaltern atives
Ġlight ing
Ġba den
Ġsho es
Ġgraph ic
Ġbroad band
pers on
Ġkonsult ationen
Ġnok ia
Ġscheit ern
ĠzwÃ¶l f
4 10
Ġun ix
Ġbe arbeitet
Ġst ab
ul se
ard in
Ġber ichtet
Ġfran co
Ġpresent ing
Ġschul z
ĠgÃ¼nst igen
Ġcampaign s
Ġmakro Ã¶konom
g Ã¤ng
Ġi c
il de
Ġtran se
Ġbar bar
Ġsm ith
gar ve
Ġdarauf hin
Ġfern ando
Ġbetre uung
Ġobject ions
Ġjahres bericht
lÃ¤u fig
Ġprefer red
ĠratsprÃ¤sident schaft
Ġangene hmen
Ġcott on
Ġeingel aden
Ġshad ow
p unkten
Ġl ived
im ension
Ġim f
Ġme ps
Ġwas sers
ges pr
ĠfÃ¼ gt
Ġreal isiert
hol ds
bes te
Ġequ ity
Ġpartner schaften
Ġmult in
Ġmer ch
Ġschwe llen
best and
Ġnam ely
Ġvereinfach t
Ġplatform s
Ġnorm ale
ĠjÃ¼ng ste
ape ut
Ġadj our
Ġbehaup ten
Ġstift ung
le ments
ul ierung
Ġaus arbeitung
Ġall i
Ġsa al
Ġpresident s
Ġlang er
Ġfood s
Ġjoint ly
Ġ198 5
Ġinitial ly
opt ionen
Ġworry ing
Ġkonkurr enz
Ġerstre ckt
Ġthres hold
Ġw ides
Ġf ue
Ġg y
Ġz ip
Ġr d
Ġer heben
Ġj et
and em
Ġdo gs
Ġcl imb
Ġ19 70
Ġafter wards
gest altung
Ġsom alia
recht lichen
Ġshare holders
Ġbio techn
Ġhervorragen den
Ġmeant ime
Ġsd l
Ġinakzept abel
Ġb Ã¼nd
ig o
il ation
sch we
Ġpl Ã¶tz
Ġmar c
con fig
Ġdire cted
Ġange ben
ri j
klÃ¤r t
Ġcr ash
Ġtre k
Ġ198 6
Ġsearch ing
Ġwohn zimmer
Ġbir ds
Ġgeh minuten
ikal ien
Ġaudiovis ual
Ġbeibe halten
n isses
et c
Ġpar ish
iz ite
fÃ¼ gt
igh ter
Ġwelt wirtschaft
Ġmus sten
Ġabst ained
Ġmal aria
ĠfrÃ¼h ere
Ġdest ruction
Ġmechan ismus
Ġham as
Ġfab r
Ġmold ova
Ġ(* )
Ġkonfront iert
Ġkonjunkt ur
u i
es tet
Ġg ained
Ġan sprÃ¼che
Ġbe ef
st rom
Ġper mission
Ġbut ter
kl icken
Ġdec ade
Ġmach te
unt ing
ko dex
Ġschne e
Ġvot re
Ġshow ed
Ġ28 2
Ġnachhalt ig
Ġredner in
Ġmist akes
Ġwil helm
Ġmur der
Ġverlei hen
kore a
h d
Ġm ahl
Ġi ct
ir ts
Ġpro min
be vÃ¶lkerung
Ġste am
Ġfe wer
Ġacc eding
geb Ã¼hr
Ã¤l te
Ġsc ot
Ġ8 3
Ġ8 6
Ġke eps
str Ã¤ger
Ġstud ied
Ġabs urd
Ġprom ised
ingt on
Ġberlin er
Ġfavour ite
Ġlic ence
Ġhost s
Ġtu be
Ġdescrib e
Ġargent ina
Ġbann er
Ġcompuls ory
f one
in de
st ars
Ġaus gesch
Ġaus gebaut
Ġtra ins
Ġspe e
Ġconst ruct
Ġpost p
Ġfrequ ent
Ġcos met
Ġerf asst
Ġcondem n
Ġniger ia
Ġgegebenen falls
Ġmaced onia
z icht
Ġt l
re m
Ġp iano
Ġh ilton
Ġse es
enn ess
Ġstr asbourg
Ġger ichtet
Ġaccess ibility
Ġstaats minister
Ġprop ag
Ġindic ates
Ġut most
aussch uÃŁ
Ġhon or
Ġzeich nen
Ġexpand ed
o ge
ro g
Ġan reize
Ġst ip
Ġes cape
Ġall erg
Ã¤t ter
Ġdar stellt
lin ess
Ġvers orgungs
Ġange legt
Ġend et
Ġstay ed
Ġeinge ben
Ġneg ativ
Ġsitz ungen
Ġende av
Ġattra ktiv
Ġpool s
Ġlib r
Ġtrack ing
Ġdv ds
Ġcoast al
Ġconcentr ation
Ġinspir ation
Ġintelligen ce
Ġdownlo aden
c uss
il ie
Ġst ro
Ġpro sec
de z
Ġab w
Ġes te
ann is
iz ieren
Ġdis asters
Ġweiter entwicklung
Ġser ial
Ġsel ben
Ġdr ives
Ġintegr ity
acht ungen
Ġspan ische
Ġdoub ts
haus en
Ġentscheiden den
Ġefficient ly
Ġdemonstr ate
Ġkomplex e
Ġleiden schaft
Ġincor rect
Ġsekt ors
Ġkul inar
Ġmosc ow
andin av
f ran
en o
Ġs es
Ġm Ã¤cht
Ġg umm
Ġv ladim
Ġein leitung
Ġr enten
ag ent
Ġvor ab
Ġsp are
Ġmar y
unt a
Ġvis um
Ġeffe ktive
Ġredu ces
Ġpolitik en
ĠprÃ¼ ft
Ġkar tell
Ġol iven
Ġdre ams
Ġfal se
Ġbeschl uÃŁ
Ġkredit karten
Ġfrequ ency
Ġhart mut
Ġreihen folge
n b
v ic
Ġd Ã¼n
Ġp om
Ġp ace
Ġin kl
Ġh p
Ġl d
Ġl anka
st immen
Ġaus fÃ¼hren
ick et
Ġhe kt
Ġrest ored
Ġadv isory
Ġce cil
Ġwerk zeuge
Ġanz ub
Ġrob ot
amin ister
ĠmÃ¼nd liche
Ġmultin ational
a ÃŁ
y ll
er klÃ¤rung
Ġa pt
Ġs hr
Ġpr Ã¤m
ial e
igen de
Ġro llen
Ġber gen
com ings
Ġrat ification
Ġbas ket
Ġche ese
Ġemploy ed
Ġempf Ã¤nger
Ġdest inations
Ġfire wall
hy th
Ġelectron ics
ĠgefÃ¤hr det
Ġausgew Ã¤hlte
Ġfab ric
ĠgÃ¼nst ige
ĠmÃ¼ ller
Ġuntersche idet
Ġkompatib el
Ġvog el
Ġt ieren
Ġp ets
Ġe fs
Ã¤ le
ter e
Ġst ain
de ck
ow ina
Ġdies mal
Ġen ge
ap ital
Ġdiff erenz
Ġbeg un
Ġel f
program men
Ġclos ing
Ġprivat sphÃ¤re
Ġconvention al
Ġexhib itions
Ġign ore
Ġexplan ations
Ġafford able
Ġansprech partner
b indung
Ġp hr
Ġun ity
em pf
Ġst off
Ġauf trÃ¤ge
Ġko hlen
Ġinn eren
Ġzahl t
Ġru ft
Ġinc ident
Ã¤us ern
Ġcountrys ide
Ġbewe gt
ĠgelÃ¶ scht
Ġkinn ock
a genda
Ġc n
Ġc te
Ġfor en
Ã¤t igkeit
Ġkn nen
room s
Ġshort comings
Ġprofession ellen
Ġenlar ged
Ġprozess es
Ġunterb richt
Ġsug gested
Ġrepl acement
Ġquot a
Ġtransform ation
Ġabwe ich
Ġnik on
Ġmold au
Ġacadem y
h ause
Ġd ign
es is
le ister
Ġbe zeichnung
Ġein heim
Ġst ufen
Ġst agn
Ġde ar
Ġso ught
Ġwh oles
pp t
if s
Ġsp enden
Ġcomp ound
ap ie
Ġkon vent
Ġgel aden
Ġsozial dem
Ġruss ische
Ġmult if
Ġak adem
Ġgenau er
Ġvill as
Ġdan eben
Ġspecific ations
Ġfrei handels
Ġtit an
Ġsimpl ified
Ġneighbour ing
Ġbehinder ten
Ġmittelmeer raum
Ġvene zu
Ġspee ches
r c
Ġb ac
Ġb lieb
Ġc z
ter dam
Ġver mitteln
Ġpro zeÃŁ
sch rank
Ġso eben
th aus
Ġad apter
Ġber ge
Ġsol ved
Ġtechn ischer
akt ions
Ġruss lands
Ġret ain
Ġschne llen
Ġverm ieden
Ġgn ome
Ġisol ation
Ġlug gage
7 4
a ids
f ungen
Ġs omm
is d
le m
Ġto wels
Ġder og
Ġre ct
de v
os is
ad ministr
Ġall zu
Ġent f
Ġdem ent
Ġger aten
Ġfinanz dienstleistungen
Ġposs ibly
Ġausw eit
Ġpal ette
Ġessential ly
Ġoblig ed
Ġfron tex
ĠwÃ¤r me
e ur
f it
g g
er kennen
Ġd h
Ġz imb
ra in
ber at
Ġal ign
Ġus ern
Ġno vel
Ġad min
Ġro w
Ġnach denken
Ã¤s se
Ġfe et
ph ase
Ġbesch Ã¤d
Ġsituation en
hip s
Ġgef Ã¤ng
Ġ: :
Ġcult ures
Ġvill ages
Ġmass nahmen
Ġberat ungs
Ġkreat ivitÃ¤t
Ġdiplom atic
Ġkonfl ikte
Ġflor enz
Ġvorzu legen
Ġnue vo
Ġexcellen ce
h ein
p her
Ġh tt
Ġk alender
Ġauf gel
cl aude
he bt
Ġentwick elten
Ġauth ors
Ġcop ies
Ġkultur en
Ġexch anges
Ġofficial ly
Ġjugend liche
Ġplen um
i ates
Ġb ull
al itÃ¤ten
Ġun pre
Ġr an
Ã¼ber trag
Ġform ula
Ġ8 4
Ġactiv ated
Ġprem ises
Ġbenach teil
Ġadr essen
Ġwithdra w
Ġpanoram ic
Ġregener ation
d ite
k enn
Ġp t
Ġg reift
Ġauf lÃ¶sung
Ġvor anz
und i
Ġum gehen
Ġgu ides
Ġph arma
bet reiber
Ġbox es
Ġfuer te
Ġvermitt lungs
Ġb av
Ġto ward
Ġl ub
Ġcon ventions
ik i
ak ings
Ġste igern
Ġra ff
Ġ6 9
Ġchar me
stÃ¼ck e
Ġzukunft s
Ġdarf ur
Ġmeisten s
ira ble
ĠverstÃ¤r kung
Ġib m
Ġphotograph y
Ġrand om
Ġpoln ischen
beschl uss
Ġreput ation
b eln
k os
Ġd c
Ġs sl
ar r
Ġan kÃ¼nd
Ġl v
Ġcon ce
Ġpl Ã¤tze
ip her
Ġant icip
Ġbedeut end
Ġarbeits losen
prÃ¼ fung
gra de
Ġfavour able
Ġdring lichkeit
Ġoblig ator
Ġerreich ung
Ġsemin ars
ĠprÃ¤z ise
Ġtransatlant ic
ĠvermÃ¶gen s
Ġjetz igen
ĠsÃ¼da frika
a ard
k it
Ġa w
ch i
an ien
Ġro dr
ĠmÃ¶ bel
ma x
Ġcent uries
Ġpress ing
ĠÃ¤uÃŁer te
Ġadvert is
Ġerwachsen en
Ġib iza
v ie
Ġt am
Ġp el
ul f
est ra
Ġde co
ill es
Ġma is
Ġag ents
Ġlo op
Ġfr iedrich
utz en
Ġhin weg
Ġop enness
Ġweiter entwick
ĠfÃ¼ gte
Ġbeit reten
Ġprodukt ivitÃ¤t
Ġlab els
Ġattra ct
Ġerk unden
Ġwarm ly
hab t
Ġquant ity
Ġwiederauf genommen
ĠwÃ¤hrungs union
Ġconsolid ation
Ġkatastrophen schutz
Ġmillenn ium
f eit
en ken
Ġw ahre
Ġh Ã¤ngen
Ġse o
Ġde ll
ĠÃ¼ber lassen
Ġunter lagen
lie derung
Ġpol ar
Ġfre ige
mit ten
Ġbar code
Ġsk ript
ha fter
Ġopp ose
Ġkur se
pre ad
Ġevent uell
Ġentfern ung
Ġpot onik
Ġcover age
see ing
Ġunver Ã¤ndert
Ġgran ada
wÃ¼r fe
Ġelektron ik
Ġvolks wirtschaften
Ġdescrib es
Ġsolar ium
Ġcontro vers
Ġlegit imate
Ġverschle chter
Ġsophistic ated
Ġadjour ned
m ine
in as
Ġd ive
Ġt an
Ġb ast
Ġc ameras
Ġl cd
et ter
ran kungen
ific ial
Ġbas ieren
Ġdeb atten
Ġfran ces
Ġdep th
Ġkosten gÃ¼nst
Ġmot ors
Ġkey board
ĠbegrÃ¼ ÃŁte
Ġturn s
iar ies
Ġschritt weise
Ġfreund liches
Ġnord ic
Ġsatisf y
Ġaccom od
Ġbarro t
Ġurs ache
ĠberÃ¼hm ten
Ġcin ema
Ġabsen ce
Ġv end
Ġvor bild
be lla
ac le
Ġkl ang
Ġev ident
Ġgeb unden
Ġform ed
Ġerfolg te
Ġpartnerschaft s
ĠernÃ¤hr ungs
ĠstraÃŁen verkehr
Ġethn ic
Ġhop es
rechn ung
vereinbar ung
Ġreib ungs
6 9
as y
et or
id t
au ff
Ġges ichert
Ġbis schen
Ġorgan e
Ġgra ve
Ġintegr ate
hol en
Ġfisher men
Ġprakt ischen
Ġjugend lichen
Ġstad ium
Ġcarry ing
Ġundert akings
Ġforts etzung
Ġalg orith
Ġbutt ons
h att
Ġn izza
Ġan a
Ġhier mit
Ġtr i
Ġko d
Ġmod ify
Ġintegr al
Ġnor weg
Ġnutz ungs
Ġadop ting
weit erung
Ġec b
spl Ã¤ne
verb and
Ġschwier iger
Ġkons um
Ġsubsid iary
Ġpurch asing
Ġilleg ale
Ġbewer ten
ĠÃ¼berwach en
Ġklass ischen
Ġscript s
Ġenthus i
ĠverwÃ¶ hnen
Ġwides pread
al i
Ġg au
ur f
Ġver mut
ver kauf
Ġpr ere
Ġunter kÃ¼nfte
Ġbest es
Ġlike wise
Ġrat ifizierung
Ġtechnolog ische
Ġspecial ities
Ġausge hen
Ġir ischen
Ġrot terdam
Ġbern ard
Ġphotograph s
anb ul
Ġtrop ical
an ter
Ġn in
Ġk im
Ġsch ienen
Ġar ise
Ġtra ged
ger icht
Ġsc ott
Ġsim b
ler nen
vers ammlung
Ġmodern isation
Ġpal m
Ġgre y
ĠnÃ¤ch stes
ĠfrÃ¼hstÃ¼ck s
Ġeigent ums
Ġveranst altungs
bil anz
Ġerzeug ung
Ġurspr ungs
Ġdetermin ation
Ġlauf zeit
Ġdein em
Ġpattern s
Ġheadquar ters
m ien
Ġm ere
Ġz ag
Ġz ones
Ġver ank
Ġauf lagen
Ġpr on
Ġab schaffung
ac a
auf ent
Ġzwe ier
Ġcommunic ate
Ġrad isson
ba um
Ġocc urs
Ġober flÃ¤chen
ĠerhÃ¶ h
part y
Ġschle chter
ĠprÃ¤ vention
Ġanw enden
gef unden
Ġmarg ins
ĠÃ¼berzeug ung
Ġverabschied ung
Ġsad dam
Ġtradem ark
spre is
kapaz itÃ¤t
Ġmonit ored
k ol
l isten
Ġb ritt
Ġk Ã¤ufer
Ġr ie
Ġany way
Ġ8 1
Ġrel ate
Ġsitzung speriode
ĠprÃ¤sent ation
Ġbezahl ung
Ġpure ly
ĠvorlÃ¤u f
Ġimmigr ants
m ic
Ġs ake
is c
at ter
at ile
Ġst ops
Ġon t
Ġde pression
Ġhe ct
ĠmÃ¶ gen
ger Ã¤ten
Ġger inge
get ragen
Ġredu ctions
Ġappe ared
Ġsen kung
Ġintrodu cing
Ġbur ma
Ġremov al
Ġfischere ip
ĠzukÃ¼nft ige
Ġtoile t
Ġkeines wegs
Ġrechtzeit ig
Ġgour met
Ġcecil ia
n io
Ġw is
Ġg ingen
Ġan gabe
ir ing
Ġst unning
Ġge ograf
ck ets
ĠÃ¼ber mittlung
Ġ4 398
ke ys
Ġinst anz
Ġbr id
Ġbesch reibt
halt ungs
Ġbus y
Ġregional er
Ġstre ben
Ġwahr en
uff s
Ġeigent liche
Ġten er
Ġverteid igen
Ġauss ichten
Ġflor ence
Ġreinfor ce
Ġcry stal
struktur en
lÃ¶ sen
Ġkompeten zen
ansp ru
Ġaufrech ter
feder al
Ġscrut iny
b row
Ġe fta
ed a
ver arbeitung
Ġinter ven
Ġmy ster
Ġstat ute
ĠfÃ¼ le
Ġair line
Ġmittel alter
Ġfunktion alitÃ¤t
Ġnatur a
Ġbetra gen
Ġsuffer ed
Ġharm ful
b ag
k ers
Ã¼ cher
ul der
Ġne pal
Ġha hn
pt ions
Ġwar nung
Ġtr ick
Ġover night
ath on
ator ium
kun de
Ġmal er
Ġwirk liche
Ġcompetit ors
Ġavo ided
Ġberu hen
Ġfro h
Ġexcept ions
Ġbeeinfl ussen
u ous
in tegr
as ien
ent lichen
ic z
Ġzu gestimmt
Ġde vo
Ã¼ber wach
Ġnot ification
Ġte ch
Ġfr ische
Ġbest immung
Ġtr istan
wir kungen
Ġcro wn
Ġkomp onente
Ġsubs cription
Ġkar r
Ġgreen house
Ġzul assung
ĠbefÃ¼r wortet
Ġveget ables
Ġeinzigart ig
Ġbedien ung
Ġcater ing
7 3
k g
Ġs as
ent liche
st ahl
Ġab ends
be ll
Ġgen uss
wer fen
Ġze ile
hol z
Ġreach ing
Ġrefer ring
Ġberuf lichen
Ġimpos e
Ġpas sport
Ġkolleg in
Ġsilver fast
Ġye llow
Ġincorpor ated
Ġausweit ung
Ġs ights
Ġk ub
Ġr ind
ill o
Ġes f
Ġinter conne
ru he
Ġmin ist
Ġ4 50
Ġfol k
Ġart istic
Ġbed ienen
els on
Ġdel ays
br ingung
Ġut ility
Ġrecogn ize
Ġvac uum
vide o
f al
f ot
n r
r ight
Ġge gangen
Ġch ip
Ġsp iegel
Ġra ises
Ġfe ind
Ġ8 9
Ġorgan ize
Ġbro sch
Ġletz tes
Ġmarkt wirtschaft
oten zial
Ġbath ing
Ġmobil telefon
Ġrelax ed
Ġpet it
Ġkrie gs
Ġbundesminister in
ampag nen
Ġbarr ier
ĠÃ¼bersetz ungs
Ġtrave llers
viel f
Ġgewer b
Ġsimultane ously
g eln
s or
z ia
Ġm g
Ġin mitten
Ġo v
st ad
Ġge ber
ik ationen
Ġcomp are
teil s
ph ones
Ġdevelop s
Ġart ificial
Ġeconom ically
Ġfil ters
Ġx l
Ġtyp ically
Ġunver zicht
Ġisrael i
Ġvorbereit ungen
Ġconver ted
Ġsubstantial ly
Ġexcurs ions
k b
r s
ig l
ber uf
ein heit
Ġwh irl
Ġher berge
Ġad ri
Ġman a
Ġinform al
Ġadd ing
Ġass urance
Ġfun k
Ġgel der
Ġamer icans
Ġaufge hoben
ĠÃ¼berein stimmung
Ġsimpl ify
Ġplug ins
Ġbay er
Ġhochwert igen
Ġverurs achen
ĠerlÃ¤u tert
Ġeinsch Ã¤tzung
Ġadj usted
Ġuncertain ty
g f
Ġw ett
Ġb lair
or ous
as ion
Ġaus flÃ¼ge
ad i
ĠÃ¼ber arbeitet
auf nahmen
tre ffen
Ġprote ktion
Ġx en
Ġopp on
Ġcommunity s
lei hen
entwick lungs
Ġnic olas
Ġgott es
Ġtie fe
Ġbreit band
Ġangene hme
ĠÃ¼berras cht
Ġunzureich end
t ter
Ġp ausch
le iste
Ġbe zeichnen
Ġein fuhren
ir y
et ra
Ġer teilen
Ġwe ine
men gen
Ġper u
Ġ7 4
Ġclass ical
Ġsty les
Ġerheb lichen
Ġhot spot
Ġbestell ungen
ĠÃ¼berwach ungs
Ġload ed
condition ed
ĠeinschrÃ¤n kungen
Ġpac ific
Ġgeister fahrer
Ġsov iet
Ġt all
Ġw ag
Ġb iz
Ġer worben
Ġyou ve
Ġpar am
Ġres pects
Ġlo hnt
Ġtr ink
Ġser ien
Ġteil t
Ġcent ro
reg ister
Ġ29 6
ifiz ierte
Ġce iling
Ġerzeug er
Ġtim ely
mess er
proble me
Ġjose ph
Ġstren ge
Ġmacro economic
7 00
Ġd up
Ġt us
Ġk ne
ab eth
Ġmit teilen
Ġge ar
Ġge handelt
Ġsch ie
Ġaus flug
Ġsp itze
per form
anz ig
Ġbet on
Ġfind s
Ġtun nel
Ġir reg
Ġren e
arch iv
ĠkÃ¼ chen
Ġanw esen
Ġklim asch
Ġfu els
Ġoccur red
Ġbeseit igen
Ġbeseit igt
Ġscann er
Ġrecru it
5 19
f ire
m und
s ys
Ġf ing
Ġh enn
Ġan tr
Ġst Ã¶
den k
Ġver do
ĠÃ¼ber mitteln
Ġsol ch
Ġinternational es
Ġbooking s
Ġatt ent
Ġindustr ielle
Ġlow est
ĠglÃ¼ck licherweise
ĠÃ¶ff nung
Ġinfrastruktur en
Ġcentr ally
Ġbeschleun igen
Ġacqu ired
Ġzimb abwe
c ut
d n
l ager
r ust
or o
Ġp az
Ġre ifen
il i
Ġab gesehen
ak ult
Ġpresident ial
zeit raum
Ġversch m
Ġgleich wohl
Ġcr ises
Ġbegr Ã¼ndet
Ġsicherheit spolitik
Ġsecur ities
Ġkos met
Ġwert volle
ason ic
schw ung
Ġdoll ars
Ġunmittel barer
Ġkonfigur ations
]] .
Ġurteil s
Ġalban ia
Ġindones ia
Ġhochschul en
stu hl
Ġspieg elt
premier minister
d p
Ġf c
Ġf este
Ġp est
Ġun gewÃ¶hn
ic ante
Ġal bert
os a
tr Ã¤ger
reich ung
Ġhand t
Ġmon ument
Ġph ant
Ġbesch reiben
Ġ12 5
weit en
Ġexec uted
Ġclar ification
Ġtau chen
Ġthought s
Ġentschlossen heit
Ġowners hip
Ġindire ct
Ġausgestatte te
Ġrechtsstaat lichkeit
Ġchocol ate
b ib
er re
re bt
Ġfor d
Ġge werk
Ġall m
og ram
Ã¤nd ig
legen heiten
Ġ7 8
Ġsign ing
Ġbreak down
Ġlog ical
Ġverg ibt
Ġassess ed
Ġdemonstr ated
Ġweak en
Ġrefuge e
Ġpill ar
Ġcloth es
Ġvorsicht ig
Ġpia zza
Ġlapt op
Ġfascin ating
] .
b ud
k anz
Ġg t
Ġo sc
Ġver arbeitet
pe zif
Ġco ins
ste hend
gr es
Ġmar ie
Ġkon ferenzen
Ġcomm ons
Ġdurch ge
ĠmÃ¼s ste
Ġhand led
Ġjo om
Ġbu en
Ġbre men
Ġeng el
Ġschw eren
ser ie
Ġdah in
Ġaussch Ã¼sse
cr imin
Ġbug s
Ġswimming pool
Ġrelationship s
spar ungen
ĠbetrÃ¤cht liche
& #
d os
Ġd iction
Ġw Ã¶ch
ol ic
Ġr yan
Ġist anbul
Ġch art
Ġher be
Ġad ress
Ġverb r
ple x
Ġfinanz ierungen
isten z
20 11
Ġthro up
Ġcr imes
Ġbelie f
ĠauÃŁen handel
Ġlisten ing
Ġneighbour s
Ġvere hrte
Ġcoo king
Ġliban on
p akete
Ġd all
Ġn ag
as che
st ern
Ġr iding
der e
ant es
Ġen quir
Ġra ising
Ġmon tre
gesch oss
gesch neider
Ġtext iles
Ġstandard mÃ¤ÃŁig
Ġdienst leistung
Ġsuggest ion
Ġost see
Ġwan dern
Ġelektr iz
Ġsogen annte
Ġleban on
Ġschicks al
f Ã¶r
k olle
Ġn utrition
Ġun ber
sch u
ind ungen
ĠÃ¼ber geben
Ġreg imes
pl ug
Ã¤r ten
ĠmÃ¼s sten
cy cle
lieÃŁ t
ĠgroÃŁ art
Ġlang em
Ġgra b
Ġfamil i
Ġiniti ated
Ġcult iv
Ġcam bridge
Ġtalk ed
Ġanz unehmen
Ġdiag n
Ġlabor atory
Ġcer em
Ġverpack ung
fakt or
Ġbetrugs bekÃ¤mpfung
6 3
s im
un ivers
at ie
Ġin her
ar ium
Ã¼ b
Ġdie t
Ġer fr
Ġj Ã¼r
Ġge leitet
.. ...
Ġnach folger
Ġbr ian
tell ung
Ġnet working
Ġgerman ys
Ġbud dh
Ġgef Ã¤llt
Ġprev iew
voll es
Ġsurpr ised
Ġcalcul ated
h um
m ium
Ġd m
on ie
Ġm ental
Ġc and
le z
Ġz immers
Ġein laden
Ġpro gn
de cken
Ġer richtung
Ġaus fahrt
men ade
Ġas h
Ġinter reg
se h
be ob
Ġda vor
Ã¼tz te
Ġap olog
Ġposition en
Ġamb assador
Ġmid i
Ġverhand lung
sprogram ms
Ġwid th
ĠkÃ¶nigreich s
gefÃ¼ hl
ĠabhÃ¤ng igkeit
ĠerlÃ¤u tern
Ġagent uren
Ġassign ed
Ġenco unter
Ġcancell ation
Ġlibr aries
Ġg or
Ġn est
Ġl ac
Ġein lad
ab b
Ġcon fort
ill on
Ġwer ten
ag og
Ġman hatt
Ġwar tet
Ġwar craft
Ġdevelop er
Ġinvest ing
Ġschw Ã¤chen
Ġprof iles
aut en
Ġautom ated
rÃ¤ der
Ġgast freund
Ġmarg in
bas ierte
Ġbedro ht
Ġmotiv ation
Ġolymp us
Ġspect rum
Ġexisten z
reserv ierung
Ġholl and
Ġpros pect
w art
Ġs wo
Ġein seit
Ġr ic
ab o
Ġauf einander
Ġvor stellungen
Ġ7 3
Ġur gency
Ġfar ms
Ġmeas uring
Ġwen de
Ġfort gesch
mÃ¶glich keit
Ġgute m
Ġaccommod ate
Ġzul Ã¤ssig
Ġign ored
Ġrh etor
Ġbann ed
Ġbefug nisse
Ġt ent
Ġt ul
Ġf ett
Ġh ire
Ġun like
ter y
Ġst al
Ġer e
Ġvon einander
men ge
Ġinter ventions
Ġro sa
Ġcl aus
Ġvo or
lic kt
Ġtr at
ph an
Ġgew Ã¤hlten
auf gaben
mar ke
Ġac id
Ġmult ip
Ġren owned
Ġvertre tung
Ġenergie politik
Ġassess ments
lÃ¤u fe
ĠÃ¶sterreich ischen
Ġvari ables
Ġvergleich en
Ġprag mat
mess e
Ġschre ck
Ġsubsequ ent
Ġrechen schaft
Ġstret ch
u hr
er vers
Ġt Ã¤glichen
Ġs ont
Ġw ins
Ġg m
Ġg ains
Ġg ucht
Ġre pos
Ġwe ib
Ġco u
th and
ne iden
Ġum s
Ġro aming
aus wahl
Ġgu itar
Ġmein ungen
Ġged uld
Ġedit ing
Ġsam ples
Ġprec ision
Ġurspr ung
Ġven ed
Ġbedauer licherweise
Ġphilosoph ie
ĠangekÃ¼nd igt
Ġb un
Ġin haber
Ġbe hÃ¤lt
Ġein wÃ¤nde
den burg
Ġver weisen
Ġsh ot
Ġunter wegs
Ġro l
Ġsicher er
ss icherheit
Ġref eren
Ġdiffer ently
Ġunterschied licher
Ġsteuer zahl
Ġterm ine
Ġvorgesehen en
ĠergÃ¤n zung
Ġbein ahe
num mern
Ġkombin iert
Ġadapt ation
Ġbeur teilung
eto oth
Ġumge kehrt
Ġemb ry
Ġcockt ail
Ġersta un
Ġstain less
Ġb v
Ġc uba
Ġh uss
Ġein d
hr er
Ġind isp
Ġup coming
kl ick
richt linien
Ġsocial ist
Ġsozial politik
spr inzip
Ġdemoc rats
Ġoffen heit
Ġjud ges
Ġeinger ichtete
Ġentsch Ã¤d
Ġinfrastruct ures
uz zi
ĠgefÃ¤hr liche
Ġerd gas
Ġcelebr ate
entsche idung
Ġawa it
Ġcomplement ary
ĠwunderschÃ¶ ne
b n
e qu
Ġb att
ll or
Ġk la
Ġl ese
Ġre verse
Ġyo ut
Ġtr ump
Ġdam ages
Ġgel ernt
isten cy
leg ten
hol der
Ġcann es
rÃ¤ ften
Ġable hnen
Ġsil ber
Ġvolks wagen
Ġmechanis men
Ġalban ien
Ġwarrant y
beteil igung
Ġarbit rary
Ġklimasch utz
Ġb ands
ul iche
Ġmo od
Ġwas h
Ġreg rett
Ġges onder
Ġfin es
Ġstr ip
Ġserv ing
Ġzusammen schluss
Ġdec entral
Ġform ally
Ġcre w
Ġeng aged
Ġstehen den
bed Ã¼r
ĠzurÃ¼ck zufÃ¼hren
Ġret ro
Ġoft mals
Ġdruck en
ĠbefÃ¼r worten
Ġbelieb igen
bÃ¼ cher
Ġexem ption
Ġrespekt ieren
Ġimpor ted
Ġmoz illa
Ġdeter ior
ĠverlÃ¤ng ert
Ġnovo tel
ĠvergnÃ¼ gen
Ġkilomet res
f ish
o hne
ch ern
or ters
Ġun glÃ¼ck
enn bar
Ġgu y
Ġgemein den
Ġbl umen
Ġlu is
Ġfest ivals
Ġdu pl
Ġziel t
kon figur
med iterran
Ġaspe kten
Ã¤ss ern
Ġprec ious
Ġiv an
Ġamerikan er
Ġsau bere
Ġdiesel be
ungsver fahrens
ĠauslÃ¤nd ischen
Ġcancel led
Ġkontinuier lich
b ahnen
d b
f lich
j ing
k ord
Ġs id
Ġe hren
Ġfor sten
Ġpro z
sch an
Ġsch aus
fÃ¼ llt
olog isch
Ġbl ame
Ġbar on
Ã¤u fe
Ġnational s
Ġschl acht
ha ust
Ġgre ifen
Ġarch ives
Ġtransl ate
Ġmuse en
Ġmultil ater
Ġmu y
anb ieter
Ġerinner ung
Ġcul inary
Ġmitge teilt
Ġfischereip olitik
Ġwhirl pool
Ġp ink
Ġg az
as ten
ll ige
op ard
Ã¤t igung
her z
Ġhand buch
Ġhal le
Ġtre ff
Ġcertain ty
ĠrÃ¼ck gang
Ġfortsch ritts
Ġbesser es
Ġblog s
Ġappropr iations
Ġvertr ieben
pers onal
Ġerweiter te
Ġjahrzehn ten
Ġmanif est
c ro
Ġd s
Ġc ss
al and
Ġge o
Ġch ips
ass o
Ġbo ots
ider s
Ġagre es
19 98
Ġpan els
Ġfit ted
Ġdisco unts
Ġgratul iere
Ġicon s
Ġlegitim acy
---------------- ----------------
Ġintelligen te
b ast
m ma
ic ts
Ġ( )
Ġas iat
op hob
Ġbes itzer
co des
ats sekretÃ¤r
ont akt
Ġganz es
Ġunterb reitet
Ġ75 3
Ġgek auft
cont in
Ġep iso
ĠursprÃ¼n gliche
ĠbedÃ¼rf nissen
Ġtac is
dar lehen
Ġbewert ungen
anwal ts
ro us
Ġv ine
Ġmit hilfe
Ġunder lying
att formen
Ġhouse hold
gemein de
Ġunivers itÃ¤ten
Ġrein igung
Ġleit ung
Ġschrift lichen
Ġage ing
Ġsuggest s
Ġeindeut ige
Ġauss agen
ĠzukÃ¼nft igen
Ġcertific ates
opoul ou
Ġsail ing
klaus el
c our
at ibility
Ġl ip
Ġein nahmen
Ġr hyth
Ġne o
Ġsch Ã¼tzt
Ġaus grenzung
Ġ3 000
cl ick
Ġbo om
Ġ7 1
Ġcar go
Ġbre ad
Ġmer kmale
Ġsen ken
Ġoperation elles
Ġbrow sers
Ġindic ator
Ġcheap er
Ġtaus end
ĠniederlÃ¤nd ischen
verfol g
Ġvenezu ela
Ġhtt p
d on
d iensten
t al
Ġt in
is ierungen
Ġver letzt
icht ung
Ġso fa
ad el
Ġent stand
Ġvor gang
Ġvor gaben
Ġprodu ctive
Ġzus agen
Ġzusammen gef
Ġconf ident
Ġbel Ã¤uft
Ġpress ek
Ġvol unte
Ġsal v
ober flÃ¤che
ĠbegrÃ¼ ÃŁ
Ġconsequ ence
Ġverbind ungs
geleg te
Ġtipp s
Ġchalleng ing
Ġunus ual
Ġmanhatt an
Ġfortgesch ritten
g in
r ien
s ame
Ġh Ã¤fen
Ġv ierte
as a
ter a
Ġzu hause
00 00
Ġden nis
Ġsp Ã¼r
Ġpl ot
Ġres idential
Ġhe ft
Ġra uchen
Ġtechn isch
Ġtransp osition
Ġnet to
Ġrechts streit
Ġpower ed
Ġsil va
Ġdiv iden
Ġferien haus
Ġkoh le
Ġvul kan
Ġliter ature
betrie be
Ġolymp ic
Ġblu etooth
Ġgeneraldire ktor
opoul os
Ġrehabil itation
Ġsplend id
Ġsouver Ã¤n
Ġeurora um
7 9
c ore
j ub
v ard
Ġf are
at em
Ġp uzz
Ġc es
Ġbe ides
ig nen
Ġpr icing
Ġle v
ste uerung
Ġber ater
Ġcoun ts
Ġstr asse
auf wand
Ġsow jet
vers ionen
Ġ11 2
kon stru
Ġluft verkehr
Ġgesetz lichen
Ġengl ischen
Ġpath s
Ġsi im
Ġw w
re ck
Ġbe wirken
Ġz ir
Ġpro be
Ġha up
ru pp
Ġges unde
Ġfra mes
Ġgener ous
Ġsy nt
Ġgovern ing
arch ite
sa w
Ġobs erve
Ġdatab ases
Ġlebensmittel sicherheit
Ġech tzeit
Ġhybr id
l uft
at ics
Ġk amer
Ġbe achtung
st op
Ġre ass
ist ol
ist ischer
Ġro ten
Ġste ckt
port al
ger ichts
Ġra uch
schl Ã¤gen
Ġget estet
Ġeuropa e
Ġ12 3
att ung
Ġrece ipt
let te
Ġspeak s
Ġorganis ierte
Ġseem ed
Ġemer ge
Ġunemploy ed
Ġuner lÃ¤sslich
Ġcompos ed
stÃ¤t ten
orient ierte
ĠbÃ¼rgerbeauftrag ten
Ġheiz ung
Ġetik ett
c ult
j ar
Ġf az
Ġau ction
ab a
ein stellungen
Ġunter haltung
Ġgr as
Ġra p
Ġpe ters
Ġfind est
mar ken
Ġmach e
Ġview ed
Ġret ten
Ġren nen
Ġemp ire
Ġkan al
Ġvorbe halt
Ġreinfor ced
Ġdrin king
Ġelimin ate
Ġderart igen
d an
s g
Ġ Ã¤rm
Ġa xis
Ġc amer
Ġh ide
Ġun gerecht
Ġbe ck
Ġi o
im age
Ġho hes
ac ted
Ġnum er
Ġ* **
Ġbrow se
Ġchem ikalien
ĠsÃ¼d lichen
Ġeingehen de
mod elle
greif enden
Ġcer am
Ġsight seeing
Ġspekt ak
Ġherzeg ovina
Ġtreib haus
Ġgetre ide
Ġd y
Ġt il
Ġw ra
Ġc ens
Ġg aming
Ġer halt
Ġim men
ort s
Ġrat stagung
get reten
Ġple d
Ġmay or
Ġcre am
Ġreal istisch
Ġsl ot
Ġfac ult
Ġren a
besch rÃ¤n
Ġcru z
Ġalong side
sb ruck
Ġirgend wel
ĠpalÃ¤stinens ischen
Ġgestell te
Ġcompliment ary
p rechen
z on
or ation
Ġo j
Ġbe fried
Ġto b
Ġein kommens
den a
Ġso d
pp y
tel n
Ġunter liegt
Ġste t
Ġmar bella
fÃ¼ g
Ġeinz eln
Ġsim ulation
enz a
Ġdownload ing
Ġdom ains
Ġsil ent
Ġtats achen
Ġkomfort ablen
Ġbeant ragt
Ġfill ing
Ġpain ting
Ġinsp ired
Ġbungal ows
Ġindik atoren
Ġfestzu legen
Ġtaxpay ers
er ium
Ġp ig
Ġh ut
Ġg iov
Ġcon cludes
all ing
we ar
Ġbes tens
Ġlo vers
ish ment
Ġpres erve
Ġ9 4
Ġakt ions
uÃŁ t
Ġhol en
ĠzurÃ¼ck kommen
Ġkol umb
Ġmorgen s
Ġbi ological
Ġton io
Ġmis under
Ġklass ische
Ġcry pt
Ġtempl ates
Ġhann over
Ġhob by
Ġtraged y
d ig
k ro
w ich
Ġd ile
Ġw ake
st uffs
Ġst ack
Ġen ger
Ġvor h
Ġcoun ty
fahr zeugen
ient en
Ġschl immer
Ġcustom ized
Ġfall ing
tag ung
Ġafr ikanischen
Ġpassen den
Ġta pe
Ġque en
mechan ismen
Ġeinzelstaat lichen
Ġd op
Ġg Ã¼
Ġun kom
Ġver mittelt
Ġse villa
Ġauf hebung
pl atten
pl Ã¤ne
Ġgem essen
Ã¤u den
Ġprof ound
Ġstra fre
Ġstabil isierungs
Ġindustrie llen
Ġmoder ner
Ġeth ical
Ġunterb reiten
Ġdez entral
Ġundert aking
effe ctive
aug ht
Ġc ere
Ġun bek
Ġbe weisen
st unde
Ġein fl
Ġwe ich
Ġmo e
Ġro d
our ce
Ġstatt f
Ġgre ens
Ġfa ult
Ġtail ored
Ġsovereign ty
Ġassoz iations
Ġyout ube
k ind
y ards
re dit
Ġg Ã¶
Ġo asis
Ġpro xy
ere ien
Ġauf gestellt
Ġpl ural
Ġstr Ã¤nde
Ġfr i
Ġtr s
Ġinn sbruck
Ġfore most
Ġverein igtes
Ġumf aÃŁt
Ġint oler
fre qu
Ġce o
ĠglÃ¼ck wunsch
Ġtemper atures
Ġangeboten en
Ġcounter feit
ĠzuverlÃ¤ss ig
Ġload ing
Ġattempt s
ĠeinschlÃ¤g igen
Ġanzub ieten
Ġschaus piel
l ings
p n
Ġa ges
Ġb aus
Ġm ild
Ġe den
us se
Ġz Ã¼g
Ġver markt
Ġab reise
ste p
ĠÃ¼ber wiegend
Ġvor gelegten
he il
Ġdurch fÃ¼hrungs
Ġsee ks
Ġlin en
Ġrechts rahmen
Ġgre et
Ġempf ind
ĠflÃ¼ ge
Ġangemessen en
install ation
ĠwunderschÃ¶ nen
Ġriv iera
Ġcontrad ict
Ġrass ismus
Ġconve y
Ġpressek ontakt
j our
p fen
r ichtet
Ġw iz
re a
Ġf ung
Ġf lair
ro ugh
Ġan leitung
Ġpro pr
hr ten
est ar
Ġge fol
Ġge zwungen
we iÃŁ
Ġbes tellt
Ġro ots
Ġfra gment
Ġbo b
Ġrat ified
ok ol
Ġgef ert
ander s
Ġadministr ations
Ġcompl aint
Ġsam s
Ġerziel ten
Ġprevent ing
ĠÃ¼berw inden
Ġdun kel
Ġmatch ing
ĠendgÃ¼lt igen
Ġscen ario
ĠspÃ¤t estens
Ġkompliz iert
Ġendors ed
k ab
or i
Ġin ten
Ġh Ã¤nden
Ġun il
ver teilung
Ġ2 20
Ġvor ne
Ġqu er
Ġbesch aff
Ġcent ers
Ġcro ps
Ġsan ter
Ġauswir ken
Ġbroad ly
Ġschiff s
Ġignor iert
news letter
Ġjoom la
Ġin k
Ġh ors
Ġv as
am ar
ers en
ap es
Ġpe er
Ġmen us
Ġprin ter
Ġann ul
Ġamer ikas
dr ing
Ġtyp ische
Ġbra chte
Ġgarant ien
Ġangem eldet
Ġversand kosten
Ġty rol
kop f
cos ur
Ġcath ed
Ġvened ig
b is
j un
v as
z ing
un ken
Ġth un
Ġun ch
Ġse kret
ik s
Ġle ague
Ġex klusive
Ġthere by
fahr ten
Ġweiter gegeben
Ġsozial partner
Ġplan eten
innen markt
Ġimp ulse
bre ite
Ġgeeign eten
Ġpurs ued
Ġenhan cing
Ġsufficient ly
Ġlif estyle
Ġauthent ic
Ġpip eline
Ġwro te
Ġirreg ular
p fe
Ġpro st
Ġj ump
ate ur
Ġmo uth
Ġpar ken
ann a
Ġnach teil
Ġbei jing
Ġav ast
Ġmod us
Ġmeas ured
Ġinstall ing
Ġamend ing
Ġconne cting
Ġaccount ability
ĠtÃ¼r en
Ġcontrib utes
ĠstÃ¤nd ige
Ġfreund lichen
Ġcivil ian
Ġresort s
Ġbeob achter
wÃ¼n sche
ĠmilitÃ¤r ischen
Ġcontro lling
komp onenten
ĠstÃ¤rk sten
Ġmigr ations
Ġjugoslaw ien
Ġrepar atur
Ġpv c
Ġmedik ament
Ġrac ism
Ġbroch ure
Ġhaz ard
Â £
Ġin ex
al p
Ġi ber
Ġl un
Ġre iz
il ia
Ġzu bereit
ak et
Ġunter staatssekretÃ¤r
igen en
Ġcl uster
che z
Ġstr ike
10 6
Ġass ure
Ġbed auern
Ġweiter ge
Ġproblem atik
Ġref urb
ĠschÃ¶n er
Ġbrow sing
mod ul
Ġconcentr ated
Ġdete ction
Ġschnitt stelle
Ġkommer zielle
Ġcalc ulation
Ġunternehm ert
v n
w c
Ġd ingen
ro ph
Ġn v
Ġver ification
Ġauf zug
be isp
Ġcl im
av an
kl agt
hol fen
Ġ14 9
Ġtw el
Ġable hnung
Ġabsol v
Ġsen der
Ġunters uchen
Ġsix th
Ġpen alties
Ġdefen se
Ġhen ri
Ġbatter ies
Ġdevo ted
- )
p ad
s erv
Ġf f
Ġer mittelt
Ġpr izes
Ġab geb
Ġcan al
Ġres ulted
Ġpo ster
zu frieden
Ġunder min
Ġtag ungs
ĠzustÃ¤nd iges
Ġwohl be
Ġbundes republik
Ġlas ten
Ġterr ible
wander ung
Ġath ens
Ġversehen en
Ġallm Ã¤h
w ig
Ġa tember
Ġt iss
ch r
Ġp it
al ys
Ġg ad
Ġn ro
Ġun best
Ġr al
Ġsch ol
Ġper ipher
Ġben e
Ġdr iven
Ġpresent ations
bank en
Ġfa ire
Ġcredit s
Ġzufrieden heit
Ġspirit ual
Ġdram atic
Ġsau di
Ġeingeb unden
Ġanwendungs bereich
grÃ¼n den
spezif ische
Ġkommunal vertreter
Ġproxim ity
Ġcerem ony
i u
n ar
Ġer mÃ¤ÃŁ
Ġch airs
Ġar zt
be an
Ġro bo
ap se
Ġange wiesen
Ġwicht igkeit
Ġdu an
Ġwhere ver
Ġtrain ed
Ġheraus ragen
Ġrecommend s
Ġangenommen en
Ġvereinbar ten
Ġerd be
ĠgemÃ¼t lichen
ĠflÃ¼chtl ings
Ġscore board
boo ks
Ã¼berein kommen
Ġgipfelt reffen
519 25
i qu
t ains
Ġk Ã¶r
il ian
Ġsch all
ste il
Ġkn o
Ġinvest iert
fin der
Ġgel ingt
gar antie
Ġgleich berecht
Ġje glich
Ġregel mÃ¤ÃŁige
Ġnah men
verb ot
ĠwÃ¼n scht
Ġruh iger
wohn ern
pap er
Ġtack ling
Ġerweiter ten
Ġras che
ĠgÃ¼n ther
Ġinterf aces
ifor nia
Ġportugies ischen
Ġbuchst aben
ĠdiesbezÃ¼ glichen
Ġtunis ia
a frika
b Ã¶
Ġe ag
Ġh ay
Ġh unde
Ġh oney
Ġst ir
Ġr on
Ġer ic
Ġal garve
Ġde gre
ers te
Ġum wel
be le
be griff
Ġkon dition
Ġcomm ands
Ġfl ora
mÃ¶ gliche
Ġput ins
Ġlis boa
sto ÃŁ
erzeug ung
Ġsogen annten
Ġgeburt stag
Ġdign ity
1 50
is y
Ġp ant
Ġg il
Ġre trie
Ġar med
Ġno bel
arbeit ete
Ġgesch ickt
Ġweiter gehen
Ġgel assen
Ġcol on
Ġcol omb
Ġeur atom
Ġopt ical
Ġaud ience
ĠhÃ¶ch ster
Ġslow ak
Ġrea ktionen
Ġrelig ions
sprozess e
eff icient
Ġful fill
Ġconfir ms
Ġperspekt iven
Ġbeeinfl usst
liefer ung
wettbewer bs
Ġargentin ien
Ġdownt own
9 00
p ace
s y
Ġt amp
Ġb ach
Ġf esten
Ġp ione
Ġk ant
ct ic
im en
ver mÃ¶gen
ĠÃ¼ber tr
Ġra cing
Ġwel thand
Ġins ist
Ġant nio
ond a
dom in
ĠglÃ¼ck lich
Ġtell s
Ġweak nesses
Ġorient ation
Ġislam ic
Ġcred ible
Ġsingap ore
Ġpromo ted
Ġprejud ge
Ġelev ator
d vd
m atic
p ert
Ġm ug
Ġh us
Ġr ut
Ġy ah
Ġge omet
Ġab geben
Ġas ide
Ġbei hilf
Ġrev ol
Ġreal ise
spro zeÃŁ
Ġlebens qualitÃ¤t
hÃ¶ he
Ġdeal er
Ġged ank
Ġsort iment
Ġunbe grenz
Ġarab ischen
kult ur
s ituation
Ġan lÃ¤sslich
st Ã¤d
Ġst Ã¼tzen
um a
ĠÃ¼ber legen
if ier
ze ile
Ġhe ath
Ġhier arch
Ġprof its
Ġclear ing
Ġinteress anten
Ġaltern atively
Ġther apeut
Ġlok aler
Ġengl ischer
Ġsus p
Ġglob ally
ĠerÃ¶r tern
Ġdiesel ben
ĠzÃ¶ gern
Ġtunes ien
b innenmarkt
z ungen
Ġa e
ch ina
Ġw age
Ġv s
Ġan bau
ic its
Ġzu kommen
Ġad mit
Ġres cue
Ġper l
fe ind
olog ischer
Ġcle ver
Ġdam aged
enz o
Ġposs elt
Ġfest zustellen
Ġglobal ization
Ġapplic ant
zus agen
Ġschwer wie
Ġober ste
Ġrea ff
komp et
Ġbureauc racy
Ġelector al
l ay
Ġt cp
Ġp ess
Ġn ennt
Ġre ine
sch wer
form er
Ġro u
Ġhe x
pl Ã¤tzen
ap el
ac s
Ġoff set
alt ar
Ġap i
fra u
Ġze ilen
tem per
Ġlegisl ativ
ĠnÃ¤ chte
Ġbill ig
Ġgas p
Ġvertr itt
Ġspezial isten
Ġteach er
Ġ04 75
Ġindones ien
Ġbegeister t
ĠÃ¼bers etzt
Ġstrug gle
Ġd ust
Ġo uter
Ġk f
Ġbe lle
Ġr y
isch t
Ġpl atten
Ġwor um
Ġhab t
Ġoff line
Ġdar gelegt
Ġla uten
Ġunterst reichen
Ġwieder herstellung
Ġimmer hin
icher ungen
Ġpet r
Ġfert igung
Ġsex y
Ġanp assungen
Ġprob ieren
Ġvert ie
ele ct
Ġwart ung
ĠkohÃ¤r enz
Ġsacr if
Ġvermut lich
Ġrene wal
Ġcathed ral
a um
k rank
ch air
Ġb n
Ġin je
Ġin halts
Ġv n
Ġn er
et reten
Ġst range
ab gabe
Ġde i
Ġas ean
ĠÃ¼ber fl
Ġwill is
ome ters
Ġfe as
Ġsol ving
ange legenheiten
Ġsc iences
Ġcas tell
Ġexp ed
Ġcheck ing
Ġdef icits
Ġhinter lassen
Ġensure d
Ġchem ie
Ġdiscover y
Ġlack ing
Ġneigh bor
ĠjÃ¤hr lichen
lass ungen
Ġew r
kor b
Ġpor sche
ĠÃ¶k ologische
commun ity
material ien
Ġkapaz itÃ¤ten
Ġberechn ung
Ġsimb abwe
mediterran ean
Ġdegre es
o use
ar ios
ur z
Ġl om
Ġr ivers
Ġwe llen
Ġj og
Ġcon go
Ġunter zeichnen
Ġinv itation
tell ten
Ġrat ifiziert
Ġmod est
Ġhigh way
fra me
bo da
str Ã¶
Ġbin ary
Ġverein t
Ġverl Ã¤ss
sk y
Ġcho osing
arn ing
fre ies
Ġnecess ity
Ġmiss ed
Ġmiss ions
bre ak
Ġniedr iger
zwe ck
Ġadjust ments
Ġdol met
Ġwithdra wal
Ġjose f
Ġunre al
Ġdement sprechend
r and
Ġ ion
Ġd Ã¶r
Ġt ight
Ġs ic
Ġc c
Ġun known
Ġk ick
el ter
ter te
Ġre vers
ge ord
Ġsch ock
Ġex tends
Ġch ose
au ben
Ġvor zunehmen
Ġman s
Ġpos e
Ġla de
gesch rieben
Ġhaus halte
ĠhÃ¶ hen
Ġstatt gefunden
Ġlog ik
Ġbor row
Ġemail s
Ġisra els
Ġvari ablen
Ġsmo ke
Ġschwar ze
Ġconsist ently
Ġjur isd
Ġfulfil led
Ġcycl ing
Ġgetr enn
sour ce
Ġeinstimm ig
Ġcompe te
nb sp
u ver
ie tern
Ġh Ã¤nde
Ġn ir
st on
Ġwe iss
Ġco ach
Ġdes ert
ad as
Ġmo le
cc a
aus chen
Ġins ol
Ġfinanz ieren
Ġconst ra
ucht ung
ĠlÃ¶s ungs
Ġschluss antrÃ¤ge
Ġtyp isch
Ġkurz er
Ġbenef icial
Ġroad map
Ġorganis ierten
Ġsag ten
bu ÃŁen
gere chte
Ġmi xt
Ġshar p
Ġdistin ction
Ġprest ige
Ġabb ott
Ġausged e
fam ilie
Ġglac ier
} {
Ġs s
ie va
Ġh ug
le in
Ġar te
cc i
Ġfra gestell
he ar
he et
Ġstr ings
Ġunterst reicht
str and
Ġzust ande
Ġrahmen programm
Ġenergie quellen
Ġtro ops
gew inn
ote chn
Ġpf ad
Ġchem ische
Ġrefle ction
Ġbot schafter
Ġjac uzzi
Ġthre ad
Ġexpos ure
ĠvernÃ¼nft ig
Ġtsch et
ĠstraÃŁ burg
ĠplÃ¶tz lich
Ġkarr iere
g ate
y ers
in ians
Ġa zer
Ġb are
Ġk uba
Ġbe zogen
Ġbe wirtschaftung
Ġi kt
Ġre loc
Ġver ordnungen
ier n
Ġauf ruf
pl ing
ang aben
pr Ã¤g
Ã¤s id
Ġdis miss
Ġgew inne
Ġsta ates
Ġfinanz mÃ¤rkte
sicht lich
Ġval ent
Ġide ally
Ġkle idung
Ġglobal er
med ia
Ġstre cken
Ã¼t te
Ġviol ations
Ġumfang reichen
Ġvict oria
ĠÃ¤hn lichen
Ġbetriebs system
Ġgegenseit igen
wes ens
Ġbirth day
ĠenttÃ¤us ch
Ġenthus ias
Ġfutter mittel
Ġrul ing
Ġpatr ick
a fe
c ur
ar fs
Ġg Ã¤ng
Ġv est
Ġr unden
ul i
we ight
vor gang
Ġteil genommen
Ġze ug
Ġrechts etzung
Ġziel setzungen
Ġerforder liche
Ġparticip ated
Ġfair en
mus ter
Ġvirt uelle
Ġmang eln
Ġgeschmack voll
Ġversehen e
Ġmessen ger
vol umen
ĠbÃ¼rgerbeauftrag te
stÃ¤r ke
% ).
b ike
x press
Ġb art
Ġin tr
Ġin comp
Ġn t
ent o
Ġz iv
Ġder eg
ber lin
tel a
pl attform
Ġbr on
Ġparl amente
Ã¤l sch
Ġbl Ã¼
Ġstatist ik
Ġcook ie
initi ativen
ĠÃ¼bersetz er
Ġparad ies
Ġeco fin
zust immen
Ġgeneraldire ktion
Ġcockt ails
Ġastr onom
Ġtelecom s
Ġunkom pliz
b oy
m ant
n ov
is ms
Ġz ell
Ġy a
Ġle hnt
Ġcomp atibility
Ġfo kus
heit s
elt a
Ġpers pect
fr Ã¼
Ġfest gelegten
20 12
Ġtem ple
Ġelect ro
ĠwÃ¼n sch
Ġdiv oire
stre cken
Ġdoppel bett
Ġmarg are
Ġessen ce
Ġsad ly
ĠnÃ¼tz liche
Ġmittag essen
ĠenttÃ¤us cht
Ġweihn achts
Ġb ird
Ġf ate
Ġe hre
st Ã¤
Ġein her
iss ance
Ġbr istol
wo hnt
Ġass ured
Ġgrund stÃ¼ck
Ġinfl ations
Ġannoun ce
Ġniedr igen
Ġbeschleun igt
Ġexpos ed
Ġelegan te
Ġdisappe ar
Ġsynt ax
l inge
Ġp us
om an
Ġre ar
Ġfor b
im me
Ġaus kunft
ĠÃ¼ber dies
Ġat tended
Ġfe ars
Ġhand lung
Ġsm ile
Ġdefin itions
Ġarbeits zeit
Ġengl ische
ĠhÃ¤ufig sten
Ġhall o
Ġappreci ated
Ġwachsen de
Ġdurchschnitt liche
Ġverletz ung
Ġkeines falls
Ġexklus iv
german y
Ġenvis aged
Ġalli anz
Ġwohlbe finden
Ġtschet schen
Ġa ster
Ġp up
Ġe ating
Ġc pu
Ġv ak
Ġl ied
am as
Ġle hre
Ġex zellen
Ġsp ass
Ġsp ots
ern et
Ġcan y
com pl
Ġpe ak
Ġmay stadt
Ġbereit schaft
Ġlang zeit
Ġbef est
Ġklar er
Ġfreedom s
Ġgriech ische
Ġverschw inden
Ġbilater ale
Ġpursu ant
Ġversto ÃŁ
usal em
Ġkonzip iert
Ġw ired
Ġb ub
ar re
Ġan ten
Ġl h
Ġer we
gen s
est a
Ġaus b
ste uern
Ġsu ited
Ġher an
Ġag greg
ian ou
Ġtr ies
Ġzusammen zu
get s
Ġinternet seiten
Ġport ra
Ġgra z
Ġid yll
Ġexpl ains
Ġcharacter istic
Ġjoin ing
Ġvertreter in
Ġtrag Ã¶
Ġkonstru ktion
Ġgenet ically
Ġgam bling
Ġyugoslav ia
adr essen
Ġtwel ve
v b
an er
ie val
Ġh arte
al tete
ro b
Ġl um
em ed
ge halten
um ul
Ġal ps
Ġauf nahmen
th al
Ġum stellung
Ġcan aria
Ġwo her
Ġbest Ã¤nde
Ġfl ower
Ġland sc
Ġcar ib
Ġgel ingen
ĠÃ¤nder ungs
eng ine
Ġkosten freie
Ġmittel frist
Ġir c
Ġwal ter
ĠgrÃ¼n es
Ġoptim um
Ġnatur schutz
Ġshe ep
oun ted
Ġnegot iated
ĠgeschÃ¤fts bedingungen
Ġanb indung
Ġos lo
Ġmos kau
reisen de
Ġsou ven
Ġqualifiz ierte
Ġabgesch afft
Ġdoss ier
Ġgelt ungs
o de
p us
Ġein richten
Ġre cher
Ġsch ien
Ġaus genommen
Ġkon zepte
Ã¤nder n
Ġfr ustr
Ġaut oren
Ġtrans aktionen
Ġdr ingen
mittel meer
Ġbelie ves
Ġsum me
Ġvier tens
schn itte
Ġsubst it
Ġobs ervers
ĠfrÃ¼ hen
Ġerr ungen
ĠerwÃ¤hn te
Ġers uchen
bew usst
Ġsar ko
Ġparlamentar ischer
Ġrefr iger
Ġgeschle chter
Ġkorrig iert
Ġscot land
agent uren
d in
n as
Ġp end
Ġl ively
Ġl Ã¤rm
Ġein fÃ¼hren
Ġcon front
Ġab u
Ġex haust
Ġste m
Ġbei der
ub s
Ġadd it
Ġcar lo
Ġconc erts
Ġzwischen zeit
Ġtrain er
Ġpan asonic
Ġten der
Ġcham bres
Ġhoriz on
Ġbang kok
Ġburn ing
dial og
a ft
l ifer
w en
y ou
er weiterung
Ġd Ã¤m
Ġb old
sch Ã¶
Ġge klÃ¤rt
Ġha ird
ve z
Ġab schluÃŁ
ant rag
Ġch rom
Ġfl owers
lin der
Ġunder lined
Ġdel ight
ha fen
Ġprogramm ier
Ġclear er
Ġred und
Ġir ische
Ġtag ungen
Ġbon ds
ĠÃ¶k ologischen
Ġwundersch Ã¶n
Ġherzeg owina
deutsch land
Ġusern ame
f ted
h igh
r ip
Ġd iver
un ate
Ġf Ã¤hrt
Ġein wand
Ġre b
Ġst ig
ik ten
Ġpar c
rit s
Ġmed ieval
Ġsc ra
res ervation
uff er
Ġcontrib uting
Ġober en
Ġpromot es
Ġvereinbar en
organ e
Ġsyn ony
Ġhost al
Ġlaufen de
Ġprevent ive
Ġkonzentr ation
Ġpoor est
Ġconver ter
Ġjem als
Ġquant itative
Ġerleich terung
Ġcapt ure
Ġeingeb racht
Ġverletz ungen
Ġexplo itation
Ġacadem ic
Ġbelast ung
c et
c ms
d m
f lex
g ments
Ġp id
Ġe k
Ġh ills
Ġv ore
Ġun gen
ge kommen
Ġver deut
ab schluss
Ġer be
Ġsch Ã¤r
Ġab ap
Ġent worfen
Ġmon ats
Ġmod es
bo le
Ġ198 4
Ġdon or
besch Ã¤ft
Ġdepart ments
Ġcapac ities
sprÃ¼ fung
dat um
Ġperspect ives
on line
Ġw s
Ã¶ ten
Ġdes criptions
me id
Ġnach druck
aus bildung
Ġfre ib
bs d
fol gen
Ġvo ters
Ġcons istency
Ġarbeit nehmern
Ġ29 7
Ġemp fehle
Ã¤ss ige
Ġaccept s
Ġkar ib
Ġol iv
Ġfal schen
ĠfrÃ¼ hl
Ġschen ken
Ġlisten ed
ĠprÃ¼f ungen
far ben
ti rol
Ġfernse her
Ġclin ical
Ġarme e
kompet enz
a ire
r ale
en erg
Ġt ong
Ġan ch
Ġre cession
ir k
Ġer schw
id is
ib an
Ġad mission
Ġkon tra
Ġpre de
pro fil
Ġtr ennen
Ġmark iert
Ġgener ic
Ġbeg leiten
setz ungs
Ġdra ht
Ġsust ained
Ġbetre ibt
Ġjap ans
Ġprakt ik
Ġdruck er
Ġkorre kte
Ġerg onom
Ġisol ated
Ġcompar able
Ġsucceed ed
Ġbett wÃ¤sche
Ġautonom ous
vertrags verletz
Ġrez ession
Ġbegeg nen
bundes minister
Ġindisp ens
f erence
Ġa ce
Ġd ish
Ġs Ã¤u
Ġb la
re du
Ġv ille
Ġk new
Ġre hn
Ġon dre
ver gabe
Ġne ug
Ġeuro just
ill er
ad os
Ġad mitted
Ġbes ide
Ġkon go
Ġtra ur
ack en
Ġvers ichern
Ġdec kt
Ġbel aufen
Ġcor n
Ġbro ther
Ġspecial ised
Ġbek le
Ġfer ry
Ġoptim ierung
Ġcorre cted
Ġberichterstat ters
Ġcontinu ation
spiel er
bus iness
strateg ien
Ġwid men
Ġombuds mann
Ġaccur acy
Ġengag iert
Ġmedik amente
ĠeingeschrÃ¤n kt
Ġbesche iden
Ġhuss ein
Ġinten se
w Ã¶rter
Ġd icht
Ġp ending
le hnen
Ġun ent
st ale
Ġer weisen
Ġal ike
und s
ahr ung
ue u
Ġweit em
Ġaut on
Ġko hl
Ġass um
ĠmaÃŁ geschneider
Ġmat t
Ġvar ies
Ġnear est
Ġident ical
sh ore
do llar
Ġlib ya
verstÃ¤nd nis
Ġkoordin iert
Ġevalu ate
Ġsimpl er
Ġven ue
Ġerreich te
Ġdecor ation
Ġdauer haft
Ġdiag nos
Ġkonstru ktive
Ġmedizin ischen
ĠendgÃ¼lt ig
Ġveter inary
Ġkeyword s
Ġaffil iate
ĠwÃ¤l der
Ġondre j
i Ã¶s
s an
Ġt t
Ġm ischung
Ġin fol
ion ed
as ste
Ġun klar
Ã¼ m
Ġk h
Ġein treten
Ġst raft
um gebung
Ġau x
Ġaus z
Ġdo ppelt
Ġposs ess
Ġport able
vers orgungs
Ġexp enses
Ġplan e
Ġern ste
Ġce ase
Ġvertra ut
Ġjeweil ige
Ġexhib it
Ġjournal ist
Ġausreich ende
Ġsach verstÃ¤nd
Ġquant ities
Ġvert ical
Ġade qu
ĠgenÃ¼ gt
Ġumfass endes
def izit
b ig
ch ange
Ġg ibr
Ġein trÃ¤ge
Ġr up
Ġal ert
Ġmo on
ah a
ann er
Ġvor feld
Ġmin ing
Ġmar a
Ġmehr erer
Ġany more
Ġdam pf
Ġimpro ves
Ġproced ural
Ġenjoy s
schn itts
Ġbelg ischen
Ġdon ors
Ġeigent Ã¼mer
Ġharmon ised
Ġsem ester
Ġdatenbank en
Ġlicens ed
Ġwart ungs
instit ut
kapaz itÃ¤ten
Ġthorough ly
Ġinspect ions
Ġspektak ul
ch nen
Ġth ai
te ten
Ġr ica
ak h
Ġro te
Ġger ichten
Ġviel fach
mo dule
Ġqual ifikationen
Ġfinanz iell
Ġbeg leit
Ġel is
Ġbro ader
Ġkr im
Ġstra w
yn c
Ġec os
bet re
Ġka ffe
dis crimin
Ġdisp utes
Ġconstru cted
Ġrab att
Ġbilater alen
Ġverble ib
l assung
m ay
Ġs ne
Ġm ong
Ġp umps
Ġin tra
us ten
Ã¤ llig
Ġis ch
Ġder iv
um ns
Ġsch okol
Ġle hnen
Ġar res
Ġpl as
fÃ¼hr ende
Ġbl ow
Ġproblem atisch
Ġbericht igungen
Ġgel angt
Ġleg te
Ġmus l
Ġmil ose
Ġbedeut enden
Ġfahr plan
Ġexec ute
Ġbewusst sein
Ġklimawand els
Ġparlamentar ische
Ġzuges chnitten
Ġinvo ice
Ġschalt flÃ¤che
ĠgewÃ¶hn lich
Ġstab ile
b iet
k ong
k Ã¶m
t ies
t Ã¤t
us etzen
Ġk ov
Ġis a
ic ian
am o
Ġer arbeitet
Ġvor red
Ġsh ame
Ġres idents
land schaft
pro b
Ġeng age
Ġair es
Ġsk etch
Ġprote cts
Ġeffe kte
Ġmat ches
ged essen
ograph ie
Ġfru its
Ġbag s
Ġerneuer baren
Ġpublik um
sproble me
Ġincred ible
c ad
Ġm ile
Ġo ch
Ġo ze
Ġwe ichen
Ġj i
Ġse eds
Ġal ias
ist ans
Ġpar ent
Ġsh ut
Ġum frage
Ġwor in
Ġherr liche
Ġsub ventionen
Ġeinz ahl
bo ards
Ġref used
ven ted
Ġexp orte
Ġcourt yard
zieh ungs
Ġaufge fÃ¼hrten
fu els
wÃ¼rd ig
Ġumst Ã¤nde
Ġleistungs fÃ¤higkeit
Ġcamping platz
Ġwei ÃŁen
miss ible
ergeb nis
vereinbar ungen
ĠtÃ¼rk ischen
Ġpartial ly
acion es
Ġinfol gedessen
is ations
us ste
Ġ2 30
cl ip
Ġzusammen gestellt
Ġeing liederung
Ġass el
ious ly
los er
Ġregul ators
Ġregel mÃ¤ÃŁigen
Ġfeat uring
Ġperform ances
Ġluft hans
Ġflug gesellschaften
Ġgrundlegen der
Ġcool ing
Ġtoler ance
Ġhekt ar
brow ser
g ht
l ab
u ing
w rit
Ġd ru
Ġp es
Ġe ea
Ġh erstellen
ar o
Ġan bel
ra ch
if ahr
Ġuns icherheit
Ġhe idel
Ġdis cre
mo b
Ġdel ivers
Ġeigen stÃ¤nd
Ġlib yen
Ġcarr ier
Ġwed ding
Ġgegenseit ig
Ġverur teilen
Ġglad ly
ĠvernÃ¼nft ige
ĠbÃ¶r sen
Ġgewiss er
Ġincent ive
Ġcoher ence
Ġrecruit ment
Ġstrafre cht
m elt
z eln
Ġe ps
Ġg ust
Ġan k
est one
Ġse gel
ÃŁ ern
Ġsh ang
Ġum so
Ġger ingen
Ġgem eldet
fol d
ho ch
Ġet agen
Ġweiter bildung
Ġgener als
Ġgel Ã¤nde
Ġspiel raum
ator ies
Ġsl opes
Ġtre mend
por te
Ġamb ience
Ġfair ness
Ġstock werke
Ġhor mon
Ġleit en
Ġraum fahrt
Ġtemper aturen
ĠdÃ¤n ischen
Ġstellvertreter in
zul aden
Ġerkennt nisse
Ġsleep ing
Ġdisappo inted
ĠÃ¼berras chen
Ġrind fleisch
Ġsteuerzahl er
Ġanbel angt
en ne
in cluding
Ġg om
Ġan leger
st abilitÃ¤t
Ġst anden
ab ling
Ġcom o
Ġsp Ã¼ren
Ġro sen
Ġman ually
Ġgesch eit
rei he
Ġpass es
Ġbew ahren
Ġmoment um
Ġakzept abel
Ġphotos hop
Ġdead lines
Ġbott le
stechn ologie
Ġlif el
Ġtariff s
Ġtreas ury
Ġdiscipl ine
Ġbenefic iaries
ĠgefÃ¤ng nis
/ -
in dex
Ġm au
Ġc aught
ar is
ing end
Ġz oo
ber ry
Ġwe ve
Ġge habt
be arbeitung
Ġad s
Ġdis abilities
Ġjust ify
Ġgeb Ã¤uden
Ġeinfach es
Ġlegisl ativen
Ġmer cosur
ĠbeschÃ¤ft igten
Ġtool bar
Ġzweit es
Ġfast est
Ġeib s
Ġkop ie
Ġanalys es
ĠsÃ¼d lich
Ġmas k
Ġverabsch ieden
Ġwatch ing
Ġvorrang ig
Ġsafegu ards
ĠbeglÃ¼ckwÃ¼n sche
ĠverzÃ¶ger ungen
Ġspann ungen
Ġtus can
Ġunch anged
Ġarres ted
b rie
s ign
Ġt ester
Ġc ure
Ġc igare
Ġun ex
Ġer hebt
Ġse ed
Ġse vent
Ġaus sen
ag ung
Ã¤n z
ian ces
Ã¼tz ten
Ġzwe imal
Ġfinanz rahmen
Ġwieder her
Ġeigen em
Ġgef asst
iste ten
Ġhope fully
Ġbad ly
rech ung
Ġsubst anz
Ġbio kraft
Ġcoordin ate
Ġeinger Ã¤umt
Ġgemeinschafts unternehmen
fÃ¤ llt
ĠbedÃ¼r fen
Ġersch ienen
Ġexpand ing
Ġbehaup tet
Ġoverl ooking
Ġspekt rum
veranst altungen
Ġmerc ury
Ġindispens able
j on
Ġm n
Ġf et
Ġin folge
ar ischen
Ġst amp
ul u
Ġmo o
Ġes k
Ġdo ctors
Ġges enkt
ple te
Ġgeb ucht
Ġsc rat
Ġmid day
aler ie
Ġfirm ware
Ġliter atur
ĠÃ¼b lichen
Ġkabel j
Ġdistin ct
Ġeinzus etzen
Ġabwechs lungs
ĠjÃ¼r gen
Ġunternehmert um
g lo
u in
Ġthe orie
Ġun regel
Ġk up
ig ter
Ġein k
Ġst yl
Ġpr ima
Ġaus fÃ¼llen
Ġhe llen
og ether
Ġmar athon
Ġlo ud
Ġfe b
Ġsol daten
ett a
Ġconf usion
Ġcor rid
Ġsin ken
ged eckt
Ġprom ising
Ġkrit ische
Ġaud i
Ġaffe cting
Ġintens ity
ĠprÃ¤ senz
Ġdemon st
Ġheav ily
Ġverwir r
Ġpaul o
mot or
Ã¶p fe
Ġly on
Ġausgel iefert
v s
v assilio
Ġd l
Ġs q
is mo
Ġb lin
Ġf t
at isf
ir at
ere in
Ġaus be
Ġho le
Ġhe ader
Ġqu eries
Ġnew est
Ġlie ÃŁ
Ġtrans mitted
Ġentwicklung spolitik
Ġrom ano
iste te
Ġbeh aupt
Ġdeliver ing
bei hilfe
Ġsand y
Ġgrundlegen d
Ġexperien cing
Ġ197 7
grÃ¶ ÃŁte
omin ister
gestell te
Ġemot ion
Ġveter in
sproje kte
Ġnewspap ers
beweg ung
Ġgefert igt
vassilio ueu
y our
Ġd il
Ġs ang
Ġm ant
Ġk b
Ġl Ã¼cken
Ġal an
qu oten
Ġfre ig
Ġbr Ã¼
fin ancing
Ġcal a
Ġverg abe
Ġeinmal ige
Ġrad ik
Ġchr isten
Ġforward ed
Ġjud ge
Ġvors orge
Ġvize premierminister
Ġlos ing
fun ction
Ġdirector ate
Ġmas ters
Ġkomprom iÃŁ
Ġscreen ing
Ġky pr
Ġarmut s
Ġker am
Ġverpack ungs
Ġignor ieren
ĠauÃŁergewÃ¶hn liche
Ġgepf legt
ĠverschÃ¤r ft
kennt nisse
Ġbiotechn ology
berat ung
perform ance
Ġdiction ary
Ġdile mma
m issions
s wert
u ct
in ity
Ġs ick
Ġw em
Ġf la
ar de
Ġbe legt
st ore
Ġpro ph
Ġer u
Ġj ub
Ġauf re
Ġauf hÃ¶ren
Ġaus lands
Ġsp in
Ġtra ils
fe ct
Ġmon ster
Ġreal ize
Ġbro ek
Ġprior it
Ġziel s
Ġvisit or
let scher
ziel en
Ġwal es
Ġsoc io
Ġpot ent
yl on
Ġtransl ators
Ġpet itions
Ġgrunds Ã¤tzen
Ġtu ber
Ġconvenient ly
Ġbang lad
Ġextend ing
Ġschwed ische
Ġdeliber ation
Ġoste uropa
Ġimbal ances
j ana
m ietung
s al
w icht
it udes
Ġf its
an ische
Ġz igare
st age
el i
Ġj n
Ġal ive
Ġsch mit
ne ys
be y
Ġper ce
Ġapp l
Ġgegen stÃ¤nde
Ġhuman ity
Ġinnov ativer
Ġabst immungen
Ġziel setzung
Ġvol umen
Ġsan it
Ġoptim iert
Ġsett led
Ġdeal ers
erstell ung
Ġprivat isierung
ĠÃ¼br ig
ĠbeschrÃ¤n kung
Ġestim ates
Ġalph abet
katastrop hen
Ġdiamant opoulou
Ġyah oo
Ġlufthans a
Ġ Â£
Ġw ife
un en
Ġb j
Ġb ind
Ġm asse
Ġp ci
Ġst ub
Ġst ance
Ġst Ã¼tzt
ess a
Ġdem ographic
Ġinter action
Ġda iry
Ġev a
Ġgener ator
Ġnet te
Ġ11 6
Ġorder ing
Ġpat io
Ġneg ativen
Ġterror isten
ĠsÃ¼ ÃŁ
Ġattra ktive
Ġcreat ures
Ġbi ologischen
Ġgraph ical
Ġgeorg ieva
Ġliz enzen
Ġsnow board
Ġwachsen den
ĠniederlÃ¤nd ische
____ ____
Ġeingetragen e
Ġverlie hen
Ġdisag ree
er te
Ġs enten
at ar
as tet
ter ia
hr ung
and ia
Ġge leg
Ġpr Ã¤sid
Ġwill iam
Ġvor stand
be am
Ġger Ã¤ten
ument en
Ġcol umns
Ġsk ip
par ks
Ġbetr Ã¤ge
ird as
Ġtop ical
Ġtas chen
Ġflo ur
Ġfocus ing
Ġ27 31
Ġintrodu ces
Ġunters agt
Ġbi ologische
Ġrail ways
Ġchance llor
ĠsÃ¼d tirol
Ġsant os
Ġdritt staaten
Ġdeath s
Ġunz Ã¤hl
ĠzuverlÃ¤ss ige
rans fer
Ġtast y
Ġbeam ten
intens ive
Ġthreaten ed
Ġfreige geben
Ġsams ung
h os
r in
v ari
Ġb ikes
Ġe ld
Ġc ass
ro le
Ã¤ he
kt iver
Ġmit zu
ger y
Ġlo ch
air es
Ġzeit gen
Ġgel ang
Ġsec ured
Ġverw altungen
Ã¤h le
Ġausge arbeitet
Ġflug zeuge
Ġbran ches
Ġsymbol s
Ġchamp ion
Ġappar ently
Ġsurv ive
Ġrout ine
eregel ung
Ġzusammenf assen
Ġcarib bean
Ġgibr altar
Ġassel born
Ġlifel ong
r ors
v et
Ġs ys
Ġw ise
Ġv itor
ber ichts
Ġauf bew
Ġab wicklung
Ġch er
Ġch or
Ġor acle
Ġweit aus
Ġtr iple
Ġla und
Ġstand punkte
Ġunder est
Ġ10 5
Ġbre ites
Ġ12 8
Ġreal isieren
Ġgeneral anwalts
zeug nisse
fre d
zug s
Ġgru pp
Ġobje ktiv
Ġkontakt formular
Ġclass ified
Ġbor ne
Ġstruktur reformen
Ġarr est
laub nis
best Ã¤tigung
Ġcirc uit
Ġang ola
Ġbehinder ungen
Ġschre yer
ĠberÃ¼hm te
mach ung
ĠbeeintrÃ¤cht igt
Ġkonst ant
Ġbeiz ut
Ġsudden ly
cult ural
e i
f is
f aden
t ungs
Ġp ere
Ġh unting
Ġk alt
Ġz en
Ġto y
ge ist
ant ly
Ġnot ably
Ġra us
fahr zeug
Ġsc ulpt
az za
Ġdefin es
Ġerne uerung
Ġverz ichten
Ġinterview s
Ġeure x
ĠlÃ¤ng st
Ġerb aut
c ie
j or
Ġd ia
ch tern
Ġs ans
Ġto ys
el en
Ã¶ glich
Ġer re
Ġdes c
Ġunter drÃ¼ck
Ġdem nach
Ġro o
ord nungs
Ġem bra
geb iets
Ġkl Ã¤ren
Ġdec ides
Ġsystem atic
Ġgre w
Ġtradition en
Ġtru ppen
ĠauÃŁen minister
Ġverwirk lichen
Ġrare ly
Ġunanim ously
Ġprison ers
Ġforese en
Ġanh Ã¤nger
Ġfortz usetzen
Ġwiz ard
u an
Ġin halten
Ġn l
Ġk id
Ġver senden
Ġwir ft
Ġj on
Ġbes etzt
Ġ19 60
Ġph asen
Ġmark us
Ġgesch Ã¤tzt
Ġschw ein
Ġel ast
kon fl
Ġann ually
Ġposit ives
Ġ* *
wh el
Ġsepar ated
Ġextens ions
Ġevalu ated
Ġernst hafte
Ġunions bÃ¼rger
Ġgesundheits wesen
ĠhÃ¶r t
Ġanony m
Ġterrit ories
Ġverbind lich
ĠverhÃ¤lt nismÃ¤ÃŁ
ky o
liothe ken
Ġbesorgnis erre
ĠkÃ¼hl schrank
Ġdict ators
Ã¼berwach ung
p rom
u den
v ens
z n
Ġb t
Ġv b
Ġun ann
Ġun recht
Ġk atzen
Ġbe ars
ing o
ut ung
Ġver ify
um fang
hr end
Ġwer ner
Ġno isy
Ġherr lichen
Ġfe ucht
Ġkl Ã¤r
kl assen
Ġko ennen
Ġbo asts
Ġeing angs
Ġmet als
Ġsin cer
Ġtele kom
Ġint u
Ġprotection ism
Ġtradition ell
Ġtyp ischen
Ġindustrie politik
Ġrent als
Ġanalys iert
Ġconfig ured
Ġmensch heit
bas ierten
Ġdomin ant
ĠlÃ¤ng ere
Ġalg irdas
Ġinterinstitution al
Ġsher aton
unters uch
administr ation
s icherung
Ġc el
ion i
Ġn Ã¼r
sch ir
Ġauf richt
Ġne ck
Ġge teilt
Ġab gest
au ghter
Ġvor mittag
Ġem eta
Ġbr Ã¼cke
Ġwo zu
Ġmon aster
Ġjust ification
Ġ15 00
br Ã¼
Ġprodukt iv
werk zeug
Ġschul ung
Ġvorgesch rieben
Ġharmon y
Ġengine ers
Ġvereinfach en
Ġcentr um
Ġgeheim nis
Ġleon ardo
Ġmigr ants
Ġreven ues
Ġkorrig ieren
Ġcontrovers ial
Ġgiov anni
1 000
s amen
es ign
is ol
is ons
Ġm im
Ġh ir
Ġv w
Ġbe ts
Ġein blick
Ġr Ã¶
Ġse bast
ein heiten
se x
ug g
Ġro berto
og an
Ġhin ein
Ġgesch afft
Ġ7 50
Ġur ges
Ġmade ira
Ġwes en
gew ichte
fÃ¤h iger
Ġmoder ate
lang es
bre v
dis ziplin
Ġbelieb ige
Ġmi ros
Ġbegrenz te
Ġausger Ã¼stet
Ġacknow ledge
ĠvielfÃ¤lt ige
Ġepiso de
ĠÃ¤rm sten
kÃ¶m m
n berg
er in
on ou
ie ÃŁ
Ġo le
ro llen
Ġan schein
Ġk ug
em ie
Ġst immung
ge h
ru ppen
Ġpl n
Ġwor auf
Ġtra iler
geb ungs
Ġtr icks
Ġover se
Ġreal ized
Ġze aland
Ġenviron ments
Ġref use
Ġrechts sicherheit
ca ution
Ġcity s
Ġsecret ariat
ief st
Ġpract ically
techn ologien
Ġbulgar ian
ĠÃ¤hn liches
Ġfail ing
ĠfÃ¶r m
Ġverz auber
Ġeleg ance
Ġeinzu fÃ¼hren
stÃ¤t te
Ġelegan ten
Ġzusammengef asst
f lo
n Ã¤chst
n ya
w ein
w inkel
Ġs ara
it ory
at isiert
Ġh Ã¤r
Ġg ue
Ġr ice
Ġso cket
Ġco at
Ġsp ur
Ġfin est
Ġfe els
ced ented
Ġover whel
Ġeinz ur
Ġair ways
Ġhum ans
Ġsign ale
aut hor
Ġkosten freien
Ġbegr Ã¼ndung
ĠwÃ¼r d
spro chen
Ġca ve
bed ing
ĠtÃ¤t igen
Ġsens it
Ġeth ernet
Ġsyn d
Ġanp assungs
Ġnewspap er
Ġenem y
Ġklo ster
Ġunpre cedented
Ġtul ip
archite ktur
f ug
g Ã¼ter
h orn
h ots
u u
w anne
Ġt akt
Ġw Ã¼
Ġb itter
or m
st Ã¶r
ter rasse
ra ge
Ġer l
Ġer ad
Ġer mittlung
est ro
Ġaus stellungen
ad d
Ġho tele
Ġsp alten
Ġnach weis
Ġstr assen
Ġaut over
arbeit eten
Ġkomm ando
Ġbetr Ã¼
Ġgest Ã¼tzt
Ġcap ability
Ġumwelt vertr
Ġexp o
Ġli able
Ġkr Ã¤ft
gehen den
Ġbuch ungen
Ġpot ato
Ġkomple tten
Ġwest liche
Ã¤g ern
Ġbio fuels
Ġblock ed
Ġcarr iers
Ġton ight
sprÃ¼ chen
ĠgemÃ¼t lich
Ġzut iefst
Ġappar ent
Ġjer usalem
Ġcf sp
Ġvarian te
Ġpreserv ed
Ġbicy cle
Ġzag reb
n utzung
Ġt one
it arian
Ġc ran
Ġun fall
ll ah
ic op
ter er
Ġwe igh
Ġzu genommen
Ġsch ritten
Ġaus nahm
Ġen ch
Ġdem nÃ¤chst
Ġcons ole
Ġunder lines
Ġwieder ver
Ġdesign ated
Ġausge glichen
Ġverl uste
Ġmot oren
Ġaktiv itÃ¤t
Ġstellen wert
19 95
Ġvi able
Ġupd ating
Ġwachstum spakt
part nern
wur fs
Ġtim ing
Ġsus pension
Ġfurn ish
Ġstark es
Ġ197 8
Ġbol iv
Ġbeur teilen
Ġries ige
alte ten
liz enz
ĠverzÃ¶ger ung
Ġacknowled ged
ĠgeÃ¤nder ten
Ġaddit ives
e y
k ow
k rupp
t op
Ġd ap
Ġt act
Ġh ers
st ick
Ġst ones
Ġauf zubauen
ind ik
ist or
fol g
ÃŁer ung
Ġgeb ildet
Ġsk ill
Ġref lex
Ġpass ive
Ġfood stuffs
Ġgre if
Ġverk Ã¤ufer
Ġlist ing
Ġwasser wirtschaft
Ġwert papier
Ġort s
uk an
Ġdynam ische
Ġcharacter ised
Ġkennt nisse
Ġbeant ragen
Ġcirc ulation
Ġram ada
Ġerwer bs
Ġearth qu
Ġunderg o
Ġhunder te
Ġrechnungshof s
Ġurheberrecht lich
k amera
w olle
y k
Ġd une
Ġt ension
Ġt Ã¤gliche
Ġc ots
Ġg Ã¶n
Ġn ass
st Ã¶
Ġwir st
Ġex ek
Ġte en
Ġges unden
ese hen
Ġstr iking
Ġfr isten
reich er
Ġgew achsen
Ġbo sch
Ġget Ã¶
Ġform ation
Ġeuropa weit
Ġversch ieben
Ġversch oben
ha ftet
Ġsur plus
Ġabst ain
Ġprev ents
amm ern
Ġsport ing
Ġdid ier
Ġlandwirtschaft s
Ġsend s
gra ben
Ġkrit isch
Ġcarr ies
Ġvict im
Ġkreat ive
umin ister
Ġexception ally
Ġwien er
stu fe
ĠverknÃ¼ pft
Ġexplicit ly
Ġprere quisite
Ġkypr ianou
a ust
d ll
r und
Ġt ired
Ġbe zwe
Ġl on
Ġver weilen
sch uss
Ġsch atz
Ġaus schlag
Ġor iented
Ġtr ium
Ġvers icherung
Ġbesch lieÃŁen
Ġur ug
Ġview ing
Ġmus st
Ġpat ches
Ġcommon ly
amer ikanischen
Ġdan ube
ĠpersÃ¶n liches
ĠschlieÃŁ e
gl as
ĠÃ¶sterreich ische
stre ben
Ġbuff er
Ġemer ged
Ġdemonstr ates
Ġstellvertreten de
Ġtrag ic
Ġbag gage
Ġjung er
Ġsof ia
Ġot to
wettbewer b
Ġcot onou
Ġtreibhaus gas
Ġrena issance
7 45
m art
in ely
is i
an c
Ġst ardo
Ġse id
ver ages
Ġauf rufen
Ġme ga
ze ilen
Ġinst and
ov i
mar king
Ġbus se
Ġmod ifications
Ġfest stellung
Ġel der
vers icherungs
Ġpass ing
unter richt
ott i
Ġcomfort ably
Ġforsch er
Ġeg f
Ġwohn ungs
Ġviol ent
Ġtermin als
Ġoil s
Ġgi ant
Ġlicens es
Ġeintr itts
Ġbedauer lich
Ġabol ished
Ġcub ase
entscheid ungen
Ġlingu istic
Ġbuen os
Ġerdbe ben
l ow
en ergie
Ġl ing
ge legen
ill ing
Ġab fahrt
Ġes pa
end em
Ġange hen
Ġbl ess
Ġair pass
Ġze igte
Ġ11 5
Ġsl aughter
35 0
ĠÃ¼bern achtungen
Ġhoch zeit
Ġvertre tern
reit ung
Ġsaf ely
sh ow
Ġgesellschaft lichen
Ġpf lichten
ĠbÃ¼ ros
Ġencour ages
Ġfail s
Ġschm idt
Ġbeitritts lÃ¤nder
Ġvulner ability
ĠuneingeschrÃ¤n kte
Ġbroadcast ing
e ck
g au
l ib
Ġc rop
Ġan gle
Ġder selben
ol ta
Ġse ating
ers atz
ĠÃ¼ber schw
Ġte fan
Ġgr id
Ġev il
Ġsc andal
Ġfran s
isten ce
Ġeinz iges
gar a
Ġstaats ange
Ġdeliver ies
Ġcode cision
Ġgesellschaft liche
Ġkraft stoff
Ġbio technologie
Ġsent ence
Ġenor men
Ġbetreffen de
mat ik
bÃ¼ ros
fir men
Ġrepeated ly
Ġentschuld igen
Ġstattf indet
m il
Ġd ot
Ġein halten
Ġein wohnern
em ar
den nis
Ġver de
Ġver lin
Ġr it
de velop
os ph
Ġauf t
Ġge holfen
ag s
Ġor ten
Ġgen etic
anz a
Ġfr ischen
Ġ5 000
Ġeing esehen
Ġweiter zu
Ġtrans mit
Ġbel t
Ġcas inos
less ly
Ġchrist oph
Ġnachfol genden
Ġrund funk
Ġumfassen der
ĠfrÃ¼ chte
Ġmis le
Ġdelic ate
Ġbang emann
Ġamts blatt
Ġrefr es
Ġtang ible
Ġantiv irus
Ġverwende te
Ġww u
Ġimmen se
Ġweiterge leitet
Ġpess im
Ġjurisd iction
lifer ation
Ġstardo ll
h ire
m ind
te uer
Ġg sm
Ġan zeichen
ber ichter
Ġer mitt
all er
Ġmar ried
Ġpre caution
Ġzeit ung
fl ation
Ġsc roll
unt u
Ġguest house
Ġx i
Ġsy d
unter sch
Ġverl aufen
Ġens uite
Ġtur bo
ĠrÃ¼ck Ã¼ber
Ġempfehl enswert
Ġgent le
Ġgesellschaft s
Ġmusik al
crib ed
Ġevalu ierung
Ġindepend ently
Ġkomment ierte
Ġangegeben e
netz es
Ġcelebr ated
Ġtie fen
Ġpill ars
Ġconsolid ated
Ġverlei ht
Ġlicens ing
zust and
Ġmunicip ality
Ġgeziel t
Ġcommod ity
Ġkonsolid ierung
Ġunab ding
abb ott
f rank
g ert
m ember
p as
z Ã¶
in th
ch a
Ġg loss
ent h
Ġz f
Ġl us
de c
Ġab stand
se bene
Ġpl acement
Ġherr schen
Ġout lined
Ġtechn iken
sche fs
Ġrest art
Ġant it
Ġnachhalt iges
Ġzun ahme
Ġfeed s
Ġvielf Ã¤ltig
Ġanz up
Ġbegriff e
Ġfem in
Ġmanip ulation
Ġdeploy ment
Ġverhaltens kodex
Ġthyssen krupp
keep ing
ĠtragÃ¶ die
w ire
Ġin con
Ġin coming
Ġn g
Ġder ived
Ġdes per
Ġab bildung
Ġres id
Ġhe bt
Ġpart itions
Ġpre vented
Ġsa x
Ġbo ys
Ġsee verkehr
fra ud
Ġintegr ieren
Ġtechnolog ischen
Ġeigen schaft
Ġeinge geben
Ġ[ ...
Ġperman ently
Ġerziel te
Ġveranst altet
Ġauff or
kan al
Ġcaus ing
Ġtier schutz
Ġdauer hafte
orient ierten
flÃ¼ gel
kat alog
Ġpalest inians
Ġroh stoff
Ġhan sen
Ġsensib il
pfl anzen
ĠsouverÃ¤n itÃ¤t
Ġirgendwel che
dennis abbott
) )
c ular
t aste
ch at
ar at
Ġk ernen
Ġein nehmen
Ġse al
ver sch
Ġco pe
ĠÃ¼ber setzen
sp otenzial
und et
are lli
Ġmehr mals
Ġover look
Ġcommun ist
Ġmod ification
ko d
Ġx x
Ġstehen de
Ġanaly sen
Ã¤mp fe
Ġbay ern
Ġimper ative
Ã¶p fen
Ġtrib un
Ġfremden verkehr
Ġnichtraucher zimmer
Ġthir ty
Ġlaund ry
Ġb s
Ġn ano
Ġan erkennen
Ġl yn
ir land
ct u
Ġim pr
Ġaus reichen
rom ag
hal ter
aus cht
Ġinst ru
Ġgu atem
Ġrest oration
Ġthem atic
bo und
Ġcal ifornia
ĠzurÃ¼ck gegeben
Ġret ire
Ġregel m
Ġgeld buÃŁen
kom plex
Ġbinnenmarkt s
Ġwood s
Ġdete ct
Ġeb ay
ĠgerÃ¤um ige
Ġrefr esh
Ġpoln ische
Ġexklus iven
Ġrelev anten
Ġencry ption
Ġprotektion ismus
Ġrobo ter
a ders
b ase
g is
m ac
n n
p y
un dern
Ġp akt
Ã¤ ki
Ġre kord
am ed
Ġim aging
Ġco ck
Ġunter halb
ru pted
Ġges ucht
Ġro ws
Ġstr ive
to ol
ok er
Ġac ted
Ġbre eding
Ġstud ium
Ġausge legt
Ġsaf ari
Ġjapan ischen
Ġdram atically
stechn ologien
Ġgonz lez
Ġtherap ie
Ġspons ors
Ġrecip ro
Ġvig il
Ġkurzfrist ig
Ġpaint ings
Ġconfidential ity
Ġartik eln
ĠhÃ¤uf iger
Ġpromin ent
bib liothek
Ġdiagn ose
f rance
Ġf s
as ie
Ġer ober
Ġ2 10
Ġab gel
Ġab wasser
Ġsp ont
Ġby tes
Ġher kÃ¶mm
ick a
Ġmar in
Ġcl int
Ġ4 60
olog na
Ġprote in
Ġfore ver
let t
icher ten
Ġupd at
Ġgenau en
Ġturn over
sa ison
Ġsepar at
verletz ungen
Ġeinger ichteten
Ġlaunch ing
Ġtor re
Ġtex as
Ġmaster card
Ġimpl ant
Ġvorher ige
Ġkomplex en
Ġminder heit
Ġrespekt iert
Ġwirks amen
Ġfreiwill ige
kult ure
iox id
Ġmanip ul
Ġschwimm bad
ĠallmÃ¤h lich
Ġzeitgen Ã¶ss
f rom
m d
s ize
Ġd umping
Ġt iny
Ġb ij
Ġp ots
Ġh ip
Ġl id
Ġex tras
Ġar row
Ġhe ated
Ġyour s
Ġav ant
Ġarbeit er
wick elt
Ġbo ule
Ġlin z
Ġdeb ating
Ġke en
Ġpublic ly
Ġexp ense
Ġprev ail
Ġdef izite
lik ely
des k
Ġce leb
Ġanf angen
best immung
Ġnord see
bek istan
Ġ197 6
Ġbeob achtungs
ĠbefÃ¼r worte
Ġimpl ies
Ġgi ul
Ġsorgf alt
Ġkranken haus
Ġquart al
Ġzwangs lÃ¤ufig
Ġske pt
Ġspazier gang
Ġhect ares
Ġadri atic
Ġanwesen heit
Ġs ot
on ian
Ġp kw
Ġe ignen
Ġc ake
Ġg ur
Ġun likely
us sten
Ġdes irable
ag ger
Ġvor gegeben
Ġcan ary
Ġpl c
tr ation
Ġhand lungen
so ever
Ġir r
Ġtyp en
Ġregard less
Ġwahr nehm
Ġclass ification
Ġgerichtshof es
Ġpotential ly
Ġmel od
Ġemphas ised
iede te
Ġdelay ed
Ġwithdra wn
Ġparlamentar ischen
Ġbench mark
Ġasp ir
ĠkÃ¤ se
gerichts hof
Ġvermarkt ung
Ġgedank ena
Ġondrej ika
} }
Ġf p
Ġr Ã¤umen
ĠfÃ¼r s
Ġim pf
Ġen cl
ern ob
ast a
Ġwar saw
Ġbere chnen
Ġdet ached
bl as
Ġtax is
Ġverg lichen
Ġindic ations
zwe cke
Ġcompos tela
Ġgeist igen
Ġehrgeiz ige
Ġhyper link
Ġaven ue
Ġauftr itt
Ġschla fen
Ġeinlad ung
v als
w r
x p
er b
in z
Ġa hm
on ne
Ġw y
re is
an cies
Ġp iz
ion es
Ġv ierten
il st
Ġer geht
ver zerr
Ġex quisite
ran sport
Ġno us
be ck
Ġman uell
Ġdis par
Ġoff shore
Ġwhat soever
Ġhand werk
Ġhel icop
ual a
Ġbar be
halt ungen
Ġest ado
Ġgemeinschaft liche
Ġschne ider
Ġarbeits gruppe
Ġregistr ierte
Ġprem iere
Ġaktion sprogramm
Ġvict or
Ġvern ach
Ġverkehrs mittel
pal ette
Ġcriter ion
Ġ197 9
Ġundert ake
Ġzert ifizierung
hel fen
Ġaccompan ying
ĠÃ¤lt esten
Ġhazard ous
Ġsacrif ice
ernob yl
d iv
f at
k andid
p hen
ch ild
Ġp p
Ġo xy
Ġre yn
Ġre zept
Ġr unt
os es
ver trÃ¤ge
Ġge ein
Ġpr s
Ġle hne
Ġab und
for ward
Ġme tern
se villa
Ġbr ig
Ġkl ing
int osh
Ġeing riff
Ġnet s
Ġverw iesen
Ġumwelt fragen
od es
Ġans Ã¤tze
ipp er
Ġkomp il
ĠgrÃ¼n der
Ġberichter stattung
Ġbevor zu
Ġcontain ers
Ġarchitect ural
Ġfunktions weise
Ġseas ons
Ġkirchen gemeinde
Ġchampions hip
Ġshang hai
Ġurug uay
Ġs j
Ġb oss
Ġo re
Ã¤ ts
Ġbe fra
Ġbe heben
Ġbe antwortung
Ġto kyo
Ġl ande
Ġre fined
Ġver mittlung
Ġer stell
Ġal berto
au chen
Ġnach teile
cl ient
Ġvo ip
Ġfir es
Ġev angel
ry er
Ġgut schein
Ġrecht lich
Ġregel ungs
Ġterror ists
Ġhandel spartner
Ġsto ppen
Ġlimit ations
proje kten
Ġdomin ique
Ġmedic inal
Ġformul iert
sec urity
lly wood
Ġspons or
ĠrÃ¼ ckt
Ġtast atur
Ġbekomm e
Ġgenet isch
Ġdistribut or
Ġantit rust
Ġ[... ]
d al
ch ed
Ġp izza
Ġe i
Ã¼ bt
Ġk em
ed y
Ġl up
Ġpro menade
Ġes cal
Ġum wand
ze llent
se a
Ġhe aling
Ġpol o
pr ivate
port s
fÃ¼hr ungen
Ġko ll
cess ions
Ġdec ent
vor auss
Ġprocess or
Ġ15 5
Ġtele f
Ġverantwort lichen
Ġtur keys
Ġbeginn ers
Ġschwer er
Ġ198 1
Ġaufge teilt
Ġpromot ions
Ġaktion splans
Ġgenie ÃŁt
Ġprofit iert
Ġcharacter ized
Ġvorhanden e
Ġbewer b
Ġhorn y
Ġinev itable
ĠausÃ¼ ben
Ġbinden d
fab rik
Ġaccomod ation
Ġpropr iet
Ġvernach lÃ¤ss
z um
Ġt um
re y
Ġg reg
Ġan x
Ġbe wirkt
Ġein m
Ġst ood
ge halt
Ġse cre
Ġal ber
Ġaus gestellt
Ġen rich
th of
Ġro hr
lo v
Ġtrans aktion
zie ll
Ġel ena
Ġche chn
Ġbal i
35 93
Ġca fs
Ġhar vest
Ġwirk lichen
wach sen
ĠentschlieÃŁ ungen
Ġerzeug nissen
Ġklein eren
Ġaugen merk
Ġpictures que
othe ken
ĠverstÃ¤nd lich
Ġkonfigur ieren
Ġbaby bett
Ġformul ierung
Ġdete cted
Ġfreiwill igen
Ġsurf aces
Ġhyp oc
Ġpermit s
Ġox ford
Ġherange hen
Ġatember auben
Ġtamp ere
4 379
a fter
u ÃŁen
Ġp ert
as k
ur i
el ing
Ġre imb
Ġr ug
im os
Ġde eper
ÃŁ ten
Ġen den
au ert
igen e
Ġkon zeption
yste men
Ġwo hin
Ġrev ital
Ġdeut licher
Ġdesign ers
Ġneg le
Ġoptim ized
bereit ung
Ġverf asser
Ġinformations austausch
gener ation
Ġfon ts
Ġlate x
Ġauftrag geber
Ġbeschluss es
Ġpopul ations
Ġvit amin
anwend ung
Ġausged rÃ¼ckt
Ġdeaktiv iert
Ġschu he
Ġjugendher bergen
Ġhandt Ã¼cher
Ġbaron ess
p op
u y
w ish
Ġd t
Ġp xi
Ġg itar
ing ly
Ġl kw
Ġver teil
Ġver min
Ġer arbeiten
Ġauf wand
Ġat las
Ġvor hin
Ġunter richtet
Ġpl acing
uss y
Ġnach voll
Ġcl iff
Ġper pet
Ġminister rat
Ġpre gn
Ġverb re
Ġfolgen absch
Ġoper ative
Ġregul ate
Ġback ing
Ġwort hy
Ġjan e
Ġtranspar ente
Ġwahr ung
Ġindustr iel
Ġkrit ischen
Ġanf Ã¤nger
Ġschle chten
Ġcomplex ity
Ġster nen
Ġsatell it
Ġfrequ enz
Ġerd Ã¶l
Ġeinzu gehen
Ġsek und
Ġwechsel kurs
Ġjeglich er
ĠÃ¼berfl Ã¼ss
v ents
it ably
Ġp ause
Ġe ve
Ġin kraft
al o
ing ang
Ġre min
ad ed
Ġex zellent
Ġen gen
Ġch rome
oo ter
ub ringen
Ġbo d
wend ungen
Ġnational es
Ġfran ois
rei heit
Ġintegr itÃ¤t
Ġmat th
ren ce
pre isen
ĠbenÃ¶t igten
Ġempf Ã¤ngt
Ġexpress ly
Ġunver meid
ĠbÃ¼ hne
Ġrea ders
Ġeinwander er
Ġsorgf Ã¤lt
Ġerweiter ungen
Ġwhe els
Ġtail or
Ġautomobil industrie
Ġquad rat
Ġpow der
Ġunverzicht bar
ophob ia
Ġheidel berg
b rechen
f as
f ly
Ġf ische
ab out
Ġer langen
Ġne use
Ġsch o
Ġsch Ã¤tzungen
qu est
sp aket
ap olitik
cl a
enn y
ian er
wo che
Ġgel tend
Ġschw Ã¤ch
Ġdisc our
Ġdi abet
Ġrepresent ing
Ġtal iban
sh irt
Ġbetre ut
Ġbenutzer freund
Ġmethod ology
Ġverabsch iedete
Ġkomprom isse
Ġcontract ual
ĠnÃ¤her es
Ġentreprene ur
Ġdal mat
uropÃ¤ ische
ĠeinschrÃ¤n kung
Ġalger ia
Ġforecast s
Ġandor ra
Ġtort ure
Ġhors es
Ġchechn ya
h at
h eld
j ak
p ed
Ġt ons
on ly
Ġz ap
ic ted
Ġzu gewiesen
ver pflicht
Ġpr ix
Ġent fallen
Ġte uf
Ġher zustellen
Ġspe z
Ġ19 45
teil nehmer
av o
Ġet age
istr Ã¤ger
Ġ10 1
Ġschl Ã¼sse
Ġteil nehmern
Ġeinzel ner
ef re
Ġsector al
Ã¤ss igen
ira cy
Ġschwe igen
vent ura
Ġviol ation
Ã¤st het
Ġeinzu halten
wachst ums
Ġhell o
Ġroman ian
stud ien
ifi able
Ġvit am
ĠgerÃ¤um igen
Ġappart ment
Ġchic ago
Ġtruck s
Ġtrin ken
ĠÃ¼berschw em
b ird
c ano
} ,
re aching
Ġn em
Ġk iss
st ationen
Ġr anges
ill en
ain en
Ġsp here
Ġunter halten
Ġro ger
Ġro lling
ult ure
Ġfre is
Ã¼n dete
Ġacc redit
Ġhand ic
Ġcar ol
Ġleg acy
Ġmat rix
Ġcompet itions
Ã¤ng st
Ġenergie versorgung
umen ted
Ġautomat ischen
Ġeigent lichen
Ġalt ogether
Ġmeer blick
Ġbuy er
kr Ã¤ft
ĠgefÃ¤hr lichen
ris iko
Ġbeitritts verhandlungen
Ã¼ss elt
Ġstimul ate
ĠpalÃ¤stinens er
Ġrank ing
Ġzin ss
Ġmeld ung
Ġbrill iant
Ġclimb ing
Ġelis abeth
745 13
Ġupdat estar
d imension
n oten
Ġs etzte
re iter
Ġg ior
Ã¤ her
Ġver zeichnet
ab elle
Ġne v
Ġden y
Ġkon tr
Ġwo durch
Ġverb and
Ġcar men
Ġsel ts
leg ungs
ob a
Ġ24 0
Ġve ctor
Ġwahr schein
Ġwohl fÃ¼
stra ÃŁen
Ġgesetz geber
Ġmand elson
ĠÃ¤uÃŁer ungen
Ġzufrieden stell
Ġupgra ding
Ġremov ing
Ġgradu al
Ġul tr
Ġreact ions
Ġcad iz
Ġacceler ate
Ġtransatlant ischen
Ġgeschle chts
Ġtenden z
Ġalger ien
rein igung
Ġphr ase
ĠankÃ¼nd igung
Ġtschetschen ien
a ver
d k
al one
Ġv ed
Ġl aps
st Ã¤nden
Ġver gew
Ã¼r zen
Ġy ield
and elt
os o
os te
Ġmo uld
Ġsu cc
Ġges endet
Ġhas s
Ġpol ite
ap ed
aus gabe
Ġdire kter
ov olta
Ġbed ingung
Ġsc ored
Ġke ller
ath ers
Ġhol y
Ġsl im
Ġsl ots
Ġhoch schule
Ġret tungs
han a
Ġauthor ized
bild ungen
ĠzusÃ¤tz licher
Ġattra ction
Ġbeautif ully
Ġyoung er
Ġarchite kt
stre cke
Ġgeorg ios
Ġcoll apse
Ġbir ma
Ġcla imed
ĠbefÃ¼r cht
ĠnÃ¶t igen
Ġbehinder te
Ġdecre ase
Ġrough ly
vier tel
Ġforb idden
Ġgedankena ustausch
) -
b g
or ah
Ġe cke
Ġh als
ar l
Ġto sk
Ġl jub
Ġse y
Ġden ied
th is
Ġcom it
Ġuns icher
fahr ung
Ġcurr encies
Ġel abor
Ġcr es
Ã¤m pf
Ġverl iert
Ġca pe
Ġreserv ierungen
ba den
ĠÃ¼ ben
Ġextra ct
Ġbesuch ern
Ġabgeord neter
Ġmotiv ated
Ġjack pot
Ġdiam ond
Ġsab ine
Ġmeld ungen
ĠÃ¶st lichen
Ġvarian ten
Ġtrace ability
Ġcraft s
Ġmehrsprach igkeit
Ġrechtfert igen
Ġrefurb ished
! .
b end
b la
en dern
Ġa j
Ġm ud
Ġf rits
Ã¤ ll
Ġver schaffen
am pp
Ġco ating
Ġle x
Ġwh ilst
ste ine
ick ets
Ġgen f
tz immer
Ġbr ust
Ġgeb ir
Ġgesam melt
Ġvertre t
ordin ation
ĠstÃ¤r kt
Ġline ar
Ġprivat isation
Ġexc ise
Ġsauber keit
Ġgraf iken
Ġstring ent
Ġgrant ing
Ġreichhalt iges
Ġbureauc ratic
Ġremed y
Ġconsc ious
Ġfif teen
aufent halt
s uch
Ġa an
or ben
sch rau
id ungs
Ġmit teilungen
Ġunter en
ho u
Ġu z
Ġben annt
Ġeing est
Ġstand orte
Ġbus quin
Ġgleich behandlung
Ġsozial schutz
Ġbreak s
Ġren omm
icher te
Ġwal ks
Ġnegot iate
Ġcamp an
Ġgegenw art
Ġgek Ã¼rzt
Ġgesundheits schutz
Ġkreat uren
bezogen er
Ġuner wÃ¼n
Ġdefinit iv
Ġassozi ierungs
Ġverp assen
ĠbefÃ¶rder ung
Ġsla ve
Ġopf ern
anspru chn
Ġench ant
h rough
m one
w ider
Ġi ia
Ġto k
Ġl ap
Ġein heiten
ol en
Ã¶ ste
Ġj ess
Ġauf teilung
Ġle idet
end ungen
Ġsh irt
Ġste ad
Ġlo u
Ġzw anzig
Ġnow here
Ġmed a
Ġinn oc
Ġschl age
Ġwelt markt
Ġverein igung
med ien
Ġfehl ende
Ġrad ikal
Ġitalien isch
Ġbill ige
Ġcross ing
sprogram men
Ġvirt uellen
Ġwarm ing
ĠÃ¼berein kommens
Ġlay ers
Ġverpflicht ungs
ĠgrÃ¼nd lich
Ġhosp itals
[...]
