{"[PAD]": 0, "[BOS]": 1, "[EOS]": 2, "[UNK]": 3, "!": 4, "#": 5, "$": 6, "%": 7, "&": 8, "(": 9, ")": 10, "*": 11, "+": 12, ",": 13, "-": 14, ".": 15, "/": 16, "0": 17, "1": 18, "2": 19, "3": 20, "4": 21, "5": 22, "6": 23, "7": 24, "8": 25, "9": 26, ":": 27, ";": 28, "?": 29, "@": 30, "[": 31, "\\": 32, "]": 33, "_": 34, "a": 35, "b": 36, "c": 37, "d": 38, "e": 39, "f": 40, "g": 41, "h": 42, "i": 43, "j": 44, "k": 45, "l": 46, "m": 47, "n": 48, "o": 49, "p": 50, "q": 51, "r": 52, "s": 53, "t": 54, "u": 55, "v": 56, "w": 57, "x": 58, "y": 59, "z": 60, "{": 61, "|": 62, "}": 63, "\u00a3": 64, "\u00a4": 65, "\u00a5": 66, "\u00ac": 67, "\u00b6": 68, "\u00bc": 69, "\u00c2": 70, "\u00c3": 71, "\u00e2": 72, "\u0120": 73, "\u0124": 74, "\u0141": 75, "en": 76, "er": 77, "in": 78, "\u0120a": 79, "\u0120d": 80, "\u0120t": 81, "ch": 82, "\u0120s": 83, "es": 84, "on": 85, "is": 86, "\u0120w": 87, "un": 88, "\u0120th": 89, "it": 90, "\u0120b": 91, "re": 92, "\u0120m": 93, "\u0120f": 94, "an": 95, "at": 96, "ie": 97, "or": 98, "\u0120p": 99, "\u0120the": 100, "\u0120e": 101, "\u0120c": 102, "\u0120in": 103, "\u0120h": 104, "al": 105, "te": 106, "ar": 107, "ion": 108, "\u0120g": 109, "\u0120o": 110, "ro": 111, "ich": 112, "\u0120v": 113, "le": 114, "\u0120n": 115, "as": 116, "\u0120an": 117, "\u0120un": 118, "us": 119, "\u00c3\u00bc": 120, "ent": 121, "ur": 122, "ung": 123, "\u00c3\u00a4": 124, "om": 125, "ll": 126, "\u0120k": 127, "\u0120die": 128, "\u0120be": 129, "ing": 130, "\u0120is": 131, "ig": 132, "\u0120of": 133, "\u0120z": 134, "\u0120i": 135, "ed": 136, "\u0120to": 137, "\u0120l": 138, "\u0120der": 139, "ic": 140, "st": 141, "el": 142, "\u0120ein": 143, "ter": 144, "\u0120and": 145, "ra": 146, "\u0120re": 147, "ir": 148, "\u0120und": 149, "et": 150, "em": 151, "il": 152, "ut": 153, "ation": 154, "ol": 155, "eit": 156, "\u0120st": 157, "ge": 158, "den": 159, "ten": 160, "\u0120ver": 161, "um": 162, "\u0120for": 163, "ies": 164, "\u0120r": 165, "der": 166, "ct": 167, "\u0120pro": 168, "\u00c3\u00b6": 169, "hr": 170, "sch": 171, "\u0120au": 172, "am": 173, "de": 174, "ber": 175, "ul": 176, "\u00c3\u00bcr": 177, "iv": 178, "ab": 179, "ier": 180, "lich": 181, "ot": 182, "omm": 183, "\u0120er": 184, "gen": 185, "\u0120eu": 186, "\u0120das": 187, "im": 188, "\u0120wir": 189, "icht": 190, "\u0120on": 191, "\u0120y": 192, "est": 193, "\u0120we": 194, "\u0120j": 195, "\u0120se": 196, "ere": 197, "ess": 198, "isch": 199, "\u0120sie": 200, "\u0120al": 201, "and": 202, "\u0120f\u00c3\u00bcr": 203, "\u0120ist": 204, "os": 205, "id": 206, "\u0120zu": 207, "\u0120im": 208, "pe": 209, "ow": 210, "ach": 211, "\u0120dies": 212, "ce": 213, "ort": 214, "ly": 215, "ver": 216, "\u01202": 217, "\u0120yo": 218, "\u0120de": 219, "\u0120con": 220, "ff": 221, "\u0120this": 222, "kt": 223, "\u01201": 224, "iss": 225, "\u0120mit": 226, "\u0120auf": 227, "\u0120von": 228, "00": 229, "\u0120ne": 230, "\u0120are": 231, "\u0120den": 232, "\u0120ge": 233, "\u0120it": 234, "\u0120euro": 235, "ill": 236, "ind": 237, "\u00c3\u0141": 238, "\u0120(": 239, "ft": 240, "ay": 241, "..": 242, "\u0120so": 243, "\u0120sch": 244, "\u0120pr": 245, "\u0120co": 246, "qu": 247, "\u0120aus": 248, "\u0120des": 249, "ck": 250, "ers": 251, "ith": 252, "\u0120ha": 253, "ungen": 254, "ik": 255, "ve": 256, "\u0120le": 257, "ib": 258, "ein": 259, "\u0120with": 260, "\u0120wh": 261, "ate": 262, "men": 263, "\u0120wer": 264, "\u0120that": 265, "pp": 266, "ist": 267, "ad": 268, "\u0120ab": 269, "\u0120mo": 270, "\u00c3\u00bcber": 271, "ag": 272, "ment": 273, "ste": 274, "ant": 275, "ust": 276, "ien": 277, "\u0120ho": 278, "ommiss": 279, "\u0120eine": 280, "tel": 281, "\u0120you": 282, "\u0120ex": 283, "nen": 284, "\u0120en": 285, "\u0120su": 286, "\u0120es": 287, "\u0120as": 288, "\u00c3\u00a4n": 289, "\u0120ch": 290, "for": 291, "ak": 292, "\u0120par": 293, "th": 294, "\u0120all": 295, "\u0120\u00c3\u00bcber": 296, "\u0120werden": 297, "\u0120-": 298, "op": 299, "au": 300, "ah": 301, "\u0120als": 302, "ommission": 303, "ive": 304, "ann": 305, "\u0120nicht": 306, "\u0120will": 307, "\u0120at": 308, "\u0120not": 309, "\u0120ent": 310, "\u0120vor": 311, "ial": 312, "ity": 313, "sp": 314, "\u0120sich": 315, "ne": 316, "und": 317, "\u0120me": 318, "ht": 319, "\u0120ich": 320, "end": 321, "\u0120com": 322, "if": 323, "\u0120uns": 324, "\u0120sh": 325, "\u0120um": 326, "\u0120do": 327, "\u0120was": 328, "all": 329, "ischen": 330, "ain": 331, "ze": 332, "\u0120or": 333, "we": 334, "\u0120sp": 335, "\u0120sind": 336, "\u0120us": 337, "\u0120unter": 338, "\u0120by": 339, "\u0120dem": 340, "ben": 341, "ions": 342, "\u0120have": 343, "ted": 344, "\u0120ar": 345, "form": 346, "\u0120inter": 347, "rom": 348, "sen": 349, "ran": 350, "ru": 351, "iel": 352, "uld": 353, "ungs": 354, "\u0120te": 355, "\u0120no": 356, "se": 357, "age": 358, "ern": 359, "\u0120wird": 360, "\u0120europ": 361, "du": 362, "oo": 363, "igen": 364, "\u0120her": 365, "ure": 366, "\u0120reg": 367, "pt": 368, "hen": 369, "ine": 370, "be": 371, "\u0120europe": 372, "ug": 373, "ahr": 374, "\u0120auch": 375, "ick": 376, "\u0120ad": 377, "\u0120can": 378, "ard": 379, "\u0120ges": 380, "\u0120bes": 381, "\u0120pl": 382, "scha": 383, "\u0120res": 384, "\u0120am": 385, "ast": 386, "\u0120ro": 387, "hal": 388, "\u0120min": 389, "lie": 390, "able": 391, "\u0120hotel": 392, "\u0120he": 393, "pl": 394, "ts": 395, "\u0120our": 396, "uch": 397, "\u0120has": 398, "ang": 399, "ige": 400, "\u0120wor": 401, "og": 402, "ould": 403, "\u0120fin": 404, "\u0120200": 405, "ia": 406, "me": 407, "gr": 408, "ische": 409, "uss": 410, "\u0120ber": 411, "\u00c3\u00b6n": 412, "\u0120man": 413, "\u0120hab": 414, "ue": 415, "tr": 416, "\u0120ih": 417, "\u0120from": 418, "ister": 419, "ert": 420, "\u0120ste": 421, "iz": 422, "\u0120qu": 423, "\u00c3\u00a4t": 424, "\u0120zur": 425, "ire": 426, "\u0120comp": 427, "\u0120ma": 428, "up": 429, "schaft": 430, "\u0120nach": 431, "\u0120there": 432, "\u0120also": 433, "\u0120wie": 434, "\u0120pol": 435, "\u0120commission": 436, "pr": 437, "\u0120diese": 438, "io": 439, "\u0120gr": 440, "\u0120bei": 441, "\u00c3\u00a4r": 442, "\u0120mar": 443, "ident": 444, "\u0120your": 445, "port": 446, "etz": 447, "mer": 448, "ice": 449, "ip": 450, "ations": 451, "\u0120hat": 452, "ub": 453, "cc": 454, "\u0120inform": 455, "\u0120.": 456, "llen": 457, "ult": 458, "\u0120mr": 459, "ap": 460, "\u01203": 461, "\u0120fo": 462, "\u0120k\u00c3\u00b6n": 463, "beit": 464, "ail": 465, "are": 466, "ction": 467, "keit": 468, "heit": 469, "aus": 470, "f\u00c3\u00bc": 471, "\u0120european": 472, "ise": 473, "her": 474, "ite": 475, "ight": 476, "ud": 477, "ges": 478, "ens": 479, "\u0120dur": 480, "art": 481, "\u0120kon": 482, "\u0120da": 483, "\u0120europ\u00c3\u00a4": 484, "\u0120haben": 485, "ition": 486, "erv": 487, "\u0120fra": 488, "ass": 489, "ome": 490, "\u0120gen": 491, "\u0120comm": 492, "tz": 493, "ram": 494, "\u0120gro": 495, "\u0120cl": 496, "\u0120coun": 497, "iert": 498, "\u0120part": 499, "...": 500, "ac": 501, "eren": 502, "\u0120dass": 503, "ign": 504, "rit": 505, "ational": 506, "hl": 507, "\u0120cont": 508, "cl": 509, "chen": 510, "\u0120tra": 511, "\u0120war": 512, "out": 513, "\u0120information": 514, "\u0120fre": 515, "\u0120kommission": 516, "aten": 517, "\u0120spe": 518, "je": 519, "tet": 520, "ank": 521, "he": 522, "\u0120ag": 523, "ieren": 524, "fen": 525, "ement": 526, "\u0120m\u00c3\u00b6": 527, "ase": 528, "\u0120more": 529, "gt": 530, "\u0120intern": 531, "ated": 532, "\u00c3\u00bcn": 533, "\u0120produ": 534, "elt": 535, "vel": 536, "ger": 537, "liche": 538, "bs": 539, "\u0120new": 540, "ical": 541, "\u0120wur": 542, "ese": 543, "ates": 544, "\u0120k\u00c3\u00b6nnen": 545, "enn": 546, "con": 547, "\u0120weit": 548, "\u0120lo": 549, "per": 550, "\u00c3\u00a4s": 551, "ary": 552, "ish": 553, "\u0120ra": 554, "\u0120durch": 555, "\u0120per": 556, "sten": 557, "lo": 558, "\u0120po": 559, "\u0120minister": 560, "che": 561, "anz": 562, "lichen": 563, "gram": 564, "ore": 565, "hmen": 566, "\u0120app": 567, "ord": 568, "\u0120pre": 569, "ake": 570, "\u0120ihr": 571, "\u0120pres": 572, "\u00c3\u00bcs": 573, "yste": 574, "\u0120herr": 575, "ance": 576, "fe": 577, "\u00c3\u00b6r": 578, "iff": 579, "cial": 580, "\u01204": 581, "\u0120sa": 582, "\u0120einen": 583, "ommen": 584, "\u0120dis": 585, "\u00c3\u00a4nder": 586, "\u0120sein": 587, "imm": 588, "ide": 589, "\u0120alle": 590, "\u0120oder": 591, "tra": 592, "ther": 593, "\u012019": 594, "wer": 595, "ack": 596, "\u0120off": 597, "\u0120ihre": 598, "\u0120fe": 599, "\u0120str": 600, "\u0120its": 601, "ament": 602, "\u0120fr": 603, "\u0120kann": 604, "\u0120ind": 605, "chn": 606, "utz": 607, "ile": 608, "to": 609, "ember": 610, "\u0120dieser": 611, "ild": 612, "\u0120these": 613, "ble": 614, "\u0120dar": 615, "\u0120em": 616, "zu": 617, "\u0120how": 618, "ute": 619, "ks": 620, "\u0120hier": 621, "ner": 622, "ke": 623, "\u0120einer": 624, "ms": 625, "land": 626, "\u0120but": 627, "ian": 628, "\u0120zum": 629, "\u0120tran": 630, "\u0120acc": 631, "our": 632, "cht": 633, "\u0120would": 634, "bar": 635, "pro": 636, "\u0120jed": 637, "\u0120been": 638, "mit": 639, "one": 640, "\u01205": 641, "\u0120kein": 642, "act": 643, "\u00c3\u00bcck": 644, "\u0120mehr": 645, "\u0120inst": 646, "\u0120bet": 647, "\u0120ger": 648, "\u0120what": 649, "ood": 650, "king": 651, "ahl": 652, "ied": 653, "ame": 654, "\u012020": 655, "ime": 656, "ear": 657, "\u0120must": 658, "\u0120should": 659, "\u0120program": 660, "\u0120up": 661, "la": 662, "\u0120gem": 663, "geb": 664, "\u0120serv": 665, "\u0120pos": 666, "\u0120need": 667, "reat": 668, "\u0120zus": 669, "\u0120one": 670, "ike": 671, "\u0120br": 672, "\u0120very": 673, "glich": 674, "\u0120supp": 675, "fol": 676, "ace": 677, "\u0120proble": 678, ").": 679, "pos": 680, "\u0120vo": 681, "ings": 682, "\u0120pers": 683, "\u0120union": 684, "\u0120nur": 685, "\u0120parl": 686, "iew": 687, "\u0120sol": 688, "\u0120gu": 689, "ierung": 690, "\u0120wo": 691, "ho": 692, "\u0120soll": 693, "\u0120dire": 694, "ution": 695, "\u0120verb": 696, "ds": 697, "nah": 698, "ally": 699, "reich": 700, "lic": 701, "fr": 702, "\u0120about": 703, "\u0120noch": 704, "\u0120go": 705, "\u0120syste": 706, "ong": 707, "teil": 708, "\u0120best": 709, "\u0120m\u00c3\u00bcs": 710, "\u0120cons": 711, "ktion": 712, "\u00c3\u00a4nd": 713, "ibt": 714, "\u0120wurde": 715, "com": 716, "av": 717, "\u0120inv": 718, "ities": 719, "ely": 720, "\u0120tr": 721, "\u0120they": 722, "cts": 723, "gan": 724, "\u0120m\u00c3\u00bcssen": 725, "\u0120av": 726, "\u0120fl": 727, "tschaft": 728, "\u0120mein": 729, "\u00c3\u00a4sident": 730, "\u0120like": 731, "\u0120aber": 732, "\u0120arbeit": 733, "\u0120la": 734, "wick": 735, "fahr": 736, "ors": 737, "\u0120zw": 738, "wo": 739, "\u0120fir": 740, "igkeit": 741, "\u0120sit": 742, "\u0120out": 743, "min": 744, "\u0120pe": 745, "\u0120hand": 746, "chte": 747, "\u0120unser": 748, "\u0120kl": 749, "igt": 750, "ments": 751, "\u0120aut": 752, "\u0120member": 753, "\u0120hin": 754, "ph": 755, "schl": 756, "\u0120their": 757, "\u0120which": 758, "\u0120mon": 759, "\u0120einem": 760, "\u0120ev": 761, "\u0120sehr": 762, "ov": 763, "\u0120polit": 764, "ents": 765, "glie": 766, "\u0120europ\u00c3\u00a4ischen": 767, "lin": 768, "ple": 769, "kte": 770, "pf": 771, "ater": 772, "\u0120ob": 773, "\u0120jahr": 774, "\u0120if": 775, "\u0120fol": 776, "\u00c3\u00bctz": 777, "cre": 778, "velop": 779, "hn": 780, "ative": 781, "ures": 782, "\u0120my": 783, "it\u00c3\u00a4t": 784, "dern": 785, "arbeit": 786, "ose": 787, "sta": 788, "ible": 789, "ffe": 790, "\u0120ph": 791, "\u0120develop": 792, "\u0120u": 793, "assen": 794, "man": 795, "\u0120ben": 796, "\u0120vers": 797, "\u0120wenn": 798, "ays": 799, "\u0120gegen": 800, "alt": 801, "....": 802, "\u0120viel": 803, "\u0120only": 804, "fore": 805, "\u0120now": 806, "kl": 807, "\u0120gew": 808, "\u0120bis": 809, "olog": 810, "\u00c3\u00a4hr": 811, "erg": 812, "\u0120mark": 813, "f\u00c3\u00bchr": 814, "ons": 815, "\u0120gesch": 816, "\u0120wel": 817, "tell": 818, "\u00c3\u00a4l": 819, "\u0120men": 820, "\u0120add": 821, "cil": 822, "xt": 823, "entr": 824, "\u0120prov": 825, "ammen": 826, "own": 827, "ale": 828, "co": 829, "\u0120techn": 830, "ry": 831, "\u0120ko": 832, "\u0120year": 833, "\u0120international": 834, "cess": 835, "\u0120bo": 836, "tern": 837, "\u0120room": 838, "ctive": 839, "ugh": 840, "\u0120other": 841, "als": 842, "\u0120any": 843, "\u0120president": 844, "legen": 845, "\u0120entwick": 846, "\u0120neu": 847, "\u0120...": 848, "\u0120report": 849, "\u0120ins": 850, "etzt": 851, "\u0120see": 852, "nehmen": 853, "mo": 854, "\u0120lie": 855, "\u0120ele": 856, "\u0120just": 857, "ced": 858, "\u00c3\u0141en": 859, "auf": 860, "\u01206": 861, "\u0120rat": 862, "\u0120diesem": 863, "\u0120import": 864, "\u0120ange": 865, "ces": 866, "\u0120seit": 867, "air": 868, "sche": 869, "\u0120dieses": 870, "ange": 871, "\u0120gibt": 872, "halten": 873, "\u0120mitglie": 874, "ld": 875, "lung": 876, "atz": 877, "\u0120council": 878, "\u0120gemein": 879, "cy": 880, "\u0120bl": 881, "\u0120unsere": 882, "\u00c3\u00b6ff": 883, "\u0120zusammen": 884, "\u0120nat": 885, "\u0120besch": 886, "ient": 887, "\u0120land": 888, "\u0120countr": 889, "int": 890, "ility": 891, "\u0120here": 892, "get": 893, "\u0120eing": 894, "\u0120ter": 895, "igh": 896, "\u0120sub": 897, "ices": 898, "ateg": 899, "\u0120sta": 900, "\u0120support": 901, "10": 902, "\u0120time": 903, "ken": 904, "\u0120pr\u00c3\u00a4sident": 905, "\u0120stand": 906, "\u0120work": 907, "\u0120ass": 908, "\u0120hel": 909, "\u0120region": 910, "\u0120stat": 911, "wend": 912, "ma": 913, "ual": 914, "schen": 915, "ans": 916, "ious": 917, "ri": 918, "\u0120get": 919, "tre": 920, "\u0120proje": 921, "\u0120when": 922, "\u0120op": 923, "\u0120first": 924, "\u0120use": 925, "leich": 926, "\u0120find": 927, "\u0120some": 928, "iger": 929, "\u0120et": 930, "\u0120dec": 931, "ific": 932, "\u0120ple": 933, "\u0120polic": 934, "itte": 935, "\u0120avail": 936, "oy": 937, "\u0120wicht": 938, "\u0120webs": 939, "\u01207": 940, "wor": 941, "onder": 942, "\u0120zeit": 943, "\u0120unterst": 944, "fer": 945, "ider": 946, "\u0120over": 947, "\u01200": 948, "\u0120rest": 949, "fl": 950, "ree": 951, "\u0120requ": 952, "\u0120system": 953, "\u0120ihnen": 954, "\u0120af": 955, "000": 956, "conom": 957, "\u0120person": 958, "wir": 959, "\u00c3\u0141er": 960, "\u0120art": 961, "\u0120ever": 962, "ull": 963, "\u0120med": 964, "\u0120rec": 965, "\u0120jo": 966, "mar": 967, "\u01209": 968, "\u0120kn": 969, "\u0120zwe": 970, "\u0120europ\u00c3\u00a4ische": 971, "\u0120were": 972, "zen": 973, "llow": 974, "vor": 975, "\u0120right": 976, "\u0120propos": 977, "\u0120keine": 978, "\u0120available": 979, "\u0120pub": 980, "\u0120bas": 981, "ular": 982, "ett": 983, "\u0120bar": 984, "use": 985, "\u0120econom": 986, "\u0120diff": 987, "led": 988, "\u0120act": 989, "istr": 990, "\u0120geb": 991, "unden": 992, "abe": 993, "\u0120mach": 994, "ism": 995, "\u0120lin": 996, "ffen": 997, "iden": 998, "kommen": 999, "\u0120loc": 1000, "ever": 1001, "ats": 1002, "\u0120boo": 1003, "halt": 1004, "\u0120under": 1005, "\u0120bed": 1006, "\u0120states": 1007, "iele": 1008, "zeit": 1009, "\u0120form": 1010, "\u0120qual": 1011, "\u0120market": 1012, "\u0120sc": 1013, "\u0120energ": 1014, "dit": 1015, "oc": 1016, "\u0120mitglied": 1017, "\u01208": 1018, "\u0120weiter": 1019, "\u0120ap": 1020, "ok": 1021, "\u0120good": 1022, "els": 1023, "\u0120unterst\u00c3\u00bctz": 1024, "dem": 1025, "\u0120akt": 1026, "\u0120,": 1027, "\u0120cour": 1028, "\u0120verf\u00c3\u00bc": 1029, "\u0120follow": 1030, "\u0120kom": 1031, "ory": 1032, "los": 1033, "\u012010": 1034, "\u0120gener": 1035, "rauch": 1036, "\u0120incl": 1037, "\u0120take": 1038, "ages": 1039, "igung": 1040, "gend": 1041, "\u0120car": 1042, "eln": 1043, "ior": 1044, "\u0120muss": 1045, "\u0120invest": 1046, "fin": 1047, "day": 1048, "\u0120fun": 1049, "iven": 1050, "\u00c3\u00a4u": 1051, "\u0120two": 1052, "\u0120bus": 1053, "\u0120informationen": 1054, "\u0120however": 1055, "\u0120quest": 1056, "\u0120problem": 1057, "\u0120finanz": 1058, "\u0120ser": 1059, "\u0120national": 1060, "wn": 1061, "\u0120peop": 1062, "\u0120rel": 1063, "\u0120again": 1064, "hand": 1065, "immer": 1066, "\u0120rev": 1067, "\u0120finden": 1068, "\u0120sel": 1069, "\u0120transp": 1070, "\u0120cle": 1071, "\u0120ant": 1072, "ster": 1073, "\u0120deb": 1074, "\u0120bericht": 1075, "\u0120wirtschaft": 1076, "\u0120commun": 1077, "wert": 1078, "\u0120dam": 1079, "\u0120199": 1080, "\u0120sicher": 1081, "\u0120may": 1082, "\u0120europa": 1083, "\u0120bereit": 1084, "ption": 1085, "\u0120gel": 1086, "\u0120well": 1087, "ware": 1088, "ieden": 1089, "\u0120every": 1090, "enden": 1091, "\u0120most": 1092, "nahmen": 1093, "\u0120fur": 1094, "ont": 1095, "\u0120fran": 1096, "\u0120richt": 1097, "\u0120trans": 1098, "staaten": 1099, "\u0120policy": 1100, "och": 1101, "\u0120ur": 1102, "unt": 1103, "isten": 1104, "\u0120important": 1105, "ium": 1106, "lle": 1107, "ards": 1108, "\u0120ac": 1109, "\u0120leg": 1110, "\u0120bu": 1111, "\u0120erw": 1112, "\u0120einz": 1113, "\u0120vis": 1114, "\u00c3\u00a4ch": 1115, "\u0120people": 1116, "\u0120bere": 1117, "ument": 1118, "\u0120many": 1119, "\u0120after": 1120, "rie": 1121, "sicht": 1122, "\u0120ke": 1123, "stell": 1124, "\u0120bre": 1125, "\u0120frau": 1126, "\u0120cre": 1127, "\u0120m\u00c3\u00b6glich": 1128, "fort": 1129, "line": 1130, "\u0120f\u00c3\u00bc": 1131, "ention": 1132, "\u0120bie": 1133, "\u0120grund": 1134, "\u0120mod": 1135, "ives": 1136, "\u0120dr": 1137, "ys": 1138, "\u0120char": 1139, "\u0120into": 1140, "olit": 1141, "\u0120m\u00c3\u00b6chte": 1142, "\u0120therefore": 1143, "ters": 1144, "\u0120internet": 1145, "\u0120gl": 1146, "iet": 1147, "\u0120who": 1148, "cted": 1149, "\u012012": 1150, "\u0120diesen": 1151, "\u0120organ": 1152, "\u0120please": 1153, "\u0120col": 1154, "\u0120high": 1155, "\u0120eng": 1156, "ural": 1157, "issen": 1158, "\u0120cur": 1159, "h\u00c3\u00b6r": 1160, "\u0120parlament": 1161, "chten": 1162, "net": 1163, "nis": 1164, "\u00c3\u00a4lt": 1165, "\u0120inn": 1166, "\u0120sim": 1167, "halb": 1168, "\u0120schl": 1169, "rei": 1170, "\u0120make": 1171, "\u0120vom": 1172, "iament": 1173, "\u0120conc": 1174, "come": 1175, "\u0120website": 1176, "\u0120indust": 1177, "\u0120folgen": 1178, "\u0120mich": 1179, "\u0120conf": 1180, "\u00c3\u00b6ffent": 1181, "essen": 1182, "\u00c3\u00a4ft": 1183, "\u0120welt": 1184, "\u0120neue": 1185, "\u0120such": 1186, "unkt": 1187, "ell": 1188, "\u0120partic": 1189, "\u0120appro": 1190, "ss": 1191, "\u0120weitere": 1192, "\u0120deut": 1193, "richt": 1194, "urs": 1195, "les": 1196, "trag": 1197, "\u0120situ": 1198, "\u0120development": 1199, "fra": 1200, "\u0120beg": 1201, "\u0120dat": 1202, "ows": 1203, "\u0120wieder": 1204, "bal": 1205, "\u0120than": 1206, "\u0120world": 1207, "fach": 1208, "\u0120view": 1209, "\u0120teil": 1210, "\u0120iss": 1211, "inn": 1212, "\u0120air": 1213, "lie\u00c3\u0141": 1214, "\u0120does": 1215, "\u0120val": 1216, "\u0120lu": 1217, "\u0120last": 1218, "\u0120del": 1219, "ina": 1220, "rat": 1221, "\u0120end": 1222, "zial": 1223, "erung": 1224, "\u0120stay": 1225, "sel": 1226, "\u0120schw": 1227, "\u0120parliament": 1228, "forder": 1229, "elle": 1230, "enz": 1231, "fahren": 1232, "\u0120zwischen": 1233, "\u0120bel": 1234, "\u0120pra": 1235, "\u0120beste": 1236, "\u0120process": 1237, "ital": 1238, "ict": 1239, "\u0120priv": 1240, "\u0120countries": 1241, "\u0120mitgliedstaaten": 1242, "\u0120far": 1243, "\u0120poss": 1244, "\u0120mill": 1245, "\u0120versch": 1246, "\u0120aff": 1247, "\u0120them": 1248, "\u0120service": 1249, "\u0120resp": 1250, "alls": 1251, "mal": 1252, "ix": 1253, "lish": 1254, "\u0120wurden": 1255, "nung": 1256, "org": 1257, "ous": 1258, "zie": 1259, "\u0120kont": 1260, "\u01202009": 1261, "\u0120ma\u00c3\u0141": 1262, "\u0120komm": 1263, "\u0120strateg": 1264, "akt": 1265, "\u0120unternehmen": 1266, "oth": 1267, "ified": 1268, "\u0120public": 1269, "\u0120eines": 1270, "\u0120great": 1271, "\u0120star": 1272, "\u0120num": 1273, "\u0120real": 1274, "\u0120sk": 1275, "bst": 1276, "\u0120agre": 1277, "ser": 1278, "heiten": 1279, "\u0120free": 1280, "zeich": 1281, "\u0120group": 1282, "\u0120main": 1283, "ischer": 1284, "\u0120down": 1285, "\u0120bereich": 1286, "\u0120prof": 1287, "\u0120\u00c3\u00a4nder": 1288, "\u0120oper": 1289, "\u0120met": 1290, "\u0120heute": 1291, "oper": 1292, "\u0120ze": 1293, "ath": 1294, "ress": 1295, "ko": 1296, "\u0120further": 1297, "pres": 1298, "\u0120cust": 1299, "wort": 1300, "isse": 1301, "u\u00c3\u0141": 1302, "\u0120fest": 1303, "\u0120bitte": 1304, "ues": 1305, "ating": 1306, "bo": 1307, "ha": 1308, "\u0120immer": 1309, "\u0120gut": 1310, "\u0120play": 1311, "\u0120curr": 1312, "str": 1313, "\u0120guest": 1314, "\u0120sm": 1315, "\u0120place": 1316, "\u0120cor": 1317, "\u0120custom": 1318, "\u0120fam": 1319, "\u0120commissioner": 1320, "gel": 1321, "it\u00c3\u00a4": 1322, "\u0120fund": 1323, "\u0120cent": 1324, "mittel": 1325, "\u0120ide": 1326, "\u00c3\u00b6s": 1327, "\u0120menschen": 1328, "\u012015": 1329, "ved": 1330, "\u0120gro\u00c3\u0141": 1331, "\u0120jedoch": 1332, "setz": 1333, "\u0120compan": 1334, "\u0120made": 1335, "ax": 1336, "airs": 1337, "\u0120access": 1338, "\u0120lang": 1339, "tens": 1340, "\u0120want": 1341, "par": 1342, "\u0120zwei": 1343, "icult": 1344, "\u0120state": 1345, "\u0120economic": 1346, "\u0120prote": 1347, "ween": 1348, "kl\u00c3\u00a4r": 1349, "\u0120press": 1350, "\u0120du": 1351, "20": 1352, "\u0120stell": 1353, "\u0120between": 1354, "kehr": 1355, "chts": 1356, "\u00c3\u00a4ge": 1357, "\u0120hum": 1358, "\u0120programm": 1359, "\u0120el": 1360, "\u0120rem": 1361, "\u0120years": 1362, "ink": 1363, "geben": 1364, "\u0120env": 1365, "gest": 1366, "stand": 1367, "\u0120eben": 1368, "olitik": 1369, "ision": 1370, "gesch": 1371, "aur": 1372, "urn": 1373, "\u0120ihrer": 1374, "\u0120tak": 1375, "\u0120ganz": 1376, "\u0120verf\u00c3\u00bcg": 1377, "\u0120know": 1378, "\u0120open": 1379, "\u0120entwicklung": 1380, "gar": 1381, "\u0120port": 1382, "iness": 1383, "ler": 1384, "tegr": 1385, "\u0120bro": 1386, "\u0120comple": 1387, "isation": 1388, "\u0120est": 1389, "\u0120jetzt": 1390, "ivers": 1391, "leg": 1392, "\u0120habe": 1393, "iron": 1394, "\u0120thro": 1395, "ful": 1396, "\u0120erfol": 1397, "\u0120gleich": 1398, "itt": 1399, "amen": 1400, "ady": 1401, "az": 1402, "\u0120da\u00c3\u0141": 1403, "\u0120concern": 1404, "ently": 1405, "\u0120dann": 1406, "\u0120full": 1407, "vern": 1408, "\u0120lar": 1409, "\u0120det": 1410, "ize": 1411, "\u0120kle": 1412, "\u0120said": 1413, "\u0120fil": 1414, "\u0120services": 1415, "\u0120bede": 1416, "\u0120glo": 1417, "\u0120sign": 1418, "\u00c3\u00a4hl": 1419, "\u0120gra": 1420, "\u0120effe": 1421, "\u0120finan": 1422, "\u0120programme": 1423, "\u0120leben": 1424, "\u0120sw": 1425, "\u0120bin": 1426, "\u0120gemeins": 1427, "\u0120nun": 1428, "\u0120contin": 1429, "\u0120selbst": 1430, "\u0120sec": 1431, "\u0120etw": 1432, "\u0120his": 1433, "\u0120integr": 1434, "\u0120|": 1435, "\u0120zahl": 1436, "\u0120online": 1437, "\u0120affairs": 1438, "ommissar": 1439, "\u0120gar": 1440, "\u0120eff": 1441, "\u0120manag": 1442, "ierte": 1443, "gem": 1444, "ics": 1445, "\u0120environ": 1446, "\u0120design": 1447, "\u0120situation": 1448, "kre": 1449, "\u0120technolog": 1450, "\u0120mat": 1451, "ower": 1452, "\u0120wichtig": 1453, "\u0120hol": 1454, "\u0120sow": 1455, "ps": 1456, "hol": 1457, "\u0120version": 1458, "\u0120betr": 1459, "rag": 1460, "immt": 1461, "br": 1462, "\u0120soft": 1463, "\u0120x": 1464, "eng": 1465, "\u0120prior": 1466, "bes": 1467, "isen": 1468, "iti": 1469, "\u0120vorschl": 1470, "weise": 1471, "\u0120area": 1472, "\u0120spiel": 1473, "\u0120ref": 1474, "\u0120cr": 1475, "\u0120einfach": 1476, "\u0120mus": 1477, "ploy": 1478, "\u0120environment": 1479, "hne": 1480, "f\u00c3\u00bcr": 1481, "\u0120ihren": 1482, "\u0120meas": 1483, "rechen": 1484, "\u0120review": 1485, "\u0120business": 1486, "\u00c3\u00a4m": 1487, "aurant": 1488, "\u0120nor": 1489, "\u0120+": 1490, "\u0120f\u00c3\u00bchr": 1491, "ited": 1492, "\u0120way": 1493, "\u0120bild": 1494, "\u0120includ": 1495, "\u0120sollte": 1496, "nahme": 1497, "\u0120famil": 1498, "\u0120human": 1499, "\u0120haus": 1500, "\u0120sollten": 1501, "\u0120je": 1502, "uer": 1503, "\u0120fore": 1504, "vers": 1505, "\u0120through": 1506, "\u0120net": 1507, "\u0120special": 1508, "aut": 1509, "\u0120g\u00c3\u00a4": 1510, "\u0120verein": 1511, "\u0120german": 1512, "att": 1513, "30": 1514, "\u0120equ": 1515, "\u0120direct": 1516, "\u0120dah": 1517, "acht": 1518, "\u0120clear": 1519, "dition": 1520, "hin": 1521, "\u0120stud": 1522, "\u0120loo": 1523, "\u0120gr\u00c3\u00b6": 1524, "\u0120dazu": 1525, "\u0120unserer": 1526, "\u0120verw": 1527, "\u0120page": 1528, "ession": 1529, "\u0120/": 1530, "\u0120dank": 1531, "\u0120sin": 1532, "\u0120number": 1533, "\u0120bek": 1534, "\u0120agreement": 1535, "\u0120erkl\u00c3\u00a4r": 1536, "\u0120dep": 1537, "\u0120differ": 1538, "\u0120cost": 1539, "\u0120au\u00c3\u0141er": 1540, "\u0120che": 1541, "\u0120booking": 1542, "\u0120compet": 1543, "minister": 1544, "\u0120entsche": 1545, "\u0120then": 1546, "\u0120var": 1547, "\u0120cann": 1548, "\u0120offer": 1549, "\u0120even": 1550, "\u0120instit": 1551, "welt": 1552, "),": 1553, "\u0120frage": 1554, "\u012011": 1555, "\u00c3\u00bch": 1556, "ruct": 1557, "ject": 1558, "\u0120zimmer": 1559, "round": 1560, "\u0120question": 1561, "\u0120today": 1562, "\u0120social": 1563, "\u0120einige": 1564, "\u0120million": 1565, "\u0120rep": 1566, "\u0120innov": 1567, "\u0120son": 1568, "bl": 1569, "\u00c3\u00a4h": 1570, "\u0120rooms": 1571, "\u0120against": 1572, "\u0120restaurant": 1573, "\u0120thank": 1574, "itz": 1575, "\u0120set": 1576, "\u0120aller": 1577, "\u0120gest": 1578, "\u0120why": 1579, "st\u00c3\u00a4nd": 1580, "\u0120kosten": 1581, "\u0120voll": 1582, "\u0120\u00c3\u00b6ffent": 1583, "\u0120sur": 1584, "\u0120%": 1585, "yp": 1586, "\u0120anderen": 1587, "lagen": 1588, "........": 1589, "raft": 1590, "iver": 1591, "ond": 1592, "\u0120daten": 1593, "\u0120damit": 1594, "\u0120viele": 1595, "\u0120bereits": 1596, "\u0120require": 1597, "\u0120incre": 1598, "\u0120sehen": 1599, "rol": 1600, "32": 1601, "\u0120daher": 1602, "hip": 1603, "\u0120hal": 1604, "operation": 1605, "\u0120agr": 1606, "\u0120ital": 1607, "\u0120ausw": 1608, "\u0120ausge": 1609, "\u0120bank": 1610, "\u0120201": 1611, "ron": 1612, "\u0120products": 1613, "\u0120regul": 1614, "\u0120possible": 1615, "licher": 1616, "amp": 1617, "so": 1618, "wirtschaft": 1619, "\u0120cas": 1620, "\u0120sy": 1621, "ator": 1622, "tem": 1623, "gang": 1624, "\u0120eas": 1625, "\u0120uhr": 1626, "aben": 1627, "\u0120besonder": 1628, "ritt": 1629, "\u0120disc": 1630, "\u0120ma\u00c3\u0141nahmen": 1631, "\u0120govern": 1632, "\u0120nutz": 1633, "\u0120exper": 1634, "\u0120used": 1635, "ides": 1636, "\u0120seine": 1637, "satz": 1638, "\u0120software": 1639, "immung": 1640, "\u0120g\u00c3\u00a4ste": 1641, "\u0120much": 1642, "\u0120eur": 1643, "\u0120cannot": 1644, "--": 1645, "ppen": 1646, "\u0120som": 1647, "\u0120mob": 1648, "h\u00c3\u00a4lt": 1649, "\u0120different": 1650, "\u0120general": 1651, "\u0120own": 1652, "hing": 1653, "\u0120begr": 1654, "\u0120following": 1655, "its": 1656, "\u0120bal": 1657, "ften": 1658, "\u0120mor": 1659, "\u0120still": 1660, "\u0120back": 1661, "\u0120data": 1662, "\u0120andere": 1663, "\u0120vote": 1664, "\u0120adv": 1665, "pect": 1666, "schlie\u00c3\u0141": 1667, "\u0120sozial": 1668, "\u012018": 1669, "\u0120wissen": 1670, "\u0120entsp": 1671, "vo": 1672, "ilfe": 1673, "ktur": 1674, "\u0120rechts": 1675, "\u0120wen": 1676, "ised": 1677, "ienst": 1678, "cept": 1679, "\u0120too": 1680, "ingen": 1681, "\u0120text": 1682, "entral": 1683, "\u0120abst": 1684, "\u0120sl": 1685, "\u0120eigen": 1686, "\u0120order": 1687, "\u0120pass": 1688, "\u0120both": 1689, "\u0120could": 1690, "\u0120neuen": 1691, "adt": 1692, "\u0120global": 1693, "\u0120belie": 1694, "eite": 1695, "ilt": 1696, "\u0120ru": 1697, "unter": 1698, "\u0120zust": 1699, "\u0120secon": 1700, "ines": 1701, "\u0120repres": 1702, "\u0120tre": 1703, "\u0120l\u00c3\u00a4nder": 1704, "\u0120m\u00c3\u00b6chten": 1705, "\u0120mittel": 1706, "\u0120angelegen": 1707, "\u0120impro": 1708, "\u0120adop": 1709, "200": 1710, "\u0120w\u00c3\u00bcr": 1711, "kun": 1712, "\u0120di": 1713, "work": 1714, "\u0120install": 1715, "\u0120particular": 1716, "ade": 1717, "\u0120had": 1718, "\u0120let": 1719, "\u0120imple": 1720, "\u0120amen": 1721, "achten": 1722, "zeug": 1723, "\u0120respons": 1724, "\u0120rece": 1725, "\u0120tele": 1726, "nisse": 1727, "\u0120day": 1728, "\u0120verl": 1729, "\u0120case": 1730, "\u0120exam": 1731, "\u0120cert": 1732, "\u0120ohne": 1733, "ause": 1734, "\u0120level": 1735, "\u0120bietet": 1736, "ward": 1737, "\u0120found": 1738, "\u0120prin": 1739, "\u0120pat": 1740, "\u0120long": 1741, "\u0120sicherheit": 1742, "\u0120opt": 1743, "\u0120bud": 1744, "\u0120fut": 1745, "\u00c3\u00a4ng": 1746, "\u0120gef": 1747, "tellt": 1748, "isp": 1749, "\u0120:": 1750, "\u0120fall": 1751, "\u0120transport": 1752, "ichte": 1753, "ivid": 1754, "\u0120opp": 1755, "\u0120fragen": 1756, "hm": 1757, "\u0120wind": 1758, "utions": 1759, "\u0120fort": 1760, "\u0120cap": 1761, "\u0120umwelt": 1762, "\u0120foreign": 1763, "\u0120red": 1764, "\u0120wes": 1765, "\u0120ziel": 1766, "\u0120where": 1767, "clus": 1768, "\u01202010": 1769, "ruck": 1770, "que": 1771, "\u0120point": 1772, "\u0120kur": 1773, "\u0120h\u00c3\u00b6": 1774, "\u0120waren": 1775, "\u0120einge": 1776, "\u0120statt": 1777, "alth": 1778, "\u00c3\u00a4re": 1779, "ander": 1780, "\u0120verschieden": 1781, "ins": 1782, "utes": 1783, "\u0120each": 1784, "ready": 1785, "bewer": 1786, "\u0120autom": 1787, "ationen": 1788, "\u0120spec": 1789, "\u00e2\u0124": 1790, "\u00e2\u0124\u00ac": 1791, "\u0120already": 1792, "\u0120second": 1793, "\u0120reform": 1794, "\u0120start": 1795, "\u0120tour": 1796, "\u0120contact": 1797, "\u0120geht": 1798, "\u0120&": 1799, "\u0120same": 1800, "ability": 1801, "\u0120help": 1802, "m\u00c3\u00b6": 1803, "ains": 1804, "\u0120auth": 1805, "\u0120energy": 1806, "\u0120tun": 1807, "ende": 1808, "35": 1809, "\u0120three": 1810, "\u0120initi": 1811, "\u0120mot": 1812, "od": 1813, "genommen": 1814, "\u0120beit": 1815, "arte": 1816, "\u0120web": 1817, "\u0120att": 1818, "\u01202008": 1819, "\u0120nie": 1820, "\u0120without": 1821, "\u0120ir": 1822, "ience": 1823, "\u0120meet": 1824, "\u0120liegt": 1825, "\u0120fac": 1826, "\u01202007": 1827, "\u0120amend": 1828, "\u0120zusammenarbeit": 1829, "\u0120stehen": 1830, "way": 1831, "\u0120const": 1832, "\u0120bef": 1833, "\u0120lassen": 1834, "\u0120being": 1835, "\u0120break": 1836, "ven": 1837, "\u0120apart": 1838, "\u0120financial": 1839, "rop": 1840, "\u00c3\u00a4rt": 1841, "ep": 1842, "\u00c3\u00a4tz": 1843, "\u0120verbess": 1844, "abei": 1845, "ically": 1846, "\u0120exp": 1847, "ately": 1848, "\u0120offers": 1849, "\u0120dabei": 1850, "lage": 1851, "ettbewer": 1852, "\u0120vol": 1853, "\u0120umf": 1854, "zahl": 1855, "mb": 1856, "bere": 1857, "ife": 1858, "lichkeit": 1859, "\u0120meine": 1860, "\u0120mak": 1861, "\u0120action": 1862, "\u0120click": 1863, "\u0120letz": 1864, "\u00c3\u00a4\u00c3\u0141": 1865, "\u0120secur": 1866, "\u0120hos": 1867, "ves": 1868, "\u0120\u00c3\u00bcbern": 1869, "lex": 1870, "ibility": 1871, "icken": 1872, "\u0120doch": 1873, "\u0120li": 1874, "kunft": 1875, "load": 1876, "\u0120ris": 1877, "\u0120aid": 1878, "urg": 1879, "\u0120hotels": 1880, "\u0120activ": 1881, "press": 1882, "\u0120regional": 1883, "\u0120pay": 1884, "\u0120tag": 1885, "\u0120cal": 1886, "\u0120mal": 1887, "\u0120quality": 1888, "ount": 1889, "\u0120applic": 1890, "\u0120plan": 1891, "\u0120small": 1892, "\u0120rates": 1893, "\u012014": 1894, "linie": 1895, "\u0120drei": 1896, "\u0120rom": 1897, "licht": 1898, "ierten": 1899, "\u0120treat": 1900, "\u0120employ": 1901, "ules": 1902, "\u0120recht": 1903, "\u0120community": 1904, "spro": 1905, "\u0120fact": 1906, "\u0120exce": 1907, "\u0120measures": 1908, "\u0120course": 1909, "leist": 1910, "\u0120mir": 1911, "\u00c3\u00b6rder": 1912, "kon": 1913, "ren": 1914, "i\u00c3\u0141": 1915, "\u0120pack": 1916, "\u0120ca": 1917, "\u0120those": 1918, "\u0120russ": 1919, "\u0120future": 1920, "\u012030": 1921, "\u0120erste": 1922, "\u0120modern": 1923, "\u0120gesam": 1924, "\u0120next": 1925, "\u0120har": 1926, "ica": 1927, "uf": 1928, "\u0120hoch": 1929, "\u0120before": 1930, "\u0120mil": 1931, "\u0120nat\u00c3\u00bcr": 1932, "ased": 1933, "kten": 1934, "reib": 1935, "\u0120einzel": 1936, "\u0120redu": 1937, "mail": 1938, "\u0120consider": 1939, "ock": 1940, "urch": 1941, "isl": 1942, "\u0120inde": 1943, "\u0120political": 1944, "ca": 1945, "\u0120addition": 1946, "\u0120pal": 1947, "fte": 1948, "\u0120b\u00c3\u00bcr": 1949, "\u0120individ": 1950, "\u0120city": 1951, "\u0120k\u00c3\u00b6nn": 1952, "lau": 1953, "\u0120[": 1954, "bed": 1955, "ude": 1956, "innen": 1957, "\u0120wettbewer": 1958, "\u0120grow": 1959, "\u0120kr": 1960, "\u0120machen": 1961, "ence": 1962, "\u0120deshalb": 1963, "ctor": 1964, "\u0120kin": 1965, "\u0120id": 1966, "ness": 1967, "\u012016": 1968, "\u0120reas": 1969, "ante": 1970, "\u0120angelegenheiten": 1971, "\u0120beim": 1972, "\u0120security": 1973, "\u0120partner": 1974, "ders": 1975, "ctions": 1976, "\u0120ann": 1977, "\u0120hist": 1978, "ists": 1979, "\u0120erst": 1980, "\u0120wirk": 1981, "eld": 1982, "\u0120schon": 1983, "annt": 1984, "ting": 1985, "\u0120allen": 1986, "\u0120change": 1987, "\u0120rele": 1988, "\u0120seite": 1989, "pre": 1990, "\u0120home": 1991, "ways": 1992, "schr": 1993, "\u0120train": 1994, "\u012025": 1995, "\u0120child": 1996, "\u00c3\u00bcnd": 1997, "\u0120jahren": 1998, "imin": 1999, "\u0120reviews": 2000, "\u0120trade": 2001, "\u0120cooperation": 2002, "\u0120zur\u00c3\u00bcck": 2003, "ruktur": 2004, "gress": 2005, "falls": 2006, "\u0120steht": 2007, "\u0120ret": 2008, "bewert": 2009, "aterial": 2010, "\u0120etwas": 2011, "\u0120since": 2012, "\u0120think": 2013, "\u0120\u00c3\u00b6": 2014, "\u0120beisp": 2015, "reichen": 2016, "syste": 2017, "\u0120kommissar": 2018, "\u0120control": 2019, "\u0120agricult": 2020, "\u0120bedeut": 2021, "isierung": 2022, "\u0120gemeinschaft": 2023, "\u0120funktion": 2024, "\u0120ans": 2025, "\u0120sele": 2026, "\u0120unseren": 2027, "\u0120issue": 2028, "\u0120download": 2029, "\u0120erhalten": 2030, "\u0120proposal": 2031, "ordnung": 2032, "punkt": 2033, "\u0120within": 2034, "\u0120brauch": 2035, "ismus": 2036, "\u0120common": 2037, "ving": 2038, "\u0120ach": 2039, "\u0120stra": 2040, "\u0120erfolg": 2041, "hof": 2042, "une": 2043, "fast": 2044, "\u0120visit": 2045, "oto": 2046, "\u0120rights": 2047, "\u0120ble": 2048, "abil": 2049, "\u0120\u00e2\u0124\u00ac": 2050, "inen": 2051, "\u0120daf\u00c3\u00bcr": 2052, "\u0120amer": 2053, "\u0120schne": 2054, "\u0120benutz": 2055, "\u0120mult": 2056, "\u0120log": 2057, "fern": 2058, "\u0120contr": 2059, "\u0120position": 2060, "\u0120neg": 2061, "\u0120int": 2062, "han": 2063, "\u012013": 2064, "cret": 2065, "\u0120management": 2066, "\u0120rahmen": 2067, "sk": 2068, "\u0120health": 2069, "\u0120personal": 2070, "\u0120directive": 2071, "ccess": 2072, "ec": 2073, "bau": 2074, "\u012022": 2075, "\u0120key": 2076, "\u0120budget": 2077, "oren": 2078, "\u0120say": 2079, "erence": 2080, "spra": 2081, "\u012017": 2082, "iste": 2083, "uth": 2084, "\u0120interest": 2085, "cri": 2086, "\u0120verwend": 2087, "\u0120kol": 2088, "\u0120implement": 2089, "\u0120infr": 2090, "\u0120sal": 2091, "ob": 2092, "ucht": 2093, "res": 2094, "reg": 2095, "bewertungen": 2096, "\u0120author": 2097, "\u0120prev": 2098, "\u0120protection": 2099, "\u0120put": 2100, "\u0120during": 2101, "ichten": 2102, "ahn": 2103, "ets": 2104, "ahre": 2105, "\u0120ren": 2106, "\u0120detail": 2107, "iften": 2108, "\u0120posit": 2109, "\u0120bec": 2110, "\u0120gr\u00c3\u00b6\u00c3\u0141": 2111, "\u0120maj": 2112, "\u0120g\u00c3\u00a4stebewertungen": 2113, "ker": 2114, "\u00c3\u00b6t": 2115, "\u0120w\u00c3\u00a4hr": 2116, "\u0120legisl": 2117, "ough": 2118, "\u0120sum": 2119, "\u0120verf\u00c3\u00bcgung": 2120, "\u0120site": 2121, "\u0120vertre": 2122, "\u0120date": 2123, "\u0120deutsch": 2124, "earch": 2125, "ef": 2126, "\u0120present": 2127, "ird": 2128, "\u0120cho": 2129, "setzung": 2130, "ential": 2131, "\u0120ergeb": 2132, "\u0120proced": 2133, "\u0120food": 2134, "\u0120pa": 2135, "\u0120park": 2136, "\u0120doc": 2137, "\u0120research": 2138, "\u0120unterst\u00c3\u00bctzung": 2139, "\u0120success": 2140, "lan": 2141, "\u0120staff": 2142, "\u0120hau": 2143, "off": 2144, "\u0120sing": 2145, "med": 2146, "eu": 2147, "unde": 2148, "\u0120customers": 2149, "allen": 2150, "\u0120tax": 2151, "\u0120house": 2152, "spr": 2153, "under": 2154, "ungsant": 2155, "\u0120certain": 2156, "bereich": 2157, "f\u00c3\u00bchrt": 2158, "\u0120tel": 2159, "\u0120consum": 2160, "\u0120gre": 2161, "\u0120angeb": 2162, "\u0120span": 2163, "let": 2164, "\u0120vorschlag": 2165, "ged": 2166, "icher": 2167, "ipp": 2168, "\u0120lage": 2169, "\u0120company": 2170, "stellung": 2171, "bt": 2172, "amer": 2173, "\u0120law": 2174, "\u0120welcome": 2175, "\u0120areas": 2176, "\u012024": 2177, "\u0120dial": 2178, "\u0120bil": 2179, "arn": 2180, "iter": 2181, "\u0120non": 2182, "\u0120kommen": 2183, "\u0120test": 2184, "ums": 2185, "\u0120scha": 2186, "ibution": 2187, "\u0120mer": 2188, "\u0120rules": 2189, "\u00c3\u00a4tze": 2190, "\u0120haupt": 2191, "olution": 2192, "fre": 2193, "\u0120energie": 2194, "ierungs": 2195, "\u0120interess": 2196, "schriften": 2197, "\u0120wann": 2198, "other": 2199, "\u0120power": 2200, "\u0120members": 2201, "\u0120standard": 2202, "\u0120achie": 2203, "markt": 2204, "\u0120address": 2205, "\u0120discuss": 2206, "ided": 2207, "eder": 2208, "\u0120read": 2209, "zess": 2210, "\u0120private": 2211, "ziel": 2212, "por": 2213, "\u0120expl": 2214, "cken": 2215, "\u0120problems": 2216, "\u0120jeder": 2217, "ror": 2218, "\u0120cro": 2219, "\u0120tro": 2220, "kret": 2221, "lossen": 2222, "\u0120post": 2223, "mitted": 2224, "weit": 2225, "cing": 2226, "\u0120nat\u00c3\u00bcrlich": 2227, "\u0120fahr": 2228, "\u0120breakfast": 2229, "\u0120m\u00c3\u00b6glichkeit": 2230, "burg": 2231, "\u0120wollen": 2232, "ars": 2233, "gemein": 2234, "\u0120geben": 2235, "\u0120systems": 2236, "\u0120ms": 2237, "uchen": 2238, "\u0120sowie": 2239, "it\u00c3\u00a4ten": 2240, "amm": 2241, "esen": 2242, "\u0120major": 2243, "\u0120abs": 2244, "\u0120tar": 2245, "\u0120enter": 2246, "\u0120sport": 2247, "fon": 2248, "asch": 2249, "\u0120markt": 2250, "\u0120did": 2251, "\u0120dav": 2252, "schutz": 2253, "ants": 2254, "\u0120welche": 2255, "\u0120country": 2256, "\u0120dar\u00c3\u00bcber": 2257, "\u0120check": 2258, "\u0120aktiv": 2259, "\u0120distr": 2260, "\u0120secret": 2261, "\u0120stre": 2262, "\u0120alles": 2263, "\u0120lim": 2264, "tend": 2265, "\u0120defin": 2266, "\u0120ak": 2267, "\u0120b\u00c3\u00bcrger": 2268, "agen": 2269, "imes": 2270, "\u0120ens": 2271, "\u0120vide": 2272, "uen": 2273, "\u0120hostel": 2274, "\u0120kunden": 2275, "\u0120bess": 2276, "inge": 2277, "\u0120always": 2278, "\u0120denn": 2279, "ually": 2280, "\u0120untersch": 2281, "\u0120disk": 2282, "\u0120jahre": 2283, "\u0120needs": 2284, "\u0120somet": 2285, "\u0120san": 2286, "\u0120debate": 2287, "ordin": 2288, "\u0120mag": 2289, "iges": 2290, "\u0120findet": 2291, "\u0120news": 2292, "\u012021": 2293, "\u0120look": 2294, "ogra": 2295, "\u0120wort": 2296, "\u0120abstimmung": 2297, "\u0120au\u00c3\u0141erdem": 2298, "\u0120tot": 2299, "\u0120stellen": 2300, "\u0120entscheid": 2301, "\u0120cult": 2302, "antwort": 2303, "\u0120cit": 2304, "\u0120dienst": 2305, "ises": 2306, "\u0120l\u00c3\u00b6s": 2307, "umen": 2308, "\u0120partn": 2309, "ritte": 2310, "schaften": 2311, "\u0120reserv": 2312, "ek": 2313, "lungs": 2314, "stat": 2315, "\u0120chang": 2316, "arten": 2317, "ller": 2318, "\u0120besch\u00c3\u00a4ft": 2319, "\u0120vertrag": 2320, "\u0120ask": 2321, "\u0120produkt": 2322, "ott": 2323, "alen": 2324, "zus": 2325, "\u0120court": 2326, "\u0120lat": 2327, "zug": 2328, "ache": 2329, "legt": 2330, "\u0120communic": 2331, "\u0120current": 2332, "\u0120verg": 2333, "\u0120regel": 2334, "\u0120fr\u00c3\u00bch": 2335, "frage": 2336, "\u0120geh\u00c3\u00b6r": 2337, "gaben": 2338, "\u0120heraus": 2339, "\u0120km": 2340, "\u0120colle": 2341, "kungen": 2342, "\u0120build": 2343, "\u0120frien": 2344, "50": 2345, "\u0120gol": 2346, "\u0120top": 2347, "\u0120complete": 2348, "\u0120material": 2349, "\u0120product": 2350, "\u0120mess": 2351, "\u0120jan": 2352, "\u0120beispiel": 2353, "lungen": 2354, "\u0120dialog": 2355, "\u0120water": 2356, "\u0120dok": 2357, "\u0120committe": 2358, "ized": 2359, "\u0120komp": 2360, "ief": 2361, "\u0120come": 2362, "\u0120automat": 2363, "\u0120life": 2364, "teilung": 2365, "leit": 2366, "\u0120wal": 2367, "joy": 2368, "19": 2369, "assung": 2370, "altung": 2371, "\u0120instr": 2372, "ared": 2373, "\u0120better": 2374, "\u0120represent": 2375, "\u0120verk": 2376, "\u0120landwirtschaft": 2377, "yn": 2378, "ci": 2379, "\u0120transpar": 2380, "\u0120kinder": 2381, "\u0120list": 2382, "\u0120vielen": 2383, "\u0120enjoy": 2384, "\u0120conclus": 2385, "\u0120lab": 2386, "\u0120location": 2387, "\u0120give": 2388, "omen": 2389, "\u0120100": 2390, "\u0120ve": 2391, "\u0120arbeits": 2392, "\u012050": 2393, "\u0120klicken": 2394, "\u0120team": 2395, "\u0120another": 2396, "ober": 2397, "\u0120preis": 2398, "arch": 2399, "\u0120vi": 2400, "\u0120win": 2401, "\u0120univers": 2402, "\u0120fehl": 2403, "\u0120ihrem": 2404, "\u0120minutes": 2405, "letz": 2406, "\u0120n\u00c3\u00a4ch": 2407, "\u0120direkt": 2408, "indet": 2409, "asse": 2410, "zieh": 2411, "\u0120bestimm": 2412, "\u0120taken": 2413, "12": 2414, "agt": 2415, "\u0120anal": 2416, "\u0120zust\u00c3\u00a4nd": 2417, "politik": 2418, "\u0120adopted": 2419, "room": 2420, "ichter": 2421, "\u0120necess": 2422, "ults": 2423, "\u0120using": 2424, "\u0120arch": 2425, "\u00c3\u00a4d": 2426, "\u0120pop": 2427, "iving": 2428, "ission": 2429, "\u0120decision": 2430, "\u0120sever": 2431, "dings": 2432, "\u0120tal": 2433, "\u0120politik": 2434, "\u0120lebens": 2435, "\u0120edu": 2436, "ichts": 2437, "\u0120china": 2438, "\u0120herrn": 2439, "okrat": 2440, "\u0120shall": 2441, "\u0120spra": 2442, "ellschaft": 2443, "\u0120means": 2444, "\u0120nah": 2445, "bild": 2446, "\u0120questions": 2447, "\u0120believe": 2448, "\u0120einmal": 2449, "\u0120mad": 2450, "\u0120lux": 2451, "\u0120provide": 2452, "gabe": 2453, "\u0120tem": 2454, "the": 2455, "\u0120democ": 2456, "igkeiten": 2457, "\u0120project": 2458, "\u0120vot": 2459, "\u0120gesch\u00c3\u00a4ft": 2460, "\u0120fiel": 2461, "\u0120because": 2462, "\u00c3\u00b6l": 2463, "\u0120staats": 2464, "zo": 2465, "gew": 2466, "vention": 2467, "\u0120progress": 2468, "st\u00c3\u00bcck": 2469, "\u0120w\u00c3\u00bcrde": 2470, "\u0120gru": 2471, "\u0120conne": 2472, "\u0120repub": 2473, "\u0120upd": 2474, "xim": 2475, "\u0120kult": 2476, "\u0120perfe": 2477, "\u0120views": 2478, "f\u00c3\u00a4h": 2479, "\u0120ausw\u00c3\u00a4rt": 2480, "zept": 2481, "\u0120short": 2482, "\u0120thema": 2483, "\u0120\u0120": 2484, "\u0120comfort": 2485, "\u0120industry": 2486, "\u0120ja": 2487, "undheit": 2488, "\u0120stadt": 2489, "\u0120pract": 2490, "\u0120erforder": 2491, "gangen": 2492, "\u0120result": 2493, "\u0120*": 2494, "\u0120wach": 2495, "vement": 2496, "\u0120!": 2497, "ites": 2498, "\u0120tradition": 2499, "\u0120partners": 2500, "ragen": 2501, "\u0120bieten": 2502, "\u0120rad": 2503, "wards": 2504, "f\u00c3\u00bchrung": 2505, "\u0120speak": 2506, "\u0120verbrauch": 2507, "gs": 2508, "\u0120d\u00c3\u00bcr": 2509, "ablish": 2510, "\u0120ern": 2511, "\u0120centre": 2512, "verfahren": 2513, "\u0120request": 2514, "\u0120dom": 2515, "gehen": 2516, "\u0120richtlinie": 2517, "\u0120schluss": 2518, "\u0120dig": 2519, "ika": 2520, "reit": 2521, "\u0120citiz": 2522, "\u0120jav": 2523, "aufen": 2524, "grund": 2525, "mon": 2526, "ino": 2527, "\u0120glau": 2528, "\u0120frank": 2529, "\u0120verantwort": 2530, "\u0120st\u00c3\u00a4r": 2531, "\u0120ec": 2532, "\u0120darauf": 2533, "\u0120secretary": 2534, "quis": 2535, "\u0120pap": 2536, "ash": 2537, "\u0120weg": 2538, "cher": 2539, "\u0120third": 2540, "ints": 2541, "\u0120profession": 2542, "\u0120near": 2543, "ditions": 2544, "\u0120allow": 2545, "\u0120fer": 2546, "\u0120stim": 2547, "sekret": 2548, "):": 2549, "orte": 2550, "\u0120institution": 2551, "dr": 2552, "\u0120account": 2553, "ool": 2554, "m\u00c3\u00b6glich": 2555, "\u0120gilt": 2556, "ches": 2557, "uten": 2558, "\u0120typ": 2559, "isches": 2560, "\u0120regard": 2561, "\u0120orig": 2562, "\u0120modified": 2563, "\u0120fisch": 2564, "\u0120single": 2565, "\u0120several": 2566, "\u0120prom": 2567, "\u0120allerdings": 2568, "\u0120gr\u00c3\u00bcn": 2569, "\u0120ii": 2570, "\u0120educ": 2571, "\u0120genau": 2572, "row": 2573, "\u0120gro\u00c3\u0141e": 2574, "\u0120establish": 2575, "\u0120forsch": 2576, "\u0120name": 2577, "schein": 2578, "\u0120submitted": 2579, "\u0120kontro": 2580, "\u0120run": 2581, "orn": 2582, "\u0120def": 2583, "\u0120vill": 2584, "\u0120begr\u00c3\u00bc": 2585, "\u0120turn": 2586, "\u0120doub": 2587, "llent": 2588, "fehl": 2589, "liches": 2590, "ilities": 2591, "ppe": 2592, "\u0120example": 2593, "\u0120based": 2594, "unkte": 2595, "uter": 2596, "program": 2597, "\u0120clos": 2598, "gestellt": 2599, "\u0120besteht": 2600, "\u0120flex": 2601, "\u00c3\u00bcssel": 2602, "go": 2603, "\u0120tool": 2604, "\u0120hope": 2605, "ww": 2606, "istance": 2607, "lands": 2608, "\u0120large": 2609, "\u0120hilfe": 2610, "\u0120committee": 2611, "pr\u00c3\u00bc": 2612, "ux": 2613, "\u0120costs": 2614, "\u0120mu\u00c3\u0141": 2615, "\u0120elect": 2616, "\u0120kre": 2617, "\u0120\u00c3\u00bcbernachten": 2618, "\u0120tur": 2619, "\u0120sor": 2620, "ikel": 2621, "spolitik": 2622, "\u0120projects": 2623, "\u0120fern": 2624, "\u0120notwend": 2625, "uge": 2626, "sekret\u00c3\u00a4r": 2627, "tt": 2628, "\u0120growth": 2629, "\u0120lea": 2630, "ension": 2631, "\u0120fav": 2632, "\u0120inner": 2633, "folger": 2634, "ktionen": 2635, "\u0120\u00c3\u00a4nderungsant": 2636, "\u0120demokrat": 2637, "\u0120few": 2638, "\u0120exist": 2639, "lik": 2640, "\u0120issues": 2641, "\u0120ear": 2642, "\u0120tas": 2643, "11": 2644, "\u0120file": 2645, "\u0120details": 2646, "etzen": 2647, "\u0120f\u00c3\u00b6rder": 2648, "\u0120gesundheit": 2649, "l\u00c3\u00a4nder": 2650, "igten": 2651, "ifft": 2652, "\u0120option": 2653, "\u0120verkehr": 2654, "ommend": 2655, "\u0120chr": 2656, "\u0120feat": 2657, "\u0120local": 2658, "\u0120wish": 2659, "fig": 2660, "oten": 2661, "\u0120langu": 2662, "\u0120less": 2663, "\u0120r\u00c3\u00bcck": 2664, "\u0120kurz": 2665, "ique": 2666, "des": 2667, "\u0120allgemein": 2668, "\u0120basis": 2669, "\u0120extre": 2670, "\u0120zukunft": 2671, "h\u00c3\u00a4ng": 2672, "ength": 2673, "bin": 2674, "\u0120around": 2675, "\u0120erweit": 2676, "asst": 2677, "\u0120abge": 2678, "ichtet": 2679, "\u0120aspe": 2680, "\u0120investment": 2681, "\u0120price": 2682, "ots": 2683, "raum": 2684, "\u0120opport": 2685, "\u0120tw": 2686, "\u0120sector": 2687, "uments": 2688, "\u0120benef": 2689, "feren": 2690, "\u00c3\u00a4hlen": 2691, "ingungen": 2692, "\u0120seiner": 2693, "amt": 2694, "\u0120children": 2695, "\u0120dan": 2696, "\u0120origin": 2697, "df": 2698, "\u0120sitz": 2699, "\u0120anwend": 2700, "griff": 2701, "\u0120opportun": 2702, "iation": 2703, "\u0120probleme": 2704, "\u01202006": 2705, "\u0120show": 2706, "z\u00c3\u00bc": 2707, "\u0120saf": 2708, "ias": 2709, "\u0120aussch": 2710, "\u0120justice": 2711, "\u0120cop": 2712, "\u0120derzeit": 2713, "ype": 2714, "\u0120brauchen": 2715, "\u0120gute": 2716, "\u0120never": 2717, "\u0120germany": 2718, "\u00c3\u00a4gt": 2719, "\u0120approach": 2720, "\u0120metho": 2721, "\u0120really": 2722, "\u012029": 2723, "\u0120struct": 2724, "\u01202000": 2725, "bet": 2726, "\u0120done": 2727, "\u00c3\u0141e": 2728, "\u0120user": 2729, "ding": 2730, "\u0120obje": 2731, "\u0120excellent": 2732, "tag": 2733, "\u0120lead": 2734, "\u0120emp": 2735, "\u0120zweit": 2736, "\u0120forward": 2737, "\u0120ident": 2738, "\u0120optim": 2739, "\u0120ausw\u00c3\u00a4rtige": 2740, "ban": 2741, "iety": 2742, "\u0120strategy": 2743, "\u0120ersten": 2744, "\u0120(+": 2745, "ily": 2746, "cel": 2747, "\u0120citizens": 2748, "by": 2749, "\u0120reach": 2750, "\u0120four": 2751, "\u0120w\u00c3\u00a4hrend": 2752, "\u0120care": 2753, "\u0120necessary": 2754, "kung": 2755, "angen": 2756, "\u0120w\u00c3\u00a4re": 2757, "bank": 2758, "\u0120working": 2759, "\u0120unt": 2760, "\u0120specific": 2761, "\u0120call": 2762, "\u0120jul": 2763, "ively": 2764, "\u0120natur": 2765, "dy": 2766, "\u0120bew": 2767, "\u0120uk": 2768, "\u0120punkt": 2769, "\u0120proto": 2770, "\u0120sagen": 2771, "\u0120frame": 2772, "\u0120reason": 2773, "oney": 2774, "\u0120recommend": 2775, "\u0120vier": 2776, "r\u00c3\u00a4n": 2777, "\u0120she": 2778, "\u0120appe": 2779, "\u0120innovation": 2780, "isions": 2781, "\u0120ende": 2782, "\u0120continue": 2783, "thing": 2784, "\u0120macht": 2785, "\u0120hostels": 2786, "\u0120windows": 2787, "\u0120besonders": 2788, "ehm": 2789, "\u0120production": 2790, "\u0120yet": 2791, "\u0120bedeutung": 2792, "r\u00c3\u00a4": 2793, "\u0120schutz": 2794, "\u0120book": 2795, "sprache": 2796, "\u0120cat": 2797, "ify": 2798, "\u0120integration": 2799, "ented": 2800, "zimmer": 2801, "\u0120nov": 2802, "\u0120conclusions": 2803, "\u0120mind": 2804, "uty": 2805, "\u0120hard": 2806, ".)": 2807, "\u0120k\u00c3\u00bc": 2808, "\u0120note": 2809, "\u0120mom": 2810, "\u0120consult": 2811, "\u0120ebenfalls": 2812, "eten": 2813, "icial": 2814, "\u0120legal": 2815, "\u00c3\u00a4ss": 2816, "isiert": 2817, "igent": 2818, "ennt": 2819, "ift": 2820, "\u0120fast": 2821, "stehen": 2822, "\u0120commissions": 2823, "weis": 2824, "\u0120become": 2825, "haus": 2826, "\u0120agriculture": 2827, "\u0120subject": 2828, "\u0120central": 2829, "ckt": 2830, "\u0120companies": 2831, "\u0120offen": 2832, "ught": 2833, "stan": 2834, "ministr": 2835, "\u0120particip": 2836, "\u0120located": 2837, "iate": 2838, "\u0120kontakt": 2839, "\u0120frei": 2840, "\u0120mem": 2841, "ivil": 2842, "\u0120afr": 2843, "ktor": 2844, "less": 2845, "met": 2846, "\u0120kind": 2847, "\u0120commit": 2848, "chan": 2849, "\u0120klar": 2850, "\u0120old": 2851, "red": 2852, "\u0120easy": 2853, "ingt": 2854, "\u0120relations": 2855, "ifiz": 2856, "\u0120opin": 2857, "\u0120total": 2858, "\u00c3\u00bct": 2859, "cript": 2860, "\u0120wa": 2861, "chs": 2862, "\u0120imp": 2863, "\u0120stellt": 2864, "tember": 2865, "uelle": 2866, "\u0120davon": 2867, "ierungen": 2868, "oun": 2869, "\u0120able": 2870, "fs": 2871, "\u0120histor": 2872, "stellen": 2873, "\u0120perform": 2874, "\u0120n\u00c3\u00a4": 2875, "\u0120matter": 2876, "\u0120clean": 2877, "\u0120dokument": 2878, "\u0120ce": 2879, "\u0120competition": 2880, "folgerungen": 2881, "\u0120warum": 2882, "\u0120unterst\u00c3\u00bctzen": 2883, "cr": 2884, "\u0120sep": 2885, "\u0120wahl": 2886, "imate": 2887, "\u0120beh": 2888, "\u0120big": 2889, "\u0120invol": 2890, "\u0120conditions": 2891, "\u0120eib": 2892, "ondere": 2893, "ification": 2894, "\u0120000": 2895, "\u0120worden": 2896, "ames": 2897, "igr": 2898, "cover": 2899, "\u0120hig": 2900, "\u0120experience": 2901, "verkehr": 2902, "\u0120flo": 2903, "\u0120month": 2904, "besondere": 2905, "\u0120pan": 2906, "auer": 2907, "13": 2908, "\u01202004": 2909, "\u0120unterst\u00c3\u00bctzt": 2910, "zw": 2911, "\u0120night": 2912, "\u0120accord": 2913, "\u0120government": 2914, "\u0120given": 2915, "cus": 2916, "\u00c3\u00bcnst": 2917, "\u0120k\u00c3\u00b6nnte": 2918, "\u0120training": 2919, "\u0120fis": 2920, "vert": 2921, "\u0120points": 2922, "\u0120initiative": 2923, "\u0120employment": 2924, "\u0120deutschland": 2925, "\u0120fortsch": 2926, "\u0120link": 2927, "\u0120mrs": 2928, "ij": 2929, "rift": 2930, "\u0120schnell": 2931, "\u0120something": 2932, "aster": 2933, "\u0120send": 2934, "\u0120wahr": 2935, "ba": 2936, "leistungen": 2937, "ained": 2938, "\u0120education": 2939, "sh": 2940, "352": 2941, "\u0120holid": 2942, "produ": 2943, "ulation": 2944, "\u0120insbesondere": 2945, "\u0120folgende": 2946, "\u0120ben\u00c3\u00b6t": 2947, "\u0120unterschied": 2948, "\u0120ju": 2949, "ene": 2950, "ima": 2951, "\u0120altern": 2952, "\u0120nehmen": 2953, "ote": 2954, "\u0120via": 2955, "\u0120negot": 2956, "\u0120wirklich": 2957, "ising": 2958, "\u0120austr": 2959, "\u0120activities": 2960, "iod": 2961, "sequ": 2962, "\u0120technology": 2963, "\u0120currently": 2964, "ritten": 2965, "\u0120behand": 2966, "r\u00c3\u00a4ge": 2967, "do": 2968, "\u0120crit": 2969, "\u0120hinaus": 2970, "\u0120kommt": 2971, "\u0120role": 2972, "\u0120zus\u00c3\u00a4tz": 2973, "ety": 2974, "\u0120portug": 2975, "\u0120italien": 2976, "\u0120mass": 2977, "enten": 2978, "\u0120results": 2979, "halts": 2980, "\u0120personen": 2981, "\u0120folgenden": 2982, "gement": 2983, "werk": 2984, "spl": 2985, "\u0120days": 2986, "40": 2987, "\u0120\u00c3\u00bc": 2988, "\u0120nichts": 2989, "\u0120money": 2990, "\u0120united": 2991, "\u0120ander": 2992, "................": 2993, "\u0120terror": 2994, "\u0120media": 2995, "ring": 2996, "g\u00c3\u00a4n": 2997, "zentr": 2998, "icient": 2999, "\u0120projekt": 3000, "\u0120administr": 3001, "ands": 3002, "\u0120erreichen": 3003, "\u0120subs": 3004, "ury": 3005, "iere": 3006, "\u0120dra": 3007, "\u0120light": 3008, "m\u00c3\u00a4\u00c3\u0141": 3009, "\u0120allem": 3010, "\u0120sat": 3011, "\u0120verf\u00c3\u00bcgbar": 3012, "\u0120solid": 3013, "\u0120class": 3014, "\u0120deliver": 3015, "\u0120industr": 3016, "itor": 3017, "\u0120pr\u00c3\u00bc": 3018, "\u0120airport": 3019, "gra": 3020, "finden": 3021, "\u0120resour": 3022, "\u0120hinter": 3023, "mos": 3024, "\u01202005": 3025, "ehen": 3026, "iations": 3027, "\u0120artikel": 3028, "\u0120card": 3029, "atte": 3030, "\u0120extra": 3031, "hmer": 3032, "\u0120kos": 3033, "iar": 3034, "\u0120beach": 3035, "h\u00c3\u00b6": 3036, "isis": 3037, "\u0120difficult": 3038, "\u0120accept": 3039, "na": 3040, "\u0120wettbewerbs": 3041, "\u0120gew\u00c3\u00a4hr": 3042, "\u0120www": 3043, "\u0120wasser": 3044, "\u0120bath": 3045, "elf": 3046, "\u0120ess": 3047, "\u0120guar": 3048, "\u0120video": 3049, "\u0120bra": 3050, "\u0120moment": 3051, "\u0120s\u00c3\u00bc": 3052, "\u0120meiner": 3053, "\u0120bill": 3054, "\u0120beginn": 3055, "\u0120absol": 3056, "\u0120kommun": 3057, "\u0120fa": 3058, "\u0120line": 3059, "\u0120include": 3060, "\u0120beaut": 3061, "\u0120beiden": 3062, "----": 3063, "\u0120gemeinsame": 3064, "\u0120soc": 3065, "\u0120close": 3066, "\u0120toget": 3067, "\u0120camp": 3068, "\u0120rolle": 3069, "bereit": 3070, "\u0120super": 3071, "\u0120word": 3072, "ived": 3073, "\u0120together": 3074, "ning": 3075, "\u0120produkte": 3076, "\u0120server": 3077, "\u0120once": 3078, "iple": 3079, "ival": 3080, "\u0120schwer": 3081, "bour": 3082, "\u0120mobil": 3083, "\u0120resolution": 3084, "\u0120unserem": 3085, "\u0120event": 3086, "\u0120arbeiten": 3087, "cle": 3088, "\u0120buch": 3089, "iben": 3090, "\u0120christ": 3091, "genda": 3092, "\u0120stabil": 3093, "recht": 3094, "\u0120safety": 3095, "\u0120entfern": 3096, "\u0120kar": 3097, "\u0120pot": 3098, "\u0120gas": 3099, "\u0120darf": 3100, "ikan": 3101, "\u012023": 3102, "\u00c3\u00a4hn": 3103, "telle": 3104, "\u0120amb": 3105, "hren": 3106, "\u0120inc": 3107, "\u0120regulation": 3108, "\u0120aim": 3109, "\u0120industrie": 3110, "\u0120schlussfolgerungen": 3111, "\u0120live": 3112, "\u0120learn": 3113, "\u0120works": 3114, "iken": 3115, "\u0120gesch\u00c3\u00a4fts": 3116, "verb": 3117, "\u0120wert": 3118, "hang": 3119, "\u0120verbraucher": 3120, "\u0120kor": 3121, "\u0120registr": 3122, "ric": 3123, "\u0120sett": 3124, "\u0120guarante": 3125, "\u0120werde": 3126, "\u0120bad": 3127, "\u0120crisis": 3128, "\u0120friend": 3129, "\u0120until": 3130, "\u0120ensure": 3131, "\u0120ort": 3132, "\u0120sen": 3133, "liegen": 3134, "ably": 3135, "\u0120effort": 3136, "ka": 3137, "\u0120links": 3138, "\u0120procedure": 3139, "\u0120tom": 3140, "\u0120betrifft": 3141, "\u0120function": 3142, "weg": 3143, "\u0120komple": 3144, "vertre": 3145, "\u0120value": 3146, "\u0120challen": 3147, "atives": 3148, "\u0120sust": 3149, "\u0120nachfol": 3150, "uff": 3151, "\u0120joint": 3152, "\u0120weiterhin": 3153, "\u0120deal": 3154, "nehmer": 3155, "\u0120jeden": 3156, "\u0120arg": 3157, "\u0120sil": 3158, "\u0120family": 3159, "\u0120office": 3160, "\u0120framework": 3161, "gre": 3162, "ples": 3163, "forderungen": 3164, "zeichnet": 3165, "\u0120document": 3166, "\u0120september": 3167, "\u0120hervor": 3168, "\u0120ka": 3169, "\u0120extrem": 3170, "\u0120fr\u00c3\u00bchst\u00c3\u00bcck": 3171, "\u0120ideal": 3172, "\u0120verst": 3173, "\u0120dort": 3174, "\u0120wirtschafts": 3175, "\u0120refer": 3176, "\u0120prices": 3177, "\u0120respect": 3178, "15": 3179, "\u0120proposals": 3180, "\u0120economy": 3181, "\u0120entsprechen": 3182, "\u0120item": 3183, "\u0120besten": 3184, "\u0120computer": 3185, "\u0120betre": 3186, "\u0120ver\u00c3\u00b6ffent": 3187, "\u0120decl": 3188, "\u0120including": 3189, "\u00c3\u00a4nde": 3190, "ohl": 3191, "indung": 3192, "zogen": 3193, "\u0120meisten": 3194, "erstell": 3195, "bru": 3196, "\u0120bor": 3197, "sa": 3198, "it\u00c3\u00a4ts": 3199, "\u0120object": 3200, "spe": 3201, "\u0120rund": 3202, "\u0120geld": 3203, "\u0120berlin": 3204, "wach": 3205, "\u0120fair": 3206, "\u0120head": 3207, "\u0120focus": 3208, "\u0120wesent": 3209, "\u0120pers\u00c3\u00b6n": 3210, "\u0120step": 3211, "ex": 3212, "\u0120favour": 3213, "ativen": 3214, "ksam": 3215, "yl": 3216, "\u0120phot": 3217, "\u0120befindet": 3218, "pfung": 3219, "\u0120effect": 3220, "\u0120nutzen": 3221, "\u00c3\u00bcnft": 3222, "\u0120standards": 3223, "\u012040": 3224, "\u0120answer": 3225, "undes": 3226, "\u0120finance": 3227, "\u0120things": 3228, "\u0120presiden": 3229, "\u0120sea": 3230, "\u0120wohl": 3231, "\u012027": 3232, "\u0120ged": 3233, "ograph": 3234, "fo": 3235, "\u0120seinen": 3236, "\u0120wachst": 3237, "\u0120infrast": 3238, "koll": 3239, "\u0120kam": 3240, "\u0120legislation": 3241, "\u0120zentr": 3242, ".:": 3243, "\u0120strong": 3244, "\u0120solche": 3245, "25": 3246, "\u0120erkl\u00c3\u00a4rte": 3247, "over": 3248, "\u0120sour": 3249, "\u0120mid": 3250, "\u0120application": 3251, "\u0120individual": 3252, "\u0120antwort": 3253, "\u0120create": 3254, "\u0120dim": 3255, "ona": 3256, "\u0120kat": 3257, "\u0120week": 3258, "\u0120attra": 3259, "\u0120nice": 3260, "\u0120meeting": 3261, "zeigt": 3262, "\u0120innerhalb": 3263, "\u0120gehen": 3264, "\u00c3\u00a4ndert": 3265, "\u0120198": 3266, "\u0120vir": 3267, "\u0120opinion": 3268, "fragen": 3269, "\u0120occ": 3270, "\u012028": 3271, "\u0120van": 3272, "\u0120berichter": 3273, "ling": 3274, "iner": 3275, "llt": 3276, "reiche": 3277, "ma\u00c3\u0141": 3278, "\u0120bestehen": 3279, "\u0120strength": 3280, "system": 3281, "rodu": 3282, "\u0120communication": 3283, "\u0120pur": 3284, "\u0120internationalen": 3285, "\u0120vollst\u00c3\u00a4nd": 3286, "ested": 3287, "\u0120empf": 3288, "\u0120implementation": 3289, "\u0120rapp": 3290, "\u0120whole": 3291, "anst": 3292, "\u0120search": 3293, "\u0120parlaments": 3294, "itions": 3295, "ferenz": 3296, "\u0120creat": 3297, "\u0120hy": 3298, "\u0120treaty": 3299, "\u0120elekt": 3300, "\u0120kap": 3301, "\u0120einges": 3302, "\u0120tats": 3303, "\u0120mic": 3304, "\u0120provides": 3305, "\u0120usa": 3306, "\u0120folgt": 3307, "\u0120l\u00c3\u00a4ndern": 3308, "\u0120schwier": 3309, "\u0120jap": 3310, "\u0120cover": 3311, "\u0120litt": 3312, "lock": 3313, "\u0120road": 3314, "\u0120bul": 3315, "\u0120letzten": 3316, "\u0120verpf": 3317, "\u0120luft": 3318, "\u0120fully": 3319, "\u0120apr": 3320, "\u0120weltweit": 3321, "glichen": 3322, "\u0120t\u00c3\u00a4t": 3323, "ony": 3324, "\u0120d\u00c3\u00bcrfen": 3325, "\u0120entscheiden": 3326, "ume": 3327, "\u0120stock": 3328, "hilfe": 3329, "schn": 3330, "\u0120technical": 3331, "\u0120proposed": 3332, "\u0120bau": 3333, "\u0120kons": 3334, "ichen": 3335, "nt": 3336, "\u0120additional": 3337, "\u0120verhand": 3338, "\u0120morgen": 3339, "rech": 3340, "\u0120keinen": 3341, "\u0120frauen": 3342, "\u0120digital": 3343, "arian": 3344, "\u0120wichtige": 3345, "\u0120betrie": 3346, "blick": 3347, "ators": 3348, "cal": 3349, "ieten": 3350, "\u0120kultur": 3351, "\u0120presidency": 3352, "ada": 3353, "ases": 3354, "\u0120sollen": 3355, "mark": 3356, "\u0120jun": 3357, "60": 3358, "asing": 3359, "\u0120anges": 3360, "\u0120wat": 3361, "schluss": 3362, "\u0120sustain": 3363, "\u0120little": 3364, "\u0120agenda": 3365, "\u0120often": 3366, "\u0120south": 3367, "ency": 3368, "\u0120register": 3369, "\u0120empfehl": 3370, "\u0120return": 3371, "\u0120required": 3372, "\u0120signific": 3373, "\u0120verfahren": 3374, "\u0120fig": 3375, "\u0120dev": 3376, "pr\u00c3\u00a4sident": 3377, "\u0120genehm": 3378, "\u0120verschiedenen": 3379, "ization": 3380, "\u0120gent": 3381, "\u0120organis": 3382, "\u0120ol": 3383, "\u0120leist": 3384, "\u0120code": 3385, "play": 3386, "\u0120namen": 3387, "gru": 3388, "\u0120umsetzung": 3389, "ziehungen": 3390, "\u0120krit": 3391, "wand": 3392, "\u0120w\u00c3\u00bcn": 3393, "\u0120period": 3394, "ira": 3395, "utet": 3396, "\u0120gro\u00c3\u0141en": 3397, "\u0120t\u00c3\u00bcr": 3398, "\u0120beteil": 3399, "komm": 3400, "\u0120siehe": 3401, "\u0120rapporte": 3402, "\u0120l\u00c3\u00b6sung": 3403, "\u0120dest": 3404, "hil": 3405, "\u0120neues": 3406, "\u0120tv": 3407, "\u0120janu": 3408, "\u0120artic": 3409, "ured": 3410, "ana": 3411, "\u0120conference": 3412, "\u0120responsibility": 3413, "\u0120sens": 3414, "\u0120various": 3415, "ply": 3416, "\u0120entschlie\u00c3\u0141": 3417, "\u0120introdu": 3418, "\u0120west": 3419, "\u0120besuch": 3420, "onger": 3421, "\u0120corre": 3422, "\u0120table": 3423, "ennen": 3424, "\u0120wissenschaft": 3425, "wh": 3426, "\u0120\u00c3\u00a4u": 3427, "heb": 3428, "oss": 3429, "\u0120moder": 3430, "\u0120towards": 3431, "\u0120email": 3432, "\u0120eg": 3433, "bare": 3434, "\u0120content": 3435, "\u0120schwe": 3436, "\u0120field": 3437, "druck": 3438, "\u0120sn": 3439, "ifen": 3440, "of": 3441, "\u0120times": 3442, "\u0120schlie\u00c3\u0141": 3443, "\u0120berichterstat": 3444, "enzen": 3445, "weil": 3446, "itionen": 3447, "\u0120compl": 3448, "\u01202003": 3449, "\u0120positive": 3450, "\u0120belg": 3451, "\u0120remain": 3452, "\u0120responsible": 3453, "\u0120november": 3454, "term": 3455, "\u0120sound": 3456, "da": 3457, "ove": 3458, "iled": 3459, "ascript": 3460, "\u0120aug": 3461, "\u0120don": 3462, "\u0120pict": 3463, "ios": 3464, "\u0120maxim": 3465, "\u0120f\u00c3\u00bchren": 3466, "\u0120network": 3467, "\u0120green": 3468, "\u0120solution": 3469, "\u0120internal": 3470, "\u0120liber": 3471, "\u0120anim": 3472, "istan": 3473, "berg": 3474, "\u0120nachfolgend": 3475, "\u0120javascript": 3476, "\u0120lis": 3477, "\u0120share": 3478, "\u0120pool": 3479, "idence": 3480, "most": 3481, "\u0120internationale": 3482, "\u0120cy": 3483, "\u0120mobile": 3484, "\u0120eigent": 3485, "\u0120sondern": 3486, "\u0120princ": 3487, "\u0120quite": 3488, "ality": 3489, "\u0120m\u00c3\u00a4r": 3490, "\u0120mention": 3491, "\u0120assoc": 3492, "\u0120besser": 3493, "\u0120miss": 3494, "\u0120nachhalt": 3495, "pend": 3496, "\u0120dre": 3497, "\u0120aufge": 3498, "\u0120serious": 3499, "\u0120ed": 3500, "bei": 3501, "\u0120zugang": 3502, "\u0120women": 3503, "\u0120makes": 3504, "techn": 3505, "\u0120contrib": 3506, "unch": 3507, "\u0120nieder": 3508, "\u0120itself": 3509, "vorschriften": 3510, "\u0120vertra": 3511, "\u0120prem": 3512, "\u0120hinzu": 3513, "\u0120france": 3514, "\u0120perfect": 3515, "\u0120handel": 3516, "\u0120tru": 3517, "\u0120fal": 3518, "\u0120town": 3519, "\u0120mean": 3520, "teile": 3521, "bon": 3522, "\u0120final": 3523, "lie\u00c3\u0141en": 3524, "\u0120entscheidung": 3525, "\u0120among": 3526, "\u0120terms": 3527, "voll": 3528, "\u0120needed": 3529, "\u0120fix": 3530, "\u0120verschiedene": 3531, "ton": 3532, "uring": 3533, "\u0120forder": 3534, "\u0120solidar": 3535, "\u0120japan": 3536, "\u0120hil": 3537, "\u0120qualit\u00c3\u00a4t": 3538, "\u0120policies": 3539, "\u0120deleg": 3540, "\u0120added": 3541, "\u0120nort": 3542, "\u0120europas": 3543, "kommissar": 3544, "atul": 3545, "text": 3546, "\u0120amendments": 3547, "\u0120according": 3548, "orted": 3549, "\u0120gegen\u00c3\u00bcber": 3550, "\u0120below": 3551, "\u0120environmental": 3552, "lar": 3553, "\u0120leider": 3554, "\u0120entfernt": 3555, "\u0120organisation": 3556, "itter": 3557, "\u0120staat": 3558, "\u0120concerns": 3559, "\u0120weniger": 3560, "\u0120simply": 3561, "\u0120verwendet": 3562, "\u0120wider": 3563, "\u0120particularly": 3564, "ml": 3565, "\u0120unters": 3566, "\u0120st\u00c3\u00a4nd": 3567, "\u0120regierung": 3568, "\u0120amendment": 3569, "\u0120ther": 3570, "ativ": 3571, "\u0120zentral": 3572, "\u0120ba": 3573, "\u0120apply": 3574, "\u0120resources": 3575, "\u0120tab": 3576, "roffen": 3577, "\u0120spa": 3578, "\u0120schritt": 3579, "\u0120etwa": 3580, "ugen": 3581, "\u0120going": 3582, "\u0120lot": 3583, "!!": 3584, "\u01202002": 3585, "po": 3586, "app": 3587, "\u0120sch\u00c3\u00b6n": 3588, "mbh": 3589, "plan": 3590, "\u0120feel": 3591, "\u0120gerichts": 3592, "fall": 3593, "\u0120solutions": 3594, "\u0120wohn": 3595, "\u0120bedeutet": 3596, "\u0120included": 3597, "\u0120hatte": 3598, "\u0120happen": 3599, "ceed": 3600, "\u0120provided": 3601, "\u0120schul": 3602, "\u0120bon": 3603, "\u0120peace": 3604, "\u0120apartment": 3605, "\u0120range": 3606, "\u0120publish": 3607, "\u0120protokoll": 3608, "\u0120april": 3609, "\u0120brit": 3610, "\u0120keep": 3611, "\u0120priority": 3612, "\u0120try": 3613, "\u0120binnen": 3614, "\u0120micro": 3615, "\u0120station": 3616, "\u0120mechan": 3617, "\u0120package": 3618, "see": 3619, "\u0120aud": 3620, "\u0120understand": 3621, "\u0120pdf": 3622, "\u0120erne": 3623, "\u0120bekannt": 3624, "inst": 3625, "\u0120enthalten": 3626, "\u0120millionen": 3627, "\u0120rela": 3628, "\u0120competit": 3629, "wa": 3630, "gleich": 3631, "achen": 3632, "\u0120edit": 3633, "uren": 3634, "iers": 3635, "\u0120transl": 3636, "\u0120gmbh": 3637, "sehen": 3638, "erei": 3639, "\u0120cut": 3640, "frist": 3641, "\u0120votes": 3642, "\u0120?": 3643, "va": 3644, "\u0120finally": 3645, "\u0120essential": 3646, "\u0120politische": 3647, "\u0120herz": 3648, "\u0120infl": 3649, "ategor": 3650, "\u0120holiday": 3651, "\u0120weise": 3652, "\u0120entire": 3653, "atory": 3654, "\u0120betra": 3655, "\u0120f\u00c3\u00bcn": 3656, "\u0120entwicklungs": 3657, "\u0120verf": 3658, "\u0120happ": 3659, "\u0120express": 3660, "\u0120friendly": 3661, "igte": 3662, "\u0120comfortable": 3663, "tellen": 3664, "yr": 3665, "\u0120\u00c3\u00bcberpr\u00c3\u00bc": 3666, "\u0120gerne": 3667, "\u0120manuf": 3668, "\u0120denen": 3669, "\u0120contra": 3670, "\u0120quick": 3671, "\u0120seiten": 3672, "\u0120)": 3673, "\u0120jede": 3674, "\u0120center": 3675, "\u00c3\u00a4chst": 3676, "\u0120erk": 3677, "\u0120led": 3678, "\u0120strategie": 3679, "lt": 3680, "ips": 3681, "\u0120au\u00c3\u0141en": 3682, "\u0120ip": 3683, "\u0120ziele": 3684, "aps": 3685, "\u0120building": 3686, "\u0120north": 3687, "linien": 3688, "\u0120significant": 3689, "\u0120away": 3690, "worten": 3691, "\u00c3\u00a4chlich": 3692, "\u0120aussprache": 3693, "\u0120guests": 3694, "\u0120mio": 3695, "\u0120prop": 3696, "\u0120installation": 3697, "lei": 3698, "cen": 3699, "rechte": 3700, "\u0120unver": 3701, "\u0120f\u00c3\u00b6rderung": 3702, "\u0120seem": 3703, "\u0120minim": 3704, "mut": 3705, "reicht": 3706, "\u00c3\u00a4mpfung": 3707, "reiben": 3708, "fung": 3709, "\u0120enc": 3710, "\u0120flug": 3711, "\u0120apartments": 3712, "\u0120double": 3713, "\u0120sam": 3714, "\u0120manufact": 3715, "thers": 3716, "\u0120anf": 3717, "mitglie": 3718, "\u0120files": 3719, "\u0120zie": 3720, "ump": 3721, "\u0120wei\u00c3\u0141": 3722, "\u0120jud": 3723, "agement": 3724, "\u0120programmes": 3725, "\u0120gemeinsamen": 3726, "\u0120sure": 3727, "\u0120increase": 3728, "\u0120milit": 3729, "cke": 3730, "\u0120enth\u00c3\u00a4lt": 3731, "\u0120wr": 3732, "\u0120anfrage": 3733, "stra": 3734, "sto": 3735, "f\u00c3\u00bchren": 3736, "ully": 3737, "\u0120groups": 3738, "\u0120monitor": 3739, "prochen": 3740, "stadt": 3741, "\u0120vertrags": 3742, "eign": 3743, "leicht": 3744, "abel": 3745, "\u0120\u00c3\u00b6ffentlichen": 3746, "\u0120rein": 3747, "\u0120distribution": 3748, "\u0120beautif": 3749, "\u0120statement": 3750, "bahn": 3751, "\u0120liste": 3752, "fil": 3753, "\u0120h\u00c3\u00b6ch": 3754, "alog": 3755, "gelegt": 3756, "\u0120markets": 3757, "\u0120struktur": 3758, "\u0120perman": 3759, "\u0120statist": 3760, "\u0120society": 3761, "\u00c3\u0141t": 3762, "\u0120vors": 3763, "platz": 3764, "\u0120cross": 3765, "bel": 3766, "einander": 3767, "\u0120staatssekret\u00c3\u00a4r": 3768, "auft": 3769, "igungs": 3770, "\u0120above": 3771, "cially": 3772, "\u0120club": 3773, "aces": 3774, "\u0120mehrere": 3775, "\u0120politischen": 3776, "\u0120english": 3777, "umente": 3778, "\u0120continu": 3779, "\u0120gesetz": 3780, "istry": 3781, "\u0120bleiben": 3782, "wal": 3783, "\u0120hor": 3784, "ou": 3785, "\u0120exch": 3786, "lling": 3787, "\u0120receive": 3788, "\u0120enough": 3789, "\u0120atmos": 3790, "\u0120vorgesch": 3791, "ished": 3792, "\u0120operation": 3793, "\u0120everything": 3794, "\u0120vorschl\u00c3\u00a4ge": 3795, "\u0120music": 3796, "\u0120alt": 3797, "\u0120bundes": 3798, "gesetzt": 3799, "\u0120rei": 3800, "\u0120events": 3801, "\u0120tages": 3802, "\u0120pr\u00c3\u00a4sidentin": 3803, "\u0120eigenen": 3804, "\u0120cases": 3805, "gesamt": 3806, "\u0120assistance": 3807, "\u0120him": 3808, "resse": 3809, "\u0120angenommen": 3810, "\u0120bit": 3811, "\u0120besch\u00c3\u00a4ftigung": 3812, "\u0120feder": 3813, "\u0120export": 3814, "\u0120jedes": 3815, "iesen": 3816, "\u0120spain": 3817, "ikation": 3818, "\u0120recog": 3819, "\u0120changes": 3820, "mann": 3821, "uellen": 3822, "uel": 3823, "ison": 3824, "ops": 3825, "\u0120fundament": 3826, "\u0120anzu": 3827, "\u0120capital": 3828, "\u0120mitarbeit": 3829, "\u0120garant": 3830, "\u0120erforderlich": 3831, "\u0120mount": 3832, "\u0120sag": 3833, "\u0120leit": 3834, "\u0120left": 3835, "\u0120arr": 3836, "\u0120wik": 3837, "\u0120berichterstatter": 3838, "\u0120jahres": 3839, "igation": 3840, "\u0120zudem": 3841, "\u0120travel": 3842, "\u0120risk": 3843, "\u0120users": 3844, "\u0120cir": 3845, "\u0120ober": 3846, "\u0120gal": 3847, "erk": 3848, "\u00c3\u00a4g": 3849, "self": 3850, "\u0120gesellschaft": 3851, "\u0120freund": 3852, "\u0120gesagt": 3853, "\u00c3\u00a4che": 3854, "igration": 3855, "\u0120young": 3856, "\u00c3\u00a4ren": 3857, "rieben": 3858, "\u0120attention": 3859, "ones": 3860, "racht": 3861, "\u0120deputy": 3862, "\u0120handelt": 3863, "\u0120w\u00c3\u00a4hlen": 3864, "\u0120bi": 3865, "\u0120espe": 3866, "uk": 3867, "\u0120sitzung": 3868, "\u0120fisher": 3869, "\u0120brow": 3870, "\u00c3\u00a4nger": 3871, "ican": 3872, "\u0120imm": 3873, "\u0120charac": 3874, "\u0120enlar": 3875, "teilt": 3876, "\u0120professional": 3877, "\u0120takes": 3878, "leben": 3879, "\u0120gree": 3880, "\u0120suff": 3881, "laub": 3882, "itution": 3883, "\u0120musik": 3884, "\u0120sowohl": 3885, "\u0120debian": 3886, "\u0120gab": 3887, "\u0120lib": 3888, "ends": 3889, "zer": 3890, "\u0120film": 3891, "abh\u00c3\u00a4ng": 3892, "\u0120voted": 3893, "\u0120safe": 3894, "hoben": 3895, "\u0120language": 3896, "\u0120konn": 3897, "\u0120sho": 3898, "\u0120requirements": 3899, "\u0120kern": 3900, "\u0120gemacht": 3901, "\u0120insgesamt": 3902, "37": 3903, "eg": 3904, "\u0120school": 3905, "\u0120target": 3906, "\u0120zun": 3907, "arf": 3908, "\u0120ord": 3909, "ires": 3910, "\u0120forschung": 3911, "ionen": 3912, "ette": 3913, "verst\u00c3\u00a4nd": 3914, "\u0120ergebnis": 3915, "istic": 3916, "\u0120parking": 3917, "\u0120climate": 3918, "\u0120welcom": 3919, "\u0120rent": 3920, "\u0120grie": 3921, "gency": 3922, "\u0120photo": 3923, "\u0120importance": 3924, "\u0120ergebnisse": 3925, "\u0120gelegen": 3926, "\u0120les": 3927, "\u0120facilities": 3928, "\u01202001": 3929, "ored": 3930, "crib": 3931, "\u0120mut": 3932, "zip": 3933, "ii": 3934, "\u0120n\u00c3\u00a4he": 3935, "\u0120erfahr": 3936, "\u0120looking": 3937, "\u0120separ": 3938, "\u0120harmon": 3939, "\u0120mode": 3940, "\u0120indic": 3941, "\u0120slow": 3942, "\u0120staaten": 3943, "\u0120past": 3944, "\u0120geh\u00c3\u00b6rt": 3945, "\u0120rapporteur": 3946, "best": 3947, "sprogram": 3948, "unately": 3949, "\u0120bleibt": 3950, "\u0120pak": 3951, "14": 3952, "\u0120rate": 3953, "f\u00c3\u00a4higkeit": 3954, "\u0120others": 3955, "\u0120relax": 3956, "aden": 3957, "\u0120game": 3958, "\u0120atmosph": 3959, "\u00c3\u00b6ffnet": 3960, "\u0120bulgar": 3961, "ients": 3962, "\u0120franz": 3963, "\u0120effective": 3964, "date": 3965, "\u0120madam": 3966, "anze": 3967, "side": 3968, "\u0120neben": 3969, "\u0120especially": 3970, "\u0120gerade": 3971, "cent": 3972, "\u0120prozess": 3973, "\u0120making": 3974, "\u0120image": 3975, "\u0120institutions": 3976, "besch": 3977, "unehmen": 3978, "\u0120choose": 3979, "\u0120bisher": 3980, "\u0120equip": 3981, "\u0120erh\u00c3\u00a4lt": 3982, "\u0120erh\u00c3\u00b6": 3983, "\u0120natural": 3984, "\u0120nationalen": 3985, "\u0120civil": 3986, "18": 3987, "\u0120fehler": 3988, "\u0120nord": 3989, "\u0120normal": 3990, "\u0120verwenden": 3991, "\u0120handels": 3992, "39": 3993, "ager": 3994, "llig": 3995, "\u0120dist": 3996, "ania": 3997, "ki": 3998, "kom": 3999, "\u0120informations": 4000, "\u0120liegen": 4001, "ungsverfahren": 4002, "\u0120stellung": 4003, "\u0120credit": 4004, "\u0120hinsicht": 4005, "h\u00c3\u00b6rden": 4006, "\u0120pf": 4007, "\u0120erf\u00c3\u00bc": 4008, "\u0120portugal": 4009, "\u0120sem": 4010, "racy": 4011, "\u0120zusammenhang": 4012, "\u0120netz": 4013, "\u0120sogar": 4014, "\u0120beautiful": 4015, "\u0120isra": 4016, "\u0120klima": 4017, "eib": 4018, "\u0120longer": 4019, "\u0120gere": 4020, "\u0120erkl\u00c3\u00a4rung": 4021, "hib": 4022, "\u0120graph": 4023, "\u0120f\u00c3\u00bcnf": 4024, "ians": 4025, "\u0120n\u00c3\u00a4chsten": 4026, "\u0120agree": 4027, "\u0120soon": 4028, "\u0120glaube": 4029, "\u0120sprechen": 4030, "dom": 4031, "\u0120vielleicht": 4032, "\u0120frankreich": 4033, "vent": 4034, "\u0120richtung": 4035, "\u0120ukra": 4036, "\u0120low": 4037, "\u0120august": 4038, "buch": 4039, "programm": 4040, "\u0120ansp": 4041, "\u0120erziel": 4042, "dam": 4043, "\u0120rechn": 4044, "\u0120gelten": 4045, "\u0120dont": 4046, "ielle": 4047, "\u0120schrift": 4048, "\u0120b\u00c3\u00bc": 4049, "\u0120gran": 4050, "\u0120directly": 4051, "soft": 4052, "w\u00c3\u00bcr": 4053, "\u0120yes": 4054, "\u0120promot": 4055, "\u0120nothing": 4056, "di": 4057, "\u0120improve": 4058, "\u0120wachstum": 4059, "\u0120blog": 4060, "ros": 4061, "\u0120weiteren": 4062, "atic": 4063, "\u0120negotiations": 4064, "\u0120type": 4065, "\u0120prakt": 4066, "\u0120clearly": 4067, "\u0120verf\u00c3\u00bcgt": 4068, "\u0120\u00c3\u00b6ffentliche": 4069, "\u0120assess": 4070, "\u0120muse": 4071, "alten": 4072, "gl": 4073, "\u0120haushalts": 4074, "\u0120authorities": 4075, "gu": 4076, "atten": 4077, "alit\u00c3\u00a4t": 4078, "\u0120extern": 4079, "\u0120phil": 4080, "weisen": 4081, "\u0120mail": 4082, "schlie\u00c3\u0141lich": 4083, "\u00c3\u00a4us": 4084, "staat": 4085, "\u0120fish": 4086, "fully": 4087, "\u0120vice": 4088, "\u0120zeigt": 4089, "\u0120kraft": 4090, "ruction": 4091, "club": 4092, "\u0120meinung": 4093, "\u0120thus": 4094, "\u0120includes": 4095, "ook": 4096, "bildung": 4097, "\u0120oct": 4098, "\u0120weil": 4099, "die": 4100, "gle": 4101, "alu": 4102, "ma\u00c3\u0141nahmen": 4103, "\u0120restaurants": 4104, "\u0120vereinbar": 4105, "\u012060": 4106, "aren": 4107, "\u0120farm": 4108, "\u0120h\u00c3\u00a4t": 4109, "nete": 4110, "irm": 4111, "\u0120fortschritte": 4112, "\u0120paris": 4113, "\u0120comb": 4114, "seit": 4115, "\u0120zahlen": 4116, "erst": 4117, "\u0120spanien": 4118, "\u0120sty": 4119, "\u0120tit": 4120, "\u0120abkommen": 4121, "45": 4122, "\u0120veranst": 4123, "\u0120ausgest": 4124, "hes": 4125, "\u0120telefon": 4126, "\u0120verbesserung": 4127, "\u0120instrument": 4128, "\u0120regions": 4129, "\u0120wettbewerb": 4130, "\u0120meer": 4131, "\u0120least": 4132, "\u0120original": 4133, "\u0120official": 4134, "hotel": 4135, "\u0120words": 4136, "\u0120rea": 4137, "richtung": 4138, "\u0120finanzen": 4139, "\u0120simple": 4140, "\u0120funds": 4141, "auber": 4142, "\u0120principle": 4143, "part": 4144, "acy": 4145, "\u0120board": 4146, "\u0120stellvertre": 4147, "\u0120fot": 4148, "\u0120punkte": 4149, "\u0120months": 4150, "\u0120purpos": 4151, "pected": 4152, "\u0120auff": 4153, "ether": 4154, "\u0120features": 4155, "\u0120ten": 4156, "\u0120charge": 4157, "\u0120sun": 4158, "\u0120subst": 4159, "17": 4160, "\u0120zweite": 4161, "\u0120lange": 4162, "\u0120ihn": 4163, "\u0120sustainable": 4164, "\u0120gerichtshof": 4165, "umb": 4166, "\u00c3\u00a4cht": 4167, "auen": 4168, "\u0120called": 4169, "ule": 4170, "gebung": 4171, "\u0120deta": 4172, "\u0120italy": 4173, "\u0120vorgeschlagen": 4174, "lies": 4175, "ero": 4176, "\u0120unfort": 4177, "\u0120wenig": 4178, "\u0120kostenlos": 4179, "hilfen": 4180, "deut": 4181, "\u0120nature": 4182, "\u0120infring": 4183, "\u0120while": 4184, "\u0120select": 4185, "\u0120parties": 4186, "\u0120etc": 4187, "\u0120auswir": 4188, "\u0120map": 4189, "\u0120shown": 4190, "reibung": 4191, "\u0120latest": 4192, "ai": 4193, "\u0120verwendung": 4194, "wegen": 4195, "\u0120kollegen": 4196, "\u0120kop": 4197, "ienen": 4198, "\u0120nr": 4199, "\u0120chem": 4200, "immen": 4201, "\u0120consumer": 4202, "schnitt": 4203, "\u0120ill": 4204, "\u0120willkommen": 4205, "\u0120winter": 4206, "\u00c3\u00a4hlt": 4207, "\u0120record": 4208, "\u0120tick": 4209, "bil": 4210, "\u0120beschl": 4211, "\u0120mand": 4212, "orrow": 4213, "\u0120jour": 4214, "\u0120trotz": 4215, "\u0120lad": 4216, "\u0120side": 4217, "\u0120tomorrow": 4218, "\u0120q": 4219, "\u0120ministry": 4220, "\u0120ver\u00c3\u00a4nder": 4221, "\u0120acro": 4222, "\u0120rural": 4223, "ark": 4224, "\u0120anwendung": 4225, "ano": 4226, "\u0120kun": 4227, "haltung": 4228, "l\u00c3\u00a4u": 4229, "\u0120oft": 4230, "\u0120motor": 4231, "\u0120archite": 4232, "\u0120projekte": 4233, "\u0120floor": 4234, "\u0120concerned": 4235, "rimin": 4236, "unge": 4237, "\u0120bemer": 4238, "\u0120aufmer": 4239, "icherheit": 4240, "\u0120permanent": 4241, "\u00c3\u00bccksicht": 4242, "ending": 4243, "onen": 4244, "iten": 4245, "\u0120hours": 4246, "\u0120febru": 4247, "\u0120appropr": 4248, "olle": 4249, "\u0120akzept": 4250, "\u0120strengthen": 4251, "stellt": 4252, "\u0120culture": 4253, "hend": 4254, "\u0120affe": 4255, "ench": 4256, "\u0120m\u00c3\u00b6glichkeiten": 4257, "\u0120indeed": 4258, "ellen": 4259, "arm": 4260, "ipped": 4261, "\u0120themen": 4262, "\u0120angezeigt": 4263, "president": 4264, "\u0120wichtigsten": 4265, "\u0120bring": 4266, "\u0120anti": 4267, "\u0120privat": 4268, "ynam": 4269, "\u0120enterpr": 4270, "\u0120platz": 4271, "\u0120druck": 4272, "uell": 4273, "fel": 4274, "\u0120cru": 4275, "\u0120jeweil": 4276, "\u0120auswahl": 4277, "\u0120ausschuss": 4278, "entwick": 4279, "\u0120bem": 4280, "zeigen": 4281, "\u00c3\u00bcsse": 4282, "\u0120republik": 4283, "\u0120partnership": 4284, "\u0120obs": 4285, "\u0120immed": 4286, "\u0120erzeug": 4287, "\u0120mac": 4288, "key": 4289, "\u0120infringement": 4290, "\u0120republic": 4291, "\u0120erreicht": 4292, "\u0120hoffe": 4293, "\u0120enable": 4294, "attet": 4295, "\u0120true": 4296, "\u0120binnenmarkt": 4297, "\u0120f\u00c3\u00a4": 4298, "fert": 4299, "\u0120representative": 4300, "ppel": 4301, "annten": 4302, "\u0120active": 4303, "daten": 4304, "\u0120steuer": 4305, "\u0120verantwortung": 4306, "mals": 4307, "\u0120ber\u00c3\u00bccksicht": 4308, "\u0120ministerin": 4309, "\u0120created": 4310, "\u0120einzelnen": 4311, "\u0120external": 4312, "\u0120fight": 4313, "\u0120remains": 4314, "lemen": 4315, "\u0120intens": 4316, "\u0120zo": 4317, "auss": 4318, "\u0120stor": 4319, "\u012026": 4320, "\u0120job": 4321, "\u0120five": 4322, "\u0120spielen": 4323, "eden": 4324, "sterreich": 4325, "ja": 4326, "iveness": 4327, "\u0120humanit": 4328, "\u0120previous": 4329, "\u0120israel": 4330, "lied": 4331, "\u00c3\u00a4ter": 4332, "\u0120bevor": 4333, "\u0120l\u00c3\u00b6": 4334, "itzen": 4335, "cker": 4336, "jahr": 4337, "\u0120ut": 4338, "stag": 4339, "\u0120equipment": 4340, "\u0120\u00c3\u00a4u\u00c3\u0141er": 4341, "\u0120unabh\u00c3\u00a4ng": 4342, "\u0120preise": 4343, "\u0120front": 4344, "ommod": 4345, "\u0120divers": 4346, "\u0120div": 4347, "\u0120schein": 4348, "\u0120bildung": 4349, "letter": 4350, "\u0120extremely": 4351, "95": 4352, "16": 4353, "\u0120increasing": 4354, "\u0120ebene": 4355, "\u0120king": 4356, "\u0120einsatz": 4357, "\u0120jobs": 4358, "\u0120vergangen": 4359, "\u0120helpf": 4360, "eless": 4361, "geschlossen": 4362, "stoff": 4363, "\u0120vertr": 4364, "\u0120efforts": 4365, "zif": 4366, "verletz": 4367, "ired": 4368, "\u0120beide": 4369, "\u0120las": 4370, "\u0120jugend": 4371, "\u0120verd": 4372, "\u012080": 4373, "setzen": 4374, "ql": 4375, "\u0120sofort": 4376, "\u0120obl": 4377, "\u0120history": 4378, "\u0120accommod": 4379, "ommer": 4380, "\u00c3\u00a4sent": 4381, "\u0120erweiterung": 4382, "\u0120kleine": 4383, "\u0120klein": 4384, "\u0120pet": 4385, "\u0120section": 4386, "\u0120space": 4387, "\u0120aufmerksam": 4388, "\u0120daran": 4389, "tes": 4390, "andid": 4391, "\u0120beitrag": 4392, "\u0120lic": 4393, "\u0120verfol": 4394, "\u0120fit": 4395, "arbeiten": 4396, "\u0120verst\u00c3\u00a4r": 4397, "\u0120effiz": 4398, "ination": 4399, "\u0120decisions": 4400, "\u0120subsid": 4401, "formen": 4402, "\u0120entde": 4403, "\u0120gestimmt": 4404, "\u0120concerning": 4405, "\u0120dienstleistungen": 4406, "\u0120prep": 4407, "unternehmen": 4408, "\u0120paper": 4409, "\u0120dad": 4410, "\u0120halten": 4411, "za": 4412, "\u0120schle": 4413, "\u0120din": 4414, "\u0120performance": 4415, "\u0120transfer": 4416, "\u0120oppos": 4417, "\u0120schlie\u00c3\u0141lich": 4418, "more": 4419, "arbeitung": 4420, "\u00c3\u00bclt": 4421, "\u0120guid": 4422, "z\u00c3\u00bcglich": 4423, "\u0120kro": 4424, "marquis": 4425, "\u0120applications": 4426, "ilar": 4427, "\u0120later": 4428, "\u0120\u00c3\u00a4nderungsantrag": 4429, "ty": 4430, "iting": 4431, "98": 4432, "\u0120ira": 4433, "\u0120unfortunately": 4434, "urt": 4435, "\u0120erheb": 4436, "24": 4437, "\u0120potential": 4438, "\u0120aktion": 4439, "\u0120pr\u00c3\u00a4": 4440, "\u0120french": 4441, "ienste": 4442, "\u0120beziehungen": 4443, "view": 4444, "\u0120lond": 4445, "\u0120analys": 4446, "chter": 4447, "sc": 4448, "\u0120exec": 4449, "val": 4450, "\u0120bedingungen": 4451, "\u0120democracy": 4452, "\u0120zun\u00c3\u00a4chst": 4453, "\u0120pc": 4454, "\u0120rot": 4455, "\u0120comes": 4456, "\u0120sicherheits": 4457, "\u0120fundamental": 4458, "\u0120impact": 4459, "\u0120genie": 4460, "\u0120almost": 4461, "mote": 4462, "\u0120rechte": 4463, "\u0120bereichen": 4464, "\u0120october": 4465, "\u0120vize": 4466, "keiten": 4467, "\u0120garden": 4468, "\u0120profit": 4469, "\u0120gr\u00c3\u00b6\u00c3\u0141er": 4470, "vant": 4471, "\u0120reports": 4472, "ledge": 4473, "\u0120passen": 4474, "\u0120extens": 4475, "ufen": 4476, "wide": 4477, "\u0120l\u00c3\u00a4nd": 4478, "\u0120minuten": 4479, "\u0120medien": 4480, "\u0120existing": 4481, "\u0120grenz": 4482, "\u0120interesse": 4483, "\u0120reasons": 4484, "\u0120bio": 4485, "\u0120expect": 4486, "\u0120release": 4487, "v\u00c3\u00b6l": 4488, "\u0120cam": 4489, "\u0120arbeitspl": 4490, "\u0120force": 4491, "\u0120zust\u00c3\u00a4ndige": 4492, "heim": 4493, "cies": 4494, "\u0120dro": 4495, "\u0120proceed": 4496, "mus": 4497, "artet": 4498, "\u0120nimmt": 4499, "\u0120angebot": 4500, "isf": 4501, "\u0120foto": 4502, "\u0120block": 4503, "ratic": 4504, "\u0120freed": 4505, "\u0120governments": 4506, "face": 4507, "\u0120exchange": 4508, "\u0120notwendig": 4509, "\u0120due": 4510, "\u0120customer": 4511, "\u0120demokratie": 4512, "istet": 4513, "\u0120nu": 4514, "\u0120gegeben": 4515, "\u0120opportunity": 4516, "tain": 4517, "\u0120achieve": 4518, "\u0120k\u00c3\u00b6nig": 4519, "\u0120dynam": 4520, "\u0120kunst": 4521, "\u0120viol": 4522, "\u0120luxem": 4523, "\u0120industrial": 4524, "46": 4525, "\u0120flugh": 4526, "\u0120f\u00c3\u00bchrt": 4527, "\u0120enlargement": 4528, "ather": 4529, "order": 4530, "atur": 4531, "\u0120tod": 4532, "\u0120ge\u00c3\u00a4ndert": 4533, "clud": 4534, "fahrt": 4535, "stellungen": 4536, "\u0120demand": 4537, "halte": 4538, "word": 4539, "\u0120benutzer": 4540, "\u0120source": 4541, "ights": 4542, "\u0120ferien": 4543, "\u0120western": 4544, "\u0120ben\u00c3\u00b6tigen": 4545, "\u0120eth": 4546, "\u0120deutlich": 4547, "\u0120bur": 4548, "gener": 4549, "\u0120propert": 4550, "\u0120unterb": 4551, "phone": 4552, "kan": 4553, "organ": 4554, "esh": 4555, "\u0120eus": 4556, "\u0120herstell": 4557, "\u0120raum": 4558, "hnen": 4559, "\u0120vorbereit": 4560, "ims": 4561, "\u0120verhandlungen": 4562, "\u0120lok": 4563, "\u0120whether": 4564, "\u0120komfort": 4565, "\u0120syn": 4566, "mp": 4567, "\u0120spezial": 4568, "\u0120lau": 4569, "\u0120hierzu": 4570, "just": 4571, "\u0120\u00c3\u00b6sterreich": 4572, "\u0120fire": 4573, "\u0120plann": 4574, "\u0120engine": 4575, "pping": 4576, "uis": 4577, "hem": 4578, "\u00c3\u00a4lle": 4579, "\u0120scre": 4580, "\u0120einigen": 4581, "\u0120innovative": 4582, "\u0120bathroom": 4583, "\u0120sitting": 4584, "hnt": 4585, "\u0120carr": 4586, "\u0120dadurch": 4587, "\u0120agricultural": 4588, "lang": 4589, "page": 4590, "\u0120june": 4591, "\u0120prec": 4592, "\u0120display": 4593, "\u0120karte": 4594, "\u0120broad": 4595, "\u0120vertreten": 4596, "cer": 4597, "\u0120h\u00c3\u00a4u": 4598, "\u0120ham": 4599, "dienst": 4600, "\u0120encour": 4601, "\u0120helpful": 4602, "\u0120ton": 4603, "\u0120objectives": 4604, "\u0120developed": 4605, "\u0120article": 4606, "\u0120recent": 4607, "\u0120unique": 4608, "\u0120k\u00c3\u00b6nnten": 4609, "erous": 4610, "\u0120fisheries": 4611, "\u0120w\u00c3\u00bcrden": 4612, "\u0120character": 4613, "\u0120golf": 4614, "\u0120aktuelle": 4615, "\u0120dez": 4616, "esten": 4617, "\u0120coordin": 4618, "\u0120danke": 4619, "\u0120labour": 4620, "\u0120similar": 4621, "\u0120rail": 4622, "\u01202011": 4623, "\u0120thing": 4624, "\u0120gemeinsam": 4625, "\u0120stop": 4626, "\u0120befinden": 4627, "\u0120einger": 4628, "\u0120model": 4629, "\u0120bezug": 4630, "\u012032": 4631, "\u0120okt": 4632, "\u0120arran": 4633, "\u0120freedom": 4634, "\u00c3\u00b6m": 4635, "\u0120contain": 4636, "ama": 4637, "aussch": 4638, "\u0120london": 4639, "\u0120player": 4640, "\u0120congr": 4641, "\u0120geschichte": 4642, "02": 4643, "\u0120kommissions": 4644, "\u0120respon": 4645, "\u0120follows": 4646, "gesellschaft": 4647, "\u0120barcel": 4648, "\u0120fixed": 4649, "ley": 4650, "\u0120doing": 4651, "ico": 4652, "nehm": 4653, "\u0120update": 4654, "ging": 4655, "\u0120sent": 4656, "gesehen": 4657, "\u0120reihe": 4658, "\u0120leicht": 4659, "\u0120umfassen": 4660, "tended": 4661, "sweise": 4662, "\u0120actions": 4663, "\u0120certainly": 4664, "kont": 4665, "\u0120engl": 4666, "\u0120join": 4667, "\u0120russia": 4668, "\u0120choice": 4669, "\u0120exclus": 4670, "\u0120chance": 4671, "\u0120steu": 4672, "issions": 4673, "\u0120entwickelt": 4674, "l\u00c3\u00a4ndern": 4675, "\u0120blick": 4676, "\u0120bringen": 4677, "\u0120ebenso": 4678, "vere": 4679, "\u0120denke": 4680, "\u0120sagte": 4681, "mous": 4682, "\u0120buy": 4683, "\u0120six": 4684, "bre": 4685, "\u0120aktual": 4686, "\u0120termin": 4687, "\u0120tat": 4688, "\u0120chin": 4689, "\u0120los": 4690, "\u0120beruf": 4691, "\u0120track": 4692, "75": 4693, "\u0120pie": 4694, "\u0120upon": 4695, "mitteln": 4696, "karte": 4697, "\u0120body": 4698, "\u0120fax": 4699, "\u0120consequ": 4700, "ausch": 4701, "\u0120heart": 4702, "wur": 4703, "\u0120might": 4704, "\u0120feed": 4705, "\u0120ban": 4706, "\u0120bilder": 4707, "\u0120grand": 4708, "kr": 4709, "\u0120aufgenommen": 4710, "\u0120tim": 4711, "\u0120mel": 4712, "\u0120dialogue": 4713, "\u0120geh\u00c3\u00b6ren": 4714, "\u0120host": 4715, "\u0120bug": 4716, "\u0120cd": 4717, "\u00c3\u00a4sst": 4718, "\u0120prepar": 4719, "\u0120darum": 4720, "\u0120depart": 4721, "\u0120completely": 4722, "rid": 4723, "\u0120aufgabe": 4724, "\u0120adopt": 4725, "fonds": 4726, "schlag": 4727, "\u0120mitarbeiter": 4728, "\u012035": 4729, "\u0120treffen": 4730, "\u0120koordin": 4731, "\u0120mai": 4732, "\u0120verordnung": 4733, "\u0120contains": 4734, "\u0120setzen": 4735, "\u0120shows": 4736, "\u0120basic": 4737, "\u0120\u00c3\u00a4nderungen": 4738, "\u0120sug": 4739, "\u0120absolute": 4740, "gef\u00c3\u00bchrt": 4741, "rank": 4742, "ologie": 4743, "\u0120liefer": 4744, "\u0120diskuss": 4745, "ille": 4746, "\u012045": 4747, "\u0120v\u00c3\u00b6": 4748, "atell": 4749, "\u0120helfen": 4750, "\u0120gesamten": 4751, "\u0120federal": 4752, "\u0120mart": 4753, "\u0120status": 4754, "\u0120mitt": 4755, "ari": 4756, "\u0120gruppe": 4757, "\u0120stable": 4758, "\u0120ihres": 4759, "\u0120congratul": 4760, "\u0120seen": 4761, "ctors": 4762, "\u0120prim": 4763, "\u01201999": 4764, "\u0120consumers": 4765, "ernen": 4766, "ya": 4767, "\u0120s\u00c3\u00bcd": 4768, "fun": 4769, "\u0120gegenw": 4770, "\u0120justiz": 4771, "\u0120gr\u00c3\u00bcnden": 4772, "ita": 4773, "anced": 4774, "\u0120frieden": 4775, "fu": 4776, "\u0120hei\u00c3\u0141": 4777, "teilen": 4778, "\u0120agreements": 4779, "\u0120ukraine": 4780, "spiel": 4781, "\u0120freuen": 4782, "\u0120jedem": 4783, "\u0120established": 4784, "zi": 4785, "\u0120sp\u00c3\u00a4ter": 4786, "\u0120best\u00c3\u00a4t": 4787, "\u0120reise": 4788, "ew": 4789, "vis": 4790, "\u0120werk": 4791, "\u0120march": 4792, "\u0120ground": 4793, "\u0120discover": 4794, "\u0120schaff": 4795, "l\u00c3\u00a4ss": 4796, "\u0120ferner": 4797, "ables": 4798, "orf": 4799, "\u0120cultural": 4800, "\u0120lesen": 4801, "\u0120vorschriften": 4802, "haft": 4803, "\u0120auswirkungen": 4804, "01": 4805, "iment": 4806, "\u0120\u00c3\u00a4ndern": 4807, "\u0120larger": 4808, "\u0120recogn": 4809, "zt": 4810, "\u0120wto": 4811, "baren": 4812, "\u0120falls": 4813, "\u0120mitglieder": 4814, "\u0120black": 4815, "\u0120evalu": 4816, "\u0120funding": 4817, "mitglied": 4818, "\u0120response": 4819, "\u0120sus": 4820, "\u0120fert": 4821, "\u0120sieht": 4822, "\u0120developing": 4823, "\u0120iran": 4824, "\u0120ministerium": 4825, "\u0120alternative": 4826, "\u0120deren": 4827, "\u0120across": 4828, "\u0120virt": 4829, "\u0120warm": 4830, "\u0120hon": 4831, "\u0120229": 4832, "no": 4833, "\u0120white": 4834, "\u0120everyone": 4835, "\u0120familien": 4836, "\u0120haushalt": 4837, "\u0120abgeord": 4838, "\u0120neuer": 4839, "\u0120fach": 4840, "\u0120opportunities": 4841, "\u0120europes": 4842, "bedingungen": 4843, "ga": 4844, "\u0120known": 4845, "\u0120cast": 4846, "%.": 4847, "stre": 4848, "\u0120element": 4849, "\u0120phone": 4850, "j\u00c3\u00a4hr": 4851, "\u0120linux": 4852, "\u0120procedures": 4853, "bu": 4854, "\u0120lack": 4855, "\u0120repl": 4856, "\u0120commer": 4857, "zeitig": 4858, "aring": 4859, "\u0120regionen": 4860, "\u0120objective": 4861, "uted": 4862, "\u0120villa": 4863, "\u0120sant": 4864, "\u0120schem": 4865, "05": 4866, "frei": 4867, "\u0120along": 4868, "\u0120hostelsclub": 4869, "99": 4870, "ini": 4871, "iko": 4872, "\u0120buff": 4873, "\u0120liberal": 4874, "\u0120sch\u00c3\u00b6": 4875, "\u0120newsletter": 4876, "aging": 4877, "\u0120taking": 4878, "\u0120purch": 4879, "hens": 4880, "\u0120bek\u00c3\u00a4mpfung": 4881, "33": 4882, "\u0120bestimmt": 4883, "\u0120ganze": 4884, "\u0120ansicht": 4885, "ering": 4886, "\u0120rather": 4887, "\u0120erschein": 4888, "\u0120hung": 4889, "arbeitet": 4890, "\u0120anb": 4891, "pid": 4892, "\u0120umfang": 4893, "\u0120limited": 4894, "ieg": 4895, "\u0120format": 4896, "\u0120convention": 4897, "\u0120doppel": 4898, "\u0120comments": 4899, "\u0120fr\u00c3\u00bc": 4900, "\u0120higher": 4901, "\u0120island": 4902, "hlen": 4903, "\u0120resol": 4904, "\u0120heut": 4905, "\u0120received": 4906, "\u0120capac": 4907, "\u0120stability": 4908, "frieden": 4909, "isieren": 4910, "\u0120forum": 4911, "\u0120emer": 4912, "\u0120greater": 4913, "\u0120analy": 4914, "\u0120wide": 4915, "ery": 4916, "pekt": 4917, "pted": 4918, "\u0120debatte": 4919, "\u0120appropriate": 4920, "bus": 4921, "\u0120darin": 4922, "\u0120thanks": 4923, "\u0120guarantee": 4924, "\u00c3\u00a4tzen": 4925, "splan": 4926, "\u0120knowledge": 4927, "\u0120message": 4928, "\u0120kennt": 4929, "\u0120konferenz": 4930, "\u0120prime": 4931, "\u0120mitteilung": 4932, "\u0120erfahren": 4933, "\u0120parts": 4934, "\u0120php": 4935, "\u0120refle": 4936, "\u0120designed": 4937, "\u0120face": 4938, "\u0120herunter": 4939, "\u0120tats\u00c3\u00a4chlich": 4940, "\u0120ille": 4941, "\u0120entsch": 4942, "\u0120comment": 4943, "\u0120\u00c3\u00bcberein": 4944, "\u0120juni": 4945, "\u0120ihm": 4946, "\u0120priorities": 4947, "handen": 4948, "kei": 4949, "\u0120franz\u00c3\u00b6s": 4950, "statt": 4951, "\u0120outside": 4952, "\u0120infrastruct": 4953, "\u0120scient": 4954, "\u0120nav": 4955, "\u0120anders": 4956, "\u0120audio": 4957, "\u0120resort": 4958, "\u0120ski": 4959, "\u0120veh": 4960, "bericht": 4961, "\u0120\u00c3\u00b6ffentlichkeit": 4962, "\u0120lay": 4963, "\u0120held": 4964, "bald": 4965, "\u0120speed": 4966, "\u0120early": 4967, "\u0120involved": 4968, "ola": 4969, "\u0120investitionen": 4970, "\u0120schweiz": 4971, "old": 4972, "\u0120wall": 4973, "\u0120pen": 4974, "\u0120gesamt": 4975, "hinder": 4976, "\u0120practice": 4977, "\u0120increased": 4978, "\u0120twitter": 4979, "\u0120tage": 4980, "\u0120vict": 4981, "utt": 4982, "stein": 4983, "\u0120party": 4984, "\u0120soziale": 4985, "\u0120regierungen": 4986, "griffen": 4987, "\u0120verpflicht": 4988, "\u0120gruppen": 4989, "\u0120writ": 4990, "\u0120half": 4991, "\u0120correct": 4992, "\u00c3\u00bctzt": 4993, "richtungen": 4994, "\u0120options": 4995, "\u0120connection": 4996, "achsen": 4997, "\u0120vorhanden": 4998, "\u0120illeg": 4999, "\u0120forest": 5000, "aint": 5001, "\u0120regular": 5002, "\u0120allgemeinen": 5003, "\u0120satisf": 5004, "lant": 5005, "\u0120gl\u00c3\u00bcck": 5006, "\u0120successful": 5007, "w\u00c3\u00bcrd": 5008, "\u0120gestellt": 5009, "\u0120ladies": 5010, "li": 5011, "erve": 5012, "\u0120500": 5013, "\u0120suchen": 5014, "\u0120allein": 5015, "\u0120bekommen": 5016, "\u0120waste": 5017, "\u012031": 5018, "\u0120genie\u00c3\u0141en": 5019, "bung": 5020, "\u0120ausf\u00c3\u00bchr": 5021, "\u0120schn": 5022, "\u0120geschlossen": 5023, "\u0120term": 5024, "\u0120\u00c3\u00bcbr": 5025, "hy": 5026, "len": 5027, "\u0120selbstverst\u00c3\u00a4nd": 5028, "\u0120grundlage": 5029, "\u0120complex": 5030, "\u0120size": 5031, "\u0120kan": 5032, "\u0120richtig": 5033, "iding": 5034, "m\u00c3\u00a4\u00c3\u0141ig": 5035, "\u0120published": 5036, "\u0120ps": 5037, "\u012075": 5038, "\u0120config": 5039, "\u0120erfolgt": 5040, "\u0120draft": 5041, "gment": 5042, "\u0120vern": 5043, "ziehen": 5044, "\u0120treatment": 5045, "asser": 5046, "\u0120sicht": 5047, "\u0120oil": 5048, "\u0120beant": 5049, "\u0120move": 5050, "\u0120sto": 5051, "\u0120sobald": 5052, "\u0120\u00c3\u00a4hn": 5053, "itzer": 5054, "\u0120fail": 5055, "\u0120grunds": 5056, "\u0120gemeinschafts": 5057, "\u0120@": 5058, "\u0120ver\u00c3\u00b6ffentlicht": 5059, "\u0120rich": 5060, "\u0120furn": 5061, "lav": 5062, "\u0120agreed": 5063, "dr\u00c3\u00bcck": 5064, "\u0120erster": 5065, "\u0120kontrolle": 5066, "\u0120print": 5067, "\u0120achieved": 5068, "\u0120vorauss": 5069, "\u00c3\u00a4um": 5070, "\u0120zug": 5071, "aschinen": 5072, "\u0120dennoch": 5073, "\u0120wonder": 5074, "\u0120dimension": 5075, "ktiv": 5076, "\u0120anw": 5077, "\u0120benefit": 5078, "\u0120slo": 5079, "\u0120f\u00c3\u00b6r": 5080, "\u0120angem": 5081, "ane": 5082, "laf": 5083, "\u0120asked": 5084, "coming": 5085, "\u0120erstellt": 5086, "\u0120demon": 5087, "\u0120corpor": 5088, "\u0120ruh": 5089, "ovo": 5090, "\u0120barcelona": 5091, "\u0120equipped": 5092, "\u0120efficient": 5093, "\u0120stimme": 5094, "nes": 5095, "\u0120rum": 5096, "letzt": 5097, "\u0120wenden": 5098, "\u0120hot": 5099, "mel": 5100, "\u0120terra": 5101, "\u0120relig": 5102, "bek": 5103, "klus": 5104, "\u0120requires": 5105, "\u0120july": 5106, "\u0120gast": 5107, "uz": 5108, "\u0120launch": 5109, "\u0120unternehmens": 5110, "\u0120mont": 5111, "\u0120vari": 5112, "\u012090": 5113, "gliche": 5114, "\u0120having": 5115, "\u0120fischerei": 5116, "\u0120kontroll": 5117, "\u0120mentioned": 5118, "\u0120self": 5119, "\u0120genehmigt": 5120, "\u0120griechen": 5121, "\u0120wunder": 5122, "absch": 5123, "\u0120somit": 5124, "\u0120amount": 5125, "\u0120summer": 5126, "ads": 5127, "\u0120highl": 5128, "\u0120err": 5129, "\u0120tor": 5130, "ruf": 5131, "\u0120hohe": 5132, "altungs": 5133, "\u012070": 5134, "\u0120wegen": 5135, "l\u00c3\u00b6s": 5136, "\u0120living": 5137, "\u0120kleinen": 5138, "\u0120plat": 5139, "\u012000": 5140, "aupt": 5141, "\u0120payment": 5142, "sb": 5143, "ara": 5144, "\u0120berat": 5145, "back": 5146, "\u0120ster": 5147, "mbol": 5148, "\u0120independ": 5149, "\u0120dinge": 5150, "\u0120bzw": 5151, "\u0120bev\u00c3\u00b6l": 5152, "\u0120electron": 5153, "\u0120task": 5154, "\u0120spezie": 5155, "\u0120supported": 5156, "\u0120ernst": 5157, "\u0120t\u00c3\u00bcrkei": 5158, "\u0120pleas": 5159, "gruppe": 5160, "\u0120oktober": 5161, "\u0120direction": 5162, "\u0120untersuch": 5163, "put": 5164, "\u0120satell": 5165, "\u0120nam": 5166, "\u0120vehic": 5167, "\u0120dv": 5168, "este": 5169, "\u0120closed": 5170, "\u0120monitoring": 5171, "\u0120gegenw\u00c3\u00a4rt": 5172, "\u0120verf\u00c3\u00bcgen": 5173, "ierter": 5174, "\u0120gewalt": 5175, "arge": 5176, "\u0120austria": 5177, "\u0120mann": 5178, "\u0120enor": 5179, "\u0120vergleich": 5180, "hung": 5181, "strateg": 5182, "\u0120tex": 5183, "\u0120wichtiger": 5184, "\u0120documents": 5185, "haben": 5186, "ws": 5187, "ean": 5188, "\u0120bran": 5189, "\u0120gef\u00c3\u00a4hr": 5190, "standen": 5191, "70": 5192, "\u0120box": 5193, "\u0120rule": 5194, "kosten": 5195, "rad": 5196, "\u0120schaffen": 5197, "\u0120zweif": 5198, "\u0120gleichzeitig": 5199, "\u0120circ": 5200, "\u0120tragen": 5201, "\u0120tools": 5202, "\u0120gebiet": 5203, "nissen": 5204, "ason": 5205, "\u0120protect": 5206, "\u0120verkehrs": 5207, "lla": 5208, "abkommen": 5209, "\u0120erlau": 5210, "\u0120improvement": 5211, "mission": 5212, "etzung": 5213, "\u0120handeln": 5214, "\u0120sinn": 5215, "\u0120allows": 5216, "iedr": 5217, "\u0120took": 5218, "\u0120verm": 5219, "\u0120seinem": 5220, "denken": 5221, "ither": 5222, "\u0120parte": 5223, "\u0120combin": 5224, "\u0120democratic": 5225, "\u0120einheit": 5226, "\u0120georg": 5227, "\u0120memo": 5228, "altet": 5229, "\u0120k\u00c3\u00bcnft": 5230, "\u0120urban": 5231, "\u0120l\u00c3\u00a4sst": 5232, "\u0120entschlie\u00c3\u0141ung": 5233, "\u0120vizepr\u00c3\u00a4sident": 5234, "uses": 5235, "\u0120danken": 5236, "wohn": 5237, "\u0120stimmen": 5238, "afen": 5239, "\u0120impos": 5240, "-,": 5241, "\u0120mensch": 5242, "iterran": 5243, "\u0120vertragsverletz": 5244, "\u0120gentlemen": 5245, "artige": 5246, "ervice": 5247, "ourcen": 5248, "\u0120auto": 5249, "una": 5250, "ature": 5251, "rechts": 5252, "cription": 5253, "\u0120anfang": 5254, "\u0120aufent": 5255, "\u0120round": 5256, "\u0120datab": 5257, "\u0120verkauf": 5258, "\u0120sand": 5259, "itable": 5260, "\u0120kal": 5261, "teid": 5262, "works": 5263, "sprozess": 5264, "pack": 5265, "\u0120stunden": 5266, "\u0120brief": 5267, "son": 5268, "icien": 5269, "scht": 5270, "\u0120erm\u00c3\u00b6glich": 5271, "\u0120dring": 5272, "\u0120tagesordnung": 5273, "rug": 5274, "\u0120throughout": 5275, "lauf": 5276, "\u0120meinen": 5277, "indust": 5278, "\u0120wochen": 5279, "\u0120ausgestattet": 5280, "\u0120elektron": 5281, "\u0120browser": 5282, "\u0120kit": 5283, "\u0120avo": 5284, "xis": 5285, "\u0120fu\u00c3\u0141": 5286, "\u0120stark": 5287, "\u0120furthermore": 5288, "\u0120figures": 5289, "mented": 5290, "\u0120traff": 5291, "\u0120zahlreiche": 5292, "\u0120sorgen": 5293, "\u0120anerk": 5294, "\u0120wirtschaftliche": 5295, "\u0120gew\u00c3\u00a4hrle": 5296, "gef": 5297, "\u0120valid": 5298, "\u0120laufen": 5299, "ado": 5300, "\u0120december": 5301, "aking": 5302, "osen": 5303, "ball": 5304, "\u0120supply": 5305, "zeuge": 5306, "\u0120age": 5307, "\u0120ta": 5308, "ammlung": 5309, "\u0120moreover": 5310, "zy": 5311, "iture": 5312, "\u0120antworten": 5313, "\u0120\u00c3\u00a4nderungsantr\u00c3\u00a4ge": 5314, "\u0120l\u00c3\u00b6sungen": 5315, "\u0120east": 5316, "termin": 5317, "\u0120coll": 5318, "\u0120situated": 5319, "\u0120kredit": 5320, "\u0120abend": 5321, "\u0120either": 5322, "\u0120$": 5323, "\u0120k\u00c3\u00bcr": 5324, "\u0120st\u00c3\u00a4d": 5325, "\u0120exc": 5326, "ology": 5327, "schlie\u00c3\u0141end": 5328, "\u0120actually": 5329, "amera": 5330, "\u0120challenge": 5331, "\u0120ang": 5332, "\u0120koh": 5333, "\u0120selbstverst\u00c3\u00a4ndlich": 5334, "ris": 5335, "\u0120simpl": 5336, "\u0120langfrist": 5337, "zeugen": 5338, "\u0120kil": 5339, "bert": 5340, "board": 5341, "\u0120goo": 5342, "employ": 5343, "\u0120prevent": 5344, "lement": 5345, "\u0120got": 5346, "\u0120sex": 5347, "\u0120casino": 5348, "\u0120humanitarian": 5349, "\u0120strand": 5350, "\u0120annual": 5351, "wise": 5352, "\u0120os": 5353, "angeb": 5354, "\u00c3\u00a4nden": 5355, "\u0120vielf": 5356, "\u0120materials": 5357, "\u0120h\u00c3\u00a4ufig": 5358, "22": 5359, "\u0120gn": 5360, "nal": 5361, "\u0120compon": 5362, "\u0120urspr": 5363, "80": 5364, "\u0120turkey": 5365, "anten": 5366, "\u0120emissions": 5367, "mitt": 5368, "\u0120idea": 5369, "\u0120fru": 5370, "rang": 5371, "\u0120advant": 5372, "\u0120neigh": 5373, "quir": 5374, "stru": 5375, "ossen": 5376, "iete": 5377, "\u0120konzentr": 5378, "iance": 5379, "\u0120stelle": 5380, "\u00c3\u00bchr": 5381, "\u0120concept": 5382, "\u0120konkre": 5383, "\u0120verbindung": 5384, "\u0120sprache": 5385, "\u0120greece": 5386, "feld": 5387, "wurf": 5388, "86": 5389, "\u0120frequ": 5390, "m\u00c3\u00b6glichkeiten": 5391, "\u0120values": 5392, "\u0120mis": 5393, "34": 5394, "\u0120plug": 5395, "pl\u00c3\u00a4tze": 5396, "\u0120started": 5397, "\u0120happy": 5398, "\u0120built": 5399, "rechend": 5400, "kerung": 5401, "\u0120fle": 5402, "iellen": 5403, "tert": 5404, "\u0120proper": 5405, "\u0120anp": 5406, "\u0120bewer": 5407, "\u0120umst": 5408, "\u0120eigene": 5409, "\u0120430": 5410, "\u0120menu": 5411, "kraft": 5412, "\u0120lag": 5413, "\u0120krise": 5414, "inger": 5415, "\u0120eingehen": 5416, "\u0120russland": 5417, "col": 5418, "\u0120na": 5419, "laden": 5420, "\u0120challenges": 5421, "57": 5422, "astic": 5423, "\u0120aufgrund": 5424, "usion": 5425, "\u0120vorgesehen": 5426, "ruch": 5427, "\u0120brand": 5428, "\u0120reich": 5429, "\u0120que": 5430, "\u0120zentrum": 5431, "\u0120exhib": 5432, "\u0120beihilfen": 5433, "vious": 5434, "\u0120stage": 5435, "\u0120supports": 5436, "\u0120leave": 5437, "\u0120suggest": 5438, "\u0120declar": 5439, "\u0120commitment": 5440, "\u0120gek": 5441, "inding": 5442, "\u0120bestell": 5443, "\u0120method": 5444, "\u0120mang": 5445, "\u0120contribution": 5446, "\u0120augen": 5447, "sv": 5448, "\u0120erm\u00c3\u00b6glicht": 5449, "\u00c3\u00b6hn": 5450, "schw": 5451, "\u0120woche": 5452, "\u0120walk": 5453, "\u0120goods": 5454, "\u0120v\u00c3\u00b6llig": 5455, "\u0120fraktion": 5456, "\u0120perh": 5457, "version": 5458, "\u0120krie": 5459, "\u0120context": 5460, "\u0120beh\u00c3\u00b6rden": 5461, "\u0120ara": 5462, "\u0120bedarf": 5463, "\u0120january": 5464, "\u0120erfolgreich": 5465, "\u0120gd": 5466, "\u0120amster": 5467, "\u0120nutzung": 5468, "\u0120measure": 5469, "\u0120unseres": 5470, "\u0120processed": 5471, "\u0120bot": 5472, "\u0120une": 5473, "\u0120award": 5474, "\u0120iv": 5475, "\u0120images": 5476, "hunder": 5477, "ills": 5478, "\u0120cook": 5479, "\u00c3\u00b6st": 5480, "\u0120perhaps": 5481, "\u0120lernen": 5482, "\u0120secure": 5483, "cont": 5484, "\u0120expected": 5485, "\u0120flexib": 5486, "ids": 5487, "ennung": 5488, "\u0120betreffen": 5489, "l\u00c3\u00a4nd": 5490, "\u0120betroffen": 5491, "\u0120kommunikation": 5492, "\u0120hatten": 5493, "aged": 5494, "\u0120guten": 5495, "\u0120obvious": 5496, "\u0120structural": 5497, "\u0120anzahl": 5498, "\u0120lebensmittel": 5499, "\u0120nahe": 5500, "illa": 5501, "\u0120talk": 5502, "\u0120capacity": 5503, "\u0120verteid": 5504, "erences": 5505, "ritts": 5506, "pers": 5507, "r\u00c3\u00bc": 5508, "\u0120hei\u00c3\u0141t": 5509, "\u0120condition": 5510, "\u0120levels": 5511, "ees": 5512, "erweise": 5513, "\u0120deutsche": 5514, "\u0120gesamte": 5515, "\u0120temper": 5516, "\u0120erg\u00c3\u00a4n": 5517, "\u0120beschr\u00c3\u00a4n": 5518, "phas": 5519, "\u0120discussion": 5520, "04": 5521, "\u0120terr": 5522, "\u0120clar": 5523, "\u0120quickly": 5524, "\u00c3\u00a4glich": 5525, "\u0120matters": 5526, "inter": 5527, "amb": 5528, "\u0120einzig": 5529, "\u0120durchgef\u00c3\u00bchrt": 5530, "--------": 5531, "\u0120datei": 5532, "\u0120copyr": 5533, "\u0120announ": 5534, "\u0120kommissarin": 5535, "\u0120legislative": 5536, "\u0120association": 5537, "kontro": 5538, "ush": 5539, "\u0120ready": 5540, "\u0120fan": 5541, "\u0120inhalt": 5542, "\u00c3\u00a4te": 5543, "\u0120traditional": 5544, "\u0120defen": 5545, "\u0120parame": 5546, "\u0120ago": 5547, "pan": 5548, "\u0120pictures": 5549, "igungen": 5550, "\u0120ress": 5551, "\u0120gold": 5552, "elves": 5553, "\u0120partnerschaft": 5554, "\u0120renov": 5555, "unsch": 5556, "\u0120dir": 5557, "clear": 5558, "ius": 5559, "iately": 5560, "\u0120verz": 5561, "\u0120science": 5562, "\u0120besondere": 5563, "\u0120aspects": 5564, "\u0120caus": 5565, "\u0120verbunden": 5566, "\u0120surround": 5567, "\u0120leading": 5568, "\u0120tell": 5569, "ounts": 5570, "\u0120schl\u00c3\u00bcssel": 5571, "\u0120draw": 5572, "\u0120eindeut": 5573, "\u0120regarding": 5574, "\u0120sites": 5575, "\u0120transparency": 5576, "\u0120zul": 5577, "dle": 5578, "\u0120symbol": 5579, "\u0120popular": 5580, "\u0120infrastructure": 5581, "\u0120interesting": 5582, "zeichnung": 5583, "\u012034": 5584, "\u0120summit": 5585, "\u0120flughafen": 5586, "\u0120sei": 5587, "\u00c3\u00a4chen": 5588, "\u0120bestimmte": 5589, "ques": 5590, "wertung": 5591, "\u0120highly": 5592, "\u0120dezember": 5593, "pal": 5594, "\u0120ire": 5595, "ript": 5596, "\u0120\u00c3\u00bcberwach": 5597, "\u0120integrated": 5598, "\u00c3\u00bcndet": 5599, "\u0120ways": 5600, "\u00c3\u00b6rper": 5601, "\u0120instruments": 5602, "\u0120dail": 5603, "\u0120shop": 5604, "achtung": 5605, "\u0120minimum": 5606, "\u0120accommodation": 5607, "\u0120marketing": 5608, "lli": 5609, "\u0120technische": 5610, "\u0120photos": 5611, "\u0120relevant": 5612, "\u0120steps": 5613, "\u0120easily": 5614, "\u0120sales": 5615, "\u0120electric": 5616, "kur": 5617, "itra": 5618, "\u0120ansatz": 5619, "\u0120limit": 5620, "\u0120sommer": 5621, "\u0120bab": 5622, "\u0120conven": 5623, "03": 5624, "aced": 5625, "\u0120elements": 5626, "\u0120acquis": 5627, "dis": 5628, "\u0120bir": 5629, "\u0120ven": 5630, "mehr": 5631, "pa": 5632, "\u0120written": 5633, "\u0120decided": 5634, "()": 5635, "\u0120plus": 5636, "wie": 5637, "\u0120kir": 5638, "\u0120gro\u00c3\u0141er": 5639, "\u0120workers": 5640, "\u0120verbessern": 5641, "\u0120detailed": 5642, "\u0120unions": 5643, "\u0120amsterdam": 5644, "mat": 5645, "stances": 5646, "alle": 5647, "mod": 5648, "\u0120wirtschaftlichen": 5649, "\u0120m\u00c3\u00a4n": 5650, "\u0120maximum": 5651, "\u0120thems": 5652, "\u0120applies": 5653, "\u0120zus\u00c3\u00a4tzliche": 5654, "box": 5655, "\u0120daily": 5656, "\u0120regeln": 5657, "\u0120ministers": 5658, "\u0120bat": 5659, "\u01201997": 5660, "\u0120zeigen": 5661, "punkte": 5662, "astrop": 5663, "\u0120compre": 5664, "\u0120themselves": 5665, "iens": 5666, "\u0120gesundheits": 5667, "cs": 5668, "iglich": 5669, "\u0120pr\u00c3\u00a4sent": 5670, "forderung": 5671, "ded": 5672, "\u0120improved": 5673, "\u0120languages": 5674, "\u0120h\u00c3\u00a4tte": 5675, "\u0120lediglich": 5676, "ussels": 5677, "\u0120overall": 5678, "\u0120ost": 5679, "21": 5680, "ences": 5681, "\u0120zufrieden": 5682, "\u0120spir": 5683, "\u0120zweitens": 5684, "\u0120movement": 5685, "\u0120pages": 5686, "\u00c3\u00a4ngt": 5687, "\u01204303": 5688, "\u0120ram": 5689, "ances": 5690, "\u0120appo": 5691, "\u0120wichtigen": 5692, "\u0120homepage": 5693, "\u0120vorsitz": 5694, "\u0120style": 5695, "\u0120griechenland": 5696, "\u0120ganzen": 5697, "spr\u00c3\u00a4sident": 5698, "\u0120friends": 5699, "\u0120anzuzeigen": 5700, "f\u00c3\u00a4": 5701, "\u0120exact": 5702, "\u0120google": 5703, "09": 5704, "\u0120finn": 5705, "\u0120transparenz": 5706, "\u0120museum": 5707, "richten": 5708, "ato": 5709, "\u0120independent": 5710, "sicherheit": 5711, "\u0120zuletzt": 5712, "\u01201998": 5713, "\u0120accom": 5714, "lines": 5715, "\u0120swiss": 5716, "preis": 5717, "industrie": 5718, "usst": 5719, "\u0120audit": 5720, "zeichen": 5721, "esch": 5722, "\u0120h\u00c3\u00b6r": 5723, "proje": 5724, "\u0120schiff": 5725, "\u0120ult": 5726, "\u0120save": 5727, "\u0120\u00c3\u00bcbrigen": 5728, "\u0120sozialen": 5729, "\u0120fon": 5730, "ffee": 5731, "\u0120selected": 5732, "\u0120rede": 5733, "\u0120300": 5734, "sprogramm": 5735, "wind": 5736, "\u0120mos": 5737, "\u0120berg": 5738, "08": 5739, "cia": 5740, "\u0120bein": 5741, "\u0120selection": 5742, "\u0120thumb": 5743, "\u0120ausgew": 5744, "\u0120ecu": 5745, "orial": 5746, "\u0120grundlegen": 5747, "urance": 5748, "\u0120presented": 5749, "\u0120bereiche": 5750, "\u0120largest": 5751, "iciency": 5752, "\u00c3\u00a4st": 5753, "cks": 5754, "\u0120oblig": 5755, "zustellen": 5756, "\u0120seems": 5757, "\u0120phys": 5758, "ena": 5759, "\u0120vertragsverletzungsverfahren": 5760, "\u0120europ\u00c3\u00a4ischer": 5761, "anzen": 5762, "\u0120street": 5763, "dra": 5764, "\u0120agency": 5765, "annte": 5766, "head": 5767, "\u0120konnte": 5768, "\u0120kingdom": 5769, "\u0120anne": 5770, "stead": 5771, "\u0120brussels": 5772, "\u0120director": 5773, "sl": 5774, "\u0120sonder": 5775, "\u0120bezahl": 5776, "64": 5777, "\u0120balance": 5778, "fa": 5779, "\u0120mun": 5780, "\u01202012": 5781, "\u0120cla": 5782, "\u0120br\u00c3\u00bcssel": 5783, "\u0120construction": 5784, "\u0120drit": 5785, "\u0120aktuellen": 5786, "\u0120ign": 5787, "\u0120fl\u00c3\u00bc": 5788, "leitet": 5789, "\u0120africa": 5790, "\u0120m\u00c3\u00a4rz": 5791, "\u0120kreat": 5792, "ghan": 5793, "ued": 5794, "\u0120pas": 5795, "abon": 5796, "haupt": 5797, "\u0120zwar": 5798, "\u0120barro": 5799, "bezogen": 5800, "erien": 5801, "\u0120games": 5802, "\u0120funktioniert": 5803, "\u0120vereinigten": 5804, "\u0120prob": 5805, "ora": 5806, "\u0120komment": 5807, "\u0120standpunkt": 5808, "\u0120represented": 5809, "\u0120delegation": 5810, "\u0120demonstr": 5811, "ses": 5812, "\u0120benutzen": 5813, "\u0120behind": 5814, "ground": 5815, "\u0120mas": 5816, "\u0120besuchen": 5817, "\u0120worldwide": 5818, "\u0120vertreter": 5819, "\u0120vorgehen": 5820, "pression": 5821, "\u01202013": 5822, "\u0120population": 5823, "\u0120property": 5824, "\u0120buffet": 5825, "\u0120radio": 5826, "figur": 5827, "iro": 5828, "\u0120rechtsvorschriften": 5829, "\u0120innen": 5830, "\u0120emphas": 5831, "\u0120conflic": 5832, "nail": 5833, "rict": 5834, "\u01201995": 5835, "\u0120bestand": 5836, "\u0120flash": 5837, "\u0120websites": 5838, "\u0120benefits": 5839, "\u0120commercial": 5840, "\u0120tu": 5841, "\u0120fuer": 5842, "\u0120experien": 5843, "\u0120reached": 5844, "\u0120jahrhunder": 5845, "\u0120\u00c3\u00b6ff": 5846, "inted": 5847, "\u0120wid": 5848, "\u0120rub": 5849, "house": 5850, "\u0120erwarten": 5851, "\u0120ireland": 5852, "\u0120beachten": 5853, "\u0120beginnen": 5854, "\u0120italian": 5855, "\u0120automatisch": 5856, "\u0120types": 5857, "\u0120k\u00c3\u00bcche": 5858, "inform": 5859, "\u0120hohen": 5860, "\u0120scheint": 5861, "leb": 5862, "\u0120american": 5863, "\u0120interested": 5864, "\u0120angeboten": 5865, "\u0120nahm": 5866, "\u0120plant": 5867, "\u0120comprom": 5868, "\u0120blue": 5869, "\u0120microsoft": 5870, "altungen": 5871, "\u0120aktivieren": 5872, "\u0120konsult": 5873, "\u0120comprehens": 5874, "\u0120sache": 5875, "wander": 5876, "gegen": 5877, "estens": 5878, "\u0120instead": 5879, "\u0120anony": 5880, "\u0120kategor": 5881, "pective": 5882, ");": 5883, "\u0120afghan": 5884, "\u01201996": 5885, "\u0120lisbon": 5886, "\u0120spre": 5887, "\u0120immediately": 5888, "half": 5889, "\u0120restrict": 5890, "\u0120mediterran": 5891, "\u0120richtige": 5892, "\u0120technologie": 5893, "stelle": 5894, "\u0120thumbnail": 5895, "\u0120vertrauen": 5896, "cast": 5897, "\u0120recently": 5898, "\u00c3\u00a4gen": 5899, "\u0120love": 5900, "strategie": 5901, "ateral": 5902, "\u0120zeitpunkt": 5903, "\u0120promote": 5904, "\u0120bedroom": 5905, "\u0120gefunden": 5906, "\u0120juli": 5907, "\u0120k\u00c3\u00b6nigreich": 5908, "\u0120lik": 5909, "\u0120dang": 5910, "\u0120journal": 5911, "\u0120..": 5912, "\u0120leaders": 5913, "................................": 5914, "\u0120tier": 5915, "\u0120verabsch": 5916, "\u0120client": 5917, "\u0120sort": 5918, "\u0120migration": 5919, "\u0120genug": 5920, "seite": 5921, "ym": 5922, "\u0120america": 5923, "\u0120interests": 5924, "\u0120criter": 5925, "\u0120writing": 5926, "neten": 5927, "\u0120changed": 5928, "\u0120lam": 5929, "\u0120series": 5930, "\u0120princi": 5931, "\u0120copyright": 5932, "\u00c3\u00a4ude": 5933, "ibilities": 5934, "\u0120ga": 5935, "\u0120nacht": 5936, "\u0120familie": 5937, "\u0120letzte": 5938, "\u0120distrib": 5939, "\u0120smo": 5940, "\u0120unemploy": 5941, "\u0120gr\u00c3\u00b6\u00c3\u0141eres": 5942, "elines": 5943, "iente": 5944, "\u0120meines": 5945, "mm": 5946, "\u0120liss": 5947, "\u0120herausforderungen": 5948, "\u0120solidarity": 5949, "\u0120aufmerksamkeit": 5950, "\u0120gives": 5951, "ichert": 5952, "eth": 5953, "uche": 5954, "\u0120keiner": 5955, "geber": 5956, "\u0120erreich": 5957, "\u0120poor": 5958, "\u0120kosovo": 5959, "\u0120multi": 5960, "stoffe": 5961, "\u0120university": 5962, "\u0120beds": 5963, "\u0120purpose": 5964, "\u0120intell": 5965, "bourg": 5966, "\u0120braucht": 5967, "\u0120calls": 5968, "\u0120anz": 5969, "\u0120stad": 5970, "\u0120vorliegen": 5971, "\u0120phase": 5972, "ls": 5973, "\u0120foot": 5974, "\u0120drive": 5975, "ilen": 5976, "fahrens": 5977, "\u0120gr\u00c3\u00b6\u00c3\u0141te": 5978, "zone": 5979, "izes": 5980, "\u0120verring": 5981, "\u0120persons": 5982, "07": 5983, "\u0120database": 5984, "\u0120condu": 5985, "\u0120erw\u00c3\u00a4hn": 5986, "06": 5987, "ienz": 5988, "\u0120wan": 5989, "orge": 5990, "\u00c3\u00bctzen": 5991, "\u0120leistungs": 5992, "\u0120prepared": 5993, "\u0120asyl": 5994, "zielle": 5995, "\u0120quiet": 5996, "ams": 5997, "cco": 5998, "body": 5999, "\u0120eigentlich": 6000, "\u0120todays": 6001, "\u0120euch": 6002, "\u0120geeign": 6003, "\u0120wire": 6004, "\u0120bessere": 6005, "\u0120stellungnahme": 6006, "lier": 6007, "urop": 6008, "\u0120waters": 6009, "itive": 6010, "action": 6011, "fi": 6012, "\u0120base": 6013, "\u00c3\u00a4mp": 6014, "\u0120zweiten": 6015, "\u0120competitiveness": 6016, "\u0120webseite": 6017, "\u0120study": 6018, "\u0120setzt": 6019, "\u0120behalf": 6020, "\u0120sechs": 6021, "code": 6022, "\u0120technologies": 6023, "\u0120volks": 6024, "ense": 6025, "\u0120maria": 6026, "\u0120197": 6027, "\u0120--": 6028, "imming": 6029, "where": 6030, "lassen": 6031, "\u0120lissabon": 6032, "\u0120machine": 6033, "\u0120implemented": 6034, "\u0120ern\u00c3\u00a4hr": 6035, "mand": 6036, "\u0120komprom": 6037, "\u0120forschungs": 6038, "\u0120recover": 6039, "\u0120vorbe": 6040, "\u0120mountain": 6041, "\u0120agrar": 6042, "book": 6043, "\u0120advert": 6044, "\u0120medium": 6045, "\u0120schwar": 6046, "gas": 6047, "\u0120band": 6048, "\u0120eleg": 6049, "\u0120antrag": 6050, "\u0120related": 6051, "\u0120billion": 6052, "cd": 6053, "\u0120wettbewerbsf\u00c3\u00a4higkeit": 6054, "ork": 6055, "\u0120marg": 6056, "\u0120territ": 6057, "\u0120poland": 6058, "legung": 6059, "\u0120\u00c3\u00a4u\u00c3\u0141erst": 6060, "\u0120hom": 6061, "\u0120equal": 6062, "\u0120bestimmungen": 6063, "\u0120delivery": 6064, "ender": 6065, "\u0120ep": 6066, "\u0120einzige": 6067, "\u0120pil": 6068, "aza": 6069, "\u0120meinem": 6070, "\u0120h\u00c3\u00b6he": 6071, "\u0120offiz": 6072, "barkeit": 6073, "meld": 6074, "\u0120mission": 6075, "\u0120fine": 6076, "\u0120dipl": 6077, "\u0120schen": 6078, "\u0120mix": 6079, "entur": 6080, "\u0120attack": 6081, "\u0120landes": 6082, "\u0120finanzierung": 6083, "\u0120vergessen": 6084, "kommens": 6085, "\u0120\u00c3\u00a4nderung": 6086, "\u0120principles": 6087, "zech": 6088, "\u0120approved": 6089, "\u0120angemessen": 6090, "handel": 6091, "orgung": 6092, "2010": 6093, "\u0120michel": 6094, "ilit": 6095, "\u0120hoff": 6096, "\u0120wikitra": 6097, "kn": 6098, "\u0120allowed": 6099, "\u0120voting": 6100, "\u0120verbind": 6101, "\u0120verbesser": 6102, "hab": 6103, "\u0120verwaltung": 6104, "\u0120wikitravel": 6105, "\u0120path": 6106, "\u0120liz": 6107, "\u0120rue": 6108, "entlich": 6109, "\u0120umgebung": 6110, "ological": 6111, "\u00c3\u00a4uft": 6112, "euro": 6113, "\u0120reservation": 6114, "\u0120kolleg": 6115, "\u0120beginning": 6116, "eff": 6117, "ached": 6118, "\u0120eingesetzt": 6119, "mas": 6120, "\u0120activity": 6121, "\u0120button": 6122, "\u0120dritt": 6123, "\u0120inf": 6124, "\u0120mys": 6125, "\u0120ey": 6126, "\u0120late": 6127, "verage": 6128, "\u0120listen": 6129, "\u0120feature": 6130, "\u0120ehr": 6131, "\u0120sprachen": 6132, "\u0120fab": 6133, "\u012099": 6134, "\u0120bald": 6135, "onnen": 6136, "\u0120fant": 6137, "\u0120hall": 6138, "ares": 6139, "\u0120sup": 6140, "\u0120spezif": 6141, "\u0120boot": 6142, "\u0120plans": 6143, "\u0120colour": 6144, "\u0120erh\u00c3\u00a4ltlich": 6145, "\u0120unten": 6146, "\u0120januar": 6147, "\u0120zoll": 6148, "\u0120effects": 6149, "\u0120appear": 6150, "icated": 6151, "\u0120getan": 6152, "\u0120dateien": 6153, "31": 6154, "\u0120j\u00c3\u00a4hr": 6155, "\u0120deep": 6156, "ney": 6157, "\u0120yourself": 6158, "\u0120goes": 6159, "zeiten": 6160, "\u0120behandelt": 6161, "ael": 6162, "\u0120firma": 6163, "pfer": 6164, "\u00c3\u00a4lter": 6165, "\u0120beispielsweise": 6166, "\u0120stress": 6167, "\u0120f\u00c3\u00b6rdern": 6168, "sie": 6169, "chsel": 6170, "rahmen": 6171, "\u0120majority": 6172, "\u0120middle": 6173, "\u0120dise": 6174, "\u0120aspekte": 6175, "\u0120secondly": 6176, "freund": 6177, "endes": 6178, "\u0120considered": 6179, "\u0120automatically": 6180, "\u0120sense": 6181, "\u0120vollst\u00c3\u00a4ndig": 6182, "\u0120zivil": 6183, "\u0120w\u00c3\u00bcnschen": 6184, "fl\u00c3\u00a4che": 6185, "ych": 6186, "gern": 6187, "\u0120einf\u00c3\u00bchrung": 6188, "\u0120init": 6189, "\u0120benach": 6190, "\u0120paar": 6191, "\u0120reduce": 6192, "\u0120dessen": 6193, "\u0120vereinfach": 6194, "\u0120verbessert": 6195, "bas": 6196, "folge": 6197, "\u0120erstens": 6198, "ault": 6199, "gn": 6200, "\u0120youth": 6201, "lose": 6202, "\u0120though": 6203, "\u0120binding": 6204, "\u0120decor": 6205, "\u0120tho": 6206, "\u0120produktion": 6207, "\u0120else": 6208, "iber": 6209, "systeme": 6210, "\u0120gr\u00c3\u00b6\u00c3\u0141ten": 6211, "\u0120institutionen": 6212, "\u0120fas": 6213, "\u0120nachbar": 6214, "\u0120bringt": 6215, "\u0120l\u00c3\u00a4ndlichen": 6216, "\u0120neighbour": 6217, "\u0120describ": 6218, "\u0120polen": 6219, "\u0120disp": 6220, "\u0120atmosphere": 6221, "\u0120domin": 6222, "\u0120interpre": 6223, "\u0120color": 6224, "\u0120pun": 6225, "\u0120setting": 6226, "\u0120businesses": 6227, "\u0120crucial": 6228, "\u0120nuclear": 6229, "\u0120begr\u00c3\u00bc\u00c3\u0141t": 6230, "cement": 6231, "\u0120financing": 6232, "\u0120nationale": 6233, "\u0120korre": 6234, "\u0120clients": 6235, "\u0120employees": 6236, "\u0120f\u00c3\u00a4llen": 6237, "\u0120cards": 6238, "ula": 6239, "\u0120amerikan": 6240, "iated": 6241, "orden": 6242, "\u0120vac": 6243, "umin": 6244, "regel": 6245, "rochen": 6246, "\u0120kenn": 6247, "\u0120herren": 6248, "\u0120coming": 6249, "\u0120deutschen": 6250, "greifen": 6251, "\u0120bundesminister": 6252, "will": 6253, "\u0120herzlich": 6254, "\u0120tut": 6255, "\u0120parliaments": 6256, "zent": 6257, "\u0120verstehen": 6258, "affen": 6259, "\u0120beob": 6260, "emb": 6261, "\u0120squ": 6262, "alter": 6263, "\u0120rapid": 6264, "\u0120poker": 6265, "\u0120zweck": 6266, "anlage": 6267, "bit": 6268, "\u0120aufbau": 6269, "\u0120useful": 6270, "spr\u00c3\u00bc": 6271, "ta": 6272, "\u0120applied": 6273, "\u0120swimming": 6274, "\u0120efficiency": 6275, "\u0120fill": 6276, "ivity": 6277, "\u0120leisten": 6278, "leistungs": 6279, "\u0120wrong": 6280, "\u0120tau": 6281, "\u0120aktivit\u00c3\u00a4ten": 6282, "ester": 6283, "\u0120kennen": 6284, "\u0120scientific": 6285, "\u0120czech": 6286, "\u0120niedr": 6287, "\u0120fields": 6288, "ifik": 6289, "\u0120sometimes": 6290, "\u0120analysis": 6291, "\u00c3\u00a4ger": 6292, "\u0120upgra": 6293, "\u0120solchen": 6294, "\u0120angegeben": 6295, "\u0120constitution": 6296, "\u0120contribute": 6297, "\u0120assessment": 6298, "\u0120acht": 6299, "sport": 6300, "\u0120sale": 6301, "\u0120reli": 6302, "\u0120administration": 6303, "\u0120fishing": 6304, "36": 6305, "volle": 6306, "\u0120cos": 6307, "\u0120consultation": 6308, "\u0120infrastruktur": 6309, "\u0120shopping": 6310, "num": 6311, "\u0120provisions": 6312, "\u0120thought": 6313, "\u0120kostet": 6314, "\u0120comprehensive": 6315, "zwe": 6316, "\u0120doll": 6317, "\u0120flexible": 6318, "aler": 6319, "vin": 6320, "\u0120guide": 6321, "\u0120reception": 6322, "schreit": 6323, "\u0120transparent": 6324, "\u0120spac": 6325, "\u0120reforms": 6326, "richtlinie": 6327, "\u0120anforderungen": 6328, "\u0120uner": 6329, "\u0120j\u00c3\u00bcn": 6330, "herlands": 6331, "\u0120guidelines": 6332, "28": 6333, "\u0120touch": 6334, "\u0120conver": 6335, "\u0120stabilit\u00c3\u00a4t": 6336, "\u0120versuchen": 6337, "\u0120wellness": 6338, "\u0120lob": 6339, "\u0120menschenrechte": 6340, "\u0120tourism": 6341, "\u0120fel": 6342, "\u0120erf": 6343, "\u0120oben": 6344, "\u0120erfahrung": 6345, "\u0120eingerichtet": 6346, "\u0120bade": 6347, "\u0120picture": 6348, "\u0120bege": 6349, "\u0120grenzen": 6350, "ierende": 6351, "endet": 6352, "\u0120master": 6353, "vertrag": 6354, "\u0120vul": 6355, "\u0120sports": 6356, "\u0120kannst": 6357, "\u0120stil": 6358, "\u0120urlaub": 6359, "\u0120zehn": 6360, "leistung": 6361, "\u0120military": 6362, "\u0120pleased": 6363, "\u0120kontin": 6364, "based": 6365, "\u0120erwartet": 6366, "\u0120screen": 6367, "ech": 6368, "\u0120]": 6369, "gere": 6370, "\u0120catalog": 6371, "gehend": 6372, "\u0120kampf": 6373, "\u0120bev\u00c3\u00b6lkerung": 6374, "\u0120dage": 6375, "\u0120ech": 6376, "sektor": 6377, "ielt": 6378, "\u0120organisations": 6379, "\u0120g\u00c3\u00bcnst": 6380, "adresse": 6381, "\u0120structure": 6382, "uert": 6383, "olid": 6384, "ertain": 6385, "test": 6386, "km": 6387, "\u0120bahn": 6388, "\u0120behoben": 6389, "arily": 6390, "ograf": 6391, "\u0120priorit\u00c3\u00a4ten": 6392, "entwicklung": 6393, "\u0120repe": 6394, "\u0120adresse": 6395, "\u00c3\u00a4mt": 6396, "\u0120watch": 6397, "\u0120stellvertreten": 6398, "\u0120dauer": 6399, "\u0120century": 6400, "\u0120welcomes": 6401, "\u0120alone": 6402, "m\u00c3\u00a4r": 6403, "\u0120village": 6404, "\u0120bay": 6405, "\u0120interessen": 6406, "\u0120teach": 6407, "\u00c3\u00bccken": 6408, "\u012002": 6409, "\u0120madrid": 6410, "reise": 6411, "\u0120weak": 6412, "\u0120carried": 6413, "\u012036": 6414, "\u0120renew": 6415, "\u0120sprach": 6416, "ande": 6417, "\u0120enterprise": 6418, "\u0120angaben": 6419, "f\u00c3\u00bcgen": 6420, "\u0120spanish": 6421, "\u0120collection": 6422, "\u0120institutional": 6423, "\u0120alb": 6424, "utr": 6425, "sens": 6426, "organisation": 6427, "theless": 6428, "\u0120jean": 6429, "\u0120umfasst": 6430, "\u0120essen": 6431, "\u0120anstr": 6432, "\u0120tourist": 6433, "\u0120diplom": 6434, "\u0120prag": 6435, "\u0120password": 6436, "wood": 6437, "ental": 6438, "\u0120anything": 6439, "ously": 6440, "\u0120gall": 6441, "\u0120studio": 6442, "\u0120nevertheless": 6443, "\u0120schaffung": 6444, "\u0120vision": 6445, "\u0120folgender": 6446, "\u0120wine": 6447, "\u0120reality": 6448, "\u0120netherlands": 6449, "\u0120gerecht": 6450, "\u0120rum\u00c3\u00a4n": 6451, "\u0120candid": 6452, "\u0120allgemeine": 6453, "\u0120registered": 6454, "sam": 6455, "wesen": 6456, "\u0120session": 6457, "\u0120k\u00c3\u00bcnst": 6458, "ktive": 6459, "\u0120constant": 6460, "\u0120exception": 6461, "\u0120diskussion": 6462, "\u0120vorteile": 6463, "\u0120usually": 6464, "schech": 6465, "staats": 6466, "\u0120frankf": 6467, "\u0120declaration": 6468, "nungs": 6469, "\u0120damen": 6470, "\u0120cause": 6471, "\u0120bef\u00c3\u00bcr": 6472, "\u0120contract": 6473, "\u0120unbed": 6474, "\u0120notes": 6475, "\u0120erzielt": 6476, "\u0120mm": 6477, "\u0120centr": 6478, "\u0120interior": 6479, "\u0120generation": 6480, "\u0120initiatives": 6481, "ades": 6482, "\u0120lies": 6483, "\u0120description": 6484, "\u0120adjust": 6485, "\u0120offered": 6486, "lege": 6487, "\u0120wein": 6488, "\u0120entscheidungen": 6489, "kauf": 6490, "\u0120cohes": 6491, "\u0120kombin": 6492, "verkehrs": 6493, "\u0120suite": 6494, "\u0120counter": 6495, "\u0120erstellen": 6496, "\u0120stra\u00c3\u0141en": 6497, "comm": 6498, "\u0120pension": 6499, "ilit\u00c3\u00a4t": 6500, "\u0120firm": 6501, "\u0120diskut": 6502, "\u0120congratulate": 6503, "\u0120sonst": 6504, "fter": 6505, "\u0120auftrag": 6506, "heben": 6507, "\u0120durchf\u00c3\u00bchrung": 6508, "\u0120urg": 6509, "hop": 6510, "idge": 6511, "\u0120otherwise": 6512, "\u0120erneut": 6513, "\u0120february": 6514, "itzerland": 6515, "\u0120verhalten": 6516, "\u0120lower": 6517, "ional": 6518, "\u0120ausdruck": 6519, "it\u00c3\u00a4re": 6520, "\u0120begr\u00c3\u00bc\u00c3\u0141e": 6521, "\u0120erd": 6522, "\u0120erach": 6523, "zieht": 6524, "\u0120liebe": 6525, "\u0120banks": 6526, "\u00c3\u00a4ngen": 6527, "\u0120platform": 6528, "\u0120dub": 6529, "\u0120john": 6530, "nungen": 6531, "akter": 6532, "\u0120manager": 6533, "\u0120grenz\u00c3\u00bcber": 6534, "\u0120remov": 6535, "\u0120norm": 6536, "\u0120dau": 6537, "\u0120zuver": 6538, "lds": 6539, "idung": 6540, "\u0120peter": 6541, "ente": 6542, "\u0120costa": 6543, "\u0120creation": 6544, "emit": 6545, "\u0120poll": 6546, "\u0120aufenthalt": 6547, "alled": 6548, "icherung": 6549, "\u0120wee": 6550, "werte": 6551, "\u0120insel": 6552, "\u0120spieler": 6553, "\u0120dagegen": 6554, "\u0120bos": 6555, "ata": 6556, "eben": 6557, "\u0120thin": 6558, "\u0120laden": 6559, "here": 6560, "tr\u00c3\u00a4ge": 6561, "management": 6562, "\u0120kenntnis": 6563, "\u0120h\u00c3\u00b6her": 6564, "27": 6565, "\u0120gleichen": 6566, "\u0120separate": 6567, "reten": 6568, "\u0120ers": 6569, "\u00c3\u00bchungen": 6570, "leitung": 6571, "\u0120criteria": 6572, "karten": 6573, "\u0120purs": 6574, "\u0120spo": 6575, "\u0120indem": 6576, "\u0120trend": 6577, "\u0120geworden": 6578, "\u0120kulture": 6579, "othe": 6580, "\u0120impl": 6581, "\u0120practical": 6582, "\u0120strom": 6583, "\u0120variety": 6584, "\u0120serb": 6585, "\u0120michael": 6586, "\u0120inquir": 6587, "\u0120ungar": 6588, "ichtlich": 6589, "\u0120proceedings": 6590, "\u0120electronic": 6591, "\u0120bed\u00c3\u00bcr": 6592, "\u0120initial": 6593, "erc": 6594, "\u0120developments": 6595, "\u0120s\u00c3\u00a4mt": 6596, "\u0120consist": 6597, "\u0120belieb": 6598, "\u0120programms": 6599, "\u0120begin": 6600, "band": 6601, "\u0120mi": 6602, "\u0120verwaltungs": 6603, "\u0120definition": 6604, "ziehung": 6605, "\u0120participation": 6606, "\u0120st\u00c3\u00a4ndigen": 6607, "\u0120death": 6608, "wasser": 6609, "\u0120h\u00c3\u00bc": 6610, "\u0120praxis": 6611, "\u0120sauber": 6612, "ystem": 6613, "kennen": 6614, "ikt": 6615, "\u0120reduz": 6616, "\u0120observ": 6617, "akte": 6618, "\u0120aufgaben": 6619, "\u0120ausschlie\u00c3\u0141lich": 6620, "\u0120lines": 6621, "\u0120tschech": 6622, "\u0120mex": 6623, "\u0120networks": 6624, "icit": 6625, "quem": 6626, "\u0120produced": 6627, "\u0120gef\u00c3\u00bchrt": 6628, "\u01202020": 6629, "\u0120carry": 6630, "\u0120determin": 6631, "\u0120regulations": 6632, "\u0120diag": 6633, "\u0120cohesion": 6634, "\u0120kapital": 6635, "\u0120il": 6636, "\u0120n\u00c3\u00a4chste": 6637, "\u0120investitions": 6638, "\u0120medic": 6639, "\u0120operational": 6640, "\u0120ideas": 6641, "\u0120administrative": 6642, "\u0120players": 6643, "ova": 6644, "ined": 6645, "\u0120komplett": 6646, "itch": 6647, "\u00c3\u00a4sser": 6648, "\u0120index": 6649, "\u0120compromise": 6650, "jo": 6651, "\u0120discussed": 6652, "49": 6653, "\u0120vorher": 6654, "\u0120operating": 6655, "\u0120spacious": 6656, "\u0120alp": 6657, "\u0120highest": 6658, "\u0120gip": 6659, "\u0120betriebs": 6660, "\u0120ressourcen": 6661, "\u0120produz": 6662, "atoren": 6663, "\u0120arrangement": 6664, "\u0120starting": 6665, "\u0120staatliche": 6666, "lass": 6667, "\u0120vital": 6668, "\u0120sud": 6669, "cope": 6670, "\u0120teile": 6671, "\u0120teilen": 6672, "ktions": 6673, "\u0120schritte": 6674, "\u0120rob": 6675, "\u0120angelegenheit": 6676, "utzer": 6677, "38": 6678, "ole": 6679, "ometer": 6680, "\u0120speaker": 6681, "\u0120substant": 6682, "\u0120englisch": 6683, "\u0120lake": 6684, "izin": 6685, "stattung": 6686, "\u0120forms": 6687, "\u0120deine": 6688, "\u0120gross": 6689, "379": 6690, "\u0120bucht": 6691, "\u0120zentrale": 6692, "\u0120nachhaltige": 6693, "\u0120lt": 6694, "\u0120fitness": 6695, "\u0120wand": 6696, "\u0120window": 6697, "verty": 6698, "\u0120trust": 6699, "\u0120strategic": 6700, "dies": 6701, "\u0120gem\u00c3\u00a4\u00c3\u0141": 6702, "\u0120entsprechend": 6703, "\u0120registration": 6704, "\u0120bern": 6705, "ieb": 6706, "\u0120ge\u00c3\u00b6ffnet": 6707, "gr\u00c3\u00b6": 6708, "\u0120wild": 6709, "\u0120licht": 6710, "\u0120jem": 6711, "aktiv": 6712, "\u0120colleag": 6713, "\u0120compos": 6714, "\u0120woll": 6715, "\u0120decide": 6716, "\u00c3\u00bchren": 6717, "\u0120desp": 6718, "\u0120suitable": 6719, "\u0120acce": 6720, "car": 6721, "cul": 6722, "\u00c3\u00a4mlich": 6723, "\u0120mik": 6724, "\u0120former": 6725, "pper": 6726, "\u0120surve": 6727, "\u0120bey": 6728, "iede": 6729, "\u0120worlds": 6730, "\u0120mysql": 6731, "\u0120schreiben": 6732, "\u0120packages": 6733, "\u0120planning": 6734, "\u0120n\u00c3\u00a4mlich": 6735, "\u0120reference": 6736, "\u0120dritte": 6737, "resp": 6738, "dule": 6739, "fordert": 6740, "\u0120paid": 6741, "\u0120items": 6742, "k\u00c3\u00bcn": 6743, "\u0120ok": 6744, "\u0120vent": 6745, "\u0120k\u00c3\u00b6rper": 6746, "onom": 6747, "\u0120poverty": 6748, "\u0120bestimmten": 6749, "\u0120b\u00c3\u00bcro": 6750, "\u0120dut": 6751, "adem": 6752, "\u0120orient": 6753, "\u0120revolution": 6754, "ieter": 6755, "\u0120fotos": 6756, "\u0120regelung": 6757, "\u0120marit": 6758, "uds": 6759, "\u0120terrace": 6760, "lam": 6761, "\u0120konfl": 6762, "\u0120ky": 6763, "\u0120schm": 6764, "\u0120chann": 6765, "reiber": 6766, "\u0120unemployment": 6767, "gene": 6768, "meer": 6769, "\u0120gleiche": 6770, "\u0120m\u00c3\u00bcn": 6771, "\u0120places": 6772, "\u0120entwickeln": 6773, "\u0120herausforderung": 6774, "\u0120hintergrund": 6775, "\u0120traffic": 6776, "\u0120huge": 6777, "\u0120cham": 6778, "anken": 6779, "\u0120patent": 6780, "\u0120ziehen": 6781, "\u0120paket": 6782, "\u0120ig": 6783, "rary": 6784, "\u0120werte": 6785, "\u0120besitz": 6786, "\u0120minute": 6787, "porary": 6788, "\u0120konzept": 6789, "\u0120protected": 6790, "\u0120einzu": 6791, "\u0120videos": 6792, "onia": 6793, "\u00c3\u00a4ne": 6794, "mobil": 6795, "aff": 6796, "\u0120behandlung": 6797, "\u0120ben\u00c3\u00b6tigt": 6798, "\u0120aware": 6799, "\u0120came": 6800, "\u0120amt": 6801, "lichkeiten": 6802, "97": 6803, "wers": 6804, "\u0120ausreich": 6805, "angs": 6806, "\u0120corporate": 6807, "inden": 6808, "\u0120fakt": 6809, "gegeben": 6810, "\u0120avoid": 6811, "\u0120bequem": 6812, "\u0120famous": 6813, "\u0120accession": 6814, "\u0120accepted": 6815, "\u0120hear": 6816, "\u0120reduction": 6817, "\u0120komplex": 6818, "\u0120fordert": 6819, "\u0120maintain": 6820, "\u0120architect": 6821, "\u0120defence": 6822, "\u0120switzerland": 6823, "\u0120expert": 6824, "\u0120).": 6825, "\u0120undert": 6826, "\u0120geeignet": 6827, "\u0120barroso": 6828, "\u0120j\u00c3\u00bcng": 6829, "\u0120weeks": 6830, "w\u00c3\u00bcn": 6831, "\u0120multil": 6832, "\u0120verpflich": 6833, "gef\u00c3\u00bc": 6834, "lad": 6835, "estic": 6836, "\u0120voraus": 6837, "\u0120damage": 6838, "\u0120gutes": 6839, "\u0120fahren": 6840, "\u0120kmu": 6841, "\u0120zus\u00c3\u00a4tzlich": 6842, "\u0120coast": 6843, "\u0120arm": 6844, "\u0120m\u00c3\u00bc": 6845, "\u0120respond": 6846, "\u0120opened": 6847, "ns": 6848, "\u0120wood": 6849, "\u0120zunehmen": 6850, "\u0120abgeschlossen": 6851, "\u0120solar": 6852, "\u0120improving": 6853, "\u0120manufactur": 6854, "\u0120patient": 6855, "\u0120worth": 6856, "f\u00c3\u00a4lle": 6857, "\u0120wireless": 6858, "\u0120wol": 6859, "wald": 6860, "26": 6861, "\u0120firstly": 6862, "\u0120gelegenheit": 6863, "\u0120pressure": 6864, "\u0120entsprechenden": 6865, "hle": 6866, "\u0120examples": 6867, "\u0120steel": 6868, "\u0120genommen": 6869, "selves": 6870, "\u0120mainly": 6871, "\u0120ew": 6872, "\u0120vorgelegt": 6873, "\u0120tests": 6874, "utzt": 6875, "\u0120fresh": 6876, "\u0120opening": 6877, "\u0120alex": 6878, "\u0120scheme": 6879, "\u0120zugriff": 6880, "\u0120trag": 6881, "\u0120\u0120\u0120\u0120": 6882, "utive": 6883, "m\u00c3\u00b6glichen": 6884, "ifizierung": 6885, "\u0120trotzdem": 6886, "\u0120spirit": 6887, "\u0120lost": 6888, "\u0120reply": 6889, "\u0120translation": 6890, "\u0120abgeordneten": 6891, "ausschuss": 6892, "\u0120schriftlich": 6893, "__": 6894, "nel": 6895, "ierenden": 6896, "\u01202014": 6897, "\u0120iii": 6898, "\u0120arbeitspl\u00c3\u00a4tze": 6899, "\u0120dol": 6900, "\u0120trading": 6901, "\u0120erlaubt": 6902, "\u0120background": 6903, "\u0120begr\u00c3\u00bc\u00c3\u0141en": 6904, "kap": 6905, "\u0120york": 6906, "\u0120hour": 6907, "\u0120confirm": 6908, "\u0120redner": 6909, "\u0120wunsch": 6910, "\u0120vat": 6911, "\u0120hinsichtlich": 6912, "das": 6913, "\u0120verst\u00c3\u00a4nd": 6914, "\u0120halte": 6915, "\u0120salz": 6916, "\u0120farmers": 6917, "\u0120anstreng": 6918, "dire": 6919, "eits": 6920, "\u0120season": 6921, "\u0120beitragen": 6922, "\u0120beitritts": 6923, "kommissarin": 6924, "pool": 6925, "hagen": 6926, ".,": 6927, "angt": 6928, "\u0120premier": 6929, "\u0120erachtens": 6930, "isa": 6931, "\u0120malt": 6932, "\u0120campa": 6933, "iker": 6934, "\u0120sectors": 6935, "\u0120ship": 6936, "\u0120charged": 6937, "\u0120schl\u00c3\u00a4gt": 6938, "cluded": 6939, "hood": 6940, "\u0120bag": 6941, "\u0120erhol": 6942, "\u0120danach": 6943, "\u0120zeichen": 6944, "\u0120jederzeit": 6945, "itation": 6946, "\u0120\u00c3\u00bcberhaupt": 6947, "\u0120core": 6948, "\u0120enhan": 6949, "\u0120alloc": 6950, "\u0120150": 6951, "\u0120afghanistan": 6952, "\u0120distance": 6953, "\u0120fen": 6954, "\u0120denken": 6955, "\u0120max": 6956, "\u0120milit\u00c3\u00a4r": 6957, "how": 6958, "ura": 6959, "\u0120governance": 6960, "\u0120entsprechende": 6961, "gruppen": 6962, "\u0120auss": 6963, "\u0120suche": 6964, "\u0120schaden": 6965, "55": 6966, "ras": 6967, "\u0120regime": 6968, "losigkeit": 6969, "\u0120erwer": 6970, "rugs": 6971, "comes": 6972, "\u0120heutigen": 6973, "tte": 6974, "\u0120wlan": 6975, "\u0120prinzip": 6976, "\u0120moderne": 6977, "\u01201994": 6978, "\u0120begriff": 6979, "\u0120dringend": 6980, "\u0120sach": 6981, "\u0120unz": 6982, "\u0120beru": 6983, "ategory": 6984, "\u0120niederlan": 6985, "\u0120kitchen": 6986, "\u0120heim": 6987, "\u0120quant": 6988, "\u0120customs": 6989, "inner": 6990, "\u0120pain": 6991, "\u0120reag": 6992, "\u0120dead": 6993, "\u0120anonymous": 6994, "\u0120sorg": 6995, "\u0120klass": 6996, "\u0120modell": 6997, "elie": 6998, "ensive": 6999, "\u0120mediterranean": 7000, "\u0120campaign": 7001, "\u0120threat": 7002, "\u0120monate": 7003, "\u0120w\u00c3\u00bcnsche": 7004, "iction": 7005, "ustr": 7006, "\u0120berichte": 7007, "\u0120hinweis": 7008, "\u0120communications": 7009, "\u0120reformen": 7010, "\u0120linie": 7011, "\u0120insp": 7012, "\u0120armut": 7013, "wohl": 7014, "\u0120absolutely": 7015, "\u0120verme": 7016, "\u0120gebrauch": 7017, "\u0120engagement": 7018, "uerung": 7019, "\u0120unmittel": 7020, "\u0120finanzielle": 7021, "\u0120processes": 7022, "str\u00c3\u00b6m": 7023, "oph": 7024, "\u0120cell": 7025, "immern": 7026, "\u0120telephone": 7027, "\u0120irland": 7028, "\u0120operations": 7029, "\u0120bott": 7030, "iles": 7031, "\u0120visitors": 7032, "\u0120beyond": 7033, "\u0120lit": 7034, "aming": 7035, "uls": 7036, "\u0120reduced": 7037, "\u0120konstru": 7038, "\u0120surpr": 7039, "\u0120zust\u00c3\u00a4ndig": 7040, "netz": 7041, "\u0120served": 7042, "\u0120erwachsen": 7043, "\u0120vert": 7044, "\u00c3\u00a4nge": 7045, "\u0120ada": 7046, "\u0120produce": 7047, "\u0120begrenz": 7048, "\u0120methods": 7049, "\u0120erleich": 7050, "\u0120ereign": 7051, "\u0120priorit\u00c3\u00a4t": 7052, "\u0120mindestens": 7053, "wagen": 7054, "\u0120roy": 7055, "\u0120entspricht": 7056, "wel": 7057, "owers": 7058, "\u0120eindeutig": 7059, "ibe": 7060, "fordern": 7061, "\u0120elections": 7062, "\u0120erfolgen": 7063, "\u0120frankfurt": 7064, "\u0120dich": 7065, "\u0120signal": 7066, "\u0120einrichtung": 7067, "\u0120poly": 7068, "\u0120betr\u00c3\u00a4gt": 7069, "\u0120tagen": 7070, "fluss": 7071, "\u0120croat": 7072, "ries": 7073, "\u0120f\u00c3\u00a4h": 7074, "\u0120gern": 7075, "\u0120gesche": 7076, "\u0120average": 7077, "star": 7078, "\u0120brought": 7079, "\u0120panor": 7080, "\u0120sufficient": 7081, "\u0120disco": 7082, "\u0120investigation": 7083, "\u0120relationship": 7084, "ape": 7085, "ils": 7086, "\u0120bem\u00c3\u00bchungen": 7087, "\u0120verzeich": 7088, "\u0120provider": 7089, "\u0120festival": 7090, "schul": 7091, "\u0120konfigur": 7092, "\u0120growing": 7093, "nach": 7094, "\u0120wed": 7095, "\u0120weder": 7096, "\u0120concentr": 7097, "\u0120song": 7098, "annen": 7099, "\u0120goal": 7100, "\u0120pr\u00c3\u00bcfen": 7101, "\u0120urspr\u00c3\u00bcn": 7102, "itel": 7103, "\u0120versp": 7104, "\u0120erg": 7105, "\u0120boden": 7106, "\u0120medical": 7107, "partner": 7108, "mente": 7109, "finanz": 7110, "\u0120visa": 7111, "card": 7112, "\u0120klim": 7113, "\u0120ded": 7114, "\u0120\u00c3\u00bcberzeug": 7115, "\u0120umgesetzt": 7116, "\u00c3\u00bcss": 7117, "\u0120mehrheit": 7118, "\u0120authority": 7119, "scheinlich": 7120, "\u0120d\u00c3\u00a4n": 7121, "gendes": 7122, "b\u00c3\u00bc": 7123, "\u0120\u00c3\u00bcbernahme": 7124, "\u0120erkl\u00c3\u00a4rt": 7125, "\u0120reading": 7126, "auftrag": 7127, "\u0120horiz": 7128, "g\u00c3\u00bclt": 7129, "\u0120gespr": 7130, "\u0120heav": 7131, "\u0120solidarit\u00c3\u00a4t": 7132, "\u0120subsidiar": 7133, "\u0120fr\u00c3\u00bcher": 7134, "\u0120verste": 7135, "\u0120alter": 7136, "\u0120programs": 7137, "law": 7138, "atis": 7139, "ellschaften": 7140, "\u0120ped": 7141, "\u0120dvd": 7142, "qualit\u00c3\u00a4t": 7143, "\u0120copy": 7144, "\u0120semin": 7145, "ev": 7146, "\u0120jos": 7147, "\u0120configur": 7148, "\u0120exactly": 7149, "\u0120profitieren": 7150, "ories": 7151, "\u0120hochwert": 7152, "\u0120unbe": 7153, "\u0120\u00c3\u00a4lter": 7154, "\u0120sle": 7155, "\u0120bol": 7156, "\u0120nic": 7157, "\u0120datenbank": 7158, "\u0120t\u00c3\u00a4tig": 7159, "akes": 7160, "44": 7161, "abor": 7162, "\u0120humanit\u00c3\u00a4re": 7163, "\u0120talking": 7164, "istische": 7165, "\u0120functions": 7166, "\u0120anderer": 7167, "\u0120steuern": 7168, "\u0120contro": 7169, "aschine": 7170, "\u0120category": 7171, "\u0120erleben": 7172, "\u0120zeitraum": 7173, "\u0120effizient": 7174, "\u0120processing": 7175, "\u0120ver\u00c3\u00b6ffentlich": 7176, "tele": 7177, "\u0120gefahr": 7178, "\u0120info": 7179, "\u0120berichts": 7180, "umping": 7181, "anda": 7182, "pak": 7183, "set": 7184, "\u0120morning": 7185, "\u0120arab": 7186, "29": 7187, "\u0120suites": 7188, "\u0120tief": 7189, "\u0120uses": 7190, "gebiet": 7191, "\u0120schlaf": 7192, "\u0120firmen": 7193, "\u0120argument": 7194, "\u0120wesentlichen": 7195, "\u0120covered": 7196, "\u0120snow": 7197, "\u0120annahme": 7198, "\u0120jeweiligen": 7199, "kor": 7200, "\u0120interface": 7201, "\u0120script": 7202, "\u0120continues": 7203, "\u0120monat": 7204, "\u0120border": 7205, "\u0120glob": 7206, "\u0120beschluss": 7207, "\u0120legit": 7208, "\u0120flor": 7209, "\u0120beschreibung": 7210, "zusch": 7211, "\u0120default": 7212, "\u0120bewertung": 7213, "\u0120technischen": 7214, "kel": 7215, "\u0120ersch": 7216, "konom": 7217, "\u0120hinge": 7218, "spart": 7219, "gende": 7220, "\u0120meetings": 7221, "\u0120taxation": 7222, "\u0120martin": 7223, "\u0120t\u00c3\u00a4glich": 7224, "\u0120si": 7225, "reci": 7226, "\u0120prefer": 7227, "]]": 7228, "\u0120inside": 7229, "\u0120karten": 7230, "beh\u00c3\u00b6r": 7231, "\u0120[[": 7232, "\u0120walking": 7233, "\u0120ful": 7234, "\u0120java": 7235, "\u0120freiheit": 7236, "\u0120verantwortlich": 7237, "\u0120terrorismus": 7238, "\u0120liter": 7239, "\u0120bonus": 7240, "jen": 7241, "iell": 7242, "werke": 7243, "\u0120animal": 7244, "\u0120beein": 7245, "\u0120gele": 7246, "\u0120kaum": 7247, "\u0120intervention": 7248, "\u0120running": 7249, "\u0120unbedingt": 7250, "cure": 7251, "\u0120aqu": 7252, "\u0120geschm": 7253, "wahl": 7254, "ador": 7255, "\u0120violence": 7256, "\u0120provin": 7257, "\u0120wichtigste": 7258, "\u0120ausgezeichnet": 7259, "\u0120updated": 7260, "\u0120katastrop": 7261, "\u0120filter": 7262, "\u0120components": 7263, "\u0120fonds": 7264, "ilien": 7265, "ibr": 7266, "\u0120youll": 7267, "icks": 7268, "schlossen": 7269, "\u0120insurance": 7270, "\u0120kroat": 7271, "\u0120fu": 7272, "crete": 7273, "\u0120constit": 7274, "pap": 7275, "\u0120verwir": 7276, "handels": 7277, "\u0120ib": 7278, "\u0120raised": 7279, "\u0120geb\u00c3\u00a4ude": 7280, "initi": 7281, "\u0120ones": 7282, "\u0120h\u00c3\u00b6chst": 7283, "\u0120lives": 7284, "\u0120confidence": 7285, "\u0120paul": 7286, "\u0120belgium": 7287, "\u0120terrorism": 7288, "cting": 7289, "\u0120mini": 7290, "pass": 7291, "stimmung": 7292, "\u0120noon": 7293, "\u012001": 7294, "down": 7295, "\u0120ourselves": 7296, "\u0120manch": 7297, "\u0120romania": 7298, "\u0120ern\u00c3\u00a4hrung": 7299, "\u0120mig": 7300, "steuer": 7301, "\u0120holz": 7302, "\u0120sets": 7303, "ampag": 7304, "\u0120atmosph\u00c3\u00a4re": 7305, "\u0120alten": 7306, "\u0120entry": 7307, "\u0120glauben": 7308, "ae": 7309, "\u0120monaten": 7310, "\u0120festgelegt": 7311, "\u0120erf\u00c3\u00bcllt": 7312, "\u0120geschaffen": 7313, "\u0120lauf": 7314, "\u0120arten": 7315, "\u0120regionale": 7316, "cape": 7317, "ista": 7318, "\u0120trip": 7319, "\u0120learning": 7320, "\u0120competitive": 7321, "atible": 7322, "\u0120jac": 7323, "\u0120geh": 7324, "\u0120facilit": 7325, "\u0120parkpl\u00c3\u00a4tze": 7326, "\u0120gr\u00c3\u00bcnd": 7327, "\u0120rome": 7328, "\u0120schwerpunkt": 7329, "\u0120\u00c3\u00bcberw": 7330, "\u0120minor": 7331, "\u0120starts": 7332, "\u0120british": 7333, "\u0120anstrengungen": 7334, "\u0120spring": 7335, "\u0120hosp": 7336, "\u0120omb": 7337, "\u0120beschlossen": 7338, "\u0120starten": 7339, "\u0120spielt": 7340, "\u0120benutzt": 7341, "\u0120superv": 7342, "last": 7343, "tv": 7344, "\u0120empfehlen": 7345, "zentrum": 7346, "\u0120tickets": 7347, "\u0120satellite": 7348, "\u0120sole": 7349, "\u0120shower": 7350, "\u0120lizenz": 7351, "\u0120provision": 7352, "\u0120datenschutz": 7353, "\u0120produktions": 7354, "rel": 7355, "\u0120verabschied": 7356, "\u0120chair": 7357, "benutzer": 7358, "iano": 7359, "front": 7360, "\u0120zeich": 7361, "\u0120niemand": 7362, "\u0120er\u00c3\u00b6r": 7363, "\u0120mehreren": 7364, "\u0120psych": 7365, "\u0120fly": 7366, "\u0120recon": 7367, "\u0120possibility": 7368, "\u0120diesbe": 7369, "park": 7370, "standing": 7371, "\u0120earth": 7372, "\u0120kontaktieren": 7373, "\u0120t\u00c3\u00a4tigkeit": 7374, "mess": 7375, "etten": 7376, "iler": 7377, "\u0120sym": 7378, "\u0120animals": 7379, "brit": 7380, "tained": 7381, "\u0120tack": 7382, "\u0120crime": 7383, "\u0120ber\u00c3\u00bccksichtigt": 7384, "\u0120dun": 7385, "ione": 7386, "f\u00c3\u00bchrer": 7387, "\u0120adoption": 7388, "yer": 7389, "\u0120quot": 7390, "\u0120wiederhol": 7391, "\u0120au\u00c3\u0141erhalb": 7392, "\u0120committed": 7393, "\u0120chan": 7394, "europe": 7395, "rik": 7396, "pped": 7397, "\u0120gebracht": 7398, "\u0120pers\u00c3\u00b6nlichen": 7399, "itude": 7400, "\u0120abruf": 7401, "\u0120versions": 7402, "\u0120annex": 7403, "\u0120assist": 7404, "konferenz": 7405, "\u0120maritime": 7406, "\u0120nahr": 7407, "\u0120geist": 7408, "\u0120belar": 7409, "\u0120inflation": 7410, "\u0120weiterer": 7411, "\u0120hardware": 7412, "\u0120sav": 7413, "\u0120numerous": 7414, "2013": 7415, "\u0120foundation": 7416, "\u0120frem": 7417, "\u0120urteil": 7418, "\u0120palace": 7419, "\u0120haupts": 7420, "\u0120mu": 7421, "\u0120proposes": 7422, "\u0120pfl": 7423, "\u0120einschlie\u00c3\u0141lich": 7424, "istischen": 7425, "ighted": 7426, "\u0120iraq": 7427, "atively": 7428, "ray": 7429, "\u0120entgegen": 7430, "\u0120machines": 7431, "\u0120garten": 7432, "\u0120empfehlungen": 7433, "\u0120leute": 7434, "\u0120immigration": 7435, "\u0120thous": 7436, "\u0120196": 7437, "\u0120speziell": 7438, "\u0120represents": 7439, "gers": 7440, "ichern": 7441, "\u0120arbeitnehmer": 7442, "\u0120wenige": 7443, "\u0120konnten": 7444, "\u0120vehicles": 7445, "\u0120verurs": 7446, "\u0120monet": 7447, "\u0120affected": 7448, "\u0120route": 7449, "\u0120getroffen": 7450, "\u0120mobility": 7451, "\u0120updates": 7452, "\u0120exerc": 7453, "\u0120notified": 7454, "anlagen": 7455, "\u0120funktionen": 7456, "\u0120ombuds": 7457, "\u0120cities": 7458, "\u0120wanted": 7459, "\u0120exter": 7460, "\u0120angesprochen": 7461, "48": 7462, "ube": 7463, "\u0120cant": 7464, "\u0120risks": 7465, "\u0120stellvertreter": 7466, "\u0120por": 7467, "\u0120kore": 7468, "\u0120representatives": 7469, "ham": 7470, "enze": 7471, "\u0120currency": 7472, "\u0120funktionieren": 7473, "2000": 7474, "\u0120gem\u00c3\u00bct": 7475, "\u0120welches": 7476, "\u0120lehr": 7477, "\u0120betrieb": 7478, "\u0120spl": 7479, "\u0120installed": 7480, "\u0120zuverl\u00c3\u00a4ss": 7481, "ieht": 7482, "\u0120memory": 7483, "\u0120coordination": 7484, "st\u00c3\u00a4t": 7485, "\u0120difference": 7486, "\u0120requests": 7487, "\u0120vorbereitung": 7488, "b\u00c3\u00bcr": 7489, "\u0120senden": 7490, "barer": 7491, "\u0120qualit\u00c3\u00a4ts": 7492, "zwischen": 7493, "\u0120luxembourg": 7494, "k\u00c3\u00bcnfte": 7495, "\u0120edition": 7496, "\u0120gepl": 7497, "\u0120parteien": 7498, "\u0120dram": 7499, "\u0120plen": 7500, "2009": 7501, "\u0120department": 7502, "\u0120geschehen": 7503, "96": 7504, "\u0120tr\u00c3\u00a4gt": 7505, "\u0120bedro": 7506, "\u0120students": 7507, "\u0120stets": 7508, "hlt": 7509, "\u0120reicht": 7510, "\u0120nein": 7511, "\u0120vorhaben": 7512, "\u0120smes": 7513, "office": 7514, "\u0120conflict": 7515, "\u0120abh\u00c3\u00a4ng": 7516, "\u0120gesprochen": 7517, "\u0120crimin": 7518, "\u0120st\u00c3\u00a4rkung": 7519, "\u0120entschlie\u00c3\u0141ungsant": 7520, "\u0120entdecken": 7521, "\u0120pin": 7522, "\u0120ball": 7523, "\u0120beweg": 7524, "quate": 7525, "\u0120ratspr\u00c3\u00a4sident": 7526, "\u0120medizin": 7527, "\u0120februar": 7528, "ader": 7529, "\u0120adapt": 7530, "\u0120eher": 7531, "\u0120gegr": 7532, "\u0120unterschiedliche": 7533, "\u0120elegant": 7534, "\u0120substantial": 7535, "aria": 7536, "dep": 7537, "\u0120appreci": 7538, "\u0120erfahrungen": 7539, "\u0120verh\u00c3\u00a4lt": 7540, "\u0120angel": 7541, "\u012048": 7542, "\u0120entwicklungen": 7543, "\u0120probably": 7544, "\u0120erfordert": 7545, "ua": 7546, "\u0120gewinn": 7547, "bringen": 7548, "\u0120anteil": 7549, "\u0120obst": 7550, "\u0120motion": 7551, "\u0120edited": 7552, "pol": 7553, "\u0120ahead": 7554, "\u0120ehem": 7555, "\u0120einwander": 7556, "\u0120outcome": 7557, "\u0120fallen": 7558, "free": 7559, "\u0120g\u00c3\u00bclt": 7560, "licherweise": 7561, "\u0120ticket": 7562, "\u0120n\u00c3\u00b6t": 7563, "\u0120obviously": 7564, "\u0120kauf": 7565, "\u0120gesetzt": 7566, "\u00c3\u00b6rt": 7567, "\u0120cars": 7568, "\u0120hans": 7569, "\u0120store": 7570, "\u0120\u00c3\u00bcbernehmen": 7571, "\u0120gew\u00c3\u00bcn": 7572, "treten": 7573, "\u0120verbreit": 7574, "\u0120recommendations": 7575, "\u0120baby": 7576, "\u0120alte": 7577, "\u0120sauna": 7578, "\u0120\u00c3\u00b6k": 7579, "\u0120sad": 7580, "\u0120payments": 7581, "\u0120storage": 7582, "dr\u00c3\u00bccklich": 7583, "\u0120advantage": 7584, "las": 7585, "ago": 7586, "well": 7587, "\u0120convenient": 7588, "acc": 7589, "ky": 7590, "\u0120krank": 7591, "\u0120gr\u00c3\u00bc": 7592, "\u0120numbers": 7593, "\u0120pr\u00c3\u00bcfung": 7594, "\u01201993": 7595, "\u0120vertreters": 7596, "\u0120purchase": 7597, "\u0120einst": 7598, "\u0120arbeitet": 7599, "\u0120remember": 7600, "\u0120anderes": 7601, "\u0120pleasant": 7602, "\u0120gr\u00c3\u00bcnde": 7603, "\u0120aust": 7604, "\u0120gesehen": 7605, "\u0120erm\u00c3\u00b6glichen": 7606, "\u0120rock": 7607, "\u0120unst": 7608, "\u0120sweden": 7609, "\u0120bilden": 7610, "\u0120sch\u00c3\u00b6ne": 7611, "inary": 7612, "\u0120genannten": 7613, "\u0120license": 7614, "90": 7615, "pub": 7616, "\u0120beraten": 7617, "\u0120400": 7618, "\u0120gegenseit": 7619, "\u0120akzeptieren": 7620, "\u0120concrete": 7621, "\u0120barn": 7622, "\u0120answers": 7623, "britann": 7624, "\u0120grunds\u00c3\u00a4tz": 7625, "\u0120informieren": 7626, "\u0120approxim": 7627, "\u0120privacy": 7628, "\u0120match": 7629, "23": 7630, "\u0120ausgang": 7631, "\u0120ausbildung": 7632, "\u0120herzen": 7633, "\u0120dispos": 7634, "\u0120graf": 7635, "\u0120beispiele": 7636, "\u0120taste": 7637, "\u0120kaufen": 7638, "\u0120behinder": 7639, "\u0120iso": 7640, "\u0120pr\u00c3\u00a4sidentschaft": 7641, "\u0120church": 7642, "\u0120protocol": 7643, "\u0120despite": 7644, "ensions": 7645, "\u0120austral": 7646, "verein": 7647, "\u0120square": 7648, "\u0120abrufbar": 7649, "greif": 7650, "\u0120bulgaria": 7651, "\u0120eisen": 7652, "\u0120advanced": 7653, "aries": 7654, "tragen": 7655, "\u0120discrimin": 7656, "\u0120luxemburg": 7657, "\u0120goals": 7658, "\u0120syr": 7659, "zunehmen": 7660, "imed": 7661, "\u0120refuge": 7662, "\u0120beginnt": 7663, "\u0120paralle": 7664, "\u0120tourismus": 7665, "\u0120nearby": 7666, "\u0120parameter": 7667, "ications": 7668, "\u0120rh": 7669, "\u0120gesch\u00c3\u00bctzt": 7670, "\u0120teilnehmer": 7671, "\u0120verpflichtungen": 7672, "\u0120acquisition": 7673, "\u0120spezielle": 7674, "\u0120offens": 7675, "hafte": 7676, "\u0120creating": 7677, "\u0120statistics": 7678, "\u0120andre": 7679, "\u0120parag": 7680, "\u0120l\u00c3\u00a4nger": 7681, "\u0120closely": 7682, "\u0120entschieden": 7683, "\u0120{": 7684, "\u0120stimm": 7685, "ischem": 7686, "\u0120entre": 7687, "\u0120anton": 7688, "\u0120initiativen": 7689, "\u0120circum": 7690, "ikations": 7691, "hold": 7692, "\u0120impress": 7693, "ugos": 7694, "\u01204379": 7695, "\u0120maschinen": 7696, "ruption": 7697, "\u0120freiz": 7698, "\u0120sources": 7699, "\u0120k\u00c3\u00bcrz": 7700, "\u0120cm": 7701, "\u0120gift": 7702, "\u0120budgetary": 7703, "\u0120doubt": 7704, "\u0120illegal": 7705, "\u0120underg": 7706, "ema": 7707, "\u0120covers": 7708, "\u0120negative": 7709, "bett": 7710, "\u0120cheap": 7711, "\u0120vergangenen": 7712, "n\u00c3\u00bc": 7713, "\u0120erinn": 7714, "\u0120graphics": 7715, "\u0120bib": 7716, "\u0120loss": 7717, "\u0120konkrete": 7718, "\u0120bedenken": 7719, "\u0120islam": 7720, "\u0120schwierig": 7721, "border": 7722, "vision": 7723, "\u0120hinblick": 7724, "\u0120st\u00c3\u00a4rker": 7725, "enhagen": 7726, "\u0120cuis": 7727, "\u0120notice": 7728, "\u0120barr": 7729, "\u0120apparte": 7730, "mes": 7731, "\u0120scope": 7732, "iveau": 7733, "loss": 7734, "\u0120debt": 7735, "\u0120judgment": 7736, "\u0120write": 7737, "\u0120vereinbarung": 7738, "ining": 7739, "esc": 7740, "wortet": 7741, "\u0120chemical": 7742, "\u0120consequences": 7743, "\u0120stellvertretender": 7744, "olo": 7745, "\u0120ext": 7746, "\u0120systeme": 7747, "\u0120evening": 7748, "\u0120irgend": 7749, "\u0120promotion": 7750, "iser": 7751, "\u0120names": 7752, "\u0120welchen": 7753, "\u0120labor": 7754, "\u0120lobby": 7755, "craft": 7756, "\u0120gi": 7757, "\u0120ausgaben": 7758, "\u0120load": 7759, "\u0120providing": 7760, "\u0120wonderful": 7761, "47": 7762, "\u0120inhalte": 7763, "\u012037": 7764, "\u0120genutzt": 7765, "\u0120anlage": 7766, "gerufen": 7767, "\u0120poten": 7768, "\u0120vielfalt": 7769, "\u0120discussions": 7770, "\u0120besucher": 7771, "lim": 7772, "\u0120opfer": 7773, "\u0120entstehen": 7774, "\u0120cool": 7775, "\u0120sinne": 7776, "\u0120abschluss": 7777, "\u0120getting": 7778, "\u01201990": 7779, "stechn": 7780, "\u0120hold": 7781, "\u0120diskrimin": 7782, "time": 7783, "tex": 7784, "\u0120fischere": 7785, "\u0120cookies": 7786, "\u0120ade": 7787, "\u0120fro": 7788, "\u0120presse": 7789, "\u0120became": 7790, "\u0120born": 7791, "\u0120hit": 7792, "zeption": 7793, "pliz": 7794, "hindern": 7795, "\u0120sonn": 7796, "\u0120zert": 7797, "sper": 7798, "\u0120adr": 7799, "europ": 7800, "\u00c3\u00a4rm": 7801, "\u0120string": 7802, "\u0120photograph": 7803, "union": 7804, "\u0120depos": 7805, "\u0120notwendigkeit": 7806, "\u0120aims": 7807, "\u0120belgien": 7808, "\u0120wirksam": 7809, "\u0120deswegen": 7810, "\u0120spr": 7811, "\u0120settings": 7812, "\u0120vollst\u00c3\u00a4ndige": 7813, "\u0120manchmal": 7814, "**": 7815, "\u0120story": 7816, "\u0120hervorragen": 7817, "\u0120auffassung": 7818, "\u0120isol": 7819, "\u0120banken": 7820, "\u0120occas": 7821, "service": 7822, "\u0120enfor": 7823, "mode": 7824, "ipping": 7825, "\u0120absatz": 7826, "\u0120cab": 7827, "omin": 7828, "\u0120sek": 7829, "\u0120schre": 7830, "gew\u00c3\u00b6hn": 7831, "\u0120veget": 7832, "amin": 7833, "\u0120sektor": 7834, "\u0120controls": 7835, "\u0120enterprises": 7836, "\u0120mov": 7837, "\u0120module": 7838, "endo": 7839, "\u0120vergangenheit": 7840, "\u0120kolleginnen": 7841, "\u0120released": 7842, "\u00c3\u00a4fte": 7843, "\u0120jur": 7844, "\u0120absch": 7845, "\u0120endlich": 7846, "\u0120gro\u00c3\u0141britann": 7847, "\u0120roma": 7848, "uffet": 7849, "\u0120occur": 7850, "93": 7851, "\u0120gef\u00c3\u00bc": 7852, "\u0120bars": 7853, "not": 7854, "\u0120says": 7855, "\u0120abschlie\u00c3\u0141end": 7856, "\u0120einfache": 7857, "\u0120gott": 7858, "\u0120irak": 7859, "\u0120pressemit": 7860, "\u0120buchen": 7861, "commun": 7862, "\u0120wom": 7863, "enty": 7864, "weite": 7865, "\u0120camping": 7866, "\u0120fl\u00c3\u00bccht": 7867, "dienste": 7868, "vest": 7869, "\u0120chinese": 7870, "\u0120cuisine": 7871, "\u0120legen": 7872, "\u0120besch\u00c3\u00a4ftigungs": 7873, "issionen": 7874, "\u0120stuff": 7875, "\u0120untersuchung": 7876, "\u0120kompromiss": 7877, "\u0120einigung": 7878, "istribution": 7879, "\u0120bitten": 7880, "\u0120hause": 7881, "\u0120beihilfe": 7882, "\u012038": 7883, "\u0120hersteller": 7884, "\u0120rum\u00c3\u00a4nien": 7885, "hre": 7886, "\u0120mist": 7887, "\u0120anfragen": 7888, "\u0120models": 7889, "gh": 7890, "gebaut": 7891, "r\u00c3\u00bcst": 7892, "\u0120belarus": 7893, "\u0120stein": 7894, "\u0120completed": 7895, "\u0120russian": 7896, "\u0120listed": 7897, "igem": 7898, "schrift": 7899, "\u0120formul": 7900, "\u0120generally": 7901, "\u0120leitlinien": 7902, "\u0120anmer": 7903, "schung": 7904, "gestell": 7905, "\u0120vorrang": 7906, "\u0120sorgf": 7907, "\u0120worte": 7908, "\u0120expend": 7909, "\u0120angebote": 7910, "\u0120erf\u00c3\u00bcllen": 7911, "\u0120preparation": 7912, "af": 7913, "\u0120speech": 7914, "datei": 7915, "orient": 7916, "station": 7917, "kommun": 7918, "\u0120introduced": 7919, "\u0120\u00c3\u00b6ffnen": 7920, "\u0120verpflichtet": 7921, "itten": 7922, "\u0120chines": 7923, "\u0120entwurf": 7924, "\u0120wiederauf": 7925, "\u0120gr\u00c3\u00b6\u00c3\u0141ere": 7926, "\u0120membership": 7927, "\u0120bewusst": 7928, "\u0120sau": 7929, "\u0120gering": 7930, "\u0120david": 7931, "nern": 7932, "waren": 7933, "used": 7934, "\u0120hoffen": 7935, "\u0120\u00c3\u00bcbersetz": 7936, "zehn": 7937, "\u0120heard": 7938, "\u0120schweden": 7939, "\u0120device": 7940, "\u0120older": 7941, "\u0120recovery": 7942, "\u0120adds": 7943, "chnet": 7944, "vorschlag": 7945, "\u0120halb": 7946, "\u0120st\u00c3\u00a4rken": 7947, "\u0120kriterien": 7948, "\u0120electricity": 7949, "\u0120unit": 7950, "\u0120privaten": 7951, "\u0120jeweils": 7952, "\u0120evaluation": 7953, "\u0120sell": 7954, "prozess": 7955, "systems": 7956, "\u0120monetary": 7957, "deb": 7958, "\u0120\u00c3\u00bcberwachung": 7959, "\u0120wil": 7960, "\u0120stunde": 7961, "\u0120euros": 7962, "\u0120sched": 7963, "\u0120skype": 7964, "\u0120prozent": 7965, "\u0120modernen": 7966, "su": 7967, "\u012055": 7968, "\u0120katalog": 7969, "\u0120len": 7970, "though": 7971, "technik": 7972, "meldung": 7973, "\u0120ausger": 7974, "\u0120erweiter": 7975, "\u0120critic": 7976, "\u0120richtlinien": 7977, "\u0120executive": 7978, "\u0120extensive": 7979, "bra": 7980, "ny": 7981, "\u0120h\u00c3\u00a4lt": 7982, "aly": 7983, "\u0120coup": 7984, "\u0120usb": 7985, "ield": 7986, "marks": 7987, "\u0120river": 7988, "\u0120glass": 7989, "\u0120motiv": 7990, "\u0120besonderen": 7991, "\u0120klimawand": 7992, "\u0120verhe": 7993, "\u0120jack": 7994, "\u0120pr\u00c3\u00a4sidenten": 7995, "\u0120leader": 7996, "cas": 7997, "\u012009": 7998, "\u0120angesichts": 7999, "\u0120sold": 8000, "\u0120domain": 8001, "\u0120s\u00c3\u00a4mtliche": 8002, "\u0120geschmack": 8003, "polit": 8004, "\u0120hart": 8005, "\u0120klare": 8006, "\u0120smart": 8007, "\u0120founded": 8008, "\u0120afrika": 8009, "\u0120kroes": 8010, "\u0120camera": 8011, "\u01201000": 8012, "\u0120gesp": 8013, "mittelt": 8014, "\u0120advance": 8015, "\u0120gef\u00c3\u00b6rder": 8016, "\u0120carefully": 8017, "\u0120croatia": 8018, "\u0120formal": 8019, "\u0120verfolgt": 8020, "\u0120lounge": 8021, "\u0120zahlungs": 8022, "\u0120organisationen": 8023, "\u0120increasingly": 8024, "\u0120analyse": 8025, "ost": 8026, "\u0120gir": 8027, "\u0120anderem": 8028, "ying": 8029, "\u0120dienste": 8030, "\u0120l\u00c3\u00a4uft": 8031, "eiten": 8032, "\u0120forget": 8033, "ida": 8034, "\u0120expand": 8035, "\u0120stands": 8036, "\u012007": 8037, "\u0120tagung": 8038, "\u0120ehemal": 8039, "\u0120influ": 8040, "\u0120chinas": 8041, "jan": 8042, "\u0120warten": 8043, "\u0120absolut": 8044, "\u00c3\u00a4user": 8045, "kontrolle": 8046, "\u0120bed\u00c3\u00bcrf": 8047, "56": 8048, "betrie": 8049, "\u0120sch\u00c3\u00bctzen": 8050, "wan": 8051, "\u0120versand": 8052, "ando": 8053, "\u0120charakter": 8054, "\u0120einzelheiten": 8055, "can": 8056, "\u0120ht": 8057, "\u0120immobil": 8058, "\u0120ferienwohn": 8059, "\u0120hund": 8060, "\u0120considerable": 8061, "\u0120mur": 8062, "\u0120gap": 8063, "\u0120remo": 8064, "\u0120guter": 8065, "\u0120mechanism": 8066, "istics": 8067, "\u0120geschieht": 8068, "\u0120wahrscheinlich": 8069, "\u0120philos": 8070, "\u0120dor": 8071, "\u0120schwierigkeiten": 8072, "\u0120hilfs": 8073, "ala": 8074, "\u0120exem": 8075, "\u0120minder": 8076, "\u0120critical": 8077, "\u0120exclusive": 8078, "\u0120exhibition": 8079, "\u0120although": 8080, "appe": 8081, "\u0120implementing": 8082, "\u0120devices": 8083, "\u0120premium": 8084, "\u0120#": 8085, "\u0120advertising": 8086, "dorf": 8087, "\u0120einver": 8088, "\u0120haft": 8089, "\u0120delivered": 8090, "\u0120kernel": 8091, "anb": 8092, "\u0120nations": 8093, "\u0120corresp": 8094, "oon": 8095, "\u0120oly": 8096, "\u0120volk": 8097, "ifiziert": 8098, "\u0120interpret": 8099, "apter": 8100, "gesetz": 8101, "\u0120commitments": 8102, "\u0120holidays": 8103, "\u0120mp": 8104, "\u0120viv": 8105, "ippe": 8106, "\u0120konsequ": 8107, "\u0120treten": 8108, "iche": 8109, "\u0120arrival": 8110, "komp": 8111, "\u0120encourage": 8112, "\u0120categor": 8113, "\u0120gee": 8114, "\u0120positiv": 8115, "aga": 8116, "\u0120experts": 8117, "\u0120gentoo": 8118, "\u0120sicherlich": 8119, "\u0120approval": 8120, "\u0120unterkunft": 8121, "\u0120transform": 8122, "\u0120\u00c3\u00b6l": 8123, "wachst": 8124, "\u0120netzwerk": 8125, "\u0120malta": 8126, "\u00c3\u00bctze": 8127, "\u0120cypr": 8128, "\u0120rechnungs": 8129, "\u0120dele": 8130, "\u0120usd": 8131, "\u0120menge": 8132, "\u0120anyone": 8133, "\u0120risiko": 8134, "\u0120historic": 8135, "\u0120schengen": 8136, "\u0120rise": 8137, "spunkt": 8138, "\u0120testing": 8139, "era": 8140, "\u0120error": 8141, "\u0120flat": 8142, "\u0120folge": 8143, "endence": 8144, "log": 8145, "\u0120aspekt": 8146, "\u0120wahlen": 8147, "\u0120benachricht": 8148, "\u0120winn": 8149, "\u0120meter": 8150, "\u0120freien": 8151, "proble": 8152, "\u0120pr\u00c3\u00a4z": 8153, "\u0120erw\u00c3\u00a4hnt": 8154, "\u0120quar": 8155, "\u0120haut": 8156, "\u0120\u00c3\u00bcb": 8157, "\u0120happened": 8158, "rance": 8159, "\u0120supporting": 8160, "\u0120idee": 8161, "\u0120attractive": 8162, "\u0120reinfor": 8163, "\u0120purposes": 8164, "vi": 8165, "\u0120einrichtungen": 8166, "attle": 8167, "\u0120erscheint": 8168, "siehe": 8169, "ret": 8170, "\u0120beseit": 8171, "\u0120heil": 8172, "\u0120genannt": 8173, "\u0120classic": 8174, "vak": 8175, "\u0120stated": 8176, "\u0120hierbei": 8177, "comp": 8178, "\u0120unstable": 8179, "\u0120gon": 8180, "\u0120jung": 8181, "\u0120zuvor": 8182, "bew": 8183, "gro": 8184, "sarge": 8185, "\u0120continued": 8186, "\u0120l\u00c3\u00b6sen": 8187, "l\u00c3\u00b6sung": 8188, "\u0120gegenw\u00c3\u00a4rtig": 8189, "\u01201992": 8190, "fers": 8191, "oul": 8192, "\u0120fordern": 8193, "\u0120gewesen": 8194, "fl\u00c3\u00bc": 8195, "\u0120vin": 8196, "umn": 8197, "\u0120eastern": 8198, "\u0120garantiert": 8199, "\u0120zerst": 8200, "opt": 8201, "akete": 8202, "\u0120flexibility": 8203, "\u0120inzwischen": 8204, "\u0120stake": 8205, "\u012033": 8206, "aves": 8207, "\u0120olymp": 8208, "\u0120wander": 8209, "ieben": 8210, "\u0120wege": 8211, "\u0120alm": 8212, "\u0120prevention": 8213, "\u0120er\u00c3\u00b6ffnet": 8214, "\u0120\u00c3\u00bcberall": 8215, "\u0120dinner": 8216, "\u0120einzigart": 8217, "raph": 8218, "\u0120erl\u00c3\u00a4u": 8219, "\u0120leiden": 8220, "\u0120investig": 8221, "\u0120drin": 8222, "\u0120historical": 8223, "\u0120h\u00c3\u00b6ren": 8224, "\u0120vulner": 8225, "\u0120weiteres": 8226, "\u0120depend": 8227, "\u0120regelm\u00c3\u00a4\u00c3\u0141ig": 8228, "\u0120pr\u00c3\u00bcf": 8229, "\u0120incor": 8230, "\u0120creative": 8231, "anne": 8232, "\u0120hell": 8233, "\u0120beitritt": 8234, "programme": 8235, "cor": 8236, "\u0120ast": 8237, "\u0120europeans": 8238, "\u0120courses": 8239, "\u0120metro": 8240, "\u0120lift": 8241, "icip": 8242, "\u0120coffee": 8243, "\u0120entirely": 8244, "\u0120rechnung": 8245, "durch": 8246, "distribution": 8247, "hu": 8248, "\u0120biggest": 8249, "\u0120nahrungs": 8250, "hel": 8251, "etch": 8252, "\u0120rand": 8253, "\u0120targets": 8254, "\u0120neelie": 8255, "\u0120verfolgen": 8256, "\u0120gro\u00c3\u0141britannien": 8257, "anden": 8258, "eds": 8259, "\u0120einsch": 8260, "flug": 8261, "\u0120skills": 8262, "versorgung": 8263, "\u0120police": 8264, "\u0120gew\u00c3\u00a4hrleisten": 8265, "chem": 8266, "\u0120fein": 8267, "\u0120compar": 8268, "\u0120spect": 8269, "\u00c3\u00bchm": 8270, "\u0120powerful": 8271, "\u0120serviert": 8272, "ound": 8273, "\u0120rech": 8274, "active": 8275, "\u0120parliamentary": 8276, "\u0120wants": 8277, "\u0120buchung": 8278, "lebr": 8279, "\u0120brings": 8280, "\u0120asso": 8281, "\u0120anwendungen": 8282, "\u0120gegr\u00c3\u00bcndet": 8283, "instr": 8284, "\u0120hen": 8285, "\u0120zuge": 8286, "\u0120instruct": 8287, "\u0120finanziellen": 8288, "\u0120skin": 8289, "verbind": 8290, "\u0120dienen": 8291, "\u0120deskt": 8292, "\u0120borders": 8293, "\u0120n\u00c3\u00a4h": 8294, "\u0120speaking": 8295, "\u0120album": 8296, "omet": 8297, "\u0120kg": 8298, "\u0120began": 8299, "uly": 8300, "\u0120gepr\u00c3\u00bc": 8301, "\u0120laut": 8302, "\u0120wesentlich": 8303, "\u0120bem\u00c3\u00bc": 8304, "ming": 8305, "\u0120acts": 8306, "\u0120sagt": 8307, "\u0120advice": 8308, "59": 8309, "grenz": 8310, "\u0120eingef\u00c3\u00bchrt": 8311, "ifications": 8312, "\u0120bulgarien": 8313, "\u0120ver\u00c3\u00a4nderungen": 8314, "\u0120bosn": 8315, "iat": 8316, "\u0120dates": 8317, "\u0120serve": 8318, "\u0120accompan": 8319, "nummer": 8320, "\u0120auszu": 8321, "\u0120gradu": 8322, "\u0120kroatien": 8323, "cers": 8324, "l\u00c3\u00bcck": 8325, "\u0120untersche": 8326, "\u0120informed": 8327, "\u0120library": 8328, "\u0120unterbrochen": 8329, "\u0120hungary": 8330, "\u0120wet": 8331, "eler": 8332, "\u0120explor": 8333, "uals": 8334, "\u0120aspect": 8335, "design": 8336, "g\u00c3\u00a4nglich": 8337, "\u0120parad": 8338, "\u0120atlant": 8339, "\u0120geschen": 8340, "\u0120families": 8341, "bereiche": 8342, "\u0120beratung": 8343, "obe": 8344, "\u0120ras": 8345, "beziehungen": 8346, "\u0120farben": 8347, "herstell": 8348, "produkte": 8349, "\u0120donner": 8350, "cribe": 8351, "\u0120schlie\u00c3\u0141en": 8352, "\u01201957": 8353, "schl\u00c3\u00a4ge": 8354, "\u0120easier": 8355, "\u0120bez\u00c3\u00bcglich": 8356, "\u0120assemb": 8357, "\u0120krieg": 8358, "verw": 8359, "\u0120gros": 8360, "\u0120behav": 8361, "\u0120fr\u00c3\u00bchst\u00c3\u00bccksb": 8362, "\u0120suspend": 8363, "\u0120batter": 8364, "\u0120nennen": 8365, "rans": 8366, "\u0120erh\u00c3\u00b6ht": 8367, "\u0120diesel": 8368, "\u0120gratul": 8369, "\u0120546": 8370, "\u0120becomes": 8371, "\u0120dete": 8372, "\u0120confir": 8373, "\u0120sonnen": 8374, "\u0120berichterstatterin": 8375, "erzeug": 8376, "\u0120duty": 8377, "\u0120produkten": 8378, "\u0120domestic": 8379, "\u0120vien": 8380, "ishes": 8381, "r\u00c3\u00a4fte": 8382, "\u0120pure": 8383, "\u0120lif": 8384, "\u0120\u00c3\u00bcberpr\u00c3\u00bcfung": 8385, "beschreibung": 8386, "\u0120thom": 8387, "\u0120respekt": 8388, "teilungen": 8389, "\u0120transition": 8390, "\u0120digit": 8391, "\u0120terrasse": 8392, "\u0120command": 8393, "\u0120abschnitt": 8394, "\u0120specif": 8395, "\u0120n\u00c3\u00a4her": 8396, "\u0120islands": 8397, "izing": 8398, "\u0120participants": 8399, "\u0120occup": 8400, "institution": 8401, "nam": 8402, "\u0120gesch\u00c3\u00a4ftsordnung": 8403, "\u0120dangerous": 8404, "\u0120wien": 8405, "\u0120cer": 8406, "\u0120erkennen": 8407, "\u0120marken": 8408, "\u0120playing": 8409, "\u0120bugtra": 8410, "\u00c3\u00a4mpfen": 8411, "100": 8412, "\u0120gb": 8413, "umed": 8414, "\u0120extended": 8415, "\u0120st\u00c3\u00a4rk": 8416, "\u0120\u00c3\u00bcberpr\u00c3\u00bcfen": 8417, "\u0120circumstances": 8418, "onn": 8419, "\u0120entschlossen": 8420, "\u0120gewinnen": 8421, "\u0120urs": 8422, "\u0120facing": 8423, "\u0120instrumente": 8424, "imb": 8425, "\u0120zustimmung": 8426, "\u0120anerkennung": 8427, "\u0120fenster": 8428, "\u0120er\u00c3\u00b6ff": 8429, "\u0120ging": 8430, "either": 8431, "\u0120herunterladen": 8432, "\u0120stahl": 8433, "\u0120dein": 8434, "\u0120magaz": 8435, "\u0120gdp": 8436, "\u0120richtigen": 8437, "chtet": 8438, "cycl": 8439, "\u0120technologien": 8440, "\u0120slides": 8441, "\u0120luxur": 8442, "\u0120beteiligung": 8443, "\u0120addressed": 8444, "\u0120h\u00c3\u00b6chste": 8445, "kat": 8446, "\u0120milliar": 8447, "\u0120\u00c3\u00bcbergang": 8448, "\u0120door": 8449, "aktion": 8450, "\u0120m\u00c3\u00b6glicherweise": 8451, "\u0120seven": 8452, "\u0120formular": 8453, "\u0120followed": 8454, "\u0120k\u00c3\u00bcnstler": 8455, "liste": 8456, "\u0120kurs": 8457, "\u0120derartige": 8458, "\u0120shops": 8459, "\u0120verloren": 8460, "\u0120volle": 8461, "\u0120bestehenden": 8462, "\u0120od": 8463, "\u0120residence": 8464, "sprach": 8465, "\u0120pakistan": 8466, "\u0120dus": 8467, "\u0120regierungs": 8468, "\u0120delic": 8469, "\u0120universal": 8470, "\u0120ferr": 8471, "fuhr": 8472, "\u0120dach": 8473, "\u0120roll": 8474, "\u0120celebr": 8475, "\u0120massage": 8476, "\u0120remove": 8477, "\u0120asia": 8478, "\u0120folgendes": 8479, "hann": 8480, "\u0120neither": 8481, "\u0120introduction": 8482, "\u0120victims": 8483, "iot": 8484, "\u0120defined": 8485, "omb": 8486, "assungs": 8487, "\u0120strict": 8488, "parl": 8489, "\u0120cash": 8490, "\u0120palest": 8491, "\u0120ni": 8492, "\u0120worked": 8493, "\u0120fiscal": 8494, "spartner": 8495, "\u0120entrepr": 8496, "\u0120luxury": 8497, "\u0120articles": 8498, "\u0120endg\u00c3\u00bclt": 8499, "\u0120practices": 8500, "metho": 8501, "\u0120koordinierung": 8502, "\u0120ausreichend": 8503, "\u0120expenditure": 8504, "bad": 8505, "ringen": 8506, "\u0120blo": 8507, "spolit": 8508, "\u0120fertig": 8509, "eding": 8510, "erseits": 8511, "staatssekret\u00c3\u00a4r": 8512, "\u0120approximately": 8513, "\u0120india": 8514, "\u0120definit": 8515, "gencies": 8516, "\u0120pal\u00c3\u00a4st": 8517, "\u0120hamburg": 8518, "b\u00c3\u00bcrger": 8519, "hner": 8520, "\u0120abwe": 8521, "\u0120ideen": 8522, "\u0120participate": 8523, "\u0120om": 8524, "\u0120opposition": 8525, "\u0120scen": 8526, "\u0120gro\u00c3\u0141es": 8527, "attform": 8528, "\u0120regulatory": 8529, "\u0120grenz\u00c3\u00bcberschreit": 8530, "\u0120inquiries": 8531, "\u0120rasch": 8532, "\u0120freue": 8533, "\u0120h\u00c3\u00a4tten": 8534, "\u0120sides": 8535, "\u0120earlier": 8536, "\u0120royal": 8537, "\u0120gew\u00c3\u00bcnsch": 8538, "fassung": 8539, "\u0120whe": 8540, "\u0120bemerkungen": 8541, "500": 8542, "going": 8543, "\u0120waffen": 8544, "\u0120cra": 8545, "\u0120cooper": 8546, "\u0120managed": 8547, "\u0120thurs": 8548, "\u0120intended": 8549, "\u0120n\u00c3\u00bctz": 8550, "\u0120consumption": 8551, "\u0120appears": 8552, "\u0120yester": 8553, "\u0120hilf": 8554, "\u0120virtual": 8555, "\u0120criminal": 8556, "\u0120visual": 8557, "\u0120entspannen": 8558, "\u0120arrangements": 8559, "\u0120opens": 8560, "\u0120roman": 8561, "krise": 8562, "pm": 8563, "\u0120verur": 8564, "\u012008": 8565, "jenigen": 8566, "\u0120icon": 8567, "\u0120tours": 8568, "\u0120miteinander": 8569, "ranken": 8570, "\u0120europ\u00c3\u00a4er": 8571, "\u0120gespe": 8572, "\u0120freie": 8573, "\u0120accounts": 8574, "\u0120investments": 8575, "\u0120possibilities": 8576, "ifying": 8577, "onenten": 8578, "\u0120ker": 8579, "\u0120belong": 8580, "\u0120multiple": 8581, "\u0120naturally": 8582, "\u0120promoting": 8583, "\u0120extension": 8584, "zig": 8585, "\u0120nik": 8586, "\u0120demands": 8587, "ervation": 8588, "iertes": 8589, "\u0120consists": 8590, "\u0120unterschiedlichen": 8591, "\u0120eingesch": 8592, "cin": 8593, "\u0120dient": 8594, "tete": 8595, "\u0120nachdem": 8596, "\u0120konz": 8597, "\u0120assembly": 8598, "accept": 8599, "\u0120percent": 8600, "\u0120studies": 8601, "\u0120stattfinden": 8602, "\u0120railway": 8603, "\u0120fl\u00c3\u00bcchtl": 8604, "\u0120releases": 8605, "\u0120mindest": 8606, "\u0120entreprene": 8607, "beh\u00c3\u00b6rden": 8608, "ologische": 8609, "\u0120erneuer": 8610, "det": 8611, "itious": 8612, "\u0120imag": 8613, "\u0120finanzierungs": 8614, "\u0120leistung": 8615, "dateien": 8616, "\u0120launched": 8617, "m\u00c3\u00a4rkte": 8618, "dok": 8619, "ikal": 8620, "\u0120gebieten": 8621, "\u0120teilnahme": 8622, "\u0120presentation": 8623, "informationen": 8624, "\u0120bugtraq": 8625, "\u0120sap": 8626, "\u0120samm": 8627, "lehen": 8628, "using": 8629, "\u0120fortschritt": 8630, "\u0120best\u00c3\u00a4tigt": 8631, "\u0120offensichtlich": 8632, "\u0120falsch": 8633, "sid": 8634, "\u0120bip": 8635, "\u0120authent": 8636, "etragen": 8637, "begriffen": 8638, "mlich": 8639, "\u0120eras": 8640, "\u0120delay": 8641, "\u01202015": 8642, "\u0120\u00c3\u00bcbernachtung": 8643, "\u0120reje": 8644, "\u0120chat": 8645, "spar": 8646, "\u0120combat": 8647, "\u0120engineering": 8648, "\u0120placed": 8649, "\u0120pick": 8650, "\u0120leb": 8651, "immungen": 8652, "\u0120output": 8653, "\u0120welcher": 8654, "\u0120kommenden": 8655, "\u0120vorsitzes": 8656, "\u0120configuration": 8657, "\u0120christian": 8658, "\u0120veranstaltungen": 8659, "\u0120\u00c3\u00bcbersch": 8660, "ele": 8661, "nor": 8662, "leun": 8663, "geleg": 8664, "\u0120metal": 8665, "\u0120dokumente": 8666, "\u0120establishment": 8667, "\u0120kommissionsmitglied": 8668, "\u0120thinking": 8669, "\u0120ungarn": 8670, "\u0120toler": 8671, "\u0120signed": 8672, "\u0120gr\u00c3\u00b6\u00c3\u0141e": 8673, "\u0120st\u00c3\u00a4ndig": 8674, "\u0120desktop": 8675, "ickt": 8676, "losen": 8677, "\u0120glas": 8678, "\u0120herstellung": 8679, "beauftrag": 8680, "\u0120reserve": 8681, "\u0120wachsen": 8682, "\u0120pers\u00c3\u00b6nlich": 8683, "\u0120mechanis": 8684, "\u0120bestandteil": 8685, "\u0120junge": 8686, "iend": 8687, "\u0120frag": 8688, "\u0120properly": 8689, "\u0120candidate": 8690, "00352": 8691, "\u0120sar": 8692, "\u012065": 8693, "\u0120ma\u00c3\u0141nahme": 8694, "\u0120explan": 8695, "\u0120verfassung": 8696, "\u0120erheblich": 8697, "\u0120ltd": 8698, "mot": 8699, "haltet": 8700, "betten": 8701, "\u0120barnier": 8702, "\u0120ul": 8703, "etic": 8704, "\u0120approves": 8705, "klusive": 8706, "yle": 8707, "isierte": 8708, "roy": 8709, "\u0120rig": 8710, "\u0120compens": 8711, "\u0120romant": 8712, "\u0120northern": 8713, "\u0120raise": 8714, "\u0120communities": 8715, "vollen": 8716, "\u0120liqu": 8717, "fest": 8718, "\u0120gegenteil": 8719, "\u0120verlassen": 8720, "\u0120zweifel": 8721, "i\u00c3\u00b6": 8722, "\u0120unaccept": 8723, "\u0120played": 8724, "\u0120verfahrens": 8725, "etzungen": 8726, "\u0120versucht": 8727, "\u00c3\u00a4ltig": 8728, "\u0120vermeiden": 8729, "\u0120shared": 8730, "\u0120regards": 8731, "windigkeit": 8732, "\u0120zone": 8733, "\u0120wei": 8734, "\u0120mehrwert": 8735, "\u0120glad": 8736, "\u0120portal": 8737, "\u0120owners": 8738, "\u0120moral": 8739, "2008": 8740, "zusetzen": 8741, "\u0120jahrhundert": 8742, "\u0120imper": 8743, "\u0120sekt": 8744, "\u0120strengthening": 8745, "\u0120fem": 8746, "\u0120argent": 8747, "\u0120anspruch": 8748, "\u0120relativ": 8749, "\u0120horizont": 8750, "\u0120globale": 8751, "zub": 8752, "\u0120fruit": 8753, "rum": 8754, "\u0120thre": 8755, "\u0120bann": 8756, "\u0120lan": 8757, "\u0120alban": 8758, "\u0120constru": 8759, "\u0120zug\u00c3\u00a4nglich": 8760, "erstellen": 8761, "\u0120gebiete": 8762, "\u0120installieren": 8763, "\u00c3\u00a4ume": 8764, "\u0120plaza": 8765, "\u0120differences": 8766, "\u0120industries": 8767, "\u0120happens": 8768, "\u0120st\u00c3\u00bcck": 8769, "\u0120wechsel": 8770, "\u0120entertain": 8771, "\u0120calcul": 8772, "\u0120gew\u00c3\u00a4hrleistet": 8773, "quality": 8774, "liothe": 8775, "wiesen": 8776, "\u0120ku": 8777, "ingu": 8778, "\u0120kurze": 8779, "\u0120w\u00c3\u00a4ren": 8780, "\u0120daraus": 8781, "\u0120overview": 8782, "preise": 8783, "\u0120m\u00c3\u00a4rkte": 8784, "\u0120granted": 8785, "rig": 8786, "\u0120;": 8787, "\u0120chosen": 8788, "\u0120vorteil": 8789, "\u0120umfassende": 8790, ".-": 8791, "\u0120nationen": 8792, "\u0120thats": 8793, "\u0120availability": 8794, "\u01201991": 8795, "\u0120langfristige": 8796, "\u0120likely": 8797, "\u0120prodi": 8798, "\u0120interview": 8799, "\u0120directory": 8800, "\u0120tarif": 8801, "\u0120recommended": 8802, "\u0120urgent": 8803, "material": 8804, "\u0120mol": 8805, "aken": 8806, "\u0120favor": 8807, "\u0120thursday": 8808, "\u0120\u00c3\u00a4": 8809, "\u0120facts": 8810, "\u0120installiert": 8811, "\u0120donnerstag": 8812, "\u0120grundsatz": 8813, "\u0120golden": 8814, "\u0120widersp": 8815, "\u0120\u00c3\u00bcberpr\u00c3\u00bcft": 8816, "\u0120drogen": 8817, "uts": 8818, "dete": 8819, "\u0120mitte": 8820, "\u0120geograph": 8821, "\u0120steigen": 8822, "\u0120europ\u00c3\u00a4isches": 8823, "\u0120anpassung": 8824, "effiz": 8825, "\u0120cry": 8826, "\u0120adobe": 8827, "\u0120%.": 8828, "\u0120osten": 8829, "akten": 8830, "\u0120plants": 8831, "handlung": 8832, "\u0120organised": 8833, "\u0120sky": 8834, "\u0120konzentrieren": 8835, "\u0120taus": 8836, "\u0120ansch": 8837, "\u0120elemente": 8838, "\u0120colleagues": 8839, "ungsver": 8840, "\u0120accessible": 8841, "\u0120mittelmeer": 8842, "\u0120verteidigung": 8843, "\u0120dritten": 8844, "\u0120ty": 8845, "\u0120bang": 8846, "idential": 8847, "\u0120marked": 8848, "\u0120wachstums": 8849, "\u0120tie": 8850, "\u0120wirks": 8851, "indest": 8852, "plo": 8853, "\u0120internationaler": 8854, "abilities": 8855, "ario": 8856, "\u0120attem": 8857, "\u0120finde": 8858, "\u0120diam": 8859, "nd": 8860, "\u0120bras": 8861, "\u0120conclusion": 8862, "\u0120popul": 8863, "\u0120unge": 8864, "\u0120actual": 8865, "\u0120reliable": 8866, "utzung": 8867, "\u0120landwir": 8868, "\u0120wollte": 8869, "stud": 8870, "struktur": 8871, "\u0120react": 8872, "tenance": 8873, "\u0120adults": 8874, "stehenden": 8875, "\u0120referred": 8876, "\u0120submit": 8877, "2001": 8878, "install": 8879, "\u0120trial": 8880, "\u0120beschwer": 8881, "\u0120buildings": 8882, "rate": 8883, "\u0120swe": 8884, "\u0120giving": 8885, "\u0120linked": 8886, "\u0120verwirk": 8887, "94": 8888, "\u0120ath": 8889, "\u0120spricht": 8890, "\u0120nutzbar": 8891, "\u0120saying": 8892, "\u0120tasks": 8893, "\u0120cyprus": 8894, "\u0120length": 8895, "ilio": 8896, "\u0120stol": 8897, "\u0120gelangen": 8898, "\u0120passwort": 8899, "\u0120gef\u00c3\u00b6rdert": 8900, "\u0120unacceptable": 8901, "\u0120except": 8902, "\u0120detaill": 8903, "uba": 8904, "\u0120durchschnitt": 8905, "\u0120globalisierung": 8906, "gef\u00c3\u00bcgt": 8907, "\u0120parallel": 8908, "\u0120telefonisch": 8909, "\u0120kategorie": 8910, "\u0120gonz": 8911, "\u0120trave": 8912, "\u012047": 8913, "\u0120peoples": 8914, "\u0120hergestellt": 8915, "\u0120logo": 8916, "rest": 8917, "\u0120veranstaltung": 8918, "mittlung": 8919, "ureau": 8920, "\u0120immediate": 8921, "\u0120fus": 8922, "\u0120ber\u00c3\u00bchm": 8923, "\u0120selten": 8924, "\u0120mobilit\u00c3\u00a4t": 8925, "\u0120ausschusses": 8926, "\u0120ombudsman": 8927, "\u0120saint": 8928, "\u0120inbegriffen": 8929, "\u0120withdra": 8930, "\u0120leistungen": 8931, "\u0120verst\u00c3\u00a4rkt": 8932, "\u0120drittens": 8933, "\u0120haupts\u00c3\u00a4chlich": 8934, "atik": 8935, "\u0120anlagen": 8936, "\u0120instance": 8937, "\u0120versammlung": 8938, "\u0120lands": 8939, "govern": 8940, "\u0120rental": 8941, "\u0120ue": 8942, "\u0120zuerst": 8943, "\u0120ausgewo": 8944, "\u0120dal": 8945, "\u0120eb": 8946, "\u0120desk": 8947, "ails": 8948, "\u0120politics": 8949, "\u0120soziales": 8950, "\u0120bestimmtes": 8951, "\u0120html": 8952, "\u0120\u00c3\u00a4u\u00c3\u0141": 8953, "far": 8954, "\u0120haltung": 8955, "\u0120cred": 8956, "\u0120teilweise": 8957, "kl\u00c3\u00a4rung": 8958, "angebot": 8959, "\u0120compatible": 8960, "\u0120god": 8961, "\u0120aktuell": 8962, "\u0120switch": 8963, "\u0120regionalen": 8964, "\u0120upgrade": 8965, "ypern": 8966, "\u0120nights": 8967, "\u0120meeres": 8968, "\u0120planned": 8969, "estelle": 8970, "iking": 8971, "\u0120europol": 8972, "\u0120limits": 8973, "uft": 8974, "year": 8975, "inos": 8976, "\u0120went": 8977, "\u0120requested": 8978, "\u0120kindern": 8979, "\u0120ambitious": 8980, "lern": 8981, "\u0120nar": 8982, "\u0120becoming": 8983, "\u0120men\u00c3\u00bc": 8984, "\u0120messe": 8985, "\u0120beinhaltet": 8986, "rich": 8987, "\u0120convin": 8988, "\u0120charter": 8989, "\u0120farb": 8990, "\u0120offering": 8991, "\u0120250": 8992, "\u0120laws": 8993, "\u0120spread": 8994, "\u0120forces": 8995, "\u0120amaz": 8996, "bur": 8997, "\u0120wichtiges": 8998, "\u0120pers\u00c3\u00b6nliche": 8999, "\u0120dry": 9000, "\u0120untern": 9001, "\u0120globalen": 9002, "\u0120genehmigung": 9003, "dex": 9004, "\u0120gekommen": 9005, "\u0120beschleun": 9006, "\u0120zeiten": 9007, "\u00c3\u00bcste": 9008, "\u0120alumin": 9009, "\u0120shipping": 9010, "\u0120indien": 9011, "\u0120gets": 9012, "\u0120flexibilit\u00c3\u00a4t": 9013, "otel": 9014, "\u0120parlamentar": 9015, "\u0120unterschiedlich": 9016, "paket": 9017, "iegen": 9018, "\u0120einfluss": 9019, "\u0120sieben": 9020, "format": 9021, "\u0120voice": 9022, "\u0120starke": 9023, "\u0120balcon": 9024, "gien": 9025, "\u0120restruct": 9026, "\u0120spend": 9027, "\u0120genu": 9028, "\u0120reserved": 9029, "\u0120lith": 9030, "erenz": 9031, "\u0120councils": 9032, "\u0120fr\u00c3\u00bchst\u00c3\u00bccksbuffet": 9033, "isely": 9034, "\u0120powers": 9035, "\u0120bee": 9036, "\u0120verhindern": 9037, "ibly": 9038, "\u0120finland": 9039, "\u0120bestellung": 9040, "\u0120gain": 9041, "ktiven": 9042, "\u0120paragraph": 9043, "iny": 9044, "\u0120kabel": 9045, "link": 9046, "\u0120honour": 9047, "\u0120agencies": 9048, "\u0120abzu": 9049, "\u0120nachrichten": 9050, "\u0120estim": 9051, "\u0120erkl\u00c3\u00a4rungen": 9052, "\u0120summ": 9053, "\u0120st\u00c3\u00a4dte": 9054, "\u0120gepr\u00c3\u00bcft": 9055, "\u0120erasmus": 9056, "gung": 9057, "isierungs": 9058, "ores": 9059, "istisch": 9060, "\u0120seriously": 9061, "\u0120slovak": 9062, "\u0120perspective": 9063, "\u0120maintenance": 9064, "\u0120elimin": 9065, "\u0120messages": 9066, "\u0120arbeitslosigkeit": 9067, "\u0120tac": 9068, "\u0120count": 9069, "haber": 9070, "\u0120wirkung": 9071, "\u0120295": 9072, "\u0120titel": 9073, "bek\u00c3\u00a4mpfung": 9074, "\u0120risiken": 9075, "\u0120expressed": 9076, "\u0120dienstleistungs": 9077, "\u0120wishes": 9078, "\u0120niederlande": 9079, "isierten": 9080, "\u0120reisen": 9081, "etze": 9082, "ulted": 9083, "\u0120raums": 9084, "\u0120guarantees": 9085, "\u0120silver": 9086, "sec": 9087, "\u012004": 9088, "ashion": 9089, "weisung": 9090, "\u0120koh\u00c3\u00a4s": 9091, "\u0120earn": 9092, "\u0120ver\u00c3\u00a4ndert": 9093, "\u0120gen\u00c3\u00bc": 9094, "\u0120gericht": 9095, "\u0120trends": 9096, "\u0120capt": 9097, "\u0120optimal": 9098, "\u0120milliarden": 9099, "\u0120fischer": 9100, "vely": 9101, "ishing": 9102, "ileo": 9103, "\u0120mitgliedstaat": 9104, "\u0120betrachten": 9105, "\u0120improvements": 9106, "\u0120h\u00c3\u00a4ngt": 9107, "holders": 9108, "\u0120automatic": 9109, "\u0120wundersch": 9110, "88": 9111, "\u0120johann": 9112, "making": 9113, "\u00c3\u00a4fen": 9114, "\u0120enth": 9115, "\u0120polize": 9116, "\u0120looks": 9117, "\u0120factors": 9118, "\u0120baum": 9119, "\u0120solcher": 9120, "\u0120passiert": 9121, "\u0120dollar": 9122, "uting": 9123, "\u0120mrd": 9124, "\u012064": 9125, "gestimmt": 9126, "\u0120vollkommen": 9127, "2006": 9128, "\u0120strongly": 9129, "kam": 9130, "gence": 9131, "\u0120autor": 9132, "\u0120technik": 9133, "\u0120unterst\u00c3\u00bctze": 9134, "\u0120konflikt": 9135, "miss": 9136, "\u0120kleiner": 9137, "\u0120architecture": 9138, "fle": 9139, "ti": 9140, "icas": 9141, "\u0120erwart": 9142, "\u0120factor": 9143, "\u0120glaub": 9144, "initiative": 9145, "\u0120bureau": 9146, "\u0120informiert": 9147, "\u0120sorge": 9148, "software": 9149, "\u0120feld": 9150, "qual": 9151, "\u0120freiwill": 9152, "oder": 9153, "\u0120v\u00c3\u00b6l": 9154, "ication": 9155, "\u0120fraud": 9156, "\u0120dutch": 9157, "\u0120anc": 9158, "\u0120beteiligten": 9159, "ee": 9160, "viel": 9161, "\u0120deg": 9162, "\u0120hierf\u00c3\u00bcr": 9163, "\u0120hands": 9164, "\u0120letter": 9165, "\u0120fourth": 9166, "\u0120stick": 9167, "\u0120wesentliche": 9168, "general": 9169, "ipe": 9170, "rent": 9171, "inian": 9172, "\u0120merg": 9173, "\u0120extend": 9174, "\u0120reding": 9175, "\u0120typical": 9176, "\u0120safegu": 9177, "\u0120tenn": 9178, "\u00c3\u00bcter": 9179, "zeichnen": 9180, "\u0120depends": 9181, "\u0120connected": 9182, "\u0120outdo": 9183, "\u0120totally": 9184, "\u0120enormous": 9185, "\u0120expos": 9186, "\u00c3\u00bcssen": 9187, "\u0120b\u00c3\u00bcrgern": 9188, "\u0120appeal": 9189, "\u0120highlight": 9190, "kurs": 9191, "\u0120balt": 9192, "\u0120ing": 9193, "\u00c3\u0141te": 9194, "\u0120houses": 9195, "ifi": 9196, "\u00c3\u00a4hlten": 9197, "\u0120krisen": 9198, "dienstleistungen": 9199, "\u0120hospital": 9200, "orgt": 9201, "\u0120eco": 9202, "\u0120vit": 9203, "\u0120bear": 9204, "\u0120manage": 9205, "\u0120castle": 9206, "\u0120sloven": 9207, "\u0120echo": 9208, "\u0120grunds\u00c3\u00a4tzlich": 9209, "umm": 9210, "\u0120schlecht": 9211, "\u0120zut": 9212, "\u0120erfordern": 9213, "\u0120adj": 9214, "\u0120fernse": 9215, "f\u00c3\u00b6rder": 9216, "inens": 9217, "road": 9218, "\u0120versehen": 9219, "\u0120experienced": 9220, "\u0120worten": 9221, "\u0120dream": 9222, "\u0120kreditkarte": 9223, "\u0120mold": 9224, "\u0120zypern": 9225, "ela": 9226, "\u0120zuk": 9227, "\u0120spiele": 9228, "\u0120flag": 9229, "\u0120television": 9230, "\u0120mutual": 9231, "\u0120recognition": 9232, "\u0120fee": 9233, "wohner": 9234, "dro": 9235, "\u0120weap": 9236, "\u0120obwohl": 9237, "\u0120premierminister": 9238, "idet": 9239, "\u0120bodies": 9240, "\u0120600": 9241, "\u0120gnu": 9242, "\u0120besitzt": 9243, "\u0120vienna": 9244, "bat": 9245, "\u0120stu": 9246, "\u0120autob": 9247, "\u0120teilnehmen": 9248, "\u0120furnished": 9249, "\u0120excess": 9250, "official": 9251, "\u0120aufnahme": 9252, "\u0120nato": 9253, "\u0120guaranteed": 9254, "\u0120beteiligt": 9255, "\u0120failure": 9256, "m\u00c3\u00b6gen": 9257, "\u0120announced": 9258, "\u0120aktionen": 9259, "\u0120cad": 9260, "ald": 9261, "idents": 9262, "\u0120breit": 9263, "\u0120changing": 9264, "\u0120label": 9265, "\u0120thail": 9266, "\u0120z\u00c3\u00a4hlen": 9267, "\u0120manuel": 9268, "\u0120dynamic": 9269, "\u0120displayed": 9270, "\u0120belli": 9271, "\u0120zuges": 9272, "\u0120flight": 9273, "ma\u00c3\u0141en": 9274, "\u0120trying": 9275, "\u0120keinerlei": 9276, "\u0120fulfil": 9277, "\u0120aussicht": 9278, "handlungen": 9279, "\u0120surface": 9280, "nl": 9281, "\u0120mcc": 9282, "osed": 9283, "\u0120\u00c3\u00bcbersicht": 9284, "\u0120compu": 9285, "\u00c3\u00a4lfte": 9286, "\u0120helps": 9287, "\u0120operators": 9288, "\u0120zielen": 9289, "gewicht": 9290, "center": 9291, "\u0120gezeigt": 9292, "\u0120sp\u00c3\u00a4t": 9293, "\u012095": 9294, "\u0120mall": 9295, "\u0120kopf": 9296, "look": 9297, "\u0120hes": 9298, "leiten": 9299, "\u0120konsultation": 9300, "ysteme": 9301, "\u0120landschaft": 9302, "\u012006": 9303, "f\u00c3\u00a4hig": 9304, "absicht": 9305, "\u0120jam": 9306, "\u0120hof": 9307, "\u0120speicher": 9308, "\u0120structures": 9309, "\u0120intensiv": 9310, "\u0120appointed": 9311, "\u0120ix": 9312, "\u0120dedicated": 9313, "\u0120legitim": 9314, "\u0120eins": 9315, "herr": 9316, "\u0120disable": 9317, "\u0120directives": 9318, "\u0120dublin": 9319, "\u0120zusatz": 9320, "\u0120problemen": 9321, "\u0120relating": 9322, "zeichnete": 9323, "\u0120automob": 9324, "\u0120consideration": 9325, "\u0120beauty": 9326, "\u0120zuk\u00c3\u00bcnft": 9327, "effe": 9328, "abstimmung": 9329, "\u0120badezimmer": 9330, "sers": 9331, "ypt": 9332, "\u0120prize": 9333, "\u0120entw": 9334, "\u0120traum": 9335, "\u0120emot": 9336, "gem\u00c3\u00a4\u00c3\u0141": 9337, "\u0120exports": 9338, "zil": 9339, "\u00c3\u00a4ck": 9340, "\u0120understanding": 9341, "\u0120belliard": 9342, "\u0120doesnt": 9343, "\u0120elektr": 9344, "\u0120schools": 9345, "hme": 9346, "tten": 9347, "\u0120einstellungen": 9348, "\u0120empfehlung": 9349, "\u0120gipfel": 9350, "bi": 9351, "\u0120tisch": 9352, "\u0120geboren": 9353, "\u0120southern": 9354, "\u0120exercise": 9355, "cp": 9356, "k\u00c3\u00bcnd": 9357, "atisch": 9358, "\u0120contents": 9359, "\u0120obtain": 9360, "\u0120recommendation": 9361, "\u0120documentation": 9362, "europa": 9363, "ergeb": 9364, "\u0120ausser": 9365, "\u0120lokalen": 9366, "iary": 9367, "kar": 9368, "arta": 9369, "\u0120expensive": 9370, "\u0120significantly": 9371, "\u0120combination": 9372, "regelung": 9373, "\u0120suspended": 9374, "via": 9375, "html": 9376, "condition": 9377, "\u0120failed": 9378, "\u0120statements": 9379, "projekt": 9380, "wachstum": 9381, "\u0120specifically": 9382, "vy": 9383, "\u0120income": 9384, "emark": 9385, "\u0120schuld": 9386, "\u0120grant": 9387, "\u0120zusch": 9388, "\u0120aktionsplan": 9389, "reisen": 9390, "\u0120fat": 9391, "\u0120oral": 9392, "\u012039": 9393, "\u0120pred": 9394, "\u0120zumindest": 9395, "\u012021000": 9396, "\u0120f\u00c3\u00a4lle": 9397, "\u0120anschlie\u00c3\u0141end": 9398, "\u0120fron": 9399, "\u0120outstanding": 9400, "\u0120relation": 9401, "\u0120profess": 9402, "\u0120bew\u00c3\u00a4lt": 9403, "gef\u00c3\u00a4hr": 9404, "\u0120exit": 9405, "\u0120spot": 9406, "\u0120optionen": 9407, "woody": 9408, "rt": 9409, "ardo": 9410, "\u0120evidence": 9411, "ologischen": 9412, "\u0120finanziert": 9413, "\u0120straight": 9414, "\u0120panel": 9415, "\u0120effectively": 9416, "\u0120hilft": 9417, "\u0120consequently": 9418, "41": 9419, "\u0120aer": 9420, "\u0120diss": 9421, "\u0120sund": 9422, "\u0120fand": 9423, "tech": 9424, "scher": 9425, "\u0120deiner": 9426, "\u0120books": 9427, "\u0120gallery": 9428, "zul": 9429, "atlant": 9430, "\u0120unofficial": 9431, "\u00c3\u00a4ten": 9432, "\u0120durchaus": 9433, "\u0120120": 9434, "\u0120d\u00c3\u00bcrfte": 9435, "\u0120lautet": 9436, "\u0120botschaft": 9437, "wes": 9438, "ittel": 9439, "\u0120anschluss": 9440, "\u0120kept": 9441, "\u0120cold": 9442, "bruch": 9443, "\u0120hinzugef\u00c3\u00bcgt": 9444, "\u0120erh\u00c3\u00b6hen": 9445, "\u0120moving": 9446, "\u0120aviation": 9447, "\u0120appoint": 9448, "\u0120benachrichtigt": 9449, "government": 9450, "58": 9451, "\u0120pier": 9452, "state": 9453, "\u0120brenn": 9454, "\u0120bestellen": 9455, "holm": 9456, "\u0120schneller": 9457, "\u0120slowen": 9458, "76": 9459, "\u0120indep": 9460, "\u0120ordnung": 9461, "\u0120schnelle": 9462, "kas": 9463, "\u0120fuel": 9464, "\u0120einkauf": 9465, "\u0120proport": 9466, "\u0120compared": 9467, "\u0120agentur": 9468, "\u0120swed": 9469, "stra\u00c3\u0141e": 9470, "r\u00c3\u00bcstung": 9471, "stands": 9472, "\u0120pilot": 9473, "zin": 9474, "\u0120infe": 9475, "\u0120manche": 9476, "l\u00c3\u00b6sungen": 9477, "\u0120reden": 9478, "fraktion": 9479, "\u0120asylum": 9480, "\u0120klimawandel": 9481, "\u0120stamm": 9482, "\u0120producers": 9483, "\u0120suffer": 9484, "\u0120vehicle": 9485, "\u0120suc": 9486, "\u0120mittelpunkt": 9487, "\u0120umweltschutz": 9488, "ih": 9489, "wissen": 9490, "eral": 9491, "\u0120ausbau": 9492, "\u0120sehens": 9493, "\u0120unterschiede": 9494, "\u0120demokratischen": 9495, "\u0120pill": 9496, "ales": 9497, "entions": 9498, "\u0120derart": 9499, "zuf\u00c3\u00bchren": 9500, "\u0120propose": 9501, "\u0120ber\u00c3\u00bccksichtigen": 9502, "\u0120geleistet": 9503, "ampagne": 9504, "kle": 9505, "\u00c3\u00b6p": 9506, "\u0120jose": 9507, "\u0120technological": 9508, "\u0120influence": 9509, "\u0120categories": 9510, "\u0120attempt": 9511, "\u0120kas": 9512, "\u0120lovely": 9513, "f\u00c3\u00bchrten": 9514, "\u0120driving": 9515, "icherungs": 9516, "\u0120layout": 9517, "kop": 9518, "zz": 9519, "\u0120bezeichnet": 9520, "\u0120ausl\u00c3\u00a4nd": 9521, "\u0120equality": 9522, "\u0120banking": 9523, "\u0120orders": 9524, "\u0120achievement": 9525, "\u0120kompet": 9526, "technologie": 9527, "\u0120frequently": 9528, "\u0120disease": 9529, "maschinen": 9530, "entsche": 9531, "sph": 9532, "\u0120renewable": 9533, "\u0120channel": 9534, "\u0120bse": 9535, "\u0120cha": 9536, "\u0120amounts": 9537, "\u0120waiting": 9538, "\u0120vorsitzen": 9539, "\u0120regularly": 9540, "\u0120verbesserungen": 9541, "\u0120discrimination": 9542, "bro": 9543, "\u0120cup": 9544, "\u0120politischer": 9545, "\u0120schwed": 9546, "\u0120irish": 9547, "\u0120accur": 9548, "\u0120myself": 9549, "\u0120nutzer": 9550, "\u0120advoc": 9551, "\u0120beitr\u00c3\u00a4ge": 9552, "\u0120greek": 9553, "\u0120burden": 9554, "hows": 9555, "ito": 9556, "\u0120usw": 9557, "rupt": 9558, "\u0120einverstanden": 9559, "\u0120zustell": 9560, "\u0120bislang": 9561, "\u0120stra\u00c3\u0141e": 9562, "\u0120obligations": 9563, "\u0120puert": 9564, "\u0120alarm": 9565, "verh\u00c3\u00a4lt": 9566, "\u0120amts": 9567, "\u00c3\u00a4ndler": 9568, "\u0120bush": 9569, "\u0120begonnen": 9570, "\u0120papier": 9571, "inal": 9572, "\u0120teams": 9573, "\u0120neuesten": 9574, "\u0120erkennt": 9575, "\u0120caused": 9576, "lly": 9577, "tzeit": 9578, "heber": 9579, "\u0120corner": 9580, "\u0120certific": 9581, "r\u00c3\u00a4ume": 9582, "european": 9583, "\u0120mb": 9584, "\u0120ungleich": 9585, "\u00c3\u00bcg": 9586, "\u0120beur": 9587, "\u0120contem": 9588, "\u0120realit\u00c3\u00a4t": 9589, "iefert": 9590, "\u0120difficulties": 9591, "itu": 9592, "\u0120eure": 9593, "formular": 9594, "\u0120serves": 9595, "\u0120afford": 9596, "\u0120profile": 9597, "\u0120independence": 9598, "ral": 9599, "\u0120einstellung": 9600, "\u0120legt": 9601, "\u0120race": 9602, "\u0120galileo": 9603, "\u0120sleep": 9604, "\u0120m\u00c3\u00bcnd": 9605, "\u0120cloth": 9606, "ergie": 9607, "server": 9608, "\u0120advent": 9609, "2007": 9610, "point": 9611, "\u0120illustr": 9612, "\u0120n\u00c3\u00a4here": 9613, "\u0120theme": 9614, "iane": 9615, "\u0120precisely": 9616, "\u0120collabor": 9617, "xy": 9618, "zed": 9619, "zne": 9620, "intern": 9621, "\u0120toile": 9622, "\u0120zahlreichen": 9623, "\u0120austrian": 9624, "\u0120betrachtet": 9625, "\u0120rss": 9626, "\u0120defe": 9627, "\u0120title": 9628, "\u0120mittl": 9629, "onien": 9630, "annung": 9631, "\u0120qualit": 9632, "\u0120therap": 9633, "\u0120\u00c3\u00a4r": 9634, "\u0120charges": 9635, "\u0120slight": 9636, "\u0120connect": 9637, "\u0120mountains": 9638, "ingesch": 9639, "\u0120boost": 9640, "\u0120universit\u00c3\u00a4t": 9641, "\u0120unf": 9642, "\u0120vorzu": 9643, "\u0120n\u00c3\u00b6tig": 9644, "\u0120austausch": 9645, "\u00c3\u00a4umen": 9646, "icars": 9647, "mittag": 9648, "\u0120w\u00c3\u00a4hrungs": 9649, "\u0120leads": 9650, "\u0120mikro": 9651, "\u0120thomas": 9652, "kommission": 9653, "geiz": 9654, "ffend": 9655, "assilio": 9656, "\u0120positions": 9657, "\u0120wald": 9658, "\u0120stimul": 9659, "\u0120akzeptiert": 9660, "\u0120imposs": 9661, "\u0120inspir": 9662, "\u0120bindet": 9663, "\u0120cin": 9664, "mechan": 9665, "\u0120frid": 9666, "\u0120figure": 9667, "\u0120vorgeschlagenen": 9668, "\u0120beschl\u00c3\u00bcsse": 9669, "\u0120vern\u00c3\u00bcnft": 9670, "ger\u00c3\u00a4te": 9671, "\u0120truth": 9672, "\u0120vertr\u00c3\u00a4ge": 9673, "\u0120spons": 9674, "\u0120meaning": 9675, "\u0120trop": 9676, "izit": 9677, "schl\u00c3\u00bcssel": 9678, "\u0120revision": 9679, "\u0120templ": 9680, "\u0120historischen": 9681, "\u0120associated": 9682, "\u0120forestry": 9683, "raten": 9684, "\u0120dos": 9685, "\u0120pad": 9686, "\u0120shar": 9687, "\u0120ehrgeiz": 9688, "\u0120\u00c3\u00bcberzeugt": 9689, "\u0120deposit": 9690, "\u0120echte": 9691, "schirm": 9692, "\u0120valley": 9693, "\u0120farbe": 9694, "\u0120wikicars": 9695, "\u0120besorg": 9696, "\u0120grunde": 9697, "\u0120described": 9698, "\u00c3\u00a4den": 9699, "derung": 9700, "\u0120meant": 9701, "gesellschaften": 9702, "\u0120imports": 9703, "modell": 9704, "ziele": 9705, "\u0120sah": 9706, "\u0120fashion": 9707, "elte": 9708, "\u0120gender": 9709, "\u0120vorliegenden": 9710, "parliament": 9711, "\u0120drugs": 9712, "cket": 9713, "\u0120vorsch": 9714, "\u0120consolid": 9715, "\u0120runs": 9716, "\u0120f\u00c3\u00a4llt": 9717, "\u0120emergency": 9718, "\u0120anliegen": 9719, "\u0120r\u00c3\u00bc": 9720, "\u0120ergreifen": 9721, "\u0120getr\u00c3\u00a4n": 9722, "amente": 9723, "\u0120reservations": 9724, "\u0120perfekt": 9725, "\u0120plugin": 9726, "\u0120bahnhof": 9727, "\u0120tiere": 9728, "\u0120pact": 9729, "\u0120vary": 9730, "\u0120packaging": 9731, "\u0120combined": 9732, "\u0120dorf": 9733, "\u0120anhang": 9734, "\u0120ros": 9735, "\u0120consulting": 9736, "\u0120kritik": 9737, "\u0120bemerkung": 9738, "\u0120diversity": 9739, "\u0120ethn": 9740, "\u0120vielzahl": 9741, "yan": 9742, "ablen": 9743, "\u0120einzelne": 9744, "\u0120mutter": 9745, "\u0120succeed": 9746, "\u0120roh": 9747, "\u0120pflanzen": 9748, "\u0120ken": 9749, "\u0120z\u00c3\u00a4hlt": 9750, "\u0120denmark": 9751, "\u0120beschrieben": 9752, "\u012085": 9753, "\u0120franc": 9754, "\u0120airlines": 9755, "\u0120installations": 9756, "\u0120district": 9757, "\u0120lunch": 9758, "mens": 9759, "clude": 9760, "\u0120scale": 9761, "\u0120ideale": 9762, "\u0120studien": 9763, "\u0120globalisation": 9764, "\u0120furniture": 9765, "\u0120tennis": 9766, "\u0120hafen": 9767, "\u0120lets": 9768, "\u0120pour": 9769, "\u0120effizienz": 9770, "\u0120intelligent": 9771, "\u0120kandid": 9772, "\u0120abonn": 9773, "elles": 9774, "\u0120nearly": 9775, "iso": 9776, "\u0120800": 9777, "\u0120w\u00c3\u00a4hrung": 9778, "\u0120l\u00c3\u00a4ng": 9779, "\u0120casa": 9780, "\u0120eingeb": 9781, "\u0120identified": 9782, "----------------": 9783, "\u0120pal\u00c3\u00a4stinens": 9784, "\u0120verpack": 9785, "\u0120prohib": 9786, "\u0120gestern": 9787, "\u0120estate": 9788, "freie": 9789, "\u0120magn": 9790, "\u0120methode": 9791, "\u0120tabled": 9792, "\u0120kyoto": 9793, "\u0120toba": 9794, "\u0120forts": 9795, "\u0120l\u00c3\u00a4ndliche": 9796, "svors": 9797, "\u0120patienten": 9798, "\u0120wi": 9799, "\u0120erh": 9800, "\u0120seien": 9801, "\u0120ausland": 9802, "zeg": 9803, "\u012046": 9804, "\u0120vereinigte": 9805, "\u0120regelungen": 9806, "amtliches": 9807, "r\u00c3\u00a4gen": 9808, "\u0120griech": 9809, "\u0120beantworten": 9810, "\u0120begl\u00c3\u00bcck": 9811, "\u0120resolutions": 9812, "\u0120ausf\u00c3\u00bchrungen": 9813, "\u0120verabschiedet": 9814, "\u0120ye": 9815, "\u0120ausgabe": 9816, "\u0120geschrieben": 9817, "\u0120innovations": 9818, "\u0120letzter": 9819, "now": 9820, "\u0120sd": 9821, "\u0120angene": 9822, "ila": 9823, "\u0120acqu": 9824, "\u0120applicable": 9825, "\u0120recognis": 9826, "\u0120erhebliche": 9827, "\u0120begl\u00c3\u00bcckw\u00c3\u00bcn": 9828, "\u0120formen": 9829, "\u0120nichtamtliches": 9830, "iums": 9831, "\u0120wait": 9832, "\u0120finnland": 9833, "\u0120fantastic": 9834, "\u0120tap": 9835, "\u0120messen": 9836, "\u0120ausges": 9837, "\u0120nunmehr": 9838, "\u0120balanced": 9839, "\u0120reasonable": 9840, "\u0120impossible": 9841, "\u0120borg": 9842, "\u0120weight": 9843, "\u0120shutt": 9844, "\u0120metall": 9845, "\u0120spa\u00c3\u0141": 9846, "\u0120freundlich": 9847, "\u0120welcomed": 9848, "\u0120betroffenen": 9849, "\u0120bedrooms": 9850, "\u0120j\u00c3\u00a4hrlich": 9851, "\u0120zimmern": 9852, "\u0120protest": 9853, "enswert": 9854, "\u0120trifft": 9855, "\u0120telekommun": 9856, "stoffen": 9857, "ventions": 9858, "42": 9859, "\u0120tast": 9860, "\u0120freunde": 9861, "\u0120versuch": 9862, "haften": 9863, "\u0120neighbourhood": 9864, "\u0120weather": 9865, "\u0120holding": 9866, "\u0120explain": 9867, "\u0120santa": 9868, "west": 9869, "inzip": 9870, "ustausch": 9871, "\u0120esc": 9872, "wirt": 9873,
[...]
