e n
e r
Ġ d
Ġ t
i n
Ġ a
c h
Ġt h
o n
e s
Ġ w
Ġ s
u n
i s
i t
a t
Ġth e
Ġ b
i e
r e
Ġ m
o r
Ġ e
a n
Ġ p
Ġ f
i ch
Ġ in
i on
Ġ h
Ġ o
Ġ c
a l
Ġ un
r o
a r
Ġ g
Ġa n
Ġ v
Ġ n
en t
a s
l e
t e
u s
Ġd ie
Ã ¼
Ã ¤
Ġb e
un g
Ġt o
Ġo f
Ġd er
Ġ i
Ġ z
in g
u r
o m
l l
Ġan d
i g
Ġ k
Ġ is
Ġun d
e d
s t
i r
Ġe in
e m
Ġ re
r a
i c
e l
Ġ l
u t
e it
i es
ich t
Ġd as
Ġe u
at ion
Ġv er
o l
e t
Ġth at
ro p
s ch
d er
a m
t er
Ġz u
d en
Ġa u
om m
t en
u l
Ġw ir
g e
v e
b er
Ġ r
i l
Ġs t
Ġw e
Ġh a
h r
Ġf or
l ich
Ã ¶
Ã¼ r
is ch
c t
g en
Ġeu rop
i d
u m
Ġd en
Ġ on
Ġw h
Ġn o
e in
Ġ er
is s
er e
Ġ it
l y
Ġa l
Ġp ro
Ġd ies
d e
Ġi m
Ġs o
Ġg e
i m
i er
es s
Ġc on
or t
Ġth is
Ġp r
f f
o s
b en
Ã Ł
Ġau f
Ġm it
Ġ j
v er
Ġa s
an d
es t
c e
Ġ ich
Ġp ar
Ġf Ã¼r
Ġc o
Ġdas s
a ch
omm iss
Ġv on
m en
Ġis t
Ġd es
Ġd e
Ġv or
k t
i ll
f t
Ġa re
Ġn e
ommiss ion
isch en
it h
Ġa us
a b
Ġ es
Ġn icht
Ġ le
Ġw ith
Ġno t
Ġa b
Ġs e
Ã¤ n
ul d
p p
Ġd em
t h
ung en
m ent
Ġeurop e
Ġw er
Ã¼ ber
t r
k e
Ġal s
Ġha ve
Ġs ch
Ġm a
o p
Ġein e
i v
t s
at e
id ent
l a
in d
o uld
w e
Ġh er
Ġa ll
Ġs u
i ve
Ġwer den
Ġ en
s p
Ġe x
am ent
l ie
it y
Ġs ich
Ġs ie
us t
Ġ um
i al
Ġ Ã¼ber
Ġun s
Ġ ent
Ġwh ich
Ġw ill
us s
q u
Ġ y
n en
Ġd o
Ġm e
an t
Ġd a
Ġau ch
Ġre g
Ġeurope an
Ġeurop Ã¤
Ġpar l
Ġs h
s en
c k
un d
i b
Ġp ol
an n
o re
ig en
Ġb er
Ġb y
h t
0 0
s te
ung s
Ġun ion
a y
h al
Ġs p
Ġco un
Ġm r
en d
Ġf ra
Ġa t
o w
Ġc ommission
sch a
Ġw ie
Ġh as
Ġ or
er n
Ġun ter
ion s
i k
h en
u g
i f
Ġher r
ie l
Ġa r
b e
er s
i en
Ġr es
p ort
is t
a h
Ġw as
e ct
Ġw or
Ġpr es
Ġg es
g r
Ġin ter
Ġwir d
a g
n e
a d
t z
Ġ 2
f or
u re
h eit
a in
isch e
Ġth ere
Ġ -
Ġha ben
Ġc omm
Ġh at
scha ft
et z
ro m
Ġs ind
Ġg r
Ã¤ s
en s
Ġc om
te d
u p
m e
Ġ 1
a hr
Ġ ch
a us
Ġb es
Ġh e
ll en
Ġa m
o t
al l
h er
Ġals o
Ġd ar
an g
Ġm Ã¶
Ġst at
ch te
b eit
Ġk ommission
Ġz ur
Ġ us
Ġa g
u e
Ġh o
em ber
Ã¤n der
Ġy o
r it
is e
Ġn ach
k eit
at en
u ch
Ġo ur
ar d
g es
en n
ĠeuropÃ¤ ischen
Ġpar t
a u
Ġd i
Ġw ould
s e
Ġm ein
Ġs ein
ation al
Ã¤s ident
er en
Ġdies e
Ġbe i
Ġsh ould
lich en
ation s
Ġi h
ig e
r an
Ġs te
Ġm an
Ġk on
Ã¶ n
Ġf in
Ġt a
Ġb ut
Ã¤ r
d u
Ã¼ s
Ġg ro
Ġpol it
z e
Ġf rom
Ġm ember
Ġf a
Ġst r
or d
o d
Ġr at
ch t
Ġm ust
p r
Ġg o
Ġa d
Ġd ur
em ent
Ġt e
Ġ qu
Ġl i
ul t
Ġpres ident
Ġparl ament
k en
i p
ab le
z u
Ġcom p
th er
Ġk Ã¶n
ic al
Ġbe en
c c
Ġpr Ã¤sident
Ġ ra
Ġd is
h men
i ament
omm en
Ġber icht
er t
Ġg en
Ġparl iament
Ġbe t
Ġein er
o ur
it ion
ic k
el t
b le
u d
Ġs a
f Ã¼
Ġdies er
ut ion
f en
c ial
Ã¼ n
Ġcoun tr
Ġg em
Ġp rop
Ġyo u
for m
o ut
Ġm Ã¼s
as t
st a
Ġit s
Ã¤ t
Ġw enn
Ġp os
i z
Ġc an
g lie
Ġdur ch
v el
Ġa pp
o g
an z
c il
ch en
Ġo b
es e
Ġm ore
is h
o us
om e
e ar
ig h
Ã¶ r
on der
u te
Ġein en
ier en
ct ion
ĠmÃ¼s sen
Ġz w
g er
Ġstat es
lich e
p t
c on
re at
im m
Ġre port
Ġ2 00
ĠmÃ¶ chte
it te
Ġpro ble
m s
ar y
Ġso ll
Ġp o
le g
Ġmit glie
os e
o c
as s
Ġth ese
ier ung
Ġim p
Ġthe y
h l
m er
Ġcoun cil
Ġa ber
ig ht
Ġal le
Ġno ch
Ġwh at
u b
Ġne ed
Ġf re
o k
Ġw o
Ġw ar
Ġzu m
st en
Ġli ke
Ġp e
Ġp re
Ġwor k
Ġw ur
ra g
Ġ (
Ġm ar
r at
el y
Ġz us
Ġthe ir
Ġar beit
an ce
Ġge gen
im e
Ġin c
Ġh in
Ġi hr
Ġgem ein
l o
a p
n ah
Ġin d
ĠkÃ¶n nen
Ġinter n
Ġm o
Ġi f
Ġmitglie d
Ġprop os
g an
Ġk ein
Ġn ur
a ge
Ġwh o
st it
Ġdies em
Ġon e
sch en
m p
Ġk ann
Ġpol ic
Ġw eit
le gen
Ġcon c
ch e
r u
Ġsp e
Ġcon t
pp ort
f ore
Ġim port
Ġge w
s am
ig keit
Ġver b
Ġj ed
sta aten
Ġm en
ff en
Ġver y
Ġme hr
Ġm y
Ġs ol
c y
h e
w o
al ly
Ġm uss
Ã¼ ck
Ġcon s
g lich
Ġth an
v ent
ier t
Ġt er
i a
Ġbe c
g ra
Ġe ff
Ġo ut
Ġres p
kt ion
Ġle g
Ġih re
Ġa cc
am men
Ġcountr ies
Ã¼ tz
a re
l ic
s ib
Ġent w
Ġo der
ĠeuropÃ¤ ische
Ġd am
Ġ ro
r ing
w er
Ġs it
Ġfra u
ug h
Ġt ran
l in
Ġt ra
ig n
Ġin t
Ġ up
Ġo ther
Ġse hr
c ed
Ġde c
gra m
Ġvor sch
y ste
Ġzus ammen
fÃ¼ hr
a k
Ġent sch
Ġv o
Ġab out
Ġag re
Ġthe m
on e
er st
ÃŁ en
Ġmitglied staaten
Ġpe op
re ich
s icht
g et
vel op
t schaft
le ich
j ect
te il
ment s
Ġo p
b ar
Ġne w
Ã¤ hr
Ġde velop
Ġdi re
ic e
is m
Ġj ahr
Ġdies es
on g
Ġis s
Ġde b
ut z
as sen
Ġuns er
at ter
Ġf e
Ġentw ick
v or
Ġh and
ie d
Ġy ear
it ies
Ġon ly
at ive
c es
Ġgr und
i der
in t
l ar
Ġs er
Ġex p
te t
Ġunter st
Ġein em
i den
as e
Ġmen schen
Ġpolic y
iv en
i ous
Ġv iel
Ã¤n d
aus e
Ġsu b
Ġw icht
etz t
Ġn ational
it Ã¤t
ar beit
f e
g t
Ġh ier
Ġpropos al
Ġsich er
an s
Ġm in
c ess
Ġintern ational
Ġj ust
Ġt ime
Ġb est
Ġf ir
Ġp er
Ġin v
Ġeurop a
Ġimport ant
Ġpeop le
Ġr icht
Ġin form
Ġv ie
Ġpro du
Ġag ain
ah l
n ung
Ġl a
at ed
Ġbes ch
l and
Ġin s
Ġno w
l le
f ahr
Ġpart ic
al t
Ġsu pport
Ġunterst Ã¼tz
f l
um ent
il ity
f r
Ġt r
le ar
Ġber eit
Ġk ol
Ġan y
x t
u ation
ar t
l ung
st r
Ġe v
Ġa ct
Ġre c
igh ts
hal b
ol it
Ġ Ã¤nder
h and
Ġre l
Ġp l
ul ar
con om
id e
f ol
Ġsu ch
Ġwur de
Ġthere fore
ing s
in e
l os
ig t
ll t
w end
Ġbec ause
w n
Ġpro gram
stit ution
hal ten
der n
Ġf o
la g
Ġcomm un
men d
Ġm on
Ġs ome
ate g
Ġreg ion
Ġf und
am p
Ġe ing
ch ts
Ġe conom
Ġf r
lie ÃŁ
w ir
ib t
ge b
Ġr ights
n er
Ġh um
Ġpro v
Ġwh en
we ver
Ġho wever
Ġta ke
Ġfir st
Ġth ose
Ġa mend
Ġs yste
Ġn at
Ġg er
Ġl and
Ġma ke
k s
Ġb as
Ġhum an
w or
er ung
Ġdire ct
i re
il d
Ġconc ern
ur es
Ġs ay
nah men
k ing
k ommen
Ġsit uation
Ġdi ff
Ġcomm itte
Ġer w
i le
p ro
Ġe mp
Ġw el
en z
o ch
Ġb o
au f
h a
if ic
iv es
f er
l Ã¤
ch n
is ation
Ġma ÃŁ
f Ã¼r
Ġproble m
u es
ig ung
Ġwir tschaft
ne hmen
Ġw ay
Ġdam it
Ġbe lie
Ġuns ere
Ġst a
er g
Ġp la
Ġmar k
h Ã¶r
Ġl Ã¤nder
Ã¤ ch
Ġge b
ver n
Ġb Ã¼r
Ġha us
Ġas s
Ġfa ct
m al
p e
le ment
Ġint o
l d
Ġbe ing
Ġpartic ular
u en
i an
Ġc lear
t re
Ġ Ã¶
z ial
Ġfra ge
Ġgemein sam
n ow
Ġz eit
Ġqu est
Ġden n
m it
ig er
un kt
is ten
Ġdies en
we en
Ġbet ween
Ġpolit ical
Ġzw ischen
Ġs el
ĠmÃ¶ glich
Ġgro up
d ay
Ġcommitte e
sib le
z ie
am e
Ġst and
i ff
ard s
Ġf est
Ġo ver
Ġm ich
Ġg leich
Ġen d
Ġein es
olit ik
h n
Ġor gan
ter n
it e
ie den
sch uss
Ġe ben
ess en
hal t
Ġso cial
Ġcommission er
Ġco ur
Ġtran sp
ra uch
Ġse e
Ġmark et
Ġkein e
k te
Ġma de
Ġb in
or s
Ġz we
Ġar t
v ed
tr Ã¤
Ġw ere
er ation
iss en
Ġg reat
Ġs onder
Ġb ere
z eit
ub lic
Ġg el
el n
Ġw Ã¼r
Ġweit er
i ent
Ġso zial
us tr
is ion
Ġresp on
Ġha be
w ie
Ġp ers
Ġagre ement
Ġbelie ve
Ġbes te
Ġfin anz
an ge
Ġd an
Ġges ch
Ġen erg
u ÃŁ
Ġman y
te l
Ġbe d
Ġhe ute
d em
Ġ 3
in k
Ġk now
Ġe ver
is ter
Ġ1 9
Ġg ibt
sp r
n is
Ġih nen
Ġjed och
Ġwie der
Ġgo vern
de ut
Ġm ach
Ġd ann
Ġk ommiss
er al
Ġs in
for der
at z
Ġre m
Ġdis c
b st
ab e
ur al
le d
d s
el s
Ġb is
Ġdevelop ment
Ġa c
Ġmein e
Ġsonder n
ol og
Ġherr n
et t
we ise
Ġbere ich
f in
Ġa ut
Ġg anz
at ing
at s
Ġkommiss ar
Ġk o
it i
Ġiss ue
Ġstr ateg
Ġein z
t w
et en
s etz
Ġdo ch
Ġinform ation
h in
re i
es ent
ĠbÃ¼r ger
Ġund er
Ġagain st
r or
Ġwir k
ĠÃ¤nder ungs
re chen
Ġad d
us e
Ġdem oc
Ġre chts
Ġev en
Ġver ein
Ġda ÃŁ
Ġr ight
Ġand eren
Ġp ublic
2 00
Ġsel bst
k l
Ġan ge
Ġsyste m
Ġgro ÃŁ
v ing
Ġeu ro
Ġvorsch lag
a ck
et h
Ġcon f
p l
Ã¤ l
Ġre cht
Ġbe it
u al
Ġp ra
Ġeconom ic
Ġb ud
Ġsoll ten
Ġj o
o un
en den
ce pt
Ġbereit s
Ġre al
b es
Ġsch w
Ġso wie
Ġpro te
ic ult
Ġh el
ĠmaÃŁ nahmen
Ġreg ul
o ugh
m in
Ġentsch e
Ġbud get
Ġpo int
Ġbe g
Ġmit tel
it ed
ten s
is ed
Ġparlament s
ent r
l es
Ġsoll te
Ã¼ hr
Ġquest ion
ert ain
Ġs eit
Ġentwick lung
ent ion
Ġter ror
u ll
Ġen v
Ġdeb ate
Ġc it
Ġre qu
Ġme as
Ġab ge
Ġdo es
Ġse c
Ġyear s
Ġf ar
is l
re ad
Ġdes halb
op e
pp or
itte l
Ġwh ere
a ct
Ġl o
Ġda fÃ¼r
Ġl ie
lin ie
Ġever y
e ll
Ġcit iz
Ġwor ld
ic es
Ġt wo
Ġb ring
ok rat
Ġgo od
ill ion
Ġ .
Ġwe ll
Ġihr er
Ġunser er
Ġf ut
Ġre form
Ġmember s
Ġg et
Ġleg isl
ra gen
isch er
Ġto day
Ġad op
Ġw ant
Ġin iti
Ġdirect ive
Ġor der
Ġpr in
Ġte chn
ff ent
Ġim mer
h ne
Ġcommun ity
Ġvie w
Ġwicht ig
Ġdar auf
on ment
iss e
Ġh ow
Ġcons ider
Ġsicher heit
Ġte il
Ã¤ ft
Ġind ustr
Ġgemein schaft
Ġf all
Ġinc l
ke hr
Ġf ol
Ġw elt
Ġha d
Ġcountr y
en e
Ġenv ir
Ġbe k
la u
Ġra hmen
Ġreg ard
c ted
f all
Ġeff ect
Ġenvir onment
v o
Ġwe il
i or
Ġbe gr
Ġinc re
ra ft
Ġle ben
Ġfut ure
g em
Ġc ann
Ġm ir
Ġab le
Ġa f
Ġm ed
Ġcitiz ens
Ġl ast
Ġcont in
vent ion
Ġc ertain
Ġa ch
Ġin te
Ġmo st
Ġcann ot
ord nung
Ġda zu
v es
ie t
gen d
Ġv om
Ġj etzt
Ġres ol
r im
Ġs ame
ur s
Ġden en
m ittel
rit t
Ġt reat
Ġge ht
is en
Ġsa id
Ġg u
Ġfin an
Ġle tz
Ġaus schuss
Ġne g
Ġver s
re e
Ġst ate
Ġfor m
ll ung
Ã¤ tz
Ġof f
Ġwur den
Ġen s
Ġto o
Ġa ff
Ġat t
it Ã¤
ur r
r icht
Ġco uld
Ġma y
Ġpos sible
Ġus e
Ġver sch
is p
la gen
ic t
Ġco op
onder e
Ġer st
Ġum w
Ġdem okrat
Ġp ut
Ġm atter
Ġwith in
Ġser v
or y
Ġz iel
ass ung
ver s
Ġapp ro
t rag
Ġst ill
nah me
Ġpro cess
Ġb r
m ar
Ġpos it
Ġkol legen
Ġm uch
fahr en
b s
Ġh ere
ges ch
read y
Ġal ready
Ġh al
Ġle vel
ent ly
Ġe le
Ġs c
f ul
Ġth ro
Ġf l
Ġmeas ures
Ġn um
Ġbo th
ge ben
Ġg est
Ġpres ent
erst atter
in nen
ll ow
st Ã¤nd
ut ions
r i
Ġ 5
Ġimp lement
Ġsa gen
imm ung
Ġne uen
z us
Ġre f
Ġall er
Ġth ink
Ġf ur
Ġmr s
Ġcomm on
Ġpos ition
Ġ 4
Ġkon t
Ġyo ur
s el
Ġmein er
ÃŁ er
der ung
Ġpers on
b al
Ġh igh
ess ion
Ġs ign
Ġein ige
Ġumw elt
Ġpolit ik
Ġs om
Ġn am
Ġf Ã¼hr
ĠwÃ¼r de
Ġbe deut
ppor te
Ġbe tr
Ġach ie
Ġinv est
Ġbe isp
Ġo wn
kl Ã¤r
f Ã¤
Ġh ope
Ġ ur
al th
Ġstr u
Ġw issen
a c
Ġw Ã¤
Ã¶ s
Ġra pporte
lo y
Ġpr ior
Ġthro ugh
Ġe tw
str ument
Ġwh y
Ġdis k
Ġwo llen
Ġs im
it z
Ġh is
Ġaus ge
e kt
s atz
con d
in n
Ġnot wend
Ġla w
Ġqu al
Ġdisc uss
ism us
hal ts
Ġw en
Ġt ur
Ġfur ther
Ġda her
Ġt un
Ġo hne
en g
Ġvo te
imm t
m o
Ġth en
Ġn un
Ġc urr
Ġbericht erstatter
u er
Ġz ust
Ġeing e
Ã¤l t
Ġzusammen arbeit
Ġprogram me
ach t
Ġcoop eration
Ġta ken
Ġcour se
Ġinte gr
c ip
Ġex amp
lich er
Ġho use
re d
rim in
bes ondere
w ay
heit en
Ġins besondere
re it
Ġfra gen
Ġalle m
Ġob ject
Ġre pr
Ġleg al
la ge
Ġsch a
Ġnum ber
as on
h or
Ġbe z
om p
wo hl
m a
Ġde ut
Ġinter est
Ġprin cip
a ir
Ġse cond
ĠÃ¶ ffent
i o
Ġab st
Ġamend ments
m an
Ġbeisp iel
reich en
Ġi r
l uss
ĠkÃ¶n n
Ã¤n g
Ġr uss
w ort
is ierung
wor k
gen ommen
Ġfinan cial
trÃ¤ ge
Ġk omm
Ġc ase
Ġg ut
Ġunter nehmen
Ġhe alth
Ġzu g
Ġg ent
Ġmin ister
ru ck
i ÃŁ
Ġin stitution
gan gen
Ġsec ur
Ġge f
Ġ Ã¤
ze ich
Ã¶ l
p unkt
Ġricht linie
Ġre ason
Ġcomp et
Ġw om
Ġpla ce
l Ã¤nder
Ġaut hor
Ġdar Ã¼ber
Ġsein e
al s
l ish
Ġzw eit
Ġz e
Ġtran s
al e
h o
Ġa ction
k un
Ġwith out
Ġ19 9
Ġau ÃŁer
at er
Ġm or
Ġl ad
Ġmenschen re
Ġa gr
Ġv ol
Ã¤ m
Ġ est
Ġf ind
Ġgent le
Ġg lo
Ġspe c
it ions
Ġand ere
Ġbe fore
y s
Ġimp ro
Ġgentle men
Ġmach en
Ġli ber
Ġresp ect
Ġall en
ag t
f ung
l ungs
Ġabge ord
Ġexamp le
Ġsecur ity
at es
ant wort
re t
Ġun ited
Ġlad ies
ag es
lich keit
Ġnat Ã¼r
Ġfor t
kun ft
Ġbe w
Ġme ans
et her
Ġproble ms
ĠwÃ¤ re
Ġc ar
Ġk lar
Ġz ahl
Ġens ure
Ġse ct
Ġk e
oun t
Ġin strument
Ġr ul
ant rag
Ġthan k
tr ib
Ġfra ktion
Ġma j
Ġinv ol
Ġre p
Ġgovern ment
i um
be wer
Ġiss ues
Ġglo bal
Ġle t
Ġihr en
Ġas k
Ġg iven
Ġmaj or
Ġare a
Ġi de
Ġverb ess
te llt
los sen
f ten
Ġst ab
h ol
Ġin de
Ġd et
Ġb al
Ġd ien
ff e
Ġjahr en
ze ug
Ġer fol
ten d
Ġrat es
Ġr is
Ġm illion
Ġre du
Ġne ue
Ġfo llow
Ġw Ã¤hr
ĠunterstÃ¼tz ung
un den
le x
Ġer klÃ¤r
ste llen
Ġne cess
Ġw ish
h ip
Ġincl ud
gr ess
a ce
a il
Ġf ull
Ġrapporte ur
ial og
Ġpres iden
Ġvie le
re g
Ġdemoc rat
Ġvo ll
Ġa id
sch e
g ar
Ġw ett
und heit
c ome
Ġrul es
Ġbas is
Ġ u
mer k
ot i
Ġpro ced
Ġzwe i
Ġhaus halts
Ġall ow
ig ten
Ġhel p
Ġarbeit s
p olitik
c ing
Ġwett bewer
Ġte xt
pport un
k on
Ġs et
Ġsin ce
Ġan ges
Ġserv ices
Ġo pportun
m Ã¶
Ġsch on
setz ung
Ġl ong
Ġneg oti
Ġrepr esent
n isse
ent ial
Ġz un
Ġh ar
Ġm il
n eten
Ġpresiden cy
Ġe qu
Ġentsche id
z ess
Ã¤ ÃŁ
Ġc all
ch ten
ge hen
Ġreg ierung
Ġgr Ã¶
Ġdiff er
Ġver antwort
ĠnatÃ¼r lich
s o
b r
en ce
Ġd ialog
Ġf Ã¶r
Ġprote ction
sp ra
leg t
Ġemp loy
v our
u de
Ã¤ mp
iff t
pp en
Ã¶l k
l ungen
Ġein mal
Ġg ive
Ġc ol
Ġfra me
Ġz ie
Ġl ang
Ġbest imm
h ungen
Ġp at
g est
Ġbeste ht
f it
Ġr est
Ġgen eral
d am
Ġtransp ar
ĠlÃ¤nder n
iv il
at ely
st and
f ra
Ġme et
Ġk r
ĠmÃ¶glich keit
etz en
Ġf ran
h il
Ġv al
ord in
Ġ2 0
an k
r if
Ġprogram m
w ard
s s
kt ur
Ġum f
Ġc l
it al
a de
Ġst ra
kt or
Ġg lau
Ġex pr
Ġaf ter
Ġe igen
Ġb ar
ĠÃ¤nderungs an
vor sch
h ang
Ġver f
Ġwor den
gr und
Ġtra de
Ġparticular ly
Ġresol ution
Ġn or
ne h
Ġframe work
Ġwh ether
s er
Ġbes onder
f ach
ab lish
k es
Ġre v
Ġpolit ischen
Ġs or
icht s
Ġp al
Ġare as
fall s
Ġetw as
Ġs m
in a
Ġb ess
Ġl assen
ical ly
Ġdec ision
z iel
Ġen g
Ġst Ã¤r
sp rechen
im men
fl icht
Ġn ie
Ġb ro
Ġk ommen
Ġim m
o v
Ġt ats
Ġnecess ary
y ing
Ġcomm it
sp ro
st ru
Ġenerg y
Ġe m
Ġste llen
rif ten
Ġcons um
fÃ¼hr t
mar kt
sp olitik
Ġver w
abe i
Ġfrau en
Ġamend ment
Ġd abei
Ġ 6
Ġge ben
Ġd ra
Ġj a
Ġerw eit
Ġges am
Ġbedeut ung
eren ce
Ġproposal s
Ġvorsch lÃ¤
Ġest ablish
Ġab sch
ing e
Ġnam en
up t
Ġthem a
Ġzur Ã¼ck
Ġin stit
Ġd one
Ġk omp
Ġpra ct
Ġbegr Ã¼
Ġpro gress
Ġwom en
Ġfund ament
Ġcont ro
Ġde fin
d ruck
Ġliber al
is ions
sib ility
t ra
Ġpr iv
Ġregion al
Ã¼n ft
Ġde al
Ġne xt
Ġres ult
Ġsch utz
Ġver l
v ement
Ġzu kunft
Ġdiff icult
Ġop in
g a
Ġrequ ire
Ġl Ã¶s
Ġconc l
en de
Ġda v
se qu
Ġbesch Ã¤ft
u f
r Ã¤n
Ġzusammen hang
Ġregul ation
Ġfa vour
ste llung
an der
Ġzw ar
Ġiniti ative
ze pt
Ã¼n d
p ar
Ġste hen
Ġmein ung
Ġdiffer ent
Ġl age
ag ement
Ġlegisl ation
ra cht
Ġkont ro
Ġbe f
Ġsol id
Ġdeb at
am il
Ġtransp ort
Ġter ms
Ġc rit
Ġb us
ib le
Ġgew Ã¤hr
Ġver hand
Ġd Ã¼r
p h
g ung
wir tschaft
Ġsta aten
Ġth ir
Ġser ious
Ã¤ch st
Ġv i
Ġges undheit
Ġkol leg
Ġver tre
Ġbetr ifft
an den
Ġa kt
Ġc r
Ġspe ak
t ing
Ġf isch
Ġcon trib
Ġproble me
ĠunterstÃ¼tz en
Ġs um
ach e
as ed
hal f
Ġwirk lich
Ġprodu ct
Ġres ear
Ġresear ch
Ġgemeinsam en
Ġb rauch
ich te
Ġl ar
Ġsein er
Ġsub ject
gem ein
Ġand er
id ed
Ġd el
Ġbe half
Ġverb rauch
Ġentsch lieÃŁ
s itz
ug ht
Ġfre i
Ġh il
Ġeff ort
Ġro le
Ġp ort
w ards
Ġver p
Ġt al
Ġlo ok
Ġinter ess
Ġer geb
Ġis ra
der s
ier ten
Ġer forder
Ġb ack
Ġc ap
Ġcom e
Ġan sicht
eth ing
Ġbet ter
le ist
Ġstat t
Ġuns eren
Ġadop ted
Ġsom ething
ĠgrÃ¶ ÃŁ
Ġcon d
ĠÃ¤ uÃŁ
Ġs ens
Ġe l
Ġeinz el
Ġcon stitution
Ġn utz
an te
ann t
Ġp ow
e hen
re ffen
Ġbe zie
Ġop en
Ġexpr ess
Ġa k
Ġc or
Ġh Ã¶
Ġappro ach
le icht
Ġdav on
Ġsolid ar
Ġi ra
Ġgro w
Ġwho le
Ġfundament al
Ġk ur
fÃ¼hr ung
Ġf amil
Ġpl an
Ġtreat y
Ġwar en
entr al
Ġac cept
l er
Ġro lle
Ġconcern ed
l ick
lieÃŁ lich
Ġdar f
k ten
Ġre fer
ga ben
te m
Ġagre e
re if
Ġsect or
ah re
Ġbe l
ier ungs
Ġsh ow
er ien
Ġthir d
Ġab s
wir k
Ġam er
Ġof fen
w eit
Ġver fÃ¼
e p
Ġan t
g lichen
Ġfre ed
we isen
r ess
Ġt Ã¼r
Ġneed s
Ġinstit utions
in es
Ġk rit
Ġges agt
Ġen lar
Ġch ar
Ġm ention
Ġcol le
Ġacc ount
Ġgegen Ã¼ber
b ed
Ġfreed om
Ġso c
Ġwe g
Ġpe ace
Ġcontin ue
o ther
Ġpo in
ĠwÃ¤hr end
ich er
Ġkon k
Ġfe w
t y
Ġorgan is
Ġc re
Ġth ree
Ġan other
Ġ 7
Ġh Ã¤t
Ġdar in
Ġletz ten
Ġunter sch
Ġsa f
le i
er k
Ġwork ing
Ġfor ward
Ġopin ion
Ġenlar g
Ġagr icult
rit te
Ġex tre
Ġe ur
der t
Ġges etz
Ġleben s
ell schaft
Ġre ach
lie gen
Ġsh all
Ġd rei
Ġposit ive
spra che
m on
Ġwe ise
Ġin n
at ul
Ġabst immung
Ġr u
ent s
Ġo pp
Ġschw ier
ber e
Ġher vor
Ã¼ck sicht
Ġisra el
b au
Ġaff air
f te
is ts
Ġinternational en
w Ã¤r
Ġn Ã¤m
ĠnÃ¤m lich
Ġeurop as
et y
Ġa im
Ġw ort
Ġreg el
ĠÃ¤nderungsan trÃ¤ge
ĠÃ¤nderungs antrag
Ġa w
pro chen
v ious
Ġver st
Ġrem ain
Ġabgeord neten
iv ely
Ġpropos ed
Ġk l
el f
Ġdo wn
Ġstrateg y
Ġau ff
at ives
ĠkÃ¶nn te
ra cy
h Ã¤lt
spr Ã¤sident
t o
itÃ¤ ten
Ġbez ug
as es
Ġdar an
Ġp unkt
Ġprincip le
Ġl u
Ġenerg ie
Ġsaf ety
an gen
Ġfol gen
Ġpro ject
if ied
Ġacc ord
fÃ¤ h
Ġw esent
Ġj ahre
Ġmil it
st er
Ġund erst
Ġst ar
Ġsu cc
Ġk le
Ġvor gesch
Ġb ene
Ġwel come
Ġdien st
Ġto get
Ġgr enz
Ġtoget her
Ġdur ing
eren z
Ġmar kt
il t
Ġcontro l
it t
iv ing
Ġma in
Ġerfol g
Ġad v
Ġ 8
Ġrat her
d ings
Ġmenschenre chte
Ġg ar
Ġaffair s
s weise
way s
Ġcommission s
el le
wend ung
h Ã¤ng
Ġto wards
Ġgo ing
Ġf ore
Ġfor sch
Ġd r
ver kehr
Ġglau be
Ġhin sicht
Ġclear ly
Ġqu ite
Ġv ar
Ġfort sch
Ġsucc ess
g leich
Ġste p
un e
is ing
Ġtechn olog
ik el
is tr
Ġvers uch
Ġspec ific
Ġdebat te
Ġho ffe
un de
legen heit
Ġcomp an
Ġge hÃ¶r
Ġ 9
Ġber Ã¼cksicht
Ġindustr y
Ġy et
Ġf un
m Ã¼
Ġj e
e cted
Ġcar r
Ġsoc iet
Ġrel ations
d r
Ġder zeit
ing ungen
Ġall gemein
a ffen
Ġintern al
sta at
Ġher aus
Ġre ad
u ally
n et
ation en
Ġversch ieden
Ġres our
Ġp h
z ip
Ġf Ã¤
Ġkolleg innen
Ġon ce
are d
Ġc ult
Ġsm all
i ar
Ġ Ã¼
f ort
at iven
Ġnational en
Ġenvironment al
Ġa fr
alt ung
Ġaller dings
ĠvorschlÃ¤ ge
ro ffen
wÃ¤r t
Ġbeste hen
Ġgu ar
z w
Ġco st
Ġvorgesch lagen
ĠstÃ¤r k
Ġpr ess
ĠgroÃŁ e
Ġm ind
is es
Ġp ay
Ġbe hand
Ġle a
Ġch ange
Ġproced ure
Ġw ahl
Ġopportun ity
Ġstru ct
scha ften
Ġb rit
Ġw ahr
Ġpolit ische
Ġd id
Ġguar ante
Ġl ess
Ġaus sprache
Ġintegr ation
Ġm iss
Ġentwick lungs
Ġimport ance
Ġorgan isation
Ġcurr ent
Ġacc ess
ie g
Ġele ct
Ġsim p
Ġso wohl
o gen
Ġstr eng
r Ã¤
ge legt
Ġder en
Ġ1 5
Ġi l
Ġre chte
Ġemploy ment
Ġwel che
Ġst ud
Ġpro m
Ġit al
ĠlÃ¶s ung
Ġfin ally
Ġgemeinsam e
Ġcond itions
Ġenlarg ement
Ġen de
Ġbring en
Ġste ht
ĠdÃ¼r fen
Ġzun Ã¤chst
on t
ens ion
Ġdan ken
Ġherr en
Ġbec ome
Ġa v
Ġus ed
Ġinclud ing
Ġwo hl
Ġdemoc racy
gend a
Ġma dam
Ġverbrauch er
Ġb or
Ġl is
Ġdemokrat ie
Ġil leg
Ġk ult
Ġe vent
rop ri
Ġum setzung
g abe
ĠfÃ¼hr en
Ġ1 1
Ġart ikel
Ġnegoti ations
lie ÃŁen
Ġits elf
Ġpro t
Ġde f
Ġentsche iden
Ġauthor ities
sch utz
Ġresour ces
Ġn on
Ġgro ÃŁen
Ġex ist
o ck
ier te
Ġrespon sibility
Ġl if
Ġextre m
p ect
in ess
Ġan s
sp ect
im es
Ġch ild
g o
Ġan n
Ġparliament s
Ġlie gt
us ion
Ġb u
Ġus a
Ġ ess
Ġbe teil
Ġop er
Ġ1 2
Ġunderst and
Ġde p
Ġsu ff
00 0
cial ly
igkeit en
Ġerweit erung
Ġre t
Ġver gangen
Ġinde ed
ro du
Ġer n
o ff
ies en
il itÃ¤t
Ġre ally
Ġle ast
Ġf lex
Ġst art
Ġall es
Ġprov ide
Ġa ir
Ġbrauch en
re ten
l ing
re ch
Ġw ider
Ġrec og
Ġpre vent
re cht
Ġwh ile
Ġne ver
Ġpart n
Ġsp an
fÃ¼hr en
Ġvi ol
iv id
Ġger ade
ges tellt
Ġgreat er
p er
v Ã¶lk
n ing
Ġha ving
i ation
ig r
Ġwettbewer bs
hÃ¶r den
Ġerw Ã¤
Ġkur z
u ge
Ġ200 0
Ġt ro
Ġc los
Ġm om
Ġdar um
b lick
Ġg ere
Ġ1 0
Ġess ential
Ġdeut lich
Ġsub st
Ġdan k
b our
Ġbek Ã¤mp
Ġin ner
Ġadd ress
Ġcomp le
Ġe ach
Ġm ult
ig ent
Ġdam en
Ġes pe
Ġein fach
Ġb ild
Ġau ÃŁen
Ġgr Ã¼n
Ġdem and
Ġbe mÃ¼
ic ient
enn t
ra um
Ġf iel
Ġgen au
Ġfund s
Ġsp iel
Ġein igen
Ġh ist
Ġespe cially
Ġb en
Ġcon vention
Ġbesonder s
ver stÃ¤nd
ier ungen
Ġo pt
Ġreg ions
Ġm od
Ġincre ase
Ġal ways
Ġver trag
an ces
Ġal th
and id
Ġfre e
f erenz
Ġact iv
Ġk in
Ġle ad
Ġweiter hin
Ġta x
Ġf ight
Ġw ach
Ġpolic ies
s uch
Ġa genda
Ġth ings
c om
h ung
ie ten
Ġ %
Ġdemocrat ic
on ds
Ġs y
Ġalth ough
Ġbeispiel sweise
Ġsu pp
Ġint rodu
Ġapp ropri
Ġg ilt
Ġbe im
Ġfr ieden
Ġp le
Ġind ivid
Ġhin aus
Ġc ivil
teil ung
Ġein sch
ste hen
Ġch ina
Ġstand ards
Ġsociet y
Ġnicht s
Ġl im
Ġsub s
lÃ¤nder n
Ġviel leicht
Ġer reichen
hn t
Ġma king
Ġopp os
Ġadd ition
Ġart ic
at or
ro ss
Ġviel en
th ing
Ġmom ent
Ġm ot
te xt
es en
ÃŁ e
Ġe ar
Ġausschuss es
bere ich
Ġbus iness
ik a
be i
i od
one y
at h
Ġmein es
Ġta king
Ġer sten
Ġverein bar
k o
Ġgrow th
Ġbene fit
Ġequ al
Ġtra d
ot ing
Ġf is
Ġpla y
Ġachie ve
ĠprÃ¤sident in
Ġcompet ition
Ġeben e
Ġo cc
Ġer halten
h Ã¶
Ġp un
Ġhar mon
ab ility
w ert
Ġ200 4
Ġpoin ts
Ġsozial en
ul ation
neh mer
ter s
ie f
Ġso llen
reif en
Ġzie le
Ġatt ention
Ġlar ge
o ver
Ġd raft
as ing
ge w
Ġbei den
Ġver ordnung
Ġer ach
Ġfisch ere
r en
Ġcom b
Ġweit ere
k omm
Ġ2 5
Ġaus druck
Ġm eth
Ġm oney
a kt
ab ly
Ġer ziel
n ess
Ġgegen wÃ¤rt
te llen
Ġc reat
Ġent sprechen
Ġproduct s
Ġr Ã¼ck
Ġsol che
ik an
Ġinn ov
Ġre ce
ke i
Ġwor ds
Ġadop t
Ġcommun ic
Ġak zept
Ġverantwort ung
re icht
Ġconcern s
Ġbin nen
Ġstreng th
Ġeffect ive
id es
Ġkomm t
Ġihre m
Ġvar ious
s yste
Ġwer de
le tz
ust ain
Ġpartn ers
Ġas pe
Ġmon th
Ġhil fe
Ġer g
Ġd ort
ut h
du c
Ġan al
ra ph
Ġmach t
ur ch
Ġunion s
Ġinterest s
Ġn Ã¤ch
le it
Ġwe iÃŁ
Ġbas ed
ne te
Ġan genommen
Ġle d
Ġdem on
Ġsch wer
Ġhand elt
it or
at t
Ġk ind
Ġp ass
Ġfollow ing
Ġfo od
l Ã¼ck
Ġcomp rom
Ġpow er
sch ein
Ġeben falls
h ing
Ġen c
Ġgrund lage
Ġimplement ation
Ġver fahren
ro w
Ġbe vÃ¶lk
Ġverhand lungen
ĠauÃŁer dem
Ġeffort s
st um
Ġfa ir
Ġabs ol
Ġpart ner
Ġfin den
Ġdisk uss
f s
u rop
ĠwÃ¼r den
d ent
Ġde leg
ma ÃŁ
Ġas pect
Ġeben so
ap s
Ġobject ives
at eral
ĠÃ¼ber ein
Ġl ab
Ġsubs id
Ġs ustain
Ġzust Ã¤nd
un ter
Ġe duc
Ġverp flicht
Ġlif e
Ġsh ort
y l
Ġinvol ved
m ut
Ġste llt
aus schuss
Ġ200 3
Ġar g
gr atul
Ġv is
Ġwe e
itÃ¤ ts
Ġaus sch
Ġentscheid ung
Ġver kehr
Ġvo ted
Ġcon gratul
Ġfe el
Ġko sten
Ġpart y
ff ung
il y
0 1
f ern
Ġfore ign
Ġth ough
il ateral
lin ien
Ġb l
Ġam ong
ktion en
ific ation
g ang
Ġsp rechen
Ġjust ice
Ġjahr es
ch an
Ã¤s s
he b
y p
Ġaw are
Ġk Ã¼nft
i ver
Ġrat sprÃ¤sident
setz en
z ogen
Ġsign ific
Ġkomp rom
Ġh on
Ġad min
o ll
Ġper iod
Ġse i
Ġdiskuss ion
Ġge geben
Ġsch l
Ġstand punkt
igr ation
r es
pr es
Ġport ug
Ġwirtschaft s
Ġwicht ige
z Ã¼
ges ehen
Ġe igent
Ġbess er
Ġcertain ly
al en
Ġch ang
g ern
Ġwork ers
Ġme an
al led
ges etzt
Ġemp h
ute t
Ġf ern
Ġer mÃ¶
g el
Ġeconom y
Ġu k
hl en
Ġgroup s
Ġl on
Ġerach tens
Ġp op
Ġcompan ies
Ġ200 1
ll ig
Ġpar te
Ġstat ement
Ġcour t
r ang
Ġjed er
Ġha ppen
vorsch riften
Ġwen iger
Ġobject ive
Ġkein en
Ġun ab
Ġdec isions
Ġs ur
Ġregion en
em p
Ġg ed
ĠtÃ¼r kei
Ġcolle ag
Ġcon sequ
Ġkle in
g ed
pres ident
Ġstr ong
Ġt ages
th ers
Ġc are
ic s
Ġt able
ĠgewÃ¤hr le
Ã¤ d
h an
zeit ig
Ġdienst leist
Ġtur ke
z ahl
or g
ip f
Ġartic le
as tr
Ġinteress e
Ġfis her
Ġinner halb
Ġauf ge
Ġumf assen
Ġs ing
Ġf al
Ġs w
l ig
Ġsyste ms
Ġnotwend ig
Ġinstitution en
Ġof ten
e hr
eit s
Ġne hmen
Ġges ellschaft
ic ial
Ġterror ism
Ġgew alt
ie ben
ĠÃ¼ber w
Ġdialog ue
fra ge
Ġrec ent
Ġzwe if
Ġfull y
in ing
Ġstru ktur
ll er
Ġsein en
Ġuntersch ied
isch es
ce ed
Ġmajor ity
Ġ rom
Ġanges ichts
Ġ200 2
Ġindivid ual
el ess
Ġs an
Ġadmin istr
Ġi dent
Ġind em
it er
Ġdevelop ing
Ġscha ffen
Ġjo int
Ġm ight
Ġzug ang
Ġt ag
Ġg ra
ver fahren
if y
as st
Ġextrem ely
Ġag o
Ġl oc
Ġfiel d
Ġhin blick
Ġhat te
iden ce
fin den
b on
s Ã¤tz
ĠÃ¼ br
Ġsol ution
i x
Ġst im
Ġsp ra
Ġsit z
Ġkommissar in
Ġd at
mit t
wirk ungen
ach en
if iz
Ġverf assung
merk sam
dr Ã¼ck
Ġsimp ly
Ġsch ritt
Ġprogramm es
Ġauf merksam
Ġer ne
en cy
ein ander
Ġland wirtschaft
Ġav ail
Ġbinnen markt
Ġse em
Ġres ul
Ġl in
Ġgleich zeitig
Ġsum mit
Ġd ring
a pp
Ġal tern
ist an
Ġgem acht
Ġapp lic
Ġterror ismus
Ġf ish
d ien
Ġemph as
Ġver fol
Ġpro j
ol d
zus tellen
Ġle ider
Ġquest ions
ro und
Ġpr Ã¼
halt ung
Ġver tra
Ġfor ce
Ġer fÃ¼
Ġnutz en
Ġqual ity
Ġris k
Ġw to
Ġo thers
Ġpre c
Ġch all
ent e
ge gen
Ġeigen en
Ġinformation en
Ġflex ib
Ġbezie hungen
Ġverein igten
is tet
Ġmein en
ĠÃ¤uÃŁ erst
ich en
Ġas yl
Ġman agement
ic a
Ġb an
Ġt as
rimin al
pr Ã¼
Ġbe hÃ¶rden
rit ts
Ġnach halt
Ġg ute
o ve
Ġd im
Ġge hen
Ġb re
Ġda y
Ġsta at
Ġprote ct
Ġagreement s
we g
Ġm al
Ġd essen
Ġsu re
Ġcomprom ise
e an
ur g
Ġincre asing
Ġto t
ig es
mo st
Ġstrateg ie
im ate
Ġmeet ing
Ġass ess
icher heit
Ġpra kt
o ten
el ves
ie llen
Ġse hen
Ġbe fÃ¼r
Ġ200 5
an ts
Ġm ut
Ġan erk
e c
ent en
b t
Ġdo c
Ġg re
Ġer reicht
Ġe as
ĠhÃ¤t te
Ġent er
Ġpro zess
Ġre le
Ġbeit rag
Ġob lig
Ġla ck
Ġdoc ument
gen cy
Ġapp ly
Ġbe de
Ġsing le
Ġgemeinschaft s
Ġcomple te
Ġfo und
Ġv Ã¶
Ġdo ing
Ġenc our
ers eits
Ġmention ed
Ġpartic ip
mal s
Ġt Ã¤t
Ġwen ig
tem ber
Ġcompet it
Ġauff assung
ich tet
h aps
Ġper haps
Ġf oc
Ġstrength en
tw ort
e h
ĠfÃ¶r derung
Ġan twort
Ġfar m
ed er
Ġsch ne
Ġein zu
ent ur
Ġer ste
u gen
Ġkon n
Ã¤r en
ĠunterstÃ¼tz t
Ġeduc ation
i ans
Ġmo b
p tember
ber eit
Ġspe cial
verstÃ¤nd lich
Ġfr Ã¼
Ġarbeit sp
Ġsch lieÃŁlich
Ġt ar
Ġaus wirkungen
Ġjed en
Ġgeb iet
ent w
Ġk amp
Ġwirk sam
Ġgovern ments
Ġbis her
Ġturke y
ĠkÃ¶nn ten
Ġthe ms
Ġthems elves
Ġbeg inn
Ġwirtschaft lichen
Ġauf gabe
Ġmillion en
rit ten
ĠÃ¶ffent lichen
b ring
Ġp a
ig in
Ã¶ t
Ġhe iÃŁ
Ġein deut
Ġp ap
m Ã¤ÃŁ
fort un
Ġtats Ã¤ch
Ġforsch ung
Ġex c
Ġre i
Ġkin der
Ġun fortun
Ġchall en
Ġf Ã¼n
Ġauf grund
lieÃŁ end
Ġbede utet
Ġgel d
Ġein w
we is
us st
Ġsignific ant
Ġe c
Ġer inn
Ġexp erien
ĠbevÃ¶lk erung
m or
Ġpro f
Ġvor liegen
Ġh im
Ġso gar
Ġup on
Ġn et
ĠentschlieÃŁ ung
Ġver te
Ġnat ur
Ġho ch
Ġhin ter
ct ive
Ġunab hÃ¤ng
Ġavail able
Ġfin al
o b
Ġchild ren
Ġconcern ing
Ġw Ã¼n
it s
Ġam b
Ġd est
Ġe th
ĠnÃ¤ch sten
Ġverschieden en
Ġconf lic
Ġpro mo
Ġpart ies
ab on
land s
Ġcurr ently
Ã¤ st
iv ed
ab sch
Ġerforder lich
Ġver Ã¤nder
on s
Ġco ordin
Ġfortsch ritte
f ragen
Ġhal te
Ġcre ate
Ġeinzel nen
Ġkomprom iss
Ġmon itor
Ġfoc us
teil en
Ġl iss
Ġc ru
Ġaccord ing
h es
Ġappropri ate
Ġstab ility
ag ed
Ġor igin
Ġlis bon
ĠbekÃ¤mp fung
Ġmehr heit
Ġke y
z en
Ġliss abon
Ġan im
Ġtages ordnung
ĠÃ¼br igen
ut es
j en
Ġconf erence
Ġact ually
Ġhal ten
Ġmor gen
b ild
l an
ĠheiÃŁ t
Ġru le
a uss
Ġs ag
Ġhinsicht lich
Ġcon text
Ġbed ingungen
Ġfa il
Ġab kommen
ain ed
Ġmatter s
Ġresul ts
Ã¤n de
Ġverte id
Ġsch luss
g n
Ġrec omm
Ġf our
Ġre d
Ġzweit ens
Ġl au
Ġc ases
Ġmonth s
i vers
Ġi ran
Ġrecomm end
Ġreport s
Ġm ill
Ġih m
Ġsicherheit s
Ġw es
Ġeing es
ub t
Ġprop er
Ġt rag
Ġsecond ly
Ġergeb nis
Ġtro tz
forder t
Ġverst Ã¤r
Ġ1 3
fe hl
b urg
ik en
Ġdra w
mit glie
ition en
w h
Ġer hÃ¶
Ġn u
Ġhe ad
Ġwach stum
Ġden ke
h nen
re chte
Ġneed ed
Ġagricult ural
Ġpo st
Ġpr Ã¤
Ġcon v
Ġlab our
Ġpl en
Ġtats ache
Ġfe hl
Ġimpro ve
Ġdisk ut
ie w
den ken
Ġan wendung
Ġnot hing
Ġfund ing
Ġmein em
Ġacc ession
ann ten
Ġguarante e
Ġl ine
Ġter rit
Ġprodu ction
ur ing
Ġex ce
me hr
re te
or gan
f re
Ġro ad
Ġinter essen
une hmen
Ġob wohl
Ġme chan
Ġn ations
Ġj ud
pro gram
Ġrespon sible
Ġprincip les
Ġgest immt
Ġch e
Ġs l
Ġlegisl ative
l ess
at is
Ġk os
Ġger man
Ġexp ect
Ġrel ig
Ġfirst ly
pp e
Ġdat a
Ġsor gen
Ġke ep
od y
ĠfÃ¼n f
at iv
Ġm er
Ġih n
Ã¼s sel
Ġern st
Ġe lement
Ġth ing
m ed
Ġgen er
Ġste llung
Ġorganis ations
Ġlon ger
Ġst immen
ĠÃ¼ber zeug
Ġ200 7
Ġwicht igen
Ġse ptember
Ġbericht s
Ġp ast
astr u
ĠbeschÃ¤ft igung
z entr
Ġver hin
Ġbeit ritts
fr astru
ĠgehÃ¶r t
Ġbet roffen
Ġconsum er
Ġd ist
Ġsp ort
Ġvor gesehen
Ġimp act
Ġrei he
Ġbed au
Ġverbess erung
Ġv ier
Ġver n
ang er
Ġerw ar
ha ft
Ġfun ktion
jen igen
Ġm and
Ġsin n
Ġhand el
fÃ¤h igkeit
ĠerklÃ¤r ung
Ġbet ra
richt ung
Ġun t
Ġd ut
Ġpre p
ĠvÃ¶ llig
Ġbek annt
Ġcommunic ation
Ġstim me
Ġsozial e
Ġreason s
Ġfor der
Ġarbeit en
Ġun ver
Ġstab il
Ġkontro lle
d es
f onds
z unehmen
Ġachie ved
Ġdis p
rei ben
Ġgef Ã¤hr
e ign
Ġpeop les
Ġcommit ment
Ġnotwend igkeit
a z
Ġc entral
wor ten
Ġerst ens
Ġ200 6
ĠprÃ¤sident schaft
Ġre de
Ġko ordin
Ġscha ffung
Ġass ist
Ġgrund sÃ¤tz
c r
Ġprior ity
Ġabsch lieÃŁend
Ġen ough
or m
Ġpal Ã¤st
Ġp ur
b an
c ies
Ġpal est
Ġd aten
Ġsolidar ity
Ġsu g
an u
ur f
Ġent ire
be zie
at ast
im s
atast rop
Ġselbst verstÃ¤ndlich
Ġrequ est
Ġindustr ie
Ġto mor
Ġtomor row
l assen
Ġc la
at ors
e llen
Ġma int
Ġgel ten
Ġira q
ll ent
Ġsh e
iel le
Ġarbeit nehmer
fr ist
Ġruss ia
Ġsustain able
Ġl itt
Ġide a
Ġ- ,
Ġbereich en
Ġw ater
Ġhon our
Ġma kes
Ġab ove
Ġlitt le
Ġsh are
in ed
Ġy es
Ġperson en
Ġdes p
Ġhist or
Ġin fl
p s
ing t
Ġm uÃŁ
pl an
Ġkult ur
Ġregard ing
Ġakt iv
pro du
Ġ 000
Ġch ance
Ġarg ument
Ġb itte
Ġweit eren
Ġ3 0
Ġpre vious
Ġloc al
Ġse ver
b est
ch es
Ġmr president
Ġcongratul ate
Ġse en
enz en
Ġmeth od
ist ischen
Ġem iss
Ġkamp f
Ġreg ards
Ġdet er
Ġtr ue
Ġira k
Ġit em
Ġsta ats
Ġnie der
Ġmo dern
Ġdim ension
Ġs icht
spr uch
Ġdeleg ation
r ist
Ġg ipf
Ġgrund legen
Ġd ue
Ġfisher ies
m at
Ġans wer
Ġb ank
Ġexce llent
Ġsa fe
Ġinde p
c en
on en
Ġs etzen
Ġan gem
Ġilleg al
en nen
Ġleg it
Ġb lo
Ġv ict
Ġvol ks
Ġvor sitz
ĠbÃ¼r gern
off ice
led ge
Ġtur n
Ġwettbewer b
Ġrecog n
Ġein heit
a gen
Ġge legenheit
forder ungen
Ġa cht
Ġunfortun ately
sen s
Ġconsum ers
Ġreg ierungen
Ġcrit er
n am
Ġof fer
Ġvergangen en
Ġagre ed
Ġra d
s eit
ĠbegrÃ¼ ÃŁe
at ory
ing en
fra ktion
h end
i ffen
i ere
Ġb lei
Ġactiv ities
maÃŁ nahmen
min ister
Ã¤ hl
Ġbu ild
Ġind ic
el d
Ġex tern
Ġin frastru
Ġvorsch riften
ull y
Ġ5 0
Ġof t
vo ll
) .
Ġse ktor
Ã¼r z
Ġrat s
w Ã¼r
Ġin st
Ġunser em
Ġk or
Ġk raft
for men
Ġin tend
ig ungs
Ġges tellt
Ġh Ã¤
Ġer heb
Ġunter such
Ġob ser
Ġgere cht
r y
Ġruss land
Ġlang u
is is
teil t
Ġproject s
Ġex port
Ġcr isis
Ġz ivil
iven ess
f ully
Ġpromo te
Ġt reffen
Ġan sch
Ġeff iz
Ġcost s
i ze
lie d
200 1
l icht
ic an
Ġval ues
Ġ ,
Ġabsol ute
ir c
Ġricht ig
Ġblei ben
legen heiten
ort h
Ġagr ar
Ġc irc
w and
Ġle it
s ide
Ġs ett
Ġ1 4
Ġcru cial
Ġt en
Ġp ot
Ġberichterstatter in
Ġcom es
Ġprov ided
Ġfl ug
im um
Ġrest r
ĠeuropÃ¤ ischer
Ġgesam ten
Ġb zw
an ted
Ġg la
Ġrel ation
v ant
ch ter
Ġzus Ã¤tz
hil fen
Ġstat us
Ġkon fl
in s
on d
hil fe
ig lich
Ġent halten
Ġmitglie der
d i
Ġpo or
Ġfind et
Ġpract ice
Ġled iglich
Ġc aus
Ġextern al
Ġl ow
l Ã¤ss
g liche
Ġstruct ural
Ġaf g
lÃ¤ tz
Ġaus fÃ¼hr
ber icht
Ġimp os
lich es
Ġzu dem
reich e
Ġricht ung
Ġhand els
Ġv Ã¶lk
Ġge fahr
Ġass oc
Ġs Ã¼
Ġbe vor
Ġ199 9
Ġfran k
at ten
Ġer zeug
Ġso on
Ġunt il
il ities
Ġbe merk
Ġform ul
ĠfÃ¶r dern
Ġsever al
vor sitz
en ces
Ġa ktion
Ġkon s
Ġrechts vorschriften
Ġth us
Ġverb ind
Ġmen sch
enn ung
Ġvor aus
Ġref le
Ġwer t
Ġtable d
Ġafg han
Ġjo bs
Ġtra ff
sel ves
Ġk ap
Ġver g
Ġour selves
ile d
Ġaspect s
mittel n
Ġbe ha
Ġgro und
Ġincl ude
Ġperson al
ion en
Ġverf ass
Ġver absch
se hen
Ġunser es
Ġetw a
b are
Ġschne ll
Ġsag te
lin e
bar en
spro zess
Ġinternational e
Ġc andid
Ġdo k
Ġob vious
Ġdok ument
am t
id ing
Ġcontrib ution
atis f
Ã¼s se
ak ing
Ġbudget ary
Ġtrad ition
Ġwar um
Ġco ver
Ġsein em
Ġlu ft
Ġho hen
c lear
Ġwissen schaft
o ber
Ġdesp ite
ste llt
end ing
ang t
Ġpro fit
ĠmÃ¶glichkeit en
gr u
Ġrespon se
b y
Ġpur p
Ġdiscuss ion
m ore
Ġste lle
Ġrev iew
ĠtatsÃ¤ch lich
Ġb it
Ġn orth
Ġpers Ã¶n
Ġm id
trÃ¤ gen
Ġcontin u
Ġbal ance
Ġserv ice
Ġyo ung
ĠgewÃ¤hrle isten
Ġtra gen
Ġvor auss
Ġevery thing
Ġsch ein
Ġfrei heit
um s
Ġhel d
Ġex tend
Ġin tens
Ġkomm un
Ġm ass
Ġmo vement
ch er
Ġmilit ary
ck en
komm ens
Ġmenschenre chts
m iss
Ġne u
Ġn ationen
he ben
s icherheit
Ġch o
Ġgesch Ã¤ft
ver b
Ġ20 1
Ġw a
Ġs k
un der
Ġgesundheit s
g u
Ġfurther more
etz ung
Ġangem essen
i ft
Ġact ions
Ġseit e
Ġd ro
Ġge fÃ¼hrt
Ġgeb racht
Ġle ft
Ġre a
Ġhat ten
b el
v en
os s
Ġmarket s
Ġtechn ical
Ġcont ra
l t
Ġte ll
Ġfor dern
Ġbew usst
Ġm ess
Ġhe ut
Ġstr ess
Ġgar ant
Ġalle in
Ġc y
ste ll
str ateg
Ġexc l
Ġagricult ure
Ġsay ing
Ġmo ve
Ġb le
Ġp ack
Ġd ritt
Ġb ul
Ġreg ime
Ġevery one
we gen
le ben
Ġbe h
Ġcolleag ues
ar ian
Ġgen u
ar f
Ġan w
ist ic
Ġste uer
Ġde fen
Ġbro ad
fol ge
Ġg ern
Ġdefin ition
ver ty
Ġpo verty
Ġarbeitsp lÃ¤tz
bring en
Ġwee k
Ġapp ear
Ġvor bereit
ste ad
Ġtranspar enz
Ġviol ence
in ens
ff nung
Ġin stead
Ġh inge
neh m
Ġimm igration
ĠgrÃ¼n den
0 2
Ġcriter ia
Ġge le
ĠentschlieÃŁ ungs
Ġparliament ary
Ġko h
Ġc lar
richt linie
Ġlie gen
Ġelect ions
lÃ¼ck w
Ġpresent ed
ĠverfÃ¼ gung
c kt
ter m
Ġau gen
Ġco hes
j ahr
Ġb ur
st o
Ġital ien
Ġso uth
Ġentscheid ungen
Ġg ree
Ġunter b
ĠgroÃŁ er
Ġm Ã¤r
Ġtranspar ency
pr Ã¤
ot t
ĠhÃ¶ ch
d urch
Ġple ased
Ġpop ulation
p or
Ġor d
Ġtal k
Ġd anger
Ġinvest ment
ĠbegrÃ¼ ÃŁen
Ġt imes
Ġget an
Ġk ennt
i kt
Ġpalest in
Ġgr ie
Ġbel g
Ġpun kte
Ã¶ sen
o vo
Ã¤ um
ier s
p art
Ġre ch
Ġwo bei
Ġdan ke
leg ung
im a
Ġto ur
drÃ¼ck lich
mÃ¶ glich
Ġpriv ate
Ġfern er
Ġtas k
es ted
Ġhuman it
Ġsens e
ran k
Ġle isten
Ġhand eln
Ġprov isions
Ġergeb nisse
Ġeinge hen
n issen
Ġreg eln
Ġemp fehl
Ġver k
Ġbet reffen
Ġcon stru
ct ions
Ã¤n ger
Ġte le
Ġzeit punkt
Ġexist ing
ĠpalÃ¤st inens
zeich net
Ġdenn och
end ent
Ġuk ra
Ġp et
Ġc riminal
Ġan geb
Ġal ong
Ġcarr ied
Ġcl ose
Ġinnov ation
Ġb i
Ġj anu
Ġanges prochen
Ġbas ic
Ġanal ys
o te
Ġc red
Ġprin zip
ith er
Ġh ome
Ġfish ing
Ġdo ubt
Ġst age
Ġvor gehen
Ġgen ommen
Ġcont ain
we il
end s
Ġa vo
organ isation
Ġre pe
Ġh ard
sel f
Ġverbess ern
Ġgu id
f ert
Ġe ither
Ġkon zentr
om at
Ġwer te
Ġf ast
f rei
Ġar mut
Ġnat ure
str eng
Ġv oting
Ġper spect
ĠÃ¶ffent lichkeit
Ġs ix
Ġzweit e
Ġchang es
Ġkon vent
Ġcohes ion
Ġkos ovo
Ġl at
Ġmilit Ã¤r
Ġvertre ten
Ġfinanz iellen
ri ft
l ies
Ġan satz
Ġspe e
Ġerst er
Ġvor gelegt
Ġsol chen
wo gen
Ġbild ung
ul y
Ġf ahr
Ġm ann
Ġble ibt
Ġeff ekt
Ġfinanz ierung
Ġthe men
Ġmonitor ing
Ġnu clear
ab kommen
ure d
Ġconflic t
or en
Ġsuff er
Ġver z
Ġdemokrat ischen
Ġask ed
b et
Ġl ist
ĠÃ¼ber prÃ¼
b a
Ġhe ar
ho f
Ġnam ely
Ġbeit ragen
Ġexpress ed
Ġst o
n ommen
ok oll
Ġange legenheiten
Ġmaint ain
Ġsubsid iar
Ġatt ack
Ġk om
Ġange legenheit
an derung
reit en
Ġopportun ities
Ġth reat
ken nen
arbeit et
Ġbestimm ungen
Ġa round
Ġproced ures
Ġm ater
Ġsug gest
n ect
Ġregul ations
Ġeindeut ig
Ġbestimm te
Ġwirtschaft liche
as ch
Ġdienstleist ungen
Ġfischere i
. .
Ġver ur
Ġl ange
ĠbemÃ¼ hungen
ag ing
arbeit ung
Ġqu ick
i ate
Ġkommission s
Ġpot ential
w iesen
ig te
Ġra ised
Ġac ross
ch s
Ġter m
Ġrequire d
Ġcult ural
Ġt at
Ġintern et
Ġprior ities
Ġkontro ll
Ġprep ared
spro gram
Ġgrenz en
Ġgr u
Ġe ast
Ġpre par
ur n
Ġber u
Ġpartners hip
Ġbesch lossen
Ġme isten
Ġe hr
Ã¼ lt
Ġsolidar itÃ¤t
wÃ¼r d
Ġbul gar
Ġrec ently
Ġn a
Ġz entral
Ġwe gen
Ġd inge
in ation
Ġ1 6
arbeit en
Ġan streng
Ġreg ret
Ã¤s st
ah n
ehr te
al ten
Ġr un
sp rech
Ġ1 7
Ġc alled
Ġur g
zu legen
Ġthrough out
Ġhigh l
Ġj Ã¼n
Ġdefen ce
l ass
Ġc amp
Ġseem s
Ġha upt
Ġsch ul
Ġread ing
Ġ1 8
Ġmin or
Ġre in
ce p
Ġdet ail
Ġj un
ĠgeschÃ¤ft s
k r
t ro
Ġer fahr
l ant
Ġs atisf
Ġe t
Ġeigent lich
Ġ2 1
Ġund ert
Ġun ivers
ĠhÃ¤t ten
z ug
Ġeurop es
Ġthan ks
Ġur spr
Ġconstitution al
Ġreach ed
strateg ie
ger ungen
Ġval ue
f ang
Ġein fÃ¼hrung
p re
Ġland es
mit ted
Ġze hn
Ġver d
ĠjÃ¼n g
Ġst ock
Ġcor re
200 0
Ġcons ult
Ġinstrument s
Ġs ache
Ġd ise
Ġrel ating
Ġf ive
Ġmit teilung
Ġhonour able
Ġrats vorsitz
Ġer k
Ġc ut
Ġder art
ĠvÃ¶lk er
lÃ¼ckw Ã¼n
Ġp urs
Ġein igung
is ieren
Ġbe lar
Ġgen annten
Ġvol k
Ġbor ders
Ġl es
Ã¼tz en
Ġauthor ity
Ġev al
Ġo ld
Ġassist ance
Ġhin zu
Ġfarm ers
Ġm us
Ġminister s
Ġdisc rimin
Ġen able
Ġoff icial
Ġabgeord nete
bild ung
Ġgem Ã¤ÃŁ
ĠprÃ¤sident en
Ġu hr
ĠermÃ¶ glichen
Ġbesch rÃ¤n
Ġcap ac
Ġtot al
s k
Ġi ll
Ġver stÃ¤nd
Ġauf genommen
Ġmit t
Ġno v
Ġda durch
igh bour
Ġcrit ic
an ken
Ġkr ieg
Ġsitz ung
Ġd rit
ch rÃ¤n
er ungen
Ġe us
Ġqual itÃ¤t
Ġw eder
Ġwo che
Ġno te
Ġne ighbour
is on
Ġan st
Ġincre ased
Ġverpflicht ungen
Ġfe llow
Ġrestr ict
ÃŁ t
Ġsch le
Ġgrund satz
og raph
Ġbest Ã¤t
Ġanstreng ungen
ĠberÃ¼cksicht igt
ie ht
Ġmin der
Ġfa cil
Ġto p
Ġcon nect
l ik
Ġoppos ition
ĠgegenwÃ¤rt ig
Ġaus tr
Ġexperien ce
Ġkein er
Ġverb unden
tre ten
qu al
Ġdemon str
Ġdemocrat s
Ġm is
Ġdec ided
Ġhaus halt
Ġmore over
Ġger ichts
kon ferenz
et er
Ġaufmerksam keit
th eless
Ġnever theless
Ġimm ed
Ġconsequ ences
ge leg
Ġwas te
Ġsu ppor
Ġf ig
Ġjo b
Ġsw ed
Ġapplic ation
Ġiniti atives
Ġan nahme
Ġimplement ed
Ġfran ce
Ġsuff icient
Ġerne ut
Ġse x
r upt
te ile
Ġfa ce
Ġprodu kt
Ġlebens mittel
Ġschw ed
Ġrequire ments
Ġvoll stÃ¤nd
r on
Ġreform s
icht en
Ġver letz
ver trag
Ġha pp
Ġfol gt
zus ch
Ġcon stit
Ġdisk rimin
er v
Ġpract ical
Ġra il
Ġimpro vement
Ġconcl usion
Ġch em
u ft
Ġaspe kte
Ġc ross
gesch lossen
Ġverg essen
Ġvertre ter
Ġtar get
fr ieden
Ġt est
Ġpo ll
Ġdring end
Ġau d
Ġjust iz
Ġr ural
a ut
Ġl ight
Ġhin weisen
Ġde z
gr iffen
Ġzweit en
c el
Ġt ier
Ġw est
Ġvertra uen
ges amt
Ġsc ient
ind est
Ġnov ember
Ġex am
Ġallgemein en
Ġcandid ate
st ra
Ġb ig
Ġbal k
Ġle ar
Ġh old
Ġwelt weit
Ġre ject
el ines
Ġins gesamt
x is
Ġk la
Ġerinn ern
be k
Ġam ount
Ġpress ure
eren ces
Ġbesch luss
9 9
Ġsu per
Ġzum indest
m b
Ġterrit or
Ġreal ity
Ġc ause
f lich
r ieben
Ġlevel s
er c
Ġausge wogen
Ġrepresent atives
Ġcre ation
Ġreg ierungs
Ġde ath
Ġtal king
Ġconv in
Ġversuch en
Ġvict ims
Ġrem ind
Ġaltern ative
Ã¼n st
Ġseit en
Ġdie jenigen
Ġop fer
ĠstÃ¤rk er
h aus
Ġnach bar
Ġun e
Ġtra ining
ll te
Ġpap er
Ġconf ir
Ġg as
an ced
Ġl ive
Ġze igt
Ġcl imate
b Ã¼r
Ġverein ten
Ġun bed
Ġn ah
iter ran
Ġan zu
Ġk y
Ġakzept ieren
Ġst Ã¤nd
Ġwicht iger
Ġbest and
Ġel se
Ġemiss ions
Ġbeh ind
Ġe mer
Ġbeit ritt
mitglie d
Ġwor d
Ġpro di
Ġkrit erien
Ġpar ag
Ġex t
Ġp en
Ġcult ure
Ġumf ang
Ġverhin dern
Ġdurch ge
Ġdire ction
Ġbe ar
our cen
z if
Ã¤ ter
ĠÃ¤nder ung
ĠfÃ¼hr t
Ġref erence
Ġb il
Ġal most
Ġinform ations
g ere
Ġi gn
Ġa way
Ġredu ce
Ġbehand elt
r aten
Ġwieder hol
Ġfran z
j ust
Ġnor mal
Ġafghan istan
in zip
Ġdis as
us ions
c o
syste m
Ġwh ose
Ġportug al
Ġaff ect
ib e
Ġukra ine
Ġd om
Ġstra f
Ġd ruck
Ġcr ime
Ġlea ders
wend et
Ġles ung
Ġto ok
Ġus ing
Ġkon ferenz
Ġl Ã¤nd
Ġtr y
Ġdec lar
ha ben
Ġret urn
Ġcom ing
Ġfinanz ielle
uf ig
Ġ4 0
Ġfrank reich
sprech end
Ġbro ught
ra hmen
zu fÃ¼hren
Ġspiel en
i ance
il ar
p id
ho ben
Ġso ur
is ely
Ġv an
Ġparlament ar
Ġgleich en
ĠkÃ¶n ig
ĠberÃ¼cksicht igen
geb ung
d le
en ch
pr il
Ġmod el
f u
it ing
ha upt
in stitution
Ġa gency
Ġwesent lichen
Ġinclud ed
Ġknow ledge
Ġgut en
Ġrespon d
is iert
Ġl ink
Ġk atastrop
Ġge fordert
is te
Ġjed es
Ġmon aten
Ġo il
Ġv ital
Ġbec om
Ġander er
200 2
zus etzen
Ġguid elines
Ġsin ne
iterran ean
Ġfor derung
Ġj u
Ġher z
Ġexp er
Ġw affen
Ġauf zu
hand el
Ġun er
Ġevent s
m illion
bed ingungen
ort ion
Ġse a
Ġestablish ed
Ġin e
Ġsim ilar
Ġs ad
Ġrece ived
Ġant i
Ġdar stellt
Ġend lich
Ġcomplete ly
au ft
Ġbrit ish
Ġdemon st
Ġrele vant
ll ing
ro k
Ġcirc um
Ġmitglied staat
h nung
Ġcapac ity
Ġb Ã¼
ĠprÃ¼ fen
Ġhe ard
Ġbeg in
Ã¤n den
ist ische
Ġl Ã¤sst
Ġsign al
Ġpow ers
e kte
er weise
fl uss
Ġparte ien
Ġn ord
Ġanerk ennung
Ġg iving
Ġsect ors
Ġgre en
un t
Ġmater ial
trÃ¤ cht
Ġsc ope
Ġschwier igkeiten
t on
Ġre con
Ġbeg lÃ¼ckwÃ¼n
Ġout side
Ġfr ench
Ġregel ung
ind ustr
Ġbelar us
Ġex cept
Ġext ent
Ġac cep
Ġpat ent
Ġdel ay
ic ien
Ġkol le
Ġfl Ã¼
ll ten
Ġamer ikan
Ġrefer end
Ġwas ser
Ġparag raph
Ġprov ision
em b
Ġrapporte urs
Ġquick ly
sch t
Ã¤m t
Ġgesam te
Ġs us
ges ellschaft
Ġrecog nis
0 3
igh ted
Ġgesch affen
sche id
Ġta kes
Ġprior itÃ¤ten
Ġihr es
Ġkonk rete
Ġbr ief
Ġkennt nis
a um
Ġget roffen
Ġabsolute ly
Ġm et
ĠÃ¶ffent liche
an de
Ġg ab
Ġhal f
Ġassess ment
Ġaus zu
Ġoff ens
Ġd iv
Ġerg reifen
e urop
k ung
Ġwettbewerbs fÃ¤higkeit
Ġcon dem
Ġa ra
Ġabsch luss
Ġsor ge
Ġex ch
Ġdiscuss ions
Ġbess ere
Ġremain s
Ġbe hin
Ġre formen
Ġverfass ungs
l am
Ġprec isely
ub lik
Ġbei hilfen
Ġverabsch ied
Ġmed ia
Ġkult ure
Ġaddition al
Ġpriv at
gr iff
Ġj our
Ġzie hen
Ġbestimm ten
Ġpr im
Ġtranspar ent
Ġinvest itionen
Ġconnect ion
Ġcon tr
Ġklein en
ben d
Ġfre ue
Ġbez Ã¼
Ġst op
Ġauf gaben
Ġdeut sch
Ġspec if
Ġda ys
Ġdiscuss ed
Ġt im
fÃ¤ lle
Ġzust immung
Ġan frage
Ġwahl en
Ġs Ã¤mt
Ġra um
Ġerziel t
k raft
on nen
Ġin f
Ġocc as
h em
sp ar
Ġvor an
hÃ¶r de
Ġd ate
ac cept
vorsch lag
ir es
Ġun accept
Ġdes ign
th e
ĠÃ¤nder ungen
Ġex tra
Ġfin n
Ġeng agement
sib ilities
Ġeinz ige
Ġpro ceed
Ġze igen
Ġspe zie
Ġproj ekt
w ill
Ġvertrag s
er ve
ut en
et s
Ġtreat ment
Ġglau ben
Ġbes itz
Ġapp lied
Ġpl ans
Ġstar k
me er
Ġentsch lossen
Ġd on
Ġsom it
it ive
Ġsubst ant
ig ran
Ġk ern
ach ten
Ġag entur
an ia
Ġcoordin ation
de ll
Ġho ffen
o u
Ġvor h
Ġnat ural
Ġver ring
Ġsie ht
uss els
Ġir gend
ĠfÃ¤ llen
Ġsp ir
Ġgew or
Ġdi vers
Ġges che
Ġgew iss
Ġpalestin ian
ar ily
Ġbed arf
Ġavo id
Ġkon sequ
Ġacht ung
Ġsuppor ted
Ġh altung
Ġt y
wir ken
Ġbr ussels
Ġadministr ative
Ġpr ice
Ġprop ose
Ġmid dle
Ġwichtig sten
Ġst re
Ġf lo
Ġber uf
Ġbusiness es
Ġunaccept able
and s
verkehr s
Ġlie be
Ġeffect s
Ġcap ital
ĠbezÃ¼ glich
Ġkont in
in i
Ġges prochen
Ġk Ã¼rz
Ġliberal isierung
Ġan trag
Ġcircum st
re hen
Ġge g
on a
Ġkonfl ikt
Ġj en
Ġk Ã¼
en ken
Ġjed e
Ġconcl usions
Ġentwick eln
Ġstat ed
Ġasyl um
Ġcompetit iveness
industr ie
Ġr um
Ġsafe gu
Ġeffiz ient
ff t
Ġappro ved
Ġkonn te
Ġd y
ĠÃ¼ber haupt
Ġaccord ance
Ġl og
Ġc e
Ġent hÃ¤lt
bour g
Ġp act
Ã¼ t
Ġb ilateral
or gung
Ġcont ent
fahr ens
Ġab zu
be zÃ¼
Ġcarr y
Ġpre is
Ġmed ium
ie tet
Ġa pril
Ġdemonst rat
ro so
Ġerwar ten
Ġricht linien
Ġcreat ing
ĠentschlieÃŁungs antrag
Ġfamil y
Ġschluss fol
Ġar r
Ġer eign
Ġcon du
Ġfor ces
ĠkÃ¶nig reich
Ġf le
Ġk am
Ã¤r m
eh m
Ġp ak
Ġgrund rechte
Ġmess age
Ġl ot
Ġbr Ã¼ssel
Ġcomp eten
Ġb ill
Ġlu x
Ġne ben
Ġcouncil s
ous ly
Ġgele istet
Ġconsider ed
Ġr ene
Ġsch iff
st anden
Ġfest gelegt
spr icht
Ġen orm
Ġverw alt
Ġbetroffen en
zie hen
Ġconf idence
Ġdi pl
pr inzip
Ġsel f
Ġunbed ingt
Ġexp la
Ġver gleich
Ġapp e
Ġcircumst ances
ĠmÃ¶ chten
Ġentsprechen den
Ġresp ekt
Ġstellung nahme
Ġste ts
ster reich
Ġpos sibility
f alt
Ġafr ica
emp loy
ĠsÃ¼ d
Ġinter vention
Ġhel fen
Ġsh ar
ze ugen
ie te
ib ility
Ġover all
Ġdiscrimin ation
Ġs al
an ze
go vern
Ġperspect ive
Ġm Ã¤n
Ġverkehr s
g Ã¼lt
be zogen
Ġho he
entw ick
sp er
Ġer sch
Ġj une
m and
Ã¶ st
Ġentsch ieden
Ġpra xis
Ġdies bezÃ¼
Ġrefer red
Ġequal ity
Ġeinw anderung
program m
Ġcorre ct
Ġbe ob
Ġh uge
Ġausge zeich
Ġbit ten
. )
re chts
Ġch rist
Ġiniti ativen
Ġmin imum
ĠÃ¶ sterreich
Ġblo ck
Ġs ide
p olit
Ġger ing
Ġein satz
Ġpartner schaft
d om
Ġber ichte
Ġlin ie
Ġbe denken
Ġum gesetzt
Ġob t
um p
Ġse par
Ġwo chen
Ġparte i
Ġheut igen
Ġand ers
tem pt
Ġlim it
Ġchallen ges
Ġspee ch
Ġvereinbar ung
Ġdeter min
Ġn etz
am m
Ġver hÃ¤lt
h ere
Ġfamil ien
Ġco de
Ġliberal isation
Ġn r
ol id
Ġspeak ing
Ġvorliegen den
Ġis lam
Ġfest stellen
Ġenter pr
o y
ue llen
ieren den
pr Ã¤sident
Ġgo es
Ġdy nam
Ġs ort
Ġne uer
Ġzweif el
Ġconsider able
ul f
Ġb ot
Ġschein t
in den
Ã¤ uÃŁ
Ġgew esen
b ung
Ġs ach
ok raten
Ġfranz Ã¶s
Ġc ent
ze igt
Ġprot okoll
Ġencour age
u ted
Ġmot ion
ol s
Ġph ase
Ġspecif ically
st immung
ĠarbeitsplÃ¤tz e
Ġm ang
Ġt emp
Ġeffect ively
Ġgewor den
Ġdec ember
Ġview s
Ġbe kommen
Ġfr i
Ġaff ected
Ġander erseits
govern ment
e hmen
Ġent sprechend
scha u
Ġte ile
Ġref uge
Ġinvest ig
Ġl iving
hr en
an a
Ġi re
n ern
Ġin halt
Ġdr ug
en der
Ġw r
ente il
Ġben Ã¶t
Ġan fang
for dern
Ġgipf el
Ġf ear
b ody
Ġop eration
ĠÃ¶ k
Ġzu frieden
qu ate
Ġl isten
Ġpl ann
Ġcommit ted
Ġpurp ose
Ġaccep ted
Ġver wendung
Ġent gegen
Ġjed em
ĠerklÃ¤r t
Ġtr ying
w ise
Ġun ge
Ġer schein
ab el
Ġab sicht
Ġens uring
un ch
Ġcy pr
Ġb la
Ġrep ublic
Ġbed ro
Ġt re
icht lich
Ġyes ter
Ġcondem n
Ġhinge wiesen
Ã¤ us
Ġurspr Ã¼n
Ġyester day
Ġwe ap
Ġvor rang
reg el
kon tro
Ġg al
Ġe g
Ġfraktion en
Ġlang frist
Ġkonn ten
m aking
Ġk ar
Ġdis app
om en
Ġvorgeschlagen en
a v
Ġch air
Ġver me
Ġanim al
Ġdevelop ed
Ġeff icient
Ġl ok
Ġun z
Ġgr unde
ĠgeschÃ¤fts ordnung
Ġparticip ation
Ġcomm ents
se ktor
Ġk rank
Ġrene w
Ġpr ime
ot o
Ġchar ter
un sch
cel ona
Ġgrenz Ã¼ber
Ġver stehen
Ġr ess
Ġpre vention
Ġhist ory
Ġindep endent
Ġbe y
in king
Ġchallen ge
ien s
Ġam t
Ġorganisation en
Ġwr ong
p un
Ġsp o
Ġbar celona
Ġgegen seit
Ġmon et
Ġbe ein
Ġpolic e
Ġgerman y
Ġg anze
Ġcomm ent
Ġnational e
ĠerwÃ¤ hnt
Ġzahl reiche
Ġzwe ck
Ġallow ed
Ġgeb ieten
Ġr ate
n ungs
e g
Ġdire kt
Ġfal le
Ã¼ g
ĠtÃ¤t igkeit
geleg ten
ig ungen
Ġzun ehmen
Ġsec ret
u ern
Ġp flicht
Ġbew ert
chte t
ĠÃ¼berzeug t
c ke
Ġindustr ial
Ġju gend
Ġversuch t
ure au
us es
Ġein bezie
Ġobvious ly
Ġh ung
Ġfor ms
art a
Ġdeal ing
Ġth ous
Ġgen ug
b ank
Ġsch Ã¼tzen
Ġany thing
Ġkl ima
Ġinstitution al
Ġserious ly
Ġimplement ing
Ġtechnolog y
frei heit
r ig
Ġfir m
unter nehmen
Ġ2 7
uch t
Ġdifficult ies
Ġmult ilateral
ha gen
g licht
n al
Ġp pe
Ġh or
Ġde ep
en gen
ĠermÃ¶ glicht
Ġbereich e
Ġposit iv
Ġact ive
ausschuss es
Ġbetr ie
Ġclos ely
Ġmy self
Ġsuccess ful
Ġbenefit s
Ġ ort
government al
i j
Ġright ly
bÃ¼r ger
Ġverp flich
Ġb ureau
Ġgr atul
Ġbes ten
Ġl ives
ind et
Ġmechan is
oun ts
ĠflÃ¼ cht
Ġemp f
Ġstand ard
wor ks
Ġsl ow
Ġscient ific
he ad
Ġcommit ments
Ġdemand s
Ġgr Ã¼nd
Ġgesch ichte
Ġconsider ation
Ġregel ungen
ĠfrÃ¼ her
Ġsim pl
Ġimpro ving
Ġhumanit arian
Ġrat ifiz
Ġredu ction
Ġire land
Ġricht ige
Ġdiskut ieren
ck er
Ġlangu age
dien st
Ġcomb at
Ġkon stru
ĠÃ¼berw ach
Ġdez ember
o st
Ġway s
it ude
Ġcoun ter
v al
Ġi i
Ġadopt ion
l ang
as h
Ġda gegen
Ġbesch l
Ġsee k
Ġvern Ã¼nft
Ġvor be
sp ekt
Ġbor der
ĠerfÃ¼ llen
Ġbeginn ing
Ġbestehen den
Ġintend ed
200 3
Ġdes ire
Ġwort h
Ġsicher lich
Ġn Ã¤
Ġsom et
zeich nen
Ġpack age
Ġbey ond
b uch
Ġt w
Ġre ag
Ġout come
Ġrem ember
Ġta ck
Ġsupp ly
Ġrecogn ise
Ġver ehrte
Ġw anted
Ġun an
Ġrem ar
Ġjo in
Ġverw altung
andid aten
a ign
Ġletz te
Ġgenu ine
b ru
Ġex erc
Ġver halten
Ġzahl en
Ã¶r en
pt ion
bau en
l ier
at ch
ĠverfÃ¼ gen
Ġprof ession
Ġcamp aign
v is
Ġemphas ise
Ġgesche hen
Ġbet onen
Ġdurch aus
Ġbehand lung
Ġdurch fÃ¼hrung
ĠgehÃ¶r en
Ġauf nahme
ffent lich
Ġshow n
Ġverteid igung
Ġmonet ary
i as
Ġsp Ã¤ter
Ġrefle ct
Ġneg ative
Ġsomet imes
Ġb illion
Ġsol utions
Ġvergangen heit
Ġerziel en
Ġinfrastru ct
Ġal one
it ation
Ġso v
Ġat tempt
Ġ1 00
ges etz
Ġaim ed
utz t
Ġstab ilitÃ¤t
Ġverwalt ungs
Ġganz en
Ġwesent lich
Ġdes cr
Ġsh ip
Ġkommen den
Ġcreat ed
Ġvorh anden
Ġeinsch lieÃŁlich
Ġwee ks
Ġanim als
Ġky oto
ge ber
oc ol
Ġland wir
Ġris ik
Ġspan ish
Ġbes org
Ġnat o
Ġdirect ly
Ġb ra
ĠÃ¤nderungsan trÃ¤gen
Ġadv ant
Ġum st
Ġse chs
olog ical
Ġjour nal
Ġspir it
) ,
Ġs on
am er
Ġdirect ives
Ġwel com
Ġgleich e
bes ch
iar den
Ġge k
er nen
Ġcontrib ute
Ġforsch ungs
Ġex isten
Ġim pr
Ġhe im
Ġprov ides
Ã¤ cht
st at
Ġall oc
cil iation
ĠkÃ¼nft ig
Ġt ab
Ġhigh ly
Ġmeas ure
Ġbe finden
Ġkr ise
k rÃ¤
ien z
Ġprom oting
Ġaspe kt
Ġstat ist
Ġrum Ã¤n
Ġwill ing
Ġex tens
ol le
Ġdec ide
Ġknow n
Ġrece ive
Ġspe zif
Ġpro b
ick ing
Ġma x
Ġsett ing
j ected
Ġein haltung
Ġur ge
grund lage
Ġanal y
Ġverpflich tet
sch reit
Ġle ist
a ken
bar keit
Ġeuropean s
Ġgla ub
Ġge kommen
Ġan g
Ġsta ff
Ġf Ã¼
Ġbe ide
ement s
u fen
Ġbal d
Ġdeutsch land
Ġlux em
Ġso und
Ġpol ize
Ġzeit raum
Ġdet a
icien cy
ĠbefÃ¼r wor
Ġer Ã¶r
Ġkoordin ierung
Ġb od
Ġsch re
Ġab satz
ell schaften
Ġb ietet
Ġmed ien
Ġver he
ĠÃ¤nder n
Ġprov iding
Ġteil en
Ġ2 2
Ġbed Ã¼r
ĠstÃ¤rk ung
b or
Ġkonstru kt
Ġl am
Ġsubstant ial
Ġfun ction
Ġme ps
Ġe her
ell os
Ġsch we
Ã¼tz t
Ġdevelop ments
Ġrequ ires
ĠgrÃ¶ÃŁ ere
Ġun employ
Ġkons ult
d ict
Ġa ck
Ġcon sens
ar en
Ġgen der
Ġnie mand
u ed
Ġpr ices
Ġinc or
richt ungen
h Ã¤n
Ġmehr ere
Ġkolle ge
Ġurg ent
Ġkla re
Ġcons ist
Ġstep s
Ġb io
reich end
Ġinfl uen
Ġl Ã¶sen
Ġcon cept
Ġdurchge fÃ¼hrt
o int
Ġwor te
ĠgegenwÃ¤rt igen
re c
Ġaus gaben
Ġje weil
Ġverfol gen
Ġack now
Ġterror ist
Ġnotwend igen
e ben
mar k
Ġtur k
Ġris ks
Ġvoraus schau
Ġw Ã¤ren
Ġdar stellen
Ġbudget s
Ġrelations hip
Ġdrit tens
Ġn ame
Ġver urs
Ġra pid
Ġcall s
Ġentsprechen de
z a
Ġmed iterranean
Ġan spruch
aus ch
Ġfre m
Ã¤hl t
Ġlook ing
Ġcompetit ive
Ġbes eit
Ġaktion sp
m et
Ġentw urf
s or
Ġwill en
o ught
qu e
ĠÃ¤ hn
rupt ion
n ungen
Ġviel mehr
Ġinstrument e
Ġzust immen
Ġlim ited
Ġl ater
Ġwh om
ĠmÃ¶glich erweise
Ġeinz us
Ġir ish
Ġs ent
Ġeing ere
Ã¤n e
ud ed
Ġdut y
Ġdeclar ation
ĠmÃ¶glich st
Ġopt im
Ġeinges etzt
Ġaktiv itÃ¤ten
Ġex act
Ġgood s
Ġeinge b
Ġant worten
at ur
Ġver an
Ġstrateg ic
os ed
Ġoff ice
3 0
en hagen
wh ere
ar m
Ġbar roso
u ff
Ġbe wer
i ber
o f
um e
Ġcontr ary
Ġtreat ies
Ġear lier
Ġoffens ichtlich
Ġ2 4
Ġorgan ised
Ġforder ungen
it ious
leit et
Ġuse ful
Ġjun i
Ġweap ons
Ġa de
Ġzu ge
Ġdel iver
Ġinter institution
ord ent
ĠauÃŁer ordent
Ġear ly
Ġress ourcen
Ġo sten
Ġmein ungs
Ġgesch lossen
Ġconsens us
Ġproper ly
Ġschlussfol gerungen
Ġfor mer
ateg or
Ġamer ican
ĠwÃ¼n schen
Ġt on
Ġprodu c
zeich nung
Ġsafegu ard
Ġge ist
Ġbet re
Ġsit ting
Ġexp end
ĠmaÃŁ e
ĠhÃ¤ ufig
Ġsp ain
Ġaccept able
Ġzweif ellos
Ġinter p
ot es
Ġleit linien
Ġein st
Ġmin utes
Ġerforder lichen
Ġth ought
im ately
ive au
Ġges etzt
Ġschwier ig
Ġdam age
Ġbod ies
ach tet
Ġges tern
Ġ6 0
Ġlea ve
Ġnieder l
Ġrep ublik
Ġann ual
ĠeuropÃ¤ er
Ġpa id
b ab
ĠunterstÃ¼tz e
ĠratsprÃ¤sident schaft
it ure
Ġeth n
ĠlÃ¶s ungen
Ġpoin ted
Ġun mittel
Ġgef unden
Ġestablish ing
Ġprior itÃ¤t
ĠÃ¼ber gang
Ġkonzentr ieren
Ġnutz ung
Ġunan im
Ġredu z
Ġauff or
Ġb ad
Ġh om
Ġpat ient
w ach
g ing
Ġde v
b ia
ĠÃ¼ber nehmen
Ġconcl ude
Ġw ants
Ġh ig
Ġto ler
Ġactiv ity
Ġend gÃ¼lt
b ahn
Ġein iger
Ġletz t
igran ts
o ts
Ġbe ant
a ke
Ġs end
chn olog
Ġein fluss
Ġty pe
Ġhig her
Ġsch ritte
Ġproblem at
Ġmann er
j Ã¤hr
ann te
Ġunter nommen
Ġaus s
Ġprodu ce
lau f
Ġnet work
ent scheid
Ġda uer
Ġgen eration
Ġle icht
lÃ¤ ge
Ġtrans fer
Ġar rang
Ġcomm er
Ġver mitt
Ġprodu ced
Ġb ieten
Ġlau fen
Ġein richtung
cc o
vent ions
ish ed
Ġacc ident
Ġstabil itÃ¤ts
Ġconvin ced
Ġenterpr ises
Ġan p
ges undheit
Ġdocument s
us ed
fall en
st ant
ĠbeglÃ¼ckwÃ¼n schen
Ġj Ã¤hr
Ġspra che
Ġde ad
Ġachie ving
Ġdiscuss ing
Ġstud y
w ahl
Ġheraus forderungen
Ġn ennen
el ten
Ġf ulf
op er
Ġcall ing
Ġver Ã¶
Ġsch rift
Ġbes ondere
Ġrep la
Ġ2 3
Ġa ge
Ġtag ung
Ġges ehen
Ġon es
Ġstatt finden
Ġcomp lex
Ġspe ed
Ġp assen
stru ktur
Ġun f
ĠkÃ¼nft igen
at lant
Ġexpend iture
Ġp ension
Ġsch em
ot ion
Ġaddress ed
Ġflexib ility
Ġnet works
Ġb ir
Ġk ing
Ġl ik
Ġassoc iation
Ġderzeit igen
mÃ¤ÃŁ ig
in strument
Ġg ives
lin es
Ġexp lo
Ġma g
Ġkom pl
Ġbegr enz
Ġmor al
Ġkonk reten
Ġhappen ed
v ision
Ġbal anced
Ġsystem at
Ġre chn
Ġsu c
c alled
d ra
Ġsuc ceed
ac ter
Ġcolleag ue
Ġnoch mals
Ġamer ica
Ġbring t
Ġbewert ung
Ġbesorg nis
Ġco p
ĠstÃ¤r ken
er ten
il st
Ġin it
ast ung
Ġwieder auf
Ġentire ly
Ġwh ilst
Ġadministr ation
Ġinit ial
Ġch an
Ġro und
Ġverfol gt
Ġh ol
Ġanalys is
Ġbef assen
Ġkrit ik
ang s
Ġfol ge
Ġnun mehr
auft rag
Ġac qu
Ġimpro ved
Ġgesetz gebung
Ġc a
Ġn immt
Ġcomp rehen
Ġt yp
Ġw unsch
Ġint ention
Ġviel falt
Ġpat ten
Ġturk ish
pro ble
ĠbÃ¼rger innen
Ġbrit ischen
Ġgeg enteil
Ġv ir
Ġ199 8
Ġdienstleist ungs
Ġver m
Ġcomp ens
Ġprob ably
ĠerfÃ¼ llt
Ġmittel n
Ġn ied
Ġla id
Ġele kt
Ġwes halb
en ze
Ġbedau er
h ab
Ġv eh
iz ed
Ġein setzen
Ġfail ure
Ġh op
Ġdiskrimin ierung
Ġein ver
Ġaus ges
Ġdeb ates
Ġbeteil igung
Ġprot ocol
Ġverpflicht ung
Ġnachhalt ige
Ġfor get
Ġfe bru
t ag
ing es
eit her
Ġde g
Ġsa ge
Ġtour ism
os en
Ġhaus es
Ġlear n
Ġn either
Ġaus drÃ¼cklich
200 6
Ġglobal isation
Ġincreasing ly
Ġco ll
Ġdis trib
Ġapp lies
Ġbo ard
on es
Ġminder heiten
acht ung
Ġallgemein e
Ġproj ekte
Ġconstru ctive
Ġerg Ã¤n
Ġv ision
keit en
enden ce
Ġexch ange
Ġbeg innen
Ġapp rec
ĠausfÃ¼hr ungen
Ġlaw s
e x
ier ter
Ġtr ust
Ġcontra ct
Ġ ult
ze hn
Ġrev ision
gru ppe
ĠjÃ¼ng sten
Ġchar acter
Ġcomb ating
Ġele ments
m Ã¤r
ĠbeschÃ¤ft igungs
Ġver ste
Ġerfolg reich
Ġsus p
Ġglaub wÃ¼rd
ĠwÃ¤hr ung
Ġcoop er
Ġkonk ret
Ġmob il
Ġbecom ing
Ġopen ing
Ġthird ly
Ġerfahr ungen
Ġmeth o
yp ern
Ġmar ch
Ġg a
Ġinterp ret
un dert
Ġo ber
Ġverbess ert
Ġnach dem
Ġshow s
Ġfreedom s
Ġab hÃ¤ng
Ġha up
Ġre den
ad t
Ġstatement s
Ġcon stant
Ġfest gestellt
Ġla unch
Ġamb itious
ie de
Ġmed ic
Ġmittel meer
Ġm igration
ur ance
los igkeit
Ġrepresent ative
Ġregierungs konferenz
Ġvers ich
Ġf ed
Ġother wise
Ġtr Ã¤
Ġfr ont
Ġk op
Ġzug leich
Ġplen um
Ġsch o
Ġc ust
Ġfre ien
Ġfall en
Ġpro spect
Ġwith dra
ore d
Ġsicher zustellen
Ġsupport ing
Ġfortsch ritt
Ġpar ts
ck s
ma ÃŁen
Ġaus einander
Ġreferend um
r ic
Ġb au
Ġge he
m os
Ġrep ly
Ġdro gen
Ġ ut
ieren de
Ġhighl ight
europ ean
Ġf il
ik ation
b od
Ġan liegen
Ġra ise
Ġcaus ed
Ġth inking
Ġbek r
Ġerfol gen
Ġconsult ation
Ġfor est
Ġbegr iff
z one
ĠÃ¶k olog
Ġch am
Ġabge le
Ġge zeigt
Ġcompan y
u le
Ġer leicht
Ġent spricht
ub a
lau fen
e u
Ġwor ten
ens ions
Ġdemokrat ische
Ġadd ed
Ġocc up
Ġbekr Ã¤ft
Ġrespon sibilities
Ġdanger ous
ĠgrenzÃ¼ber schreit
Ġso fort
Ġkon zept
Ġglobal isierung
entw urf
Ġincor por
Ġz erst
er r
st re
Ġdes wegen
ĠhÃ¶ he
Ġverme iden
Ġk aum
Ġein druck
Ġpolit ischer
Ġev idence
ĠauÃŁer halb
Ġaut on
Ġstra ÃŁen
c ement
Ġd Ã¤n
Ġeff iciency
Ġcommitte es
z ust
ol ution
Ġdipl omat
Ġprodu kte
ĠverÃ¤nder ungen
Ġe isen
Ġden ken
Ġgest atten
Ġvorschlag s
Ġver we
Ġfrieden s
or ted
Ġcommission ers
Ġqu ot
Ġdiskut iert
Ġinfluen ce
Ġhervor ragen
Ġcham ber
Ġw all
Ġappe al
Ġcrit ical
kt ors
Ġsch engen
Ġdiff erences
Ġital ian
Ġj ur
Ġeigen e
Ġn ice
Ġkein es
ĠerklÃ¤r ungen
Ġresol utions
gr enz
Ġrechn ungs
Ġar ms
fr ont
iff er
bab we
Ġd re
ĠtÃ¼r k
Ġdra wn
ĠfrÃ¼ h
Ġvor her
pun kte
Ġde alt
Ġbuild ing
Ġge Ã¤uÃŁ
ĠzustÃ¤nd igkeit
Ġno s
Ġfall s
ĠhÃ¶ch st
bor der
Ġact ual
gen cies
Ġverschieden e
Ġbeteil igten
urop Ã¤
Ġforder e
l im
Ġen for
ĠbemÃ¼ hen
ĠgrundsÃ¤tz e
Ġtraff icking
Ġrecogn ition
v a
os es
Ġdef end
ar s
Ġal ten
ungs verfahren
Ġgel ungen
Ġange ht
Ã¶r t
Ġhin dern
Ġclos er
ĠgewÃ¤hrle istet
Ġposit ions
Ġer such
Ġverbind ung
Ġw onder
Ġr ise
Ġander em
Ġun able
Ġlis te
organisation en
i ated
Ġer griffen
Ġ19 8
Ġcypr us
ge hend
hÃ¶r en
ĠvorschlÃ¤ gen
Ġb lick
Ġenorm ous
Ã¤ re
Ġdien en
ie ll
u elle
Ġwahr schein
Ġ201 0
Ġfrem den
u ations
Ġj ene
Ġhervor ge
2 0
Ġsu d
Ġhe art
Ġbrauch t
Ġmiss ion
Ġsay s
200 5
Ġun o
Ġbes uch
Ġsozial dem
forder ung
Ġbus h
Ġsan ctions
Ġempfehl ungen
Ġe ch
Ġide as
Ġjanu ary
ĠsÃ¤mt liche
inges chrÃ¤n
ind ung
ĠÃ¼ber sch
Ġune ingeschrÃ¤n
Ġl ib
Ġmain ly
ap e
Ġsens itive
Ġstruktur fonds
i pp
Ġproble men
miss ion
Ġgrie chen
Ġb ody
Ġz ypern
Ġir land
in ter
Ġm alt
Ġlegit im
Ġtraff ic
Ġcomprehen s
Ġer d
ĠgrÃ¶ÃŁ ten
Ġa head
Ġpo ten
Ġwar m
Ġhervor heben
Ã¤s ent
Ġinform ed
Ġking dom
Ġfrei heiten
Ġbeha up
Ġsy r
j ekt
Ġto des
sam m
Ġcho ice
Ġthous ands
Ġdeg ree
Ġorigin al
Ġexact ly
Ġqu ant
gru ppen
Ġkompl iz
Ġcent re
te mp
Ġpolit isch
Ġcomp ly
Ġcommer cial
Ġ 0
Ġre jected
Ġcommun ities
s etzt
es ten
Ġpre m
Ġpract ices
Ġmer ely
Ġstr ict
Ġredu ced
Ġopt ion
etz ungen
Ġspeak ers
Ġwe ak
Ġrech nung
Ġsan ktionen
Ġan griff
Ġen j
Ġann oun
kl ang
Ġmind est
Ġbot schaft
Ġges prÃ¤
pro zess
Ġne ues
Ġnatur ally
Ġmethod s
Ġabgele hnt
f ect
Ġintrodu ction
Ġle iden
lÃ¤ ut
Ġobt ain
o x
Ġregional en
Ġoppos ed
ien ce
ĠerklÃ¤r en
Ġa bend
Ġman aged
Ġfinan cing
Ġkoh Ã¤s
Ġwe ge
sp e
Ġspan ien
Ġer lÃ¤ut
Ġma i
ĠÃ¼berwach ung
s ized
Ġch in
Ġentwick elt
ff end
if ying
w enden
Ġb ol
Ġmo der
wer te
Ġtrans atlant
ĠpersÃ¶n lich
as se
Ġrecognis ed
er ungs
licher weise
w ass
iv al
Ġprot est
Ġk re
Ġsubst ances
Ġeinbezie hung
Ġcust om
Ġcontain s
Ġinter governmental
Ġtrans ition
uf act
rok rat
) )
ie le
Ġunemploy ment
Ġintrodu ced
Ġredu cing
Ġinfrastru ktur
Ġbeteil igt
o z
Ġput ting
Ġpolitik en
Ġmor ning
Ġpoll ution
m utz
Ġj em
ĠÃ¼berein kommen
Ġaus reichend
Ġhaus e
Ġfehl er
Ġimpos sible
Ġmut ual
Ġara b
Ġge Ã¤nder
Ġexp ens
ire d
Ġdise ase
Ġa kte
Ġpar al
Ġass emb
) :
Ġor ient
Ġmon op
Ġkr Ã¤
gew icht
Ġfulf il
Ġho ffnung
Ġfest legung
sto ffe
Ġs en
isch ar
Ġinvol ving
Ġaim s
Ġman ufact
hand els
ĠgrÃ¼n de
ĠhÃ¶ her
a cy
Ġfor mal
Ġstrengthen ing
Ġrechts grundlage
Ġgree ce
ĠfÃ¤ h
Ġbemerk ungen
Ġdivers ity
ct ober
Ġeurop ol
ate ful
Ġsimp le
Ã¶ p
Ġrec ord
Ġrepresent s
Ġhapp y
s c
Ġer fre
Ġ8 0
Ġas king
Ġsch lieÃŁ
Ġgesch ieht
Ġposit iven
leist ungen
z ut
Ġw id
Ã¶ m
se c
Ġis ol
ett ing
it able
anz en
Ġwork ed
Ġgesch le
Ġdiskussion en
Ġfig ures
l en
Ġna hen
com ing
Ġvor haben
Ġfa ktor
Ġfacil it
Ġgo als
imm ungen
Ġbetra chtet
Ġbeit rÃ¤
kt ober
Ġreal itÃ¤t
te i
Ġbe we
Ġne ar
Ġsy mb
Ġn ein
Ġz entr
Ġto ld
Ġein klang
Ġdar aus
Ġstrong ly
bek Ã¤mp
ver sch
Ġd ischar
hal te
Ġar men
Ġkommission sprÃ¤sident
kon om
iz za
Ġcondu ct
Ġch arta
Ġper man
Ġintrodu ce
5 0
Ġestablish ment
mitt ag
Ġplen ary
Ġpolit ic
Ġab geschlossen
ha fte
Ġintegr ated
Ġver trÃ¤ge
Ġex cess
Ġnational er
Ġp ub
Ġle gen
Ġharmon isierung
Ġoblig ations
Ġruss ian
Ġsur pr
Ġco her
Ġscha den
Ġanaly se
leg ungen
Ġwo llte
Ġgratul ieren
Ã¶ der
Ġafr ika
Ġproduc ers
i ke
Ġapp ell
Ġcon ciliation
Ġgr ateful
Ġcont act
Ġf u
Ġmand ate
eth eless
Ġnon etheless
Ġc al
Ġn ahr
Ġfr ied
Ġwesent liche
Ġverein fach
Ġausges prochen
Ġl ay
Ġha ft
richt en
Ġunderstand ing
Ġexcept ion
Ġg ap
Ġta gen
ĠlÃ¤nd lichen
Ġver tr
Ġdra mat
ĠÃ¼berzeug ung
us h
Ġseit ens
Ġgree k
Ġinfrastruct ure
Ġm Ã¼nd
ro at
Ġa gencies
Ġer fordern
ko sten
Ġexerc ise
Ġc ame
Ġaus sprechen
hand lungen
sprogram m
ĠflÃ¼cht l
es tens
Ġme er
Ġbef ug
Ġsubsidiar ity
Ġbericht en
Ġsub mitted
ĠgrÃ¶ ÃŁer
Ġw rit
Ġgesam t
Ġrom ania
Ġcomprehens ive
Ġander es
Ġvor legen
fahr t
f Ã¤lt
it ors
Ġkon sens
ĠprÃ¤ z
Ġlangu ages
Ġdisas ter
Ġf onds
Ġpre fer
ĠerhÃ¶ hen
Ġbew Ã¤lt
Ġrefuge es
Ġfa ced
Ġwes tern
Ġveh ic
Ġeisen bahn
Ġbe ig
Ġpr ison
Ġgr ant
Ġbehand eln
Ġspra ch
Ġver wirk
Ġlast ly
Ġentwicklungs lÃ¤ndern
Ġign or
0 4
Ġ2 8
Ġfa cing
ak te
ster dam
la f
gem Ã¤ÃŁ
Ġbur den
200 4
Ġverb ot
Ġfunktion ieren
Ġcla im
Ġaus bildung
Ġam sterdam
Ġrecommend ations
Ġauton om
a cc
Ġt it
Ġobser v
an ten
Ġzu folge
Ġwh ite
ĠfÃ¤ lle
s on
lie gt
Ġgrie ch
Ġentwicklungs lÃ¤nder
Ġspra chen
Ġeval u
Ġpen alt
at al
ul s
Ġwom ens
Ġw al
Ġper fect
Ġany one
Ġson st
w al
Ġp ill
ver gen
Ġresol ve
Ġl ag
ges te
Ġassemb ly
Ġbring ing
Ã¤n glich
iel t
be hÃ¶rde
Ã¶ ff
i ately
Ġbe in
Ġk n
Ġfor th
Ġimmed iately
Ġmit einander
Ġkle ine
Ġeas y
Ġkeiner lei
sor ge
Ġs ter
Ġk andidaten
Ġbess eren
fÃ¤h ig
Ġtarget s
Ġein erseits
Ġr and
Ġm ist
ĠmaÃŁ nahme
res p
Ġjanu ar
o in
b all
ch rist
Ġmeet ings
Ġchar ak
Ġcontinu ing
Ġl ies
Ġemploy e
Ġharmon isation
Ġ2 6
Ġprop ortion
Ġgeb iete
Ġn izza
Ġbetra chten
Ġconsequ ently
ĠbÃ¼ rokrat
Ġh am
ĠtrÃ¤ gt
ut er
Ġer kennen
Ġfo ot
Ġsign ed
Ġanw es
Ġbureau c
bekÃ¤mp fung
Ġsol d
stand ing
Ġtechn ischen
Ġwish es
Ġumfassen de
stell ungen
Ġdies el
Ġprogram ms
Ġe y
Ġmit arbeit
Ġadop ting
million en
Ġlandwir te
Ġa ktionen
ungs bereich
Ġcomp la
Ġsupport s
Ġar m
Ġele cted
Ġgen Ã¼
Ġswed ish
Ġbil den
ĠmÃ¤r z
Ġfor um
Ġrechts staat
Ġunterschied lichen
Ġpro sper
Ġg lÃ¼ck
r Ã¼
Ġj etz
Ġconc rete
Ġho ffentlich
Ġ3 1
Ġvorauss etzungen
Ġan k
Ġer f
Ġamong st
sp olit
Ġtemp or
or men
Ġg ain
Ġlo st
Ġs ides
Ġfor ts
Ġterritor ial
n immt
Ġrepe at
Ġreg ular
Ġfre iz
reich ung
Ġempfehl ung
Ġentwick lungen
Ġheraus forderung
fÃ¼ hl
Ġarbeits markt
ĠerhÃ¶ hung
ump ing
Ġg etting
Ġver wendet
reit et
ĠunabhÃ¤ng ig
Ġnah e
ul i
Ġin spect
Ġklar en
Ġeing er
Ġbeschl Ã¼sse
Ġl oss
ĠgrÃ¶ÃŁ te
Ġdo ha
Ġmembers hip
Ġnorth ern
Ġo ught
Ġflex ible
Ġagrar politik
Ġpub lish
Ġgen et
ger ung
b rauch
Ġab ol
Ġent stehen
Ġsubsid ies
Ġehr ge
t Ã¤us
Ġital y
ĠzustÃ¤nd igen
Ġbehin der
Ġatt itude
Ġber at
Ġgo al
gr enzen
Ġehrge iz
Ġber lin
Ġzahl reichen
ium s
Ġappear s
Ġd ig
Ġsch uld
Ġent tÃ¤us
Ġsee king
spr Ã¼
Ġstra ÃŁ
Ġak p
Ġweiter er
Ġgovern ance
Ġeinge gangen
Ġgreat est
ĠvollstÃ¤nd ig
Ġun be
Ġele ction
Ġstruct ure
Ġkap ital
Ġj ung
c er
u ble
ar i
Ġvol le
Ġz iffer
Ġimp er
Ġconc entr
ĠÃ¼berprÃ¼ fung
vers orgung
Ġp hil
Ġsh ared
Ġbemerk ung
Ġgerichts hof
Ġhead s
Ġcritic ism
Ġexp lan
Ġerw art
Ġsec ure
Ġd ict
Ġp se
Ã¶r dert
Ġziel en
Ġimm igrants
Ġe hem
la w
Ġv otes
Ġse he
ist isch
Ġnach drÃ¼cklich
ĠberÃ¼cksicht igung
Ġz ut
ĠzusÃ¤tz liche
d is
Ġgru ppe
Ġal ban
Ġaufge fordert
Ġterrit ory
m ine
Ġsens ib
Ġlead ing
ĠwÃ¼n sche
Ġfor ced
Ġent l
Ġbet ont
Ġwichtig es
Ġperson s
2 01
Ġm Ã¼
il le
Ġo st
Ġgel angen
Ġaid s
Ġflexib ilitÃ¤t
Ġd ritten
Ġcompeten ce
Ġheim at
w esen
Ġh Ã¶ren
Ġnahr ungs
Ġo ctober
Ġl ines
Ġauf bau
Ġgen ehm
Ġconfir m
d ie
ab sicht
Ġsit uations
k re
Ġsocial ist
ĠÃ¤uÃŁ ern
k ap
Ġw on
ug os
krÃ¤ fte
Ġk Ã¤mp
ind ing
fÃ¼ gen
Ġtal ks
Ġpet itions
in ary
Ġfa iled
Ġguarante es
Ġattack s
Ġexpr ession
Ġgrow ing
un sten
leit en
Ġfact or
Ġkomp et
Ġnachhalt igen
Ġvorauss etzung
Ġb om
ge f
rat es
Ġverantwort lich
ikan ischen
Ġakzept iert
Ġmill iarden
be hÃ¶rden
Ġfin de
g os
Ġgr anted
h re
k ungen
ent al
sche fs
letz t
Ġwahrschein lich
te in
Ġtra vel
Ġrisik o
los en
Ġhal b
Ġinvol ve
Ġanst att
Ġwork s
Ġbr ut
Ġinst ance
Ġherz lich
i able
gen eral
Ġpol en
Ġbegr Ã¼nd
Ġbesonder en
Ġdel ighted
Ġverabschied et
Ġcour age
Ġchair man
Ġaus Ã¼
Ġcare fully
Ġprotect ing
Ġvolks gesundheit
ted ly
Ġs agt
Ġan teil
Ġzu k
Ġprodu ktion
ĠbedÃ¼r f
Ġo laf
Ġzu letzt
Ġst immt
au fen
ĠÃ¶ l
Ġgeb Ã¼hr
Ã¤tz e
Ġprom otion
Ġchem ical
Ġdrug s
ver se
Ġpol and
Ġsol cher
Ġac p
hol d
Ġem bar
Ġmitt l
Ġre icht
Ġtoday s
ziel le
ĠnÃ¤ her
Ã¤tz ung
Ġdar unter
Ġsymb ol
Ġh Ã¤lt
Ġr ange
Ġfra ud
Ġadvant age
Ġtot ally
Ġkoh Ã¤r
ĠpalÃ¤stinens ischen
Ġbalk an
b o
Ġso le
ĠeuropÃ¤ isches
Ġr ig
Ġfor dert
Ġzuk Ã¼nft
ru h
Ġeinge fÃ¼hrt
Ġjud icial
c n
ar ch
ore a
Ġ9 0
Ġan bel
Ġl Ã¤nger
Ġar z
Ġadv oc
ĠauÃŁerordent lich
Ġanbel angt
Ġbe trÃ¤cht
Ġsinn voll
mitglied staaten
Ġ urs
ter t
Ġher kunft
Ġein ig
Ġletz ter
Ġide e
Ġstart ing
Ġbe ge
ere ign
Ġvor zu
Ġdritt lÃ¤ndern
Ġbe ur
Ġsor g
Ġpropos ing
Ġtr uly
Ġcl ass
Ġc entur
ir a
Ġse ien
Ġunterschied liche
Ġlow er
Ġsour ces
Ġme ant
ĠverstÃ¤nd nis
o fern
Ġh und
Ġdesign ed
Ġins ofern
Ġrel ated
reit ung
Ġverantwort ungs
Ġinvol vement
Ġte x
Ġb os
Ġrecommend ation
t ragen
- ,
h le
Ġatt ra
Ġcontrol s
e ver
u erung
Ġan z
Ġge eign
Ġge ograph
Ġhappen ing
Ġord nungs
Ġpres ence
Ġmon ate
Ġinterest ing
Ġspezie ll
Ġan forderungen
est ic
Ġor al
Ġob sta
Ġschwier igen
Ġrom a
Ġindep endence
or gt
Ġade quate
Ġobsta c
Ġk il
Ġsol ange
wer k
Ġpurs u
ĠstÃ¤nd ig
Ġb se
Ġcons erv
Ġact s
Ġeffekt iv
Ġeinst imm
Ġmar it
Ġdec la
Ġmechanis ms
y a
Ġt reten
Ġvor genommen
Ġn ether
Ġex ec
ĠbekÃ¤mp fen
Ġgrundlegen den
nehm ern
Ġgen ere
Ġfollow ed
Ġver fahrens
Ġdien ste
Ġnether lands
Ġhar m
Ġpun kten
Ġzivil gesellschaft
Ġbalk ans
Ġereign isse
Ġdescr ib
nah m
Ġkor re
ug g
Ġ7 0
Ġr asch
Ġoff iz
Ġvorbereit ung
Ġgru ppen
Ġparal le
v olle
Ġletz tend
Ġclos ed
Ġdest ro
c a
Ġv ig
olog y
Ġbe weis
be auftrag
ne im
Ġread y
ĠrumÃ¤n ien
Ġth or
Ġan nehmen
Ġsp ent
Ġexpla in
Ġkolleg in
Ã¼ ter
Ġaus ger
Ġfamil ies
Ġdischar ge
Ġsol ana
ĠerwÃ¤ hn
Ġs etzt
ver handlungen
Ġimmed iate
Ġbe absicht
Ġauf zunehmen
Ġpay ments
Ġple ase
syste me
Ġeinw ander
mÃ¶glich keiten
Ġsu gar
Ġgew isse
Ġwh ate
Ġwor r
Ġwichtig ste
Ġwhate ver
Ġo l
as bourg
Ġvor teile
ho od
Ġequ ally
Ġged anken
Ġdeta iled
in iti
Ġt ib
Ġvorgeschlagen e
Ġcover ed
Ġsov ereign
Ġent it
z ent
Ġn ation
Ġk riminal
ĠbestÃ¤t igt
Ã¼s sen
leist ung
ĠprÃ¼ fung
Ġverz Ã¶
Ġdise ases
or se
Ġmitglie dern
ĠbegrÃ¼ ÃŁt
Ġmo ving
Ġhinter grund
Ġprofession al
Ġletzt lich
Ġeinver standen
Ġehem al
Ġbar r
Ġilleg alen
u ver
Ġgleich stellung
ĠbemÃ¼ ht
Ġk m
ste lle
Ġstr asbourg
Ġschl Ã¼ssel
Ã¤um t
ĠunabhÃ¤ng igkeit
st off
Ġge org
Ġinternational er
Ġground s
Ġver lei
neim ittel
Ġend orse
Ġstruct ures
Ġabsol ut
Ġanerk annt
Ġaussch lieÃŁlich
bere cht
ĠbenÃ¶t igen
c al
Ġgen utzt
o ul
Ġte am
br uch
ĠgrÃ¶ÃŁ eren
Ġbetreffen den
Ġinclud es
Ġt aus
Ġdam als
Ġel im
Ġarrang ements
k ret
a pt
Ġo ktober
Ġschl imm
Ġtrotz dem
ĠdiesbezÃ¼ glich
Ġmonop ol
c omm
Ġderart ige
v i
Ġer m
Ġeffiz ienz
a f
Ġqu ar
Ġper form
Ġgef Ã¶rdert
Ġjeweil igen
Ġperson ally
Ġvor zulegen
setz ungen
Ġminor ity
Ġr as
Ġer r
Ġpolit ics
Ġcomp ar
Ġpolitic ians
Ġein bezogen
Ġun less
Ġass oz
ĠwÃ¤ hl
Ġansch lieÃŁen
Ġkomm e
Ġwohl stand
Ġmarit ime
Ġexp ected
Ġc le
ĠÃ¼brigen s
Ġr ent
iv ity
Ġgest alten
k la
Ġfin ance
Ġ5 00
Ġgener ally
Ġl ernen
ĠverstÃ¤r kt
w affen
Ġgen annt
samm lung
w ide
Ġab ility
Ġcontin ues
Ġred ner
Ġemploye es
Ġsicher stellen
Ġk ennen
Ġausgezeich neten
Ġenj oy
Ġfal sch
Ġum zusetzen
Ġvoll kommen
zw ischen
at tet
Ġafr ican
ĠfranzÃ¶s ischen
Ġreag ieren
Ġcharak ter
m m
Ġfe ed
Ġin ten
Ġgr Ã¼
Ġser ies
Ġuntersch iede
Ġatt ach
e ken
Ġm assen
Ġ2 9
Ġrec over
Ġrein for
cy c
Ġappro val
Ġglobal en
Ġcaus es
Ġrea ktion
Ġbar n
Ġerne uer
al tet
Ġsuffer ing
Ġbeig et
Ġtempor ary
ter ing
ru it
Ġreason able
ĠgefÃ¤hr d
er kennen
Ġteil weise
Ġunf air
er ous
Ġm os
Ġver t
uch e
Ġletztend lich
Ġla eken
Ġmot or
Ġdest ru
Ġga ve
ze uge
Ġerforder t
Ġimprovement s
w ar
ein d
Ġapp ar
ĠfÃ¤ llt
Ġzu w
Ġind ire
Ġfrei will
1 99
m ann
er ves
Ġad apt
Ġser ve
Ġpolitik er
Ġgla d
Ġeingere icht
Ġj uly
Ġgemeinschaft lichen
Ġminor ities
Ġeval uation
Ġer le
Ġvor ge
Ġliberal en
Ġvorliegen de
Ġcompens ation
Ġe d
br y
Ġkulture llen
re che
Ġflo or
s man
ar z
Ġst reit
ver letz
Ġdo pp
ĠmÃ¶ glichen
hand lung
Ġisrael i
Ġassoz i
er maÃŁen
Ġsta ke
Ġcontrib utions
ĠverhÃ¤lt nis
ĠstraÃŁ burg
% .
un ruh
Ġbe unruh
Ġso ft
Ġcomp l
Ġfre qu
Ġaut omat
Ġnotwend ige
Ġkr isen
Ġsad dam
Ġemphas is
fu hr
g ers
f are
Ġregierung schefs
Ġverl angen
Ġper spekt
Ġchang ed
a den
g ipf
Ġinc ome
Ġs il
Ġre ich
Ġsupp lement
Ġlim its
Ġt sch
Ġt iere
Ġ. ..
Ġkontro llen
Ġpak istan
g ment
fÃ¤ llen
Ġverur teilt
os ition
Ġumwelt schutz
Ġex em
Ġgelten den
Ġintens iv
Ġges te
Ġeinsch rÃ¤n
Ġthere by
Ġverb rechen
Ġable hnung
Ġwiederhol en
Ġoccas ion
g elt
n erst
Ġre iter
Ġunmittel bar
h us
Ġent fern
Ġbel ong
Ġconsist ent
Ġperman ent
Ġa part
ehr ten
Ġrepe ated
Ġdetail s
Ġdi kt
ha ften
Ġgel Ã¶st
Ġbetre ffend
Ġzu cker
Ġeinge halten
Ġrestrict ions
Ġinte ll
Ġcontin ent
wach stum
ĠergÃ¤n z
b ased
Ġswed en
w are
en kt
sch ung
Ġer fahren
Ġmehr eren
Ġdec is
ĠtÃ¤t ig
Ġmechan ism
Ġb alt
Ġauf rech
Ġab gest
Ġspan ischen
Ġpop ul
Ġord nung
ĠkÃ¼rz lich
f le
Ġco ast
Ġtechn ische
b it
Ġe chte
Ġlink ed
Ġim ag
Ġgew issen
itÃ¤ re
Ġkrank heiten
at ure
Ġlo b
Ġkonfl ik
Ġan wend
Ġge fahren
Ġreg istr
Ġpropos es
Ġcompl iance
Ã¤l ter
Ġuntersuch ung
iz in
Ġins ist
Ġweiter es
Ġtas ks
Ġv ia
and al
Ġbezie ht
Ġpress e
Ġstar ted
Ġkin dern
Ġgrundlegen de
Ġcred ibility
Ġal t
Ġem bry
Ġst Ã¤d
ĠmÃ¤r kte
Ġsein es
Ġjahr h
Ġunterst reichen
Ġricht en
Ġlet ter
spra chen
ĠgeÃ¤uÃŁ ert
Ġin zwischen
ĠmÃ¼s ste
heb ung
Ġforth coming
Ġer geben
Ġzug unsten
Ġlau tet
Ġoccas ions
n es
Ġd ign
ĠÃ¼berein stimmung
Ġt ut
Ġp ie
Ã¤ hlen
et te
Ġdemonstrat ed
le un
ra f
Ġumwelt fragen
Ġopin ions
s h
te en
Ġfact ors
Ġcontinu ed
sp unkt
Ġarbeits losigkeit
Ġbro k
ĠverstÃ¤r ken
Ġunivers al
sch n
lich ung
Ġversch le
Ġnor men
Ġverl oren
Ġrelig ious
Ġsour ce
Ġstat ute
mo dell
Ġerfol gt
Ġeas tern
Ġaustr ia
Ġsu chen
Ġvo ice
Ã¤ den
Ġfre ie
Ġbesch leun
Ġ3 5
Ġtib et
in ational
Ġdan ach
Ġbez ahl
Ġvereinbar ungen
Ġrad io
Ġd iss
Ġab scha
Ġreg ister
Ġparlament e
Ġachie vement
Ġdemonstr ate
Ġinc ident
zus ammen
Ġun gleich
Ġbe ings
Ġra c
Ġris iken
Ġernst haft
Ġplann ing
ĠÃ¼ber legungen
Ġcons olid
Ġvol unt
Ġben ach
Ġbestand teil
Ġf ach
ow n
in ner
Ġsens ible
Ġpeace ful
Ġoblig ation
s et
er zeug
Ġus w
zw ungen
Ġpurp oses
Ġt ief
Ġj uli
ges ellschaften
Ġam ounts
Ġtab ak
c os
Ġr ass
fÃ¼hr ten
Ġl ate
ab ilitÃ¤t
c ision
c ertain
se e
Ã¤tz en
Ġgut es
Ġresp ected
Ġverhand lungs
syste ms
Ġgra du
Ġschrift lich
p o
Ġun g
Ġnegoti ating
s y
ie b
Ġtr uth
act ory
Ġspiel t
ĠverÃ¶ ffent
Ġth re
Ġwel chen
Ġw at
ĠÃ¼ber zeugen
ĠkÃ¼nft ige
Ġgriechen land
Ġbulgar ia
Ġparlamentar ischen
Ġsepar ate
Ġw it
Ġle id
Ġbest immt
uropÃ¤ ischen
ĠgeÃ¤nder t
in en
Ġsp richt
Ġbedeut en
Ġwor se
ba cco
o und
Ġh ence
Ġn iger
Ġrest ru
Ġfight ing
u ese
Ġberichterstatter s
ver t
op eration
Ġinter ested
Ġpat h
ĠÃ¼bergang s
Ġer mut
Ġv ess
Ġto bacco
und es
Ã¤t igkeit
Ġmult inational
Ġjetz igen
Ġh y
Ġcond ition
Ġarz neimittel
h ib
Ġfamil ie
Ġportug uese
Ġfor men
Ã¼g igkeit
re ben
Ġhervorge hoben
Ġaus l
Ġmax imum
Ġtechnolog ies
ator en
Ġp ensions
Ġimp ose
Ġser b
as ten
ste ller
Ġtr ib
Ġ19 7
Ġexper ts
ur d
Ġsch lieÃŁen
ho fs
Ġunver zÃ¼
r is
Ġj ap
Ġricht igen
Ġwirk lichkeit
weg s
polit ischen
Ġoffen bar
komm t
or te
Ġho urs
Ġzusammenarbeit en
Ġocc ur
Ġelement e
Ġaktionsp lan
Ġversich ern
Ġb inding
Ġher zen
Ġ199 7
Ġan merk
Ġrecht fert
Ã¼ p
Ġz er
Ġso uver
Ġbetr ug
b rit
ed y
Ġsp ace
ue ll
Ġmo dell
lÃ¤ gt
Ġrem o
Ġreal ise
Ġnum erous
Ġan lass
Ġnie mals
Ġsp ending
Ġvis it
Ġult imately
Ġb reit
io de
Ġentscheiden de
att le
Ġparticip ate
Ġmalt a
Ġat temp
Ġverbess erungen
Ġdefin ed
Ġgern e
Ġwider spruch
n el
er te
Ġwel fare
Ġfol glich
d on
Ġ Ã¤rm
es te
Ġregul atory
Ġach ten
Ġrestru ct
fin anz
ĠzurÃ¼ck ge
Ġg ing
eth o
ĠverfÃ¼ g
s v
Ġcap able
Ġfri ends
Ġn Ã¼tz
Ġmittel punkt
Ġfreiz Ã¼gigkeit
Ġprakt isch
Ġverhe ugen
Ġvermitt lungs
a id
Ġf ro
Ġvor teil
Ġtradition al
Ġr ich
Ġexamp les
Ġdef ic
Ġsich ern
Ġstr ik
Ġmit entscheid
Ġvor ange
Ġam ts
rat ic
Ġthre aten
Ġh Ã¤n
te chnolog
Ġat om
Ġfre ude
ĠnÃ¤ch ste
Ġkonvent s
Ġtim et
ĠglaubwÃ¼rd igkeit
y ear
Ġa z
Ġer Ã¶ff
im al
Ġaus nahme
Ġappropri ations
Ġerzeug nisse
p ers
Ġge prÃ¼
ĠbefÃ¼r worten
Ġdisas ters
ens wert
ĠgroÃŁ es
Ġparalle l
e ff
sp iel
ĠmÃ¼s sten
Ġentit led
Ġjust ified
Ġass ure
Ġeinz igen
Ġtrad ing
Ġgesetz e
Ġremar ks
Ġs lo
ĠÃ¶ffent lich
Ġhe av
Ġsc ale
l ose
in o
Ġverl ieren
go ing
Ġelekt ron
Ġthor ough
n l
ing u
Ġf ischer
Ġun n
Ġ200 8
Ġt Ã¤
in ts
Ġw ide
Ġein richtungen
Ġcurr ency
ĠmÃ¤n ner
Ġjap an
brit ann
dien ste
Ġschwed en
Ġsp read
Ġar ten
Ġl atter
ĠgroÃŁ britann
Ġresol ved
Ġan gaben
Ġwen igen
Ġerwart ungen
Ġl angen
Ġwar ten
Ġencour aging
Ġinform iert
reg eln
ĠauÃŁen politik
Ġumfassen den
um en
Ġaus reichen
klÃ¤r ung
Ġges p
Ġconflic ts
Ġbedau ern
Ġumst Ã¤nden
Ġbe ibe
Ġhand s
Ġinform ieren
Ġw iss
Ġk enn
Ġcitiz en
Ġtext il
Ġrev olution
Ġerheb liche
Ġexisten ce
Ġvorgesehen en
Ġkap it
Ġst ol
lÃ¤ss lich
c ent
t es
ar a
Ġn gos
Ġeas ier
Ġsektor en
Ġbol kes
Ġm ur
Ã¶ hn
Ġtr ied
geb iet
Ġport s
Ġbre ak
a ust
geb racht
Ġkomp lex
ent y
Ġall zu
ĠÃ¼ber nommen
Ġat tend
Ġgeb rauch
Ġgleich gewicht
Ġstatt f
Ġrelig ion
Ġsex ual
Ġbe am
Ġbeteil igen
Ġverd ient
ĠursprÃ¼n glichen
Ã¼n den
Ġzug est
Ġoper ations
and a
Ġfour th
Ġaud itors
Ġtack le
ro s
ro chen
Ġzu ver
Ġprakt iken
wass er
stehen den
Ġt amp
Ġp an
Ġsub mit
Ġange hÃ¶r
Ġgal ile
Ġver weisen
Ġmar g
Ġins urance
ĠdÃ¼r fte
Ġbezie hen
Ġlegit imate
Ġv ice
Ġal ter
Ġabst immen
Ġmob ility
b as
Ġeconom ies
rim es
Ġvis a
Ġdut ch
Ġimpos ed
aren ess
s ein
Ġeinheit lichen
Ġr Ã¼
Ã¶r per
Ġamerikan ischen
Ġbef indet
ĠverfÃ¼ gt
Ġmill enn
entwick lung
Ġlik ely
Ġpla ced
Ġwahr heit
Ġguarante ed
k amp
Ġc rimes
m etho
Ġber g
Ġfed eral
ĠÃ¼ber tragen
Ġmill ions
Ġminister prÃ¤sident
Ġkatastrop hen
Ġech o
Ġs Ã¤
Ġcont ained
Ġeven ing
c as
at ively
Ġze ichen
Ġbene f
Ġfunktion iert
it uation
sta ats
Ġextend ed
Ġprinzip ien
Ġaw areness
Ġdig ital
Ġdign ity
in al
Ġp il
ge ord
Ġfest zulegen
Ġbe wegen
Ġse le
Ġsto ffe
Ġgenere ll
Ġkm u
n etz
Ġ [
Ġdiff erence
re l
Ġknow s
wirk ung
Ġdank bar
Ġauffor dern
ich erung
ar k
Ġnach zu
Ġtreat ed
Ġinnov ative
Ġd ritte
Ġall iance
Ġman age
Ġorgan e
d ing
t ung
Ġso eben
ste ht
Ġbo und
Ġrequire ment
Ġsouver Ã¤n
ĠgeprÃ¼ ft
w ing
ent ions
Ġanwes end
ut r
Ġfri end
l atz
Ġerheb lich
ĠgesprÃ¤ che
Ġh uss
Ġsub sequ
sel ben
Ġsubst ance
kontro lle
b u
Ġauf trag
ĠÃ¼ b
spar tei
et schen
ver age
Ġaus t
ate ll
Ġwen ige
Ġportug ies
201 3
h ann
Ġo mb
Ġl ic
Ġfre und
Ġprodu z
Ġsud an
Ġwrit ing
Ġomb ud
Ġmit ge
Ġw ann
Ġn Ã¶t
uch en
on ia
bar er
Ġeinzel staat
Ġtax ation
Ġindividual s
Ġtele vision
Ġbolkes tein
Ġgalile o
k om
Ġg ot
ly ing
Ġger icht
Ġplay ed
Ġlok alen
Ġsozialdem okrat
Ġcentur y
Ġl ose
Ġsp ring
Ġman ch
Ġkommun ikation
Ġt enden
it en
Ġm old
or ate
wor fen
at her
Ġpl ural
Ġmind estens
Ġkatastrop he
ver ein
Ġse v
Ġjo hann
Ġir re
Ġsure ly
Ġstock s
Ġimpr ession
Ġprosper ity
Ġpro sec
Ġmon at
Ġkriminal itÃ¤t
Ġg az
op ho
Ġtsch etschen
Ġzusammen halt
Ġdeb t
Ġpass ed
Ġregion ale
Ġeng ag
Ġan fragen
ĠÃ¼ber all
be w
Ġimm un
Ġdestru ction
Ġb ase
Ġge halten
Ġbos n
in ely
Ġmed izin
icher ungs
Ġph ys
ĠkÃ¼ sten
mutz ung
c od
Ġad just
Ġpresident s
vention en
Ġno ted
Ġsch lÃ¤gt
Ġsp reche
abe lling
Ġfacilit ate
Ġre act
Ġge zogen
Ġversch Ã¤r
ĠauÃŁen minister
ur en
Ġdebat ten
Ġoper ate
u ber
Ġre chten
Ġwel ch
Ġschle cht
Ġbeein trÃ¤cht
Ġco up
Ġwach sen
Ġen ab
Ġfarm ing
Ġofficial s
Ġdom estic
z b
Ġprop ert
Ġpl atz
Ġprec ise
Ġemer gency
Ġcomp lic
Ġtamp ere
Ġs ession
Ġr ational
Ġbef asst
Ġwiss ens
Ġf lag
ut ing
Ġmean ing
a ction
Ġab kommens
Ġprote cted
Ġvor red
Ġcla use
Ġunz ure
Ġp ure
Ġinter v
Ġallow ing
Ġrenew able
Ġvehic les
haus halt
me chan
Ġviel er
Ġinvol ves
Ġhelp ing
Ġhuss ein
Ġmar t
Ġbis lang
Ġtechnolog ien
Ġerfahr ung
o on
Ġz one
Ġgegen stand
Ġind ia
Ġla ut
Ġlebensmittel sicherheit
Ġcode cision
Ġs la
Ġange k
Ġentscheiden d
Ġinfl ation
Ġexam ine
Ġsorg fÃ¤lt
Ġw ritten
Ġm erk
Ġaus gesetzt
ĠbeschÃ¤ft igen
Ġbrit ische
Ġdraw ing
Ġan zahl
yste m
Ġdescrib ed
r ichen
ess ions
Ġhand lungs
Ġbild ungs
ĠarbeitsplÃ¤tz en
b re
Ġauf treten
ot ten
Ġger ichtet
Ġke pt
stru ction
Ġimp lic
Ġconsum ption
Ã¤um en
Ġw and
Ã¤l fte
ver fol
vo llen
Ġbrief ly
Ġjohann es
Ġex ists
ĠfÃ¶r der
Ġinf ring
Ġsol ches
o od
Ġbulgar ien
stra fe
Ġdialog s
h m
Ġver ord
og raf
Ġvolunt ary
la ub
Ġfinanz iert
mittel t
Ġhaup ts
w an
Ġan gest
Ġconcl uded
Ġter min
Ġschwer punkt
Ġvor gelegten
ser v
Ġgenu inely
Ġrechtsstaat lichkeit
Ġelim in
il en
isch em
Ġbestimm ter
Ġec o
Ġclar ify
part ner
Ġerk ennt
Ġverfassungs vertrag
Ġjen en
ĠmÃ¤n nern
Ġverlei hen
Ġpos s
Ġbelie ves
Ġfolgen de
Ġerinn ert
Ġter r
ange hÃ¶r
Ġmensch lichen
m us
Ġerschein t
Ġwat ers
2 1
ll ar
ran ken
Ġwo llten
Ġzus atz
Ġdeut schen
Ġhistor ic
Ġsch reiben
au en
Ġwit ness
Ġn ro
Ġconsider ing
net er
Ġche ck
regel ung
Ġvir t
Ġf uÃŁ
Ġer arbeitung
Ġarbeitsp latz
wh at
Ġw od
ad ow
Ġlon don
Ġse ven
Ġinc ent
Ġgeb oten
Ġgef angen
att ung
Ġluxem bourg
Ġg l
Ġre produ
Ġcontra dict
kr ieg
Ġin sp
Ġun l
Ġn Ã¤chst
Ġd oss
Ġaus gang
Ġsch ien
Ġwel cher
ĠÃ¶ ffnung
Ġoper ators
Ġstaat lichen
Ġverteid igen
Ġschem e
ĠkohÃ¤s ion
r as
rat s
0 5
Ġg ang
Ġgen annte
Ġro om
Ġsome what
ĠzurÃ¼ck zu
bericht erstatter
Ġhapp ens
Ġwelcom ed
Ã¼n de
Ġfl ow
Ġinstitution ellen
Ġbeiget ragen
Ġun gere
Ġsp Ã¤t
ik ations
oin ted
un ion
Ġbereit schaft
Ġindustr ies
Ġexpect ations
Ġbenach teil
or n
il ing
Ġdecis ive
a vour
f eld
Ġf if
Ġtrans l
Ġmiss brauch
Ġwirtschafts wachstum
Ġwon ach
Ġunzure ich
Ġstat ut
ĠlÃ¤nd liche
Ġdistrib ution
Ġquot as
Ġstar ke
Ġfisher men
f assung
Ġthan king
Ġtr ifft
Ġs au
Ġb undes
te te
Ġmit te
lin ed
Ġaff ord
Ġqual ifiz
mitglie der
Ġun if
am b
Ġlat est
Ġprodukt ions
Ġinten ds
sy ch
Ġsie ben
Ġent ry
Ġimport s
Ġprevent ing
bezie hungen
Ġspo ke
s es
Ġverring erung
Ġirgend ein
Ġund o
Ġpro hib
Ġsol ve
Ġrequ ested
Ġgegeben en
Ġspo ken
ic ted
ver fahrens
Ġab sen
Ġdurch zufÃ¼hren
str Ã¶m
Ġinte lle
ĠkÃ¤mp fen
Ġg one
Ġer ika
ip ul
Ġpl ant
bal d
mÃ¤r kte
z we
Ġpolitical ly
Ġentscheiden der
Ġplann ed
y er
Ġb ann
Ġind ien
Ġeffect iveness
Ġoffen en
Ġco re
Ġberuf s
Ġacknow led
Ġzw angs
Ġoper ational
Ġexport s
ĠbestÃ¤t igen
Ġausgezeich nete
Ġl Ã¤
Ġ3 7
Ġvers ion
Ġverl angt
Ġprepar ing
ĠgroÃŁbritann ien
Ġh iv
imm ungs
Ġgegen satz
Ġfisch ler
Ġderzeit ige
Ġo s
Ġho st
sib ly
ĠbÃ¼rger beauftrag
Ġelect ric
Ġwirksam e
Ġ Ã¤lter
Ġe p
Ġp sych
Ġheut ige
Ġcooper ate
g l
Ġgew innen
Ġargument s
Ġaustr ian
Ġdo uble
Ġbeg onnen
vorsch lÃ¤ge
Ġstehen den
Ġperfect ly
w ers
Ġz im
us ing
ben e
igen d
Ġsy mp
Ġkeep ing
Ġsouth ern
ĠtÃ¼rk ischen
Ġges icht
ag n
Ġpropert y
Ġh Ã¤lfte
Ġn iveau
Ġas ia
ĠÃ¼ber aus
Ġstud ies
Ġaccident s
Ġjem and
Ġan hÃ¶r
Ġver ank
leich heit
Ġsm es
Ġverbraucher schutz
an trÃ¤ge
Ġfollow s
stand ards
Ġdef iz
Ġmob ilitÃ¤t
hÃ¤n gen
ĠzustÃ¤nd ig
Ġschiff e
Ġtyp es
Ġz oll
Ġr und
Ġcomp ared
Ġnied rig
Ġdestro y
Ġan ne
Ġeinz ig
a ff
p ak
Ġjeden falls
ĠjÃ¤hr lich
grenz ung
initi ative
al er
Ġv ul
Ġab gesehen
Ġsa v
Ġangemessen e
Ġchin ese
em in
Ġviol ations
Ġkontin ent
c ul
Ġso fern
wir kt
Ġarr est
Ġre cyc
Ġpro ve
g reif
Ġr en
Ġalloc ated
Ġchan c
ĠunverzÃ¼ glich
ab stimmung
rat t
Ġexcl us
Ġmang el
Ġchanc eng
Ġkon front
Ġgew Ã¤hl
Ġdefin it
t ion
Ġherr scht
Ġprocess es
Ġwissenschaft lichen
Ġitalien ischen
Ġumfassen d
Ġgra v
Ġpublish ed
l it
Ġm cc
Ġin ade
Ġeingeb racht
Ġprem ier
Ġab ziel
ĠgrundsÃ¤tz lich
us el
Ġfe hlen
fe il
Ġa verage
le y
Ġdeb ating
Ġamb ition
Ġmass ive
Ġabscha ffung
Ġchanceng leichheit
Ġl it
Ġstr en
Ġwirtschaft spolitik
Ġfact s
Ġable hnen
gemein schaft
Ġav iation
Ġdis ag
Ġvorsch lagen
wor tet
Ġincl usion
Ġfolgen den
Ġapply ing
Ġobstac les
a fr
Ġ3 00
bereich e
Ġstruktur en
Ġm io
Ġdr iving
Ġordnungs gemÃ¤ÃŁ
199 9
Ġb Ã¶
ra d
op h
ĠbeschrÃ¤n ken
) ).
Ġpla ces
Ġverst anden
g ust
k und
re p
Ġge legt
Ã¤n ge
Ġerwar tet
Ġl abelling
Ġrel ativ
Ġdr ast
Ġregret t
Ġundo ub
u able
Ġf ruit
Ġk ategor
Ġer richtung
Ġansicht en
Ġprim arily
al a
Ġso bald
ous e
Ġrepresent ed
te ten
sp h
Ġkommissions vorschlag
wahl en
Ġpill ar
Ġruss ischen
Ġunternehmen s
Ġannoun ced
Ġj ungen
Ġex ter
Ġbeisp iele
Ġbefug nisse
g reifen
Ġwachstum s
Ġt ort
Ġt aten
Ġar me
Ġbew ahr
Ġluxem burg
Ġconstant ly
Ġab and
Ġappro ve
Ġequ ip
qual itÃ¤t
Ġbla ir
Ġun certain
Ġum struktur
Ġsta ates
Ġproceed ings
Ġfirm ly
Ġkop enhagen
Ġhil f
Ġair port
Ġleist ungen
Ġrestruct uring
Ġtimet able
Ġfin e
Ġmedic ines
Ġmanch mal
Ġsymp ath
Ġhon est
Ġfehl t
Ġmaintain ing
ron ic
Ġcop enhagen
Ġentl astung
Ġg d
Ġch ines
ific ations
Ġlear ning
Ġanp assung
Ġcle an
or ient
Ġda ily
Ġpo et
Ġhigh est
Ġleaders hip
sch w
Ġgleich wohl
Ġlea der
Ġextens ion
Ġcustom s
Ġer wer
ach sen
ĠbeschÃ¤ft igt
Ġaccording ly
Ġverhin dert
y n
ar ies
Ġste uern
Ã¤r kt
Ġcolle ctive
k a
Ġ x
Ġsch eit
la v
christ ian
Ġtur ning
Ġconfir med
Ġb ran
ol er
Ġal ger
gr enze
Ġrecon struction
Ġacknow ledge
Ġwiederauf bau
m acht
ass ungen
ak zept
Ġhuman itÃ¤re
Ġinvest ments
Ġspezie llen
Ġan b
Ġper mit
Ġilleg ale
Ġbi olog
n Ã¼p
Ġp hen
tz eit
Ġratifiz ierung
Ġc ast
Ġver h
Ġmarkt es
Ġverur teilen
Ġbla ck
w s
Ġaus wÃ¤rt
Ġta ge
Ġpurs ue
% ,
Ġdetermin ed
Ġth er
ish ing
Ġsusp end
Ġun gar
Ġdist in
Ġundert aken
p flicht
Ġk an
Ġprep are
Ġal arm
Ġeinge leitet
Ġkr ie
Ġdef ine
Ġkurz em
Ġberu ht
Ġpolize i
Ġschre ck
Ġapprec iate
Ġexcess ive
Ġvul ner
Ġphen omen
Ġl os
Ġbinnenmarkt es
Ġeinzus etzen
Ġmetho de
Ġkeines wegs
Ġh els
Ġgew Ã¤hlt
Ġjohannes burg
Ġdisp os
Ġgipf elt
Ġangeb racht
Ġhor iz
Ġbe hÃ¶rde
ic ip
Ġcon ventions
Ġarbeit nehmern
Ġentw eder
zie le
reg ion
Ġfiel ds
Ġtrag ic
Ġbedro hung
Ġbed anken
Ġur gency
Ġdut ies
sk i
Ġcor ruption
Ġans wers
ĠhÃ¤ fen
Ġethn ic
i que
kt ions
Ġdem okraten
Ġber aten
Ġir ischen
Ġprim ary
Ġremar k
Ġherkunft s
al ien
ro t
Ġre ichen
ac io
Ġbre ach
Ġvess els
th and
Ġcor resp
Ġrea ction
ĠgrÃ¼ nen
Ġstol z
ratt ini
Ġst raft
Ġgut er
Ġmittl eren
Ġge zwungen
Ġwieder um
Ġon going
be handlung
Ġrecht lichen
Ġqual it
Ġpriv aten
Ġlin ks
Ġkonsequ enzen
ĠkrÃ¤ fte
ĠflÃ¼chtl inge
u ung
ier end
Ġres erve
Ġmin ute
Ġwirtschaft lich
Ġverl assen
Ġeinheit liche
Ġinterinstitution al
Ġverwirk lichung
Ġch ann
bet r
Ġneighbour s
Ġwiederhol t
vi our
Ġacc omp
Ġwieder her
ĠfÃ¼hr ung
Ġabs urd
ko hol
Ġundoub tedly
u ens
re b
iv itÃ¤t
fr ied
Ġko oper
lichkeit en
Ġassoc iated
Ġmeer es
e conom
Ġnew s
Ġbring s
Ġversch w
Ġvi ze
Ġfunction ing
Ġham as
Ġpr est
Ġaus gleich
Ġexcl usion
Ġdon nerst
Ġsecret ary
Ġelectric ity
Ġover come
Ġfind ing
Ġpay ment
e te
Ġb uch
Ġ199 6
Ġvol kes
Ġfebru ary
Ġto uch
Ġzu lassen
Ġvor s
Ġrel ates
Ġgere gelt
Ġoblig ed
Ġbekannt lich
f un
l Ã¶s
Ġf ift
Ġbe zeichnet
Ġbesch wer
Ġentscheid ungs
ĠgewÃ¤hr leistung
Ġzim babwe
f isch
Ġau gust
Ġvereinfach ung
f ter
Ġg vo
Ġst adt
ĠmÃ¶ gliche
Ġob jekt
Ġverst o
Ġmand at
Ġzentral bank
Ġflo od
Ġbeha viour
Ġelse where
is ierten
Ġun mÃ¶glich
Ġto ol
ver tre
ne cess
ad a
Ġhier bei
Ġgesch Ã¼tzt
urs day
Ġniederl anden
Ġscho ol
Ġth ursday
Ġp rag
Ġun necess
Ġle ban
Ã¼ck en
Ġwel thand
Ġfest gelegten
Ġenlarg ed
ĠuneingeschrÃ¤n kt
t nam
de z
Ġvie tnam
Ġstand s
Ġbere cht
Ġpassen gers
Ġcontract s
z ul
Ġge ehrte
sp art
Ġnach druck
Ġgew erk
ink i
Ġwirk ung
Ġoff ers
Ġentfern t
Ġso weit
Ġlar g
Ġdom in
Ġklima wand
Ġsicherheit spolitik
Ġcare ful
Ġconstit ute
Ġaufrech ter
f a
f eind
Ã¤ch lich
Ġgovern ing
ĠgewÃ¤hr t
Ġende avour
Ġbl ut
p akt
Ġen han
ur y
Ġat lant
ok ing
al ity
am ing
Ġr enten
Ġdi ent
Ġqu e
Ġdurch fÃ¼hren
Ġconsider s
Ġvertre tern
Ġcred it
Ġw ind
Ġf Ã¶der
Ġdo ub
Ġspeak er
Ġhold ing
Ġinterpret ation
an o
de x
se kret
Ġreal istic
ĠerhÃ¶ ht
Ġhead ing
Ġcho ose
gipf el
Ġhels inki
an e
her r
Ġweit gehend
ĠÃ¶ ff
olog ie
Ġterror isten
Ġoppos ite
Ġlarg ely
Ġverw iesen
Ġnachbar schaft
m lich
op s
Ġaussch uÃŁ
or ation
Ġaus weit
Ġres erv
Ġgen aus
Ġzeit plan
Ġc entr
Ġwe alth
Ġverletz ung
Ġher ange
Ġprop ag
Ã¤nd ischen
Ġdel iber
Ġprofit ieren
h ner
Ġgel ingt
Ġpremier minister
Ġvize prÃ¤sident
Ġer hÃ¤lt
gr unde
out h
Ġko operation
Ġpal acio
sto ffen
Ġpenalt y
ĠverÃ¶ffent licht
on y
or k
Ġmit teilen
reg ionen
Ġtechnolog ie
Ġlead s
Ġzentr ale
Ġzu grunde
ab kommens
Ġtodes strafe
Ġsoft ware
Ġgenaus o
is ted
Ġaf tern
fre und
Ġerleicht ern
Ġbarr iers
i ÃŁen
k rit
Ġk al
ul ich
Ġentwicklungs hilfe
Ġunif orm
ag ne
Ġqu ote
Ġallow s
Ġdep art
Ġship s
Ġab zusch
geb aut
Ġtechnolog ical
Ġrelig i
ĠzusÃ¤tz lichen
Ġexp ert
Ġsyste me
Ġident ity
Ġrun ning
Ġgehe im
p ay
z ed
fÃ¼hr ungs
Ġgerecht igkeit
b il
ig u
pp ing
Ġsch m
Ġsa w
Ġteil nehmen
Ġgew Ã¼n
Ġacc ounts
pl ans
raum s
Ġuntersuch ungen
Ġaud io
Ġentschlossen heit
Ġtw enty
Ġlib an
Ġabgest immt
Ġmehr fach
Ġpla ying
Ġwa it
Ġfro h
se h
Ġfin land
Ġgen e
Ġverw enden
Ġphil os
ĠwÃ¤hl er
Ġf elt
Ġan sprechen
Ġreg imes
Ġbes orgt
Ġposition en
Ġemphas ised
Ġrele ase
Ġrech tzeit
u z
w Ã¤
Ġyo uth
Ġpre ced
Ġwhere by
Ġtrans it
Ġdifficult y
Ġstud ie
Ġsatisf ied
Ġtransition al
r igen
Ġz Ã¤hlen
Ġprov ed
Ġrefer ring
Ġnahrungs mittel
ill s
erg ie
Ġstrateg ies
Ġstrateg ischen
Ġzust ande
Ġaltern ativen
Ġdetermin ation
at ible
Ġp fl
Ġma dr
ad es
Ġaddress ing
Ġsupp osed
Ġnatur a
Ġcoher ent
Ġgriech ischen
in c
Ġs ah
sch ul
um ed
Ġtax es
Ġhinge gen
co hol
Ġattemp ts
Ġdes erves
Ġmitglied s
i leg
on ien
Ġbu ilt
Ġfischere ip
Ġpoor est
Ġfig ure
Ġno body
Ġaus arbeitung
Ġentsch Ã¤d
ĠgrÃ¼n buch
Ġsatisf actory
0 6
Ġf ert
Ġso d
end et
Ġgew icht
Ġentwick elten
ĠerwÃ¤ hnen
Ġlaufen den
Ġabsen ce
Ġs omm
Ġe chten
Ġr ub
par l
Ġple as
Ġerle bt
Ġdispos al
Ġin akzept
weil en
Ġdonnerst ag
e ig
Ġmed ical
Ġoper ating
urop a
Ġstatist ics
Ġrecover y
wert ung
Ġangenommen en
Ġsur v
Ġverteidigung spolitik
Ġmanufact ur
Ġpro zent
Ġab use
Ġtr end
Ġfest zustellen
Ġd ri
Ġk orea
lie ben
Ġum setzen
ges ted
Ġsozial er
Ġintrodu cing
Ġbelg ian
Ġkulture lle
Ġspezif ischen
Ġersuch en
n ormen
Ġzu erst
Ġhin weis
Ġbild et
i ben
k atastrop
ut ive
Ġaus maÃŁ
econom ic
g as
Ġal cohol
ick s
Ġcour ts
act ive
ĠstÃ¤rk ere
ĠweiÃŁ buch
Ġsl ight
Ġlangfrist ig
ĠfrÃ¼her en
Ġh yp
Ġres ist
Ġwar n
Ġeuro stat
Ġur teil
Ġausge hend
Ġinvestig ation
Ġextens ive
Ġprison ers
um b
Ġval id
Ġlar gest
Ġmot iv
Ġgre ens
Ġa p
Ġc ell
Ġcoun t
Ġstaat liche
Ġvolk spartei
zusammen arbeit
g igen
is ierungs
Ġleg ally
Ġact ively
lieÃŁ t
Ġgeb eten
Ġauf nehmen
Ġvor n
Ġconsider ations
Ġbedeut sam
Ġanne x
i ro
Ġaus be
Ġscha fft
Ġsociet ies
Ġverste he
Ġfu el
Ġurs achen
Ġaccomp an
ĠzurÃ¼ck zufÃ¼hren
Ġstraf recht
Ġacqu is
Ġbehaup ten
Ġgeschle chter
Ġangek Ã¼nd
n iveau
pp ed
Ġterror ists
Ġausge hen
Ġbrit ain
Ġindic ated
Ġexplo itation
w elt
ir y
de p
Ġfl ugh
Ġbre ite
Ġpost p
Ġprest ige
Ġvor hin
Ġger aten
Ġche ap
Ġgarant ieren
Ġfremden verkehr
Ġaband on
Ġein seit
la ut
Ġnachbar n
Ġfaktor en
verletz ungen
Ġun k
Ġsch atten
ad vant
Ġrat ification
Ġsa ke
Ġgeb ill
Ġnegoti ation
ĠbevÃ¶lk erungs
Ġf ang
Ġde pr
Ġinc omp
Ġamend ed
qual ity
ig erung
st ag
be f
Ġthem at
Ġemp fe
Ġspec ies
Ġdisp la
Ġconstru ction
Ġd ub
Ġco ton
Ġse ktors
Ġdis advant
Ġspe zielle
Ġtr ial
Ġget ragen
Ã¤ng st
Ġinteress iert
Ġbedau ere
sprozess es
Ġw ent
re pr
rei ft
Ġwirk liche
Ġ4 5
Ġhaushalts plan
Ġexisten z
Ġver wir
Ã¼s s
Ġbereit gestellt
Ġbeabsicht igt
Ġc uba
ach ter
Ġsch lagen
Ġsee ks
Ġextre me
Ġschwed ischen
Ġhindern isse
i op
l if
Ġh it
qu es
Ġgleich berecht
ĠwÃ¤hr ungs
Ġschwier ige
Ġdep endent
Ġwa iting
Ġbeseit igung
Ġfebru ar
Ġzur zeit
Ġmaint ained
Ġwod urch
Ġunter zeichnet
Ġval uable
Ġverhand lung
Ġsovereign ty
Ġcoton ou
Ġt isch
es h
Ġe ight
ra chten
Ġer leben
tr y
Ġyo urs
Ġziel setzungen
e f
Ġzu vor
Ġsh adow
fert igt
Ġet c
Ġcompeten ces
Ġgel ingen
Ġelect ronic
Ġoffer ed
Ġproblemat ik
Ġvorred ner
n a
Ġen or
Ġeinz ur
Ġche chn
i ot
Ġide en
Ġbesitz t
Ġbalt ic
Ġpoet tering
Ġst imm
ct ual
Ġprozess es
Ġdeb ated
Ġpriv ileg
Ġopt ions
ĠbewÃ¤lt igen
Ġimag ine
ĠÃ¤rm sten
ar ma
Ġno on
Ġmaterial s
spolit ischen
Ġmur der
ĠÃ¼ber lassen
Ġzeit en
Ġqual ified
Ġmult i
Ġrac ism
or al
Ġch ap
Ġur ban
mÃ¤ÃŁ igen
Ġine ff
d essen
Ġdan ish
ĠmilitÃ¤r ischen
Ġmus sten
ĠstabilitÃ¤ts pakt
r ate
Ġbet racht
Ġest im
Ġkonk urr
Ġeinzu fÃ¼hren
on ger
wie gen
Ġabgeord neter
Ġill ustr
Ġmitarbeit er
Ġchechn ya
Ġpart ly
Ġout standing
Ġcar s
Ã¼t ung
Ġimper ial
d ung
ch sel
ber t
Ġge fÃ¼hl
ze p
Ġstr onger
Ġgest Ã¤rkt
Ġdring lichkeit
Ġsug gested
jÃ¤hr igen
Ġf as
ur t
ach ing
ab ilities
Ġstehen de
Ġgre m
Ġverring ern
Ġle ute
Ġsee ing
Ġsignific ance
Ġintens ive
Ġhumanit Ã¤ren
ĠbefÃ¼rwor tet
Ġequip ment
Ġide al
Ġsw ift
Ġchrist ian
Ġang st
Ġcentr es
ich ert
Ġein stellung
we if
Ġpolit isches
Ġbesch lieÃŁen
Ġwirtschaft licher
Ġrem ove
Ġentscheiden den
Ġchang ing
Ġschul den
Ġkonsult ation
r ik
Ġst amm
Ġab fall
Ġenerg ien
ĠÃ¤uÃŁ erungen
Ġb on
Ã¶ konom
Ġer lassen
Ġaus gest
Ġsch Ã¤d
Ġbe achtung
Ġus ers
Ġworld s
Ġph arma
Ġrequest s
Ġthreat s
Ġurg ently
Ġrechnungs hof
Ġun w
Ġent standen
Ġregional politik
Ġbecom es
Ġombud sman
d ring
te b
Ġer lau
Ġakt uellen
ĠmilitÃ¤r ische
Ġspee ches
Ġprospect s
Ġimplic ations
Ġhaupts Ã¤chlich
p al
z io
lÃ¤ uft
Ġanges ehen
Ġgesetz es
Ġkurz frist
Ġprevious ly
bet racht
Ġhinzu fÃ¼gen
Ġvors ieht
m achen
ere i
Ġend ors
Ġkonsequ ent
Ġkrank heit
Ġin nen
ein amer
Ġkomm er
Ġadv ance
Ġneighbour ing
ĠauswÃ¤rt ige
Ġaftern oon
Ġgr enze
hand elt
Ġunderst ood
Ġnu k
e kten
Ġen h
Ġverb oten
Ġmadr id
n ach
Ġer reichung
Ġbereit stellung
org ungs
az itÃ¤ten
Ġdurch schn
ĠabhÃ¤ng ig
Ġaust ausch
Ġscheit ern
Ġphilos oph
Ġd umping
us al
yste me
Ġ199 5
Ġret ain
Ġhighl ighted
besch luss
Ġbedauer lich
ĠbedÃ¼rf nisse
Ġvulner able
Ġan zunehmen
Ġpro c
Ġar ch
ateg ory
ĠgroÃŁ em
Ġenv is
Ġrass ismus
re ds
Ġaus sicht
Ġiss ued
Ġmodern isierung
Ġinade quate
Ġf assen
Ġamend ing
Ġ essen
Ġan betracht
le t
Ġne utr
wer ten
zeit en
eng th
ĠÃ¼berprÃ¼ fen
Ġextra ordin
ĠgrenzÃ¼berschreit enden
re ib
Ġe zb
st adt
igh ten
Ġgreat ly
Ġkontin u
Ġsocial ists
Ġcommunic ations
ĠerfÃ¼ llung
Ġerfre ut
Ġfra g
Ġange wand
Ġadv ice
Ġbio technolog
ĠfÃ¤h igkeit
ĠgenÃ¼ gend
Ġv itor
Ġch osen
au er
Ġbetr ieben
Ġcompet ent
Ġhelp ed
Ġzie mlich
Ġzunehmen d
Ġaudio vis
Ġp ain
el assen
ol a
Ġev ident
gend es
Ġident ified
Ġunterb reitet
l us
Ġre ise
Ã¤s ser
Ġqu oten
Ġfinanz ierungs
Ġprepar ation
Ġstock hol
ĠbeschrÃ¤n kt
Ġv acc
Ġn one
Ġkon serv
Ġpl Ã¤ne
Ġsome one
Ġbo den
Ġeinzel ne
Ġpalestin ians
Ġsuffer ed
Ġvoran zu
Ġwilling ness
Ġlaunch ed
ĠfrÃ¼h jahr
vergen ce
Ġp ush
Ġvor lage
Ġpre ise
Ġstrengthen ed
Ġlau fe
Ġtrag edy
Ġf rattini
Ġk ir
lic it
Ġperspect ives
fu hren
Ġreduz ierung
Ġfischereip olitik
Ġw atch
Ġpr Ã¤s
Ġint oler
Ġkor ruption
Ġverabsch ieden
Ġlat in
Ġc ategory
Ġer arbeitet
Ġgen ie
Ġstrateg ien
man agement
Ġdokument e
Ġchan cen
Ġtschetschen ien
Ġm ug
Ġg Ã¶
Ġk Ã¼r
sch lag
Ġbestehen de
astr icht
ĠÃ¼berw inden
Ġmetho den
ĠbeitrÃ¤ ge
le id
Ġpr Ã¤sent
Ġnor m
ĠhÃ¶ here
Ġessential ly
ĠgegenwÃ¤rt ige
program ms
Ġformul ierung
Ġine v
p la
Ġan re
Ġr h
Ġme at
Ġenerg ies
ima cy
Ġverbunden en
Ġreiter ate
k ar
Ġh ong
Ġsu p
Ġentsch uld
Ġsustain ability
Ġsignificant ly
Ġdict ators
Ġma rok
Ġzusammen zu
Ġass ume
Ġhim self
ĠdÃ¤n em
Ġma astricht
Ġcitizens hip
ĠfÃ¼hr er
Ġdarf ur
Ġtop ic
Ġsole ly
ic ans
th eit
Ġdar gelegt
Ġfre uen
Ġevery body
Ġhop es
Ġhund reds
Ġdefic it
Ġg elt
em m
Ġwel ches
Ġbesonder er
1 5
Ġk uba
Ġver sammlung
Ġpol n
able d
ĠzustÃ¤nd igkeiten
Ġr ies
ere gel
Ġverb reitung
Ġsc r
Ġzweit er
Ġwahr ung
Ġunterschied lich
Ġwachstum sp
Ġunn Ã¶t
Ġst able
Ġunter nehmer
ak is
Ġklar heit
Ġdep end
Ġmensch liche
Ġal kohol
Ġact ing
Ġauss age
Ġehemal igen
ĠgefÃ¤hrd et
k as
Ġno ise
Ġinter oper
for schung
Ġad vert
Ġcons c
Ġlegisl ativ
Ġmor o
Ġtax pay
ut ung
Ġau ge
Ġum gang
Ã¶r ung
rag t
Ġexp licit
pro t
Ġgef Ã¤ng
Ġconcentr ate
Ġan erkennen
Ġprofit s
Ġakte ure
Ġd u
Ġg Ã¼nst
Ġdiff erenz
Ġvorsitz enden
ĠbekrÃ¤ft igt
el te
Ġha fen
Ã¤n en
Ġremain ing
Ġstim ul
Ġban ks
Ġpak et
Ġgipfelt reffen
k ommission
Ġd rÃ¤n
Ġzu ges
il s
Ġco al
Ġvor sicht
th en
Ġpol ish
Ġges ellschaften
all ing
Ġind ones
ĠwÃ¼r d
Ġumf asst
leit ung
Ġrede beit
Ġab gesch
Ġsch ott
lie f
Ġcla ims
Ġanzu wenden
Ġintelle ctual
Ġde vo
Ġperspekt ive
Ġpil ot
Ġp ict
em iss
Ġrel atively
Ġappro x
ĠerÃ¶r tert
Ġset s
Ġanmerk ungen
it age
ie gen
Ġst unden
Ġsur round
Ġfinn land
Ġmang eln
Ġsupplement ary
Ġcomp uter
Ġeuro s
Ġtest s
Ġein treten
Ġeuro zone
uff icient
Ġv at
ir m
Ġge arbeitet
Ġkon vention
Ġconf ident
Ġopen ed
Ġverst Ã¶
ĠprÃ¤s id
Ġo ste
Ġnach mittag
Ġnumber s
Ġstar ken
Ġcarr ying
Ġey e
Ġcomp lement
Ġresult ing
Ġverletz t
Ġg ue
ĠdafÃ¼r halten
Ġextend ing
Ġhear ing
zut ragen
an ke
Ġbe mer
Ġl ength
Ġst ay
Ġsp Ã¼r
Ġfr ist
ĠhÃ¶ch ste
Ġher itage
Ġcor por
Ġwider stand
Ġgarant ien
ĠhÃ¤n gt
Ġkonfront iert
f angen
m ill
Ġsch Ã¤den
Ġy ork
Ġob gleich
Ġunder min
Ġgel der
Ġungere cht
y pt
Ġer haltung
Ġcertain ty
ict ion
Ġgef asst
ĠgewÃ¤hr en
Ġlat einamer
Ġgaz a
Ġlang sam
Ġ3 2
Ġmechanis men
Ġwarm ly
Ġhoriz ont
Ġstockhol m
i ations
ur b
Ġaus nahm
ud es
Ġerzeug er
Ġsufficient ly
Ġcondu cted
uls ory
Ġarm y
Ġtex ts
gangen en
Ġeindeut ige
dienst leistungen
Ġvitor ino
ie ts
Ġpro ud
Ġge pl
Ġvor stellen
Ġ3 6
Ġcomple ted
Ġaktionsp l
Ġvertr itt
Ã¤ h
Ġder og
Ġpos sibly
Ġforts etzen
Ġan sehen
Ġent hus
ow ski
are t
t schaften
Ġarbeit geber
Ġerw iesen
Ġplay ers
Ġsur ve
a fft
c s
g round
j ud
Ġw in
ab geord
Ġleg t
Ġcountry s
Ġagentur en
we ist
Ġweit aus
Ġnational s
Ġ199 0
Ġumfassen der
Ġtransatlant ic
k ul
sp ieg
Ġman che
utz en
Ġstud ien
Ġprakt ische
Ġn ight
Ġfle et
Ġc rop
Ġto wn
Ġfa ith
Ġprodu cing
Ġwirk lichen
Ġargument e
Ġrad ical
Ġjen er
on ial
al ter
Ġis land
Ġaus geschlossen
Ġjahr zehn
Ġisra els
Ġclar ity
Ġaffect s
Ġgeeign et
Ġsp ite
Ġverfass er
Ġdynam ic
Ġcoll ab
Ġpure ly
ĠsorgfÃ¤lt ig
ĠnÃ¤chst er
Ġkon z
Ġgemeinsam er
cept ion
Ġkont akt
Ġstress ed
Ġdritt staaten
Ġneighbour hood
zust immen
Ġmist ake
eig nete
p et
ir able
fÃ¤ llig
Ġabst immungs
Ġprom ised
ab il
Ġum ge
Ġpa ar
ĠerÃ¶r tern
Ġberat ungen
Ġden mark
Ġal leg
Ġpro of
Ġaus wirken
Ġapp oint
Ġmuss te
Ġteil nahme
Ġsim babwe
Ġsport s
Ġnetz e
Ġjournal isten
Ġvert ie
en ing
Ġw ine
Ã¤ chen
Ġho ff
Ġad mit
ub an
Ġgew inn
Ġimportant ly
Ġnachhalt igkeit
Ġv et
Ġvor der
Ġrad ik
Ġbom b
ĠanhÃ¶r ung
ar ia
ĠÃ¼ber trag
Ġunter drÃ¼ck
Ġscho ols
f i
kt ure
aus sch
Ġberu hen
Ġbetrie bs
Ġheav y
Ġprag mat
d ire
Ġun ilateral
Ġli ability
Ġger ichte
Ġkonflik te
Ġniger ia
Ġun sch
ip s
Ġbet rag
Ġmen ge
Ġcontro vers
Ġdemand ing
Ġaspe kten
Ġsubsidiar itÃ¤t
Ġw enden
om et
Ġex ceed
Ġwor st
Ġdurch setzung
Ġange wendet
Ġinvest itions
Ġair lines
Ġconstit utes
Ġc as
Ã¼ bt
Ġfor g
Ġauf richt
Ġpar ad
Ġnach denken
Ġsicher gestellt
Ġfest stellung
reg ierung
Ġhung er
in y
Ġz Ã¼g
la ubt
Ġall i
Ġref ers
Ġamer ika
Ġsag ten
best immungen
Ġblo od
Ġmenschenrechts verletzungen
Ġsubsidiar itÃ¤ts
Ġkontroll ieren
hÃ¤n gt
Ġsen kung
Ġgeograph ical
Ġun re
ig ern
Ġauf sicht
hal tet
Ġausger ichtet
Ġer teilen
Ġhil fs
Ġunions bÃ¼rger
ĠlÃ¤ uft
c ard
Ġc roat
Ġfinanz ieren
sche iden
Ġident ify
Ġkultur en
comm un
aust ausch
Ġo ly
Ġver sprechen
Ġdi am
Ġzust and
Ġverantwort lichen
Ġchemical s
Ġoly mp
Ġd ed
at te
Ã¤ fen
Ġnach teil
geb iete
Ã¼hr en
Ġinn ere
Ġafr ikanischen
ĠwÃ¼n sch
Ġfif teen
Ġsomm er
Ġh art
Ġc ze
wo hner
Ġpower ful
Ã¼rz t
kr ise
sekret Ã¤r
Ġt sche
Ġsch ed
Ġfl u
Ġcomplic ated
Ġunnecess ary
Ġmanufactur ers
Ġer arbeiten
Ġcon vergence
Ġbet reiben
Ġhin weg
Ġlie ber
Ġpatient en
Ġbeam ten
Ġf at
Ġre ve
de b
Ġvor stellung
Ġgro ss
Ġinvest ieren
Ġdaten schutz
sp ort
enn ess
hol ders
Ġtrag Ã¶
rel ated
Ġdoss ier
Ġrecyc ling
Ġ ?
Ġc ategor
Ġer sta
schaft s
zie llen
Ġqual itÃ¤ts
Ġglobal e
sprogram me
Ġverhalten s
Ġbein haltet
Ġma zed
Ġdo llar
Ġcomm end
rei ber
Ġbedauer licherweise
Ġtort ure
Ġer inner
Ġausweit ung
Ġth res
Ġden jenigen
Ġta i
Ġstr ugg
Ġemploy ers
Ġenh ance
er y
em ic
Ġse ch
iel d
Ġch a
Ġcomp ulsory
Ã¶r derung
Ġfe wer
Ġabsch lieÃŁen
Ġunterb reiten
Ġverabschied ung
Ġeinger Ã¤umt
s ession
Ġher stellung
Ġinter nen
Ġrepr Ã¤sent
Ġsum mer
ifiz ierung
ĠzusÃ¤tz lich
ari at
im p
Ġab bau
Ġzug ute
Ġstra ight
Ġdraft ing
re bt
Ġf ix
n gl
Ġmarket ing
Ġown ers
Ġrechtzeit ig
r ich
Ġk roat
Ġum so
Ġmor ator
Ġfamil iar
prot okoll
Ġf it
Ġst rom
Ġsp end
he im
Ġtran se
Ġzug Ã¤nglich
Ġstatt dessen
Ġident itÃ¤t
best Ã¤nde
Ġundert ak
Ġs ize
Ġdis abled
Ġins ufficient
Ġsy n
Ġhistor ical
Ġdecla red
Ġworr ying
Ġausbe utung
Ġe ld
Ġver zeichnen
Ġwe in
Ġwe bs
Ġzahl ungs
Ġ7 5
Ġratsvorsitz es
Ġpie ce
j un
Ġk ranken
el be
Ġrat ified
Ġmon t
Ġaus grenzung
Ġop enness
use hen
Ġsuccess fully
ĠschlieÃŁ e
Ġaus gel
Ġwill kommen
ieren der
Ġmin uten
Ġback ground
Ġt ie
Ġver ts
ill ing
gr Ã¶
aus gaben
Ġdurch zusetzen
Ġdisapp oint
Ġheimat land
ugos law
Ġeco fin
v ak
Ġm Ã¤ng
ens e
Ġup d
Ġpers u
Ġhistor ischen
ĠabhÃ¤ng igkeit
ĠerlÃ¤ut ern
sc ale
gef unden
u fe
Ġfest legen
Ġzuver lÃ¤ss
ger ichts
Ġje gliche
Ġkonstrukt ive
Ġstattf indet
lÃ¶s ung
Ġe he
ger ufen
Ġrec all
Ġwelcom es
Ġgrant ing
ble iben
Ġcommun ist
Ġfr esh
Ġ3 3
Ġunanim ously
Ġbege g
Ġmillenn ium
w es
on i
Ġauf ent
tr itt
Ġste ll
ĠÃ¶ konom
Ġpassen ger
) ]
on ik
Ġb ott
Ġan trÃ¤ge
Ġvor nehmen
program me
ĠsÃ¼ den
Ġwelch em
Ġn iel
ic ken
Ġrec ip
Ġoffen e
Ġdep ends
Ġapplic able
Ġpalest ine
c are
at o
Ġein rÃ¤
Ġexp l
Ġjust ify
Ġgemeinsam es
Ġconsider ably
Ġrespect s
Ġfore most
Ġartic les
Ġgerecht fertigt
Ġrepla ce
Ġeinzelstaat lichen
Ġphenomen on
teb org
r ant
Ġto d
Ġwas hing
Ġpos sibilities
Ġint entions
lle d
Ġenthalten en
Ġf er
Ġra ums
Ġ4 8
Ġergeb nissen
Ġsett lement
Ġanw enden
ĠvollstÃ¤nd ige
Ġdeep ly
Ġschem es
Ġenfor cement
Ġeinwander er
bu ild
c raft
Ġden k
ind ungen
Ġwhere as
Ġautonom ie
Ġgd p
0 8
f ers
Ġincorpor ated
Ġeld r
g ue
it als
Ġim men
ver ordnung
heit s
Ġprogram men
Ġbew Ã¤hr
Ġwider spieg
Ġformul iert
Ġexch ang
Ġremo ved
ĠsouverÃ¤n itÃ¤t
ĠgÃ¶ teborg
Ġc ity
Ġz Ã¶
Ġde als
Ġhier zu
Ġper cent
Ġeinstimm ig
pak et
er b
kt iv
Ġcomp on
Ġworld wide
ĠverÃ¤nder t
Ġfinn ish
f erence
in form
Ġvor zunehmen
Ġ199 4
Ġtre ib
Ġjung e
i ary
en k
Ġt ru
Ġbe zeichnen
Ġho her
fl Ã¼
Ġ3 8
kehr en
Ġvertra uens
produ ktion
ĠbÃ¼rokrat ie
Ġtaus ende
n ational
Ġg Ã¼ter
ic ate
ber g
Ġabge geben
cn s
r unde
Ġver ehrten
Ġrail way
ĠbÃ¼rgerbeauftrag ten
ĠdÃ¤nem ark
o th
Ġe hre
Ġwesent licher
Ġcoordin ated
ĠpalÃ¤st ina
ĠpalÃ¤stinens er
Ġerlau ben
Ġwachstumsp akt
Ġin wie
Ġbelie f
Ġeas ily
ĠtÃ¤t igkeiten
Ġexperien ced
ĠgrundsÃ¤tz en
Ġlegit imacy
Ġvorbereit et
ĠstÃ¤nd igen
Ġgegenseit igen
Ġpatient s
Ġdiplomat ic
ĠmÃ¼nd lichen
ad ing
Ġkon stitution
Ġpresent ing
Ġverteid igungs
ĠbegrÃ¼nd ung
Ġsod ass
Ġt em
Ġm em
ne y
mÃ¤ÃŁ ige
Ġkrieg s
Ġwe ight
dem okraten
Ġneg ativen
er ved
Ġdem ograph
qu ellen
Ġat mos
Ġmitglied schaft
Ġeng age
Ġakt ive
ig ert
Ġj ugoslaw
iz ienz
ĠprÃ¤ vention
a der
z y
el ung
ĠausÃ¼ ben
f ted
Ġas p
Ġar med
Ġsor ry
Ġreach ing
Ġregel mÃ¤ÃŁig
Ġwall strÃ¶m
iss es
Ġbl ind
Ġconsequ ence
Ġrefle cted
Ġprepar ations
kontro ll
h me
at iver
Ġre isen
Ġal ters
Ġoffen heit
Ġair craft
Ġbisher igen
Ġsteuer zahl
Ġfacil ities
Ġexper im
Ġreag iert
Ġbeant worten
Ġut most
finanz ierung
Ġenor me
Ġo ben
Ġis lands
Ġre ass
Ġdass elbe
Ġbereit et
Ġbo ost
Ġrechts rahmen
Ġfeel ing
Ġeth ical
ĠfranzÃ¶s ische
Ġbetrie be
Ġobserv ation
Ġma ced
Ġfol ter
Ġdemokrat isch
Ġvereinbar t
rÃ¼ st
feil er
t ies
ver hÃ¤lt
Ġpre v
Ġput in
inn ock
Ġsh ape
Ġbas ically
Ġdeter mine
Ġcorrect ly
proble m
Ġd ingen
Ġwer ten
Ġunfortun ate
Ġwo hn
Ġpartn ern
Ġguarantee ing
ĠursprÃ¼n glich
Ġbeseit igen
ĠendgÃ¼lt ige
Ġrand lage
ĠkohÃ¤r enz
Ġenab ling
Ġcze ch
e k
Ġs atell
Ġne un
Ġmenschen handel
Ġstru kture
Ġaw a
Ġ9 5
ĠunabhÃ¤ng igen
ĠgrenzÃ¼berschreit ende
Ġpleas ure
x ic
Ġver dien
Ġdo ct
spro ble
Ġcut s
Ġislam ic
Ġdienstleistungs richtlinie
Ġviel zahl
wirtschaft ung
Ġsmall er
Ġrelig ions
bezie hen
Ġassozi ierungs
Ġtsche ch
os p
sp ap
ot te
antwort ung
Ġaltern atives
Ġwissenschaft liche
Ġjournal ists
Ġspezif ische
Ġverurs acht
Ġausnahm eregel
m od
Ġh undert
Ġschutz es
gew Ã¶hn
ĠÃ¶ff nen
is men
Ġwe ist
Ġfor tz
ste in
Ġmar ine
Ġfort un
ĠgrÃ¶ÃŁ t
Ġexpress ing
Ġbelg ium
Ġunz ul
ĠÃ¶kolog ischen
Ġzus ch
Ġget r
Ġ4 00
Ġdra fted
Ġoffen kund
Ġword ing
Ġvor liegt
Ġkein em
komm un
ĠverstÃ¤r kte
Ġgarant iert
Ġharm ful
Ġkapit el
Ġgegebenen falls
Ġun ity
Ġv ast
Ã¼ cke
Ġi g
Ġdes erve
Ġsicher ung
nehm bar
Ġexplan ation
Ġgene va
b l
Ġp akt
ct ing
Ġsp ann
ĠgefÃ¤hr lich
ĠbefÃ¼rwor te
Ġsozialdemokrat ischen
Ġdoub ts
Ġab we
Ġ4 2
ĠerwÃ¤ gung
Ġpass iert
ĠendgÃ¼lt igen
emiss ionen
w ind
Ġer hoben
Ġcan cer
Ġfo ster
spra ch
Ġverbraucher politik
Ġverschle chter
Ġdri vers
Ġin qu
Ã¼ber ein
Ġwelthand els
Ġb ip
Ġin folge
Ġg mos
ed e
Ġver mitteln
Ġsubject s
Ġdokument en
Ġwest lichen
Ġsucceed ed
Ġhervorragen de
ĠsubsidiaritÃ¤ts prinzip
it es
st ock
Ġpro stitution
Ġas ide
Ġsch Ã¶n
Ġar ise
Ġamer icans
Ġprec a
i i
Ġne hme
ag ue
str Ã¤
Ġsituation en
Ġbureauc racy
Ġt ieren
on ing
Ġso ught
Ġher steller
ehr ter
Ġmitt ler
Ġlangfrist ige
Ġjahrh under
Ġbeibe halten
Ġregrett able
Ġdictators hip
l angen
Ġge eignete
Ġgleich ermaÃŁen
Ġerweit erten
Ġfocus ed
Ġterr ible
Ġer setzen
Ġhealth y
Ġzahl ungen
Ġverl Ã¤nger
Ġakt ual
Ġeinzu beziehen
Ġexcl uded
Ġhard ly
Ġv eter
Ġaus ged
ste uer
ĠnatÃ¼r lichen
bed arf
Ġviol ation
Ġinterv ene
Ġ Ã¤r
is tern
re form
Ġkon text
Ġdec ades
lÃ¤ ufig
Ġ3 4
Ġtrans form
Ġbig gest
Ġrespekt ieren
ugos lav
Ġrig or
Ġverord nungen
Ġalli anz
er ing
at ures
ur fs
st ens
ra id
zie ht
vÃ¶lk erung
Ġeinges ch
Ġrapid ly
h ouse
p ut
ro lle
ts te
Ġy ugoslav
Ġincre ases
klÃ¤r t
Ġdefin iert
Ġkor rig
Ġdelay s
Ġnahe zu
Ġintell igent
Ġundertak ings
it ten
Ġf assung
Ã¤ss ern
Ġparlamentar ische
Ġanwend ungsbereich
Ġauf hebung
Ġse ll
ĠÃ¼ber ras
weit e
Ġjoint ly
Ġcorresp ond
Ġrecht liche
Ġaf raid
bei hilfen
Ġfis cal
Ġkind s
Ġperiod s
Ġeinges chrÃ¤n
Ġstre ben
Ġreflect s
Ġkenn zeichnung
j anu
Ġe ib
Ġto ols
Ġk innock
ic ed
Ġge ein
Ġgemein schaften
ak es
Ġiraq i
Ġdeta ill
Ġlam y
Ġp f
Ġge prÃ¤
op ard
Ġtun is
Ġfavour able
Ġopp ose
Ġcondemn ed
ĠerwÃ¤hn ten
spart ner
Ġl enken
Ġvor mittag
ag entur
Ġexp and
Ġbeg Ã¼nst
.. .
Ġbesitz en
Ġvorhanden en
p rechen
Ġal te
Ġdo or
se bene
Ġverein igte
Ġpoten zial
kre is
Ġrechtfert igen
Ġinakzept abel
Ġeng aged
Ġturn ed
Ġangemessen en
Ġminder heit
Ġwal d
Ġk at
Ġer b
hl t
lÃ¤ gen
red it
Ġ199 2
mÃ¶ gen
ĠbeschÃ¤ft igten
zip lin
Ġleban on
Ġw under
ul ierung
get ragen
Ġstrateg ische
Ġmenschenre chten
Ġeng lish
Ġeinsch Ã¤tzung
wh ile
v y
Ġt ang
Ġser bia
Ġorgan ise
ats on
Ġenter ed
ĠhÃ¶her en
versch mutzung
geste llten
Ġpict ure
Ġprev ail
h ear
Ġaus nahmen
Ġverbrauch ern
Ġzugest immt
Ġverdien en
Ġk Ã¶rper
Ġhar bour
Ġoft mals
Ġbeant wortet
Ġrepeated ly
Ġniel son
Ġc ities
Ġan schein
Ġein kommen
Ġzu lÃ¤ss
Ġsubst anz
ĠausfÃ¼hr lich
Ġobt ained
Ġmug abe
k omp
Ġst or
Ġda hin
Ġra ising
isten ce
Ġgest altung
Ġeng l
Ġsix th
Ġembar go
ach er
Ġse ction
Ġsch lage
sp flicht
ay s
Ġunder mine
Ġbedeut ende
Ġgele iste
Ġunterb rochen
f p
t a
Ġder er
Ġgu ant
zeich en
Ġant icip
Ġisrael ischen
Ġencour aged
Ġexper ten
Ġsurpr ised
Ġh alt
Ġsu itable
Ġ19 6
Ġje opard
Ġwahr en
Ġpap ier
ig aret
Ġsch n
igen ce
Ġdet rim
Ġrestr icted
Ġdiv ided
Ġreserv ations
Ġeurop ar
end ien
Ġnegoti ated
Ġpay ing
Ġprakt ischen
weis ung
Ġangewand t
1 0
fÃ¤ llt
Ġzugang s
Ġn Ã¶r
ge ht
Ġnecess arily
Ġcontrib uted
Ġexam ined
Ġbetrie b
Ġv e
Ġschne ller
Ġcompla ints
Ġin con
Ġbe fried
Ġer laubt
Ġim age
Ġgeb Ã¤
Ġfol gendes
Ġerheb lichen
Ġadvant ages
Ġbegrenz t
Ġso w
ĠÃ¤ g
Ġadv is
ĠverÃ¤nder n
Ġsimilar ly
ĠkohÃ¤sion spolitik
2 5
Ġa ward
Ġbe weisen
Ġzu l
ĠÃ¼ber leben
ose x
Ġrel ate
Ġstatt gefunden
Ġschul en
Ġuner lÃ¤sslich
c ast
Ġvor g
Ġfr ustr
Ġschw eren
Ġregul ierung
Ġerinn ere
ĠpersÃ¶n lichen
Ġbewer ten
Ġliban on
Ġdurchschn itt
ĠnÃ¶r d
re formen
Ġf and
Ġop fern
Ġterritor ies
Ġwithdra w
ĠÃ¼ber mitteln
Ã¤hr ung
geb ieten
Ġsc ience
Ġbro ader
Ġratifiz iert
ĠerwÃ¤hn te
Ġle hr
Ġent ail
Ġdire kte
Ã¤nd ische
Ġins el
com ings
Ġshort comings
Ġbedro ht
Ġgebill igt
Ġm as
Ġver sp
Ġco d
Ġste igen
Ġcreat es
ĠpalÃ¤stinens ische
Ġdemonstrat es
eben e
Ġm igr
an lagen
Ġver deut
wo bod
Ġkons olid
Ġfoot ball
Ġnuk lear
Ġdisc over
Ġgu ard
ĠerklÃ¤r te
Ġfern sehen
Ġbelg ien
Ġunzureich end
er geb
Ġver lauf
ik ament
Ġind ik
Ġbed ing
Ġvoll er
Ġinteress ant
Ġwashing ton
ud ing
Ġwenn gleich
rat ed
gra d
Ġelect oral
Ġcongratul ations
mitt lung
Ġjugend lichen
Ġgek enn
Ġwid ely
f assen
Ġt s
Ã¤ be
Ġpar is
Ġgesetz geber
Ġkl im
Ġlea ving
Ġsuper vision
Ġerschein en
Ġcoup le
Ġdefinit ely
Ġc at
Ġl ith
Ġenvironment ally
Ġinstit ute
Ġinner es
ĠÃ¤uÃŁerst er
Ġleit en
Ġsk ills
Ġalong side
Ġbeob achter
Ġherange hen
Ġadvert ising
sta ates
Ġarbeits zeit
Ġrom e
Ġcred ible
Ġunge achtet
ĠvernÃ¼nft ig
ĠenttÃ¤us ch
ut s
Ġver scha
Ġr id
Ġaut om
Ġfut ter
Ġisrael is
Ġcongratul ating
Ġbevor stehenden
Ġveran st
Ġey es
Ġfift h
Ġtai wan
Ġwir ken
Ġout set
Ġprov ider
Ġand ern
be vÃ¶lkerung
ah me
Ġzum al
lo ok
Ġ5 5
Ġgr at
Ġacc ur
Ġberichterstatter n
ĠbenÃ¶t igt
Ġexpens e
ĠfuÃŁ ball
mill iarden
Ġfund ed
Ġange p
Ġumw el
Ġrev ised
Ġshow ing
Ġerg ibt
Ġwirksam keit
polit ische
Ġfil m
Ġbureauc ratic
fle isch
Ġslo vak
Ġschatten berichterstatter
l ern
u ers
Ġg Ã¼lt
Ġk Ã¼nst
Ġge ograf
Ġchar ges
Ġpromo ted
Ġjud gment
Ġkommissions mitglied
Ġausgewogen en
Ġirgend w
Ġbeob achten
Ġindire ct
le m
Ġer weisen
Ġle hne
ist ischer
Ġmo unt
Ġstand punkte
Ġgest attet
ĠÃ¼berw achen
ĠvernÃ¼nft ige
kla usel
opho bia
Ġscr ut
en ne
Ġder eg
Ġvers icherungs
Ġapplic ations
Ġindic ators
Ġarme e
ĠmÃ¤ng el
Ġlith u
re ck
Ġge be
Ġsa ve
Ġ200 9
Ġbec ame
ĠkrÃ¤ ften
Ġkil led
a ktion
ie ller
re m
Ġm ental
Ġsch icks
Ġunter scheid
Ġiniti ativ
Ġel der
aid s
Ġextraordin ary
b aus
Ġma c
Ġdo g
ungs maÃŁnahmen
Ġqu o
Ġschw ere
Ġdeut liche
Ġweltweit en
Ġpar am
Ġsozial modell
Ġlar ger
gew iesen
Ġdisp ute
arz emb
Ġde le
ik as
ĠgroÃŁ art
Ġgeneral dire
Ġstud ents
Ġfair ly
Ġcy c
Ġgenehm igung
Ġexec utive
Ġmorator ium
Ġig c
f ungen
Ġf ire
Ġst ipul
id ung
Ġlang em
Ġfair en
Ġrom an
Ġemiss ionen
Ġgrundlegen der
Ġ201 3
an cing
Ġst ance
Ġge ziel
Ġstand ing
Ġeuro just
Ġrepresent ation
Ġumf eld
Ġbu y
Ġmot ions
ĠrÃ¼ck kehr
med iterranean
Ġbe gan
ge ted
Ġunter scheiden
Ġverk nÃ¼p
Ġkonstrukt iven
ĠenttÃ¤us cht
Ġklimawand el
Ġrev en
ĠbegrÃ¼ ÃŁ
Ġbeitritts lÃ¤nder
Ġgerichts hofs
Ġrail ways
Ġbarn ier
parl iament
Ġw atson
te hen
isch ung
Ġent sen
Ġorgan ic
Ġdeleg ations
Ġshar es
g ien
Ġmit wirkung
Ġzug elassen
Ġstra ÃŁe
Ġplan ts
Ġexpla ined
Ġro th
Ġaut or
Ġir ische
Ġroad s
geleg te
Ġm el
am i
Ġer teilt
ugh ter
Ġper pet
Ġmod ified
Ġklein er
Ġaugen blick
Ġdeath s
Ġatmos ph
re ise
Ġge ber
Ġsh ock
Ġmich el
Ġunder line
Ġschw Ã¤ch
Ġide olog
ĠÃ¼berein st
vertrag s
c rimin
Ġt ritt
el led
Ġl Ã¶
Ġmed a
Ġhope fully
Ġdeut sche
pre is
Ġkompet enz
1 1
b ack
Ġw ild
Ġent repr
ib an
ĠmÃ¶ gen
fÃ¼ gt
Ġmo ved
iert es
Ġpun ish
Ġsuggest ions
Ġpen al
Ġnear ly
e w
Ġs wobod
Ġb reiten
Ġc am
Ġcon ce
Ġerforder liche
Ġentwicklungs zusammenarbeit
Ġspan ische
ĠbekrÃ¤ft igen
ĠnÃ¶t ig
Ġkonserv ativen
Ġelder ly
Ġk urs
Ġfra gest
Ġsc ot
Ġbinnenmarkt s
ĠverlÃ¤nger ung
c oun
m ord
m eld
r uss
s ituation
Ġher gestellt
Ġteil t
Ġmed ikament
az itÃ¤t
Ġgarant ie
Ġbehaup tet
Ġdiesel ben
Ġsuspend ed
Ġmazed onien
y le
re chten
st Ã¤nde
st Ã¤tigkeit
fÃ¤ ll
Ġnegoti ate
ĠerwÃ¤ g
ko pp
ĠfÃ¼nf zehn
d a
p ap
ir ing
Ġvor wand
Ġvers orgung
Ġarbeits bedingungen
Ġenergie politik
Ġdrit tel
pr Ã¤ch
Ġgef ragt
Ġreject ion
Ġhom osex
bef ug
b Ã¼
f at
Ġb attle
Ã¤ her
Ġvor zusch
Ġsu che
fÃ¤h igen
Ġanst ieg
Ġausreichen de
Ġuncertain ty
Ġv it
ier n
Ġsh ift
Ġke en
ĠtatsÃ¤ch lichen
Ġpopul ations
Ġentrepr ene
Ġnach frage
Ġrechts sicherheit
Ġrest ore
Ġprom ises
ĠunabhÃ¤ng ige
ro us
Ã¶ ten
Ġsch e
Ġbeit reten
Ġrefle ction
Ġkontroll iert
Ġaffect ing
Ġwand el
Ġc ard
os sen
Ġch ain
Ġpers ec
Ġganz es
bereich en
r um
ze g
Ġtra ck
Ġgrund lagen
Ġuntersuch en
Ġfle isch
Ġdistin ction
ĠprÃ¤sid ium
l iste
ro c
Ġver teilung
end es
Ġsol ch
Ġwettbewerbs fÃ¤hig
Ġrece iving
Ġsatisf action
Ġbear ing
ĠbeglÃ¼ckwÃ¼n sche
Ġermut igen
ĠkÃ¼r ze
k ult
Ġin j
Ġin haft
den k
Ġwe aken
Ġvor bild
op ing
Ġby r
Ġeben en
Ġrechts etzung
Ġkur ze
Ġmult ip
akt iv
Ġaussch Ã¼sse
Ġzentral en
Ġjur is
b in
es ischen
Ġp as
zu folge
Ġfre ut
Ġev p
Ġmarkt wirtschaft
Ġobser ved
Ġdecla re
Ġdikt atur
Ġtaxpay ers
Ġn ine
Ġrel iable
Ġregard ed
Ġehr lich
instrument e
Ġcoher ence
Ġas ien
Ġle istet
Ġinstitution elle
Ġmain stre
Ġoblig ator
Ġdead line
Ġsyr ia
m as
Ġein m
Ġre chen
ul ted
trÃ¤ glich
ĠjÃ¼ng ste
Ġpursu ant
m ir
Ġm ix
Ġe pid
Ġc ert
Ã¼ gen
Ġl esen
Ġco vers
Ġbest immen
Ġerziel ten
Ġdiv ision
ĠmÃ¼nd liche
Ġkooper ations
n isses
Ã¼ ckt
am es
Ġum gehen
sen z
Ġbes atz
Ġinform al
zÃ¼ ge
Ġmut ter
Ġportugies ischen
Ġs ending
Ġz it
Ġz Ã¤hlt
and t
Ġherr schen
Ġwar rant
Ġnew spap
Ġprevent ed
Ġlandwirtschaft lichen
Ġtar iff
Ġec b
Ġverletz ungen
Ġchin as
Ġsurround ing
o pp
Ġvor sorge
Ġsp ect
Ġverb rech
Ġpl at
Ġzwe cke
Ġdemokrat ischer
Ġminister rat
per iode
Ġvorgehen sweise
Ġbil anz
Ġtransatlant ischen
Ġfragest unde
Ġhe iÃŁen
se ktors
ze ÃŁ
Ġzusammen ge
Ġwider sprÃ¼
ĠÃ¤hn liche
Ġerd Ã¶l
Ġexpens ive
Ġappar ent
Ġs mo
Ġent steht
Ġhier fÃ¼r
unkt ions
Ġorgan en
Ġfl or
Ġged enkt
ĠdiesbezÃ¼ glichen
Ġpenalt ies
Ġtrib ute
Ġstren ge
ĠangekÃ¼nd igt
pla ce
Ġinwie weit
w ater
Ġp ir
ist ics
Ġdire kten
Ġschritt weise
Ġdist ingu
haus halts
Ġexception al
Ġx en
u ert
Ġf unktions
Ġstr ike
ĠÃ¼berein kommens
Ġpost al
vergen z
krit erien
Ġmoro cco
4 5
Ġt or
Ġn ar
ess al
kt iven
Ġparlament en
iet y
zahl ungen
iber al
Ġbehinder ungen
Ġmarok ko
Ġtranse uropÃ¤ischen
Ġout er
Ġbes che
Ġbei zutragen
Ġgleich behandlung
Ġentwicklung spolitik
ief st
Ġshort ly
Ġrele v
Ġcandid ates
Ġquot a
Ġzut iefst
eff izienz
ib ly
Ġfra ktions
lo ck
Ġrahmen programm
Ġcomb ined
Ġsubsequ ently
ĠdrÃ¤n gen
Ġerinner ung
Ġswobod a
Ġbe wirken
Ġein halten
os is
Ġequ ival
Ġmechan ismus
Ġwid men
ĠflÃ¼chtl ings
Ġvorder grund
onik i
Ġassoc iations
le ments
Ġer heben
Ġda vor
ient s
zus agen
Ġchar ge
ĠbefÃ¼r cht
Ġec ological
Ġkeines falls
Ġmaced onia
r t
r ight
ter ung
Ġtro ops
Ġpop ular
Ġmer c
Ġtour ismus
ĠkÃ¼ mm
ĠverÃ¶ ffentlich
ipp ing
Ġdub lin
Ġth essal
Ġwe isen
eren den
Ġste m
Ġregional er
Ġcr es
Ġverk auf
hab t
Ã¤ te
ig sten
ag er
Ġarmut s
ĠstraÃŁen verkehr
Ġcell s
o le
con tro
Ġsin cer
Ġliber als
Ġzun ahme
Ġvertre tung
Ġfound ation
ĠbeschrÃ¤n kungen
Ġce le
Ġunanim ous
Ġdre am
Ġairport s
arzemb owski
v iel
Ġs enten
ar ten
Ġnot ice
Ġluft fahrt
Ġsuggest ion
Ġc atch
al itÃ¤t
Ġvor stellungen
Ġwo zu
Ġdemokrat isierung
Ġrepr ess
Ġerfolg reichen
Ġeinzu gehen
pre ise
Ġcontact s
Ġkompet enzen
Ġperform ance
Ġein fÃ¼hren
Ġzw Ã¶l
Ġeconom ically
Ġharmon ised
k i
u ing
ll es
Ġver mut
Ġauf ru
Ġkon zep
Ġprocess ing
Ġeffekt ive
Ġundert aking
Ġapprox imately
if ies
Ġho hes
acht ungs
Ġans on
Ġresul ted
Ġmob ile
Ġobser vers
Ġrespekt iert
Ġgradu ally
o ben
Ġc ash
Ġn it
ab les
Ã¤nder ung
Ġarbeit et
Ġcommunity s
Ġkrit isch
Ġlisten ed
verein bar
in der
Ġse vent
Ġgew onnen
Ġabge ben
Ġexist iert
Ġhistor ische
Ġdeter ior
Ġhop ed
ĠkohÃ¤s ions
Ġlob by
Ġanson sten
d as
Ġb iod
Ġho hem
ĠgroÃŁ zÃ¼
Ġ4 3
Ġdep loy
Ġeduc ational
Ġbeitritts verhandlungen
Ġansch luss
Ġpflicht en
Ġsyr ien
Ġforts etzung
Ġbyr ne
l s
on te
ro ad
ing er
Ġcomp atible
Ġins eln
Ã¤tz t
Ġpat ents
Ġkonk re
Ġgipf els
Ġgefangen en
d o
Ġer ad
Ġstraf gerichts
metho den
Ġcroat ia
Ġpreca ution
Ġthessal oniki
. ,
j ekte
n ism
Ġein her
Ġfre unde
Ġjust ification
Ġur an
Ġcomprom ises
Ġgering er
Ġrub rik
Ã¤nder ungs
Ġper mitted
Ġear th
Ġbilateral en
Ġauss agen
p read
Ġw ides
Ġun ann
Ġn om
le hnen
ne cted
Ġclear er
els on
Ġkur d
Ġgemeinschafts recht
Ġung lÃ¼ck
mechan ismen
Ġwides pread
Ġha z
Ġauf stock
ill a
Ġregul ated
hol en
ko dex
Ġdipl om
it arian
mittel meer
Ġref use
Ġbew iesen
Ġcr ises
Ġlook ed
Ġbel ow
ĠgefÃ¤hr den
Ġflug g
Ġcrop s
d own
hÃ¶r t
Ġlast ing
Ġeinfach e
Ġfound ed
Ġschein en
Ġkonzentr iert
Ġgegenseit ige
Ġungar n
Ġfert ig
ĠtragÃ¶ die
nism Ã¤ÃŁ
Ġs amm
Ġl Ã¤rm
Ġfest halten
Ġimmer hin
Ġorganis ierten
Ġerfolg reiche
Ġakzept abel
Ġverfol gung
Ġeinger ichtet
Ġkonkre ter
k er
k andidaten
Ġre la
Ġfa kten
Ġwar ning
fÃ¼hr er
Ġjo ining
Ġrahmen beschluss
vo ller
ĠentschlieÃŁ ungen
Ġkl uft
Ġproj ekten
Ġdisapp ointed
Ġleist ungs
Ġvorange gangenen
h ow
Ġan halten
op oul
Ġpres erve
ok ument
spro chen
Ġkrit isiert
Ġsuper vis
Ġschre yer
an cy
Ġda p
be hr
Ġsel ten
Ġgel assen
Ġmil k
Ġeinzu halten
Ġunanim ity
Ġarab ischen
Ġverwirk lichen
Ġe b
ten eg
kt ive
Ġle hnen
Ġen ger
ĠÃ¼ber nahme
be wertung
Ġkon vergenz
Ġpre jud
Ġ4 4
Ġvi able
ĠstÃ¤rk sten
Ġmal aria
Ġkommun ikations
Ġsozialdem okraten
Ġauf sch
Ġad mitted
Ġmark ed
Ġass um
Ġput s
Ġfrei handels
Ġturke ys
Ġschul z
Ġquant it
Ġserb ien
Ġposs elt
Ġw ille
Ġs atz
Ã¼ ben
Ġunter zeichnung
Ġges prÃ¤ch
Ġste llte
Ġregard less
Ġcol om
Ġkraft fahr
Ġton nes
katastrop hen
Ġdap hne
in ated
et or
Ġaus bau
tr an
Ġsp here
Ġdisc ip
Ġerst es
Ġrechen schaft
d aten
h ard
Ġun recht
le ute
Ġmehr wer
gra ben
Ġregul ate
Ġindic ate
Ġtalk ed
Ġouter most
Ġf err
Ġc au
Ġrepla ced
Ġm un
Ġp urch
Ġprov in
zie hung
Ġ19 5
Ġabst immungen
Ġauthor isation
Ġph Ã¤n
Ġfrieden sprozess
Ġeg ypt
Ġinterinstitution ellen
Ġreduz ieren
Ġpension ers
Ġoccup ation
Ġunann ehm
Ġan gel
Ġver trÃ¤gen
Ġer setzt
Ġsch ad
ant ly
Ġagre es
Ġens hr
Ġru fen
Ġche cks
Ġchem ik
Ġphys ical
ĠgewÃ¤hl ten
lif eration
Ġcres po
s a
Ġd up
Ġs enken
an en
ver w
Ġar ising
Ġcomp ete
Ġprior it
Ġfort gesetzt
Ġcult ures
Ġtrad itions
Ġwirksam en
Ġign ore
Ġrefuge e
regel ungen
Ġincent ives
afr ika
f al
t aus
Ġa qu
Ġunter liegen
Ġch urch
Ġrep orted
so ever
ov a
Ã¼nd et
Ġgenau er
ĠpersÃ¶n liche
frei heiten
ĠfÃ¼ hlen
ĠbeitrÃ¤ gt
Ã¼hr t
Ã¤tz ungen
Ġern ste
ĠprÃ¤ senz
ĠzukÃ¼nft igen
Ġhyp oc
ck ung
Ã¤nder ungen
ze llen
Ġbo ok
ĠÃ¶ffent licher
ĠratsprÃ¤sident en
1 2
f el
Ġdem zufolge
ah nen
Ġcaus ing
Ġluft verkehrs
Ġbewusst sein
jahr es
Ġm ere
ic kt
wir tschaften
Ġschw ach
Ġkont akte
Ġjahres bericht
ĠverstÃ¤r kung
Ġmodern isation
Ġflug gesellschaften
Ġmittelmeer raum
Ġanz up
Ġconserv ation
ĠerÃ¶ff net
Ġchap ter
ĠzwÃ¶l f
4 0
Ġne pal
Ġag gress
Ġman if
Ġtal iban
Ġplan ung
Ġben ch
Ġtar geted
Ġrh etor
f eit
is ierte
Ġun ique
Ġn ap
as il
Ġab w
Ġsub ventionen
Ġdist ort
Ġclar ification
Ġbesitz stand
Ġsimpl ification
krÃ¤ ften
Ġreve al
Ġtang ible
Ġmount ain
z ur
Ġf am
Ġl icht
Ġst Ã¼ck
Ġauf bauen
Ġaus fÃ¼hrung
Ġinter pre
Ġprodu kten
Ġsc andal
Ġausge geben
Ġrepr ession
ĠvorschlÃ¤ gt
rech ung
Ġunab ding
Ġrede zeit
Ġtit el
Ġhilf reich
Ġyours elf
Ġj arzembowski
Ġerfol ge
ĠgrÃ¶ÃŁ ter
Ġeigent liche
Ġrech nen
Ġkn app
bre ak
Ġcategor ies
Ġbe halten
Ġwhat soever
Ġfre ely
ĠwÃ¤ hlen
Ġklar stellen
mÃ¶ gliche
Ġverl ust
Ġdienst stellen
Ġprom pt
Ġanw esen
Ġundert ake
Ġnord k
Ġworth y
Ġparad ox
Ġge ehrter
ran ational
Ã¤hr ungs
Ġmin im
Ġlo hn
Ġgest altet
Ġbedeut enden
Ġarbeits gruppe
Ġernst hafte
Ġgener ations
Ġdemonstr ation
Ġara fat
Ġgeneration en
Ġdisag ree
j et
Ġl asten
Ġer as
Ġsh ame
Ġmein ungen
Ġdefin ing
Ġprom ise
schutz es
Ġexclus ively
Ġaccompan ied
Ġsteuerzahl er
Ġein fuhr
Ġal de
Ġho uses
Ġbest immung
Ġgesetz geb
Ġcivil ian
sÃ¤tz e
Ġdisapp ear
Ġsup ranational
Ġcollab oration
er ium
Ġan hang
le vel
Ġdis m
Ġgel angt
Ġohne hin
Ġsoc io
ĠauÃŁen grenzen
Ġobser ve
Ġcho ices
Ġbewahr en
Ġcontrovers ial
te ien
Ġent s
Ġbo x
Ġpresent ation
rÃ¤ ge
Ġweak ness
coun try
Ġaus fuhr
Ġerweit ert
Ġschwe igen
commun ic
Ġschicks al
Ġt ank
Ġm ig
Ġl iv
Ġaus richtung
Ġma p
Ġsa al
Ġverl Ã¤ng
Ġback ing
Ġslight ly
Ġthres hold
Ġchemik alien
i at
if ik
be fehl
Ġbeste uerung
rei ze
kon fl
ĠfÃ¶r dert
Ġbl ame
Ġeigent ums
Ġcoast al
Ġcons ulted
Ġjo ined
Ġbr id
res pect
Ġster ben
angehÃ¶r igen
Ġbann ed
Ġgekenn zeichnet
1 7
b ra
Ġw age
Ġrel oc
Ġeing et
Ġanst reben
igran ten
cks il
Ġstrict ly
Ġdopp el
Ġpropag anda
build ing
Ġevent ually
Ġprof ess
Ġalloc ation
Ġhund red
ĠnÃ¼tz lich
Ġv og
ed ing
Ġro t
ep ing
Ġausgewogen e
institution en
ĠgrÃ¼nd ung
gesetz gebung
Ġverantwortungs bew
Ġquar tet
Ġnachbarschaft spolitik
Ġg ol
Ġres idence
Ġviel es
ĠverÃ¤nder ung
Ġmovement s
Ġtele kommun
ĠÃ¼berprÃ¼ ft
Ġverank ert
Ġbeschwer den
grÃ¶ ÃŁ
Ġmehrwer tste
m Ã¤cht
ion e
Ġg ather
Ġbe antrag
Ġpr ize
Ġhe ik
wer ke
Ġexp los
ho le
Ġ199 3
Ġkl Ã¤ren
Ġvier tens
Ġschwed ische
Ġcampaign s
ĠbetrÃ¤cht liche
Ġanre iz
h ar
z icht
Ġin hab
Ġc atal
Ã¼ ste
Ġder jenigen
et us
Ġha bit
mer z
yste ms
Ġunterst richen
str Ã¶
Ġunder lying
Ġnor den
Ġprevent ive
Ġfal sche
Ġitem s
ĠentschlieÃŁungs antrÃ¤ge
Ġurspr ungs
ĠgewÃ¼n scht
ie be
Ã¶ ffnung
ist ent
Ġinter ventions
Ġaccount ing
Ġamb itions
Ġpurs ued
Ġade qu
Ġdestroy ed
Ġque cksil
Ġresist ance
m ing
Ġst ammen
Ġen ormen
Ġmon tag
Ġconf usion
Ġallgemein em
ivers ity
Ġoffer ing
ĠergÃ¤n zen
sph ase
Ġzusammenzu arbeiten
Ġus ual
Ġwhole hear
Ġlack ing
Ġwenig sten
Ġverm ieden
Ġmoder nen
it ored
Ġversuch e
Ġaufge worfen
Ġfound ations
Ġjahrh undert
Ġelektron ischen
Ġenhan ced
lus con
Ġmerc ury
er o
te chn
ra cies
Ġann an
Ġsk andal
Ġobserv ations
Ġsav ings
ing ent
ra in
Ġer re
ĠÃ¼ber arbeitung
Ġel tern
Ġless ons
Ġstud enten
ĠflÃ¼cht ling
Ġforest s
Ġprosec ut
b els
Ġre un
Ġst Ã¼tzen
Ġsch lag
Ġus d
Ġpre lim
Ġpl us
Ġtats achen
Ġeingere ichten
Ġeras mus
Ġin kraft
ter ror
Ã¶ se
Ġres ident
Ġinv ite
Ġmon itored
ĠmaÃŁ geb
Ġvers orgungs
gesch rieben
reg ierungs
Ġinn oc
Ġschwer wiegen
h inge
at om
Ġf esten
ern e
Ġimp etus
Ġro ute
kehr t
Ġprof ound
Ġhervorragen den
Ġinfrastruktur en
Ġded ic
Ġb atter
Ġfa kt
Ġassess ments
Ġinst all
Ġtele communic
ĠgesprÃ¤ chen
Ġflugh Ã¤fen
Ġer reich
anz ig
Ġwo fÃ¼r
Ġmon teneg
Ġbeg un
Ġrepresent ing
Ġdebat t
Ġbeha upt
Ġce ase
Ġgenie ÃŁen
Ġkroat ien
Ġquecksil ber
1 9
Ġ uen
er ted
Ġge gangen
Ġvor feld
Ġse arch
Ġtra um
Ġliber ties
Ġdest abil
Ġtest ing
Ġabzu lehnen
an ischen
Ġuns icherheit
Ġhe il
cond ition
Ġenergie effizienz
Ġexcept ions
Ġamerikan er
ro v
we ile
Ġtra in
get reten
Ġfr isten
min ent
Ġlif el
Ġschl icht
Ġgal ic
cos ur
Ġthreaten ed
Ġprelim inary
1 4
em essen
Ġge we
th al
Ġfre il
Ġbas iert
Ġfern seh
Ġdev ast
ĠuneingeschrÃ¤n kte
Ġcal cul
Ġerr ungen
Ġgelt ungsbereich
Ġunsch uld
ut ical
um n
ach lÃ¤ss
Ġnicht regierungs
Ġdi ox
ĠkÃ¶n ne
ĠstÃ¤rk eren
Ġ15 0
Ġuntersuch t
Ġumfang reiche
Ġamerikan ische
Ġgewiss er
Ġtoler ance
Ġfrequ ently
Ġexter nen
Ġl ingu
Ġres umed
Ġbeitritts lÃ¤ndern
Ġvern achlÃ¤ss
Ġdeclar ations
Ġveran l
Ġfremden feind
resp on
ll a
Ġst ad
Ġge ehrten
Ġge klÃ¤rt
Ġj er
Ġ3 9
Ġapproach es
Ġs is
Ġfir es
Ġhaushalts ausschuss
Ġkomprom isse
Ġbur ma
Ġtemp o
Ġlisten ing
Ġsold iers
metho de
Ġprecaution ary
Ġst unde
Ġdes irable
Ġdec re
Ġfe ira
Ġsc re
sitz ung
Ġevent uell
Ġtradition ellen
Ġthous and
Ġsov iet
Ġisol ation
Ġadvoc ate
ĠwÃ¼nsch enswert
0 7
o hlen
Ġk ab
Ġden ied
we gung
Ġup hold
Ġwieder hole
Ġsuggest s
Ġbau ern
Ġlateinamer ika
Ġmittler weile
m ans
n dez
Ġs ight
ar ians
Ġsie b
Ġfe as
Ġfinanz mittel
Ġlegisl ativen
Ġtrans national
Ġeffizient er
Ġleicht er
Ġcharacter ised
Ġrent ner
Ġumstruktur ierung
ĠunterdrÃ¼ck ung
g ten
h am
z ig
lie hen
Ġapp la
Ġgew ahr
Ġmehr wert
Ġexp ans
Ġfinanz en
Ġumwelt freund
Ġintegr ierten
Ġdr ive
ĠprÃ¤ vent
verb rauch
Ġgreen house
Ġelimin ate
Ġstrugg le
ĠgeprÃ¤ gt
h y
Ġf lÃ¤
Ġerst mals
2 4
Ġes c
ĠmÃ¼s se
Ġtra ve
Ġange hÃ¶ren
Ġvorsitz ende
Ġkonflikt s
Ġexem pt
Ġaus land
Ġse es
Ġconc ent
Ġmittel s
Ġgemeinschaft sebene
zus prechen
Ġmil ch
Ġverhand eln
Ġlandwirtschaft s
ĠÃ¶sterreich ischen
Ġunk lar
1 3
b ett
Ġw ed
Ġs ri
Ġb ay
ib r
Ġzus agen
Ġincre d
Ġfinan ced
Ġbr enn
ĠfÃ¼hr ungs
Ġsitz ungen
Ġconvin ce
Ġhaft befehl
Ġautom ob
Ġk a
Ġdis abilities
Ġdire cted
Ġkommiss are
Ġ6 5
Ġreferend ums
ĠausÃ¼ bung
Ġcompar ison
Ġkontinu ier
Ġsincer ely
Ġaus wahl
Ġdis reg
Ġmen gen
Ġvict im
Ġbelg ischen
Ġrecognis es
Ġsystemat ic
Ġkorre kt
Ġunl ike
Ġt onnen
Ġv ill
sch te
sch iff
Ġab fÃ¤lle
ĠgroÃŁ teil
stÃ¤nd igen
Ġangeb oten
Ġtim ely
Ġlik ed
Ġachievement s
in ks
Ġb ang
Ġsupp lies
Ġgesellschaft lichen
Ġlin ken
Ġemiss ion
Ġmus lim
proble me
Ġtit le
Ġbeunruh igt
Ġstraft aten
ĠgroÃŁzÃ¼ g
w agen
es ter
Ġun best
Ġan lagen
Ġtra ur
ine a
Ġneg ativ
Ġref used
Ġorganis ieren
Ġconv iction
Ġpet ition
ash ion
Ġhaup tz
ĠÃ¶kolog ische
Ġfried liche
Ġerm ord
Ġbeschleun igen
uz z
Ġinqu iry
ich e
iz iert
Ġbesch rieben
Ġorganis ierte
Ġauff assungen
ĠvÃ¶lk ern
Ġabsicht en
Ġloss es
Ġschlimm er
Ġequival ent
st uff
Ġbei hilfe
Ġfre ight
Ġout break
Ġfar ms
Ġintegr ate
Ġwom an
Ġdef ending
Ġhoch wert
jahr en
Ġkop f
ĠtÃ¤ glich
Ġer h
Ġnecess ity
Ġmiss ing
Ġfail ing
Ġtack ling
Ġschwe iz
Ġcharacter istics
Ġanwesen heit
k ter
Ġk auf
Ġst ich
ver halten
Ġsozial partner
Ġear n
Ġeigent lichen
verb ot
Ġangeb ot
Ġsow jet
Ġverscha ffen
Ġbiod iversity
Ġb a
Ġbe herr
Ġl ank
la gerung
ang ers
Ġgrund freiheiten
Ġrespect ing
Ġtext es
Ġbeitritts kandidaten
Ġaufzu bauen
Ġanspruch s
Ġforg otten
p a
Ġb all
Ġc lo
Ġz y
qu ote
Ġad j
Ġfir ms
Ġmon day
ikan en
ikan ische
Ġvis ited
Ġmer cosur
Ġefficient ly
Ġun it
Ġnot es
Ġher zustellen
ib ungs
Ġte ach
Ġviel fach
Ġausge fÃ¼hrt
Ġhealth care
Ġshar ing
Ġvorrang ig
Ġbewer ber
Ġniederl Ã¤ndischen
ĠverzÃ¶ gerungen
Ġsla ughter
Ġjuris dict
in ne
Ġber luscon
Ġli ft
Ġbereit en
vorsch rift
Ġru he
Ġprotokoll s
jÃ¤hr ige
prozess es
Ġbetrug s
Ġ Ã¶rt
ĠÃ¼ber fl
Ġcom it
Ġverschieden er
ĠhÃ¶ch sten
Ġsad ly
Ġvorbe halte
Ġappar ently
verfol g
Ġchines ischen
Ġatlant ic
Ġempfe hlen
g ut
j a
t ig
it ably
Ġkomm ent
Ġcounter feit
besch Ã¤ft
Ġbewe gung
Ġbran che
Ġgewerk schaften
Ġfortun ately
Ġscot land
Ġaufstock ung
Ġlifel ong
Ġa st
Ġan reize
Ġdurch setzen
Ġdurch fÃ¼hrungs
Ġgeb lieben
Ġoff ices
Ġhelp ful
Ġunver zicht
Ġkam en
ĠeinschrÃ¤n kung
Ġproc ure
is ms
Ġthe ore
us etzen
Ġcont am
fÃ¼hr te
ĠmaÃŁ st
Ġfried lichen
f tet
Ġb Ã¼nd
Ġg reif
Ġer nen
Ã¶r der
reich er
Ġcl ub
Ġstaats an
Ġeinwanderung spolitik
Ġbeur teilung
Ġessen ce
then burg
Ġenthus ias
Ġtelecommunic ations
f iz
m Ã¤h
as sten
Ġund erg
me llen
Ġman aging
Ġverb ieten
Ġregul ierungs
ekt or
Ġerweit erungs
Ġvis ible
Ġkom it
Ġmont i
re aching
ge geben
Ġbeg reifen
Ġposit ives
kon s
Ġrest ri
Ġlea ves
Ġitalien ische
Ġeffizient e
Ġsafeguard ing
ĠbewÃ¤lt igung
m ap
Ġun just
Ġen ge
Ġste el
Ġro h
Ġqual ifications
ktor en
Ġangesprochen en
Ġjeweil s
Ġkategor ie
Ġcorpor ate
Ġg ott
ce utical
Ġgo thenburg
Ġinv ited
Ġeing reifen
chn et
Ġstru ck
Ġabst ained
Ġklar er
Ġcontain ing
Ġdynam ik
tag ung
ĠbegrÃ¼nd et
n ar
el ine
Ġra ises
Ġgeb iets
Ġunivers ities
Ġverring ert
Ġfear s
Ġlangfrist igen
Ġreinfor ce
Ġzuw anderung
ĠsÃ¤ ule
Ġandern falls
v est
Ġg ained
as ion
ach te
Ġdis tr
wo hn
Ġsozial politik
Ġgeneral sekretÃ¤r
zahl t
Ġord inary
wÃ¼rd ig
Ġschle chter
Ġvorzu gehen
ĠstÃ¤d te
Ġmanif est
Ġinhab it
k Ã¼r
Ġein dring
Ġge op
Ġma k
for d
ma il
Ġje an
Ġkap azitÃ¤ten
Ġausgewogen heit
Ġzwangs lÃ¤ufig
Ġgepl ant
Ġvet o
Ġbott om
Ġpercent age
Ġtheore t
w a
Ġv ene
Ġal beit
Ġge fallen
au ern
Ġpre text
Ġdefin ieren
Ġzerst Ã¶rt
Ġbezahl en
Ġinfring ement
am en
Ġzu kommen
gen den
Ġden y
now n
Ġaccept ance
fÃ¤h ige
Ġbeginn t
Ġfail s
Ġvermitt lung
Ġsud den
Ġsold aten
Ġdiesel be
Ġacknowled ged
Ġmonteneg ro
r up
Ġun p
Ġdis par
Ġind isp
Ġfact o
Ġcontro lled
ress ourcen
Ġwirksam er
Ġwissenschaft ler
ĠgrÃ¼nd lich
Ġsubsequ ent
abgeord neten
or ten
Ġall mÃ¤h
Ġpart ial
Ġkon g
ĠgefÃ¤hr liche
Ġbosn ia
Ġpharma ceutical
a ÃŁ
Ġbe gangen
Ġle hren
etz ten
vern icht
Ġass urance
Ġdemoc racies
Ġrechts p
Ġhil fen
Ġban ken
sto ÃŁ
Ġinfrastruct ures
Ġoffenkund ig
Ġcomit ology
Ġso zusagen
Ġbeen den
Ġterrorismus bekÃ¤mpfung
ĠgefÃ¤hr lichen
Ġnied r
Ġregular ly
war ten
Ġsympath y
Ġm atch
Ã¤ che
Ġto ugh
Ġcon stra
Ġaus b
Ġab uses
Ġrahmen richtlinie
ĠfÃ¼hr te
Ġdemocrat isation
Ġgra d
Ġet ik
Ġlog ical
ĠÃ¤hn lich
g ro
Ġdie d
hr t
Ġho heits
Ġlo y
Ġhoch schul
Ġinformations gesellschaft
Ġvorbe halt
ĠdÃ¤n ischen
Ġabol ition
Ġkal ining
ĠÃ¼berras cht
2 3
Ġwor auf
se ptember
trÃ¤ gt
Ġminister ial
oll ah
Ġbeein fluss
Ġexchang es
Ġprovider s
Ġbe ef
Ġer richten
Ġauf er
ik o
Ġcan cn
wer fen
Ġann Ã¤her
ĠrÃ¼ck en
Ġlok ale
Ġumst Ã¤nde
Ġmax im
Ġinitial ly
Ġsil ence
Ġregistr ation
Ġmitentscheid ung
Ġversto ÃŁen
vertre ter
usal em
ĠeingeschrÃ¤n kt
as en
Ġar bit
Ġpl Ã¤d
Ġstellen wert
Ġkl ass
Ġmilit ar
Ġeinsch lÃ¤
Ġdon ors
Ġvolle m
Ġoccur red
ĠerÃ¶ff nen
Ġexpert ise
Ġmainstre aming
Ġaus drÃ¼ck
Ġsch enken
Ġsich ere
Ġges ichert
zu gehen
Ġfre it
wer ks
Ġvo llen
Ġbest Ã¤nde
Ġact ors
Ġfinanz iell
Ġeigen es
Ġcor bett
Ġshow ed
Ġaccess ible
Ġjud g
Ġ201 5
ĠkÃ¶nigreich s
Ġerneuer baren
ĠeinrÃ¤ umen
Ġnichtregierungs organisationen
Ġan hand
as tet
Ġver bleiben
Ġziel t
Ġrecon ciliation
Ġauszu Ã¼ben
Ġbill ig
Ġang ola
Ġkompliz iert
Ġvig or
h el
en c
or f
Ġg Ã¤be
Ġst ick
Ġvor Ã¼ber
Ġreal istisch
Ġlo ben
Ġwen de
ĠvÃ¶ ll
Ġexperien ces
Ġtreib haus
Ġlithu ania
Ġn ament
Ġst ation
Ġcon nected
if e
ran ge
Ġapp alling
Ġgemeinschaft liche
Ġcriter ion
ĠmÃ¤r kten
Ġfischerei abkommen
sprogram ms
Ġwithdra wal
Ġincorpor ate
ĠtÃ¼rk ische
Ġkomit ologie
i h
Ġinter ne
Ġrat ify
Ġdec entral
Ġprote ktion
rim ine
ree vy
Ġeinzu leiten
Ġlissabon ner
Ġberu h
Ġgratul iere
Ġappell iere
Ġplat form
Ġprocure ment
Ġin g
Ġl ists
sp l
Ġfinan ces
Ġbezie hung
Ġcoordin ate
Ġcop y
ĠentschÃ¤d igung
d ies
Ġmit bÃ¼rger
be wegung
Ġcomp lied
isten cy
Ġart ik
ss icherheit
Ġverp ack
Ġimpos ing
Ġbegeg nen
Ġm ic
Ġh osp
ĠÃ¼ber legen
200 7
Ġjo hn
Ġziel setzung
Ġderart igen
Ġrestrict ive
Ġredebeit rag
u led
an spruch
Ġst ages
Ġfor ese
Ġaus sehen
Ġwer k
zeit raum
Ġ4 6
Ġir on
ĠauÃŁer gewÃ¶hn
Ġ6 00
Ġkl Ã¤r
recht lichen
Ġvorsitz ender
ĠvernÃ¼nft igen
Ġlingu istic
d okument
Ġz iv
Ġk rimine
Ġge handelt
Ġgest richen
Ġ4 7
Ġir respect
Ġtext ile
Ġakt uelle
Ġfischere ise
Ġ13 7
Ġrenew ed
Ġimmun ity
mechan ismus
em ie
sp un
Ġwill kÃ¼r
Ġwicht igkeit
Ġrahmen bedingungen
Ġir reg
sicherheit s
Ġshar on
versch ieden
Ġirrespect ive
r ies
s ider
Ġs we
or ing
Ġre ibungs
Ġho ur
Ġwhere ver
Ġarbeits krÃ¤fte
Ġcolle ction
Ġschwier iger
Ġdeleg ationen
Ġstellung nahmen
Ġcla uses
Ġcover ing
christ demokraten
Ġconcentr ation
Ġbeur teilen
Ġgeorg ia
Ġvoranzu bringen
ĠgefÃ¤ng nis
Ġd rop
Ġm at
ver z
qu is
sicht lich
Ġunder p
Ġzie ht
Ġeur atom
ĠauÃŁen handel
Ġenter ing
Ġeffekt iver
Ġras che
Ġmassen vernicht
Ġbosn ien
Ġkonstitution elle
7 1
Ġb ag
Ġsich eren
Ġtra ce
Ġrec ital
Ġsc en
Ġeinzel heiten
Ġwahl be
lan de
ij k
Ġbio fu
Ġhy gien
a genda
f Ã¤hr
Ġco sta
Ġda hinge
Ġunter zeich
ag nen
Ġdurch gesetzt
Ġbis weilen
ĠÃ¤nderungsantrag s
ĠratsprÃ¤sident in
Ġet a
Ġfourth ly
Ġfriend ly
Ġkrie ges
Ġvorzusch lagen
Ġxen ophobia
Ġberluscon i
b illion
e le
Ġc rimin
Ġun um
Ġl iter
Ġde pl
Ġinter im
Ġnach richt
Ġ4 9
zusch lieÃŁen
Ġarr ived
Ġgenet ically
betr iebe
ew g
al ia
oc ratic
kon vention
Ġpack aging
Ġignor iert
Ġgesp ielt
Ġwiederher stellung
Ġexpans ion
Ġan lÃ¤sslich
ge halten
Ġzw ingen
ĠzurÃ¼ck kommen
Ġlook s
Ġinn eren
Ġansch lieÃŁend
Ġleist ung
ĠfÃ¤h igkeiten
Ġkonflik ten
Ġflow s
Ġpostp on
k al
is ations
Ġo d
ll y
Ġk u
Ġwe chsel
ein s
Ġsit es
Ġbuild ings
Ġindik atoren
e b
or es
Ġh Ã¼
sch lÃ¤ge
Ã¶ tz
de te
Ġaus sprachen
Ġsh ipping
ĠmÃ¶ ge
Ġschw Ã¤chen
markt es
Ġseiner zeit
Ġadv anced
Ġret ire
Ġrea ff
Ġhinzu weisen
Ġap olog
Ġtru ppen
Ġscrut iny
Ġjurisdict ion
it ze
Ġst al
de velop
Ġhin weise
Ġprov en
Ġrespect ive
Ġspann ungen
stuff s
f ree
Ġd oping
ne z
Ġus ually
Ġfo ught
Ġtrans fers
gehen den
Ġje glich
app ropri
Ġnieder lande
Ġlok aler
Ġmultilateral en
Ġol der
kamp f
Ġdisreg ard
it ts
ar io
Ġre ly
ild et
Ġbar bar
Ġeinfach er
Ġinfl u
produ kte
Ġvorbereit ungen
Ġauffor derung
Ġvir us
ĠerlÃ¤ut ert
deb atte
Ġgewahr t
Ġv ot
ir ac
Ġl auf
Ġer ror
Ġso zio
Ġmit zu
Ġzusammen setzung
Ġwhen ever
bewer ber
Ġresearch ers
Ġfun ctions
Ġsur pl
Ġsitz en
Ġmand elson
Ġmitt wo
Ġemer ged
Ġfed eration
Ġpfl anzen
Ġunre al
strÃ¤ ger
b indung
Ġd angers
Ġb ow
el er
de fiz
Ġsch Ã¶
ĠÃ¼ber mittelt
Ġmr d
Ġverpflicht en
Ġsafegu ards
Ġsent ence
Ġkandidaten lÃ¤nder
nes day
Ġbenef icial
Ġfortz usetzen
e v
Ġein kommens
iel ten
ain e
Ġeuropa weit
Ġstand ort
Ġange hen
Ġsign ing
Ġben utzt
Ġrele ased
Ġroad map
Ġzivil isation
Ġfahr en
ĠverstÃ¤nd lich
ĠjÃ¤hr lichen
Ġgeschle chts
dis crimin
ĠgebÃ¼hr en
Ġattach ed
Ġlos ing
Ġwed nesday
1 8
b us
k ong
Ġk atal
Ġein nehmen
ut age
Ġha ar
Ġsch merz
Ġhe utz
Ġnach voll
Ġrel ative
Ġfl ights
Ġdeut licher
mÃ¶ glichen
Ġapplic ant
Ġcontr ast
Ġhung ary
ĠbeeintrÃ¤cht igt
Ġheutz utage
Ġbe wirtschaftung
Ġex ert
ann ual
Ã¤nd ler
Ġpl Ã¶tz
Ġeing angs
Ġcult iv
Ġviol ent
Ġspiel raum
Ġpost s
Ġinvestig ations
Ġgegenseit ig
rÃ¼st ung
Ġth r
Ġst ory
ein richtungen
Ġco x
Ġsol ved
Ġgrund prinzip
arbeit s
Ġdirect or
auf gaben
Ġlie fern
Ġaccept ing
Ġaussch Ã¼ssen
Ġjud ge
Ġvorgesehen e
Ġkonsult ationen
Ġts un
zu el
Ġvo ters
teil ungen
Ġev ans
Ġfr id
Ġperson nel
Ġbeh ar
Ġbroad ly
Ġentreprene urs
Ġirreg ular
v ig
ul der
Ġex ek
Ġob liegt
vo te
Ġsect ions
Ġbesonder es
Ġerweit ern
Ġharmon ise
Ġarg ue
best and
Ġangeb lich
Ġexplo it
Ġzerst Ã¶rung
Ġvehic le
ĠverfÃ¼g baren
b em
at ic
Ġp hr
Ġh under
Ġre lief
Ġge plan
Ġch amp
mer ken
vor sorge
Ġaut umn
Ġproced ural
Ġmind s
Ġmoment an
ec kt
Ġign ored
Ġkalining rad
or ter
ed s
Ġver teilt
lie fer
Ġwill ens
Ġerwar te
ĠschlieÃŁ t
Ġconserv ative
Ġassoziierungs abkommen
Ġarbit r
Ġmassenvernicht ungs
Ġw Ã¤l
Ġs un
an cies
Ġin for
Ġun fall
Ġsa cr
Ġkol umb
Ġerw achsen
ell er
Ġumwelt sch
Ġeng ine
Ġpriv ile
Ġmand atory
Ġexam ining
Ġdramat ic
Ġverschw inden
Ġreven ue
Ġcrimin als
Ġmittwo ch
Ġg mo
Ġk Ã¤
ĠfÃ¼r chte
Ġpres cr
Ġgr ass
ap se
Ġ199 1
Ġschnell st
Ġverz ichten
Ġkar as
Ġfu els
Ġincent ive
Ġaufrechter halten
Ġwebs ite
Ġbesche iden
ĠannÃ¤her ung
Ġp ip
Ġwer bung
Ġ5 3
Ġbor ne
Ġinnov ations
Ġorigin ally
Ġerzeug ung
Ġfahr zeuge
Ġamt ierender
Ġempf ohlen
Ġstatist iken
Ġerleicht ert
ĠgebÃ¤ ude
Ġinhabit ants
an st
Ã¤ ste
Ġein bringen
um ul
Ġvor anz
Ġvor sehen
Ġfall ing
Ġausge zeichnet
Ġexc use
Ġeinw Ã¤nde
Ġbir th
eu ro
Ġgesicht spunkt
Ġabziel en
2 2
d umping
Ġf ashion
fin ed
Ġanswer ed
Ġkommun istischen
Ġscient ists
Ġsurpr ise
Ġmittl ere
Ġgrem ien
Ġdemograph ic
Ġg ame
Ġeinfach en
Ġdez entral
Ġii i
Ġverurs achen
Ġbehinder ten
Ġurs ache
Ġoffiz iellen
Ġsched uled
Ġgeein igt
ĠkÃ¼mm ern
Ġinkraft treten
est y
Ġco inc
Ġta c
he il
Ġmin imal
par tei
Ġprepar atory
Ġcamp s
Ġlearn ed
spe zif
Ġkre bs
Ġschreck lichen
ony m
Ġsevent h
Ġg ir
Ġein iges
Ġl ud
ere quis
Ġpr erequis
Ġzwe ier
Ġwelt bank
Ġneg le
Ġsign s
Ġakt iven
Ġdisp utes
Ġexam ination
Ġce iling
Ġintell igence
ĠerwÃ¤g ungen
Ġdahinge hend
u ous
ch tern
Ġs and
Ġr ichtet
Ġher bst
Ġdi agn
ĠgewÃ¤hr ung
Ġbu iten
Ġkamp agne
Ġpa ul
Ġvorsitz es
ĠsÃ¤mt lichen
Ġsubstantial ly
mÃ¤r kten
Ã¼berein kommen
Ġinnoc ent
m es
r ung
r Ã¼ck
Ġk abel
sch ten
ver sammlung
Ġra w
Ġdis ast
Ġzusammen halts
Ġrechts vorschrift
Ġnam es
Ġzweif els
Ġeinges tellt
Ġbi om
ĠsÃ¼d lichen
Ġsimpl ify
Ġdistrib uted
Ġkonkurr enz
Ġyugoslav ia
Ġgeplan ten
Ġdisast rous
l ers
Ġst ahl
we ll
Ġsie g
Ġout lined
Ġziel s
Ġproduct ivity
verstÃ¤nd nis
best immung
Ġbewer tet
ĠverzÃ¶ gerung
Ġnachzu denken
Ġdefiz it
Ã¶konom ischen
Ġs n
Ġein nahmen
Ġsp ieg
for ce
Ġhand ling
Ġresol ving
ĠstÃ¤r ke
Ã¤d chen
Ġaufge griffen
Ġmensch heit
Ġsex uellen
ĠÃ¼bersch w
Ġmeant ime
Ġausgang spunkt
Ġexplicit ly
Ġdism ant
Ġp and
Ġan x
Ġr ang
Ġfor st
Ġge habt
igkeit s
Ġins ide
Ġflexib il
Ġbeschluss fassung
pers on
Ġschn elle
us eln
Ġk unden
ul ous
ann ter
leg te
Ġsol ide
Ġbew aff
under ing
Ġhighl ights
Ġmis under
Ġvoran kommen
Ġgradu al
Ġstrik es
Ġschm id
aussch uÃŁ
Ġersta un
Ġk aufen
sp lan
Ġsp lit
Ġwar s
Ġauthor ised
Ġabsch n
Ġtrad itionen
weg ungen
Ġdiv ide
Ġeinbezie hen
Ġgeorg ien
Ġlit auen
ĠÃ¤r z
beschÃ¤ft igung
z usehen
Ġover look
Ġsc ra
Ġprogramm ing
Ġenable d
ĠvollstÃ¤nd igen
Ġethn ischen
Ġverh Ã¼tung
a kei
n ov
Ġt end
ch arta
igen de
Ġunter graben
auf wand
Ġpla ys
Ġgeb unden
Ġpresidency s
Ġorganis iert
Ġvereinbar ten
Ġschl uÃŁ
Ġfal schen
wh el
Ġluft verkehr
Ġavo ided
Ġconsult ations
Ġdurchge fÃ¼hrten
Ġarr ive
Ġmeinungs verschieden
Ġ198 9
Ã¶p fen
Ġgriech ische
Ġeinzur ichten
Ġestim ated
ĠzÃ¼g ig
Ġvene zuel
w id
Ġn az
Ġl or
Ġge fÃ¼
ow er
Ġbereit zustellen
Ġmeet s
ĠverstÃ¤r kten
Ġdro ht
ĠstÃ¤nd ige
Ġrichtlinien vorschlag
Ġpursu ing
k w
w art
Ġp ace
Ġbe weise
Ġnot ion
Ġad her
Ġpresident ial
iger weise
Ġover whel
Ġange wiesen
Ġsolidar itÃ¤ts
Ġhoch rang
Ġfrank ly
ott i
Ġbeob achtungs
Ġton ight
Ġenfor ce
ĠbedÃ¼rf nissen
Ġvirt ually
ĠÃ¤lter en
Ġmassenvernichtungs waffen
1 6
Ġgr and
Ġdi verse
Ġterror istischen
Ġteil genommen
Ġbr and
Ġsc ar
itz er
Ġsens it
Ġopen ly
Ġwahr nehmen
Ġkurz en
ĠnÃ¤ he
Ġoffiz iell
ĠergÃ¤nz t
Ġabgesch afft
Ġve get
m il
ic iary
Ġme p
Ġgr Ã¶n
Ġstr ingent
Ġeinz iges
Ġwom it
Ġrul ing
Ġkrit isieren
ĠbekÃ¤mp ft
Ġfair er
Ġgener ous
Ġukra in
Ġcritic ised
Ġimpr ess
Ġaz nar
Ġenvis aged
Ġneutr al
reib ung
Ġhoff nungen
Ġadequ ately
Ġwholehear tedly
an forderungen
Ġp feiler
ent lich
Ġk au
Ġsch iffen
pl Ã¤ne
Ġref erences
Ġprogress ive
Ġcomple tion
Ġsy ner
Ġtenden z
Ġgrat itude
ĠphÃ¤n omen
verz err
g te
s wert
Ġf ab
Ġnot ably
Ġir respon
Ġverw and
Ġexist ieren
Ġfinn ischen
Ġbad ly
dis k
Ġfix ed
Ġbeeinfluss en
r ession
Ġan scha
Ġpar ents
be le
Ġman chen
Ġli ikanen
zu be
Ġhin nehmbar
Ġro b
Ġac ted
Ġruss lands
Ġhaushalts ausschusses
Ġpartnership s
Ġasp ir
Ġfreil assung
n Ã¤chst
Ġs ke
Ã¶ tet
de leg
Ġbroad cast
Ġpolize il
Ġmart in
Ġhaz ard
e ec
st Ã¤t
Ġinter ven
Ġus es
Ġra ce
Ġtun es
Ġval enc
Ġgesam theit
Ġinteress ante
weis ungen
struktur en
Ġmedic inal
Ġmcc reevy
rep ublik
Ġgeleiste te
Ġder selben
Ġst ations
Ġaus geb
Ġgesch eit
Ġpolitik bereiche
Ġbel astung
Ġparticip ating
Ġbi ok
Ġill ness
Ġproblemat isch
Ġgenet isch
Ġenshr ined
Ġf an
Ġden selben
Ġges chen
Ġfin ish
Ġro ots
Ġel ig
ĠzustÃ¤nd ige
Ġtop ical
sper iode
Ġfreiwill igen
ĠbeeintrÃ¤cht igen
Ġangest reb
ra ge
Ġdem nÃ¤chst
Ġher an
Ġweit em
Ġhand lungen
trÃ¤ ger
Ġpresent s
bed ing
Ġged enken
ec d
Ġnatur katastrophen
Ġprivat isation
Ġdesire d
Ġmeinungs Ã¤uÃŁ
Ġamts zeit
Ġcoal ition
Ġdevo ted
Ġaufsicht s
Ġcha os
b and
Ġm iÃŁ
as pe
Ġge fol
ĠgrÃ¶ÃŁ e
ĠrÃ¼ck gang
Ġverbind ungen
Ġfacil ity
inter essen
Ġlegitim itÃ¤t
Ġreligi Ã¶sen
Ġwelthandels organisation
Ġtsun ami
ak ten
Ġkommissar s
Ġrecht lich
Ġpra ise
Ġevery where
Ġhaushalts kontrolle
Ġverw ert
Ġkrit ischen
Ġevalu ierung
Ġinspect ion
Ġaufrechter haltung
Ġverwir kl
ĠÃ¼bertrag ung
Ġk ill
Ġauf gestellt
ver teilung
Ġco pe
Ġgleich er
Ġend es
Ġrem ov
Ġklar es
Ġdemocrat ically
Ġgemeinschafts rechts
Ġliegen den
Ġtre mend
Ġzentr um
Ġvermittlungs verfahren
Ġbeantrag t
nov ember
e ing
er er
Ġt uber
re a
Ġc os
Ġun miss
Ġer be
Ġcon front
Ġsie d
ue ller
Ġtechn ik
Ġvig il
hard t
strÃ¶ me
j o
is ons
Ġc ia
Ġv oc
Ġbe endet
Ġrahmen s
vo ured
Ġmay be
Ġunterschied licher
Ġerste llt
Ġunivers ity
zut reten
Ġherkunfts land
Ġversto ÃŁ
Ġetik ett
g ert
Ġw ise
Ġm Ã¤dchen
Ġf la
Ġab road
Ã¤n z
Ġpre dict
Ġhuman ity
Ġziel vor
Ġcontrib uting
Ġkrit erium
Ġwach sam
fre ie
Ġschle chte
bend it
Ġank Ã¼nd
Ġmerk mal
Ġdisag re
Ġausgest attet
Ġpoln ischen
Ġlank a
Ġf inger
Ġv ent
Ġaus legung
ug t
Ġnach kommen
ord an
Ġacc used
arbeit eten
ĠfÃ¼hr enden
Ġrep erc
Ġhervor zu
Ġgra ve
Ġvolks wirtschaften
Ġereign issen
Ġbeibe haltung
Ġengag iert
Ġflood s
Ġsmo oth
Ġanzup assen
Ġreperc uss
ed ed
Ġsh o
Ġricht er
ma i
Ġ20 20
Ġindic ation
Ġnah m
ĠÃ¼berwach ungs
Ġconsist ently
wal d
Ġbein halten
Ġbrut al
reb ungen
st ud
em it
Ġst agn
Ġcon gress
Ġsp itz
Ġsum me
Ġlebens mitteln
Ġfal se
Ġstabil isation
Ġtier schutz
Ġparagraph s
Ġdeliver ed
Ġperspekt iven
ĠÃ¤g yp
Ġremov al
Ġrepercuss ions
er ving
Ġh es
Ġst reichen
Ã¶ hnung
Ġsch r
la des
Ġges onder
ad or
Ġhaushalts jahr
Ġoffen ces
Ġmod els
Ġeth iop
entwick lungs
Ġverste ht
Ġinspect ions
Ġgebrauch t
ĠministerprÃ¤sident en
Ġendors ed
Ġinev itably
Ġcorrespond ing
Ġbiok raft
f ir
i end
Ġg od
Ġge forder
Ġcon ve
ĠÃ¼ber denken
ck x
Ġgleich heit
Ġfinanz rahmen
Ġlang er
Ġcut ting
ĠÃ¼berfl Ã¼ss
y ed
an al
Ġf ate
Ġha gue
uss y
Ġfra gment
Ġnach fol
Ġreport ing
Ġser ves
Ġrespon ses
Ġbed ien
Ġwettbewerb spolitik
Ġsus pect
Ġislam ischen
Ġgeist igen
Ġfulfil led
Ġappell ieren
Ġignor ieren
Ġsev ere
Ġadjust ment
Ġcam bod
Ġm igrants
Ġan fÃ¼hren
Ġen gen
Ġhe ft
Ġra re
Ġhaushalts ordnung
Ġsal es
ĠendgÃ¼lt ig
Ġinspect ors
Ġexem ption
ĠwÃ¤hrungs union
Ġschott land
Ġverwirkl icht
Ġin her
ent ed
Ġbe le
Ġver mÃ¶gen
Ġr ind
Ġr io
Ġdo ors
Ġsh oul
Ġhin nehmen
Ġmin eral
Ġger ingen
ite te
Ġsee verkehr
Ġ5 6
ĠÃ¤ th
hol fen
Ġpract ically
Ġkatastrop hal
Ġkam bod
Ġmarg inal
Ġlic ence
Ġlic ences
Ġanb ieten
Ġappoint ment
c ere
p f
p oint
Ġw ages
Ġauf s
Ġsp ar
Ġwirk ungs
Ġgu inea
Ġdefin itions
Ġdemand ed
Ġred und
Ġverur teilung
Ġjugend liche
Ġabziel t
Ġalleg ed
Ġfreit ag
er klÃ¤rung
Ġin fe
Ġha v
Ġber Ã¼
Ġbest ra
Ġgu at
Ġ5 2
Ġobject ions
Ġhaushalts linie
Ã¼nd eten
Ġvar iety
Ġpay s
Ġopt ionen
res ted
Ġgewalt t
ĠÃ¼br ig
Ġnachhalt ig
Ġvict ory
Ġlog ik
Ġreduz iert
Ġtoler anz
Ġautonomie behÃ¶rde
Ġprofess or
Ġbang lades
a ue
u is
Ġs qu
sch an
ver pflicht
Ġsch auen
Ġch irac
Ġnach t
Ġschw arz
Ġget reten
gehen de
Ġemploy ed
Ġenergie quellen
Ġcivil isation
kontro llen
Ġersuch t
Ġteam s
stag ung
Ġmac ro
Ġguat em
u chte
Ġun res
ur ity
Ġk uban
Ġein setzt
am s
Ġbet reiber
Ġfinanz dienstleistungen
Ġwort meld
Ġprivat isierung
Ġage ing
Ġelekt r
ĠgrÃ¶ÃŁer er
ĠprÃ¤z ise
Ġsupervis ory
ĠÃ¤th iop
Ġein igkeit
Ġver lag
Ġver markt
ul se
Ġauf greifen
Ġne ol
ennt nis
Ġslow akei
Ġdead lines
Ġhalb zeit
Ġschien en
verw altung
f Ã¶rderung
Ġt reiben
Ã¤ ten
Ġsch ock
Ġkon go
Ġverb inden
reich enden
Ġaut o
Ġintegr ity
Ġhelp s
Ġheraus zu
Ġeigent um
Ġbill igen
pun kten
Ġzunehmen den
lang es
Ġautomat isch
Ġreprodu ctive
ĠwÃ¼rd igen
Ġcompon ent
ĠbefÃ¼rcht ungen
k Ã¶rper
Ġd um
Ġvon einander
Ġdam aging
ha fter
lÃ¤ uf
Ġsin cere
Ġmittel frist
Ġsum s
Ġann ivers
Ġbre ast
Ġerreicht en
organ e
ĠvÃ¶lker recht
Ġapprec iation
Ġut ter
Ġincident s
4 1
u den
am o
Ġvor gaben
Ġstat ing
Ġimp orted
Ġgew id
Ġviel fÃ¤lt
Ġlebens qualitÃ¤t
Ġged anke
Ġimmun itÃ¤t
Ġhong kong
us a
Ġk ne
omm od
gen de
Ġaus de
Ġse at
Ġher um
Ġar rested
fr iend
Ġinvest ors
Ġkrit ische
Ġpress ing
Ġfehl ende
Ġlandwir ten
Ġsystemat isch
Ġforest ry
ĠzukÃ¼nft ige
Ġbiolog ischen
Ġremark able
Ġslovak ia
ĠÃ¼berschw emm
st reit
Ġst reichung
Ġer mitt
ver trÃ¤ge
Ġmr b
end ung
Ġacc ommod
Ġro bert
Ġdec line
pro jekt
gew alt
Ġfischere if
ĠglÃ¼ck licherweise
Ġjahrzehn ten
Ġzul assung
ĠnÃ¶rd lichen
Ġfremdenfeind lichkeit
Ġjer usalem
Ġkabel j
l ings
l Ã¼sse
Ġm ulder
Ġapp ointed
alt ungen
zie h
ĠfÃ¼hr ende
Ġeng land
stehen de
Ġparticip ants
Ġgrundlegen d
Ġzunehmen de
Ġlam fal
Ġmist akes
Ġexplan ations
Ġtex te
Ġinsp ir
Ġaccur ate
Ġbiofu els
d est
Ġin appropri
Ġc atastrop
Ġste igerung
he ber
Ġoff ic
Ġinstrument en
Ġfortsch ritts
Ġresour ce
Ġsubst anzen
Ġaddress es
Ġmod ulation
Ġill usion
europ e
Ġtw ice
Ġstatist ical
Ġschwe llen
Ġveran lassen
kap ital
Ġwissens bas
Ġcast ro
Ġimmen se
ro g
Ġan reg
us ted
Ġge achtet
Ġcon vers
Ġcon go
Ġde te
Ġde em
Ġnach weis
ger icht
rat ing
Ġspe zial
Ġass ured
Ġausge arbeitet
Ġarbeits weise
Ġvertre te
Ġwort laut
Ġground water
Ġhor r
Ġgek Ã¼rzt
Ġbege ister
Ġkorre ktur
Ġstake holders
Ġembry on
Ġmangeln de
Ġangep asst
Ġretire ment
a ÃŁt
on z
Ġre mit
Ã¶ ste
Ġma ul
ect ive
Ġcons istency
Ġweiter entwicklung
Ġbehin dert
Ġschlussfol gerung
Ġbewe ist
Ġgeeign eten
Ġabzusch lieÃŁen
Ġk ore
Ġer stellen
Ġfundament ally
Ġpriv acy
Ġremain ed
Ġrecommend ed
Ġsicherheits rat
Ġcritic isms
Ġinvestig ate
Ġmeinungs freiheit
Ġwithdra wn
Ġoccup ied
ĠergÃ¤nz ung
Ġsyn th
Ġvermut lich
4 9
Ġver wend
Ġzu zu
lich em
est ag
Ġdes per
ill on
Ġum gehend
Ġcons ists
Ġdec iding
Ġhaushalts mittel
Ġverhand elt
Ġpass ag
Ġkommissions mitglieder
Ġmos c
Ġannivers ary
g s
Ġt ens
lie derung
qu oten
if un
Ġumwelt politik
Ġur heber
Ġvol ume
Ġopp on
Ġlu kas
Ġassess ing
Ġmis stra
Ġkurzfrist ig
a ktionen
Ġin put
Ġan merken
Ġver gabe
Ġclos ure
ĠÃ¼berw acht
Ġgra us
plan ung
Ġconstit u
Ġmonopol ies
dep th
Ġverhaltens kodex
Ġowners hip
Ġaufent halts
Ġlamfal ussy
Ġbe trÃ¤ge
ne iden
Ġass ets
Ġform ally
Ġversch mutzung
Ġ4 1
Ġbef ind
Ġwenig stens
Ġconv en
ĠhÃ¤ uf
ĠdiesbezÃ¼ gliche
Ġsach verstÃ¤nd
Ġamt ierenden
Ġeingeb unden
Ġpill ars
ĠstÃ¤d ten
Ġexclus ive
Ġnar row
k rank
it ch
ic ious
Ġour s
Ġstr ic
Ġdis arm
bar es
Ġpass ing
Ġarg ent
Ġaufge hoben
Ġvertra ges
Ġbetra chte
Ġerk annt
Ġunge fÃ¤hr
Ġumst ritten
Ġdauer haften
Ġkompliz ierten
spolit ische
fun k
Ġrechtsp rechung
4 6
f ungs
h um
Ġab ges
Ġher auss
und s
Ã¤r er
Ġgew inne
Ġaud it
Ġsau ber
igu ous
Ġstric ter
er ba
ge fÃ¼hrt
Ġsch Ã¤tzen
Ġme x
pe cted
Ġfest gehalten
Ġpresiden cies
Ġexperien cing
Ġtw el
Ġsensib len
Ġunzul Ã¤nglich
Ġjahrhunder ts
d Ã¤m
i ppe
ro l
Ġk ernen
Ġein spar
ut reiben
im me
Ġauf stellung
Ġwork place
vor haben
Ġzukunft s
Ġwohl er
Ġbesser es
Ġgewalt ige
zentr en
Ġleit ung
stell ungs
Ġverz weif
Ġparlamentar ier
Ġtransfer red
ipp ed
Ġautonom y
rÃ¼ ckt
Ġaufricht ig
Ġkorrig ieren
Ġmeinungsverschieden heiten
Ġf ein
Ġbe end
Ġbe zeichnung
Ġgen aue
ign ed
Ġend ed
Ġselbst Ã¤nd
Ġgemeinschaft spolitik
Ġdemokrat ien
Ġpartnerschaft s
Ġevalu ate
Ġrigor ous
Ġtrave lling
Ġhaar der
ĠmeinungsÃ¤uÃŁ erung
Ġhervorzu heben
ie ter
Ġk h
Ġver sprochen
Ġch ile
Ġinc om
act ions
Ġabst ain
Ġhaushalts plans
ss on
rÃ¤n gt
ĠdÃ¼r ften
Ġcolle ct
ĠbefÃ¼r chten
Ġverd opp
Ġkern kraft
Ġmoder ne
Ġeinstimm igkeit
Ġworr ied
Ġeinzur Ã¤umen
Ġprosecut or
Ġoverwhel ming
Ġs emin
Ġm essen
Ġver mittelt
Ġma d
syste men
Ġlab el
Ġtell ing
Ġexcl ude
Ġdritt lÃ¤nder
ĠbÃ¼ ro
Ġrecon c
stat us
Ġkonstrukt iv
Ġabol ish
Ġberat ung
Ġveranl asst
Ġn ull
Ġbe achten
um welt
oc kt
Ġfe atures
Ġsocial ly
Ġbr ust
Ġide ological
ĠÃ¼berw indung
Ġfocus ing
Ġiran ian
Ġirak ischen
Ġbewe gt
Ġmigr ations
f on
Ġun gen
Ġbe auftrag
st abilitÃ¤t
Ġver hÃ¤ng
if iable
Ġmo ther
Ġro ot
Ġzusammen fassen
Ġeing est
Ġbez ogen
Ġruss ische
Ġredu ctions
Ġnutz er
Ġcommunic ate
Ġaussch lag
Ġbit ter
Ġbi ological
Ġenterpr ise
Ġchann els
Ġausgel Ã¶st
k au
ten ance
Ġr unde
Ġauf klÃ¤rung
Ġauf gebaut
Ġvor getragen
Ġent f
Ġhin der
Ġspe kt
utz ung
Ġcivil ians
Ġaktion sprogramm
Ġpotential ly
Ġterritor ium
ĠkÃ¼rz ung
bezogen en
Ġsystemat ically
Ġech el
ape ut
Ġster ckx
Ġwitness ed
ĠbÃ¶ ge
friend ly
t uung
Ġer stellung
Ġal p
gr Ã¼nden
ast ic
Ġinternational ly
iti ere
Ġerst re
Ġaccount ability
Ġasyl bewerber
Ġuntersuch ungs
Ġcritic ise
Ġkontin ents
Ġgeg ner
Ġgenug tuung
ex istence
Ġost see
Ġmonopol y
Ġmitge teilt
Ġmold ova
zul assen
ĠverÃ¶ffentlich ung
Ġnordk orea
er mÃ¤cht
in tens
ur z
Ġein la
Ġim bal
Ġch ief
hl ung
Ġpre d
Ġacc eler
Ġseit dem
Ġlo ans
ater ial
ander s
Ġ8 5
Ġpartner schaften
Ġwa ke
Ġremind ed
Ġbeseit igt
Ġeingeb rachten
Ġober grenze
Ġaudiovis ual
Ġhorizont al
Ġvorsorge prinzip
Ġun fÃ¤lle
om pl
Ġsie he
Ġres ort
ze igen
Ġfe ature
Ġbelie ved
Ġreal ised
Ġtechn ischer
Ġschwer punkte
Ġenc oun
Ġverhin derung
Ġlow est
lass ungen
Ġschuld ig
bo ard
Ġstamm zellen
komp et
a ure
Ġzu zustimmen
Ġco hn
ern t
Ġar ises
me id
Ġdi ver
Ġparliament arians
Ġser ved
Ġexp osed
Ġunterst reicht
Ġbas que
Ġenerg isch
Ġtun nel
ĠbeschÃ¤ftigung spolitik
hab il
Ġqualit ativ
Ġvoranz utreiben
Ġkernen ergie
f indung
Ġz itiere
lin ing
Ġsub vention
Ġtr ends
Ġger inge
Ġbed aure
Ġinvest iert
Ġdiffer ently
Ġflug zeug
Ġgesundheits wesen
Ġrea ktionen
Ġunemploy ed
Ġlay ing
Ġimper ative
Ġarzneimittel n
ĠangehÃ¶r t
Ġerkennt nisse
Ġdefiz ite
Ġindisp ens
Ġhygien e
3 9
w icht
Ġun regel
Ġg ases
st ill
Ġre habil
Ġge legenheiten
Ġmit unter
Ġdem nach
Ġgew Ã¤ssern
tre ib
Ġfest geschrieben
stand s
ĠtÃ¼r en
Ġtro ika
hÃ¶ re
bring ung
Ġemer ging
Ġdon or
Ġseek ers
Ġeinm ischung
Ġinfor mellen
a ire
m ung
ar ischen
Ġn ic
ll or
ke eping
Ġgen oc
fahr ts
Ġgel esen
Ġadd ing
Ġstra fen
Ġverl us
Ġear mark
bÃ¼r gern
Ġanzu erkennen
Ġappe ared
Ġproblemat ic
Ġsurpr ising
Ġmultinational en
Ġremo ving
Ġaktionspl ans
Ġderog ation
Ġconstra ints
Ġwohler gehen
Ġb ahn
Ġo ecd
Ġk lau
Ġfa ire
Ġimp ulse
Ġeing el
Ġwish ed
Ġem otion
Ġschle chten
Ġenjoy ed
Ġerneuer bare
Ġthorough ly
Ġwachsen den
ĠkohÃ¤sions fonds
l uÃŁ
Ġh Ã¤nden
Ġbe wirkt
Ġbe trÃ¤gt
Ġk redit
men gen
Ġam n
Ġverb r
ichte te
Ġkonzentr ation
Ġprojekt s
Ġhung arian
Ġdescr ibe
Ġbegrenz ung
Ġeffektiv itÃ¤t
jun ction
ense uche
Ġbeend igung
k Ã¼n
u k
Ġf em
Ġein leitung
Ġpos ed
iz ieren
ha ust
Ġsozial istischen
Ġeinz ug
Ġgu il
Ġexpress ly
Ġbor n
Ġbehin dern
ĠursprÃ¼n gliche
Ġjournal ist
Ġmitentscheid ungsverfahren
Ġportugies ische
Ġberecht igt
ĠklÃ¤r ung
wald ner
Ġgewid met
Ġun ten
Ġan ste
ent h
au ff
Ġste in
Ġlike wise
Ġverb reitet
ific ial
Ġgel tend
Ġbetr Ã¼
Ġsm oking
Ġdefin itive
Ġisrael ische
Ġsustain ed
Ġkons um
Ġweltweit e
Ġgriechen lands
Ġunl Ã¤ngst
Ġther apeut
Ġindispens able
g Ã¼nst
n r
o up
Ġb ull
Ġp v
Ġon to
Ġmr bar
Ġtechn isch
Ġsecret ariat
Ġattempt ing
ĠeinschrÃ¤n kungen
konfl ikt
Ġmehrwertste uer
Ġjeglich er
Ġhazard ous
Ġklau enseuche
z um
Ġd ates
Ġh emm
Ġund em
Ġl Ã¤ng
ive aus
ĠÃ¼ber tr
Ġunter nimmt
Ġinter ference
Ġdar gestellt
Ġsa fer
Ġart ificial
Ġfolgen absch
iar ies
Ġtro uble
Ġschwer er
Ġclar ified
Ġextra d
ĠkÃ¼rz ungen
Ġclaim ed
Ġautomat ically
pers onen
sph Ã¤re
Ġtunis ia
deleg ation
us ive
Ġi v
ic ing
Ġl ande
Ġver liehen
de c
enn bar
Ġpos e
Ġrem ote
Ġaut h
setz ungs
Ġterror an
Ġsc ore
Ġdet ention
ĠauÃŁen beziehungen
Ġflexib el
Ġplen ar
Ġsach ver
Ġstrafgerichts hof
3 5
er kt
Ġg n
Ġl Ã¼cken
est ablish
Ġzw anzig
Ġarbeit sprogramm
Ġgemein den
Ġacc us
Ġdec ade
Ġfinanz ieller
Ġhil ft
Ġsy m
oten zial
Ġtele ph
ĠangehÃ¶r igen
netz e
Ġmem or
Ġechel on
ermÃ¤cht igungen
Ġs cept
omm t
anz ler
Ġconc essions
Ġtar if
Ġaugen merk
Ġeffekt iven
Ġune qu
Ġhaft ung
ĠfÃ¶der al
Ġvot um
re den
Ġdas eins
Ġr Ã¼cksicht
Ġj ac
Ġvor gelegte
Ġher bei
Ġbei der
Ġfe ier
Ġtr ips
Ġko fi
Ġprincip al
Ġem pt
Ġamt ierende
ĠbedÃ¼r fen
ĠÃ¼b lichen
Ġcyc le
Ġinappropri ate
Ġguil ty
Ġs am
arbeit er
Ġget Ã¶tet
Ġfur cht
Ġausge Ã¼bt
Ġged acht
bild ungs
Ġentschuld igen
Ġfat uzz
Ġzy pr
bele bung
Ġtwel ve
Ġn ut
our se
fin ancing
Ġreal e
inn ing
Ġcol d
Ġproduct ive
Ġ8 00
Ġdraft sman
Ġcoll apse
Ġobstac le
Ġbench mar
Ġvog el
Ġreun ification
Ġbuiten weg
Ġt ighten
un st
Ġb ath
Ã¼ d
ig ter
st ate
ra ct
Ġdies mal
Ġab hÃ¤ngen
Ġwur z
Ġschw ar
Ġleben den
ĠzurÃ¼ck kehren
vorsitz enden
Ġreview ed
Ġquant ity
Ġung laub
Ġdetrim ent
ĠenttÃ¤usch ung
ĠflÃ¼chtling en
Ġfakt isch
n Ã¶ten
Ġs ant
re y
Ġm ort
Ġe is
Ġg lÃ¼ckwÃ¼n
Ġein ander
Ġl Ã¤ch
et ten
gr Ã¼nde
Ġzus age
Ġpla in
Ġvertre t
Ġstar kes
Ġdep th
Ġstaats bÃ¼rger
Ġbelar uss
Ġinterinstitution elle
ĠmÃ¼ he
Ġincident ally
4 8
Ġh Ã¤nde
ol ved
ul icher
Ġaus genommen
iv oc
gr ession
Ġmar ks
erst attung
ĠÃ¤nder t
isten z
gest altung
Ġant ib
Ġ7 00
entw urfs
Ġkoordin ieren
Ġconstit uen
Ġnormal en
Ġtransparent er
Ġwonder ful
Ġsen ior
Ã¶p ft
Ġconsolid ation
Ġbenachteil igten
Ġeinzig art
janu ar
Ġenthusias m
Ġunregel mÃ¤ÃŁ
n t
Ġv ary
as ste
ge kommen
me ister
Ġend s
Ġweiter entwick
Ġunder est
Ġarbeits losen
Ġstreng ere
Ġformul ieren
Ġunivers itÃ¤ten
Ġinf ect
Ġult imate
Ġobtain ing
Ġanmerk ung
Ġinev itable
Ġjugoslaw ien
Ġirgendw el
Ġinterpre ted
ĠwÃ¤l der
Ġtremend ous
p ass
Ġm outh
Ġab ortion
Ġda uern
rom eter
Ġbest raft
Ġkl ug
Ġemphas ises
Ġchance llor
Ġerzeug nissen
Ġdritt staats
Ġfahr zeug
Ġsto pped
cep ts
Ġsensib il
Ġattra ctive
Ġengag ieren
Ġfrid ay
d t
r ichtet
Ġa th
ab len
we chsel
Ġher be
Ġor dent
Ġad verse
lic ken
Ġevery day
Ġgest iegen
Ġkomp on
wÃ¤r ts
ĠtatsÃ¤ch liche
Ġreturn ed
Ġehrgeiz igen
Ġzer o
Ġmedizin ische
wÃ¤ sche
Ġschnellst mÃ¶glich
h Ã¼
ar tet
Ġpr on
Ġsch ule
Ġges unden
ast ungen
Ġcons ent
Ġdr inking
Ġvis as
Ġdist ance
Ġkoordin ierungs
Ġabzu geben
Ġgir ls
Ġfem ale
p at
p ed
v ic
Ġto xic
Ġein reise
os ing
Ġteil zunehmen
Ġtrans actions
Ġtack led
Ġbra chte
Ġcontradict ion
Ġren ational
Ġestim ates
Ġgesetzgeb ungs
Ġgenoc ide
or is
Ġwir ft
Ġcon junction
Ġbest rebungen
Ġbas es
min ation
Ġze ich
Ġze ugen
Ġloc ation
Ġauseinander setzung
Ġjur istischen
Ġmitarbeit ern
Ġenab les
ĠvizeprÃ¤sident in
Ġautomob il
Ġernen nung
Ġer a
Ġaus st
Ġher zeg
ste chnolog
Ġgr ants
Ġmitglied staates
ull ing
ichte ten
Ġvertra ut
ond o
Ġnord ir
Ġverme idung
Ġlib y
Ġconsolid ate
befug nisse
Ġrind fleisch
t ime
Ġf oss
Ġc ra
Ġg lÃ¼ckw
Ġto ll
ic ts
ab et
Ġbes agt
Ġbek unden
Ġest onia
Ġtrag ischen
Ġsk y
Ġguid ance
fle ge
Ġmold au
Ġerad ic
a e
z il
Ġs ale
Ġf usion
al ition
ar ing
st ande
Ġim stande
ver antwortung
Ġmitglied staats
Ġgest rigen
Ġbro ken
Ġ6 3
Ġplan et
Ġfortsch ritten
Ġangenommen e
Ġassess ed
bring t
mitglie dern
Ġvertr ieben
ĠÃ¼b lich
ĠverschÃ¤r ft
Ġexperim ent
ĠeinschlÃ¤ gigen
ra k
Ġab lauf
Ġab zustimmen
Ġbereit stellen
pro jekte
Ġfinanz minister
iti ver
Ġintegr ating
Ġenergie versorgung
Ġklein eren
Ġcoordin ating
Ġwes ten
Ġzypern s
Ġmillenn iums
Ġinteroper abilitÃ¤t
wes ens
Ġausged e
ĠallmÃ¤h lich
Ġtunes ien
ĠglÃ¼ckw unsch
i ant
r ens
Ġl Ã¤ngst
Ġzu weilen
ill ance
Ġsu u
Ġad ap
Ġgen fer
Ġimp uls
wie gend
Ġgesch rieben
Ġinnov ationen
Ġred nern
ĠhÃ¤ us
bek istan
ĠverhÃ¤lt nismÃ¤ÃŁ
Ġproduc er
acc ession
Ġterritorial en
Ġthemat ik
i os
i hood
p ol
is er
an b
Ġg reifen
Ġk andid
Ġver weise
Ġas best
Ġse as
Ġdem ent
end t
Ġbest reben
Ġper ce
Ġant id
Ġbl ok
Ġunge he
Ġquant ities
Ġschlimm sten
ĠgewÃ¤hl te
Ġpersec ution
Ġunabding bar
eb bels
Ġkabelj au
Ġun ang
Ġan stelle
Ġst Ã¼tzt
ess im
Ġcomp osition
Ġfr ucht
ĠbÃ¼rger liche
Ġret ten
Ġmod al
eld et
Ġlat v
Ġca ught
ĠbevÃ¶lkerungs gruppen
Ġsurve illance
Ġguant nam
Ġprerequis ite
Ġbeobachtungs stelle
in stit
Ġb id
Ġg ames
Ġk enne
gen eration
de cken
Ġvon nÃ¶ten
th em
ag og
ad ed
Ġman o
Ġhin ein
Ġbis schen
Ġbr asil
Ġeinge hend
Ġerne uerung
Ġgesundheits schutz
Ġbeschlossen en
kr Ã¤ft
Ġrecognis ing
Ġprivat sphÃ¤re
Ġrig id
ĠzukÃ¼nft ig
Ġzuw ander
Ġfreiwill ige
Ġmarg in
greif ende
pap ier
Ġw og
Ġall tag
Ġber ichtet
Ã¤nder t
Ġgew o
Ġsol bes
los s
Ġris ing
Ġbesonder heiten
Ġmiss ions
Ġben utzen
Ġsicht bar
eu v
Ġakte uren
Ġempfe hle
Ġausschlag geben
Ġguantnam o
Ġw Ã¤chst
Ġw esen
Ġg ift
as ien
Ġer de
Ġer satz
und i
Ġqu elle
Ġneed less
Ġdec ent
Ġfl ight
Ġref erenden
Ġ12 0
ĠrÃ¼ck Ã¼ber
dien sten
Ġzivil en
Ġbeschl Ã¼ssen
Ġbiotechnolog y
Ġzuges agt
Ġpersu ade
Ġherbei zufÃ¼hren
Ġantib iot
o ire
Ġa lex
Ġein leiten
ff ens
Ġco t
Ġber Ã¼hrt
Ġpre isen
Ġintegr al
Ġcar bon
Ġensure d
Ġdel icate
Ġmain tenance
bereit en
Ġeth ischen
mat ik
Ã¤um e
Ġreject ing
Ġnormal erweise
Ġrespond ing
ĠÃ¤hn lichen
ĠgeÃ¤uÃŁ erten
ĠzustÃ¤ndigkeit s
ĠzulÃ¤ss ig
Ġbeding ung
Ġzusammenge arbeitet
Ġdedic ated
f ere
Ġun st
Ġun amb
Ġcon cepts
au ert
Ġpos itiver
Ġmenschen handels
ĠÃ¼berein kunft
Ġanalys ieren
Ġehr en
Ġgetroffen en
Ġsimpl ified
erzeug ung
Ġausgleich s
Ġsah ara
Ġsurv ival
Ġferr ero
m ach
n ord
Ġt Ã¶
Ġm ale
Ġn an
ul ated
Ġversch l
Ġmor gigen
zug reifen
Ġstre am
entscheid ungen
Ġarrang ement
Ġangriff e
Ġirgendein er
Ġquantit ative
Ġstal in
ĠÃ¤gyp ten
Ġg onz
Ġbe zeich
ll i
ber ichte
Ġas em
Ġaus machen
ĠÃ¼ber dies
Ġind igen
Ġweiter zu
Ġpublic ly
Ġ5 8
stand ard
bed Ã¼r
Ġchild rens
Ġprozess e
Ġmess ages
Ġdemonstr ations
Ġberuf lichen
Ġmak ro
Ġshoul der
Ġmano euv
n ed
p fl
an geb
Ġk reat
Ġde fe
Ġsch Ã¤r
qu in
gr Ã¼ndet
Ġsozial es
Ġpoint ing
rang ing
Ġverbind liche
Ġ201 2
Ġgas p
Ġbilateral e
Ġdiplomat ischen
Ġverwe igert
Ġverschlechter ung
Ġvenezuel a
Ġunequ ivoc
Ġa ung
ie bung
Ġun a
Ġv ague
st Ã¼ck
Ġer we
Ġde ar
tr ans
ug ung
Ġdis gra
Ġtr ip
Ġany where
Ġgovern ed
ĠbefÃ¼r chte
Ġmoral ische
Ġschengen er
Ġisol ated
Ġfeed ing
Ġtextil es
ĠrÃ¼ st
Ġdiam ant
Ġadvis ory
Ġunannehm bar
Ġadap ted
Ġb ord
Ġin halts
Ġein wohner
Ġj os
Ġas ian
Ġall ies
Ġex haust
Ġsp itze
Ġbei zube
Ġbet one
Ġgew Ã¤sser
ĠÃ¤nderungs vorschlÃ¤ge
Ġange fÃ¼hrt
Ġmod est
Ġky i
Ġbeant ragen
Ġdauer hafte
Ġpoten ziellen
Ġtown s
ĠunregelmÃ¤ÃŁ igkeiten
Ġbeizube halten
j unkt
u ct
er re
Ġun ent
ro ots
ul ts
ann oy
Ġges orgt
Ġmin e
Ġteil s
hol t
Ġeigen schaft
Ġlebens bedingungen
ĠausfÃ¼hr liche
Ġconvin cing
rehen sible
Ġhindern is
Ġabol ished
Ġreinfor ced
Ġbezahl t
Ġqualit ative
Ġdisadvant aged
Ġausnahmeregel ung
Ġelektr iz
Ġpv c
Ġs achen
Ġc uban
ar fs
Ġko st
Ġ5 1
Ġwettbewerbs verzerr
Ġged uld
Ġsw itzer
Ġvier tel
Ġtop ics
Ġerfordern isse
Ġehrgeiz ige
kap azitÃ¤t
Ġcompar able
Ġsav ary
Ġalarm ing
Ġkommer ziellen
Ġinteroper ability
Ġhauptz iel
discrimin ation
ĠplÃ¶tz lich
Ġsyner g
m el
Ġd ol
Ġw inter
Ġan gleich
Ġzu kommt
Ġden oun
Ġcon form
ip tion
Ġindic ates
Ġvereinfach en
Ġehemal ige
Ġzuw ider
Ġembry os
ĠordnungsgemÃ¤ÃŁ e
ĠfÃ¶der ation
Ġphilosoph y
Ġgetr enn
Ġstor age
Ġhomosex ual
opoul ou
Ġadmitted ly
Ġfeas ible
Ġbow is
Ġfatuzz o
Ġd ual
Ġm igranten
Ġp ick
Ġaus bruch
Ġse kret
be ing
Ġsel ber
Ġreal en
Ġatt ent
Ġhar ass
weit en
Ġpass ieren
ĠschlieÃŁ ung
Ġerr ichtet
ĠbegrÃ¼ÃŁ enswert
l ast
Ġt rop
Ġin sec
Ġn Ã¤hr
le z
Ġunter halten
Ġgew Ã¶hn
ak ers
Ġreform ing
Ġvoll beschÃ¤ftigung
Ġvoll endung
Ġcontro lling
Ġvorgesch rieben
Ġclos ing
ief ert
gew Ã¤sser
Ġcomb ine
Ġcomb ination
Ġgegeben heiten
Ġavail ability
Ġsummit s
Ġverabschied eten
Ġereign is
Ġinhalt lich
Ġbra zil
Ġbir ma
Ġorient ierung
Ġdefic its
Ġwiderspieg elt
Ġausnahmeregel ungen
ĠÃ¼bereinst immen
d im
s ah
Ġf Ã¤l
Ġl annoy
Ġver setzen
Ġer mitteln
Ġarbeit er
Ġmo ves
Ġinv asion
Ġcontin uation
Ġbew uÃŁ
Ġzahl reicher
Ġlet t
Ġeigen er
ov ina
staat lichen
Ġ25 0
ged eckt
bereit schaft
Ġsitzung speriode
Ġconfir ms
Ġexpens es
Ġveter inary
a w
in vest
at ri
Ġand re
igen den
ik er
Ġacc ompl
Ġtr ennung
Ġtransp osition
Ġfl otte
miss ible
Ġberu fen
Ġherz lichen
Ġjem als
Ġungleich heiten
Ġplural ism
Ġconsc ience
Ġfutter mittel
Ġstad ium
ĠÃ¶rt lichen
Ġdisgra ce
6 0
b rechen
o ÃŁen
Ġan gere
om s
et ic
Ġwork force
fÃ¼hr enden
Ġfe els
Ġass ert
rÃ¤ ume
Ġgere chte
Ġluft raum
Ġrun s
ĠsÃ¤mt licher
Ġmang elt
Ġenfor ced
Ġalban ia
Ġchann el
m outh
in frastru
Ġin vent
Ġun pre
Ġpar itÃ¤t
Ġwor um
Ġho using
geb Ã¼hren
Ġbeg leitet
Ġsecond ary
Ġthir ty
Ġback ed
Ġmean while
Ġgeld wÃ¤sche
Ġlay s
Ġerf asst
Ġos ze
Ġsurv ive
ĠwidersprÃ¼ ch
Ġgeop olit
Ġunmiss verstÃ¤ndlich
k ha
v ier
us hing
Ã¼ tern
Ġha ut
Ġer halt
Ġwer fen
Ġma uer
Ġex ac
Ġum stellung
Ġste uers
Ġsee verkehrs
hol ds
Ġcl oning
Ġgesetz lichen
ĠprÃ¤ ferenz
ĠvÃ¶lker mord
Ġbiotechnolog ie
Ġeinget reten
Ġlud ford
Ġempt y
Ġexac erb
Ġp y
Ġg ast
Ġauf gerufen
Ġen em
Ġdar legen
Ġbar on
Ġsum m
Ġdr iven
Ġnichts dest
Ġchall eng
Ġverbind lich
Ġverk aufen
Ġvorbe halten
Ġverwe ist
Ġhervorge ht
Ġerfre ulich
Ġoffiz ielle
Ġquar ter
Ġhundert taus
Ġswitzer land
infrastru ktur
c ar
Ġf atal
te gr
Ġl as
gen annten
Ġauf halten
Ġauf getreten
Ġle hnt
Ġgo ebbels
Ġverb ring
Ġthem as
Ġget s
Ġabs or
Ġorganis ing
Ġtechnolog ischen
Ġdep endence
Ġsto ppen
Ġverfassungs entwurf
sprÃ¼ che
Ġnorm ally
Ġdoct ors
Ġsurpl us
Ġearmark ed
k ette
m un
p ie
ich ern
Ġc ur
Ġauf weisen
Ġauf einander
Ġwelt markt
Ġadministr ations
Ġdiskrimin ierungen
Ġbetre uung
Ġbann ing
Ġdisappoint ment
Ġunterscheid et
behr endt
Ġhunder te
Ġwog au
Ġdiamant opoulou
f ace
y ers
Ġh ot
sp ace
Ġent ziehen
Ġmein t
Ġgen f
Ġfo oting
Ġern sten
ĠtÃ¤t igen
Ġansch lÃ¤ge
Ġdro hen
Ġcondemn ation
ost l
Ġeinwander ungs
Ġdringlichkeit s
Ġderog ations
d orf
Ġm erg
Ġg is
Ã¤ chte
Ġat trib
Ġstr engen
Ġgem essen
Ġihr erseits
Ġdirect orate
Ġgleich gÃ¼lt
Ġiniti ated
Ġsign als
Ġmor illon
Ġcontrib utes
Ġru h
Ġunver meid
Ġvorbereit en
Ġkonsolid ierung
Ġirregular ities
2 9
Ġein fuhren
Ġre if
we ge
ĠeuropÃ¤ ern
Ġman ipul
Ġdis ability
Ġdis ziplin
Ġgem isch
Ġbas el
Ġgel ernt
Ġweiter gehen
Ġlie fer
Ġwelt wirtschaft
Ġbegr iffen
Ġviol ated
Ġangemessen er
ĠsÃ¼d afrika
Ġersch Ã¼t
Ġhom es
Ġerd gas
Ġanwes enden
ĠbetrÃ¤cht lichen
Ġconfident ial
Ġolymp ic
Ġwiderspieg eln
Ġgeograf ischen
aktiv itÃ¤ten
Ġzu teil
kt iken
Ġor te
Ġfa ces
Ġrechts akt
Ġ5 7
Ġfind ings
Ġhinaus gehen
Ġderart iger
Ġverurs acher
Ġwiederauf nahme
Ġenj o
Ġincon s
Ġentail s
Ġcele br
Ġirrespon sible
Ġgonz lez
r id
s inn
Ġd un
Ġc igaret
Ġv el
as i
Ġk unst
Ġent zieht
Ġsa ving
Ġsicher er
Ġconf ed
Ġhaushalts verfahren
Ġkampf es
Ġpoor er
Ġslow en
ĠgrÃ¼nd et
Ġeinzus tellen
Ġalger ia
Ġther ap
Ġkrimine llen
b ig
Ġth inks
Ġan bau
st an
Ġmit hilfe
pp er
Ġob st
Ġpo ul
Ġindustr iellen
Ġref usal
ĠrÃ¼ck verfolg
Ġgelten de
seit en
Ġanders wo
Ġproduz enten
Ġmitge fÃ¼hl
Ġoste uropa
Ġmedikament e
Ġcolom bia
Ġfischereise ktor
Ġamn esty
ĠÃ¼bertr ieben
n utzen
o ted
Ġp ac
st es
ber ichts
Ġer ho
Ġzw ing
Ġwho lly
lÃ¤ re
Ġsm ugg
Ġplay er
Ġgute m
Ġjud ges
Ġverd anken
Ġerk lÃ¤re
Ġacqu ired
ĠkommissionsprÃ¤sident en
Ġwal es
Ġthreaten ing
Ġatmosph ere
Ġtrace ability
Ġc ards
Ġbe acht
Ġst anden
Ġvor ant
ab l
ĠÃ¼ber nimmt
Ġro ll
Ġteil nehmer
Ġintegr ieren
Ġgar ca
leit eten
stell te
Ġbear s
Ġrecon sider
Ġexplan atory
Ġassozi ations
Ġwachsen de
ĠverstÃ¶ ÃŁe
w ink
eit e
Ġer led
ag a
ad em
Ġqu ellen
ult ure
Ġjun cker
Ġcapac ities
Ġscre ening
Ġoppon ents
Ġt agt
Ġbe gehen
ig em
ed ies
Ġre verse
Ġver fe
Ġma aten
ges prÃ¤
Ġkon junkt
Ġmehr zahl
Ġtr ink
tre ffen
spr inzip
Ġschw anger
Ġur ged
Ġintegr itÃ¤t
Ġmil ose
Ġdat um
app e
Ġasyl politik
Ġeindeut igen
Ġverteid igt
Ġred ing
ĠgenÃ¼ gt
Ġregister ed
Ġattend ed
Ġkategor ien
ĠfÃ¼hrer schein
Ġverbrech ens
ĠberÃ¼ hm
ĠlÃ¤ch er
9 2
f acht
h uber
o hne
ie ÃŁ
or ge
ion ed
Ġc ab
Ġbe antwortung
Ġr uf
Ġte uer
teil ten
Ġzun ichte
Ġlab or
Ġfahr er
Ġerfordern issen
kre bs
Ġsev ille
ĠverschÃ¤r fen
Ġflag s
Ġguatem ala
Ġm asch
Ġer bringen
Ġle ague
ass ungs
Ġimp l
Ġhin reichend
Ġconf erences
Ġget re
Ġmor g
Ġverf asst
ĠauÃŁen politischen
Ġdest o
Ġwert volle
Ġfle ets
Ġadvoc ates
comm er
Ġintoler able
Ġbemer ken
Ġgeneraldire ktion
d et
m t
Ġin stru
Ġun aus
Ġein tritt
icht ung
Ġpro active
ste uern
Ġfir men
Ġilleg ally
Ġdom ain
Ġunmittel bare
Ġsev illa
Ġnament lich
e ast
Ġb aum
an as
Ġc te
Ġauf lagen
Ġfra geste
zu frieden
Ġimp f
Ġdam al
Ġbesch uld
Ġ5 4
Ġ% .
Ġdetermin ing
amer ikanischen
ĠtÃ¤ glichen
greif enden
Ġpreced ent
Ġtem per
Ġteach ers
2 7
g rem
i us
v ol
w est
re isen
el and
am ment
Ġfa ult
ip her
ok es
Ġla undering
Ġresol ute
Ġfl otten
Ġsecur ing
Ġinteress ieren
Ġerfolg te
Ġless on
Ġpap ers
Ġcontinu ity
zug ang
Ġober ste
Ġzerst Ã¶ren
Ġersuch e
Ġvertie fung
protokoll s
Ġaspir ations
ĠrÃ¼ckverfolg barkeit
Ġp led
Ġn ett
le hen
ic ism
Ġpro zeÃŁ
Ġcon temp
Ġimp lies
Ġmenschen leben
Ġpla cing
Ġausge ht
Ġschutz maÃŁnahmen
weit erung
Ġerziel te
Ġton y
Ġtrib un
kamp agne
Ġadjust ments
ĠspÃ¤t estens
ĠspÃ¼r en
Ġtschech ischen
Ġcash man
ĠflÃ¤ chen
Ġphr ase
n app
w eren
in ations
re in
im b
Ġstr ikt
Ġzus amment
Ġsub jected
Ġtr il
Ġbin den
hin dert
Ġbek annten
reit eten
Ġest land
Ġhaushalts behÃ¶rde
Ġelect orate
Ġair line
ĠrÃ¼ck zug
urop as
Ġpoten zie
Ġradio akt
Ġabzusch affen
Ġprivileg ed
Ġfunktions weise
Ġhoheits gebiet
Ġblok land
d auer
or ters
Ġp essim
et ers
ber s
qu elle
ag on
Ġnach richten
Ã¶r ungen
con t
Ġkol onial
richt linien
Ġversch ieben
kon zept
Ġbef re
Ġbezie he
Ġaim ing
Ġdist urb
Ġine qual
Ġine quality
Ġkonsequ enz
Ġhol ds
ĠglaubwÃ¼rd ig
kap azitÃ¤ten
Ġstreit krÃ¤fte
opho b
ĠbÃ¶ sch
Ġflu or
Ġversp Ã¤t
Ġnewspap er
4 4
Ġt ested
is st
Ġbe aut
Ġein heim
rop ortion
uss te
Ġhe at
Ġag ieren
Ġkon zip
ze ll
Ġrequ iring
Ġtechnolog ische
mat ure
Ġratifiz ieren
Ġeinver nehmen
oin ts
Ġeingegangen en
Ġzugest Ã¤nd
ĠunionsbÃ¼rger schaft
Ġcounterfeit ing
Ġsensit ivity
Ġinequal ities
f il
Ġo ostl
Ġz igaret
Ġver un
Ġver laufen
den kt
Ġden kt
ern ob
Ġpre mature
Ġvers etzt
Ġsor gt
Ġgewalt igen
ĠwÃ¼n scht
lass ungs
Ġmis le
ĠbeschÃ¤ftigungs strategie
Ġconserv atives
ca o
Ġqualifiz ierte
Ġanschein end
vereinbar ung
Ġdiscip line
Ġing red
Ġzweifels ohne
Ġlannoy e
ernob yl
r est
it ives
00 00
Ġres erves
Ġbet on
Ġbest anden
fÃ¼r sorge
pl ath
Ġsign ale
Ġinvest ition
Ġtranspar ente
Ġmoment um
Ġstruktur reformen
Ġprakt ik
Ġexce llen
Ġtomorrow s
Ġten der
Ġvoraus gesetzt
Ġgrundsatz es
Ġprodukt ivitÃ¤t
Ġlog ic
Ġunmittel baren
Ġrechnungs hofs
Ġvig o
ĠstÃ¤d t
Ġnachzu kommen
Ġschien e
Ġencoun ter
Ã¼ mm
Ã¤ ck
Ġver hÃ¤ngt
Ġer langen
Ġge Ã¶ff
Ġpr Ã¤m
Ġle bt
Ġsu pre
ah e
Ġcom pr
Ġdis miss
Ġzw ang
ru fen
Ġmon ter
Ġklar gestellt
reg ime
Ġsum mar
Ġmult ifun
ĠverÃ¤nder ten
Ġanzu gehen
Ġdelay ed
Ġeinzus ch
Ġerfre ulicher
Ġkandidaten lÃ¤ndern
Ġos ce
Ġreligions freiheit
Ġroman ian
k an
or i
Ġc f
Ġer lass
Ġge holfen
Ġauf hÃ¶ren
Ġgemein t
Ġhaus halte
Ġatt ain
Ġposit ively
Ġunderstand able
Ġmot to
part nern
Ġschiff s
ĠÃ¶sterreich ische
Ġvorzu bereiten
Ġverfassungsvertrag s
Ġtransl ation
Ġvorsicht ig
Ġaufent halt
Ġabwe ich
Ġverdeut licht
Ġprejud ice
ĠmaÃŁst ab
k op
Ġg ulf
men schen
Ġmin istr
fr Ã¼
kl us
kehr ungen
Ġcolle ge
Ġakzept anz
Ġhandel spolitik
Ġprefer red
Ġindire kt
Ġbiolog ische
Ġnap olit
Ġcos met
a fen
k ol
w issen
Ġb ab
Ġin just
Ġin hum
ur ning
Ġge legen
Ġvor gestellt
Ġuns atisf
teil igung
Ġbek lagen
ĠnatÃ¼r liche
Ġfisch bestÃ¤nde
Ġwesent liches
ĠvÃ¶lker rechts
Ġrespond ed
Ġdeliver y
Ġcourage ous
ĠgebÃ¼hr t
Ġmultinational s
Ġaggress ive
Ġerrungen schaften
Ġtreibhaus gas
b ud
r ie
Ġw ies
Ġan stehenden
Ã¼r en
Ġvor lÃ¤uf
Ġdem ograf
Ġsu ic
Ġnach teile
ass oni
ced ented
Ġla os
Ġbas ieren
gem Ã¤
Ġ9 6
Ġcarr iers
Ġgenet ic
Ġheav ily
ĠÃ¤lter e
Ġalger ien
Ġvacc ination
ĠprÃ¤vent iv
Ġeindring lich
Ġzielvor gaben
Ġunpre cedented
l ong
Ġp nr
Ġon line
de ckt
men sch
Ġum s
00 8
Ġsa c
Ġdec oup
fr on
vorsch lÃ¤gen
Ġprom otes
Ġthough ts
Ġsatisf y
ĠrumÃ¤n iens
Ġbegrenz ten
Ġmanufact uring
Ġlag er
Ġehrgeiz ig
Ġbeur teilt
Ġattra ct
Ġlob b
b ieten
b ollah
l inge
m r
t un
ver tra
ab hÃ¤ng
uch ten
Ġta pe
Ġnational staaten
Ġinv itation
Ġlis ted
ĠÃ¼berw unden
Ġrei hen
nehm ung
Ġtab ling
Ġank ara
ĠkohÃ¤r ent
Ġproduz ieren
Ġentscheidungs findung
)] .
Ġconce al
Ġsacr ific
k y
t urn
Ġf id
Ġin halte
Ġh un
Ġan zeichen
Ġein bindung
sch i
sta ge
Ġaut os
Ġel ite
Ġgere chter
Ġindic ations
Ġbetreffen de
Ġletzt es
ĠjÃ¤hr liche
Ġbau en
Ġbesuch en
Ġalban ien
ĠmÃ¼ ÃŁ
kla useln
viel falt
Ġsudden ly
k ind
k anzler
n o
n s
Ġw ip
Ġm s
ad m
Ġste igern
Ġwo od
los er
reg ulation
Ġconcl uding
Ġlu cas
ĠgefÃ¤hr licher
Ġgeste llten
ound ed
Ġabandon ed
Ġdisappoint ing
ĠzuverlÃ¤ss igkeit
b ten
ang et
Ġqu asi
og an
leg ten
Ã¤hr t
Ġwant ing
Ġbef rei
Ġcor nerst
Ġharmon ising
Ġjud iciary
rank ungen
Ġsto ÃŁen
Ġaccep ts
spar teien
Ġsau di
ĠverstÃ¶ ÃŁt
Ġrepress ive
Ġgeschen kt
Ġelig ible
Ġausgede hnt
f ar
h ern
Ġc ul
Ġge flÃ¼
Ġvor legt
Ġnot iced
Ġuns inn
Ġag ents
Ġinv ested
Ġrec ourse
Ġadd itives
Ġbegr enzen
Ġprotection ism
Ġerweit erte
Ġdav id
Ġbus quin
Ġverz err
Ġsex uelle
Ġniederl Ã¤ndische
Ġed f
Ġangest rebt
Ġgrem ium
Ġinitiativ bericht
Ġgis card
Ġmilose vic
u fung
v an
Ġw yn
Ã¼ mer
Ġst Ã¼tz
Ġmit hin
Ġinc ur
Ġzusammen hÃ¤ngen
Ġhand led
Ġref lex
Ġorganis men
Ġconstru ct
Ġworth while
Ġnied rigen
Ġsusp ic
initi ativen
Ġexem pl
erzeug nisse
russ land
Ġdistingu ish
Ġsym pt
u um
Ġin land
Ġn ichte
sch lagen
im ent
Ġwor Ã¼ber
tz uer
bes chrÃ¤n
Ġgrenz werte
Ġanerk ennt
Ġfocus es
Ġdemonstrat ing
Ġrenew al
Ġbir ds
Ġbegriff s
Ġrecord ed
Ġreicht um
Ġaufrech tzuer
Ġinterv iew
fisch erei
Ġdisadvant age
Ġautor itÃ¤t
Ġaufrechtzuer halten
2 6
er ed
Ġm ik
Ġm Ã¤cht
Ã¤ fte
Ġver weis
Ġzu genommen
Ġzusammen sch
Ġknow ing
Ġreform ed
Ġgest alt
ffe e
Ġheraus gestellt
Ġwider spricht
Ġvereinbar keit
ĠrÃ¼ck sch
Ġkos met
Ġillegal er
Ġtotal itarian
ĠbefÃ¼rwor ter
Ġrand zio
ĠzurÃ¼ckge zogen
Ġatom waffen
Ġqualifiz ierter
bil den
Ġcompon ents
Ġrhetor ic
ĠgeÃ¶ff net
Ġnapolit ano
4 3
e i
m n
Ġb reat
le te
Ġbe if
Ġz o
Ġl ord
Ġcan cel
ap ing
Ġgrund wasser
Ġvoll zogen
Ġ6 8
Ġbel ange
icher ungen
rech er
Ġschne llen
Ġsoon er
Ġdiv oire
Ġmedizin ischen
katastrop he
Ġfas ter
ĠgÃ¼nst ig
Ġinvestitions bank
Ġstrukture llen
Ġawa it
Ġwald br
Ġtariff s
Ġspect rum
Ġincred ibly
Ġexcellen ce
z id
ch ed
Ġm und
Ġp orn
sch Ã¤tzung
Ġst off
Ġvor gebracht
Ġma gn
Ġunter s
Ġwas s
Ġwor in
Ġch r
Ġgen uss
Ġsub stitution
Ġhier mit
Ġger Ã¤t
Ġbo y
Ġbek und
Ġinvest ing
kon z
Ġsector al
Ġlu ck
Ġ11 0
zahl en
Ġgesellschaft liche
mÃ¤ÃŁ igkeit
Ġnah ost
Ġinformations austausch
griff e
ĠspÃ¤ter en
Ġcooper ative
Ġpetitions ausschuss
dez ember
Ġunsatisf actory
ie in
Ġh amp
Ġge is
Ġher stellen
pro liferation
Ġintegr iert
Ġspec ified
Ġgener elle
Ġformul ated
aut ious
Ġvergleich en
Ġsepar ation
enteil s
Ġkonsult iert
Ġbegriff e
Ġatlant ik
Ġconsc ious
Ġmem ory
Ġsatell ite
janu ary
Ġdebatt ieren
Ġkolumb ien
ĠÃ¼berschwemm ungen
f ire
z Ã¶
Ġd uff
it udes
Ġver arbeit
Ġver grÃ¶ÃŁ
gen er
la ger
Ġinter reg
gar ant
Ġstabil isierung
wÃ¼r de
Ġna vig
ĠbeschrÃ¤n kung
Ġwochen ende
Ġut il
Ġ198 0
Ġphil ipp
Ġhy d
cas ts
Ġbeschwer de
Ġdeliber ately
Ġgetr ennt
Ġguant an
Ġgescheit ert
Ġethiop ia
Ġverlus te
adm ium
3 8
5 5
l iberal
Ġt ension
Ġver ze
il es
uld ung
Ġma es
Ġar isen
Ġbei j
Ġkon form
our s
Ġpre f
Ġgrund zÃ¼ge
Ġexp orte
Ġlo ck
Ġausge w
Ġair space
Ġgener ate
rahmen programm
bezogen e
Ġvorrang ige
spekt oren
ĠgeÃ¤nder ten
Ġwrit e
Ġsymbol ic
Ġrid ic
Ġdup lic
Ġverantwortungsbew usst
Ġapolog ise
Ġgrundprinzip ien
disk rimin
anal y
Ġmonter rey
h eld
j ahre
Ġm ord
Ġf ung
Ġun gew
Ġn ich
Ã¼ chter
Ġer ziehung
Ġauf teilung
ow ina
ag ger
Ġind ian
Ġro utes
Ġgesch afft
Ġwieder belebung
Ġac ute
Ġterror istische
Ġwelt krieg
Ġentscheid et
Ġwider sprechen
Ġsubs cr
Ġfair ness
Ġwirtschafts raum
Ġavo iding
Ġblock ade
ĠdÃ¤n ische
Ġvorge gangen
Ġslo ven
Ġdepr ived
Ġveter in
Ġindirect ly
Ġangleich ung
h te
h undert
s ub
Ġthe me
Ġh ide
gen ehm
ĠÃ¼ber gehen
Ġcomm od
Ġgew achsen
ak er
Ġend anger
Ġko finanzierung
Ġobject ion
entscheid ung
Ġexplo ited
Ġembar k
Ġpursu it
Ġposs ess
Ġerwer bs
Ġupd ate
Ġvit am
develop ed
Ġvalenc ia
Ġcambod ia
Ġconstituen cy
3 7
r iff
Ġthe ory
Ġb our
ed enz
ul a
Ġwe i
Ġcon fron
Ã¤n gen
Ġsub stit
amp ed
iar de
Ġwahl kreis
01 6
produ kt
nehm lich
ĠÃ¶k os
ĠprÃ¤z edenz
Ġkil omet
Ġersta unt
Ġweakness es
Ġstaatsan wal
Ġrehabil itation
Ġoostl ander
Ġzigaret ten
v on
an ks
Ġh Ã¶r
al ts
op fer
00 6
if ikation
Ġbes etzung
Ġpre ference
gra de
Ġmenschen wÃ¼rde
Ġper fe
Ġprov ok
Ġverein heit
Ġsim ult
Ġgent e
Ġdiffer ing
verb ind
Ġweek end
hof stadt
Ġrestrict ion
Ġumfang reichen
Ġcal m
Ġmeaning ful
Ġverord nungs
Ġfas c
Ġkontinu itÃ¤t
ĠunnÃ¶t ig
Ġdevo te
Ġumge kehrt
verhÃ¤lt nis
Ġspitz en
Ġjac ques
Ġunang emessen
Ġguantan amo
z essen
Ġd ir
Ġs ar
Ġver geben
Ġpr isons
est s
ien na
etz e
Ġra b
Ġrel uct
Ġreform ieren
Ġintegr ierte
Ġvereinbar en
Ġban anen
Ġstaat licher
Ġbeitrag s
Ġverk auft
Ġgewiss ermaÃŁen
Ġeffizient en
Ġdauer haft
Ġvorher r
Ġvermittlungs ausschuss
Ġsozialdemokrat ische
Ġvoranzu kommen
Ġbemer kt
Ġtril og
w ier
Ġw iden
Ġsch ar
ĠÃ¼ber mittlung
Ġsol ving
ior i
stÃ¤nd ig
Ġlaw yers
Ġsuccess es
Ġheraus ragen
Ġdep ending
Ġgere chten
ifiz ieren
Ġseem ed
Ġautonom ous
Ġstren ger
Ġenhan cing
Ġstimul ate
Ġverschlechter t
Ġcontam ination
Ġsumm ary
Ġo we
Ġbe legen
Ġab hÃ¤ngt
ungs weise
Ġkon f
Ġexpress es
Ġlim iting
Ġec os
Ġdisp roportion
Ġinfl ations
Ġbelg ische
Ġsuppor ters
ĠkÃ¼ ste
Ġvorbe ugung
Ġmax imal
Ġacqu ire
Ġpresse freiheit
Ġtenden cy
Ġreveal ed
kompet enz
Ġbeij ing
h ten
Ġ ug
Ġc ens
Ġun will
st Ã¤d
Ġre ct
Ġver lau
ul en
Ġsp l
Ġstr ive
Ġwieder verein
Ġpublic ation
Ġlang wier
ator ial
oll ar
Ġmer it
Ġgla ubt
Ġemer ge
Ġempf Ã¤nger
Ġslow ly
Ġwelcom ing
Ġschrift liche
Ġcau cas
Ġwahlbe ob
Ġdaseins vorsorge
Ġnordir land
h Ã¤ndler
Ġth ail
Ġw ien
re ibt
Ġm c
Ġc fp
Ġun ified
Ġv ort
Ġz in
Ġer weist
Ġaus reichenden
Ġaus bildungs
Ġme ilen
for um
Ġkon gress
Ġfe uer
vers icherungs
Ġant is
gel Ã¶st
Ġchem ischen
Ġsal aries
Ġmoder ate
Ġbelong s
Ġmerk el
Ã¼nde te
Ġtransform ation
Ġerb racht
Ġkonzep te
onte x
Ġpostpon ed
Ġkambod scha
Ġkne w
Ġincom es
d ad
g ibt
Ġt v
Ġa er
it ar
Ġbe fol
sch er
ver h
Ġentw urfs
fe bru
Ġany body
Ġmon ats
Ġfr assoni
ha ber
Ġgeb ildet
Ġend ing
Ġrem edy
Ġabge halten
Ġtechn ically
Ġwelt gesundheit
Ġtun a
Ġspeak s
zw ingen
Ġconvention al
Ġshort age
Ġstress es
Ġtele fon
Ġoptim istic
mÃ¤r z
ĠÃ¼bersch ritten
Ġcustom ers
Ġexec ution
Ġeuropar at
Ġkurd ish
Ġbrid ge
Ġadj our
9 7
k ommiss
Ġw ol
Ġf lieÃŁen
Ġun laut
Ġg fp
sch reiten
id den
Ġco existence
scha fter
Ġgr iff
Ġbes ides
ip t
Ġsa ck
Ġpre de
Ġro ss
Ġgood will
Ġrep ut
Ã¤mp ft
Ġgesam th
Ġret ained
Ġsw itch
Ġmehrheit s
Ġmand ats
Ġanalys es
Ġmus l
Ġberuf liche
dis ziplin
Ġfer ber
contro l
Ġuran ium
Ġhypoc ris
ifik ationen
Ġerreich te
defiz it
Ġoffic ers
9 5
Ġr iver
Ġj ack
Ġinter fere
ens werte
Ġag gression
Ġcomp are
Ġprogram mp
Ġregul ating
Ġgu ide
Ġaff irm
klÃ¤r ungen
Ġze ugt
Ġnutz t
fÃ¤h iger
Ġadv ances
Ġformul a
ĠgrÃ¼nd liche
Ġhol z
Ġproduz iert
Ġbundes kanzler
Ġobjekt iv
Ġeinseit ig
Ġresident s
Ġflexibil itÃ¤ts
w ith
Ġp ity
Ġin spe
Ġg all
ra chte
Ġha f
Ġge teilt
Ġge fÃ¤llt
Ġauf weist
Ġfre unden
Ġsc our
Ġtrans mission
Ġdefin ite
Ġstandpunkt s
ĠprÃ¼ f
Ġcirc ulation
Ġpoll ut
Ġbir gt
Ġlegitim en
Ġregrett ably
Ġmulti annual
Ġdevast ating
Ġcopy right
Ġpip eline
Ġreconc ile
Ġeingel aden
Ġhypocris y
3 6
k Ã¤
un ft
Ġk id
Ġre ception
ut ter
ul ate
Ġge leitet
Ġunter richtung
Ġunter zeichnen
ag d
Ġinc in
Ġsit e
Ġschw ein
Ġref using
Ġbeschl uÃŁ
Ġexcess ively
Ġdramat ischen
Ġbehinder te
Ġclass ification
ĠwÃ¤hl ern
Ġmcc art
Ġerfreulicher weise
a ing
c omp
an teil
Ġh olid
Ġun vor
Ġun its
Ġv ienna
ul ichen
Ġpr ide
est ock
Ġar rog
ord nungen
Ġper ipher
chn itten
Ġgesch ah
Ġausge glichen
Ġdien sten
ser klÃ¤rung
Ġerfolg s
Ġbre aking
Ġjour ney
Ġblock iert
Ġweap on
Ġempf angen
Ġprofession als
Ġlam a
Ġfrequ ent
Ġembry onen
Ġbreit er
Ġstattf and
Ġswift ly
Ã¶konom ische
ĠfrÃ¼hjahr s
Ġliv estock
Ġappla ud
Ġprotektion ismus
ĠÃ¤thiop ien
Ġmrbar roso
r iken
Ġzu wenden
Ġad ress
zu halten
Ġjed w
wer ter
Ġrec ruit
Ġland s
Ġversch oben
Ġumwelt ver
Ġcol onial
Ġkommen de
ĠhÃ¶ re
Ġerg reif
Ġdring ende
Ġred is
verb reitung
uropÃ¤ ische
Ġdetrim ental
Ġarbitr ary
Ġvermarkt ung
ĠsachverstÃ¤nd igen
Ġverlau fe
2 8
en a
Ġb Ã¶r
re z
re ts
an ter
Ġein mÃ¼
Ġwir kt
rit ion
ap able
Ġexp os
auf nahme
Ġliber ty
Ġrep air
Ġwish ing
Ġencour agement
Ġinst ability
Ġofficial ly
Ġbegrenz te
Ġfront iers
Ġdispla ced
Ġbomb ard
Ġdiscover ed
Ġrechenschaft spflicht
kÃ¶rper schaften
Ġprede cess
Ġth un
Ġb urg
ar es
ies t
Ġzu zulassen
Ġst range
Ġge zahlt
Ġaus gesch
Ġen rich
Ġpres erving
Ġcomp ut
Ġnational es
Ġgesch wind
Ġbek ommt
Ġform ed
Ġ6 6
Ġakt uell
Ġafr ikas
Ġindivid uellen
Ġpass ion
Ġentscheidung sprozess
Ġfeel ings
zahl ung
Ġprof ile
Ġprof essions
Ġkennt nisse
Ġpet er
Ġvorh ers
Ġorient ation
Ġburden s
Ġbelong ing
Ġradio active
Ġexter ne
Ġklimawand els
Ġpunish ment
Ġbehaupt ung
Ġbroadcast ing
Ġherauss tellen
Ġteleph one
e fe
v iew
Ġ q
Ġa ro
an i
Ġc autious
Ġk illing
ht i
ran che
Ġbericht igungs
gan isation
teil te
Ġem ot
Ġagree ing
Ġru in
Ġans Ã¤tze
Ġencour ages
ĠprÃ¤sidentschaft s
ĠgrundsÃ¤tz liche
Ġet appe
Ġrestrict ing
Ġcondem ning
Ġverurs achten
Ġvorge geben
ĠverÃ¶ffent lichen
Ġplural ismus
Ġdepart ments
Ġaussicht en
Ġundermin ing
aÃŁ nahmen
Ġvorant reiben
) ;
k os
z Ã¤hl
er ven
is a
it Ã¤r
Ġf anden
Ġan h
Ġan ged
Ġi lo
Ġein leit
Ġver dienst
ver treten
Ġaus zur
Ġsu cht
Ġgro wn
Ġwork able
fl ug
Ġfr ontex
Ġzeit ung
Ġko alition
Ġallgemein er
01 7
Ġtag ungen
Ġgener ated
chs eln
ĠbestÃ¤t igung
Ġcypr iot
Ġcontradict ory
Ġumstruktur ierungen
Ġstamm t
Ġries ige
Ġtie fe
Ġfrustr ation
Ġflor enz
Ġfam ous
Ġast on
Ġbehar r
Ġcot ton
ĠgeflÃ¼ gel
Ġt ies
Ġp est
Ġf eder
Ã¼ ge
Ġein ber
um er
Ġge h
beit ritt
Ġcan ada
Ġhand le
Ġeuropa wahlen
Ġfinancial ly
Ġverl Ã¤ss
Ġstruct ured
Ġlandwirtschaft liche
Ġinst ances
Ġtradition elle
por te
Ġtour ist
Ġbeschluss es
Ġausgewogen es
ĠglÃ¼ck lich
af ran
Ġdeterior ation
ĠverlÃ¤ng ern
Ġtac is
Ġextrad ition
Ġbrasil ien
Ġsimult ane
4 7
9 8
d ollar
Ġ Ã¤ng
Ġh Ã¤r
us sten
Ġein setzung
Ġre op
Ġauf gest
Ġvor zug
Ġent kopp
if ul
Ġbes ucht
Ġad here
Ġli z
Ġli qu
Ġla hti
Ġprov es
Ġlie ÃŁ
Ġgu iding
Ġsc and
Ġdat ab
program men
Ġstabil isierungs
ingen ommen
ĠpalÃ¤stinens ern
Ġaufzu fordern
Ġeg al
Ġanaly sen
Ġanp assungen
Ġsusp ension
Ġkomplex en
angehÃ¶r ige
Ġpragmat ic
Ġsech sten
ĠverknÃ¼p ft
Ġhes it
b i
e ut
Ġf ant
Ġbe leid
ic iaries
sch reiben
Ġauf kommen
ĠÃ¼ber blick
Ġcan ce
ans atz
hand eln
Ġfinanz mÃ¤rkte
Ġverein facht
Ġpolitik ern
ac a
Ġbez weif
Ġfind s
Ġliber ale
Ġaufge zeigt
Ġzivil bevÃ¶lkerung
Ġet abl
Ġfacilit ating
Ġelektron ische
Ġdrast ic
Ġbreach es
Ġstraft at
Ġepid em
Ġtelekommun ikations
Ġunverzicht bar
Ġdement sprechend
k nown
v ens
re ct
ro te
Ġan hebung
gen ce
ÃŁ ig
Ġvor zusehen
Ġsch Ã¤tzungen
ĠÃ¼ber sehen
if oris
Ġges unde
Ġinter mod
Ġta ct
ert o
Ġfre ier
Ġpe king
Ġev il
Ġsozial isten
vers icherung
Ġrep lied
spro du
Ġwahr nehmung
Ġdep ut
Ġflug zeuge
Ġauszu arbeiten
Ġsimpl ifying
Ġimpr ison
Ġannoun cement
ĠrÃ¼ ckt
Ġdigital en
Ġpfl anz
Ġstell vertreten
Ġnewspap ers
Ã¤nderungs antrÃ¤ge
Ġgalic ia
Ġdispar ities
Ġcaucas us
n iveaus
Ġw ahre
Ġf eind
Ġc lin
el ho
Ġab bas
Ġsch ande
Ġma ur
Ġinter med
Ġverb Ã¼ndeten
Ġzwischen zeit
Ġgesch Ã¤tz
Ġko dex
Ġens ures
Ġinvest oren
Ġdeut lichen
Ġklar stellung
Ġern Ã¤hrungs
prÃ¼ fung
Ġgemeinschafts haushalt
Ġtrag weite
Ġunver antwort
Ġsto ffen
Ġcentur ies
Ġerr ors
gipf els
ĠeinschrÃ¤n ken
Ġausl Ã¤ndische
ĠverfÃ¼g bar
Ġdoss iers
Ġfruit ful
Ġflugh afen
Ġaudiovis uellen
ĠgrÃ¶ÃŁt enteils
Ġverdeut lichen
Ġgebiets kÃ¶rperschaften
Ġverschl imm
Ġpref erences
u hr
in os
Ġs zen
it a
Ġer l
Ġpro gn
Ġcon ver
Ġpr ud
Ġauf zustellen
Ġauf wand
Ġunter liegt
be am
Ġpre gn
Ġiss uing
Ġeinz ut
Ġmeas ured
Ġpat ri
Ġem bra
Ġverkehr spolitik
Ġlin ke
Ġban king
Ġbi omet
Ġsto od
Ġfrag ile
Ġdifferenz en
Ġfreihandels zone
Ġmic ro
Ġmanoeuv re
Ġcf sp
Ġporn ograph
ie hlt
an bau
Ġv ac
Ġbe m
Ġbe achtet
Ġein halt
Ġr ing
ult ur
ip ulation
Ġout line
Ġnew ly
Ġger ufen
ha ftet
Ġbed acht
Ġide ology
Ġcor n
Ġoffen ce
Ġph asing
Ġwahr haft
Ġloc ated
Ġamb ass
Ġvern unft
Ġsicht weise
Ġsett lements
Ġbig ger
Ġreferend a
Ġzweck mÃ¤ÃŁig
Ġwall is
ĠgrÃ¼ ne
Ġleid et
Ġundermin ed
xic o
ergeb nisse
Ġbesatz ung
Ġartik els
Ġausde hnung
Ġdeem ed
Ġmosc ow
f lieÃŁen
Ġd utz
or gen
Ġh ind
ge gangen
nis tr
hol ung
reg ulierung
Ġident ifying
Ġkos tet
Ġverd Ã¤cht
Ġkar te
Ġzuge geben
Ġadvoc ated
Ġermut igt
Ġattemp ted
Ġpermit s
Ġgleichberecht igung
Ġlength y
Ġclo thing
Ġdisarm ament
Ġinsec urity
Ġingred ients
un dern
it ect
Ġp estic
Ġc urt
Ġg ill
Ġv ierte
Ġein stellen
Ġver ab
Ġer zeugen
Ġas ks
Ġab u
Ġpres erv
Ã¤nder n
Ġnach gewiesen
Ã¶r dern
vor auss
Ġser i
Ġequ itable
Ã¤ÃŁ t
Ġbar ing
Ġeng ere
Ġbro aden
Ġgesam m
Ġcentral ised
Ġvertreten en
Ġdrit ter
Ġgesche hn
ĠentschlieÃŁungsantrag s
Ġbedro hungen
stat ut
of ar
Ġauseinander setzungen
Ġerneuer barer
Ġtransl ated
Ġchap ters
Ġconve y
ĠÃ¼berflÃ¼ss ig
a ug
j Ã¶ste
m akers
Ġp ending
Ġl Ã¤ÃŁt
Ġer it
Ġste he
Ġfre ig
rat ory
Ġnational ity
Ġtransp osed
Ġbedeut end
Ġ6 2
mon th
Ġregel mÃ¤ÃŁigen
Ġkl asse
Ġdep le
Ġfood stuffs
ĠÃ¼berw Ã¤lt
Ġiran ischen
Ġentire ty
Ġgesundheits fÃ¼rsorge
Ġersch wert
Ġchrist mas
Ġbesorgnis erre
Ġvorher igen
Ġcompla int
Ġdestro ying
Ġrechtfert igung
Ġzuver sichtlich
iling ual
Ġarch itect
Ġolymp ischen
Ġkat iforis
Ġatmosph Ã¤re
kÃ¼n fte
g Ã¤ng
i xt
u gend
Ġm Ã¼n
Ġp ull
Ġc attle
Ġto de
Ġi cao
Ġk ok
og ether
Ġversch lossen
Ġappro ving
Ġir r
Ġret ention
Ġverwalt ungen
Ġvorrang igen
Ġdeliver ing
ĠÃ¼bersch reiten
Ġattach es
Ġdikt ator
Ġawa iting
Ġunterscheid ung
Ġbewaff neten
Ġnich ols
re ll
Ġso il
ab st
ck enn
Ġunter lagen
Ġunter richtet
Ġste ad
Ġhier arch
wor ben
bal anced
Ã¶s er
Ġruss ias
Ġconcl udes
Ġorganis ms
Ġopp ression
Ġph thal
Ġarg ued
Ġhandels beziehungen
Ġpoll uter
employ ed
Ġhervorragen d
Ġumweltschutz es
Ġincomp atible
Ġaward ed
ĠrÃ¼st ungs
Ġprogrammp lan
g ent
an agement
Ġun clear
Ġst ufe
Ġauf geben
Ġne o
Ġse lling
Ġsch ro
Ġex isted
Ġunter min
geb iets
Ġfisch fang
Ġmiss ed
Ġoper ates
Ġadmin ister
Ġaufge fÃ¼hrt
Ġkos ov
Ġwissenschaft lich
Ġauftrag s
ĠnÃ¶t igen
Ġreact ions
Ġtouch ed
Ġpostp one
Ġeinseit ige
Ġenthus i
sproble me
Ġzweier lei
Ġabschn itt
ĠzustÃ¤ndigkeits bereich
verh Ã¼tung
y st
Ġe w
Ġto x
Ġand auern
Ġzu geben
Ġes cal
pp i
Ġus er
ater ally
ss ystem
ĠÃ¼ ben
Ġmiss achtung
Ġappropri ately
Ġflexib ler
Ġsinn volle
Ġgal icien
Ġcompens ate
Ġpoten zielle
Ġjetz ige
verfol gung
Ġmix ed
Ġexempt ions
d eter
h Ã¤us
Ġb ans
Ġb ade
Ġp it
ro tz
il ation
ess ourcen
Ġaus setzung
Ġaus reicht
Ġab und
Ġhat zid
Ġint im
Ġbest rebt
Ġchar ged
Ġaccount able
Ġret urning
Ġaussch lieÃŁ
Ġgesellschaft s
Ġgra efe
Ġkompromiss es
Ġhandel te
Ġkons ument
Ġzentral er
Ġstre ets
Ġrelationship s
Ġhop ing
Ġorient ieren
Ġconsolid ated
Ġmitentscheid ungs
Ġbenef iciaries
Ġmissbrauch t
Ġincomp rehensible
endien ste
gro up
w ick
Ġt ensions
Ġg ibr
Ġan lage
Ġk as
st Ã¤r
Ġver haft
Ġver samm
op ol
Ġimp art
ok ol
lo oking
Ġpers ist
Ġdisc rep
Ġview ed
Ġ7 7
Ġ% ,
Ġkind es
Ġadministr ativen
Ġmer its
Ġzivil isten
Ġsafeguard ed
Ġtoler ate
Ġversich ert
Ġcondition al
kamp agnen
Ġpain ful
Ġhosp ital
Ġvoc ational
Ġermitt lungen
Ġwissensbas ierten
Ġharass ment
afran ca
Ġgibr alt
w Ã¼n
it ary
Ġb old
Ġh ith
Ġver lagerung
Ġr ender
Ġab warten
Ġdi lem
wer ken
Ġhuman e
Ġrechts ausschuss
Ġausge gangen
Ġlegal e
ina v
ĠhÃ¶ch ster
Ġmus ter
Ġdemonstr ieren
Ġfinn ische
Ġmedic ine
ĠbÃ¼rokrat ischen
Ġberlin er
Ġras chen
Ġalt ogether
Ġbound aries
Ġbenachteil igt
Ġgesicht spun
Ġreass ure
verhÃ¤lt nisse
ergeb nis
Ġhypoc rit
Ġaufer legt
Ġdecentral ised
Ġverwert ung
Ġhatzid akis
Ġhith erto
a row
f ia
g al
it Ã¤ren
at ibility
Ġm ckenn
Ġv are
Ġver haftet
isch t
Ġer Ã¶ffnung
Ġab treib
Ġse attle
la im
Ġda re
iff ern
Ġgel ang
Ġpriv atis
Ġmult ilingual
Ġamb itionen
Ġeinheit liches
Ġkoh le
sprogram men
Ġempf iehlt
Ġleiden schaft
Ã¶p fung
Ġgenehm igt
Ġwohlstand s
Ġgrav ierende
Ġverwir rung
Ġcert ific
Ġflugg Ã¤ste
Ġtrink wasser
Ġsuic ide
Ġchr isten
Ġwei hn
Ġh ugh
Ġh urr
Ġan ger
Ġbe wohner
Ġz ones
Ġre hn
ge ist
Ġvor ab
la gerungen
ĠÃ¼ber l
Ġhe kt
Ġdar lehen
pr iv
Ġvo ices
ĠstÃ¤r kt
Ġsum men
mÃ¼ d
Ġvern ommen
Ġtier vers
Ġkla usel
Ġpreis stabilitÃ¤t
Ġersch ien
Ġdynam isch
ĠgrÃ¶ÃŁer es
ĠbetrÃ¤cht lich
ĠverschÃ¤r fung
Ġendeavour s
Ġjeopard ise
Ġinstall ations
Ġconcent rated
Ġunderg o
Ġvigil ant
Ġvent ure
ĠbewuÃŁ t
Ġbaron ess
Ġgesamth aus
jÃ¶ste dt
y an
Ġ ul
ed a
Ġre pl
Ġer bringung
de hnen
Ġleg te
ign ation
Ġhand ed
Ġsyste men
les en
Ġbek leid
Ġjahre lang
Ġprom ising
Ġsubsid y
Ġmill iarde
Ġpur vis
Ġerzeug t
bezogen er
ĠverhÃ¤lt nisse
Ġprohib ited
kas us
Ġsenten ced
tran sp
Ġsowjet union
Ġirgendwel che
Ġweltgesundheit s
Ġpreserv ation
Ġh ul
sp lit
Ġor den
Ġcomp lim
Ġins isted
Ġrechts verbind
Ġcountry side
Ġbedeut ender
Ġlegal en
Ġrev id
Ġeinzel ner
Ġregel ungs
Ġfound ing
Ġmehrheit lich
Ġeinheit lich
Ġumfang reich
Ġvertrags verletz
Ġelim ination
Ġausl Ã¤ndischen
Ġcheap er
Ġvertie fen
Ġschattenberichterstatter n
Ġversorgungs sicherheit
Ġziv ile
Ġscar c
Ġwortmeld ung
Ġmisle ading
Ġspl end
Ġdilem ma
9 6
i ably
w Ã¤cht
Ġdem agog
00 7
ard o
Ġimp orte
Ġatt itudes
kun den
Ġhar te
Ġuntersch ieden
att ungen
res olution
Ġfunktion ierenden
Ġforder te
Ġprofit able
Ġmass iv
Ġoptim al
Ġspeed y
Ġca ution
Ġerleicht erung
Ġol iven
Ġkan ada
Ġmitglieds lÃ¤nder
Ġbon n
Ġaktionspl Ã¤ne
ĠverlÃ¤ng ert
Ġauth ors
Ġalex ander
Ġbaring dorf
o ktober
un ken
Ġp ig
Ġan kommt
ess e
Ġse ats
ment ioned
ck ten
Ġhas s
Ġgr as
leich en
Ġgleich es
Ġbeg ann
Ġgu ided
Ġkont ra
Ġausge weit
red ite
man den
Ġnie manden
Ġgesundheit lichen
gleich en
Ġann immt
att form
Ġbl ow
Ġdim ensions
Ġlack s
Ġintens iver
Ġpet ers
bet rag
Ġkompliz ierte
own ers
Ġcomplement ary
Ġirgendw ann
Ġarmuts bekÃ¤mpfung
Ġsenten ces
Ġmig ratory
Ġesc ape
Ġscen ario
ĠsolidaritÃ¤ts fonds
Ġplenar sitzung
k atell
r ent
s werte
at ically
Ġun zufrieden
Ġg reift
Ġto ten
Ġk rimin
Ġk asch
Ġver arbeitung
Ġver hofstadt
ier bar
Ġas iat
Ġsch Ã¼
ĠÃ¼ber legung
Ġent r
Ġmed ina
Ġdemokrat isches
io ts
Ġtrans nistr
Ġfundamental ism
Ġevent uelle
recht liche
Ġdeutlich es
ĠprÃ¼ ft
Ġkoordin iert
ban ken
Ġbehin derung
gesetz ten
Ġfulf illing
Ġinten se
Ġrac ist
Ġprosec ution
Ġinfring ements
ala i
Ġdeliber ate
Ġgenie ÃŁt
jun i
ĠÃ¶konom ischen
Ġerh ielt
Ġcultiv ation
y rom
es co
Ġh ect
st unde
ier ra
Ġaus zuschlieÃŁen
ĠÃ¼ber setzung
Ġuns icher
ste chn
Ġsp ot
Ġdurch bruch
Ġzusammen leben
Ġinform ing
Ġins ofar
fol d
ĠbÃ¼rger rechte
Ġel end
Ġmention ing
rÃ¤ te
Ġern Ã¤hrung
Ġged rÃ¤ngt
Ġemphas ising
Ġexc ise
Ġjud ged
wÃ¼rd ige
Ġbestand s
Ġabzu bauen
Ġnetz es
Ġrent ens
Ġreligi Ã¶se
Ġsurve y
inform ationen
vereinbar ungen
anspruch nahme
Ġforese e
5 7
9 0
b inden
k or
k urs
m ay
p feiler
Ġan c
Ġre ward
Ġst ir
Ġvor bei
her steller
Ġfin ished
Ġwork er
Ġeing liederung
Ġger ichten
Ġeuro control
Ġreal ities
Ġminister in
Ġbew ill
Ġserious ness
Ġvi ability
Ġbel der
Ġdrei ÃŁig
Ġ9 2
Ġpass ive
Ġdest aing
Ġverbind lichen
Ġvorgehen s
Ġhighlight ing
Ġdefend ed
ĠnÃ¼tz liche
spiel en
Ġstatut s
Ġpoln ische
Ġengl ischen
Ġvorg Ã¤nger
Ġguard ian
commer ce
Ġsplend id
Ġt ues
Ġh ed
Ġg m
Ã¤ glich
Ġpro liferation
ver y
th ir
ang el
cc orm
iz en
Ġmo de
Ġvo j
Ġlegisl atur
Ġversch lieÃŁen
Ġlet ters
Ġdefin itionen
Ġschl acht
Ġdim in
Ġbedau ert
Ġformul ierungen
Ġwert vollen
verb Ã¤nde
Ġauszu dehnen
Ġoffens ive
Ġvorbe ugen
Ã¤cht nis
Ġrecord s
Ġstrik ing
Ġelimin ating
Ġprohib ition
ĠgroÃŁart ige
Ġmerkmal e
Ġfolgenabsch Ã¤tzung
Ġaccus ations
Ġtues day
a pril
g h
Ġd il
Ġd alai
Ġt one
in nung
Ġw is
un a
Ġan zusprechen
Ġein he
Ġst ub
Ġge hÃ¶re
Ġcon fined
Ġaus laufen
Ġy ield
ad ays
Ġgen ital
leg isl
Ġnow adays
Ġunder lined
Ġ4 50
Ġakt ions
Ġbel astungen
Ġkl onen
ĠÃ¼ bel
Ġkurz er
Ġrece ives
Ġfehl enden
Ġernst haften
Ġirak ische
Ġerheb ung
Ġdro ught
Ġverletz en
Ġcomplex ity
Ġlearn t
Ġmobil isieren
Ġkrisen management
Ġbeschleun igt
Ġdeliber ations
entwicklungs ziele
invest itionen
Ġtribun al
Ġliqu id
Ġnichols on
Ġausgeweit et
v ir
un ity
Ġc art
Ġg ingen
Ġan fangen
us ter
Ġre is
Ġge orge
Ġat roc
Ġunter worfen
Ġges etzen
od ina
iz ient
Ġind es
fahr er
Ġsta es
Ġgleich wert
Ġange fangen
Ġabst and
hil f
Ġkur den
Ġwahl kampf
Ġcreat ive
Ġjeder mann
Ġdist anz
Ġincor rect
Ġregistr ierung
Ġbuch st
Ġmitglieds lÃ¤ndern
Ġmun icip
Ġprivile ge
ĠschluÃŁ fol
ĠhÃ¤uf iger
Ġlatv ia
gemÃ¤ ÃŁen
diskrimin ierung
katell is
Ġkrimin elle
h ro
u c
Ġs jÃ¶stedt
Ġh Ã¼ter
Ġun m
as ts
ut ors
ĠÃ¼ber r
qu ar
Ġste igt
Ġra p
fl Ã¤chen
ĠÃ¤uÃŁ ert
Ġforsch er
Ġ9 8
unter sch
ĠentschlieÃŁungs entwurf
Ġanalys iert
icien cies
ĠfÃ¼ ÃŁen
Ġdepart ment
Ġradik al
verpflicht ungen
Ġmckenn a
p ra
Ġs ierra
Ġp ushing
Ġo omen
Ġg il
Ġbe fr
um t
Ġme xico
Ġges enkt
her z
Ġsa kha
Ġzeit ungen
Ġorgan s
Ġziel ger
wirtschaft lichen
Ġenergie trÃ¤ger
Ġann a
Ġethn ische
Ġclass es
Ġspread ing
Ġsele ction
Ġdepart ure
Ġphilosoph ie
Ġindones ia
Ġtelekommun ikation
Ġermord et
Ġthr ust
Ġpoul try
Ġreput ation
Ġsakha rov
e ared
o ured
w ett
er og
Ġin tr
Ġz ert
Ã¶ glich
Ġpr erog
Ġma ccorm
Ġber au
Ġste ckt
Ġqu er
Ġwur tz
Ġmar ktor
Ġany way
Ġsozial schutz
Ġsc ott
Ġverantwort lichkeiten
Ġhervor gerufen
Ġcare er
Ġprof ite
Ġsinn voller
Ġunver ein
stell ern
ba rometer
mitglied schaft
Ġraum fahrt
Ġsubstant ive
Ġdisapp eared
Ġanp assen
Ġblick wink
Ġbeam te
Ġimperial ist
ĠlÃ¶ hne
wohn ern
Ġreaff irm
ĠschÃ¶ nen
Ġutter ly
Ġthail and
Ġd ivid
Ġs ends
Ġun mensch
Ã¼ ne
Ġst Ã¼r
th a
ind ed
Ġcommun aut
Ġmon tre
Ġmach te
Ġintegr ations
Ġstra fe
Ġru fe
Ġharmon isieren
wÃ¼rd igen
ĠbÃ¼ hne
Ġsach arow
Ġzuge hÃ¶rt
Ġca pt
Ġniger ian
Ġerwer bst
Ġkonz ert
Ġrela unch
Ġsozio Ã¶konomischen
Ġwyn n
Ġexempl ary
Ġgente chn
Ġadress e
Ġhugh es
h u
p ower
es ische
Ġb and
Ġb are
Ġm eld
te x
Ġbe legt
Ġl kw
Ġvor geb
ant wortet
Ġch ose
Ġmo z
che ll
stÃ¤nd ige
Ġumwelt bel
Ġhaushalts kontroll
ĠgrÃ¶ ÃŁen
Ġel f
gew ichts
ĠfrÃ¼ here
Ġindep end
Ġcy n
Ġvoran bringen
Ġsal afranca
Ġersch weren
Ġbeein druck
Ġempf ind
Ġverwe igern
Ġol ive
Ġbeschleun igung
Ġthemat ic
Ġausged rÃ¼ckt
Ġentsen den
Ġdiplom acy
Ġbath ing
Ġcommunaut aire
w alt
Ġm ndez
Ġh ielt
Ġo ce
Ġre ine
Ġre vers
Ġge leg
ver wendung
Ġvor kehrungen
Ġaus geben
Ġsch u
ste hung
Ġte aching
Ġinc apable
land es
Ã¤l te
Ġmil itÃ¤
Ġdienst ag
Ġemph atically
ĠtÃ¤tigkeit s
Ġoptim ism
Ġrepla cing
Ġdistort ions
Ġvorbehalt los
Ġvigor ously
Ġspieg elt
Ġimpress ive
Ġmerg ers
Ġsupre me
Ġdecoup ling
Ġunwill ing
b ur
ch nung
Ġun kontroll
te uropa
Ġim o
Ġsh ut
Ġra mos
Ġgew alts
Ġro ut
Ġtr ium
art ikel
Ġeing riff
Ġbed anke
Ġsin ken
Ġversch mutz
Ġdist ortion
Ġanzu bieten
Ġfrankreich s
Ã¼t ter
Ġkar l
Ġmobil ise
Ġintensiv ieren
Ġmitte la
Ġfift y
lif e
Ġkorrig iert
Ġentsen dung
Ġpir ker
Ġprompt ly
Ġinjust ice
Ġvare la
o zial
Ġs enden
un er
or a
Ġf law
Ġun us
Ġg ale
Ġbe denkt
Ġle inen
Ġfest legt
Ġconf ine
Ġbegr Ã¼nden
Ġhar sh
ĠrÃ¼ck fÃ¼hrung
Ġdienstleist ung
Ġmut ually
Ġobser ver
mÃ¶glich keit
Ġtim or
Ġcooper ating
Ġfil ms
af ield
schw ung
Ġalleg ations
Ġeingesch lagen
Ġdereg ulation
Ġperpet rat
Ġvit ally
Ġlor ries
Ġgefol gt
ĠtÃ¶ d
d ac
Ġs ene
Ġe ck
Ġg aps
Ġre be
Ġfor ums
lich sten
ct s
ib ed
ah ll
Ġam az
Ġho fft
imm er
Ġmon net
auf sicht
Ġunder way
Ġreal isierung
Ġglobal er
Ġakt iver
Ġinteress anten
Ġeinheit s
Ġrad iation
Ġmenschenrechts lage
Ġgru pp
ĠjÃ¼ng ster
Ġauszu bauen
Ġautomat ic
Ġmultip le
Ġaufru fen
spl Ã¤ne
Ġexek ut
ĠÃ¤rz te
Ġscour ge
Ġeinzut reten
deter mination
Ġvoj v
5 8
k h
u ay
Ġm entions
Ġun ification
Ġn ennt
Ġre imb
Ġal ive
Ġal ert
th ink
Ġma ij
Ġunter m
chen ko
ru ij
Ġbo ats
gend ijk
Ġsom alia
Ġtransport ation
01 8
weg gen
Ġparticip ated
Ġbisher ige
Ġluft raums
Ġgerichts verfahren
Ġshar p
Ġoccup ying
Ġmonop ole
ĠgefÃ¤hrd ung
Ġreiter ated
Ġombud s
Ġineff ective
Ġsell afield
Ġdetaill ierte
ĠschwÃ¤ch sten
Ġniedr iger
Ġgeforder ten
Ġadjour ned
quar ters
l iers
Ġw rote
Ġe go
le uten
Ġr inder
Ġmit ber
Ġvor fall
Ġes kal
Ġex zell
Ġres c
for ward
ot rotz
Ġqu a
Ġalle v
Ġsol v
Ġ5 9
Ġu z
Ġcap abilities
Ġeinzu bringen
ĠverÃ¤nder te
Ġsport ing
Ġbevor zug
Ġmass ac
Ġgrundrechte charta
Ġdescr iption
Ġlaunch ing
Ġverschw unden
Ġstrafrecht lichen
Ġcas aca
Ġrelev ance
ĠvÃ¶ll ige
Ġconstitu ents
i ques
ur ances
Ġein dÃ¤m
il led
Ġwe igh
ier barkeit
Ġnicht stÃ¤ndigen
Ġle one
Ġsch Ã¼tzt
ĠÃ¼ber geben
be g
aus chen
Ġlo ve
ict ions
Ġref rain
Ġja vier
Ġspan iens
maÃŁ nahme
Ġaussch luss
Ġkap azitÃ¤t
prÃ¤ vention
Ġintervention en
Ġstattfinden den
ĠfÃ¤h ig
Ġvieler lei
fun ktion
Ġpreced ence
parl ament
Ġgepl ante
Ġradik alen
Ġtem pt
ĠgÃ¼lt igkeit
back s
Ġcele b
Ġbegeister ung
Ġwurz eln
Ġnichtsdest otrotz
Ġgibralt ar
Ġwis dom
Ġmaccorm ick
3 3
in em
Ġs ab
Ġm ol
Ġan f
Ġz yn
Ġl an
Ġr ande
Ġunter einander
ist ans
her zeg
Ġste cken
Ġgem eldet
Ġpre condition
Ġmar co
Ġmehr erer
Ġdisc our
Ġko hl
Ġange legt
Ġparlaments wahlen
Ġversch iebung
Ġthro w
Ġumwelt verschmutzung
Ġverl iert
Ġstre et
Ġkre is
Ġwhite head
Ġbeiget reten
Ġirgendein e
Ġdrast isch
ĠunnÃ¶t ige
kult ur
Ġkau ppi
Ġschr Ã¶der
Ġimpart ial
Ġvojv odina
men ge
Ġaus gebaut
Ġ1 000
iz es
ak a
Ġvers Ã¶hnung
Ġ7 8
Ġcost ly
Ġbeim essen
Ġentsprechen der
Ġklein ere
Ġcompetit ors
fre chts
Ġcontinu ous
Ġprinzip iell
Ġerk ennbar
Ġbot schaften
Ġdramat isch
Ġalban ian
Ġsil ent
erzeug nissen
Ġvorange kommen
Ġpsych ological
Ġbatter ies
Ġske pt
Ġdisagre ement
Ġstagn ation
Ġinspir ation
Ġbrust krebs
Ġpest iz
b ranche
m ember
Ġe lles
Ġin ne
Ġun tr
Ġmit chell
Ġvon seiten
be wegungen
Ġbes etzt
Ġro y
sicht ig
Ġzwe cken
Ġselbst mord
Ġeuro dac
Ġlie ÃŁen
Ġiniti ate
Ġhal ben
Ġref erenz
Ġwahl periode
Ġoppos ing
Ġjeder zeit
Ġident ical
Ġsitz ungs
Ġshare holders
produ ctive
Ġjustiz iellen
Ġreject s
Ġbeein fl
ule z
Ġjung er
Ġinj ured
Ġzit ieren
Ġbehaupt ungen
ĠgroÃŁzÃ¼g ig
tig l
Ġbanglades h
iein halb
Ġbour langes
Ġschro ed
Ġlegislatur periode
Ġindepend ently
w Ã¤hrungs
Ġt ight
Ġf este
Ġf yrom
Ġl ament
sch m
uss en
und ed
Ġimp unity
Ġintern ally
isen berg
Ġthro wn
Ġverbess erte
Ġvoll ziehen
Ġestablish es
Ġwa ve
Ġfahr plan
Ġcypr iots
Ġyesterday s
Ġmag hre
Ġbom ben
Ġvess el
ĠmaÃŁgeb lich
Ġlift ing
Ġindigen ous
Ġridic ulous
f ive
Ġp lo
Ġbe kennen
Ġl end
Ġde cken
Ġvor anget
Ġwor ry
Ġch ocol
Ġob stru
igh ter
Ġlo ud
Ġstab ile
Ġu pper
Ġpat ente
ĠlÃ¶s ungs
Ġwahr zunehmen
Ġmadam president
Ġair bus
Ġbl ank
Ġrom ano
Ġsk and
Ġgering fÃ¼
Ġjur istische
Ġmist aken
Ġmitte le
Ġheik len
Ġunbest reit
Ġsemin ar
Ġthun fisch
Ġvoranget rieben
f lag
n ot
Ġf ont
ing ly
Ġse uche
me hl
leg ungs
Ġspe kul
Ġtra katellis
Ġhier her
Ġzwe imal
ss ysteme
Ġplan eten
Ġopp ress
Ġmarkt zugang
Ġwahr genommen
Ġentwicklungs fonds
Ġgenau en
Ġsupp liers
Ġaussch reib
Ġschl Ã¼sse
Ġshe ep
Ġglauben s
Ġcapital ist
Ġsimpl er
Ġrund funk
Ġstraight forward
Ġstipul ates
Ġeinspar ungen
Ġkonjunkt ur
Ġpestic ides
Ġscott ish
5 9
b ing
b innen
b ination
Ġp ed
Ġan geschlossen
ic able
Ġpro minent
Ġj ordan
kt iver
ib el
Ġres ume
Ġhuman ressourcen
hÃ¶r igkeit
Ġstabil en
Ġmodern ise
Ġwert papier
chrÃ¤n ken
Ġdemonstr ationen
Ġnachbar lÃ¤ndern
ij s
Ġeinzus chrÃ¤nken
Ġcompla in
Ġbalt ischen
Ġwind ow
Ġdu isenberg
Ġoste uropÃ¤ischen
Ġgewinn t
Ġnuklear en
Ġfan at
Ġconfed eral
k auf
r ann
z onen
Ġt ick
Ġw et
ie ÃŁen
Ġh Ã¶rt
Ġbe weg
am an
Ġge iste
Ġco financing
Ġvor ur
ag ung
Ġcom fort
Ġpos es
che z
Ġmehr mals
Ġro les
Ġop ens
Ġmenschen ver
Ġper mission
Ġwieder auff
Ġganz em
bes te
Ġcontin ually
Ġhaushalts linien
Ġafr ikanische
Ġbu ying
Ġportug als
Ġuner mÃ¼d
ĠerÃ¶r ter
Ġmobil isierung
Ġmanufact ure
Ġadapt ation
lief erung
Ġexceed ed
Ġaktual isierung
Ġjudg ments
Ġconven ience
Ġmex iko
ĠprÃ¤zedenz fall
Ġintim id
g ieb
k Ã¤mp
m inded
Ġun ite
Ġver mehr
il iste
Ġwe ichen
de ckung
Ġaus weg
Ġdo yle
ann ock
Ġsp ons
Ġra uch
Ġzusammen gef
Ġinternational es
Ġbas ken
Ġeuro barometer
Ġspec ify
Ġfundamental ismus
Ġdort hin
Ġaussch lieÃŁen
Ġumfassen des
Ġdokument s
Ġmaintain s
Ġbulgar iens
Ġjun iliste
Ġine x
Ġunz Ã¤hl
Ġtaus end
Ġfreund schaft
Ġobligator ische
Ġassum ption
Ġverwend eten
Ġmaghre b
Ġbe ige
sch icht
Ġaus macht
Ġab du
Ġab gebaut
Ġab gedeckt
Ġent stehung
Ġsp iele
Ġro card
Ġdec ommission
Ġnow here
Ġbereit gestellten
Ġstra frechts
Ġsolidar isch
Ġabs ent
Ġbl oc
Ġjahres ende
ifiz iert
Ġinst abilitÃ¤t
Ġbur undi
Ġaufzu heben
Ġmultilateral e
Ġerfordern is
Ġproportion ality
Ġhalb jahr
Ġobjekt ive
Ġentschuld igung
Ġpas sport
Ġtank ers
ĠzugestÃ¤nd nisse
j ekten
u pp
w urf
Ġin anspruchnahme
Ġo t
Ġc row
Ġg h
ur m
Ġl om
Ġver sehen
ste ten
Ġwor sen
Ġwar nen
ru f
Ġgrund recht
Ġmark ov
Ġgeb hardt
Ġtransp orted
Ġport o
Ġplan en
Ġwirksam es
Ġvolks republik
Ġdiscrimin atory
Ġengagement s
Ġoperation en
Ġcomply ing
Ġbeabsicht igen
Ġmart nez
Ġkommissionsvorschlag s
Ġhoff nungs
Ġstrukture lle
Ġverpack ungs
Ġdismant ling
ĠÃ¼berr asch
Ġgale ote
g Ã¼ter
r al
Ġs ten
or ben
Ġh Ã¤ft
Ġun h
Ġun esco
ar g
Ġer denk
Ġle uten
Ġab sche
Ġse ason
ag ers
Ġbes etzten
Ġper u
Ġvie h
pro zent
Ġable hnt
ator ies
Ġvis its
Ġident ification
produ kten
Ġdeep er
Ġmoral ischen
Ġzusatz frage
Ġkopenhagen er
Ġmurder ed
Ġmig ulez
Ġliv el
Ġpassag iere
ĠÃ¤ng ste
s ighted
Ġun ru
ff ekt
Ġvor fÃ¤lle
la ÃŁ
Ġber s
Ġsp rich
Ġrat stagung
Ġsa cc
Ġdurch fÃ¼hr
Ġfe ll
Ġprodu ces
Ġtr ig
Ġgeb oren
Ġsec ured
omp ass
ĠerwÃ¤ hnung
Ġmod es
Ġrequest ing
Ġcirc le
ĠzusÃ¤tz licher
Ġbevor stehende
Ġdig it
Ġbarr ier
ĠzurÃ¼ckge gangen
ĠbÃ¼rgerbeauftrag te
ierend es
ĠzÃ¶ gern
Ġangestreb ten
intens ive
Ġmontre al
4 2
a ffung
u a
Ġe chter
Ġe ef
Ġf eld
Ã¼ cht
ul den
Ġma at
la gt
Ġsp ine
Ġro aming
Ġtr ennen
ĠbÃ¼rger lichen
Ġconf used
Ġlie fert
Ġprocess ed
Ġausge legt
reit er
Ġoffen er
Ġadv ise
Ġvergangen e
fre ien
wÃ¼r fe
02 6
Ġhandeln s
Ġdiskrimin iert
Ġnormal e
Ġtim ing
Ġersch reck
Ġdre w
Ġprefer ential
Ġbenef ited
Ġgrav ierenden
Ġwirtschaftlich em
Ġwiederher zustellen
ĠgefÃ¤ng nissen
Ġeinher gehen
Ġgol den
Ġunreal istic
Ġbeton ung
Ġredis trib
Ġchocol ate
Ġun ch
Ġbe denk
Ġto bin
Ġzu fall
Ġr hus
etz te
me ll
Ġstat istischen
Ġfa va
Ġjahr estag
Ġeuropa abgeordneten
Ġhow itt
tra de
Ġru led
Ġpun ished
Ġblo ÃŁe
kraft wagen
Ġfrem d
Ġbir d
Ġverwe hrt
Ġletzter e
Ġkorre kte
Ġmos kau
Ġmeeres umwelt
Ġquo ted
Ġcau dr
Ġkab ul
Ġanreg ungen
krank heiten
Ġvel zen
Ġsloven ia
Ġwiederverein igung
Ġross a
Ġimprison ed
Ġmitber aten
c lass
o ure
Ġb at
Ġc s
Ġun bek
Ġan nehmbar
Ġco ins
Ġab fÃ¤llen
Ġsp okes
Ġho tel
Ġsa at
Ġup held
Ġla gendijk
Ġsecur ities
ys sen
ret ion
Ġgesetz liche
Ġstar ts
Ġocc urs
Ġbl ue
Ġdest ination
Ġerheb t
verb indungen
Ġkom bination
Ġthreat ens
Ġkern waffen
Ġbra in
Ġgek Ã¤mpft
Ġsystemat ische
Ġkonkret es
Ġprefer able
Ġanz usehen
Ġgenere llen
Ġdopp elte
ĠnÃ¤chst es
Ġafford able
Ġkonz erne
Ġdepl ore
Ġdrittstaats angehÃ¶rigen
Ġdol met
Ġzwing end
Ġb lie
Ġp flege
Ġin fol
Ġc un
Ġbe ides
Ġr ice
Ġne p
be y
Ġhat red
ens ur
Ġfre is
gan i
lement e
tel n
Ġrechts akte
Ġbeg leit
Ġpolitik bereichen
Ġrest oring
Ġport fol
ĠÃ¤uÃŁ erung
Ġcre w
Ġsuccess ive
Ġbenefit ing
ged essen
Ġstrong est
ĠbÃ¼ ros
europ Ã¤
Ġblock ed
Ġoccup ational
Ġeinwander ern
pak ets
Ġsched ule
Ġstell end
Ġdenk bar
Ġeinla dung
Ġmodal itÃ¤ten
Ġnett o
Ġaufgest ockt
Ġinfol gedessen
d ed
i qu
t im
re ut
Ġh ans
Ġun verstÃ¤ndlich
Ġbe laufen
om eter
el fen
ge halt
Ġer worben
Ġge iÃŁ
Ġge ared
Ġvor nehmlich
Ġverb ots
Ġhand werk
Ġinv al
wend ungen
Ġselbst verstÃ¤nd
Ġrahmen programms
Ġvers Ã¤umt
Ġzust immt
br Ã¼
rÃ¤ umen
riminal itÃ¤t
Ġsett le
Ġsett led
Ġprofit iert
Ġfamilien zusammen
Ġstandard isation
ash mir
Ġlam ass
Ġveh ement
Ġkre uz
Ġunbe fried
Ġsla very
Ġinsp ired
Ġacknowled ges
Ġwelthand el
Ġindones ien
Ġtuber kul
Ġbefind lichen
Ġlett land
ruij ten
d el
Ġs em
Ġin ability
Ġun contro
Ġex agger
Ġdar zulegen
pt on
Ġtr ich
vers orgungs
Ġakt ien
Ġfun ktionen
Ġactiv ists
Ġeinw and
Ġcoordin ator
Ġhinzu ge
Ġverbunden e
Ġeinsatz es
Ġexerc ised
Ã¶m m
beauftrag ten
Ġbeunruh igend
ĠverfÃ¼g barkeit
Ġgesp annt
Ġdistin ct
Ġrela x
Ġpurch ase
terror ism
Ġclub s
Ġnachvoll ziehen
Ġanx ious
ĠglÃ¼ckwÃ¼n sche
Ġgetrenn te
Ġsekret ariat
Ġanh Ã¤nger
Ġmunicip al
Ġgeleg entlich
Ġsene gal
Ġf lying
id al
ort ions
Ġde ll
Ġab seh
Ġex emp
ord nen
zu fÃ¼gen
ap ital
Ġmach e
Ġeinz iger
Ġlegisl ate
ĠerklÃ¤r ten
Ġmil est
Ġlebens wicht
Ġbor rell
Ġlif ted
Ġkomprom iÃŁ
Ġdim as
Ġsicherheits maÃŁnahmen
Ġindic ative
Ġenorm ously
Ġbol iv
Ġsensib ilitÃ¤t
Ġabgest imm
Ġries igen
Ġgerichte ten
Ġsamm eln
Ã¼ste t
Ġvigor ous
Ġentrepreneurs hip
Ġmittela usst
Ġcaudr on
5 6
k k
r ige
u ungs
in ken
Ġthe or
Ġk ashmir
Ġas certain
Ġaus zusprechen
Ġle ichte
be wirtschaftung
beit ritts
Ġad ds
Ġdire ktor
Ġass ent
Ġtechn iques
Ġvoll stre
Ġhar ten
Ġverw altet
Ġwert voll
ift ung
Ġrepe ating
Ġlog isch
Ġerschein ung
Ġakte ur
Ġfreiwill ig
Ġdiss ident
Ġlic ens
Ġausgang s
Ġroth ley
Ġcert ification
Ġschwerwiegen de
Ġunamb iguous
Ġorte ga
grem ien
Ġsuspic ion
Ġnavig ation
Ġscarc ely
tigl ione
Ġschroed ter
Ġtuberkul ose
3 4
d at
m aterial
Ġbe lo
el ter
Ġl ichte
Ġeu rom
Ġas ean
Ġaus w
pp Ã¤nen
Ġdurch d
Ġgew erb
Ġsol le
Ġins ol
ĠÃ¶ st
hn ten
Ġko ex
Ġindustr iel
Ġzweit es
Ġ6 1
Ġcolle cted
Ġ9 9
Ġdef iciencies
Ġret ail
schein lich
Ġsur face
Ġvertra ulich
Ġvern ichtung
Ġexport ieren
Ġintens iven
Ġmass iven
Ġchem ische
Ġwaffen still
Ġsepar ately
Ġlimit ations
av an
Ġklima Ã¤nderung
Ġprotest ieren
ĠzurÃ¼ckzu ziehen
Ġqualifiz ierten
Ġverh elfen
Ġenvis age
Ġgeleiste ten
Ġbefried igung
Ġausb reitung
Ġhochrang igen
Ġperce ived
Ġexpos ure
Ġperpetrat ors
Ġt Ã¤us
Ġa y
Ġg sp
Ġein fl
Ġver Ã¼bt
Ġau ÃŁ
Ġr Ã¶m
il ung
Ġst up
Ġfor cing
Ġer mittlung
ver l
Ġes te
Ġen qu
Ġum zu
sen den
our ce
Ġla uten
Ġpoint less
gesch lagen
ac kt
Ġreason ably
spra ktiken
Ġresolution en
Ġbef Ã¶rderung
Ġback wards
Ġkle ines
Ġsing ap
Ġ13 0
Ġexpect ing
Ġkraft stoff
Ġmenschenrechts konvention
kr ie
Ġoffens icht
Ġty rann
Ġbesuch er
wass ers
Ġbeig emessen
Ġtaus enden
Ġzer split
Ġchines ische
agentur en
Ġmedikament en
Ġdiox ide
Ġbetrugs bekÃ¤mpfung
Ġverbleiben den
ĠkÃ¤ me
Ġbenchmar king
Ġangere gt
Ġkonsument en
d ialog
v able
Ġe at
Ġf ly
Ġo wing
Ã¤ le
der e
il ings
Ġst if
Ġauf tritt
Ġaus nah
Ġdem selben
Ġunter zogen
ens ive
Ġger Ã¤te
fer red
Ġlo ts
Ġtreat ing
reichen de
Ġglobal ised
Ġ6 4
ĠzurÃ¼ck ziehen
Ġless er
Ġbl at
Ġsei ze
Ġunver Ã¤ndert
Ġbank rupt
Ġsus pected
proble matik
Ġapprec iated
Ġbran chen
Ġdomin ant
Ġstrafrecht liche
Ġgewaltt Ã¤t
Ġdesper ate
Ġimbal ance
Ġfoss il
analy se
Ġantis emit
Ġtrig ger
5 4
f o
n Ã¤ck
Ġw agen
Ġre cess
icht linie
Ã¼r t
Ġge fÃ¼hrten
Ġvor gang
Ġvor dring
Ġle on
Ġmr c
ord net
Ġpl enty
Ġsel ben
Ġsozial partnern
Ġpers istent
Ġlegisl ators
Ġide ologie
grund satz
Ġeinsch lieÃŁt
akt hro
Ġbre akthro
Ġrecommend s
Ã¼rz ung
Ġansch lag
lies t
Ġgeschlossen en
instrument s
Ġverm ag
Ġkompliz ierter
ĠgenÃ¼ gen
Ġausl Ã¶sen
Ġsubmit ting
Ġhart nÃ¤ck
Ġepid emic
Ġscandal ous
Ġinher ent
tegr ation
Ġdisproportion ate
Ġsack g
Ġkasch mir
Ġbreakthro ugh
Ġd rag
Ġa then
Ġthe ato
Ġf Ã¤rm
ut ze
Ġr Ã¤umen
ort s
Ġverb reiten
Ġper ry
Ġsome where
Ġeing en
Ġreform iert
wirk sam
Ġeur lings
Ġindustrial ised
Ġignor ing
Ġterritorial e
spiel raum
Ġmotiv ated
ĠgrÃ¶n er
Ġspekt rum
Ġherbe if
Ġblickwink el
Ġmitberaten den
u ck
Ġund en
st unden
Ġl yn
ess ing
Ġvor reiter
Ã¼ber wach
ĠÃ¼ber arbeitet
Ġent h
Ġme ist
Ã¶r p
Ġzw ingt
ub l
Ġgew er
Ġtranspar enten
Ġ6 7
Ġ7 3
Ġconv ictions
Ġune x
Ġprim Ã¤r
Ġdivers ifizierung
Ġempf unden
Ġtyp ical
Ġerd be
Ġbein ahe
Ġillustr ates
Ġengl isch
Ġumweltver trÃ¤glich
ĠprÃ¤sidentschafts wahlen
a bend
t os
Ġth yssen
it is
ie th
ie bs
Ġun ice
Ġun lik
Ġv ide
Ġpres um
her ein
Ġra uchen
Ġsa p
Ġrest ra
par ts
Ġ8 8
Ġfore casts
Ġ9 3
ath ers
Ġsicherheits standards
will igen
Ġblock ieren
Ġrepla cement
Ġgain s
Ġschulden er
Ġarch ite
Ã¤h ern
Ġverbrech er
Ġumweltsch Ã¤den
Ġetikett ierung
Ġnut rition
bedÃ¼r ft
Ġgetre ide
Ġpotenzie ll
Ġgeschehn isse
Ġvertragsverletz ungsverfahren
Ġreimb urs
Ġunlik ely
Ġd read
Ġp ausch
Ġf ill
Ġv ater
Ġi z
Ġein s
Ġl ived
Ġwe ib
Ġvor igen
Ġle ug
Ġum stand
ges ucht
Ġbericht erstattung
Ġbet ragen
Ġzusammen bruch
olog ischen
Ġ8 6
rÃ¤ gen
Ġanerk annten
Ġverd acht
Ġbil der
ibe iro
Ġblock s
Ġincorpor ating
Ġentl ast
lit ten
Ġkrie ge
Ġschreck liche
Ġleban ese
ĠsÃ¼den s
Ġpartial ly
Ġeingest uft
Ġelektriz itÃ¤ts
Ġfont aine
Ġlivel ihood
Ġfamilienzusammen fÃ¼hrung
Ġkoex istenz
w as
z Ã¤hlt
Ġo z
Ġc er
Ġun condition
Ġl ulling
sch ungen
ct ure
Ġco elho
Ġaus gere
Ġum hin
Ġent lassen
Ġdar k
Ġvorsch rift
Ġhis bollah
staat liche
Ġben ennen
Ġged Ã¤chtnis
Ġkom bin
Ġdiv isions
Ġvergleich bar
Ġalloc ate
Ġoptim istisch
zust and
Ġwarm ing
Ġproportion ate
Ġbrut to
Ġverantwortungs volle
Ġdopp elten
region al
Ã¼berein kommens
Ġanticip ated
Ġparam eters
Ġkooperations abkommen
Ġkontinuier lich
Ġforst wirtschaft
Ġsqu are
Ġmacro economic
ĠunzulÃ¤nglich keiten
Ġalp en
Ġsmugg ling
Ġnichte in
Ġhekt ar
Ġmittelausst attung
Ġsackg asse
Ġc app
Ġl ig
Ġaus fallen
Ġsch okol
all er
lin ary
Ġhand ic
Ġla den
Ġtr ialog
Ġger Ã¼ckt
Ġbas k
Ġange geben
Ġleben d
Ġrep atri
Ġkosten gÃ¼nst
drÃ¼ck en
Ġamb igu
Ġformul ate
ote chnolog
Ġhinzu zufÃ¼gen
Ġuner wÃ¼n
Ġoptim ismus
Ġjem anden
Ġdramat ische
Ġprosper ous
Ġpetitions ausschusses
Ġadapt ing
bas is
Ġprozent satz
Ġkir che
ĠprÃ¤sent iert
Ġundermin es
opoul os
Ġunjust ified
Ġinflu enz
Ġslowen ien
Ġbefre ien
Ġungew iss
Ġstaatsanwal tschaft
Ġstup id
5 3
a al
o a
Ġt iss
in et
ch ina
Ġs ars
Ġp feil
Ġf ischen
Ġun Ã¼ber
Ġun iver
Ġbe geben
Ġl Ã¼cke
ut able
Ġge ar
ĠÃ¼ber ze
ien ces
Ġparlament sprÃ¤sident
Ġgem Ã¼
Ġmo thers
Ġter med
Ġmin es
Ġunder lines
oun ted
min en
Ġdet ained
Ġnor way
Ġ7 1
Ġsupp lied
Ġbre m
Ġexpect s
Ġinst anz
Ġansch uld
ĠausfÃ¼hr lichen
bet rieben
zug leichen
Ġson n
ĠfÃ¼ lle
Ġconduct ing
Ġsonst igen
Ġabol ishing
ĠrÃ¼ big
Ġkommer zielle
Ġnachvoll zieh
sah ara
Ġministr y
Ġsacc oni
9 3
t Ã¼r
Ġd g
Ġt annock
Ġzu gewiesen
Ġst ore
Ġauf bringen
Ġj an
Ġde ck
Ġab gel
Ġsu it
Ġsu ited
ag ten
Ġman cher
Ġdeb ts
Ġdisc retion
Ġstrateg ischer
okrat ischen
ma ils
Ġafter wards
Ġ8 2
Ġ9 4
Ġread mission
Ġfinal ised
Ġeth ics
Ġconsult ing
Ġproceed ing
Ġsal v
Ġzufrieden heit
Ġdiplomat ie
Ġbom bs
ĠgebÃ¼hr end
Ġanb ieter
bil anz
Ġobligator ischen
Ġaqu ak
Ġaqu ac
ĠvernachlÃ¤ss igt
schiff e
Ġkuban ischen
ĠverhÃ¤ltnismÃ¤ÃŁ igkeit
dim ension
Ġbekund et
Ġrecruit ment
Ġbeeinfl usst
Ġuniver se
u el
an trÃ¤gen
Ġun gewÃ¶hn
ro b
le bt
Ġi w
Ġein sicht
Ġver hÃ¤ngen
Ġver gewalt
sch lieÃŁ
Ġst ufen
Ġal ike
ach ts
Ġvor kommen
tr u
Ġat omen
Ġman ipulation
Ġacc umul
Ġass et
Ġsel ts
Ġange gangen
Ġrecht licher
Ġequ ipped
Ġkr is
Ġverbrauch s
Ġear liest
gew innen
ĠrÃ¼ck stand
Ġenc ompass
Ġvis um
ĠunabhÃ¤ng iger
Ġdiskut ierten
02 7
ĠbrÃ¼ssel er
gesetz e
iede te
Ġatom ic
kar te
Ġrecip roc
Ġumwel tz
Ġerad icate
Ġsied lungen
Ġzeich net
mach ung
Ġverursacher prinzip
Ġmoz amb
Ġunh cr
Ġlamass oure
Ġausnah ms
Ġs ick
ach s
ant ini
ug gel
Ġcomp atibility
Ġpre t
Ġcour ses
Ġdan kes
Ġgesch m
Ġprote in
Ġfar mer
Ġrev ise
Ġexerc ising
Ġvorhanden e
Ġergriffen en
Ġlib ya
Ġneues ten
Ġunzureich ende
fa ktor
Ġwarn ings
Ġzahlungs ermÃ¤chtigungen
Ġdup uis
stud ie
Ġargent in
Ġdefe at
mun ia
Ġtagt Ã¤glich
Ġdamal igen
Ġgall ery
Ġkid napp
Ġhypocrit ical
Ġgesamthaus halts
Ġweltgesundheits organisation
Ġdigit ale
r ass
Ġv ierten
ll ers
st Ã¼tz
em bar
Ġl amped
sch we
Ġr ibeiro
il aterally
Ġer litten
Ġvor zÃ¼ge
Ã¼ber trag
Ġsch icken
iv able
igen der
Ġinter con
Ġho ll
Ġop ted
Ġsicher stellung
Ġmin ing
Ġhum il
chn ungen
Ġzeit lich
Ġgleich zeit
Ġaut ob
ĠbÃ¼rger krieg
ack en
Ġbudget ing
Ġgest ure
Ġumwelt ausschuss
Ġfort gefÃ¼hrt
Ġpress ures
Ġmiss er
Ġpersonen verkehr
gere cht
rahmen richtlinie
Ġgering sten
Ġniemand em
Ġrig our
Ġgross ette
Ġgeziel t
Ġflugg ast
Ġents orgung
ĠankÃ¼nd igung
Ġpron oun
Ġrepl ies
k ins
Ġp atter
Ġun fÃ¤llen
Ġcon tempt
Ġaus kunft
sp osition
Ġreg ieren
ist isches
ue ired
Ġste uerung
pr ess
Ġmar ri
Ġdec ides
Ġsozial istische
Ġfl ut
Ġdeut lichkeit
Ġcompet ing
Ġliberal ising
hÃ¤lt nismÃ¤ÃŁ
Ġans Ã¤ss
Ġindivid uelle
Ġhinaus geht
Ġelement en
Ġunver hÃ¤ltnismÃ¤ÃŁ
Ġansatz es
Ġwest sahara
Ġce ilings
Ġsal ary
Ġtransfer ring
Ġflag ge
Ġwitness ing
Ġcontradict ions
Ġdispla y
Ġeuropar ates
Ġermord ung
hel fen
Ġunres erved
Ġverlag ern
Ġneol iber
bud get
Ġjack son
Ġtrich et
k enn
x id
z enten
Ġc up
ro gen
de ck
Ġge grÃ¼ndet
Ġle b
we hr
Ġdo ll
ran ten
Ġste u
Ġbut ter
Ġli able
Ġover view
Ġsec ular
itz ung
politik en
Ġru ft
Ġschwier igkeit
Ġfood s
Ġvis itors
Ġbesser er
gel d
Ġbre eding
Ġhistor ischer
Ġ14 08
Ġverabsch iedete
bet re
Ġirgend wo
Ġdramat ically
Ġtrial s
Ġunzul Ã¤ss
Ġsn chez
Ġnan otechnolog
Ġpornograph y
Ġdeple ted
Ġeingen ommen
0 9
b ill
en cies
Ġe ve
Ġun ber
Ġun ein
Ġco w
Ġnot ification
ĠeuropÃ¤ ischem
ac ity
Ġeinge leiteten
Ġfort gesch
Ġhaushalts disziplin
kon zentr
Ġrest ored
Ġnor wegen
Ġgerade zu
Ġverkehr ssicherheit
Ġplen ars
Ġmensch lichkeit
ĠpersÃ¶n lichkeiten
the ws
Ġchrist lichen
ĠrumÃ¤n ischen
Ġprotest s
Ġmos amb
Ġdomin ated
Ġverfe chter
Ġhinzuge fÃ¼gt
Ġatomen ergie
a ur
m ot
Ġd ach
Ġd ying
Ġd uly
Ġa leg
is ierungen
Ġn ass
am a
Ġzu hÃ¶ren
Ġwir tschaften
Ġno bel
Ġmit wirken
Ġse ppÃ¤nen
pr ang
Ġwo von
Ġins ult
fr isten
Ġemp finden
Ġlaw making
Ġtun e
Ġgut achten
Ġdra ma
Ġfisch ern
Ġgesetz lich
Ġ8 9
Ġprevent s
Ġharmon isiert
Ġdort igen
Ġaufge geben
Ġsicherheits rates
Ġnah er
Ġsov iel
ĠauÃŁerordent liche
ĠÃ¶kolog isch
Ġgain ing
Ġfactor ies
Ġquar ters
Ġdopp elt
Ġschad et
Ġcalcul ated
Ġath ens
Ġkompon ente
Ġbefrei ung
sprodu kt
Ġkontra produ
Ġaquak ultur
Ġaquac ulture
r in
ll o
ra el
Ġwe b
Ġaus wirkung
Ġen l
Ġch ances
con s
Ġmehr sprach
Ġout rage
Ġro ten
Ġtra ined
yste men
fahr zeuge
Ġass urances
olog ische
Ġverantwort lichkeit
Ġpeace keeping
Ġdienst es
Ġplen art
miss brauch
Ġnord ic
Ġverhe eren
Ġevalu ating
Ġerkennt nis
Ġvacc ines
Ġfortz u
ĠbegÃ¼nst igt
Ġanticip ate
Ġherangehen sweise
Ġdereg ulierung
Ġredund ancies
ĠlÃ¤ng ere
ĠgewÃ¶hn lich
Ġbeaut iful
Ġlamped usa
Ġaleg re
m strÃ¶m
ier er
Ġab halten
Ġab wesen
aus bildung
Ġstr iving
Ġdur ation
Ġclear ing
Ġover r
Ġschw Ã¤che
Ġ9 1
Ġextrem ists
Ġcomple ting
Ġvertra ue
Ġeth ische
ĠgrundsÃ¤tz lichen
Ġangem erkt
Ġwissenschaft licher
Ġvorauss ichtlich
ĠmilitÃ¤r ischer
Ġhear ings
uft fahrt
rahmen s
Ġdemonst ranten
Ġbill ions
Ġinvestig ated
Ġauseinander setzen
Ġham pton
Ġerf assung
ĠhÃ¤n gen
Ġsele cted
Ġunk nown
kons um
Ġbiokraft stoffe
Ġmisstra uen
Ġwettbewerbsverzerr ungen
beschrÃ¤n kungen
ĠschluÃŁfol gerungen
Ġsonn tag
Ġfortgesch ritten
u ro
Ġre b
ge fÃ¼hl
Ġwh e
Ġaus lieferung
th y
aus chs
Ġrat io
Ġacc eding
int rodu
Ġass ass
Ġass umed
Ġko hlen
Ġrechts wid
Ġbeg leiten
Ġtur mes
zeich nungen
Ġmor gan
Ġframe works
Ġlebens standard
Ġregel mÃ¤ÃŁige
dr Ã¼ckt
Ġmiss verstÃ¤nd
Ġstud ied
Ġinnov ativen
Ġtrag ische
mat thews
seit e
Ġtradition ally
Ġexcl uding
part y
Ġsuggest ing
Ġauszu weiten
Ġverhe erenden
Ġhom ogen
Ġcharak ters
Ġbreak down
Ġdub ious
ĠprÃ¤sent ieren
Ġkriegs verb
ĠkÃ¼nst ler
ĠgroÃŁart igen
Ġkonzep ts
Ġreaff ir
Ġnegle cted
ĠparitÃ¤t ischen
gesprÃ¤ che
Ġreflex ion
Ġmusl ims
a cted
k el
l or
z Ã¤hlen
Ġw em
re cy
Ġf iori
Ġn uts
Ġz iffern
ein spar
ver trÃ¤gen
Ġent ity
Ġhe gen
Ġhe uche
Ġta ught
Ġpe ijs
Ġcont ents
Ġzeit weil
Ġgesch ickt
Ġbeg n
Ġsec recy
Ġze llen
Ġval le
Ġwohl haben
Ġfisher y
Ġschluss abstimmung
Ġhead quarters
ĠfÃ¼nf tens
Ġernst es
Ġhistor isch
Ġturn s
Ġkommun al
Ġgesundheits versorgung
Ġcross ing
Ġfranz osen
Ġkulture ller
Ġexpla ining
Ġdead lock
Ġober sten
Ġfried lich
Ġtit ley
own ed
Ġdefinit iv
Ġmigr ant
Ġcat ches
ĠenttÃ¤usch end
ĠwidersprÃ¼ che
Ġdistingu ished
Ġaufru f
aspe kte
Ġmemor and
Ġausschlaggeben d
nord ic
Ġdeput y
Ġexekut iv
Ġabwesen heit
5 2
f utter
n etzen
Ġk lage
Ġver voll
ol es
Ã¶ ÃŁt
ver lagerungen
ach es
Ġvor wÃ¤rts
Ġaus wirkt
utz er
auf gabe
Ġgeb ur
Ġfact ory
Ġschw achen
Ġvers agt
Ġvers agen
gesch ichte
Ġqual ifikationen
Ġzahl ung
Ġem b
Ġliberal ised
Ġbel asten
Ġunderstand s
Ġabsol uten
Ġspecial ist
Ġhinter lassen
Ġsever ely
strateg ien
Ġhumanit Ã¤rer
Ġpet itionen
Ġanalys ed
stra fen
Ġausgewogen er
Ġcounter parts
ĠgewÃ¼n schten
Ġcount less
Ġvorn herein
ĠschÃ¤d lich
Ġpush ed
Ġprevail ing
Ġdeploy ed
Ġillness es
Ġembryon ic
Ġcornerst one
Ġmeilen stein
Ġtrium ph
n oten
Ġa ce
is c
Ġe igh
ol ig
ain t
ger Ã¤te
oc ation
Ġsit t
Ġeing ang
Ġgeb urt
Ġ3 50
gesch wind
Ġref unds
Ġumwelt bereich
Ġhaushalts vor
Ġallow ances
Ġbel astet
Ġprakt iziert
Ġdist ant
Ġrad ically
Ġerheb licher
Ġwert schÃ¤tzung
Ġpersonal ity
Ġurspr ung
Ġblock ing
Ġkar aman
Ġforschungs rahmenprogramm
Ġadvoc ating
Ġbedeutsam e
Ġintoler ance
Ġalters versorgung
Ġschlicht weg
ĠschÃ¶ ne
Ġkore an
garant ien
h ic
i ating
n els
s werten
Ġbe lÃ¤uft
st immen
ten ds
Ġer bes
we iÃŁ
Ġum sch
Ġme ere
Ġda ul
Ġte uf
ok ed
Ġtra ins
ak ter
enz in
Ġfest stellungen
Ġover se
Ġreal isieren
Ġhal be
Ġgest Ã¼tzt
Ġzun immt
spro zeÃŁ
Ġ7 6
Ġgar gani
Ġav ian
Ġocc urr
zÃ¼ gen
Ġhoch wasser
ĠfÃ¼nf zig
Ġkommun istische
Ġmitt ag
Ġkonsequ ente
Ġclaim ing
Ġevalu ated
Ġschlimm ste
Ġvirt ue
orient ed
Ġerwer b
Ġmotiv ation
bem Ã¼
Ġconfron ted
kommiss ar
Ġmarktor ganisation
Ġs le
ar ab
Ġre pro
Ġwe is
Ġpar amil
Ġent fallen
Ġpol iz
Ġste pped
Ġad m
Ġmy th
Ġbelie b
Ġgleich stellungs
fin de
Ġrechts ausschusses
Ġserv ants
io xid
wort hy
Ġliber ia
Ġke ys
Ġverbrauch ers
Ġoper ative
Ġverfol gten
Ġpersonen bezogener
Ġafghan ischen
dom in
Ġsepar at
Ġgegenseit igkeit
Ġdict ator
Ġconfirm ation
ĠkohÃ¤r ente
Ġintensiv ierung
Ġhonest y
Ġeinseit igen
ĠstabilitÃ¤tspakt s
ĠspÃ¼r bar
Ġdeploy ment
Ġschwerwiegen den
Ġjudg ement
fir st
Ġerstre ckt
ĠrÃ¼cksch ritt
ueired o
h oc
p oints
Ġb licken
Ġh imm
Ġv en
Ġn istic
Ġst ret
ver gabe
Ġle hre
Ġsch um
aus wirkungen
arbeit ete
Ġper ception
Ġpl Ã¤nen
Ġform ation
Ġrest oration
Ġitalien s
Ġirgend wie
Ġbot schafter
ij an
Ġank lage
Ġberat ungs
Ġdiss emin
partner schaft
Ġillustr ate
Ġkir chen
Ġincred ible
Ġchamp ions
Ġveget able
erba id
Ġwol f
Ġinfluenz a
Ġheuche lei
Ġth ors
Ġe cht
Ġn enne
Ã¤ he
Ġver gn
ab fÃ¤lle
Ġfr on
erg em
Ġabsch luÃŁ
par teien
Ġdel ors
Ġ8 7
Ġwettbewerbs bedingungen
Ġ10 3
Ġerach tet
Ġdring enden
Ġnachhalt iger
ĠerÃ¶r terung
Ġzerst Ã¶r
Ġlag ging
Ġnachteil ig
ĠbegÃ¼nst igten
Ġlehr er
Ġdog mat
Ġexplos ion
Ġberuh igen
Ġziv ill
Ġmisunder standing
Ġhaut ala
Ġbeif all
Ġunlaut eren
Ġreop en
. (
Ġt ied
is rael
Ġf asch
Ġk art
em pt
Ġden ying
Ġauf schwung
Ġaus bauen
gr ippe
ad emic
me ist
Ġgegen wart
Ġbesch lieÃŁt
Ġland sc
Ġfest zuhalten
Ġmach in
Ġreal itÃ¤ten
Ġreform ierung
Ġorganis ational
Ġerweiterung sprozess
Ġintrodu ces
Ġverpflicht ungs
Ġdraw s
Ġrelig ionen
Ġstaats fÃ¼hrung
Ġpot ent
Ġluft verschmutzung
Ġunterb reiteten
ba ut
Ġnachbar lÃ¤nder
Ġdeep ening
spekt ive
Ġship owners
Ġforget ting
Ġbush ill
Ġemploye e
ĠlÃ¤nger frist
Ġordnungs gemÃ¤ÃŁen
netz es
Ġumfassender e
Ġverfasser in
Ġradik ale
ĠeinrÃ¤ umt
Ġexpl iz
Ġgeziel te
Ġniedr ige
Ġpolizeil ichen
Ġscept ical
Ġenem y
Ġsubscr ibe
Ġlig a
c ult
j e
y m
in ent
Ġs und
Ġund urch
Ġl en
Ġver teilen
Ġzu meist
Ġha b
Ġas erbaid
Ġco des
Ġsch Ã¼ssel
qu ier
Ġres erved
Ġcan c
Ġob l
Ġvo iced
Ġcommun ism
Ġover coming
Ġweiter bildung
Ġac ademic
Ġverein igung
Ġlie ÃŁe
Ġerst atten
Ġsc ene
Ġruss ians
Ġgef assten
ĠzurÃ¼ck halten
Ġverl ang
Ġapproach ing
ler nen
Ġevent ual
Ġerg reift
Ġmal mstrÃ¶m
ĠfrÃ¼ chte
Ġtraff ick
Ġhear ts
Ġmus ic
Ġprovision al
Ġauss ieht
Ġsofort ige
Ġdiplomat ische
Ġgesp alten
orient ierten
Ġ196 7
Ġhemm nisse
Ġliby en
Ġeradic ation
Ġdisturb ing
ĠbÃ¶r sen
vens on
Ġerit rea
Ġverschlossen en
Ġgrupp ierungen
bemÃ¼ hungen
g ige
l iz
n y
o ise
r ine
in land
Ġh idden
Ġv od
Ġfor wards
id la
sp at
ck ets
Ġfra cht
ers on
Ġwas ted
Ġmein erseits
our ismus
Ġthem es
ĠbÃ¼rger schaft
Ġorder s
Ġmost ly
trag s
ĠfÃ¼hr ten
Ġir lands
ĠgehÃ¶r te
Ġret ro
gew Ã¤ssern
Ġcover age
Ġanalys ing
Ġet liche
Ġchrist ians
gesetz te
ĠauÃŁerordent lichen
Ġbewahr ung
Ġphenomen a
Ġexpand ing
Ġsozialmodell s
Ġbeherr schen
ĠlÃ¤cher lich
Ġunverein bar
Ġsteu erg
Ġmachin ery
k ay
Ġo zone
Ġto ul
Ġein flieÃŁen
Ġzu aller
Ġal munia
Ġauf klÃ¤r
qu est
au ÃŁen
Ġqu iet
get an
Ġbed arfs
Ġregul ators
Ġteil ung
Ġze hnt
Ġfore front
Ġaccess ibility
Ġoblig atory
ĠÃ¼berzeug ungen
Ġgrundlegen des
Ġsk lav
gere ien
Ġgewiss em
Ġrisik ok
Ġarbeitsmarkt es
Ġluxemburg ischen
Ġobjekt iven
Ġumfassender en
Ġzusch Ã¼sse
Ġshock ing
Ġshame ful
Ġreloc ation
Ġbiom ass
Ġpand emic
Ġrare ly
Ġweiterentwick elt
stechnolog ien
Ġchalleng ing
ĠeinmÃ¼ t
Ġsimultane ously
Ġcance ll
ĠeindÃ¤m mung
Ġcun ha
Ġzivill uftfahrt
Ġzualler erst
3 1
re itete
Ġf ische
Ġzu fÃ¤llig
Ġr isen
gen huber
Ġsch Ã¤tze
Ġher k
ĠeuropÃ¤ isch
Ġges ucht
all o
Ġwo hin
Ġhin fÃ¤llig
Ġweit est
Ġdam ages
Ġgel iefert
kl at
Ġausge handelt
Ġsm et
Ġgrenz regionen
Ġtell s
Ġunterb inden
Ġverz ichtet
ĠverstÃ¤nd igung
flich te
Ġmultilateral ism
Ġannoun ce
Ġerm essen
Ġmoro cc
imp lement
ĠzÃ¶ lle
Ġwachstumspakt s
sproble m
ĠgrÃ¶ÃŁt mÃ¶gliche
Ġdictatorship s
Ġnom in
Ġhabit at
Ġdecre ase
Ġunres olved
Ġbeauftrag t
wett bewer
Ġiz quier
ĠgemÃ¼ se
ergem ein
5 1
er hÃ¶
in is
Ġa ps
Ġw ander
Ġs ir
Ġs atur
Ġf el
Ġn etzen
Ġz ana
am in
Ġst amp
Ġab rÃ¼stung
Ġall erg
Ġen den
Ġsp are
Ġdur ban
Ġgrund vorauss
fol g
ĠgroÃŁ unternehmen
Ġlegisl ature
lau de
Ġur teile
Ġauthor itarian
reg ister
br id
Ġbef Ã¶rder
Ġabs ur
Ġbezug s
Ġenergie bereich
Ġcivil ised
Ġverkehr strÃ¤ger
Ġerne ute
Ġbulgar ian
Ġconnect ions
Ġdynam ism
Ġslow ak
ĠvernÃ¼nft iger
ĠÃ¤hn liches
Ġsonst ige
ĠbÃ¼rokrat ische
ĠschlÃ¼ssel rolle
Ġverlei ht
Ġ197 0
ituation en
Ġhandlungs bedarf
Ġdisadvant ages
ĠkÃ¼r zen
ĠwettbewerbsfÃ¤hig sten
Ġbook s
Ġcease fire
Ġbiom asse
Ġspine lli
g le
z ucht
Ġ ll
an c
Ġg old
Ġan zust
Ġha ke
Ġpro mp
Ġauf nahm
Ġber n
Ġsp ur
[...]
