{
  "[PAD]": 0,
  "[BOS]": 1,
  "[EOS]": 2,
  "[UNK]": 3,
  "!": 4,
  "#": 5,
  "$": 6,
  "%": 7,
  "&": 8,
  "(": 9,
  ")": 10,
  "*": 11,
  "+": 12,
  ",": 13,
  "-": 14,
  ".": 15,
  "/": 16,
  "0": 17,
  "1": 18,
  "2": 19,
  "3": 20,
  "4": 21,
  "5": 22,
  "6": 23,
  "7": 24,
  "8": 25,
  "9": 26,
  ":": 27,
  ";": 28,
  "?": 29,
  "@": 30,
  "[": 31,
  "\\": 32,
  "]": 33,
  "_": 34,
  "a": 35,
  "b": 36,
  "c": 37,
  "d": 38,
  "e": 39,
  "f": 40,
  "g": 41,
  "h": 42,
  "i": 43,
  "j": 44,
  "k": 45,
  "l": 46,
  "m": 47,
  "n": 48,
  "o": 49,
  "p": 50,
  "q": 51,
  "r": 52,
  "s": 53,
  "t": 54,
  "u": 55,
  "v": 56,
  "w": 57,
  "x": 58,
  "y": 59,
  "z": 60,
  "|": 61,
  "\u00a3": 62,
  "\u00a4": 63,
  "\u00ac": 64,
  "\u00b6": 65,
  "\u00bc": 66,
  "\u00c2": 67,
  "\u00c3": 68,
  "\u00e2": 69,
  "\u0120": 70,
  "\u0124": 71,
  "\u0141": 72,
  "en": 73,
  "er": 74,
  "\u0120d": 75,
  "\u0120t": 76,
  "in": 77,
  "\u0120a": 78,
  "ch": 79,
  "\u0120th": 80,
  "on": 81,
  "es": 82,
  "\u0120w": 83,
  "\u0120s": 84,
  "un": 85,
  "is": 86,
  "it": 87,
  "at": 88,
  "\u0120the": 89,
  "\u0120b": 90,
  "ie": 91,
  "re": 92,
  "\u0120m": 93,
  "or": 94,
  "\u0120e": 95,
  "an": 96,
  "\u0120p": 97,
  "\u0120f": 98,
  "ich": 99,
  "\u0120in": 100,
  "ion": 101,
  "\u0120h": 102,
  "\u0120o": 103,
  "\u0120c": 104,
  "al": 105,
  "\u0120un": 106,
  "ro": 107,
  "ar": 108,
  "\u0120g": 109,
  "\u0120an": 110,
  "\u0120v": 111,
  "\u0120n": 112,
  "ent": 113,
  "as": 114,
  "le": 115,
  "te": 116,
  "us": 117,
  "\u0120die": 118,
  "\u00c3\u00bc": 119,
  "\u00c3\u00a4": 120,
  "\u0120be": 121,
  "ung": 122,
  "\u0120to": 123,
  "\u0120of": 124,
  "\u0120der": 125,
  "\u0120i": 126,
  "\u0120z": 127,
  "ing": 128,
  "ur": 129,
  "om": 130,
  "ll": 131,
  "\u0120and": 132,
  "ig": 133,
  "\u0120k": 134,
  "\u0120is": 135,
  "\u0120und": 136,
  "ed": 137,
  "st": 138,
  "ir": 139,
  "\u0120ein": 140,
  "em": 141,
  "\u0120re": 142,
  "ra": 143,
  "ic": 144,
  "el": 145,
  "\u0120l": 146,
  "ut": 147,
  "eit": 148,
  "ies": 149,
  "icht": 150,
  "\u0120das": 151,
  "\u0120eu": 152,
  "ation": 153,
  "\u0120ver": 154,
  "ol": 155,
  "et": 156,
  "\u0120that": 157,
  "rop": 158,
  "sch": 159,
  "der": 160,
  "am": 161,
  "ter": 162,
  "\u0120zu": 163,
  "den": 164,
  "\u0120au": 165,
  "omm": 166,
  "ten": 167,
  "ul": 168,
  "\u0120wir": 169,
  "ge": 170,
  "ve": 171,
  "ber": 172,
  "\u0120r": 173,
  "il": 174,
  "\u0120st": 175,
  "\u0120we": 176,
  "\u0120ha": 177,
  "hr": 178,
  "\u0120for": 179,
  "lich": 180,
  "\u00c3\u00b6": 181,
  "\u00c3\u00bcr": 182,
  "isch": 183,
  "ct": 184,
  "gen": 185,
  "\u0120europ": 186,
  "id": 187,
  "um": 188,
  "\u0120den": 189,
  "\u0120on": 190,
  "\u0120wh": 191,
  "\u0120no": 192,
  "ein": 193,
  "\u0120er": 194,
  "iss": 195,
  "ere": 196,
  "\u0120it": 197,
  "ly": 198,
  "\u0120al": 199,
  "\u0120pro": 200,
  "\u0120dies": 201,
  "de": 202,
  "\u0120im": 203,
  "\u0120so": 204,
  "\u0120ge": 205,
  "im": 206,
  "ier": 207,
  "ess": 208,
  "\u0120con": 209,
  "ort": 210,
  "\u0120this": 211,
  "\u0120pr": 212,
  "ff": 213,
  "os": 214,
  "ben": 215,
  "\u00c3\u0141": 216,
  "\u0120auf": 217,
  "\u0120mit": 218,
  "\u0120j": 219,
  "ver": 220,
  "\u0120as": 221,
  "and": 222,
  "est": 223,
  "ce": 224,
  "\u0120ich": 225,
  "\u0120par": 226,
  "\u0120f\u00c3\u00bcr": 227,
  "\u0120co": 228,
  "\u0120dass": 229,
  "ach": 230,
  "ommiss": 231,
  "\u0120von": 232,
  "men": 233,
  "\u0120ist": 234,
  "\u0120des": 235,
  "\u0120de": 236,
  "\u0120vor": 237,
  "kt": 238,
  "ill": 239,
  "ft": 240,
  "\u0120are": 241,
  "\u0120ne": 242,
  "ommission": 243,
  "ischen": 244,
  "ith": 245,
  "\u0120aus": 246,
  "ab": 247,
  "\u0120es": 248,
  "\u0120nicht": 249,
  "\u0120le": 250,
  "\u0120with": 251,
  "\u0120not": 252,
  "\u0120ab": 253,
  "\u0120se": 254,
  "\u00c3\u00a4n": 255,
  "uld": 256,
  "pp": 257,
  "\u0120dem": 258,
  "th": 259,
  "ungen": 260,
  "ment": 261,
  "\u0120europe": 262,
  "\u0120wer": 263,
  "\u00c3\u00bcber": 264,
  "tr": 265,
  "ke": 266,
  "\u0120als": 267,
  "\u0120have": 268,
  "\u0120sch": 269,
  "\u0120ma": 270,
  "op": 271,
  "\u0120eine": 272,
  "iv": 273,
  "ts": 274,
  "ate": 275,
  "ident": 276,
  "la": 277,
  "ind": 278,
  "ould": 279,
  "we": 280,
  "\u0120her": 281,
  "\u0120all": 282,
  "\u0120su": 283,
  "ive": 284,
  "\u0120werden": 285,
  "\u0120en": 286,
  "sp": 287,
  "\u0120ex": 288,
  "ament": 289,
  "lie": 290,
  "ity": 291,
  "\u0120sich": 292,
  "\u0120sie": 293,
  "ust": 294,
  "\u0120um": 295,
  "ial": 296,
  "\u0120\u00c3\u00bcber": 297,
  "\u0120uns": 298,
  "\u0120ent": 299,
  "\u0120which": 300,
  "\u0120will": 301,
  "uss": 302,
  "qu": 303,
  "\u0120y": 304,
  "nen": 305,
  "\u0120do": 306,
  "\u0120me": 307,
  "ant": 308,
  "\u0120da": 309,
  "\u0120auch": 310,
  "\u0120reg": 311,
  "\u0120european": 312,
  "\u0120europ\u00c3\u00a4": 313,
  "\u0120parl": 314,
  "\u0120sh": 315,
  "sen": 316,
  "ck": 317,
  "und": 318,
  "ib": 319,
  "\u0120pol": 320,
  "ann": 321,
  "ore": 322,
  "igen": 323,
  "\u0120ber": 324,
  "\u0120by": 325,
  "ht": 326,
  "00": 327,
  "ste": 328,
  "ungs": 329,
  "\u0120union": 330,
  "ay": 331,
  "hal": 332,
  "\u0120sp": 333,
  "\u0120coun": 334,
  "\u0120mr": 335,
  "end": 336,
  "\u0120fra": 337,
  "\u0120at": 338,
  "ow": 339,
  "\u0120commission": 340,
  "scha": 341,
  "\u0120wie": 342,
  "\u0120has": 343,
  "\u0120or": 344,
  "ern": 345,
  "\u0120unter": 346,
  "ions": 347,
  "ik": 348,
  "hen": 349,
  "ug": 350,
  "if": 351,
  "\u0120herr": 352,
  "iel": 353,
  "\u0120ar": 354,
  "be": 355,
  "ers": 356,
  "ien": 357,
  "\u0120res": 358,
  "port": 359,
  "ist": 360,
  "ah": 361,
  "\u0120was": 362,
  "ect": 363,
  "\u0120wor": 364,
  "\u0120pres": 365,
  "\u0120ges": 366,
  "gr": 367,
  "\u0120inter": 368,
  "\u0120wird": 369,
  "ag": 370,
  "ne": 371,
  "ad": 372,
  "tz": 373,
  "\u01202": 374,
  "for": 375,
  "ure": 376,
  "heit": 377,
  "ain": 378,
  "ische": 379,
  "\u0120there": 380,
  "\u0120-": 381,
  "\u0120haben": 382,
  "\u0120comm": 383,
  "\u0120hat": 384,
  "schaft": 385,
  "etz": 386,
  "rom": 387,
  "\u0120sind": 388,
  "\u0120gr": 389,
  "\u00c3\u00a4s": 390,
  "ens": 391,
  "\u0120com": 392,
  "ted": 393,
  "up": 394,
  "me": 395,
  "\u01201": 396,
  "ahr": 397,
  "\u0120ch": 398,
  "aus": 399,
  "\u0120bes": 400,
  "\u0120he": 401,
  "llen": 402,
  "\u0120am": 403,
  "ot": 404,
  "all": 405,
  "her": 406,
  "\u0120also": 407,
  "\u0120dar": 408,
  "ang": 409,
  "\u0120m\u00c3\u00b6": 410,
  "\u0120stat": 411,
  "chte": 412,
  "beit": 413,
  "\u0120kommission": 414,
  "\u0120zur": 415,
  "\u0120us": 416,
  "\u0120ag": 417,
  "ue": 418,
  "\u0120ho": 419,
  "ember": 420,
  "\u00c3\u00a4nder": 421,
  "\u0120yo": 422,
  "rit": 423,
  "ise": 424,
  "\u0120nach": 425,
  "keit": 426,
  "aten": 427,
  "uch": 428,
  "\u0120our": 429,
  "ard": 430,
  "ges": 431,
  "enn": 432,
  "\u0120europ\u00c3\u00a4ischen": 433,
  "\u0120part": 434,
  "au": 435,
  "\u0120di": 436,
  "\u0120would": 437,
  "se": 438,
  "\u0120mein": 439,
  "\u0120sein": 440,
  "ational": 441,
  "\u00c3\u00a4sident": 442,
  "eren": 443,
  "\u0120diese": 444,
  "\u0120bei": 445,
  "\u0120should": 446,
  "lichen": 447,
  "ations": 448,
  "\u0120ih": 449,
  "ige": 450,
  "ran": 451,
  "\u0120ste": 452,
  "\u0120man": 453,
  "\u0120kon": 454,
  "\u00c3\u00b6n": 455,
  "\u0120fin": 456,
  "\u0120ta": 457,
  "\u0120but": 458,
  "\u00c3\u00a4r": 459,
  "du": 460,
  "\u00c3\u00bcs": 461,
  "\u0120gro": 462,
  "\u0120polit": 463,
  "ze": 464,
  "\u0120from": 465,
  "\u0120member": 466,
  "\u0120fa": 467,
  "\u0120str": 468,
  "ord": 469,
  "od": 470,
  "\u0120rat": 471,
  "cht": 472,
  "\u0120must": 473,
  "pr": 474,
  "\u0120go": 475,
  "\u0120ad": 476,
  "\u0120dur": 477,
  "ement": 478,
  "\u0120te": 479,
  "\u0120qu": 480,
  "\u0120li": 481,
  "ult": 482,
  "\u0120president": 483,
  "\u0120parlament": 484,
  "ken": 485,
  "ip": 486,
  "able": 487,
  "zu": 488,
  "\u0120comp": 489,
  "ther": 490,
  "\u0120k\u00c3\u00b6n": 491,
  "ical": 492,
  "\u0120been": 493,
  "cc": 494,
  "\u0120pr\u00c3\u00a4sident": 495,
  "\u0120ra": 496,
  "\u0120dis": 497,
  "hmen": 498,
  "iament": 499,
  "ommen": 500,
  "\u0120bericht": 501,
  "ert": 502,
  "\u0120gen": 503,
  "\u0120parliament": 504,
  "\u0120bet": 505,
  "\u0120einer": 506,
  "our": 507,
  "ition": 508,
  "ick": 509,
  "elt": 510,
  "ble": 511,
  "ud": 512,
  "\u0120sa": 513,
  "f\u00c3\u00bc": 514,
  "\u0120dieser": 515,
  "ution": 516,
  "fen": 517,
  "cial": 518,
  "\u00c3\u00bcn": 519,
  "\u0120countr": 520,
  "\u0120gem": 521,
  "\u0120prop": 522,
  "\u0120you": 523,
  "form": 524,
  "out": 525,
  "\u0120m\u00c3\u00bcs": 526,
  "ast": 527,
  "sta": 528,
  "\u0120its": 529,
  "\u00c3\u00a4t": 530,
  "\u0120wenn": 531,
  "\u0120pos": 532,
  "iz": 533,
  "\u0120can": 534,
  "glie": 535,
  "\u0120durch": 536,
  "vel": 537,
  "\u0120app": 538,
  "og": 539,
  "anz": 540,
  "cil": 541,
  "chen": 542,
  "\u0120ob": 543,
  "ese": 544,
  "\u0120more": 545,
  "ish": 546,
  "ous": 547,
  "ome": 548,
  "ear": 549,
  "igh": 550,
  "\u00c3\u00b6r": 551,
  "onder": 552,
  "ute": 553,
  "\u0120einen": 554,
  "ieren": 555,
  "ction": 556,
  "\u0120m\u00c3\u00bcssen": 557,
  "\u0120zw": 558,
  "ger": 559,
  "\u0120states": 560,
  "liche": 561,
  "pt": 562,
  "con": 563,
  "reat": 564,
  "imm": 565,
  "\u0120report": 566,
  "\u0120200": 567,
  "\u0120m\u00c3\u00b6chte": 568,
  "itte": 569,
  "\u0120proble": 570,
  "ms": 571,
  "ary": 572,
  "\u0120soll": 573,
  "\u0120po": 574,
  "leg": 575,
  "\u0120mitglie": 576,
  "ose": 577,
  "oc": 578,
  "ass": 579,
  "\u0120these": 580,
  "ierung": 581,
  "\u0120imp": 582,
  "\u0120they": 583,
  "hl": 584,
  "mer": 585,
  "\u0120council": 586,
  "\u0120aber": 587,
  "ight": 588,
  "\u0120alle": 589,
  "\u0120noch": 590,
  "\u0120what": 591,
  "ub": 592,
  "\u0120need": 593,
  "\u0120fre": 594,
  "ok": 595,
  "\u0120wo": 596,
  "\u0120war": 597,
  "\u0120zum": 598,
  "sten": 599,
  "\u0120like": 600,
  "\u0120pe": 601,
  "\u0120pre": 602,
  "\u0120work": 603,
  "\u0120wur": 604,
  "rag": 605,
  "\u0120(": 606,
  "\u0120mar": 607,
  "rat": 608,
  "ely": 609,
  "\u0120zus": 610,
  "\u0120their": 611,
  "\u0120arbeit": 612,
  "ance": 613,
  "\u0120gegen": 614,
  "ime": 615,
  "\u0120inc": 616,
  "\u0120hin": 617,
  "\u0120ihr": 618,
  "\u0120gemein": 619,
  "lo": 620,
  "ap": 621,
  "nah": 622,
  "\u0120ind": 623,
  "\u0120k\u00c3\u00b6nnen": 624,
  "\u0120intern": 625,
  "\u0120mo": 626,
  "\u0120if": 627,
  "\u0120mitglied": 628,
  "\u0120propos": 629,
  "gan": 630,
  "\u0120kein": 631,
  "\u0120nur": 632,
  "age": 633,
  "\u0120who": 634,
  "stit": 635,
  "\u0120diesem": 636,
  "\u0120one": 637,
  "schen": 638,
  "mp": 639,
  "\u0120kann": 640,
  "\u0120polic": 641,
  "\u0120weit": 642,
  "legen": 643,
  "\u0120conc": 644,
  "che": 645,
  "ru": 646,
  "\u0120spe": 647,
  "\u0120cont": 648,
  "pport": 649,
  "fore": 650,
  "\u0120import": 651,
  "\u0120gew": 652,
  "sam": 653,
  "igkeit": 654,
  "\u0120verb": 655,
  "\u0120jed": 656,
  "staaten": 657,
  "\u0120men": 658,
  "ffen": 659,
  "\u0120very": 660,
  "\u0120mehr": 661,
  "\u0120my": 662,
  "\u0120sol": 663,
  "cy": 664,
  "he": 665,
  "wo": 666,
  "ally": 667,
  "\u0120muss": 668,
  "\u00c3\u00bcck": 669,
  "\u0120cons": 670,
  "glich": 671,
  "\u0120than": 672,
  "vent": 673,
  "iert": 674,
  "\u0120ter": 675,
  "ia": 676,
  "\u0120bec": 677,
  "gra": 678,
  "\u0120eff": 679,
  "\u0120out": 680,
  "\u0120resp": 681,
  "ktion": 682,
  "\u0120leg": 683,
  "\u0120ihre": 684,
  "\u0120acc": 685,
  "ammen": 686,
  "\u0120countries": 687,
  "\u00c3\u00bctz": 688,
  "are": 689,
  "lic": 690,
  "sib": 691,
  "\u0120entw": 692,
  "\u0120oder": 693,
  "\u0120europ\u00c3\u00a4ische": 694,
  "\u0120dam": 695,
  "\u0120ro": 696,
  "ring": 697,
  "wer": 698,
  "\u0120sit": 699,
  "\u0120frau": 700,
  "ugh": 701,
  "\u0120tran": 702,
  "lin": 703,
  "\u0120tra": 704,
  "ign": 705,
  "\u0120int": 706,
  "\u0120up": 707,
  "\u0120other": 708,
  "\u0120sehr": 709,
  "ced": 710,
  "\u0120dec": 711,
  "gram": 712,
  "\u0120vorsch": 713,
  "yste": 714,
  "\u0120zusammen": 715,
  "f\u00c3\u00bchr": 716,
  "ak": 717,
  "\u0120entsch": 718,
  "\u0120vo": 719,
  "\u0120about": 720,
  "\u0120agre": 721,
  "\u0120them": 722,
  "one": 723,
  "erst": 724,
  "\u00c3\u0141en": 725,
  "\u0120mitgliedstaaten": 726,
  "\u0120peop": 727,
  "reich": 728,
  "sicht": 729,
  "get": 730,
  "velop": 731,
  "tschaft": 732,
  "leich": 733,
  "ject": 734,
  "teil": 735,
  "ments": 736,
  "\u0120op": 737,
  "bar": 738,
  "\u0120new": 739,
  "\u00c3\u00a4hr": 740,
  "\u0120develop": 741,
  "\u0120dire": 742,
  "ice": 743,
  "ism": 744,
  "\u0120jahr": 745,
  "\u0120dieses": 746,
  "ong": 747,
  "\u0120iss": 748,
  "\u0120deb": 749,
  "utz": 750,
  "assen": 751,
  "\u0120unser": 752,
  "atter": 753,
  "\u0120fe": 754,
  "\u0120entwick": 755,
  "vor": 756,
  "\u0120hand": 757,
  "ied": 758,
  "\u0120year": 759,
  "ities": 760,
  "\u0120only": 761,
  "ative": 762,
  "ces": 763,
  "\u0120grund": 764,
  "ider": 765,
  "int": 766,
  "lar": 767,
  "\u0120ser": 768,
  "\u0120exp": 769,
  "tet": 770,
  "\u0120unterst": 771,
  "\u0120einem": 772,
  "iden": 773,
  "ase": 774,
  "\u0120menschen": 775,
  "\u0120policy": 776,
  "iven": 777,
  "ious": 778,
  "\u0120viel": 779,
  "\u00c3\u00a4nd": 780,
  "ause": 781,
  "\u0120sub": 782,
  "\u0120wicht": 783,
  "etzt": 784,
  "\u0120national": 785,
  "it\u00c3\u00a4t": 786,
  "arbeit": 787,
  "fe": 788,
  "gt": 789,
  "\u0120hier": 790,
  "\u0120proposal": 791,
  "\u0120sicher": 792,
  "ans": 793,
  "\u0120min": 794,
  "cess": 795,
  "\u0120international": 796,
  "\u0120just": 797,
  "\u0120time": 798,
  "\u0120best": 799,
  "\u0120fir": 800,
  "\u0120per": 801,
  "\u0120inv": 802,
  "\u0120europa": 803,
  "\u0120important": 804,
  "\u0120people": 805,
  "\u0120richt": 806,
  "\u0120inform": 807,
  "\u0120vie": 808,
  "\u0120produ": 809,
  "\u0120again": 810,
  "ahl": 811,
  "nung": 812,
  "\u0120la": 813,
  "ated": 814,
  "\u0120besch": 815,
  "land": 816,
  "\u0120ins": 817,
  "\u0120now": 818,
  "lle": 819,
  "fahr": 820,
  "\u0120partic": 821,
  "alt": 822,
  "\u0120support": 823,
  "\u0120unterst\u00c3\u00bctz": 824,
  "fl": 825,
  "ument": 826,
  "ility": 827,
  "fr": 828,
  "\u0120tr": 829,
  "lear": 830,
  "\u0120bereit": 831,
  "\u0120kol": 832,
  "\u0120any": 833,
  "xt": 834,
  "uation": 835,
  "art": 836,
  "lung": 837,
  "str": 838,
  "\u0120ev": 839,
  "\u0120act": 840,
  "\u0120rec": 841,
  "ights": 842,
  "halb": 843,
  "olit": 844,
  "\u0120\u00c3\u00a4nder": 845,
  "hand": 846,
  "\u0120rel": 847,
  "\u0120pl": 848,
  "ular": 849,
  "conom": 850,
  "ide": 851,
  "fol": 852,
  "\u0120such": 853,
  "\u0120wurde": 854,
  "\u0120therefore": 855,
  "ings": 856,
  "ine": 857,
  "los": 858,
  "igt": 859,
  "llt": 860,
  "wend": 861,
  "\u0120because": 862,
  "wn": 863,
  "\u0120program": 864,
  "stitution": 865,
  "halten": 866,
  "dern": 867,
  "\u0120fo": 868,
  "lag": 869,
  "\u0120commun": 870,
  "mend": 871,
  "\u0120mon": 872,
  "\u0120some": 873,
  "ateg": 874,
  "\u0120region": 875,
  "\u0120fund": 876,
  "amp": 877,
  "\u0120eing": 878,
  "chts": 879,
  "\u0120econom": 880,
  "\u0120fr": 881,
  "lie\u00c3\u0141": 882,
  "wir": 883,
  "ibt": 884,
  "geb": 885,
  "\u0120rights": 886,
  "ner": 887,
  "\u0120hum": 888,
  "\u0120prov": 889,
  "\u0120when": 890,
  "wever": 891,
  "\u0120however": 892,
  "\u0120take": 893,
  "\u0120first": 894,
  "\u0120those": 895,
  "\u0120amend": 896,
  "\u0120syste": 897,
  "\u0120nat": 898,
  "\u0120ger": 899,
  "\u0120land": 900,
  "\u0120make": 901,
  "ks": 902,
  "\u0120bas": 903,
  "\u0120human": 904,
  "wor": 905,
  "erung": 906,
  "\u0120direct": 907,
  "ire": 908,
  "ild": 909,
  "\u0120concern": 910,
  "ures": 911,
  "\u0120say": 912,
  "nahmen": 913,
  "king": 914,
  "kommen": 915,
  "\u0120situation": 916,
  "\u0120diff": 917,
  "\u0120committe": 918,
  "\u0120erw": 919,
  "ile": 920,
  "pro": 921,
  "\u0120emp": 922,
  "\u0120wel": 923,
  "enz": 924,
  "och": 925,
  "\u0120bo": 926,
  "auf": 927,
  "ha": 928,
  "ific": 929,
  "ives": 930,
  "fer": 931,
  "l\u00c3\u00a4": 932,
  "chn": 933,
  "isation": 934,
  "\u0120ma\u00c3\u0141": 935,
  "f\u00c3\u00bcr": 936,
  "\u0120problem": 937,
  "ues": 938,
  "igung": 939,
  "\u0120wirtschaft": 940,
  "nehmen": 941,
  "\u0120way": 942,
  "\u0120damit": 943,
  "\u0120belie": 944,
  "\u0120unsere": 945,
  "\u0120sta": 946,
  "erg": 947,
  "\u0120pla": 948,
  "\u0120mark": 949,
  "h\u00c3\u00b6r": 950,
  "\u0120l\u00c3\u00a4nder": 951,
  "\u00c3\u00a4ch": 952,
  "\u0120geb": 953,
  "vern": 954,
  "\u0120b\u00c3\u00bcr": 955,
  "\u0120haus": 956,
  "\u0120ass": 957,
  "\u0120fact": 958,
  "mal": 959,
  "pe": 960,
  "lement": 961,
  "\u0120into": 962,
  "ld": 963,
  "\u0120being": 964,
  "\u0120particular": 965,
  "uen": 966,
  "ian": 967,
  "\u0120clear": 968,
  "tre": 969,
  "\u0120\u00c3\u00b6": 970,
  "zial": 971,
  "\u0120frage": 972,
  "\u0120gemeinsam": 973,
  "now": 974,
  "\u0120zeit": 975,
  "\u0120quest": 976,
  "\u0120denn": 977,
  "mit": 978,
  "iger": 979,
  "unkt": 980,
  "isten": 981,
  "\u0120diesen": 982,
  "ween": 983,
  "\u0120between": 984,
  "\u0120political": 985,
  "\u0120zwischen": 986,
  "\u0120sel": 987,
  "\u0120m\u00c3\u00b6glich": 988,
  "\u0120group": 989,
  "day": 990,
  "\u0120committee": 991,
  "sible": 992,
  "zie": 993,
  "ame": 994,
  "\u0120stand": 995,
  "iff": 996,
  "ards": 997,
  "\u0120fest": 998,
  "\u0120over": 999,
  "\u0120mich": 1000,
  "\u0120gleich": 1001,
  "\u0120end": 1002,
  "\u0120eines": 1003,
  "olitik": 1004,
  "hn": 1005,
  "\u0120organ": 1006,
  "tern": 1007,
  "ite": 1008,
  "ieden": 1009,
  "schuss": 1010,
  "\u0120eben": 1011,
  "essen": 1012,
  "halt": 1013,
  "\u0120social": 1014,
  "\u0120commissioner": 1015,
  "\u0120cour": 1016,
  "\u0120transp": 1017,
  "rauch": 1018,
  "\u0120see": 1019,
  "\u0120market": 1020,
  "\u0120keine": 1021,
  "kte": 1022,
  "\u0120made": 1023,
  "\u0120bin": 1024,
  "ors": 1025,
  "\u0120zwe": 1026,
  "\u0120art": 1027,
  "ved": 1028,
  "tr\u00c3\u00a4": 1029,
  "\u0120were": 1030,
  "eration": 1031,
  "issen": 1032,
  "\u0120great": 1033,
  "\u0120sonder": 1034,
  "\u0120bere": 1035,
  "zeit": 1036,
  "ublic": 1037,
  "\u0120gel": 1038,
  "eln": 1039,
  "\u0120w\u00c3\u00bcr": 1040,
  "\u0120weiter": 1041,
  "ient": 1042,
  "\u0120sozial": 1043,
  "ustr": 1044,
  "ision": 1045,
  "\u0120respon": 1046,
  "\u0120habe": 1047,
  "wie": 1048,
  "\u0120pers": 1049,
  "\u0120agreement": 1050,
  "\u0120believe": 1051,
  "\u0120beste": 1052,
  "\u0120finanz": 1053,
  "ange": 1054,
  "\u0120dan": 1055,
  "\u0120gesch": 1056,
  "\u0120energ": 1057,
  "u\u00c3\u0141": 1058,
  "\u0120many": 1059,
  "tel": 1060,
  "\u0120bed": 1061,
  "\u0120heute": 1062,
  "dem": 1063,
  "\u01203": 1064,
  "ink": 1065,
  "\u0120know": 1066,
  "\u0120ever": 1067,
  "ister": 1068,
  "\u012019": 1069,
  "\u0120gibt": 1070,
  "spr": 1071,
  "nis": 1072,
  "\u0120ihnen": 1073,
  "\u0120jedoch": 1074,
  "\u0120wieder": 1075,
  "\u0120govern": 1076,
  "deut": 1077,
  "\u0120mach": 1078,
  "\u0120dann": 1079,
  "\u0120kommiss": 1080,
  "eral": 1081,
  "\u0120sin": 1082,
  "forder": 1083,
  "atz": 1084,
  "\u0120rem": 1085,
  "\u0120disc": 1086,
  "bst": 1087,
  "abe": 1088,
  "ural": 1089,
  "led": 1090,
  "ds": 1091,
  "els": 1092,
  "\u0120bis": 1093,
  "\u0120development": 1094,
  "\u0120ac": 1095,
  "\u0120meine": 1096,
  "\u0120sondern": 1097,
  "olog": 1098,
  "\u0120herrn": 1099,
  "ett": 1100,
  "weise": 1101,
  "\u0120bereich": 1102,
  "fin": 1103,
  "\u0120aut": 1104,
  "\u0120ganz": 1105,
  "ating": 1106,
  "ats": 1107,
  "\u0120kommissar": 1108,
  "\u0120ko": 1109,
  "iti": 1110,
  "\u0120issue": 1111,
  "\u0120strateg": 1112,
  "\u0120einz": 1113,
  "tw": 1114,
  "eten": 1115,
  "setz": 1116,
  "\u0120doch": 1117,
  "\u0120information": 1118,
  "hin": 1119,
  "rei": 1120,
  "esent": 1121,
  "\u0120b\u00c3\u00bcrger": 1122,
  "\u0120under": 1123,
  "\u0120against": 1124,
  "ror": 1125,
  "\u0120wirk": 1126,
  "\u0120\u00c3\u00a4nderungs": 1127,
  "rechen": 1128,
  "\u0120add": 1129,
  "use": 1130,
  "\u0120democ": 1131,
  "\u0120rechts": 1132,
  "\u0120even": 1133,
  "\u0120verein": 1134,
  "\u0120da\u00c3\u0141": 1135,
  "\u0120right": 1136,
  "\u0120anderen": 1137,
  "\u0120public": 1138,
  "200": 1139,
  "\u0120selbst": 1140,
  "kl": 1141,
  "\u0120ange": 1142,
  "\u0120system": 1143,
  "\u0120gro\u00c3\u0141": 1144,
  "ving": 1145,
  "\u0120euro": 1146,
  "\u0120vorschlag": 1147,
  "ack": 1148,
  "eth": 1149,
  "\u0120conf": 1150,
  "pl": 1151,
  "\u00c3\u00a4l": 1152,
  "\u0120recht": 1153,
  "\u0120beit": 1154,
  "ual": 1155,
  "\u0120pra": 1156,
  "\u0120economic": 1157,
  "\u0120bud": 1158,
  "\u0120sollten": 1159,
  "\u0120jo": 1160,
  "oun": 1161,
  "enden": 1162,
  "cept": 1163,
  "\u0120bereits": 1164,
  "\u0120real": 1165,
  "bes": 1166,
  "\u0120schw": 1167,
  "\u0120sowie": 1168,
  "\u0120prote": 1169,
  "icult": 1170,
  "\u0120hel": 1171,
  "\u0120ma\u00c3\u0141nahmen": 1172,
  "\u0120regul": 1173,
  "ough": 1174,
  "min": 1175,
  "\u0120entsche": 1176,
  "\u0120budget": 1177,
  "\u0120point": 1178,
  "\u0120beg": 1179,
  "\u0120mittel": 1180,
  "ited": 1181,
  "tens": 1182,
  "ised": 1183,
  "\u0120parlaments": 1184,
  "entr": 1185,
  "les": 1186,
  "\u0120sollte": 1187,
  "\u00c3\u00bchr": 1188,
  "\u0120question": 1189,
  "ertain": 1190,
  "\u0120seit": 1191,
  "\u0120entwicklung": 1192,
  "ention": 1193,
  "\u0120terror": 1194,
  "ull": 1195,
  "\u0120env": 1196,
  "\u0120debate": 1197,
  "\u0120cit": 1198,
  "\u0120requ": 1199,
  "\u0120meas": 1200,
  "\u0120abge": 1201,
  "\u0120does": 1202,
  "\u0120sec": 1203,
  "\u0120years": 1204,
  "\u0120far": 1205,
  "isl": 1206,
  "read": 1207,
  "\u0120deshalb": 1208,
  "ope": 1209,
  "ppor": 1210,
  "ittel": 1211,
  "\u0120where": 1212,
  "act": 1213,
  "\u0120lo": 1214,
  "\u0120daf\u00c3\u00bcr": 1215,
  "\u0120lie": 1216,
  "linie": 1217,
  "\u0120every": 1218,
  "ell": 1219,
  "\u0120citiz": 1220,
  "\u0120world": 1221,
  "ices": 1222,
  "\u0120two": 1223,
  "\u0120bring": 1224,
  "okrat": 1225,
  "\u0120good": 1226,
  "illion": 1227,
  "\u0120.": 1228,
  "\u0120well": 1229,
  "\u0120ihrer": 1230,
  "\u0120unserer": 1231,
  "\u0120fut": 1232,
  "\u0120reform": 1233,
  "\u0120members": 1234,
  "\u0120get": 1235,
  "\u0120legisl": 1236,
  "ragen": 1237,
  "ischer": 1238,
  "\u0120today": 1239,
  "\u0120adop": 1240,
  "\u0120want": 1241,
  "\u0120initi": 1242,
  "\u0120directive": 1243,
  "\u0120order": 1244,
  "\u0120prin": 1245,
  "\u0120techn": 1246,
  "ffent": 1247,
  "\u0120immer": 1248,
  "hne": 1249,
  "\u0120community": 1250,
  "\u0120view": 1251,
  "\u0120wichtig": 1252,
  "\u0120darauf": 1253,
  "onment": 1254,
  "isse": 1255,
  "\u0120how": 1256,
  "\u0120consider": 1257,
  "\u0120sicherheit": 1258,
  "\u0120teil": 1259,
  "\u00c3\u00a4ft": 1260,
  "\u0120industr": 1261,
  "\u0120gemeinschaft": 1262,
  "\u0120fall": 1263,
  "\u0120incl": 1264,
  "kehr": 1265,
  "\u0120fol": 1266,
  "\u0120welt": 1267,
  "\u0120had": 1268,
  "\u0120country": 1269,
  "ene": 1270,
  "\u0120envir": 1271,
  "\u0120bek": 1272,
  "lau": 1273,
  "\u0120rahmen": 1274,
  "\u0120regard": 1275,
  "cted": 1276,
  "fall": 1277,
  "\u0120effect": 1278,
  "\u0120environment": 1279,
  "vo": 1280,
  "\u0120weil": 1281,
  "ior": 1282,
  "\u0120begr": 1283,
  "\u0120incre": 1284,
  "raft": 1285,
  "\u0120leben": 1286,
  "\u0120future": 1287,
  "gem": 1288,
  "\u0120cann": 1289,
  "\u0120mir": 1290,
  "\u0120able": 1291,
  "\u0120af": 1292,
  "\u0120med": 1293,
  "\u0120citizens": 1294,
  "\u0120last": 1295,
  "\u0120contin": 1296,
  "vention": 1297,
  "\u0120certain": 1298,
  "\u0120ach": 1299,
  "\u0120inte": 1300,
  "\u0120most": 1301,
  "\u0120cannot": 1302,
  "ordnung": 1303,
  "\u0120dazu": 1304,
  "ves": 1305,
  "iet": 1306,
  "gend": 1307,
  "\u0120vom": 1308,
  "\u0120jetzt": 1309,
  "\u0120resol": 1310,
  "rim": 1311,
  "\u0120same": 1312,
  "urs": 1313,
  "\u0120denen": 1314,
  "mittel": 1315,
  "ritt": 1316,
  "\u0120treat": 1317,
  "\u0120geht": 1318,
  "isen": 1319,
  "\u0120said": 1320,
  "\u0120gu": 1321,
  "\u0120finan": 1322,
  "\u0120letz": 1323,
  "\u0120ausschuss": 1324,
  "\u0120neg": 1325,
  "\u0120vers": 1326,
  "ree": 1327,
  "\u0120state": 1328,
  "\u0120form": 1329,
  "llung": 1330,
  "\u00c3\u00a4tz": 1331,
  "\u0120off": 1332,
  "\u0120wurden": 1333,
  "\u0120ens": 1334,
  "\u0120too": 1335,
  "\u0120aff": 1336,
  "\u0120att": 1337,
  "it\u00c3\u00a4": 1338,
  "urr": 1339,
  "richt": 1340,
  "\u0120could": 1341,
  "\u0120may": 1342,
  "\u0120possible": 1343,
  "\u0120use": 1344,
  "\u0120versch": 1345,
  "isp": 1346,
  "lagen": 1347,
  "ict": 1348,
  "\u0120coop": 1349,
  "ondere": 1350,
  "\u0120erst": 1351,
  "\u0120umw": 1352,
  "\u0120demokrat": 1353,
  "\u0120put": 1354,
  "\u0120matter": 1355,
  "\u0120within": 1356,
  "\u0120serv": 1357,
  "ory": 1358,
  "\u0120ziel": 1359,
  "assung": 1360,
  "vers": 1361,
  "\u0120appro": 1362,
  "trag": 1363,
  "\u0120still": 1364,
  "nahme": 1365,
  "\u0120process": 1366,
  "\u0120br": 1367,
  "mar": 1368,
  "\u0120posit": 1369,
  "\u0120kollegen": 1370,
  "\u0120much": 1371,
  "fahren": 1372,
  "bs": 1373,
  "\u0120here": 1374,
  "gesch": 1375,
  "ready": 1376,
  "\u0120already": 1377,
  "\u0120hal": 1378,
  "\u0120level": 1379,
  "ently": 1380,
  "\u0120ele": 1381,
  "\u0120sc": 1382,
  "ful": 1383,
  "\u0120thro": 1384,
  "\u0120fl": 1385,
  "\u0120measures": 1386,
  "\u0120num": 1387,
  "\u0120both": 1388,
  "geben": 1389,
  "\u0120gest": 1390,
  "\u0120present": 1391,
  "erstatter": 1392,
  "innen": 1393,
  "llow": 1394,
  "st\u00c3\u00a4nd": 1395,
  "utions": 1396,
  "ri": 1397,
  "\u01205": 1398,
  "\u0120implement": 1399,
  "\u0120sagen": 1400,
  "immung": 1401,
  "\u0120neuen": 1402,
  "zus": 1403,
  "\u0120ref": 1404,
  "\u0120aller": 1405,
  "\u0120think": 1406,
  "\u0120fur": 1407,
  "\u0120mrs": 1408,
  "\u0120common": 1409,
  "\u0120position": 1410,
  "\u01204": 1411,
  "\u0120kont": 1412,
  "\u0120your": 1413,
  "sel": 1414,
  "\u0120meiner": 1415,
  "\u00c3\u0141er": 1416,
  "derung": 1417,
  "\u0120person": 1418,
  "bal": 1419,
  "\u0120high": 1420,
  "ession": 1421,
  "\u0120sign": 1422,
  "\u0120einige": 1423,
  "\u0120umwelt": 1424,
  "\u0120politik": 1425,
  "\u0120som": 1426,
  "\u0120nam": 1427,
  "\u0120f\u00c3\u00bchr": 1428,
  "\u0120w\u00c3\u00bcrde": 1429,
  "\u0120bedeut": 1430,
  "pporte": 1431,
  "\u0120betr": 1432,
  "\u0120achie": 1433,
  "\u0120invest": 1434,
  "\u0120beisp": 1435,
  "\u0120own": 1436,
  "kl\u00c3\u00a4r": 1437,
  "f\u00c3\u00a4": 1438,
  "\u0120hope": 1439,
  "\u0120ur": 1440,
  "alth": 1441,
  "\u0120stru": 1442,
  "\u0120wissen": 1443,
  "ac": 1444,
  "\u0120w\u00c3\u00a4": 1445,
  "\u00c3\u00b6s": 1446,
  "\u0120rapporte": 1447,
  "loy": 1448,
  "\u0120prior": 1449,
  "\u0120through": 1450,
  "\u0120etw": 1451,
  "strument": 1452,
  "\u0120why": 1453,
  "\u0120disk": 1454,
  "\u0120wollen": 1455,
  "\u0120sim": 1456,
  "itz": 1457,
  "\u0120his": 1458,
  "\u0120ausge": 1459,
  "ekt": 1460,
  "satz": 1461,
  "cond": 1462,
  "inn": 1463,
  "\u0120notwend": 1464,
  "\u0120law": 1465,
  "\u0120qual": 1466,
  "\u0120discuss": 1467,
  "ismus": 1468,
  "halts": 1469,
  "\u0120wen": 1470,
  "\u0120tur": 1471,
  "\u0120further": 1472,
  "\u0120daher": 1473,
  "\u0120tun": 1474,
  "\u0120ohne": 1475,
  "eng": 1476,
  "\u0120vote": 1477,
  "immt": 1478,
  "mo": 1479,
  "\u0120then": 1480,
  "\u0120nun": 1481,
  "\u0120curr": 1482,
  "\u0120berichterstatter": 1483,
  "uer": 1484,
  "\u0120zust": 1485,
  "\u0120einge": 1486,
  "\u00c3\u00a4lt": 1487,
  "\u0120zusammenarbeit": 1488,
  "\u0120programme": 1489,
  "acht": 1490,
  "\u0120cooperation": 1491,
  "\u0120taken": 1492,
  "\u0120course": 1493,
  "\u0120integr": 1494,
  "cip": 1495,
  "\u0120examp": 1496,
  "licher": 1497,
  "\u0120house": 1498,
  "red": 1499,
  "rimin": 1500,
  "besondere": 1501,
  "way": 1502,
  "heiten": 1503,
  "\u0120insbesondere": 1504,
  "reit": 1505,
  "\u0120fragen": 1506,
  "\u0120allem": 1507,
  "\u0120object": 1508,
  "\u0120repr": 1509,
  "\u0120legal": 1510,
  "lage": 1511,
  "\u0120scha": 1512,
  "\u0120number": 1513,
  "ason": 1514,
  "hor": 1515,
  "\u0120bez": 1516,
  "omp": 1517,
  "wohl": 1518,
  "ma": 1519,
  "\u0120deut": 1520,
  "\u0120interest": 1521,
  "\u0120princip": 1522,
  "air": 1523,
  "\u0120second": 1524,
  "\u0120\u00c3\u00b6ffent": 1525,
  "io": 1526,
  "\u0120abst": 1527,
  "\u0120amendments": 1528,
  "man": 1529,
  "\u0120beispiel": 1530,
  "reichen": 1531,
  "\u0120ir": 1532,
  "luss": 1533,
  "\u0120k\u00c3\u00b6nn": 1534,
  "\u00c3\u00a4ng": 1535,
  "\u0120russ": 1536,
  "wort": 1537,
  "isierung": 1538,
  "work": 1539,
  "genommen": 1540,
  "\u0120financial": 1541,
  "tr\u00c3\u00a4ge": 1542,
  "\u0120komm": 1543,
  "\u0120case": 1544,
  "\u0120gut": 1545,
  "\u0120unternehmen": 1546,
  "\u0120health": 1547,
  "\u0120zug": 1548,
  "\u0120gent": 1549,
  "\u0120minister": 1550,
  "ruck": 1551,
  "i\u00c3\u0141": 1552,
  "\u0120institution": 1553,
  "gangen": 1554,
  "\u0120secur": 1555,
  "\u0120gef": 1556,
  "\u0120\u00c3\u00a4": 1557,
  "zeich": 1558,
  "\u00c3\u00b6l": 1559,
  "punkt": 1560,
  "\u0120richtlinie": 1561,
  "\u0120reason": 1562,
  "\u0120compet": 1563,
  "\u0120wom": 1564,
  "\u0120place": 1565,
  "l\u00c3\u00a4nder": 1566,
  "\u0120author": 1567,
  "\u0120dar\u00c3\u00bcber": 1568,
  "\u0120seine": 1569,
  "als": 1570,
  "lish": 1571,
  "\u0120zweit": 1572,
  "\u0120ze": 1573,
  "\u0120trans": 1574,
  "ale": 1575,
  "ho": 1576,
  "\u0120action": 1577,
  "kun": 1578,
  "\u0120without": 1579,
  "\u0120199": 1580,
  "\u0120au\u00c3\u0141er": 1581,
  "ater": 1582,
  "\u0120mor": 1583,
  "\u0120lad": 1584,
  "\u0120menschenre": 1585,
  "\u0120agr": 1586,
  "\u0120vol": 1587,
  "\u00c3\u00a4m": 1588,
  "\u0120est": 1589,
  "\u0120find": 1590,
  "\u0120gentle": 1591,
  "\u0120glo": 1592,
  "\u0120spec": 1593,
  "itions": 1594,
  "\u0120andere": 1595,
  "\u0120before": 1596,
  "ys": 1597,
  "\u0120impro": 1598,
  "\u0120gentlemen": 1599,
  "\u0120machen": 1600,
  "\u0120liber": 1601,
  "\u0120respect": 1602,
  "\u0120allen": 1603,
  "agt": 1604,
  "fung": 1605,
  "lungs": 1606,
  "\u0120abgeord": 1607,
  "\u0120example": 1608,
  "\u0120security": 1609,
  "ates": 1610,
  "antwort": 1611,
  "ret": 1612,
  "\u0120united": 1613,
  "\u0120ladies": 1614,
  "ages": 1615,
  "lichkeit": 1616,
  "\u0120nat\u00c3\u00bcr": 1617,
  "\u0120fort": 1618,
  "kunft": 1619,
  "\u0120bew": 1620,
  "\u0120means": 1621,
  "ether": 1622,
  "\u0120problems": 1623,
  "\u0120w\u00c3\u00a4re": 1624,
  "\u0120car": 1625,
  "\u0120klar": 1626,
  "\u0120zahl": 1627,
  "\u0120ensure": 1628,
  "\u0120sect": 1629,
  "\u0120ke": 1630,
  "ount": 1631,
  "\u0120instrument": 1632,
  "\u0120rul": 1633,
  "antrag": 1634,
  "\u0120thank": 1635,
  "trib": 1636,
  "\u0120fraktion": 1637,
  "\u0120maj": 1638,
  "\u0120invol": 1639,
  "\u0120rep": 1640,
  "\u0120government": 1641,
  "ium": 1642,
  "bewer": 1643,
  "\u0120issues": 1644,
  "\u0120global": 1645,
  "\u0120let": 1646,
  "\u0120ihren": 1647,
  "\u0120ask": 1648,
  "\u0120given": 1649,
  "\u0120major": 1650,
  "\u0120area": 1651,
  "\u0120ide": 1652,
  "\u0120verbess": 1653,
  "tellt": 1654,
  "lossen": 1655,
  "ften": 1656,
  "\u0120stab": 1657,
  "hol": 1658,
  "\u0120inde": 1659,
  "\u0120det": 1660,
  "\u0120bal": 1661,
  "\u0120dien": 1662,
  "ffe": 1663,
  "\u0120jahren": 1664,
  "zeug": 1665,
  "\u0120erfol": 1666,
  "tend": 1667,
  "\u0120rates": 1668,
  "\u0120ris": 1669,
  "\u0120million": 1670,
  "\u0120redu": 1671,
  "\u0120neue": 1672,
  "\u0120follow": 1673,
  "\u0120w\u00c3\u00a4hr": 1674,
  "\u0120unterst\u00c3\u00bctzung": 1675,
  "unden": 1676,
  "lex": 1677,
  "\u0120erkl\u00c3\u00a4r": 1678,
  "stellen": 1679,
  "\u0120necess": 1680,
  "\u0120wish": 1681,
  "hip": 1682,
  "\u0120includ": 1683,
  "gress": 1684,
  "ace": 1685,
  "ail": 1686,
  "\u0120full": 1687,
  "\u0120rapporteur": 1688,
  "ialog": 1689,
  "\u0120presiden": 1690,
  "\u0120viele": 1691,
  "reg": 1692,
  "\u0120democrat": 1693,
  "\u0120voll": 1694,
  "\u0120aid": 1695,
  "sche": 1696,
  "gar": 1697,
  "\u0120wett": 1698,
  "undheit": 1699,
  "come": 1700,
  "\u0120rules": 1701,
  "\u0120basis": 1702,
  "\u0120u": 1703,
  "merk": 1704,
  "oti": 1705,
  "\u0120proced": 1706,
  "\u0120zwei": 1707,
  "\u0120haushalts": 1708,
  "\u0120allow": 1709,
  "igten": 1710,
  "\u0120help": 1711,
  "\u0120arbeits": 1712,
  "politik": 1713,
  "cing": 1714,
  "\u0120wettbewer": 1715,
  "\u0120text": 1716,
  "pportun": 1717,
  "kon": 1718,
  "\u0120set": 1719,
  "\u0120since": 1720,
  "\u0120anges": 1721,
  "\u0120services": 1722,
  "\u0120opportun": 1723,
  "m\u00c3\u00b6": 1724,
  "\u0120schon": 1725,
  "setzung": 1726,
  "\u0120long": 1727,
  "\u0120negoti": 1728,
  "\u0120represent": 1729,
  "nisse": 1730,
  "ential": 1731,
  "\u0120zun": 1732,
  "\u0120har": 1733,
  "\u0120mil": 1734,
  "neten": 1735,
  "\u0120presidency": 1736,
  "\u0120equ": 1737,
  "\u0120entscheid": 1738,
  "zess": 1739,
  "\u00c3\u00a4\u00c3\u0141": 1740,
  "\u0120call": 1741,
  "chten": 1742,
  "gehen": 1743,
  "\u0120regierung": 1744,
  "\u0120gr\u00c3\u00b6": 1745,
  "\u0120differ": 1746,
  "\u0120verantwort": 1747,
  "\u0120nat\u00c3\u00bcrlich": 1748,
  "so": 1749,
  "br": 1750,
  "ence": 1751,
  "\u0120dialog": 1752,
  "\u0120f\u00c3\u00b6r": 1753,
  "\u0120protection": 1754,
  "spra": 1755,
  "legt": 1756,
  "\u0120employ": 1757,
  "vour": 1758,
  "ude": 1759,
  "\u00c3\u00a4mp": 1760,
  "ifft": 1761,
  "ppen": 1762,
  "\u00c3\u00b6lk": 1763,
  "lungen": 1764,
  "\u0120einmal": 1765,
  "\u0120give": 1766,
  "\u0120col": 1767,
  "\u0120frame": 1768,
  "\u0120zie": 1769,
  "\u0120lang": 1770,
  "\u0120bestimm": 1771,
  "hungen": 1772,
  "\u0120pat": 1773,
  "gest": 1774,
  "\u0120besteht": 1775,
  "fit": 1776,
  "\u0120rest": 1777,
  "\u0120general": 1778,
  "dam": 1779,
  "\u0120transpar": 1780,
  "\u0120l\u00c3\u00a4ndern": 1781,
  "ivil": 1782,
  "ately": 1783,
  "stand": 1784,
  "fra": 1785,
  "\u0120meet": 1786,
  "\u0120kr": 1787,
  "\u0120m\u00c3\u00b6glichkeit": 1788,
  "etzen": 1789,
  "\u0120fran": 1790,
  "hil": 1791,
  "\u0120val": 1792,
  "ordin": 1793,
  "\u012020": 1794,
  "ank": 1795,
  "rif": 1796,
  "\u0120programm": 1797,
  "ward": 1798,
  "ss": 1799,
  "ktur": 1800,
  "\u0120umf": 1801,
  "\u0120cl": 1802,
  "ital": 1803,
  "ade": 1804,
  "\u0120stra": 1805,
  "ktor": 1806,
  "\u0120glau": 1807,
  "\u0120expr": 1808,
  "\u0120after": 1809,
  "\u0120eigen": 1810,
  "\u0120bar": 1811,
  "\u0120\u00c3\u00a4nderungsan": 1812,
  "vorsch": 1813,
  "hang": 1814,
  "\u0120verf": 1815,
  "\u0120worden": 1816,
  "grund": 1817,
  "\u0120trade": 1818,
  "\u0120particularly": 1819,
  "\u0120resolution": 1820,
  "\u0120nor": 1821,
  "neh": 1822,
  "\u0120framework": 1823,
  "\u0120whether": 1824,
  "ser": 1825,
  "\u0120besonder": 1826,
  "fach": 1827,
  "ablish": 1828,
  "kes": 1829,
  "\u0120rev": 1830,
  "\u0120politischen": 1831,
  "\u0120sor": 1832,
  "ichts": 1833,
  "\u0120pal": 1834,
  "\u0120areas": 1835,
  "falls": 1836,
  "\u0120etwas": 1837,
  "\u0120sm": 1838,
  "ina": 1839,
  "\u0120bess": 1840,
  "\u0120lassen": 1841,
  "ically": 1842,
  "\u0120decision": 1843,
  "ziel": 1844,
  "\u0120eng": 1845,
  "\u0120st\u00c3\u00a4r": 1846,
  "sprechen": 1847,
  "immen": 1848,
  "flicht": 1849,
  "\u0120nie": 1850,
  "\u0120bro": 1851,
  "\u0120kommen": 1852,
  "\u0120imm": 1853,
  "ov": 1854,
  "\u0120tats": 1855,
  "\u0120necessary": 1856,
  "ying": 1857,
  "\u0120commit": 1858,
  "spro": 1859,
  "stru": 1860,
  "\u0120energy": 1861,
  "\u0120em": 1862,
  "\u0120stellen": 1863,
  "riften": 1864,
  "\u0120consum": 1865,
  "f\u00c3\u00bchrt": 1866,
  "markt": 1867,
  "spolitik": 1868,
  "\u0120verw": 1869,
  "abei": 1870,
  "\u0120frauen": 1871,
  "\u0120amendment": 1872,
  "\u0120dabei": 1873,
  "\u01206": 1874,
  "\u0120geben": 1875,
  "\u0120dra": 1876,
  "\u0120ja": 1877,
  "\u0120erweit": 1878,
  "\u0120gesam": 1879,
  "\u0120bedeutung": 1880,
  "erence": 1881,
  "\u0120proposals": 1882,
  "\u0120vorschl\u00c3\u00a4": 1883,
  "\u0120establish": 1884,
  "\u0120absch": 1885,
  "inge": 1886,
  "\u0120namen": 1887,
  "upt": 1888,
  "\u0120thema": 1889,
  "\u0120zur\u00c3\u00bcck": 1890,
  "\u0120instit": 1891,
  "\u0120done": 1892,
  "\u0120komp": 1893,
  "\u0120pract": 1894,
  "\u0120begr\u00c3\u00bc": 1895,
  "\u0120progress": 1896,
  "\u0120women": 1897,
  "\u0120fundament": 1898,
  "\u0120contro": 1899,
  "\u0120defin": 1900,
  "druck": 1901,
  "\u0120liberal": 1902,
  "isions": 1903,
  "sibility": 1904,
  "tra": 1905,
  "\u0120priv": 1906,
  "\u0120regional": 1907,
  "\u00c3\u00bcnft": 1908,
  "\u0120deal": 1909,
  "\u0120next": 1910,
  "\u0120result": 1911,
  "\u0120schutz": 1912,
  "\u0120verl": 1913,
  "vement": 1914,
  "\u0120zukunft": 1915,
  "\u0120difficult": 1916,
  "\u0120opin": 1917,
  "ga": 1918,
  "\u0120require": 1919,
  "\u0120l\u00c3\u00b6s": 1920,
  "\u0120concl": 1921,
  "ende": 1922,
  "\u0120dav": 1923,
  "sequ": 1924,
  "\u0120besch\u00c3\u00a4ft": 1925,
  "uf": 1926,
  "r\u00c3\u00a4n": 1927,
  "\u0120zusammenhang": 1928,
  "\u0120regulation": 1929,
  "\u0120favour": 1930,
  "stellung": 1931,
  "ander": 1932,
  "\u0120zwar": 1933,
  "\u0120initiative": 1934,
  "zept": 1935,
  "\u00c3\u00bcnd": 1936,
  "par": 1937,
  "\u0120stehen": 1938,
  "\u0120meinung": 1939,
  "\u0120different": 1940,
  "\u0120lage": 1941,
  "agement": 1942,
  "\u0120legislation": 1943,
  "racht": 1944,
  "\u0120kontro": 1945,
  "\u0120bef": 1946,
  "\u0120solid": 1947,
  "\u0120debat": 1948,
  "amil": 1949,
  "\u0120transport": 1950,
  "\u0120terms": 1951,
  "\u0120crit": 1952,
  "\u0120bus": 1953,
  "ible": 1954,
  "\u0120gew\u00c3\u00a4hr": 1955,
  "\u0120verhand": 1956,
  "\u0120d\u00c3\u00bcr": 1957,
  "ph": 1958,
  "gung": 1959,
  "wirtschaft": 1960,
  "\u0120staaten": 1961,
  "\u0120thir": 1962,
  "\u0120serious": 1963,
  "\u00c3\u00a4chst": 1964,
  "\u0120vi": 1965,
  "\u0120gesundheit": 1966,
  "\u0120kolleg": 1967,
  "\u0120vertre": 1968,
  "\u0120betrifft": 1969,
  "anden": 1970,
  "\u0120akt": 1971,
  "\u0120cr": 1972,
  "\u0120speak": 1973,
  "ting": 1974,
  "\u0120fisch": 1975,
  "\u0120contrib": 1976,
  "\u0120probleme": 1977,
  "\u0120unterst\u00c3\u00bctzen": 1978,
  "\u0120sum": 1979,
  "ache": 1980,
  "ased": 1981,
  "half": 1982,
  "\u0120wirklich": 1983,
  "\u0120product": 1984,
  "\u0120resear": 1985,
  "\u0120research": 1986,
  "\u0120gemeinsamen": 1987,
  "\u0120brauch": 1988,
  "ichte": 1989,
  "\u0120lar": 1990,
  "\u0120seiner": 1991,
  "\u0120subject": 1992,
  "gemein": 1993,
  "\u0120ander": 1994,
  "ided": 1995,
  "\u0120del": 1996,
  "\u0120behalf": 1997,
  "\u0120verbrauch": 1998,
  "\u0120entschlie\u00c3\u0141": 1999,
  "sitz": 2000,
  "ught": 2001,
  "\u0120frei": 2002,
  "\u0120hil": 2003,
  "\u0120effort": 2004,
  "\u0120role": 2005,
  "\u0120port": 2006,
  "wards": 2007,
  "\u0120verp": 2008,
  "\u0120tal": 2009,
  "\u0120look": 2010,
  "\u0120interess": 2011,
  "\u0120ergeb": 2012,
  "\u0120isra": 2013,
  "ders": 2014,
  "ierten": 2015,
  "\u0120erforder": 2016,
  "\u0120back": 2017,
  "\u0120cap": 2018,
  "\u0120come": 2019,
  "\u0120ansicht": 2020,
  "ething": 2021,
  "\u0120better": 2022,
  "leist": 2023,
  "\u0120statt": 2024,
  "\u0120unseren": 2025,
  "\u0120adopted": 2026,
  "\u0120something": 2027,
  "\u0120gr\u00c3\u00b6\u00c3\u0141": 2028,
  "\u0120cond": 2029,
  "\u0120\u00c3\u00a4u\u00c3\u0141": 2030,
  "\u0120sens": 2031,
  "\u0120el": 2032,
  "\u0120einzel": 2033,
  "\u0120constitution": 2034,
  "\u0120nutz": 2035,
  "ante": 2036,
  "annt": 2037,
  "\u0120pow": 2038,
  "ehen": 2039,
  "reffen": 2040,
  "\u0120bezie": 2041,
  "\u0120open": 2042,
  "\u0120express": 2043,
  "\u0120ak": 2044,
  "\u0120cor": 2045,
  "\u0120h\u00c3\u00b6": 2046,
  "\u0120approach": 2047,
  "leicht": 2048,
  "\u0120davon": 2049,
  "\u0120solidar": 2050,
  "\u0120ira": 2051,
  "\u0120grow": 2052,
  "\u0120whole": 2053,
  "\u0120fundamental": 2054,
  "\u0120kur": 2055,
  "f\u00c3\u00bchrung": 2056,
  "\u0120famil": 2057,
  "\u0120plan": 2058,
  "\u0120treaty": 2059,
  "\u0120waren": 2060,
  "entral": 2061,
  "\u0120accept": 2062,
  "ler": 2063,
  "\u0120rolle": 2064,
  "\u0120concerned": 2065,
  "lick": 2066,
  "lie\u00c3\u0141lich": 2067,
  "\u0120darf": 2068,
  "kten": 2069,
  "\u0120refer": 2070,
  "gaben": 2071,
  "tem": 2072,
  "\u0120agree": 2073,
  "reif": 2074,
  "\u0120sector": 2075,
  "ahre": 2076,
  "\u0120bel": 2077,
  "ierungs": 2078,
  "\u0120show": 2079,
  "erien": 2080,
  "\u0120third": 2081,
  "\u0120abs": 2082,
  "wirk": 2083,
  "\u0120amer": 2084,
  "\u0120offen": 2085,
  "weit": 2086,
  "\u0120verf\u00c3\u00bc": 2087,
  "ep": 2088,
  "\u0120ant": 2089,
  "glichen": 2090,
  "\u0120freed": 2091,
  "weisen": 2092,
  "ress": 2093,
  "\u0120t\u00c3\u00bcr": 2094,
  "\u0120needs": 2095,
  "\u0120institutions": 2096,
  "ines": 2097,
  "\u0120krit": 2098,
  "\u0120gesagt": 2099,
  "\u0120enlar": 2100,
  "\u0120char": 2101,
  "\u0120mention": 2102,
  "\u0120colle": 2103,
  "\u0120account": 2104,
  "\u0120gegen\u00c3\u00bcber": 2105,
  "bed": 2106,
  "\u0120freedom": 2107,
  "\u0120soc": 2108,
  "\u0120weg": 2109,
  "\u0120peace": 2110,
  "\u0120continue": 2111,
  "other": 2112,
  "\u0120poin": 2113,
  "\u0120w\u00c3\u00a4hrend": 2114,
  "icher": 2115,
  "\u0120konk": 2116,
  "\u0120few": 2117,
  "ty": 2118,
  "\u0120organis": 2119,
  "\u0120cre": 2120,
  "\u0120three": 2121,
  "\u0120another": 2122,
  "\u01207": 2123,
  "\u0120h\u00c3\u00a4t": 2124,
  "\u0120darin": 2125,
  "\u0120letzten": 2126,
  "\u0120untersch": 2127,
  "\u0120saf": 2128,
  "lei": 2129,
  "erk": 2130,
  "\u0120working": 2131,
  "\u0120forward": 2132,
  "\u0120opinion": 2133,
  "\u0120enlarg": 2134,
  "\u0120agricult": 2135,
  "ritte": 2136,
  "\u0120extre": 2137,
  "\u0120eur": 2138,
  "dert": 2139,
  "\u0120gesetz": 2140,
  "\u0120lebens": 2141,
  "ellschaft": 2142,
  "\u0120reach": 2143,
  "liegen": 2144,
  "\u0120shall": 2145,
  "\u0120drei": 2146,
  "\u0120positive": 2147,
  "sprache": 2148,
  "mon": 2149,
  "\u0120weise": 2150,
  "\u0120inn": 2151,
  "atul": 2152,
  "\u0120abstimmung": 2153,
  "\u0120ru": 2154,
  "ents": 2155,
  "\u0120opp": 2156,
  "\u0120schwier": 2157,
  "bere": 2158,
  "\u0120hervor": 2159,
  "\u00c3\u00bccksicht": 2160,
  "\u0120israel": 2161,
  "bau": 2162,
  "\u0120affair": 2163,
  "fte": 2164,
  "ists": 2165,
  "\u0120internationalen": 2166,
  "w\u00c3\u00a4r": 2167,
  "\u0120n\u00c3\u00a4m": 2168,
  "\u0120n\u00c3\u00a4mlich": 2169,
  "\u0120europas": 2170,
  "ety": 2171,
  "\u0120aim": 2172,
  "\u0120wort": 2173,
  "\u0120regel": 2174,
  "\u0120\u00c3\u00a4nderungsantr\u00c3\u00a4ge": 2175,
  "\u0120\u00c3\u00a4nderungsantrag": 2176,
  "\u0120aw": 2177,
  "prochen": 2178,
  "vious": 2179,
  "\u0120verst": 2180,
  "\u0120remain": 2181,
  "\u0120abgeordneten": 2182,
  "ively": 2183,
  "\u0120proposed": 2184,
  "\u0120kl": 2185,
  "elf": 2186,
  "\u0120down": 2187,
  "\u0120strategy": 2188,
  "\u0120auff": 2189,
  "atives": 2190,
  "\u0120k\u00c3\u00b6nnte": 2191,
  "racy": 2192,
  "h\u00c3\u00a4lt": 2193,
  "spr\u00c3\u00a4sident": 2194,
  "to": 2195,
  "it\u00c3\u00a4ten": 2196,
  "\u0120bezug": 2197,
  "ases": 2198,
  "\u0120daran": 2199,
  "\u0120punkt": 2200,
  "\u0120principle": 2201,
  "\u0120lu": 2202,
  "\u0120energie": 2203,
  "\u0120safety": 2204,
  "angen": 2205,
  "\u0120folgen": 2206,
  "\u0120project": 2207,
  "ified": 2208,
  "\u0120accord": 2209,
  "f\u00c3\u00a4h": 2210,
  "\u0120wesent": 2211,
  "\u0120jahre": 2212,
  "\u0120milit": 2213,
  "ster": 2214,
  "\u0120underst": 2215,
  "\u0120star": 2216,
  "\u0120succ": 2217,
  "\u0120kle": 2218,
  "\u0120vorgesch": 2219,
  "\u0120bene": 2220,
  "\u0120welcome": 2221,
  "\u0120dienst": 2222,
  "\u0120toget": 2223,
  "\u0120grenz": 2224,
  "\u0120together": 2225,
  "\u0120during": 2226,
  "erenz": 2227,
  "\u0120markt": 2228,
  "ilt": 2229,
  "\u0120control": 2230,
  "itt": 2231,
  "iving": 2232,
  "\u0120main": 2233,
  "\u0120erfolg": 2234,
  "\u0120adv": 2235,
  "\u01208": 2236,
  "\u0120rather": 2237,
  "dings": 2238,
  "\u0120menschenrechte": 2239,
  "\u0120gar": 2240,
  "\u0120affairs": 2241,
  "sweise": 2242,
  "ways": 2243,
  "\u0120commissions": 2244,
  "elle": 2245,
  "wendung": 2246,
  "h\u00c3\u00a4ng": 2247,
  "\u0120towards": 2248,
  "\u0120going": 2249,
  "\u0120fore": 2250,
  "\u0120forsch": 2251,
  "\u0120dr": 2252,
  "verkehr": 2253,
  "\u0120glaube": 2254,
  "\u0120hinsicht": 2255,
  "\u0120clearly": 2256,
  "\u0120quite": 2257,
  "\u0120var": 2258,
  "\u0120fortsch": 2259,
  "\u0120success": 2260,
  "gleich": 2261,
  "\u0120step": 2262,
  "une": 2263,
  "ising": 2264,
  "\u0120technolog": 2265,
  "ikel": 2266,
  "istr": 2267,
  "\u0120versuch": 2268,
  "\u0120specific": 2269,
  "\u0120debatte": 2270,
  "\u0120hoffe": 2271,
  "unde": 2272,
  "legenheit": 2273,
  "\u0120compan": 2274,
  "\u0120geh\u00c3\u00b6r": 2275,
  "\u01209": 2276,
  "\u0120ber\u00c3\u00bccksicht": 2277,
  "\u0120industry": 2278,
  "\u0120yet": 2279,
  "\u0120fun": 2280,
  "m\u00c3\u00bc": 2281,
  "\u0120je": 2282,
  "ected": 2283,
  "\u0120carr": 2284,
  "\u0120societ": 2285,
  "\u0120relations": 2286,
  "dr": 2287,
  "\u0120derzeit": 2288,
  "ingungen": 2289,
  "\u0120allgemein": 2290,
  "affen": 2291,
  "\u0120internal": 2292,
  "staat": 2293,
  "\u0120heraus": 2294,
  "\u0120read": 2295,
  "ually": 2296,
  "net": 2297,
  "ationen": 2298,
  "\u0120verschieden": 2299,
  "\u0120resour": 2300,
  "\u0120ph": 2301,
  "zip": 2302,
  "\u0120f\u00c3\u00a4": 2303,
  "\u0120kolleginnen": 2304,
  "\u0120once": 2305,
  "ared": 2306,
  "\u0120cult": 2307,
  "\u0120small": 2308,
  "iar": 2309,
  "\u0120\u00c3\u00bc": 2310,
  "fort": 2311,
  "ativen": 2312,
  "\u0120nationalen": 2313,
  "\u0120environmental": 2314,
  "\u0120afr": 2315,
  "altung": 2316,
  "\u0120allerdings": 2317,
  "\u0120vorschl\u00c3\u00a4ge": 2318,
  "roffen": 2319,
  "w\u00c3\u00a4rt": 2320,
  "\u0120bestehen": 2321,
  "\u0120guar": 2322,
  "zw": 2323,
  "\u0120cost": 2324,
  "\u0120vorgeschlagen": 2325,
  "\u0120st\u00c3\u00a4rk": 2326,
  "\u0120press": 2327,
  "\u0120gro\u00c3\u0141e": 2328,
  "\u0120mind": 2329,
  "ises": 2330,
  "\u0120pay": 2331,
  "\u0120behand": 2332,
  "\u0120lea": 2333,
  "\u0120change": 2334,
  "\u0120procedure": 2335,
  "\u0120wahl": 2336,
  "\u0120opportunity": 2337,
  "\u0120struct": 2338,
  "schaften": 2339,
  "\u0120brit": 2340,
  "\u0120wahr": 2341,
  "\u0120politische": 2342,
  "\u0120did": 2343,
  "\u0120guarante": 2344,
  "\u0120less": 2345,
  "\u0120aussprache": 2346,
  "\u0120integration": 2347,
  "\u0120miss": 2348,
  "\u0120entwicklungs": 2349,
  "\u0120importance": 2350,
  "\u0120organisation": 2351,
  "\u0120current": 2352,
  "\u0120access": 2353,
  "ieg": 2354,
  "\u0120elect": 2355,
  "\u0120simp": 2356,
  "\u0120sowohl": 2357,
  "ogen": 2358,
  "\u0120streng": 2359,
  "r\u00c3\u00a4": 2360,
  "gelegt": 2361,
  "\u0120deren": 2362,
  "\u012015": 2363,
  "\u0120il": 2364,
  "\u0120rechte": 2365,
  "\u0120employment": 2366,
  "\u0120welche": 2367,
  "\u0120stud": 2368,
  "\u0120prom": 2369,
  "\u0120ital": 2370,
  "\u0120l\u00c3\u00b6sung": 2371,
  "\u0120finally": 2372,
  "\u0120gemeinsame": 2373,
  "\u0120conditions": 2374,
  "\u0120enlargement": 2375,
  "\u0120ende": 2376,
  "\u0120bringen": 2377,
  "\u0120steht": 2378,
  "\u0120d\u00c3\u00bcrfen": 2379,
  "\u0120zun\u00c3\u00a4chst": 2380,
  "ont": 2381,
  "ension": 2382,
  "\u0120danken": 2383,
  "\u0120herren": 2384,
  "\u0120become": 2385,
  "\u0120av": 2386,
  "\u0120used": 2387,
  "\u0120including": 2388,
  "\u0120wohl": 2389,
  "\u0120democracy": 2390,
  "genda": 2391,
  "\u0120madam": 2392,
  "\u0120verbraucher": 2393,
  "\u0120bor": 2394,
  "\u0120lis": 2395,
  "\u0120demokratie": 2396,
  "\u0120illeg": 2397,
  "\u0120kult": 2398,
  "\u0120event": 2399,
  "ropri": 2400,
  "\u0120umsetzung": 2401,
  "gabe": 2402,
  "\u0120f\u00c3\u00bchren": 2403,
  "\u012011": 2404,
  "\u0120artikel": 2405,
  "\u0120negotiations": 2406,
  "lie\u00c3\u0141en": 2407,
  "\u0120itself": 2408,
  "\u0120prot": 2409,
  "\u0120def": 2410,
  "\u0120entscheiden": 2411,
  "\u0120authorities": 2412,
  "schutz": 2413,
  "\u0120resources": 2414,
  "\u0120non": 2415,
  "\u0120gro\u00c3\u0141en": 2416,
  "\u0120exist": 2417,
  "ock": 2418,
  "ierte": 2419,
  "\u0120responsibility": 2420,
  "\u0120lif": 2421,
  "\u0120extrem": 2422,
  "pect": 2423,
  "iness": 2424,
  "\u0120ans": 2425,
  "spect": 2426,
  "imes": 2427,
  "\u0120child": 2428,
  "go": 2429,
  "\u0120ann": 2430,
  "\u0120parliaments": 2431,
  "\u0120liegt": 2432,
  "usion": 2433,
  "\u0120bu": 2434,
  "\u0120usa": 2435,
  "\u0120ess": 2436,
  "\u0120beteil": 2437,
  "\u0120oper": 2438,
  "\u012012": 2439,
  "\u0120understand": 2440,
  "\u0120dep": 2441,
  "\u0120suff": 2442,
  "000": 2443,
  "cially": 2444,
  "igkeiten": 2445,
  "\u0120erweiterung": 2446,
  "\u0120ret": 2447,
  "\u0120vergangen": 2448,
  "\u0120indeed": 2449,
  "rodu": 2450,
  "\u0120ern": 2451,
  "off": 2452,
  "iesen": 2453,
  "ilit\u00c3\u00a4t": 2454,
  "\u0120really": 2455,
  "\u0120least": 2456,
  "\u0120flex": 2457,
  "\u0120start": 2458,
  "\u0120alles": 2459,
  "\u0120provide": 2460,
  "\u0120air": 2461,
  "\u0120brauchen": 2462,
  "reten": 2463,
  "ling": 2464,
  "rech": 2465,
  "\u0120wider": 2466,
  "\u0120recog": 2467,
  "\u0120prevent": 2468,
  "recht": 2469,
  "\u0120while": 2470,
  "\u0120never": 2471,
  "\u0120partn": 2472,
  "\u0120span": 2473,
  "f\u00c3\u00bchren": 2474,
  "\u0120viol": 2475,
  "ivid": 2476,
  "\u0120gerade": 2477,
  "gestellt": 2478,
  "\u0120greater": 2479,
  "per": 2480,
  "v\u00c3\u00b6lk": 2481,
  "ning": 2482,
  "\u0120having": 2483,
  "iation": 2484,
  "igr": 2485,
  "\u0120wettbewerbs": 2486,
  "h\u00c3\u00b6rden": 2487,
  "\u0120erw\u00c3\u00a4": 2488,
  "\u0120kurz": 2489,
  "uge": 2490,
  "\u01202000": 2491,
  "\u0120tro": 2492,
  "\u0120clos": 2493,
  "\u0120mom": 2494,
  "\u0120darum": 2495,
  "blick": 2496,
  "\u0120gere": 2497,
  "\u012010": 2498,
  "\u0120essential": 2499,
  "\u0120deutlich": 2500,
  "\u0120subst": 2501,
  "\u0120dank": 2502,
  "bour": 2503,
  "\u0120bek\u00c3\u00a4mp": 2504,
  "\u0120inner": 2505,
  "\u0120address": 2506,
  "\u0120comple": 2507,
  "\u0120each": 2508,
  "\u0120mult": 2509,
  "igent": 2510,
  "\u0120damen": 2511,
  "\u0120espe": 2512,
  "\u0120einfach": 2513,
  "\u0120bild": 2514,
  "\u0120au\u00c3\u0141en": 2515,
  "\u0120gr\u00c3\u00bcn": 2516,
  "\u0120demand": 2517,
  "\u0120bem\u00c3\u00bc": 2518,
  "icient": 2519,
  "ennt": 2520,
  "raum": 2521,
  "\u0120fiel": 2522,
  "\u0120genau": 2523,
  "\u0120funds": 2524,
  "\u0120spiel": 2525,
  "\u0120einigen": 2526,
  "\u0120hist": 2527,
  "\u0120especially": 2528,
  "\u0120ben": 2529,
  "\u0120convention": 2530,
  "\u0120besonders": 2531,
  "verst\u00c3\u00a4nd": 2532,
  "ierungen": 2533,
  "\u0120opt": 2534,
  "\u0120regions": 2535,
  "\u0120mod": 2536,
  "\u0120increase": 2537,
  "\u0120always": 2538,
  "\u0120vertrag": 2539,
  "ances": 2540,
  "\u0120alth": 2541,
  "andid": 2542,
  "\u0120free": 2543,
  "ferenz": 2544,
  "\u0120activ": 2545,
  "\u0120kin": 2546,
  "\u0120lead": 2547,
  "\u0120weiterhin": 2548,
  "\u0120tax": 2549,
  "\u0120fight": 2550,
  "\u0120wach": 2551,
  "\u0120policies": 2552,
  "such": 2553,
  "\u0120agenda": 2554,
  "\u0120things": 2555,
  "com": 2556,
  "hung": 2557,
  "ieten": 2558,
  "\u0120%": 2559,
  "\u0120democratic": 2560,
  "onds": 2561,
  "\u0120sy": 2562,
  "\u0120although": 2563,
  "\u0120beispielsweise": 2564,
  "\u0120supp": 2565,
  "\u0120introdu": 2566,
  "\u0120appropri": 2567,
  "\u0120gilt": 2568,
  "\u0120beim": 2569,
  "\u0120frieden": 2570,
  "\u0120ple": 2571,
  "\u0120individ": 2572,
  "\u0120hinaus": 2573,
  "\u0120civil": 2574,
  "teilung": 2575,
  "\u0120einsch": 2576,
  "stehen": 2577,
  "\u0120china": 2578,
  "\u0120standards": 2579,
  "\u0120society": 2580,
  "\u0120nichts": 2581,
  "\u0120lim": 2582,
  "\u0120subs": 2583,
  "l\u00c3\u00a4ndern": 2584,
  "\u0120vielleicht": 2585,
  "\u0120erreichen": 2586,
  "hnt": 2587,
  "\u0120making": 2588,
  "\u0120oppos": 2589,
  "\u0120addition": 2590,
  "\u0120artic": 2591,
  "ator": 2592,
  "ross": 2593,
  "\u0120vielen": 2594,
  "thing": 2595,
  "\u0120moment": 2596,
  "\u0120mot": 2597,
  "text": 2598,
  "esen": 2599,
  "\u00c3\u0141e": 2600,
  "\u0120ear": 2601,
  "\u0120ausschusses": 2602,
  "bereich": 2603,
  "\u0120business": 2604,
  "ika": 2605,
  "bei": 2606,
  "iod": 2607,
  "oney": 2608,
  "ath": 2609,
  "\u0120meines": 2610,
  "\u0120taking": 2611,
  "\u0120ersten": 2612,
  "\u0120vereinbar": 2613,
  "ko": 2614,
  "\u0120growth": 2615,
  "\u0120benefit": 2616,
  "\u0120equal": 2617,
  "\u0120trad": 2618,
  "oting": 2619,
  "\u0120fis": 2620,
  "\u0120play": 2621,
  "\u0120achieve": 2622,
  "\u0120pr\u00c3\u00a4sidentin": 2623,
  "\u0120competition": 2624,
  "\u0120ebene": 2625,
  "\u0120occ": 2626,
  "\u0120erhalten": 2627,
  "h\u00c3\u00b6": 2628,
  "\u0120pun": 2629,
  "\u0120harmon": 2630,
  "ability": 2631,
  "wert": 2632,
  "\u01202004": 2633,
  "\u0120points": 2634,
  "\u0120sozialen": 2635,
  "ulation": 2636,
  "nehmer": 2637,
  "ters": 2638,
  "ief": 2639,
  "\u0120sollen": 2640,
  "reifen": 2641,
  "\u0120ziele": 2642,
  "\u0120attention": 2643,
  "\u0120large": 2644,
  "over": 2645,
  "\u0120draft": 2646,
  "asing": 2647,
  "gew": 2648,
  "\u0120beiden": 2649,
  "\u0120verordnung": 2650,
  "\u0120erach": 2651,
  "\u0120fischere": 2652,
  "ren": 2653,
  "\u0120comb": 2654,
  "\u0120weitere": 2655,
  "komm": 2656,
  "\u012025": 2657,
  "\u0120ausdruck": 2658,
  "\u0120meth": 2659,
  "\u0120money": 2660,
  "akt": 2661,
  "ably": 2662,
  "\u0120erziel": 2663,
  "ness": 2664,
  "\u0120gegenw\u00c3\u00a4rt": 2665,
  "tellen": 2666,
  "\u0120creat": 2667,
  "\u0120entsprechen": 2668,
  "\u0120products": 2669,
  "\u0120r\u00c3\u00bcck": 2670,
  "\u0120solche": 2671,
  "ikan": 2672,
  "\u0120innov": 2673,
  "\u0120rece": 2674,
  "kei": 2675,
  "\u0120words": 2676,
  "\u0120adopt": 2677,
  "\u0120communic": 2678,
  "\u0120akzept": 2679,
  "\u0120verantwortung": 2680,
  "reicht": 2681,
  "\u0120concerns": 2682,
  "\u0120binnen": 2683,
  "\u0120strength": 2684,
  "\u0120effective": 2685,
  "ides": 2686,
  "\u0120kommt": 2687,
  "\u0120ihrem": 2688,
  "\u0120various": 2689,
  "syste": 2690,
  "\u0120werde": 2691,
  "letz": 2692,
  "ustain": 2693,
  "\u0120partners": 2694,
  "\u0120aspe": 2695,
  "\u0120month": 2696,
  "\u0120hilfe": 2697,
  "\u0120erg": 2698,
  "\u0120dort": 2699,
  "uth": 2700,
  "duc": 2701,
  "\u0120anal": 2702,
  "raph": 2703,
  "\u0120macht": 2704,
  "urch": 2705,
  "\u0120unions": 2706,
  "\u0120interests": 2707,
  "\u0120n\u00c3\u00a4ch": 2708,
  "leit": 2709,
  "\u0120wei\u00c3\u0141": 2710,
  "\u0120based": 2711,
  "nete": 2712,
  "\u0120angenommen": 2713,
  "\u0120led": 2714,
  "\u0120demon": 2715,
  "\u0120schwer": 2716,
  "\u0120handelt": 2717,
  "itor": 2718,
  "att": 2719,
  "\u0120kind": 2720,
  "\u0120pass": 2721,
  "\u0120following": 2722,
  "\u0120food": 2723,
  "l\u00c3\u00bcck": 2724,
  "\u0120comprom": 2725,
  "\u0120power": 2726,
  "schein": 2727,
  "\u0120ebenfalls": 2728,
  "hing": 2729,
  "\u0120enc": 2730,
  "\u0120grundlage": 2731,
  "\u0120implementation": 2732,
  "\u0120verfahren": 2733,
  "row": 2734,
  "\u0120bev\u00c3\u00b6lk": 2735,
  "\u0120verhandlungen": 2736,
  "\u0120au\u00c3\u0141erdem": 2737,
  "\u0120efforts": 2738,
  "stum": 2739,
  "\u0120fair": 2740,
  "\u0120absol": 2741,
  "\u0120partner": 2742,
  "\u0120finden": 2743,
  "\u0120diskuss": 2744,
  "fs": 2745,
  "urop": 2746,
  "\u0120w\u00c3\u00bcrden": 2747,
  "dent": 2748,
  "\u0120deleg": 2749,
  "ma\u00c3\u0141": 2750,
  "\u0120aspect": 2751,
  "\u0120ebenso": 2752,
  "aps": 2753,
  "\u0120objectives": 2754,
  "ateral": 2755,
  "\u0120\u00c3\u00bcberein": 2756,
  "\u0120lab": 2757,
  "\u0120subsid": 2758,
  "\u0120sustain": 2759,
  "\u0120zust\u00c3\u00a4nd": 2760,
  "unter": 2761,
  "\u0120educ": 2762,
  "\u0120verpflicht": 2763,
  "\u0120life": 2764,
  "\u0120short": 2765,
  "yl": 2766,
  "\u0120involved": 2767,
  "mut": 2768,
  "\u0120stellt": 2769,
  "ausschuss": 2770,
  "\u01202003": 2771,
  "\u0120arg": 2772,
  "gratul": 2773,
  "\u0120vis": 2774,
  "\u0120wee": 2775,
  "it\u00c3\u00a4ts": 2776,
  "\u0120aussch": 2777,
  "\u0120entscheidung": 2778,
  "\u0120verkehr": 2779,
  "\u0120voted": 2780,
  "\u0120congratul": 2781,
  "\u0120feel": 2782,
  "\u0120kosten": 2783,
  "\u0120party": 2784,
  "ffung": 2785,
  "ily": 2786,
  "01": 2787,
  "fern": 2788,
  "\u0120foreign": 2789,
  "\u0120though": 2790,
  "ilateral": 2791,
  "linien": 2792,
  "\u0120bl": 2793,
  "\u0120among": 2794,
  "ktionen": 2795,
  "ification": 2796,
  "gang": 2797,
  "\u0120sprechen": 2798,
  "\u0120justice": 2799,
  "\u0120jahres": 2800,
  "chan": 2801,
  "\u00c3\u00a4ss": 2802,
  "heb": 2803,
  "yp": 2804,
  "\u0120aware": 2805,
  "\u0120k\u00c3\u00bcnft": 2806,
  "iver": 2807,
  "\u0120ratspr\u00c3\u00a4sident": 2808,
  "setzen": 2809,
  "zogen": 2810,
  "\u0120signific": 2811,
  "\u0120komprom": 2812,
  "\u0120hon": 2813,
  "\u0120admin": 2814,
  "oll": 2815,
  "\u0120period": 2816,
  "\u0120sei": 2817,
  "\u0120diskussion": 2818,
  "\u0120gegeben": 2819,
  "\u0120schl": 2820,
  "\u0120standpunkt": 2821,
  "igration": 2822,
  "res": 2823,
  "pres": 2824,
  "\u0120portug": 2825,
  "\u0120wirtschafts": 2826,
  "\u0120wichtige": 2827,
  "z\u00c3\u00bc": 2828,
  "gesehen": 2829,
  "\u0120eigent": 2830,
  "\u0120besser": 2831,
  "\u0120certainly": 2832,
  "alen": 2833,
  "\u0120chang": 2834,
  "gern": 2835,
  "\u0120workers": 2836,
  "\u0120mean": 2837,
  "alled": 2838,
  "gesetzt": 2839,
  "\u0120emph": 2840,
  "utet": 2841,
  "\u0120fern": 2842,
  "\u0120erm\u00c3\u00b6": 2843,
  "gel": 2844,
  "\u0120economy": 2845,
  "\u0120uk": 2846,
  "hlen": 2847,
  "\u0120groups": 2848,
  "\u0120lon": 2849,
  "\u0120erachtens": 2850,
  "\u0120pop": 2851,
  "\u0120companies": 2852,
  "\u01202001": 2853,
  "llig": 2854,
  "\u0120parte": 2855,
  "\u0120statement": 2856,
  "\u0120court": 2857,
  "rang": 2858,
  "\u0120jeder": 2859,
  "\u0120happen": 2860,
  "vorschriften": 2861,
  "\u0120weniger": 2862,
  "\u0120objective": 2863,
  "\u0120keinen": 2864,
  "\u0120unab": 2865,
  "\u0120decisions": 2866,
  "\u0120sur": 2867,
  "\u0120regionen": 2868,
  "emp": 2869,
  "\u0120ged": 2870,
  "\u0120t\u00c3\u00bcrkei": 2871,
  "\u0120colleag": 2872,
  "\u0120consequ": 2873,
  "\u0120klein": 2874,
  "ged": 2875,
  "president": 2876,
  "\u0120strong": 2877,
  "\u0120tages": 2878,
  "thers": 2879,
  "\u0120care": 2880,
  "ics": 2881,
  "\u0120table": 2882,
  "\u0120gew\u00c3\u00a4hrle": 2883,
  "\u00c3\u00a4d": 2884,
  "han": 2885,
  "zeitig": 2886,
  "\u0120dienstleist": 2887,
  "\u0120turke": 2888,
  "zahl": 2889,
  "org": 2890,
  "ipf": 2891,
  "\u0120article": 2892,
  "astr": 2893,
  "\u0120interesse": 2894,
  "\u0120fisher": 2895,
  "\u0120innerhalb": 2896,
  "\u0120aufge": 2897,
  "\u0120umfassen": 2898,
  "\u0120sing": 2899,
  "\u0120fal": 2900,
  "\u0120sw": 2901,
  "lig": 2902,
  "\u0120systems": 2903,
  "\u0120notwendig": 2904,
  "\u0120institutionen": 2905,
  "\u0120often": 2906,
  "ehr": 2907,
  "eits": 2908,
  "\u0120nehmen": 2909,
  "\u0120gesellschaft": 2910,
  "icial": 2911,
  "\u0120terrorism": 2912,
  "\u0120gewalt": 2913,
  "ieben": 2914,
  "\u0120\u00c3\u00bcberw": 2915,
  "\u0120dialogue": 2916,
  "frage": 2917,
  "\u0120recent": 2918,
  "\u0120zweif": 2919,
  "\u0120fully": 2920,
  "ining": 2921,
  "\u0120struktur": 2922,
  "ller": 2923,
  "\u0120seinen": 2924,
  "\u0120unterschied": 2925,
  "isches": 2926,
  "ceed": 2927,
  "\u0120majority": 2928,
  "\u0120rom": 2929,
  "\u0120angesichts": 2930,
  "\u01202002": 2931,
  "\u0120individual": 2932,
  "eless": 2933,
  "\u0120san": 2934,
  "\u0120administr": 2935,
  "\u0120ident": 2936,
  "\u0120indem": 2937,
  "iter": 2938,
  "\u0120developing": 2939,
  "\u0120schaffen": 2940,
  "\u0120joint": 2941,
  "\u0120might": 2942,
  "\u0120zugang": 2943,
  "\u0120tag": 2944,
  "\u0120gra": 2945,
  "verfahren": 2946,
  "ify": 2947,
  "asst": 2948,
  "\u0120extremely": 2949,
  "\u0120ago": 2950,
  "\u0120loc": 2951,
  "\u0120field": 2952,
  "\u0120hinblick": 2953,
  "\u0120hatte": 2954,
  "idence": 2955,
  "finden": 2956,
  "bon": 2957,
  "s\u00c3\u00a4tz": 2958,
  "\u0120\u00c3\u00bcbr": 2959,
  "\u0120solution": 2960,
  "ix": 2961,
  "\u0120stim": 2962,
  "\u0120spra": 2963,
  "\u0120sitz": 2964,
  "\u0120kommissarin": 2965,
  "\u0120dat": 2966,
  "mitt": 2967,
  "wirkungen": 2968,
  "achen": 2969,
  "ifiz": 2970,
  "\u0120verfassung": 2971,
  "merksam": 2972,
  "dr\u00c3\u00bcck": 2973,
  "\u0120simply": 2974,
  "\u0120schritt": 2975,
  "\u0120programmes": 2976,
  "\u0120aufmerksam": 2977,
  "\u0120erne": 2978,
  "ency": 2979,
  "einander": 2980,
  "\u0120landwirtschaft": 2981,
  "\u0120avail": 2982,
  "\u0120binnenmarkt": 2983,
  "\u0120seem": 2984,
  "\u0120resul": 2985,
  "\u0120lin": 2986,
  "\u0120gleichzeitig": 2987,
  "\u0120summit": 2988,
  "\u0120dring": 2989,
  "app": 2990,
  "\u0120altern": 2991,
  "istan": 2992,
  "\u0120gemacht": 2993,
  "\u0120applic": 2994,
  "\u0120terrorismus": 2995,
  "\u0120fish": 2996,
  "dien": 2997,
  "\u0120emphas": 2998,
  "\u0120verfol": 2999,
  "\u0120proj": 3000,
  "old": 3001,
  "zustellen": 3002,
  "\u0120leider": 3003,
  "\u0120questions": 3004,
  "round": 3005,
  "\u0120pr\u00c3\u00bc": 3006,
  "haltung": 3007,
  "\u0120vertra": 3008,
  "\u0120force": 3009,
  "\u0120erf\u00c3\u00bc": 3010,
  "\u0120nutzen": 3011,
  "\u0120quality": 3012,
  "\u0120risk": 3013,
  "\u0120wto": 3014,
  "\u0120others": 3015,
  "\u0120prec": 3016,
  "\u0120chall": 3017,
  "ente": 3018,
  "gegen": 3019,
  "\u0120eigenen": 3020,
  "\u0120informationen": 3021,
  "\u0120flexib": 3022,
  "\u0120beziehungen": 3023,
  "\u0120vereinigten": 3024,
  "istet": 3025,
  "\u0120meinen": 3026,
  "\u0120\u00c3\u00a4u\u00c3\u0141erst": 3027,
  "ichen": 3028,
  "\u0120asyl": 3029,
  "\u0120management": 3030,
  "ica": 3031,
  "\u0120ban": 3032,
  "\u0120tas": 3033,
  "riminal": 3034,
  "pr\u00c3\u00bc": 3035,
  "\u0120beh\u00c3\u00b6rden": 3036,
  "ritts": 3037,
  "\u0120nachhalt": 3038,
  "\u0120gute": 3039,
  "ove": 3040,
  "\u0120dim": 3041,
  "\u0120gehen": 3042,
  "\u0120bre": 3043,
  "\u0120day": 3044,
  "\u0120staat": 3045,
  "\u0120protect": 3046,
  "\u0120agreements": 3047,
  "weg": 3048,
  "\u0120mal": 3049,
  "\u0120dessen": 3050,
  "\u0120sure": 3051,
  "\u0120compromise": 3052,
  "ean": 3053,
  "urg": 3054,
  "\u0120increasing": 3055,
  "\u0120tot": 3056,
  "iges": 3057,
  "most": 3058,
  "\u0120strategie": 3059,
  "imate": 3060,
  "\u0120meeting": 3061,
  "\u0120assess": 3062,
  "icherheit": 3063,
  "\u0120prakt": 3064,
  "oten": 3065,
  "elves": 3066,
  "iellen": 3067,
  "\u0120sehen": 3068,
  "\u0120bef\u00c3\u00bcr": 3069,
  "\u01202005": 3070,
  "ants": 3071,
  "\u0120mut": 3072,
  "\u0120anerk": 3073,
  "ec": 3074,
  "enten": 3075,
  "bt": 3076,
  "\u0120doc": 3077,
  "\u0120gre": 3078,
  "\u0120erreicht": 3079,
  "\u0120eas": 3080,
  "\u0120h\u00c3\u00a4tte": 3081,
  "\u0120enter": 3082,
  "\u0120prozess": 3083,
  "\u0120rele": 3084,
  "\u0120beitrag": 3085,
  "\u0120oblig": 3086,
  "\u0120lack": 3087,
  "\u0120document": 3088,
  "gency": 3089,
  "\u0120apply": 3090,
  "\u0120bede": 3091,
  "\u0120single": 3092,
  "\u0120gemeinschafts": 3093,
  "\u0120complete": 3094,
  "\u0120found": 3095,
  "\u0120v\u00c3\u00b6": 3096,
  "\u0120doing": 3097,
  "\u0120encour": 3098,
  "erseits": 3099,
  "\u0120mentioned": 3100,
  "\u0120particip": 3101,
  "mals": 3102,
  "\u0120t\u00c3\u00a4t": 3103,
  "\u0120wenig": 3104,
  "tember": 3105,
  "\u0120competit": 3106,
  "\u0120auffassung": 3107,
  "ichtet": 3108,
  "haps": 3109,
  "\u0120perhaps": 3110,
  "\u0120foc": 3111,
  "\u0120strengthen": 3112,
  "twort": 3113,
  "eh": 3114,
  "\u0120f\u00c3\u00b6rderung": 3115,
  "\u0120antwort": 3116,
  "\u0120farm": 3117,
  "eder": 3118,
  "\u0120schne": 3119,
  "\u0120einzu": 3120,
  "entur": 3121,
  "\u0120erste": 3122,
  "ugen": 3123,
  "\u0120konn": 3124,
  "\u00c3\u00a4ren": 3125,
  "\u0120unterst\u00c3\u00bctzt": 3126,
  "\u0120education": 3127,
  "ians": 3128,
  "\u0120mob": 3129,
  "ptember": 3130,
  "bereit": 3131,
  "\u0120special": 3132,
  "verst\u00c3\u00a4ndlich": 3133,
  "\u0120fr\u00c3\u00bc": 3134,
  "\u0120arbeitsp": 3135,
  "\u0120schlie\u00c3\u0141lich": 3136,
  "\u0120tar": 3137,
  "\u0120auswirkungen": 3138,
  "\u0120jeden": 3139,
  "\u0120gebiet": 3140,
  "entw": 3141,
  "\u0120kamp": 3142,
  "\u0120wirksam": 3143,
  "\u0120governments": 3144,
  "\u0120bisher": 3145,
  "\u0120turkey": 3146,
  "\u0120k\u00c3\u00b6nnten": 3147,
  "\u0120thems": 3148,
  "\u0120themselves": 3149,
  "\u0120beginn": 3150,
  "\u0120wirtschaftlichen": 3151,
  "\u0120aufgabe": 3152,
  "\u0120millionen": 3153,
  "ritten": 3154,
  "\u0120\u00c3\u00b6ffentlichen": 3155,
  "bring": 3156,
  "\u0120pa": 3157,
  "igin": 3158,
  "\u00c3\u00b6t": 3159,
  "\u0120hei\u00c3\u0141": 3160,
  "\u0120eindeut": 3161,
  "\u0120pap": 3162,
  "m\u00c3\u00a4\u00c3\u0141": 3163,
  "fortun": 3164,
  "\u0120tats\u00c3\u00a4ch": 3165,
  "\u0120forschung": 3166,
  "\u0120exc": 3167,
  "\u0120rei": 3168,
  "\u0120kinder": 3169,
  "\u0120unfortun": 3170,
  "\u0120challen": 3171,
  "\u0120f\u00c3\u00bcn": 3172,
  "\u0120aufgrund": 3173,
  "lie\u00c3\u0141end": 3174,
  "\u0120bedeutet": 3175,
  "\u0120geld": 3176,
  "\u0120einw": 3177,
  "weis": 3178,
  "usst": 3179,
  "\u0120significant": 3180,
  "\u0120ec": 3181,
  "\u0120erinn": 3182,
  "\u0120experien": 3183,
  "\u0120bev\u00c3\u00b6lkerung": 3184,
  "mor": 3185,
  "\u0120prof": 3186,
  "\u0120vorliegen": 3187,
  "\u0120him": 3188,
  "\u0120sogar": 3189,
  "\u0120upon": 3190,
  "\u0120net": 3191,
  "\u0120entschlie\u00c3\u0141ung": 3192,
  "\u0120verte": 3193,
  "\u0120natur": 3194,
  "\u0120hoch": 3195,
  "\u0120hinter": 3196,
  "ctive": 3197,
  "\u0120unabh\u00c3\u00a4ng": 3198,
  "\u0120available": 3199,
  "\u0120final": 3200,
  "ob": 3201,
  "\u0120children": 3202,
  "\u0120concerning": 3203,
  "\u0120w\u00c3\u00bcn": 3204,
  "its": 3205,
  "\u0120amb": 3206,
  "\u0120dest": 3207,
  "\u0120eth": 3208,
  "\u0120n\u00c3\u00a4chsten": 3209,
  "\u0120verschiedenen": 3210,
  "\u0120conflic": 3211,
  "\u0120promo": 3212,
  "\u0120parties": 3213,
  "abon": 3214,
  "lands": 3215,
  "\u0120currently": 3216,
  "\u00c3\u00a4st": 3217,
  "ived": 3218,
  "absch": 3219,
  "\u0120erforderlich": 3220,
  "\u0120ver\u00c3\u00a4nder": 3221,
  "ons": 3222,
  "\u0120coordin": 3223,
  "\u0120fortschritte": 3224,
  "fragen": 3225,
  "\u0120halte": 3226,
  "\u0120create": 3227,
  "\u0120einzelnen": 3228,
  "\u0120kompromiss": 3229,
  "\u0120monitor": 3230,
  "\u0120focus": 3231,
  "teilen": 3232,
  "\u0120liss": 3233,
  "\u0120cru": 3234,
  "\u0120according": 3235,
  "hes": 3236,
  "\u0120appropriate": 3237,
  "\u0120stability": 3238,
  "aged": 3239,
  "\u0120origin": 3240,
  "\u0120lisbon": 3241,
  "\u0120bek\u00c3\u00a4mpfung": 3242,
  "\u0120mehrheit": 3243,
  "\u0120key": 3244,
  "zen": 3245,
  "\u0120lissabon": 3246,
  "\u0120anim": 3247,
  "\u0120tagesordnung": 3248,
  "\u0120\u00c3\u00bcbrigen": 3249,
  "utes": 3250,
  "jen": 3251,
  "\u0120conference": 3252,
  "\u0120actually": 3253,
  "\u0120halten": 3254,
  "\u0120morgen": 3255,
  "bild": 3256,
  "lan": 3257,
  "\u0120hei\u00c3\u0141t": 3258,
  "\u0120rule": 3259,
  "auss": 3260,
  "\u0120sag": 3261,
  "\u0120hinsichtlich": 3262,
  "\u0120context": 3263,
  "\u0120bedingungen": 3264,
  "\u0120fail": 3265,
  "\u0120abkommen": 3266,
  "ained": 3267,
  "\u0120matters": 3268,
  "\u0120results": 3269,
  "\u00c3\u00a4nde": 3270,
  "\u0120verteid": 3271,
  "\u0120schluss": 3272,
  "gn": 3273,
  "\u0120recomm": 3274,
  "\u0120four": 3275,
  "\u0120red": 3276,
  "\u0120zweitens": 3277,
  "\u0120lau": 3278,
  "\u0120cases": 3279,
  "\u0120months": 3280,
  "ivers": 3281,
  "\u0120iran": 3282,
  "\u0120recommend": 3283,
  "\u0120reports": 3284,
  "\u0120mill": 3285,
  "\u0120ihm": 3286,
  "\u0120sicherheits": 3287,
  "\u0120wes": 3288,
  "\u0120einges": 3289,
  "ubt": 3290,
  "\u0120proper": 3291,
  "\u0120trag": 3292,
  "\u0120secondly": 3293,
  "\u0120ergebnis": 3294,
  "\u0120trotz": 3295,
  "fordert": 3296,
  "\u0120verst\u00c3\u00a4r": 3297,
  "\u012013": 3298,
  "fehl": 3299,
  "burg": 3300,
  "iken": 3301,
  "\u0120draw": 3302,
  "mitglie": 3303,
  "itionen": 3304,
  "wh": 3305,
  "\u0120erh\u00c3\u00b6": 3306,
  "\u0120nu": 3307,
  "\u0120head": 3308,
  "\u0120wachstum": 3309,
  "\u0120denke": 3310,
  "hnen": 3311,
  "rechte": 3312,
  "\u0120needed": 3313,
  "\u0120agricultural": 3314,
  "\u0120post": 3315,
  "\u0120pr\u00c3\u00a4": 3316,
  "\u0120conv": 3317,
  "\u0120labour": 3318,
  "\u0120plen": 3319,
  "\u0120tatsache": 3320,
  "\u0120fehl": 3321,
  "\u0120improve": 3322,
  "\u0120diskut": 3323,
  "iew": 3324,
  "denken": 3325,
  "\u0120anwendung": 3326,
  "\u0120nothing": 3327,
  "\u0120funding": 3328,
  "\u0120meinem": 3329,
  "\u0120accession": 3330,
  "annten": 3331,
  "\u0120guarantee": 3332,
  "\u0120line": 3333,
  "\u0120territ": 3334,
  "\u0120production": 3335,
  "uring": 3336,
  "\u0120exce": 3337,
  "mehr": 3338,
  "rete": 3339,
  "organ": 3340,
  "fre": 3341,
  "\u0120road": 3342,
  "\u0120interessen": 3343,
  "unehmen": 3344,
  "\u0120obwohl": 3345,
  "\u0120mechan": 3346,
  "\u0120nations": 3347,
  "\u0120jud": 3348,
  "program": 3349,
  "\u0120responsible": 3350,
  "\u0120principles": 3351,
  "\u0120gestimmt": 3352,
  "\u0120che": 3353,
  "\u0120sl": 3354,
  "\u0120legislative": 3355,
  "less": 3356,
  "atis": 3357,
  "\u0120kos": 3358,
  "\u0120german": 3359,
  "\u0120expect": 3360,
  "\u0120relig": 3361,
  "\u0120firstly": 3362,
  "ppe": 3363,
  "\u0120data": 3364,
  "\u0120sorgen": 3365,
  "\u0120keep": 3366,
  "ody": 3367,
  "\u0120f\u00c3\u00bcnf": 3368,
  "ativ": 3369,
  "\u0120mer": 3370,
  "\u0120ihn": 3371,
  "\u00c3\u00bcssel": 3372,
  "\u0120ernst": 3373,
  "\u0120element": 3374,
  "\u0120thing": 3375,
  "med": 3376,
  "\u0120gener": 3377,
  "\u0120stellung": 3378,
  "\u0120organisations": 3379,
  "\u0120longer": 3380,
  "\u0120stimmen": 3381,
  "\u0120\u00c3\u00bcberzeug": 3382,
  "\u01202007": 3383,
  "\u0120wichtigen": 3384,
  "\u0120september": 3385,
  "\u0120berichts": 3386,
  "\u0120past": 3387,
  "astru": 3388,
  "\u0120besch\u00c3\u00a4ftigung": 3389,
  "zentr": 3390,
  "\u0120verhin": 3391,
  "\u0120beitritts": 3392,
  "frastru": 3393,
  "\u0120geh\u00c3\u00b6rt": 3394,
  "\u0120betroffen": 3395,
  "\u0120consumer": 3396,
  "\u0120dist": 3397,
  "\u0120sport": 3398,
  "\u0120vorgesehen": 3399,
  "\u0120impact": 3400,
  "\u0120reihe": 3401,
  "\u0120bedau": 3402,
  "\u0120verbesserung": 3403,
  "\u0120vier": 3404,
  "\u0120vern": 3405,
  "anger": 3406,
  "\u0120erwar": 3407,
  "haft": 3408,
  "\u0120funktion": 3409,
  "jenigen": 3410,
  "\u0120mand": 3411,
  "\u0120sinn": 3412,
  "\u0120handel": 3413,
  "f\u00c3\u00a4higkeit": 3414,
  "\u0120erkl\u00c3\u00a4rung": 3415,
  "\u0120betra": 3416,
  "richtung": 3417,
  "\u0120unt": 3418,
  "\u0120dut": 3419,
  "\u0120prep": 3420,
  "\u0120v\u00c3\u00b6llig": 3421,
  "\u0120bekannt": 3422,
  "\u0120communication": 3423,
  "\u0120stimme": 3424,
  "\u0120soziale": 3425,
  "\u0120reasons": 3426,
  "\u0120forder": 3427,
  "\u0120arbeiten": 3428,
  "\u0120unver": 3429,
  "\u0120stabil": 3430,
  "\u0120kontrolle": 3431,
  "des": 3432,
  "fonds": 3433,
  "zunehmen": 3434,
  "\u0120achieved": 3435,
  "\u0120disp": 3436,
  "reiben": 3437,
  "\u0120gef\u00c3\u00a4hr": 3438,
  "eign": 3439,
  "\u0120peoples": 3440,
  "\u0120commitment": 3441,
  "\u0120notwendigkeit": 3442,
  "az": 3443,
  "\u0120central": 3444,
  "worten": 3445,
  "\u0120erstens": 3446,
  "\u01202006": 3447,
  "\u0120pr\u00c3\u00a4sidentschaft": 3448,
  "\u0120rede": 3449,
  "\u0120koordin": 3450,
  "\u0120schaffung": 3451,
  "\u0120assist": 3452,
  "\u0120grunds\u00c3\u00a4tz": 3453,
  "cr": 3454,
  "\u0120priority": 3455,
  "\u0120abschlie\u00c3\u0141end": 3456,
  "\u0120enough": 3457,
  "orm": 3458,
  "\u0120pal\u00c3\u00a4st": 3459,
  "\u0120pur": 3460,
  "ban": 3461,
  "cies": 3462,
  "\u0120palest": 3463,
  "\u0120daten": 3464,
  "\u0120solidarity": 3465,
  "\u0120sug": 3466,
  "anu": 3467,
  "urf": 3468,
  "\u0120entire": 3469,
  "bezie": 3470,
  "atast": 3471,
  "ims": 3472,
  "atastrop": 3473,
  "\u0120selbstverst\u00c3\u00a4ndlich": 3474,
  "\u0120request": 3475,
  "\u0120industrie": 3476,
  "\u0120tomor": 3477,
  "\u0120tomorrow": 3478,
  "lassen": 3479,
  "\u0120cla": 3480,
  "ators": 3481,
  "ellen": 3482,
  "\u0120maint": 3483,
  "\u0120gelten": 3484,
  "\u0120iraq": 3485,
  "llent": 3486,
  "\u0120she": 3487,
  "ielle": 3488,
  "\u0120arbeitnehmer": 3489,
  "frist": 3490,
  "\u0120russia": 3491,
  "\u0120sustainable": 3492,
  "\u0120litt": 3493,
  "\u0120idea": 3494,
  "\u0120-,": 3495,
  "\u0120bereichen": 3496,
  "\u0120water": 3497,
  "\u0120honour": 3498,
  "\u0120makes": 3499,
  "\u0120above": 3500,
  "\u0120little": 3501,
  "\u0120share": 3502,
  "ined": 3503,
  "\u0120yes": 3504,
  "\u0120personen": 3505,
  "\u0120desp": 3506,
  "\u0120histor": 3507,
  "\u0120infl": 3508,
  "ps": 3509,
  "ingt": 3510,
  "\u0120mu\u00c3\u0141": 3511,
  "plan": 3512,
  "\u0120kultur": 3513,
  "\u0120regarding": 3514,
  "\u0120aktiv": 3515,
  "produ": 3516,
  "\u0120000": 3517,
  "\u0120chance": 3518,
  "\u0120argument": 3519,
  "\u0120bitte": 3520,
  "\u0120weiteren": 3521,
  "\u012030": 3522,
  "\u0120previous": 3523,
  "\u0120local": 3524,
  "\u0120sever": 3525,
  "best": 3526,
  "ches": 3527,
  "\u0120mrpresident": 3528,
  "\u0120congratulate": 3529,
  "\u0120seen": 3530,
  "enzen": 3531,
  "\u0120method": 3532,
  "istischen": 3533,
  "\u0120emiss": 3534,
  "\u0120kampf": 3535,
  "\u0120regards": 3536,
  "\u0120deter": 3537,
  "\u0120true": 3538,
  "\u0120irak": 3539,
  "\u0120item": 3540,
  "\u0120staats": 3541,
  "\u0120nieder": 3542,
  "\u0120modern": 3543,
  "\u0120dimension": 3544,
  "\u0120sicht": 3545,
  "spruch": 3546,
  "\u0120delegation": 3547,
  "rist": 3548,
  "\u0120gipf": 3549,
  "\u0120grundlegen": 3550,
  "\u0120due": 3551,
  "\u0120fisheries": 3552,
  "mat": 3553,
  "\u0120answer": 3554,
  "\u0120bank": 3555,
  "\u0120excellent": 3556,
  "\u0120safe": 3557,
  "\u0120indep": 3558,
  "cen": 3559,
  "onen": 3560,
  "\u0120setzen": 3561,
  "\u0120angem": 3562,
  "\u0120illegal": 3563,
  "ennen": 3564,
  "\u0120legit": 3565,
  "\u0120blo": 3566,
  "\u0120vict": 3567,
  "\u0120volks": 3568,
  "\u0120vorsitz": 3569,
  "\u0120b\u00c3\u00bcrgern": 3570,
  "office": 3571,
  "ledge": 3572,
  "\u0120turn": 3573,
  "\u0120wettbewerb": 3574,
  "\u0120recogn": 3575,
  "\u0120einheit": 3576,
  "agen": 3577,
  "\u0120gelegenheit": 3578,
  "forderungen": 3579,
  "\u0120acht": 3580,
  "\u0120unfortunately": 3581,
  "sens": 3582,
  "\u0120consumers": 3583,
  "\u0120regierungen": 3584,
  "\u0120criter": 3585,
  "nam": 3586,
  "\u0120offer": 3587,
  "\u0120vergangenen": 3588,
  "\u0120agreed": 3589,
  "\u0120rad": 3590,
  "seit": 3591,
  "\u0120begr\u00c3\u00bc\u00c3\u0141e": 3592,
  "atory": 3593,
  "ingen": 3594,
  "fraktion": 3595,
  "hend": 3596,
  "iffen": 3597,
  "iere": 3598,
  "\u0120blei": 3599,
  "\u0120activities": 3600,
  "ma\u00c3\u0141nahmen": 3601,
  "minister": 3602,
  "\u00c3\u00a4hl": 3603,
  "\u0120build": 3604,
  "\u0120indic": 3605,
  "eld": 3606,
  "\u0120extern": 3607,
  "\u0120infrastru": 3608,
  "\u0120vorschriften": 3609,
  "ully": 3610,
  "\u012050": 3611,
  "\u0120oft": 3612,
  "voll": 3613,
  ").": 3614,
  "\u0120sektor": 3615,
  "\u00c3\u00bcrz": 3616,
  "\u0120rats": 3617,
  "w\u00c3\u00bcr": 3618,
  "\u0120inst": 3619,
  "\u0120unserem": 3620,
  "\u0120kor": 3621,
  "\u0120kraft": 3622,
  "formen": 3623,
  "\u0120intend": 3624,
  "igungs": 3625,
  "\u0120gestellt": 3626,
  "\u0120h\u00c3\u00a4": 3627,
  "\u0120erheb": 3628,
  "\u0120untersuch": 3629,
  "\u0120obser": 3630,
  "\u0120gerecht": 3631,
  "ry": 3632,
  "\u0120russland": 3633,
  "\u0120langu": 3634,
  "isis": 3635,
  "teilt": 3636,
  "\u0120projects": 3637,
  "\u0120export": 3638,
  "\u0120crisis": 3639,
  "\u0120zivil": 3640,
  "iveness": 3641,
  "fully": 3642,
  "\u0120promote": 3643,
  "\u0120treffen": 3644,
  "\u0120ansch": 3645,
  "\u0120effiz": 3646,
  "\u0120costs": 3647,
  "ize": 3648,
  "lied": 3649,
  "2001": 3650,
  "licht": 3651,
  "ican": 3652,
  "\u0120values": 3653,
  "\u0120,": 3654,
  "\u0120absolute": 3655,
  "irc": 3656,
  "\u0120richtig": 3657,
  "\u0120bleiben": 3658,
  "legenheiten": 3659,
  "orth": 3660,
  "\u0120agrar": 3661,
  "\u0120circ": 3662,
  "wand": 3663,
  "\u0120leit": 3664,
  "side": 3665,
  "\u0120sett": 3666,
  "\u012014": 3667,
  "\u0120crucial": 3668,
  "\u0120ten": 3669,
  "\u0120pot": 3670,
  "\u0120berichterstatterin": 3671,
  "\u0120comes": 3672,
  "\u0120provided": 3673,
  "\u0120flug": 3674,
  "imum": 3675,
  "\u0120restr": 3676,
  "\u0120europ\u00c3\u00a4ischer": 3677,
  "\u0120gesamten": 3678,
  "\u0120bzw": 3679,
  "anted": 3680,
  "\u0120gla": 3681,
  "\u0120relation": 3682,
  "vant": 3683,
  "chter": 3684,
  "\u0120zus\u00c3\u00a4tz": 3685,
  "hilfen": 3686,
  "\u0120status": 3687,
  "\u0120konfl": 3688,
  "ins": 3689,
  "ond": 3690,
  "hilfe": 3691,
  "iglich": 3692,
  "\u0120enthalten": 3693,
  "\u0120mitglieder": 3694,
  "di": 3695,
  "\u0120poor": 3696,
  "\u0120findet": 3697,
  "\u0120practice": 3698,
  "\u0120lediglich": 3699,
  "\u0120caus": 3700,
  "\u0120external": 3701,
  "\u0120low": 3702,
  "l\u00c3\u00a4ss": 3703,
  "gliche": 3704,
  "\u0120structural": 3705,
  "\u0120afg": 3706,
  "l\u00c3\u00a4tz": 3707,
  "\u0120ausf\u00c3\u00bchr": 3708,
  "bericht": 3709,
  "\u0120impos": 3710,
  "liches": 3711,
  "\u0120zudem": 3712,
  "reiche": 3713,
  "\u0120richtung": 3714,
  "\u0120handels": 3715,
  "\u0120v\u00c3\u00b6lk": 3716,
  "\u0120gefahr": 3717,
  "\u0120assoc": 3718,
  "\u0120s\u00c3\u00bc": 3719,
  "\u0120bevor": 3720,
  "\u01201999": 3721,
  "\u0120frank": 3722,
  "atten": 3723,
  "\u0120erzeug": 3724,
  "\u0120soon": 3725,
  "\u0120until": 3726,
  "ilities": 3727,
  "\u0120bemerk": 3728,
  "\u0120formul": 3729,
  "\u0120f\u00c3\u00b6rdern": 3730,
  "\u0120several": 3731,
  "vorsitz": 3732,
  "ences": 3733,
  "\u0120aktion": 3734,
  "\u0120kons": 3735,
  "\u0120rechtsvorschriften": 3736,
  "\u0120thus": 3737,
  "\u0120verbind": 3738,
  "\u0120mensch": 3739,
  "ennung": 3740,
  "\u0120voraus": 3741,
  "\u0120refle": 3742,
  "\u0120wert": 3743,
  "\u0120tabled": 3744,
  "\u0120afghan": 3745,
  "\u0120jobs": 3746,
  "\u0120traff": 3747,
  "selves": 3748,
  "\u0120kap": 3749,
  "\u0120verg": 3750,
  "\u0120ourselves": 3751,
  "iled": 3752,
  "\u0120aspects": 3753,
  "mitteln": 3754,
  "\u0120beha": 3755,
  "\u0120ground": 3756,
  "\u0120include": 3757,
  "\u0120personal": 3758,
  "ionen": 3759,
  "\u0120verfass": 3760,
  "\u0120verabsch": 3761,
  "sehen": 3762,
  "\u0120unseres": 3763,
  "\u0120etwa": 3764,
  "bare": 3765,
  "\u0120schnell": 3766,
  "\u0120sagte": 3767,
  "line": 3768,
  "baren": 3769,
  "sprozess": 3770,
  "\u0120internationale": 3771,
  "\u0120candid": 3772,
  "\u0120dok": 3773,
  "\u0120obvious": 3774,
  "\u0120dokument": 3775,
  "amt": 3776,
  "iding": 3777,
  "\u0120contribution": 3778,
  "atisf": 3779,
  "\u00c3\u00bcsse": 3780,
  "aking": 3781,
  "\u0120budgetary": 3782,
  "\u0120tradition": 3783,
  "\u0120warum": 3784,
  "\u0120cover": 3785,
  "\u0120seinem": 3786,
  "\u0120luft": 3787,
  "\u0120hohen": 3788,
  "clear": 3789,
  "\u0120wissenschaft": 3790,
  "ober": 3791,
  "\u0120despite": 3792,
  "stellt": 3793,
  "ending": 3794,
  "angt": 3795,
  "\u0120profit": 3796,
  "\u0120m\u00c3\u00b6glichkeiten": 3797,
  "gru": 3798,
  "\u0120response": 3799,
  "by": 3800,
  "\u0120purp": 3801,
  "\u0120discussion": 3802,
  "more": 3803,
  "\u0120stelle": 3804,
  "\u0120review": 3805,
  "\u0120tats\u00c3\u00a4chlich": 3806,
  "\u0120bit": 3807,
  "\u0120north": 3808,
  "\u0120pers\u00c3\u00b6n": 3809,
  "\u0120mid": 3810,
  "tr\u00c3\u00a4gen": 3811,
  "\u0120continu": 3812,
  "\u0120balance": 3813,
  "\u0120service": 3814,
  "\u0120young": 3815,
  "\u0120gew\u00c3\u00a4hrleisten": 3816,
  "\u0120tragen": 3817,
  "\u0120vorauss": 3818,
  "\u0120everything": 3819,
  "\u0120schein": 3820,
  "\u0120freiheit": 3821,
  "ums": 3822,
  "\u0120held": 3823,
  "\u0120extend": 3824,
  "\u0120intens": 3825,
  "\u0120kommun": 3826,
  "\u0120mass": 3827,
  "\u0120movement": 3828,
  "cher": 3829,
  "\u0120military": 3830,
  "cken": 3831,
  "kommens": 3832,
  "\u0120menschenrechts": 3833,
  "miss": 3834,
  "\u0120neu": 3835,
  "\u0120nationen": 3836,
  "heben": 3837,
  "sicherheit": 3838,
  "\u0120cho": 3839,
  "\u0120gesch\u00c3\u00a4ft": 3840,
  "verb": 3841,
  "\u0120201": 3842,
  "\u0120wa": 3843,
  "\u0120sk": 3844,
  "under": 3845,
  "\u0120gesundheits": 3846,
  "gu": 3847,
  "\u0120furthermore": 3848,
  "etzung": 3849,
  "\u0120angemessen": 3850,
  "ift": 3851,
  "\u0120actions": 3852,
  "\u0120seite": 3853,
  "\u0120dro": 3854,
  "\u0120gef\u00c3\u00bchrt": 3855,
  "\u0120gebracht": 3856,
  "\u0120left": 3857,
  "\u0120rea": 3858,
  "\u0120hatten": 3859,
  "bel": 3860,
  "ven": 3861,
  "oss": 3862,
  "\u0120markets": 3863,
  "\u0120technical": 3864,
  "\u0120contra": 3865,
  "lt": 3866,
  "\u0120tell": 3867,
  "\u0120fordern": 3868,
  "\u0120bewusst": 3869,
  "\u0120mess": 3870,
  "\u0120heut": 3871,
  "\u0120stress": 3872,
  "\u0120garant": 3873,
  "\u0120allein": 3874,
  "\u0120cy": 3875,
  "stell": 3876,
  "strateg": 3877,
  "\u0120excl": 3878,
  "\u0120agriculture": 3879,
  "\u0120saying": 3880,
  "\u0120move": 3881,
  "\u0120ble": 3882,
  "\u0120pack": 3883,
  "\u0120dritt": 3884,
  "\u0120bul": 3885,
  "\u0120regime": 3886,
  "\u0120everyone": 3887,
  "wegen": 3888,
  "leben": 3889,
  "\u0120beh": 3890,
  "\u0120colleagues": 3891,
  "arian": 3892,
  "\u0120genu": 3893,
  "arf": 3894,
  "\u0120anw": 3895,
  "istic": 3896,
  "\u0120steuer": 3897,
  "\u0120defen": 3898,
  "\u0120broad": 3899,
  "folge": 3900,
  "\u0120gern": 3901,
  "\u0120definition": 3902,
  "verty": 3903,
  "\u0120poverty": 3904,
  "\u0120arbeitspl\u00c3\u00a4tz": 3905,
  "bringen": 3906,
  "\u0120week": 3907,
  "\u0120appear": 3908,
  "\u0120vorbereit": 3909,
  "stead": 3910,
  "\u0120transparenz": 3911,
  "\u0120violence": 3912,
  "inens": 3913,
  "ffnung": 3914,
  "\u0120instead": 3915,
  "\u0120hinge": 3916,
  "nehm": 3917,
  "\u0120immigration": 3918,
  "\u0120gr\u00c3\u00bcnden": 3919,
  "02": 3920,
  "\u0120criteria": 3921,
  "\u0120gele": 3922,
  "\u0120entschlie\u00c3\u0141ungs": 3923,
  "\u0120parliamentary": 3924,
  "\u0120koh": 3925,
  "\u0120clar": 3926,
  "richtlinie": 3927,
  "\u0120liegen": 3928,
  "\u0120elections": 3929,
  "l\u00c3\u00bcckw": 3930,
  "\u0120presented": 3931,
  "\u0120verf\u00c3\u00bcgung": 3932,
  "ckt": 3933,
  "term": 3934,
  "\u0120augen": 3935,
  "\u0120cohes": 3936,
  "jahr": 3937,
  "\u0120bur": 3938,
  "sto": 3939,
  "\u0120italien": 3940,
  "\u0120south": 3941,
  "\u0120entscheidungen": 3942,
  "\u0120gree": 3943,
  "\u0120unterb": 3944,
  "\u0120gro\u00c3\u0141er": 3945,
  "\u0120m\u00c3\u00a4r": 3946,
  "\u0120transparency": 3947,
  "pr\u00c3\u00a4": 3948,
  "ott": 3949,
  "\u0120h\u00c3\u00b6ch": 3950,
  "durch": 3951,
  "\u0120pleased": 3952,
  "\u0120population": 3953,
  "por": 3954,
  "\u0120ord": 3955,
  "\u0120talk": 3956,
  "\u0120danger": 3957,
  "\u0120investment": 3958,
  "\u0120begr\u00c3\u00bc\u00c3\u0141en": 3959,
  "\u0120times": 3960,
  "\u0120getan": 3961,
  "\u0120kennt": 3962,
  "ikt": 3963,
  "\u0120palestin": 3964,
  "\u0120grie": 3965,
  "\u0120belg": 3966,
  "\u0120punkte": 3967,
  "\u00c3\u00b6sen": 3968,
  "ovo": 3969,
  "\u00c3\u00a4um": 3970,
  "iers": 3971,
  "part": 3972,
  "\u0120rech": 3973,
  "\u0120wobei": 3974,
  "\u0120danke": 3975,
  "legung": 3976,
  "ima": 3977,
  "\u0120tour": 3978,
  "dr\u00c3\u00bccklich": 3979,
  "m\u00c3\u00b6glich": 3980,
  "\u0120private": 3981,
  "\u0120ferner": 3982,
  "\u0120task": 3983,
  "ested": 3984,
  "\u0120humanit": 3985,
  "\u0120sense": 3986,
  "rank": 3987,
  "\u0120leisten": 3988,
  "\u0120handeln": 3989,
  "\u0120provisions": 3990,
  "\u0120ergebnisse": 3991,
  "\u0120eingehen": 3992,
  "nissen": 3993,
  "\u0120regeln": 3994,
  "\u0120empfehl": 3995,
  "\u0120verk": 3996,
  "\u0120betreffen": 3997,
  "\u0120constru": 3998,
  "ctions": 3999,
  "\u00c3\u00a4nger": 4000,
  "\u0120tele": 4001,
  "\u0120zeitpunkt": 4002,
  "\u0120existing": 4003,
  "\u0120pal\u00c3\u00a4stinens": 4004,
  "zeichnet": 4005,
  "\u0120dennoch": 4006,
  "endent": 4007,
  "\u0120ukra": 4008,
  "\u0120pet": 4009,
  "\u0120criminal": 4010,
  "\u0120angeb": 4011,
  "\u0120along": 4012,
  "\u0120carried": 4013,
  "\u0120close": 4014,
  "\u0120innovation": 4015,
  "\u0120bi": 4016,
  "\u0120janu": 4017,
  "\u0120angesprochen": 4018,
  "\u0120basic": 4019,
  "\u0120analys": 4020,
  "ote": 4021,
  "\u0120cred": 4022,
  "\u0120prinzip": 4023,
  "ither": 4024,
  "\u0120home": 4025,
  "\u0120fishing": 4026,
  "\u0120doubt": 4027,
  "\u0120stage": 4028,
  "\u0120vorgehen": 4029,
  "\u0120genommen": 4030,
  "\u0120contain": 4031,
  "weil": 4032,
  "ends": 4033,
  "\u0120avo": 4034,
  "organisation": 4035,
  "\u0120repe": 4036,
  "\u0120hard": 4037,
  "self": 4038,
  "\u0120verbessern": 4039,
  "\u0120guid": 4040,
  "fert": 4041,
  "\u0120either": 4042,
  "\u0120konzentr": 4043,
  "omat": 4044,
  "\u0120werte": 4045,
  "\u0120fast": 4046,
  "frei": 4047,
  "\u0120armut": 4048,
  "\u0120nature": 4049,
  "streng": 4050,
  "\u0120voting": 4051,
  "\u0120perspect": 4052,
  "\u0120\u00c3\u00b6ffentlichkeit": 4053,
  "\u0120six": 4054,
  "\u0120zweite": 4055,
  "\u0120changes": 4056,
  "\u0120konvent": 4057,
  "\u0120cohesion": 4058,
  "\u0120kosovo": 4059,
  "\u0120lat": 4060,
  "\u0120milit\u00c3\u00a4r": 4061,
  "\u0120vertreten": 4062,
  "\u0120finanziellen": 4063,
  "rift": 4064,
  "lies": 4065,
  "\u0120ansatz": 4066,
  "\u0120spee": 4067,
  "\u0120erster": 4068,
  "\u0120vorgelegt": 4069,
  "\u0120solchen": 4070,
  "wogen": 4071,
  "\u0120bildung": 4072,
  "uly": 4073,
  "\u0120fahr": 4074,
  "\u0120mann": 4075,
  "\u0120bleibt": 4076,
  "\u0120effekt": 4077,
  "\u0120finanzierung": 4078,
  "\u0120themen": 4079,
  "\u0120monitoring": 4080,
  "\u0120nuclear": 4081,
  "abkommen": 4082,
  "ured": 4083,
  "\u0120conflict": 4084,
  "oren": 4085,
  "\u0120suffer": 4086,
  "\u0120verz": 4087,
  "\u0120demokratischen": 4088,
  "\u0120asked": 4089,
  "bet": 4090,
  "\u0120list": 4091,
  "\u0120\u00c3\u00bcberpr\u00c3\u00bc": 4092,
  "ba": 4093,
  "\u0120hear": 4094,
  "hof": 4095,
  "\u0120namely": 4096,
  "\u0120beitragen": 4097,
  "\u0120expressed": 4098,
  "\u0120sto": 4099,
  "nommen": 4100,
  "okoll": 4101,
  "\u0120angelegenheiten": 4102,
  "\u0120maintain": 4103,
  "\u0120subsidiar": 4104,
  "\u0120attack": 4105,
  "\u0120kom": 4106,
  "\u0120angelegenheit": 4107,
  "anderung": 4108,
  "reiten": 4109,
  "\u0120opportunities": 4110,
  "\u0120threat": 4111,
  "kennen": 4112,
  "arbeitet": 4113,
  "\u0120bestimmungen": 4114,
  "\u0120around": 4115,
  "\u0120procedures": 4116,
  "\u0120mater": 4117,
  "\u0120suggest": 4118,
  "nect": 4119,
  "\u0120regulations": 4120,
  "\u0120eindeutig": 4121,
  "\u0120bestimmte": 4122,
  "\u0120wirtschaftliche": 4123,
  "asch": 4124,
  "\u0120dienstleistungen": 4125,
  "\u0120fischerei": 4126,
  "..": 4127,
  "\u0120verur": 4128,
  "\u0120lange": 4129,
  "\u0120bem\u00c3\u00bchungen": 4130,
  "aging": 4131,
  "arbeitung": 4132,
  "\u0120quick": 4133,
  "iate": 4134,
  "\u0120kommissions": 4135,
  "\u0120potential": 4136,
  "wiesen": 4137,
  "igte": 4138,
  "\u0120raised": 4139,
  "\u0120across": 4140,
  "chs": 4141,
  "\u0120term": 4142,
  "\u0120required": 4143,
  "\u0120cultural": 4144,
  "\u0120tat": 4145,
  "\u0120internet": 4146,
  "\u0120priorities": 4147,
  "\u0120kontroll": 4148,
  "\u0120prepared": 4149,
  "sprogram": 4150,
  "\u0120grenzen": 4151,
  "\u0120gru": 4152,
  "\u0120east": 4153,
  "\u0120prepar": 4154,
  "urn": 4155,
  "\u0120beru": 4156,
  "\u0120partnership": 4157,
  "\u0120beschlossen": 4158,
  "\u0120meisten": 4159,
  "\u0120ehr": 4160,
  "\u00c3\u00bclt": 4161,
  "\u0120solidarit\u00c3\u00a4t": 4162,
  "w\u00c3\u00bcrd": 4163,
  "\u0120bulgar": 4164,
  "\u0120recently": 4165,
  "\u0120na": 4166,
  "\u0120zentral": 4167,
  "\u0120wegen": 4168,
  "\u0120dinge": 4169,
  "ination": 4170,
  "\u012016": 4171,
  "arbeiten": 4172,
  "\u0120anstreng": 4173,
  "\u0120regret": 4174,
  "\u00c3\u00a4sst": 4175,
  "ahn": 4176,
  "ehrte": 4177,
  "alten": 4178,
  "\u0120run": 4179,
  "sprech": 4180,
  "\u012017": 4181,
  "\u0120called": 4182,
  "\u0120urg": 4183,
  "zulegen": 4184,
  "\u0120throughout": 4185,
  "\u0120highl": 4186,
  "\u0120j\u00c3\u00bcn": 4187,
  "\u0120defence": 4188,
  "lass": 4189,
  "\u0120camp": 4190,
  "\u0120seems": 4191,
  "\u0120haupt": 4192,
  "\u0120schul": 4193,
  "\u0120reading": 4194,
  "\u012018": 4195,
  "\u0120minor": 4196,
  "\u0120rein": 4197,
  "cep": 4198,
  "\u0120detail": 4199,
  "\u0120jun": 4200,
  "\u0120gesch\u00c3\u00a4fts": 4201,
  "kr": 4202,
  "tro": 4203,
  "\u0120erfahr": 4204,
  "lant": 4205,
  "\u0120satisf": 4206,
  "\u0120et": 4207,
  "\u0120eigentlich": 4208,
  "\u012021": 4209,
  "\u0120undert": 4210,
  "\u0120univers": 4211,
  "\u0120h\u00c3\u00a4tten": 4212,
  "zug": 4213,
  "\u0120europes": 4214,
  "\u0120thanks": 4215,
  "\u0120urspr": 4216,
  "\u0120constitutional": 4217,
  "\u0120reached": 4218,
  "strategie": 4219,
  "gerungen": 4220,
  "\u0120value": 4221,
  "fang": 4222,
  "\u0120einf\u00c3\u00bchrung": 4223,
  "pre": 4224,
  "\u0120landes": 4225,
  "mitted": 4226,
  "\u0120zehn": 4227,
  "\u0120verd": 4228,
  "\u0120j\u00c3\u00bcng": 4229,
  "\u0120stock": 4230,
  "\u0120corre": 4231,
  "2000": 4232,
  "\u0120consult": 4233,
  "\u0120instruments": 4234,
  "\u0120sache": 4235,
  "\u0120dise": 4236,
  "\u0120relating": 4237,
  "\u0120five": 4238,
  "\u0120mitteilung": 4239,
  "\u0120honourable": 4240,
  "\u0120ratsvorsitz": 4241,
  "\u0120erk": 4242,
  "\u0120cut": 4243,
  "\u0120derart": 4244,
  "\u0120v\u00c3\u00b6lker": 4245,
  "l\u00c3\u00bcckw\u00c3\u00bcn": 4246,
  "\u0120purs": 4247,
  "\u0120einigung": 4248,
  "isieren": 4249,
  "\u0120belar": 4250,
  "\u0120genannten": 4251,
  "\u0120volk": 4252,
  "\u0120borders": 4253,
  "\u0120les": 4254,
  "\u00c3\u00bctzen": 4255,
  "\u0120authority": 4256,
  "\u0120eval": 4257,
  "\u0120old": 4258,
  "\u0120assistance": 4259,
  "\u0120hinzu": 4260,
  "\u0120farmers": 4261,
  "\u0120mus": 4262,
  "\u0120ministers": 4263,
  "\u0120discrimin": 4264,
  "\u0120enable": 4265,
  "\u0120official": 4266,
  "\u0120abgeordnete": 4267,
  "bildung": 4268,
  "\u0120gem\u00c3\u00a4\u00c3\u0141": 4269,
  "\u0120pr\u00c3\u00a4sidenten": 4270,
  "\u0120uhr": 4271,
  "\u0120erm\u00c3\u00b6glichen": 4272,
  "\u0120beschr\u00c3\u00a4n": 4273,
  "\u0120capac": 4274,
  "\u0120total": 4275,
  "sk": 4276,
  "\u0120ill": 4277,
  "\u0120verst\u00c3\u00a4nd": 4278,
  "\u0120aufgenommen": 4279,
  "\u0120mitt": 4280,
  "\u0120nov": 4281,
  "\u0120dadurch": 4282,
  "ighbour": 4283,
  "\u0120critic": 4284,
  "anken": 4285,
  "\u0120krieg": 4286,
  "\u0120sitzung": 4287,
  "\u0120drit": 4288,
  "chr\u00c3\u00a4n": 4289,
  "erungen": 4290,
  "\u0120eus": 4291,
  "\u0120qualit\u00c3\u00a4t": 4292,
  "\u0120weder": 4293,
  "\u0120woche": 4294,
  "\u0120note": 4295,
  "\u0120neighbour": 4296,
  "ison": 4297,
  "\u0120anst": 4298,
  "\u0120increased": 4299,
  "\u0120verpflichtungen": 4300,
  "\u0120fellow": 4301,
  "\u0120restrict": 4302,
  "\u00c3\u0141t": 4303,
  "\u0120schle": 4304,
  "\u0120grundsatz": 4305,
  "ograph": 4306,
  "\u0120best\u00c3\u00a4t": 4307,
  "\u0120anstrengungen": 4308,
  "\u0120ber\u00c3\u00bccksichtigt": 4309,
  "ieht": 4310,
  "\u0120minder": 4311,
  "\u0120facil": 4312,
  "\u0120top": 4313,
  "\u0120connect": 4314,
  "lik": 4315,
  "\u0120opposition": 4316,
  "\u0120gegenw\u00c3\u00a4rtig": 4317,
  "\u0120austr": 4318,
  "\u0120experience": 4319,
  "\u0120keiner": 4320,
  "\u0120verbunden": 4321,
  "treten": 4322,
  "qual": 4323,
  "\u0120demonstr": 4324,
  "\u0120democrats": 4325,
  "\u0120mis": 4326,
  "\u0120decided": 4327,
  "\u0120haushalt": 4328,
  "\u0120moreover": 4329,
  "\u0120gerichts": 4330,
  "konferenz": 4331,
  "eter": 4332,
  "\u0120aufmerksamkeit": 4333,
  "theless": 4334,
  "\u0120nevertheless": 4335,
  "\u0120immed": 4336,
  "\u0120consequences": 4337,
  "geleg": 4338,
  "\u0120waste": 4339,
  "\u0120suppor": 4340,
  "\u0120fig": 4341,
  "\u0120job": 4342,
  "\u0120swed": 4343,
  "\u0120application": 4344,
  "\u0120initiatives": 4345,
  "\u0120annahme": 4346,
  "\u0120implemented": 4347,
  "\u0120france": 4348,
  "\u0120sufficient": 4349,
  "\u0120erneut": 4350,
  "\u0120sex": 4351,
  "rupt": 4352,
  "teile": 4353,
  "\u0120face": 4354,
  "\u0120produkt": 4355,
  "\u0120lebensmittel": 4356,
  "\u0120schwed": 4357,
  "\u0120requirements": 4358,
  "\u0120vollst\u00c3\u00a4nd": 4359,
  "ron": 4360,
  "\u0120reforms": 4361,
  "ichten": 4362,
  "\u0120verletz": 4363,
  "vertrag": 4364,
  "\u0120happ": 4365,
  "\u0120folgt": 4366,
  "zusch": 4367,
  "\u0120constit": 4368,
  "\u0120diskrimin": 4369,
  "erv": 4370,
  "\u0120practical": 4371,
  "\u0120rail": 4372,
  "\u0120improvement": 4373,
  "\u0120conclusion": 4374,
  "\u0120chem": 4375,
  "uft": 4376,
  "\u0120aspekte": 4377,
  "\u0120cross": 4378,
  "geschlossen": 4379,
  "\u0120vergessen": 4380,
  "\u0120vertreter": 4381,
  "\u0120target": 4382,
  "frieden": 4383,
  "\u0120test": 4384,
  "\u0120poll": 4385,
  "\u0120dringend": 4386,
  "\u0120aud": 4387,
  "\u0120justiz": 4388,
  "\u0120rural": 4389,
  "aut": 4390,
  "\u0120light": 4391,
  "\u0120hinweisen": 4392,
  "\u0120dez": 4393,
  "griffen": 4394,
  "\u0120zweiten": 4395,
  "cel": 4396,
  "\u0120tier": 4397,
  "\u0120west": 4398,
  "\u0120vertrauen": 4399,
  "gesamt": 4400,
  "\u0120scient": 4401,
  "indest": 4402,
  "\u0120november": 4403,
  "\u0120exam": 4404,
  "\u0120allgemeinen": 4405,
  "\u0120candidate": 4406,
  "stra": 4407,
  "\u0120big": 4408,
  "\u0120balk": 4409,
  "\u0120lear": 4410,
  "\u0120hold": 4411,
  "\u0120weltweit": 4412,
  "\u0120reject": 4413,
  "elines": 4414,
  "\u0120insgesamt": 4415,
  "xis": 4416,
  "\u0120kla": 4417,
  "\u0120erinnern": 4418,
  "bek": 4419,
  "\u0120amount": 4420,
  "\u0120pressure": 4421,
  "erences": 4422,
  "\u0120beschluss": 4423,
  "99": 4424,
  "\u0120super": 4425,
  "\u0120zumindest": 4426,
  "mb": 4427,
  "\u0120territor": 4428,
  "\u0120reality": 4429,
  "\u0120cause": 4430,
  "flich": 4431,
  "rieben": 4432,
  "\u0120levels": 4433,
  "erc": 4434,
  "\u0120ausgewogen": 4435,
  "\u0120representatives": 4436,
  "\u0120creation": 4437,
  "\u0120regierungs": 4438,
  "\u0120death": 4439,
  "\u0120talking": 4440,
  "\u0120convin": 4441,
  "\u0120versuchen": 4442,
  "\u0120victims": 4443,
  "\u0120remind": 4444,
  "\u0120alternative": 4445,
  "\u00c3\u00bcnst": 4446,
  "\u0120seiten": 4447,
  "\u0120diejenigen": 4448,
  "\u0120opfer": 4449,
  "\u0120st\u00c3\u00a4rker": 4450,
  "haus": 4451,
  "\u0120nachbar": 4452,
  "\u0120une": 4453,
  "\u0120training": 4454,
  "llte": 4455,
  "\u0120paper": 4456,
  "\u0120confir": 4457,
  "\u0120gas": 4458,
  "anced": 4459,
  "\u0120live": 4460,
  "\u0120zeigt": 4461,
  "\u0120climate": 4462,
  "b\u00c3\u00bcr": 4463,
  "\u0120vereinten": 4464,
  "\u0120unbed": 4465,
  "\u0120nah": 4466,
  "iterran": 4467,
  "\u0120anzu": 4468,
  "\u0120ky": 4469,
  "\u0120akzeptieren": 4470,
  "\u0120st\u00c3\u00a4nd": 4471,
  "\u0120wichtiger": 4472,
  "\u0120bestand": 4473,
  "\u0120else": 4474,
  "\u0120emissions": 4475,
  "\u0120behind": 4476,
  "\u0120emer": 4477,
  "\u0120beitritt": 4478,
  "mitglied": 4479,
  "\u0120word": 4480,
  "\u0120prodi": 4481,
  "\u0120kriterien": 4482,
  "\u0120parag": 4483,
  "\u0120ext": 4484,
  "\u0120pen": 4485,
  "\u0120culture": 4486,
  "\u0120umfang": 4487,
  "\u0120verhindern": 4488,
  "\u0120durchge": 4489,
  "\u0120direction": 4490,
  "\u0120bear": 4491,
  "ourcen": 4492,
  "zif": 4493,
  "\u00c3\u00a4ter": 4494,
  "\u0120\u00c3\u00a4nderung": 4495,
  "\u0120f\u00c3\u00bchrt": 4496,
  "\u0120reference": 4497,
  "\u0120bil": 4498,
  "\u0120almost": 4499,
  "\u0120informations": 4500,
  "gere": 4501,
  "\u0120ign": 4502,
  "\u0120away": 4503,
  "\u0120reduce": 4504,
  "\u0120behandelt": 4505,
  "raten": 4506,
  "\u0120wiederhol": 4507,
  "\u0120franz": 4508,
  "just": 4509,
  "\u0120normal": 4510,
  "\u0120afghanistan": 4511,
  "inzip": 4512,
  "\u0120disas": 4513,
  "usions": 4514,
  "co": 4515,
  "system": 4516,
  "\u0120whose": 4517,
  "\u0120portugal": 4518,
  "\u0120affect": 4519,
  "ibe": 4520,
  "\u0120ukraine": 4521,
  "\u0120dom": 4522,
  "\u0120straf": 4523,
  "\u0120druck": 4524,
  "\u0120crime": 4525,
  "\u0120leaders": 4526,
  "wendet": 4527,
  "\u0120lesung": 4528,
  "\u0120took": 4529,
  "\u0120using": 4530,
  "\u0120konferenz": 4531,
  "\u0120l\u00c3\u00a4nd": 4532,
  "\u0120try": 4533,
  "\u0120declar": 4534,
  "haben": 4535,
  "\u0120return": 4536,
  "\u0120coming": 4537,
  "\u0120finanzielle": 4538,
  "ufig": 4539,
  "\u012040": 4540,
  "\u0120frankreich": 4541,
  "sprechend": 4542,
  "\u0120brought": 4543,
  "rahmen": 4544,
  "zuf\u00c3\u00bchren": 4545,
  "\u0120spielen": 4546,
  "iance": 4547,
  "ilar": 4548,
  "pid": 4549,
  "hoben": 4550,
  "\u0120sour": 4551,
  "isely": 4552,
  "\u0120van": 4553,
  "\u0120parlamentar": 4554,
  "\u0120gleichen": 4555,
  "\u0120k\u00c3\u00b6nig": 4556,
  "\u0120ber\u00c3\u00bccksichtigen": 4557,
  "gebung": 4558,
  "dle": 4559,
  "ench": 4560,
  "pril": 4561,
  "\u0120model": 4562,
  "fu": 4563,
  "iting": 4564,
  "haupt": 4565,
  "institution": 4566,
  "\u0120agency": 4567,
  "\u0120wesentlichen": 4568,
  "\u0120included": 4569,
  "\u0120knowledge": 4570,
  "\u0120guten": 4571,
  "\u0120respond": 4572,
  "isiert": 4573,
  "\u0120link": 4574,
  "\u0120katastrop": 4575,
  "\u0120gefordert": 4576,
  "iste": 4577,
  "\u0120jedes": 4578,
  "\u0120monaten": 4579,
  "\u0120oil": 4580,
  "\u0120vital": 4581,
  "\u0120becom": 4582,
  "\u0120anderer": 4583,
  "2002": 4584,
  "zusetzen": 4585,
  "\u0120guidelines": 4586,
  "\u0120sinne": 4587,
  "iterranean": 4588,
  "\u0120forderung": 4589,
  "\u0120ju": 4590,
  "\u0120herz": 4591,
  "\u0120exper": 4592,
  "\u0120waffen": 4593,
  "\u0120aufzu": 4594,
  "handel": 4595,
  "\u0120uner": 4596,
  "\u0120events": 4597,
  "million": 4598,
  "bedingungen": 4599,
  "ortion": 4600,
  "\u0120sea": 4601,
  "\u0120established": 4602,
  "\u0120ine": 4603,
  "\u0120similar": 4604,
  "\u0120sad": 4605,
  "\u0120received": 4606,
  "\u0120anti": 4607,
  "\u0120darstellt": 4608,
  "\u0120endlich": 4609,
  "\u0120completely": 4610,
  "auft": 4611,
  "\u0120british": 4612,
  "\u0120demonst": 4613,
  "\u0120relevant": 4614,
  "lling": 4615,
  "rok": 4616,
  "\u0120circum": 4617,
  "\u0120mitgliedstaat": 4618,
  "hnung": 4619,
  "\u0120capacity": 4620,
  "\u0120b\u00c3\u00bc": 4621,
  "\u0120pr\u00c3\u00bcfen": 4622,
  "\u0120heard": 4623,
  "\u0120begin": 4624,
  "\u00c3\u00a4nden": 4625,
  "istische": 4626,
  "\u0120l\u00c3\u00a4sst": 4627,
  "\u0120signal": 4628,
  "\u0120powers": 4629,
  "ekte": 4630,
  "erweise": 4631,
  "fluss": 4632,
  "\u0120parteien": 4633,
  "\u0120nord": 4634,
  "\u0120anerkennung": 4635,
  "\u0120giving": 4636,
  "\u0120sectors": 4637,
  "\u0120green": 4638,
  "unt": 4639,
  "\u0120material": 4640,
  "tr\u00c3\u00a4cht": 4641,
  "\u0120scope": 4642,
  "\u0120schwierigkeiten": 4643,
  "ton": 4644,
  "\u0120recon": 4645,
  "\u0120begl\u00c3\u00bcckw\u00c3\u00bcn": 4646,
  "\u0120outside": 4647,
  "\u0120french": 4648,
  "\u0120regelung": 4649,
  "industr": 4650,
  "\u0120belarus": 4651,
  "\u0120except": 4652,
  "\u0120extent": 4653,
  "\u0120accep": 4654,
  "\u0120patent": 4655,
  "\u0120delay": 4656,
  "icien": 4657,
  "\u0120kolle": 4658,
  "\u0120fl\u00c3\u00bc": 4659,
  "llten": 4660,
  "\u0120amerikan": 4661,
  "\u0120referend": 4662,
  "\u0120wasser": 4663,
  "\u0120paragraph": 4664,
  "\u0120provision": 4665,
  "emb": 4666,
  "\u0120rapporteurs": 4667,
  "\u0120quickly": 4668,
  "scht": 4669,
  "\u00c3\u00a4mt": 4670,
  "\u0120gesamte": 4671,
  "\u0120sus": 4672,
  "gesellschaft": 4673,
  "\u0120recognis": 4674,
  "03": 4675,
  "ighted": 4676,
  "\u0120geschaffen": 4677,
  "scheid": 4678,
  "\u0120takes": 4679,
  "\u0120priorit\u00c3\u00a4ten": 4680,
  "\u0120ihres": 4681,
  "\u0120konkrete": 4682,
  "\u0120brief": 4683,
  "\u0120kenntnis": 4684,
  "aum": 4685,
  "\u0120getroffen": 4686,
  "\u0120absolutely": 4687,
  "\u0120met": 4688,
  "\u0120\u00c3\u00b6ffentliche": 4689,
  "ande": 4690,
  "\u0120gab": 4691,
  "\u0120half": 4692,
  "\u0120assessment": 4693,
  "\u0120auszu": 4694,
  "\u0120offens": 4695,
  "\u0120div": 4696,
  "\u0120ergreifen": 4697,
  "europ": 4698,
  "kung": 4699,
  "\u0120wettbewerbsf\u00c3\u00a4higkeit": 4700,
  "\u0120condem": 4701,
  "\u0120ara": 4702,
  "\u0120abschluss": 4703,
  "\u0120sorge": 4704,
  "\u0120exch": 4705,
  "\u0120discussions": 4706,
  "\u0120bessere": 4707,
  "\u0120remains": 4708,
  "\u0120behin": 4709,
  "\u0120reformen": 4710,
  "\u0120verfassungs": 4711,
  "lam": 4712,
  "\u0120precisely": 4713,
  "ublik": 4714,
  "\u0120beihilfen": 4715,
  "\u0120verabschied": 4716,
  "\u0120media": 4717,
  "\u0120kulture": 4718,
  "\u0120additional": 4719,
  "\u0120privat": 4720,
  "griff": 4721,
  "\u0120jour": 4722,
  "\u0120ziehen": 4723,
  "\u0120bestimmten": 4724,
  "\u0120prim": 4725,
  "\u0120transparent": 4726,
  "\u0120investitionen": 4727,
  "\u0120connection": 4728,
  "\u0120contr": 4729,
  "\u0120kleinen": 4730,
  "bend": 4731,
  "\u0120freue": 4732,
  "\u0120bez\u00c3\u00bc": 4733,
  "\u0120stop": 4734,
  "\u0120aufgaben": 4735,
  "\u0120deutsch": 4736,
  "\u0120specif": 4737,
  "\u0120days": 4738,
  "\u0120discussed": 4739,
  "\u0120tim": 4740,
  "f\u00c3\u00a4lle": 4741,
  "\u0120zustimmung": 4742,
  "\u0120anfrage": 4743,
  "\u0120wahlen": 4744,
  "\u0120s\u00c3\u00a4mt": 4745,
  "\u0120raum": 4746,
  "\u0120erzielt": 4747,
  "kraft": 4748,
  "onnen": 4749,
  "\u0120inf": 4750,
  "\u0120occas": 4751,
  "hem": 4752,
  "spar": 4753,
  "\u0120voran": 4754,
  "h\u00c3\u00b6rde": 4755,
  "\u0120date": 4756,
  "accept": 4757,
  "vorschlag": 4758,
  "ires": 4759,
  "\u0120unaccept": 4760,
  "\u0120design": 4761,
  "the": 4762,
  "\u0120\u00c3\u00a4nderungen": 4763,
  "\u0120extra": 4764,
  "\u0120finn": 4765,
  "\u0120engagement": 4766,
  "sibilities": 4767,
  "\u0120einzige": 4768,
  "\u0120proceed": 4769,
  "\u0120zeigen": 4770,
  "\u0120spezie": 4771,
  "\u0120projekt": 4772,
  "will": 4773,
  "\u0120vertrags": 4774,
  "erve": 4775,
  "uten": 4776,
  "ets": 4777,
  "\u0120treatment": 4778,
  "\u0120glauben": 4779,
  "\u0120besitz": 4780,
  "\u0120applied": 4781,
  "\u0120plans": 4782,
  "\u0120stark": 4783,
  "meer": 4784,
  "\u0120entschlossen": 4785,
  "\u0120don": 4786,
  "\u0120somit": 4787,
  "itive": 4788,
  "\u0120substant": 4789,
  "igran": 4790,
  "\u0120kern": 4791,
  "achten": 4792,
  "\u0120agentur": 4793,
  "ania": 4794,
  "\u0120coordination": 4795,
  "dell": 4796,
  "\u0120hoffen": 4797,
  "ou": 4798,
  "\u0120vorh": 4799,
  "\u0120natural": 4800,
  "\u0120verring": 4801,
  "\u0120sieht": 4802,
  "ussels": 4803,
  "\u0120irgend": 4804,
  "\u0120f\u00c3\u00a4llen": 4805,
  "\u0120spir": 4806,
  "\u0120gewor": 4807,
  "\u0120divers": 4808,
  "\u0120gesche": 4809,
  "\u0120gewiss": 4810,
  "\u0120palestinian": 4811,
  "arily": 4812,
  "\u0120bedarf": 4813,
  "\u0120avoid": 4814,
  "\u0120konsequ": 4815,
  "\u0120achtung": 4816,
  "\u0120supported": 4817,
  "\u0120haltung": 4818,
  "\u0120ty": 4819,
  "wirken": 4820,
  "\u0120brussels": 4821,
  "\u0120administrative": 4822,
  "\u0120price": 4823,
  "\u0120propose": 4824,
  "\u0120middle": 4825,
  "\u0120wichtigsten": 4826,
  "\u0120stre": 4827,
  "\u0120flo": 4828,
  "\u0120beruf": 4829,
  "\u0120businesses": 4830,
  "\u0120unacceptable": 4831,
  "ands": 4832,
  "verkehrs": 4833,
  "\u0120liebe": 4834,
  "\u0120effects": 4835,
  "\u0120capital": 4836,
  "\u0120bez\u00c3\u00bcglich": 4837,
  "\u0120kontin": 4838,
  "ini": 4839,
  "\u0120gesprochen": 4840,
  "\u0120k\u00c3\u00bcrz": 4841,
  "\u0120liberalisierung": 4842,
  "\u0120antrag": 4843,
  "\u0120circumst": 4844,
  "rehen": 4845,
  "\u0120geg": 4846,
  "ona": 4847,
  "\u0120konflikt": 4848,
  "\u0120jen": 4849,
  "\u0120k\u00c3\u00bc": 4850,
  "enken": 4851,
  "\u0120jede": 4852,
  "\u0120conclusions": 4853,
  "\u0120entwickeln": 4854,
  "\u0120stated": 4855,
  "\u0120asylum": 4856,
  "\u0120competitiveness": 4857,
  "industrie": 4858,
  "\u0120rum": 4859,
  "\u0120safegu": 4860,
  "\u0120effizient": 4861,
  "fft": 4862,
  "\u0120approved": 4863,
  "\u0120konnte": 4864,
  "\u0120dy": 4865,
  "\u0120\u00c3\u00bcberhaupt": 4866,
  "\u0120accordance": 4867,
  "\u0120log": 4868,
  "\u0120ce": 4869,
  "\u0120enth\u00c3\u00a4lt": 4870,
  "bourg": 4871,
  "\u0120pact": 4872,
  "\u00c3\u00bct": 4873,
  "\u0120bilateral": 4874,
  "orgung": 4875,
  "\u0120content": 4876,
  "fahrens": 4877,
  "\u0120abzu": 4878,
  "bez\u00c3\u00bc": 4879,
  "\u0120carry": 4880,
  "\u0120preis": 4881,
  "\u0120medium": 4882,
  "ietet": 4883,
  "\u0120april": 4884,
  "\u0120demonstrat": 4885,
  "roso": 4886,
  "\u0120erwarten": 4887,
  "\u0120richtlinien": 4888,
  "\u0120creating": 4889,
  "\u0120entschlie\u00c3\u0141ungsantrag": 4890,
  "\u0120family": 4891,
  "\u0120schlussfol": 4892,
  "\u0120arr": 4893,
  "\u0120ereign": 4894,
  "\u0120condu": 4895,
  "\u0120forces": 4896,
  "\u0120k\u00c3\u00b6nigreich": 4897,
  "\u0120fle": 4898,
  "\u0120kam": 4899,
  "\u00c3\u00a4rm": 4900,
  "ehm": 4901,
  "\u0120pak": 4902,
  "\u0120grundrechte": 4903,
  "\u0120message": 4904,
  "\u0120lot": 4905,
  "\u0120br\u00c3\u00bcssel": 4906,
  "\u0120competen": 4907,
  "\u0120bill": 4908,
  "\u0120lux": 4909,
  "\u0120neben": 4910,
  "\u0120councils": 4911,
  "ously": 4912,
  "\u0120geleistet": 4913,
  "\u0120considered": 4914,
  "\u0120rene": 4915,
  "\u0120schiff": 4916,
  "standen": 4917,
  "\u0120festgelegt": 4918,
  "spricht": 4919,
  "\u0120enorm": 4920,
  "\u0120verwalt": 4921,
  "\u0120betroffenen": 4922,
  "ziehen": 4923,
  "\u0120confidence": 4924,
  "\u0120dipl": 4925,
  "prinzip": 4926,
  "\u0120self": 4927,
  "\u0120unbedingt": 4928,
  "\u0120expla": 4929,
  "\u0120vergleich": 4930,
  "\u0120appe": 4931,
  "\u0120circumstances": 4932,
  "\u0120m\u00c3\u00b6chten": 4933,
  "\u0120entsprechenden": 4934,
  "\u0120respekt": 4935,
  "\u0120stellungnahme": 4936,
  "\u0120stets": 4937,
  "sterreich": 4938,
  "\u0120possibility": 4939,
  "falt": 4940,
  "\u0120africa": 4941,
  "employ": 4942,
  "\u0120s\u00c3\u00bcd": 4943,
  "\u0120intervention": 4944,
  "\u0120helfen": 4945,
  "\u0120shar": 4946,
  "zeugen": 4947,
  "iete": 4948,
  "ibility": 4949,
  "\u0120overall": 4950,
  "\u0120discrimination": 4951,
  "\u0120sal": 4952,
  "anze": 4953,
  "govern": 4954,
  "\u0120perspective": 4955,
  "\u0120m\u00c3\u00a4n": 4956,
  "\u0120verkehrs": 4957,
  "g\u00c3\u00bclt": 4958,
  "bezogen": 4959,
  "\u0120hohe": 4960,
  "entwick": 4961,
  "sper": 4962,
  "\u0120ersch": 4963,
  "\u0120june": 4964,
  "mand": 4965,
  "\u00c3\u00b6st": 4966,
  "\u0120entschieden": 4967,
  "\u0120praxis": 4968,
  "\u0120diesbez\u00c3\u00bc": 4969,
  "\u0120referred": 4970,
  "\u0120equality": 4971,
  "\u0120einwanderung": 4972,
  "programm": 4973,
  "\u0120correct": 4974,
  "\u0120beob": 4975,
  "\u0120huge": 4976,
  "\u0120ausgezeich": 4977,
  "\u0120bitten": 4978,
  ".)": 4979,
  "rechts": 4980,
  "\u0120christ": 4981,
  "\u0120initiativen": 4982,
  "\u0120minimum": 4983,
  "\u0120\u00c3\u00b6sterreich": 4984,
  "\u0120block": 4985,
  "\u0120side": 4986,
  "polit": 4987,
  "\u0120gering": 4988,
  "\u0120einsatz": 4989,
  "\u0120partnerschaft": 4990,
  "dom": 4991,
  "\u0120berichte": 4992,
  "\u0120linie": 4993,
  "\u0120bedenken": 4994,
  "\u0120umgesetzt": 4995,
  "\u0120obt": 4996,
  "ump": 4997,
  "\u0120separ": 4998,
  "\u0120wochen": 4999,
  "\u0120partei": 5000,
  "\u0120heutigen": 5001,
  "\u0120anders": 5002,
  "tempt": 5003,
  "\u0120limit": 5004,
  "\u0120challenges": 5005,
  "\u0120speech": 5006,
  "\u0120vereinbarung": 5007,
  "\u0120determin": 5008,
  "\u0120netz": 5009,
  "amm": 5010,
  "\u0120verh\u00c3\u00a4lt": 5011,
  "here": 5012,
  "\u0120familien": 5013,
  "\u0120code": 5014,
  "\u0120liberalisation": 5015,
  "\u0120nr": 5016,
  "olid": 5017,
  "\u0120speaking": 5018,
  "\u0120vorliegenden": 5019,
  "\u0120islam": 5020,
  "\u0120feststellen": 5021,
  "\u0120enterpr": 5022,
  "oy": 5023,
  "uellen": 5024,
  "ierenden": 5025,
  "pr\u00c3\u00a4sident": 5026,
  "\u0120goes": 5027,
  "\u0120dynam": 5028,
  "\u0120sort": 5029,
  "\u0120neuer": 5030,
  "\u0120zweifel": 5031,
  "\u0120considerable": 5032,
  "ulf": 5033,
  "\u0120bot": 5034,
  "\u0120scheint": 5035,
  "inden": 5036,
  "\u00c3\u00a4u\u00c3\u0141": 5037,
  "\u0120gewesen": 5038,
  "bung": 5039,
  "\u0120sach": 5040,
  "okraten": 5041,
  "\u0120franz\u00c3\u00b6s": 5042,
  "\u0120cent": 5043,
  "zeigt": 5044,
  "\u0120protokoll": 5045,
  "\u0120encourage": 5046,
  "uted": 5047,
  "\u0120motion": 5048,
  "ols": 5049,
  "\u0120phase": 5050,
  "\u0120specifically": 5051,
  "stimmung": 5052,
  "\u0120arbeitspl\u00c3\u00a4tze": 5053,
  "\u0120mang": 5054,
  "\u0120temp": 5055,
  "\u0120effectively": 5056,
  "\u0120geworden": 5057,
  "\u0120december": 5058,
  "\u0120views": 5059,
  "\u0120bekommen": 5060,
  "\u0120fri": 5061,
  "\u0120affected": 5062,
  "\u0120andererseits": 5063,
  "government": 5064,
  "ehmen": 5065,
  "\u0120entsprechend": 5066,
  "schau": 5067,
  "\u0120teile": 5068,
  "\u0120refuge": 5069,
  "\u0120investig": 5070,
  "\u0120living": 5071,
  "hren": 5072,
  "ana": 5073,
  "\u0120ire": 5074,
  "nern": 5075,
  "\u0120inhalt": 5076,
  "\u0120drug": 5077,
  "ender": 5078,
  "\u0120wr": 5079,
  "enteil": 5080,
  "\u0120ben\u00c3\u00b6t": 5081,
  "\u0120anfang": 5082,
  "fordern": 5083,
  "\u0120gipfel": 5084,
  "\u0120fear": 5085,
  "body": 5086,
  "\u0120operation": 5087,
  "\u0120\u00c3\u00b6k": 5088,
  "\u0120zufrieden": 5089,
  "quate": 5090,
  "\u0120listen": 5091,
  "\u0120plann": 5092,
  "\u0120committed": 5093,
  "\u0120purpose": 5094,
  "\u0120accepted": 5095,
  "\u0120verwendung": 5096,
  "\u0120entgegen": 5097,
  "\u0120jedem": 5098,
  "\u0120erkl\u00c3\u00a4rt": 5099,
  "\u0120trying": 5100,
  "wise": 5101,
  "\u0120unge": 5102,
  "\u0120erschein": 5103,
  "abel": 5104,
  "\u0120absicht": 5105,
  "\u0120ensuring": 5106,
  "unch": 5107,
  "\u0120cypr": 5108,
  "\u0120bla": 5109,
  "\u0120republic": 5110,
  "\u0120bedro": 5111,
  "\u0120tre": 5112,
  "ichtlich": 5113,
  "\u0120yester": 5114,
  "\u0120condemn": 5115,
  "\u0120hingewiesen": 5116,
  "\u00c3\u00a4us": 5117,
  "\u0120urspr\u00c3\u00bcn": 5118,
  "\u0120yesterday": 5119,
  "\u0120weap": 5120,
  "\u0120vorrang": 5121,
  "regel": 5122,
  "kontro": 5123,
  "\u0120gal": 5124,
  "\u0120eg": 5125,
  "\u0120fraktionen": 5126,
  "\u0120langfrist": 5127,
  "\u0120konnten": 5128,
  "making": 5129,
  "\u0120kar": 5130,
  "\u0120disapp": 5131,
  "omen": 5132,
  "\u0120vorgeschlagenen": 5133,
  "av": 5134,
  "\u0120chair": 5135,
  "\u0120verme": 5136,
  "\u0120animal": 5137,
  "\u0120developed": 5138,
  "\u0120efficient": 5139,
  "\u0120lok": 5140,
  "\u0120unz": 5141,
  "\u0120grunde": 5142,
  "\u0120gesch\u00c3\u00a4ftsordnung": 5143,
  "\u0120participation": 5144,
  "\u0120comments": 5145,
  "sektor": 5146,
  "\u0120krank": 5147,
  "\u0120renew": 5148,
  "\u0120prime": 5149,
  "oto": 5150,
  "\u0120charter": 5151,
  "unsch": 5152,
  "celona": 5153,
  "\u0120grenz\u00c3\u00bcber": 5154,
  "\u0120verstehen": 5155,
  "\u0120ress": 5156,
  "\u0120prevention": 5157,
  "\u0120history": 5158,
  "\u0120independent": 5159,
  "\u0120bey": 5160,
  "inking": 5161,
  "\u0120challenge": 5162,
  "iens": 5163,
  "\u0120amt": 5164,
  "\u0120organisationen": 5165,
  "\u0120wrong": 5166,
  "pun": 5167,
  "\u0120spo": 5168,
  "\u0120barcelona": 5169,
  "\u0120gegenseit": 5170,
  "\u0120monet": 5171,
  "\u0120beein": 5172,
  "\u0120police": 5173,
  "\u0120germany": 5174,
  "\u0120ganze": 5175,
  "\u0120comment": 5176,
  "\u0120nationale": 5177,
  "\u0120erw\u00c3\u00a4hnt": 5178,
  "\u0120zahlreiche": 5179,
  "\u0120zweck": 5180,
  "\u0120allowed": 5181,
  "\u0120gebieten": 5182,
  "\u0120rate": 5183,
  "nungs": 5184,
  "eg": 5185,
  "\u0120direkt": 5186,
  "\u0120falle": 5187,
  "\u00c3\u00bcg": 5188,
  "\u0120t\u00c3\u00a4tigkeit": 5189,
  "gelegten": 5190,
  "igungen": 5191,
  "\u0120zunehmen": 5192,
  "\u0120secret": 5193,
  "uern": 5194,
  "\u0120pflicht": 5195,
  "\u0120bewert": 5196,
  "chtet": 5197,
  "\u0120\u00c3\u00bcberzeugt": 5198,
  "cke": 5199,
  "\u0120industrial": 5200,
  "\u0120jugend": 5201,
  "\u0120versucht": 5202,
  "ureau": 5203,
  "uses": 5204,
  "\u0120einbezie": 5205,
  "\u0120obviously": 5206,
  "\u0120hung": 5207,
  "\u0120forms": 5208,
  "arta": 5209,
  "\u0120dealing": 5210,
  "\u0120thous": 5211,
  "\u0120genug": 5212,
  "bank": 5213,
  "\u0120sch\u00c3\u00bctzen": 5214,
  "\u0120anything": 5215,
  "\u0120klima": 5216,
  "\u0120institutional": 5217,
  "\u0120seriously": 5218,
  "\u0120implementing": 5219,
  "\u0120technology": 5220,
  "freiheit": 5221,
  "rig": 5222,
  "\u0120firm": 5223,
  "unternehmen": 5224,
  "\u012027": 5225,
  "ucht": 5226,
  "\u0120difficulties": 5227,
  "\u0120multilateral": 5228,
  "hagen": 5229,
  "glicht": 5230,
  "nal": 5231,
  "\u0120ppe": 5232,
  "\u0120hor": 5233,
  "\u0120deep": 5234,
  "engen": 5235,
  "\u0120erm\u00c3\u00b6glicht": 5236,
  "\u0120bereiche": 5237,
  "\u0120positiv": 5238,
  "\u0120active": 5239,
  "ausschusses": 5240,
  "\u0120betrie": 5241,
  "\u0120closely": 5242,
  "\u0120myself": 5243,
  "\u0120successful": 5244,
  "\u0120benefits": 5245,
  "\u0120ort": 5246,
  "governmental": 5247,
  "ij": 5248,
  "\u0120rightly": 5249,
  "b\u00c3\u00bcrger": 5250,
  "\u0120verpflich": 5251,
  "\u0120bureau": 5252,
  "\u0120gratul": 5253,
  "\u0120besten": 5254,
  "\u0120lives": 5255,
  "indet": 5256,
  "\u0120mechanis": 5257,
  "ounts": 5258,
  "\u0120fl\u00c3\u00bccht": 5259,
  "\u0120empf": 5260,
  "\u0120standard": 5261,
  "works": 5262,
  "\u0120slow": 5263,
  "\u0120scientific": 5264,
  "head": 5265,
  "\u0120commitments": 5266,
  "\u0120demands": 5267,
  "\u0120gr\u00c3\u00bcnd": 5268,
  "\u0120geschichte": 5269,
  "\u0120consideration": 5270,
  "\u0120regelungen": 5271,
  "\u0120fr\u00c3\u00bcher": 5272,
  "\u0120simpl": 5273,
  "\u0120improving": 5274,
  "\u0120humanitarian": 5275,
  "\u0120ratifiz": 5276,
  "\u0120reduction": 5277,
  "\u0120ireland": 5278,
  "\u0120richtige": 5279,
  "\u0120diskutieren": 5280,
  "cker": 5281,
  "\u0120language": 5282,
  "dienst": 5283,
  "\u0120combat": 5284,
  "\u0120konstru": 5285,
  "\u0120\u00c3\u00bcberwach": 5286,
  "\u0120dezember": 5287,
  "ost": 5288,
  "\u0120ways": 5289,
  "itude": 5290,
  "\u0120counter": 5291,
  "val": 5292,
  "\u0120ii": 5293,
  "\u0120adoption": 5294,
  "lang": 5295,
  "ash": 5296,
  "\u0120dagegen": 5297,
  "\u0120beschl": 5298,
  "\u0120seek": 5299,
  "\u0120vern\u00c3\u00bcnft": 5300,
  "\u0120vorbe": 5301,
  "spekt": 5302,
  "\u0120border": 5303,
  "\u0120erf\u00c3\u00bcllen": 5304,
  "\u0120beginning": 5305,
  "\u0120bestehenden": 5306,
  "\u0120intended": 5307,
  "2003": 5308,
  "\u0120desire": 5309,
  "\u0120worth": 5310,
  "\u0120sicherlich": 5311,
  "\u0120n\u00c3\u00a4": 5312,
  "\u0120somet": 5313,
  "zeichnen": 5314,
  "\u0120package": 5315,
  "\u0120beyond": 5316,
  "buch": 5317,
  "\u0120tw": 5318,
  "\u0120reag": 5319,
  "\u0120outcome": 5320,
  "\u0120remember": 5321,
  "\u0120tack": 5322,
  "\u0120supply": 5323,
  "\u0120recognise": 5324,
  "\u0120verehrte": 5325,
  "\u0120wanted": 5326,
  "\u0120unan": 5327,
  "\u0120remar": 5328,
  "\u0120join": 5329,
  "\u0120verwaltung": 5330,
  "andidaten": 5331,
  "aign": 5332,
  "\u0120letzte": 5333,
  "\u0120genuine": 5334,
  "bru": 5335,
  "\u0120exerc": 5336,
  "\u0120verhalten": 5337,
  "\u0120zahlen": 5338,
  "\u00c3\u00b6ren": 5339,
  "ption": 5340,
  "bauen": 5341,
  "lier": 5342,
  "atch": 5343,
  "\u0120verf\u00c3\u00bcgen": 5344,
  "\u0120profession": 5345,
  "\u0120campaign": 5346,
  "vis": 5347,
  "\u0120emphasise": 5348,
  "\u0120geschehen": 5349,
  "\u0120betonen": 5350,
  "\u0120durchaus": 5351,
  "\u0120behandlung": 5352,
  "\u0120durchf\u00c3\u00bchrung": 5353,
  "\u0120geh\u00c3\u00b6ren": 5354,
  "\u0120aufnahme": 5355,
  "ffentlich": 5356,
  "\u0120shown": 5357,
  "\u0120verteidigung": 5358,
  "\u0120monetary": 5359,
  "ias": 5360,
  "\u0120sp\u00c3\u00a4ter": 5361,
  "\u0120reflect": 5362,
  "\u0120negative": 5363,
  "\u0120sometimes": 5364,
  "\u0120billion": 5365,
  "\u0120solutions": 5366,
  "\u0120vergangenheit": 5367,
  "\u0120erzielen": 5368,
  "\u0120infrastruct": 5369,
  "\u0120alone": 5370,
  "itation": 5371,
  "\u0120sov": 5372,
  "\u0120attempt": 5373,
  "\u0120100": 5374,
  "gesetz": 5375,
  "\u0120aimed": 5376,
  "utzt": 5377,
  "\u0120stabilit\u00c3\u00a4t": 5378,
  "\u0120verwaltungs": 5379,
  "\u0120ganzen": 5380,
  "\u0120wesentlich": 5381,
  "\u0120descr": 5382,
  "\u0120ship": 5383,
  "\u0120kommenden": 5384,
  "\u0120created": 5385,
  "\u0120vorhanden": 5386,
  "\u0120einschlie\u00c3\u0141lich": 5387,
  "\u0120weeks": 5388,
  "\u0120animals": 5389,
  "\u0120kyoto": 5390,
  "geber": 5391,
  "ocol": 5392,
  "\u0120landwir": 5393,
  "\u0120risik": 5394,
  "\u0120spanish": 5395,
  "\u0120besorg": 5396,
  "\u0120nato": 5397,
  "\u0120directly": 5398,
  "\u0120bra": 5399,
  "\u0120\u00c3\u00a4nderungsantr\u00c3\u00a4gen": 5400,
  "\u0120advant": 5401,
  "\u0120umst": 5402,
  "\u0120sechs": 5403,
  "ological": 5404,
  "\u0120journal": 5405,
  "\u0120spirit": 5406,
  "),": 5407,
  "\u0120son": 5408,
  "amer": 5409,
  "\u0120directives": 5410,
  "\u0120welcom": 5411,
  "\u0120gleiche": 5412,
  "besch": 5413,
  "iarden": 5414,
  "\u0120gek": 5415,
  "ernen": 5416,
  "\u0120contribute": 5417,
  "\u0120forschungs": 5418,
  "\u0120existen": 5419,
  "\u0120impr": 5420,
  "\u0120heim": 5421,
  "\u0120provides": 5422,
  "\u00c3\u00a4cht": 5423,
  "stat": 5424,
  "\u0120alloc": 5425,
  "ciliation": 5426,
  "\u0120k\u00c3\u00bcnftig": 5427,
  "\u0120tab": 5428,
  "\u0120highly": 5429,
  "\u0120measure": 5430,
  "\u0120befinden": 5431,
  "\u0120krise": 5432,
  "kr\u00c3\u00a4": 5433,
  "ienz": 5434,
  "\u0120promoting": 5435,
  "\u0120aspekt": 5436,
  "\u0120statist": 5437,
  "\u0120rum\u00c3\u00a4n": 5438,
  "\u0120willing": 5439,
  "\u0120extens": 5440,
  "olle": 5441,
  "\u0120decide": 5442,
  "\u0120known": 5443,
  "\u0120receive": 5444,
  "\u0120spezif": 5445,
  "\u0120prob": 5446,
  "icking": 5447,
  "\u0120max": 5448,
  "\u0120setting": 5449,
  "jected": 5450,
  "\u0120einhaltung": 5451,
  "\u0120urge": 5452,
  "grundlage": 5453,
  "\u0120analy": 5454,
  "\u0120verpflichtet": 5455,
  "schreit": 5456,
  "\u0120leist": 5457,
  "aken": 5458,
  "barkeit": 5459,
  "\u0120europeans": 5460,
  "\u0120glaub": 5461,
  "\u0120gekommen": 5462,
  "\u0120ang": 5463,
  "\u0120staff": 5464,
  "\u0120f\u00c3\u00bc": 5465,
  "\u0120beide": 5466,
  "ements": 5467,
  "ufen": 5468,
  "\u0120bald": 5469,
  "\u0120deutschland": 5470,
  "\u0120luxem": 5471,
  "\u0120sound": 5472,
  "\u0120polize": 5473,
  "\u0120zeitraum": 5474,
  "\u0120deta": 5475,
  "iciency": 5476,
  "\u0120bef\u00c3\u00bcrwor": 5477,
  "\u0120er\u00c3\u00b6r": 5478,
  "\u0120koordinierung": 5479,
  "\u0120bod": 5480,
  "\u0120schre": 5481,
  "\u0120absatz": 5482,
  "ellschaften": 5483,
  "\u0120bietet": 5484,
  "\u0120medien": 5485,
  "\u0120verhe": 5486,
  "\u0120\u00c3\u00a4ndern": 5487,
  "\u0120providing": 5488,
  "\u0120teilen": 5489,
  "\u012022": 5490,
  "\u0120bed\u00c3\u00bcr": 5491,
  "\u0120st\u00c3\u00a4rkung": 5492,
  "bor": 5493,
  "\u0120konstrukt": 5494,
  "\u0120lam": 5495,
  "\u0120substantial": 5496,
  "\u0120function": 5497,
  "\u0120meps": 5498,
  "\u0120eher": 5499,
  "ellos": 5500,
  "\u0120schwe": 5501,
  "\u00c3\u00bctzt": 5502,
  "\u0120developments": 5503,
  "\u0120requires": 5504,
  "\u0120gr\u00c3\u00b6\u00c3\u0141ere": 5505,
  "\u0120unemploy": 5506,
  "\u0120konsult": 5507,
  "dict": 5508,
  "\u0120ack": 5509,
  "\u0120consens": 5510,
  "aren": 5511,
  "\u0120gender": 5512,
  "\u0120niemand": 5513,
  "ued": 5514,
  "\u0120prices": 5515,
  "\u0120incor": 5516,
  "richtungen": 5517,
  "h\u00c3\u00a4n": 5518,
  "\u0120mehrere": 5519,
  "\u0120kollege": 5520,
  "\u0120urgent": 5521,
  "\u0120klare": 5522,
  "\u0120consist": 5523,
  "\u0120steps": 5524,
  "\u0120bio": 5525,
  "reichend": 5526,
  "\u0120influen": 5527,
  "\u0120l\u00c3\u00b6sen": 5528,
  "\u0120concept": 5529,
  "\u0120durchgef\u00c3\u00bchrt": 5530,
  "oint": 5531,
  "\u0120worte": 5532,
  "\u0120gegenw\u00c3\u00a4rtigen": 5533,
  "rec": 5534,
  "\u0120ausgaben": 5535,
  "\u0120jeweil": 5536,
  "\u0120verfolgen": 5537,
  "\u0120acknow": 5538,
  "\u0120terrorist": 5539,
  "\u0120notwendigen": 5540,
  "eben": 5541,
  "mark": 5542,
  "\u0120turk": 5543,
  "\u0120risks": 5544,
  "\u0120vorausschau": 5545,
  "\u0120w\u00c3\u00a4ren": 5546,
  "\u0120darstellen": 5547,
  "\u0120budgets": 5548,
  "\u0120relationship": 5549,
  "\u0120drittens": 5550,
  "\u0120name": 5551,
  "\u0120verurs": 5552,
  "\u0120rapid": 5553,
  "\u0120calls": 5554,
  "\u0120entsprechende": 5555,
  "za": 5556,
  "\u0120mediterranean": 5557,
  "\u0120anspruch": 5558,
  "ausch": 5559,
  "\u0120frem": 5560,
  "\u00c3\u00a4hlt": 5561,
  "\u0120looking": 5562,
  "\u0120competitive": 5563,
  "\u0120beseit": 5564,
  "\u0120aktionsp": 5565,
  "met": 5566,
  "\u0120entwurf": 5567,
  "sor": 5568,
  "\u0120willen": 5569,
  "ought": 5570,
  "que": 5571,
  "\u0120\u00c3\u00a4hn": 5572,
  "ruption": 5573,
  "nungen": 5574,
  "\u0120vielmehr": 5575,
  "\u0120instrumente": 5576,
  "\u0120zustimmen": 5577,
  "\u0120limited": 5578,
  "\u0120later": 5579,
  "\u0120whom": 5580,
  "\u0120m\u00c3\u00b6glicherweise": 5581,
  "\u0120einzus": 5582,
  "\u0120irish": 5583,
  "\u0120sent": 5584,
  "\u0120eingere": 5585,
  "\u00c3\u00a4ne": 5586,
  "uded": 5587,
  "\u0120duty": 5588,
  "\u0120declaration": 5589,
  "\u0120m\u00c3\u00b6glichst": 5590,
  "\u0120optim": 5591,
  "\u0120eingesetzt": 5592,
  "\u0120aktivit\u00c3\u00a4ten": 5593,
  "\u0120exact": 5594,
  "\u0120goods": 5595,
  "\u0120eingeb": 5596,
  "\u0120antworten": 5597,
  "atur": 5598,
  "\u0120veran": 5599,
  "\u0120strategic": 5600,
  "osed": 5601,
  "\u0120office": 5602,
  "30": 5603,
  "enhagen": 5604,
  "where": 5605,
  "arm": 5606,
  "\u0120barroso": 5607,
  "uff": 5608,
  "\u0120bewer": 5609,
  "iber": 5610,
  "of": 5611,
  "ume": 5612,
  "\u0120contrary": 5613,
  "\u0120treaties": 5614,
  "\u0120earlier": 5615,
  "\u0120offensichtlich": 5616,
  "\u012024": 5617,
  "\u0120organised": 5618,
  "\u0120forderungen": 5619,
  "itious": 5620,
  "leitet": 5621,
  "\u0120useful": 5622,
  "\u0120juni": 5623,
  "\u0120weapons": 5624,
  "\u0120ade": 5625,
  "\u0120zuge": 5626,
  "\u0120deliver": 5627,
  "\u0120interinstitution": 5628,
  "ordent": 5629,
  "\u0120au\u00c3\u0141erordent": 5630,
  "\u0120early": 5631,
  "\u0120ressourcen": 5632,
  "\u0120osten": 5633,
  "\u0120meinungs": 5634,
  "\u0120geschlossen": 5635,
  "\u0120consensus": 5636,
  "\u0120properly": 5637,
  "\u0120schlussfolgerungen": 5638,
  "\u0120former": 5639,
  "ategor": 5640,
  "\u0120american": 5641,
  "\u0120w\u00c3\u00bcnschen": 5642,
  "\u0120ton": 5643,
  "\u0120produc": 5644,
  "zeichnung": 5645,
  "\u0120safeguard": 5646,
  "\u0120geist": 5647,
  "\u0120betre": 5648,
  "\u0120sitting": 5649,
  "\u0120expend": 5650,
  "\u0120ma\u00c3\u0141e": 5651,
  "\u0120h\u00c3\u00a4ufig": 5652,
  "\u0120spain": 5653,
  "\u0120acceptable": 5654,
  "\u0120zweifellos": 5655,
  "\u0120interp": 5656,
  "otes": 5657,
  "\u0120leitlinien": 5658,
  "\u0120einst": 5659,
  "\u0120minutes": 5660,
  "\u0120erforderlichen": 5661,
  "\u0120thought": 5662,
  "imately": 5663,
  "iveau": 5664,
  "\u0120gesetzt": 5665,
  "\u0120schwierig": 5666,
  "\u0120damage": 5667,
  "\u0120bodies": 5668,
  "achtet": 5669,
  "\u0120gestern": 5670,
  "\u012060": 5671,
  "\u0120leave": 5672,
  "\u0120niederl": 5673,
  "\u0120republik": 5674,
  "\u0120annual": 5675,
  "\u0120europ\u00c3\u00a4er": 5676,
  "\u0120paid": 5677,
  "bab": 5678,
  "\u0120unterst\u00c3\u00bctze": 5679,
  "\u0120ratspr\u00c3\u00a4sidentschaft": 5680,
  "iture": 5681,
  "\u0120ethn": 5682,
  "\u0120l\u00c3\u00b6sungen": 5683,
  "\u0120pointed": 5684,
  "\u0120unmittel": 5685,
  "\u0120gefunden": 5686,
  "\u0120establishing": 5687,
  "\u0120priorit\u00c3\u00a4t": 5688,
  "\u0120\u00c3\u00bcbergang": 5689,
  "\u0120konzentrieren": 5690,
  "\u0120nutzung": 5691,
  "\u0120unanim": 5692,
  "\u0120reduz": 5693,
  "\u0120auffor": 5694,
  "\u0120bad": 5695,
  "\u0120hom": 5696,
  "\u0120patient": 5697,
  "wach": 5698,
  "ging": 5699,
  "\u0120dev": 5700,
  "bia": 5701,
  "\u0120\u00c3\u00bcbernehmen": 5702,
  "\u0120conclude": 5703,
  "\u0120wants": 5704,
  "\u0120hig": 5705,
  "\u0120toler": 5706,
  "\u0120activity": 5707,
  "\u0120endg\u00c3\u00bclt": 5708,
  "bahn": 5709,
  "\u0120einiger": 5710,
  "\u0120letzt": 5711,
  "igrants": 5712,
  "ots": 5713,
  "\u0120beant": 5714,
  "ake": 5715,
  "\u0120send": 5716,
  "chnolog": 5717,
  "\u0120einfluss": 5718,
  "\u0120type": 5719,
  "\u0120higher": 5720,
  "\u0120schritte": 5721,
  "\u0120problemat": 5722,
  "\u0120manner": 5723,
  "j\u00c3\u00a4hr": 5724,
  "annte": 5725,
  "\u0120unternommen": 5726,
  "\u0120auss": 5727,
  "\u0120produce": 5728,
  "lauf": 5729,
  "\u0120network": 5730,
  "entscheid": 5731,
  "\u0120dauer": 5732,
  "\u0120generation": 5733,
  "\u0120leicht": 5734,
  "l\u00c3\u00a4ge": 5735,
  "\u0120transfer": 5736,
  "\u0120arrang": 5737,
  "\u0120commer": 5738,
  "\u0120vermitt": 5739,
  "\u0120produced": 5740,
  "\u0120bieten": 5741,
  "\u0120laufen": 5742,
  "\u0120einrichtung": 5743,
  "cco": 5744,
  "ventions": 5745,
  "ished": 5746,
  "\u0120accident": 5747,
  "\u0120stabilit\u00c3\u00a4ts": 5748,
  "\u0120convinced": 5749,
  "\u0120enterprises": 5750,
  "\u0120anp": 5751,
  "gesundheit": 5752,
  "\u0120documents": 5753,
  "used": 5754,
  "fallen": 5755,
  "stant": 5756,
  "\u0120begl\u00c3\u00bcckw\u00c3\u00bcnschen": 5757,
  "\u0120j\u00c3\u00a4hr": 5758,
  "\u0120sprache": 5759,
  "\u0120dead": 5760,
  "\u0120achieving": 5761,
  "\u0120discussing": 5762,
  "\u0120study": 5763,
  "wahl": 5764,
  "\u0120herausforderungen": 5765,
  "\u0120nennen": 5766,
  "elten": 5767,
  "\u0120fulf": 5768,
  "oper": 5769,
  "\u0120calling": 5770,
  "\u0120ver\u00c3\u00b6": 5771,
  "\u0120schrift": 5772,
  "\u0120besondere": 5773,
  "\u0120repla": 5774,
  "\u012023": 5775,
  "\u0120age": 5776,
  "\u0120tagung": 5777,
  "\u0120gesehen": 5778,
  "\u0120ones": 5779,
  "\u0120stattfinden": 5780,
  "\u0120complex": 5781,
  "\u0120speed": 5782,
  "\u0120passen": 5783,
  "struktur": 5784,
  "\u0120unf": 5785,
  "\u0120k\u00c3\u00bcnftigen": 5786,
  "atlant": 5787,
  "\u0120expenditure": 5788,
  "\u0120pension": 5789,
  "\u0120schem": 5790,
  "otion": 5791,
  "\u0120addressed": 5792,
  "\u0120flexibility": 5793,
  "\u0120networks": 5794,
  "\u0120bir": 5795,
  "\u0120king": 5796,
  "\u0120lik": 5797,
  "\u0120association": 5798,
  "\u0120derzeitigen": 5799,
  "m\u00c3\u00a4\u00c3\u0141ig": 5800,
  "instrument": 5801,
  "\u0120gives": 5802,
  "lines": 5803,
  "\u0120explo": 5804,
  "\u0120mag": 5805,
  "\u0120kompl": 5806,
  "\u0120begrenz": 5807,
  "\u0120moral": 5808,
  "\u0120konkreten": 5809,
  "\u0120happened": 5810,
  "vision": 5811,
  "\u0120balanced": 5812,
  "\u0120systemat": 5813,
  "\u0120rechn": 5814,
  "\u0120suc": 5815,
  "called": 5816,
  "dra": 5817,
  "\u0120succeed": 5818,
  "acter": 5819,
  "\u0120colleague": 5820,
  "\u0120nochmals": 5821,
  "\u0120america": 5822,
  "\u0120bringt": 5823,
  "\u0120bewertung": 5824,
  "\u0120besorgnis": 5825,
  "\u0120cop": 5826,
  "\u0120st\u00c3\u00a4rken": 5827,
  "erten": 5828,
  "ilst": 5829,
  "\u0120init": 5830,
  "astung": 5831,
  "\u0120wiederauf": 5832,
  "\u0120entirely": 5833,
  "\u0120whilst": 5834,
  "\u0120administration": 5835,
  "\u0120initial": 5836,
  "\u0120chan": 5837,
  "\u0120round": 5838,
  "\u0120verfolgt": 5839,
  "\u0120hol": 5840,
  "\u0120analysis": 5841,
  "\u0120befassen": 5842,
  "\u0120kritik": 5843,
  "angs": 5844,
  "\u0120folge": 5845,
  "\u0120nunmehr": 5846,
  "auftrag": 5847,
  "\u0120acqu": 5848,
  "\u0120improved": 5849,
  "\u0120gesetzgebung": 5850,
  "\u0120ca": 5851,
  "\u0120nimmt": 5852,
  "\u0120comprehen": 5853,
  "\u0120typ": 5854,
  "\u0120wunsch": 5855,
  "\u0120intention": 5856,
  "\u0120vielfalt": 5857,
  "\u0120patten": 5858,
  "\u0120turkish": 5859,
  "proble": 5860,
  "\u0120b\u00c3\u00bcrgerinnen": 5861,
  "\u0120britischen": 5862,
  "\u0120gegenteil": 5863,
  "\u0120vir": 5864,
  "\u01201998": 5865,
  "\u0120dienstleistungs": 5866,
  "\u0120verm": 5867,
  "\u0120compens": 5868,
  "\u0120probably": 5869,
  "\u0120erf\u00c3\u00bcllt": 5870,
  "\u0120mitteln": 5871,
  "\u0120nied": 5872,
  "\u0120laid": 5873,
  "\u0120elekt": 5874,
  "\u0120weshalb": 5875,
  "enze": 5876,
  "\u0120bedauer": 5877,
  "hab": 5878,
  "\u0120veh": 5879,
  "ized": 5880,
  "\u0120einsetzen": 5881,
  "\u0120failure": 5882,
  "\u0120hop": 5883,
  "\u0120diskriminierung": 5884,
  "\u0120einver": 5885,
  "\u0120ausges": 5886,
  "\u0120debates": 5887,
  "\u0120beteiligung": 5888,
  "\u0120protocol": 5889,
  "\u0120verpflichtung": 5890,
  "\u0120nachhaltige": 5891,
  "\u0120forget": 5892,
  "\u0120febru": 5893,
  "tag": 5894,
  "inges": 5895,
  "either": 5896,
  "\u0120deg": 5897,
  "\u0120sage": 5898,
  "\u0120tourism": 5899,
  "osen": 5900,
  "\u0120hauses": 5901,
  "\u0120learn": 5902,
  "\u0120neither": 5903,
  "\u0120ausdr\u00c3\u00bccklich": 5904,
  "2006": 5905,
  "\u0120globalisation": 5906,
  "\u0120increasingly": 5907,
  "\u0120coll": 5908,
  "\u0120distrib": 5909,
  "\u0120applies": 5910,
  "\u0120board": 5911,
  "ones": 5912,
  "\u0120minderheiten": 5913,
  "achtung": 5914,
  "\u0120allgemeine": 5915,
  "\u0120projekte": 5916,
  "\u0120constructive": 5917,
  "\u0120erg\u00c3\u00a4n": 5918,
  "\u0120vision": 5919,
  "keiten": 5920,
  "endence": 5921,
  "\u0120exchange": 5922,
  "\u0120beginnen": 5923,
  "\u0120apprec": 5924,
  "\u0120ausf\u00c3\u00bchrungen": 5925,
  "\u0120laws": 5926,
  "ex": 5927,
  "ierter": 5928,
  "\u0120trust": 5929,
  "\u0120contract": 5930,
  "\u0120ult": 5931,
  "zehn": 5932,
  "\u0120revision": 5933,
  "gruppe": 5934,
  "\u0120j\u00c3\u00bcngsten": 5935,
  "\u0120character": 5936,
  "\u0120combating": 5937,
  "\u0120elements": 5938,
  "m\u00c3\u00a4r": 5939,
  "\u0120besch\u00c3\u00a4ftigungs": 5940,
  "\u0120verste": 5941,
  "\u0120erfolgreich": 5942,
  "\u0120susp": 5943,
  "\u0120glaubw\u00c3\u00bcrd": 5944,
  "\u0120w\u00c3\u00a4hrung": 5945,
  "\u0120cooper": 5946,
  "\u0120konkret": 5947,
  "\u0120mobil": 5948,
  "\u0120becoming": 5949,
  "\u0120opening": 5950,
  "\u0120thirdly": 5951,
  "\u0120erfahrungen": 5952,
  "\u0120metho": 5953,
  "ypern": 5954,
  "\u0120march": 5955,
  "\u0120ga": 5956,
  "\u0120interpret": 5957,
  "undert": 5958,
  "\u0120ober": 5959,
  "\u0120verbessert": 5960,
  "\u0120nachdem": 5961,
  "\u0120shows": 5962,
  "\u0120freedoms": 5963,
  "\u0120abh\u00c3\u00a4ng": 5964,
  "\u0120haup": 5965,
  "\u0120reden": 5966,
  "adt": 5967,
  "\u0120statements": 5968,
  "\u0120constant": 5969,
  "\u0120festgestellt": 5970,
  "\u0120launch": 5971,
  "\u0120ambitious": 5972,
  "iede": 5973,
  "\u0120medic": 5974,
  "\u0120mittelmeer": 5975,
  "\u0120migration": 5976,
  "urance": 5977,
  "losigkeit": 5978,
  "\u0120representative": 5979,
  "\u0120regierungskonferenz": 5980,
  "\u0120versich": 5981,
  "\u0120fed": 5982,
  "\u0120otherwise": 5983,
  "\u0120tr\u00c3\u00a4": 5984,
  "\u0120front": 5985,
  "\u0120kop": 5986,
  "\u0120zugleich": 5987,
  "\u0120plenum": 5988,
  "\u0120scho": 5989,
  "\u0120cust": 5990,
  "\u0120freien": 5991,
  "\u0120fallen": 5992,
  "\u0120prospect": 5993,
  "\u0120withdra": 5994,
  "ored": 5995,
  "\u0120sicherzustellen": 5996,
  "\u0120supporting": 5997,
  "\u0120fortschritt": 5998,
  "\u0120parts": 5999,
  "cks": 6000,
  "ma\u00c3\u0141en": 6001,
  "\u0120auseinander": 6002,
  "\u0120referendum": 6003,
  "ric": 6004,
  "\u0120bau": 6005,
  "\u0120gehe": 6006,
  "mos": 6007,
  "\u0120reply": 6008,
  "\u0120drogen": 6009,
  "\u0120ut": 6010,
  "ierende": 6011,
  "\u0120highlight": 6012,
  "european": 6013,
  "\u0120fil": 6014,
  "ikation": 6015,
  "bod": 6016,
  "\u0120anliegen": 6017,
  "\u0120raise": 6018,
  "\u0120caused": 6019,
  "\u0120thinking": 6020,
  "\u0120bekr": 6021,
  "\u0120erfolgen": 6022,
  "\u0120consultation": 6023,
  "\u0120forest": 6024,
  "\u0120begriff": 6025,
  "zone": 6026,
  "\u0120\u00c3\u00b6kolog": 6027,
  "\u0120cham": 6028,
  "\u0120abgele": 6029,
  "\u0120gezeigt": 6030,
  "\u0120company": 6031,
  "ule": 6032,
  "\u0120erleicht": 6033,
  "\u0120entspricht": 6034,
  "uba": 6035,
  "laufen": 6036,
  "eu": 6037,
  "\u0120worten": 6038,
  "ensions": 6039,
  "\u0120demokratische": 6040,
  "\u0120added": 6041,
  "\u0120occup": 6042,
  "\u0120bekr\u00c3\u00a4ft": 6043,
  "\u0120responsibilities": 6044,
  "\u0120dangerous": 6045,
  "\u0120grenz\u00c3\u00bcberschreit": 6046,
  "\u0120sofort": 6047,
  "\u0120konzept": 6048,
  "\u0120globalisierung": 6049,
  "entwurf": 6050,
  "\u0120incorpor": 6051,
  "\u0120zerst": 6052,
  "err": 6053,
  "stre": 6054,
  "\u0120deswegen": 6055,
  "\u0120h\u00c3\u00b6he": 6056,
  "\u0120vermeiden": 6057,
  "\u0120kaum": 6058,
  "\u0120eindruck": 6059,
  "\u0120politischer": 6060,
  "\u0120evidence": 6061,
  "\u0120au\u00c3\u0141erhalb": 6062,
  "\u0120auton": 6063,
  "\u0120stra\u00c3\u0141en": 6064,
  "cement": 6065,
  "\u0120d\u00c3\u00a4n": 6066,
  "\u0120efficiency": 6067,
  "\u0120committees": 6068,
  "zust": 6069,
  "olution": 6070,
  "\u0120diplomat": 6071,
  "\u0120produkte": 6072,
  "\u0120ver\u00c3\u00a4nderungen": 6073,
  "\u0120eisen": 6074,
  "\u0120denken": 6075,
  "\u0120gestatten": 6076,
  "\u0120vorschlags": 6077,
  "\u0120verwe": 6078,
  "\u0120friedens": 6079,
  "orted": 6080,
  "\u0120commissioners": 6081,
  "\u0120quot": 6082,
  "\u0120diskutiert": 6083,
  "\u0120influence": 6084,
  "\u0120hervorragen": 6085,
  "\u0120chamber": 6086,
  "\u0120wall": 6087,
  "\u0120appeal": 6088,
  "\u0120critical": 6089,
  "ktors": 6090,
  "\u0120schengen": 6091,
  "\u0120differences": 6092,
  "\u0120italian": 6093,
  "\u0120jur": 6094,
  "\u0120eigene": 6095,
  "\u0120nice": 6096,
  "\u0120keines": 6097,
  "\u0120erkl\u00c3\u00a4rungen": 6098,
  "\u0120resolutions": 6099,
  "grenz": 6100,
  "\u0120rechnungs": 6101,
  "\u0120arms": 6102,
  "front": 6103,
  "iffer": 6104,
  "babwe": 6105,
  "\u0120dre": 6106,
  "\u0120t\u00c3\u00bcrk": 6107,
  "\u0120drawn": 6108,
  "\u0120fr\u00c3\u00bch": 6109,
  "\u0120vorher": 6110,
  "punkte": 6111,
  "\u0120dealt": 6112,
  "\u0120building": 6113,
  "\u0120ge\u00c3\u00a4u\u00c3\u0141": 6114,
  "\u0120zust\u00c3\u00a4ndigkeit": 6115,
  "\u0120nos": 6116,
  "\u0120falls": 6117,
  "\u0120h\u00c3\u00b6chst": 6118,
  "border": 6119,
  "\u0120actual": 6120,
  "gencies": 6121,
  "\u0120verschiedene": 6122,
  "\u0120beteiligten": 6123,
  "urop\u00c3\u00a4": 6124,
  "\u0120fordere": 6125,
  "lim": 6126,
  "\u0120enfor": 6127,
  "\u0120bem\u00c3\u00bchen": 6128,
  "\u0120grunds\u00c3\u00a4tze": 6129,
  "\u0120trafficking": 6130,
  "\u0120recognition": 6131,
  "va": 6132,
  "oses": 6133,
  "\u0120defend": 6134,
  "ars": 6135,
  "\u0120alten": 6136,
  "ungsverfahren": 6137,
  "\u0120gelungen": 6138,
  "\u0120angeht": 6139,
  "\u00c3\u00b6rt": 6140,
  "\u0120hindern": 6141,
  "\u0120closer": 6142,
  "\u0120gew\u00c3\u00a4hrleistet": 6143,
  "\u0120positions": 6144,
  "\u0120ersuch": 6145,
  "\u0120verbindung": 6146,
  "\u0120wonder": 6147,
  "\u0120rise": 6148,
  "\u0120anderem": 6149,
  "\u0120unable": 6150,
  "\u0120liste": 6151,
  "organisationen": 6152,
  "iated": 6153,
  "\u0120ergriffen": 6154,
  "\u0120198": 6155,
  "\u0120cyprus": 6156,
  "gehend": 6157,
  "h\u00c3\u00b6ren": 6158,
  "\u0120vorschl\u00c3\u00a4gen": 6159,
  "\u0120blick": 6160,
  "\u0120enormous": 6161,
  "\u00c3\u00a4re": 6162,
  "\u0120dienen": 6163,
  "iell": 6164,
  "uelle": 6165,
  "\u0120wahrschein": 6166,
  "\u01202010": 6167,
  "\u0120fremden": 6168,
  "uations": 6169,
  "\u0120jene": 6170,
  "\u0120hervorge": 6171,
  "20": 6172,
  "\u0120sud": 6173,
  "\u0120heart": 6174,
  "\u0120braucht": 6175,
  "\u0120mission": 6176,
  "\u0120says": 6177,
  "2005": 6178,
  "\u0120uno": 6179,
  "\u0120besuch": 6180,
  "\u0120sozialdem": 6181,
  "forderung": 6182,
  "\u0120bush": 6183,
  "\u0120sanctions": 6184,
  "\u0120empfehlungen": 6185,
  "\u0120ech": 6186,
  "\u0120ideas": 6187,
  "\u0120january": 6188,
  "\u0120s\u00c3\u00a4mtliche": 6189,
  "ingeschr\u00c3\u00a4n": 6190,
  "indung": 6191,
  "\u0120\u00c3\u00bcbersch": 6192,
  "\u0120uneingeschr\u00c3\u00a4n": 6193,
  "\u0120lib": 6194,
  "\u0120mainly": 6195,
  "ape": 6196,
  "\u0120sensitive": 6197,
  "\u0120strukturfonds": 6198,
  "ipp": 6199,
  "\u0120problemen": 6200,
  "mission": 6201,
  "\u0120griechen": 6202,
  "\u0120body": 6203,
  "\u0120zypern": 6204,
  "\u0120irland": 6205,
  "inter": 6206,
  "\u0120malt": 6207,
  "\u0120legitim": 6208,
  "\u0120traffic": 6209,
  "\u0120comprehens": 6210,
  "\u0120erd": 6211,
  "\u0120gr\u00c3\u00b6\u00c3\u0141ten": 6212,
  "\u0120ahead": 6213,
  "\u0120poten": 6214,
  "\u0120warm": 6215,
  "\u0120hervorheben": 6216,
  "\u00c3\u00a4sent": 6217,
  "\u0120informed": 6218,
  "\u0120kingdom": 6219,
  "\u0120freiheiten": 6220,
  "\u0120behaup": 6221,
  "\u0120syr": 6222,
  "jekt": 6223,
  "\u0120todes": 6224,
  "samm": 6225,
  "\u0120choice": 6226,
  "\u0120thousands": 6227,
  "\u0120degree": 6228,
  "\u0120original": 6229,
  "\u0120exactly": 6230,
  "\u0120quant": 6231,
  "gruppen": 6232,
  "\u0120kompliz": 6233,
  "\u0120centre": 6234,
  "temp": 6235,
  "\u0120politisch": 6236,
  "\u0120comply": 6237,
  "\u0120commercial": 6238,
  "\u01200": 6239,
  "\u0120rejected": 6240,
  "\u0120communities": 6241,
  "setzt": 6242,
  "esten": 6243,
  "\u0120prem": 6244,
  "\u0120practices": 6245,
  "\u0120merely": 6246,
  "\u0120strict": 6247,
  "\u0120reduced": 6248,
  "\u0120option": 6249,
  "etzungen": 6250,
  "\u0120speakers": 6251,
  "\u0120weak": 6252,
  "\u0120rechnung": 6253,
  "\u0120sanktionen": 6254,
  "\u0120angriff": 6255,
  "\u0120enj": 6256,
  "\u0120announ": 6257,
  "klang": 6258,
  "\u0120mindest": 6259,
  "\u0120botschaft": 6260,
  "\u0120gespr\u00c3\u00a4": 6261,
  "prozess": 6262,
  "\u0120neues": 6263,
  "\u0120naturally": 6264,
  "\u0120methods": 6265,
  "\u0120abgelehnt": 6266,
  "fect": 6267,
  "\u0120introduction": 6268,
  "\u0120leiden": 6269,
  "l\u00c3\u00a4ut": 6270,
  "\u0120obtain": 6271,
  "ox": 6272,
  "\u0120regionalen": 6273,
  "\u0120opposed": 6274,
  "ience": 6275,
  "\u0120erkl\u00c3\u00a4ren": 6276,
  "\u0120abend": 6277,
  "\u0120managed": 6278,
  "\u0120financing": 6279,
  "\u0120koh\u00c3\u00a4s": 6280,
  "\u0120wege": 6281,
  "spe": 6282,
  "\u0120spanien": 6283,
  "\u0120erl\u00c3\u00a4ut": 6284,
  "\u0120mai": 6285,
  "\u0120\u00c3\u00bcberwachung": 6286,
  "sized": 6287,
  "\u0120chin": 6288,
  "\u0120entwickelt": 6289,
  "ffend": 6290,
  "ifying": 6291,
  "wenden": 6292,
  "\u0120bol": 6293,
  "\u0120moder": 6294,
  "werte": 6295,
  "\u0120transatlant": 6296,
  "\u0120pers\u00c3\u00b6nlich": 6297,
  "asse": 6298,
  "\u0120recognised": 6299,
  "erungs": 6300,
  "licherweise": 6301,
  "wass": 6302,
  "ival": 6303,
  "\u0120protest": 6304,
  "\u0120kre": 6305,
  "\u0120substances": 6306,
  "\u0120einbeziehung": 6307,
  "\u0120custom": 6308,
  "\u0120contains": 6309,
  "\u0120intergovernmental": 6310,
  "\u0120transition": 6311,
  "ufact": 6312,
  "rokrat": 6313,
  "))": 6314,
  "iele": 6315,
  "\u0120unemployment": 6316,
  "\u0120introduced": 6317,
  "\u0120reducing": 6318,
  "\u0120infrastruktur": 6319,
  "\u0120beteiligt": 6320,
  "oz": 6321,
  "\u0120putting": 6322,
  "\u0120politiken": 6323,
  "\u0120morning": 6324,
  "\u0120pollution": 6325,
  "mutz": 6326,
  "\u0120jem": 6327,
  "\u0120\u00c3\u00bcbereinkommen": 6328,
  "\u0120ausreichend": 6329,
  "\u0120hause": 6330,
  "\u0120fehler": 6331,
  "\u0120impossible": 6332,
  "\u0120mutual": 6333,
  "\u0120arab": 6334,
  "\u0120ge\u00c3\u00a4nder": 6335,
  "\u0120expens": 6336,
  "ired": 6337,
  "\u0120disease": 6338,
  "\u0120akte": 6339,
  "\u0120paral": 6340,
  "\u0120assemb": 6341,
  "):": 6342,
  "\u0120orient": 6343,
  "\u0120monop": 6344,
  "\u0120kr\u00c3\u00a4": 6345,
  "gewicht": 6346,
  "\u0120fulfil": 6347,
  "\u0120hoffnung": 6348,
  "\u0120festlegung": 6349,
  "stoffe": 6350,
  "\u0120sen": 6351,
  "ischar": 6352,
  "\u0120involving": 6353,
  "\u0120aims": 6354,
  "\u0120manufact": 6355,
  "handels": 6356,
  "\u0120gr\u00c3\u00bcnde": 6357,
  "\u0120h\u00c3\u00b6her": 6358,
  "acy": 6359,
  "\u0120formal": 6360,
  "\u0120strengthening": 6361,
  "\u0120rechtsgrundlage": 6362,
  "\u0120greece": 6363,
  "\u0120f\u00c3\u00a4h": 6364,
  "\u0120bemerkungen": 6365,
  "\u0120diversity": 6366,
  "ctober": 6367,
  "\u0120europol": 6368,
  "ateful": 6369,
  "\u0120simple": 6370,
  "\u00c3\u00b6p": 6371,
  "\u0120record": 6372,
  "\u0120represents": 6373,
  "\u0120happy": 6374,
  "sc": 6375,
  "\u0120erfre": 6376,
  "\u012080": 6377,
  "\u0120asking": 6378,
  "\u0120schlie\u00c3\u0141": 6379,
  "\u0120geschieht": 6380,
  "\u0120positiven": 6381,
  "leistungen": 6382,
  "zut": 6383,
  "\u0120wid": 6384,
  "\u00c3\u00b6m": 6385,
  "sec": 6386,
  "\u0120isol": 6387,
  "etting": 6388,
  "itable": 6389,
  "anzen": 6390,
  "\u0120worked": 6391,
  "\u0120geschle": 6392,
  "\u0120diskussionen": 6393,
  "\u0120figures": 6394,
  "len": 6395,
  "\u0120nahen": 6396,
  "coming": 6397,
  "\u0120vorhaben": 6398,
  "\u0120faktor": 6399,
  "\u0120facilit": 6400,
  "\u0120goals": 6401,
  "immungen": 6402,
  "\u0120betrachtet": 6403,
  "\u0120beitr\u00c3\u00a4": 6404,
  "ktober": 6405,
  "\u0120realit\u00c3\u00a4t": 6406,
  "tei": 6407,
  "\u0120bewe": 6408,
  "\u0120near": 6409,
  "\u0120symb": 6410,
  "\u0120nein": 6411,
  "\u0120zentr": 6412,
  "\u0120told": 6413,
  "\u0120einklang": 6414,
  "\u0120daraus": 6415,
  "\u0120strongly": 6416,
  "bek\u00c3\u00a4mp": 6417,
  "versch": 6418,
  "\u0120dischar": 6419,
  "halte": 6420,
  "\u0120armen": 6421,
  "\u0120kommissionspr\u00c3\u00a4sident": 6422,
  "konom": 6423,
  "izza": 6424,
  "\u0120conduct": 6425,
  "\u0120charta": 6426,
  "\u0120perman": 6427,
  "\u0120introduce": 6428,
  "50": 6429,
  "\u0120establishment": 6430,
  "mittag": 6431,
  "\u0120plenary": 6432,
  "\u0120politic": 6433,
  "\u0120abgeschlossen": 6434,
  "hafte": 6435,
  "\u0120integrated": 6436,
  "\u0120vertr\u00c3\u00a4ge": 6437,
  "\u0120excess": 6438,
  "\u0120nationaler": 6439,
  "\u0120pub": 6440,
  "\u0120legen": 6441,
  "\u0120harmonisierung": 6442,
  "\u0120obligations": 6443,
  "\u0120russian": 6444,
  "\u0120surpr": 6445,
  "\u0120coher": 6446,
  "\u0120schaden": 6447,
  "\u0120analyse": 6448,
  "legungen": 6449,
  "\u0120wollte": 6450,
  "\u0120gratulieren": 6451,
  "\u00c3\u00b6der": 6452,
  "\u0120afrika": 6453,
  "\u0120producers": 6454,
  "ike": 6455,
  "\u0120appell": 6456,
  "\u0120conciliation": 6457,
  "\u0120grateful": 6458,
  "\u0120contact": 6459,
  "\u0120fu": 6460,
  "\u0120mandate": 6461,
  "etheless": 6462,
  "\u0120nonetheless": 6463,
  "\u0120cal": 6464,
  "\u0120nahr": 6465,
  "\u0120fried": 6466,
  "\u0120wesentliche": 6467,
  "\u0120vereinfach": 6468,
  "\u0120ausgesprochen": 6469,
  "\u0120lay": 6470,
  "\u0120haft": 6471,
  "richten": 6472,
  "\u0120understanding": 6473,
  "\u0120exception": 6474,
  "\u0120gap": 6475,
  "\u0120tagen": 6476,
  "\u0120l\u00c3\u00a4ndlichen": 6477,
  "\u0120vertr": 6478,
  "\u0120dramat": 6479,
  "\u0120\u00c3\u00bcberzeugung": 6480,
  "ush": 6481,
  "\u0120seitens": 6482,
  "\u0120greek": 6483,
  "\u0120infrastructure": 6484,
  "\u0120m\u00c3\u00bcnd": 6485,
  "roat": 6486,
  "\u0120agencies": 6487,
  "\u0120erfordern": 6488,
  "kosten": 6489,
  "\u0120exercise": 6490,
  "\u0120came": 6491,
  "\u0120aussprechen": 6492,
  "handlungen": 6493,
  "sprogramm": 6494,
  "\u0120fl\u00c3\u00bcchtl": 6495,
  "estens": 6496,
  "\u0120meer": 6497,
  "\u0120befug": 6498,
  "\u0120subsidiarity": 6499,
  "\u0120berichten": 6500,
  "\u0120submitted": 6501,
  "\u0120gr\u00c3\u00b6\u00c3\u0141er": 6502,
  "\u0120writ": 6503,
  "\u0120gesamt": 6504,
  "\u0120romania": 6505,
  "\u0120comprehensive": 6506,
  "\u0120anderes": 6507,
  "\u0120vorlegen": 6508,
  "fahrt": 6509,
  "f\u00c3\u00a4lt": 6510,
  "itors": 6511,
  "\u0120konsens": 6512,
  "\u0120pr\u00c3\u00a4z": 6513,
  "\u0120languages": 6514,
  "\u0120disaster": 6515,
  "\u0120fonds": 6516,
  "\u0120prefer": 6517,
  "\u0120erh\u00c3\u00b6hen": 6518,
  "\u0120bew\u00c3\u00a4lt": 6519,
  "\u0120refugees": 6520,
  "\u0120faced": 6521,
  "\u0120western": 6522,
  "\u0120vehic": 6523,
  "\u0120eisenbahn": 6524,
  "\u0120beig": 6525,
  "\u0120prison": 6526,
  "\u0120grant": 6527,
  "\u0120behandeln": 6528,
  "\u0120sprach": 6529,
  "\u0120verwirk": 6530,
  "\u0120lastly": 6531,
  "\u0120entwicklungsl\u00c3\u00a4ndern": 6532,
  "\u0120ignor": 6533,
  "04": 6534,
  "\u012028": 6535,
  "\u0120facing": 6536,
  "akte": 6537,
  "sterdam": 6538,
  "laf": 6539,
  "gem\u00c3\u00a4\u00c3\u0141": 6540,
  "\u0120burden": 6541,
  "2004": 6542,
  "\u0120verbot": 6543,
  "\u0120funktionieren": 6544,
  "\u0120claim": 6545,
  "\u0120ausbildung": 6546,
  "\u0120amsterdam": 6547,
  "\u0120recommendations": 6548,
  "\u0120autonom": 6549,
  "acc": 6550,
  "\u0120tit": 6551,
  "\u0120observ": 6552,
  "anten": 6553,
  "\u0120zufolge": 6554,
  "\u0120white": 6555,
  "\u0120f\u00c3\u00a4lle": 6556,
  "son": 6557,
  "liegt": 6558,
  "\u0120griech": 6559,
  "\u0120entwicklungsl\u00c3\u00a4nder": 6560,
  "\u0120sprachen": 6561,
  "\u0120evalu": 6562,
  "\u0120penalt": 6563,
  "atal": 6564,
  "uls": 6565,
  "\u0120womens": 6566,
  "\u0120wal": 6567,
  "\u0120perfect": 6568,
  "\u0120anyone": 6569,
  "\u0120sonst": 6570,
  "wal": 6571,
  "\u0120pill": 6572,
  "vergen": 6573,
  "\u0120resolve": 6574,
  "\u0120lag": 6575,
  "geste": 6576,
  "\u0120assembly": 6577,
  "\u0120bringing": 6578,
  "\u00c3\u00a4nglich": 6579,
  "ielt": 6580,
  "beh\u00c3\u00b6rde": 6581,
  "\u00c3\u00b6ff": 6582,
  "iately": 6583,
  "\u0120bein": 6584,
  "\u0120kn": 6585,
  "\u0120forth": 6586,
  "\u0120immediately": 6587,
  "\u0120miteinander": 6588,
  "\u0120kleine": 6589,
  "\u0120easy": 6590,
  "\u0120keinerlei": 6591,
  "sorge": 6592,
  "\u0120ster": 6593,
  "\u0120kandidaten": 6594,
  "\u0120besseren": 6595,
  "f\u00c3\u00a4hig": 6596,
  "\u0120targets": 6597,
  "\u0120einerseits": 6598,
  "\u0120rand": 6599,
  "\u0120mist": 6600,
  "\u0120ma\u00c3\u0141nahme": 6601,
  "resp": 6602,
  "\u0120januar": 6603,
  "oin": 6604,
  "ball": 6605,
  "christ": 6606,
  "\u0120meetings": 6607,
  "\u0120charak": 6608,
  "\u0120continuing": 6609,
  "\u0120lies": 6610,
  "\u0120employe": 6611,
  "\u0120harmonisation": 6612,
  "\u012026": 6613,
  "\u0120proportion": 6614,
  "\u0120gebiete": 6615,
  "\u0120nizza": 6616,
  "\u0120betrachten": 6617,
  "\u0120consequently": 6618,
  "\u0120b\u00c3\u00bcrokrat": 6619,
  "\u0120ham": 6620,
  "\u0120tr\u00c3\u00a4gt": 6621,
  "uter": 6622,
  "\u0120erkennen": 6623,
  "\u0120foot": 6624,
  "\u0120signed": 6625,
  "\u0120anwes": 6626,
  "\u0120bureauc": 6627,
  "bek\u00c3\u00a4mpfung": 6628,
  "\u0120sold": 6629,
  "standing": 6630,
  "\u0120technischen": 6631,
  "\u0120wishes": 6632,
  "\u0120umfassende": 6633,
  "stellungen": 6634,
  "\u0120diesel": 6635,
  "\u0120programms": 6636,
  "\u0120ey": 6637,
  "\u0120mitarbeit": 6638,
  "\u0120adopting": 6639,
  "millionen": 6640,
  "\u0120landwirte": 6641,
  "\u0120aktionen": 6642,
  "ungsbereich": 6643,
  "\u0120compla": 6644,
  "\u0120supports": 6645,
  "\u0120arm": 6646,
  "\u0120elected": 6647,
  "\u0120gen\u00c3\u00bc": 6648,
  "\u0120swedish": 6649,
  "\u0120bilden": 6650,
  "\u0120m\u00c3\u00a4rz": 6651,
  "\u0120forum": 6652,
  "\u0120rechtsstaat": 6653,
  "\u0120unterschiedlichen": 6654,
  "\u0120prosper": 6655,
  "\u0120gl\u00c3\u00bcck": 6656,
  "r\u00c3\u00bc": 6657,
  "\u0120jetz": 6658,
  "\u0120concrete": 6659,
  "\u0120hoffentlich": 6660,
  "\u012031": 6661,
  "\u0120voraussetzungen": 6662,
  "\u0120ank": 6663,
  "\u0120erf": 6664,
  "\u0120amongst": 6665,
  "spolit": 6666,
  "\u0120tempor": 6667,
  "ormen": 6668,
  "\u0120gain": 6669,
  "\u0120lost": 6670,
  "\u0120sides": 6671,
  "\u0120forts": 6672,
  "\u0120territorial": 6673,
  "nimmt": 6674,
  "\u0120repeat": 6675,
  "\u0120regular": 6676,
  "\u0120freiz": 6677,
  "reichung": 6678,
  "\u0120empfehlung": 6679,
  "\u0120entwicklungen": 6680,
  "\u0120herausforderung": 6681,
  "f\u00c3\u00bchl": 6682,
  "\u0120arbeitsmarkt": 6683,
  "\u0120erh\u00c3\u00b6hung": 6684,
  "umping": 6685,
  "\u0120getting": 6686,
  "\u0120verwendet": 6687,
  "reitet": 6688,
  "\u0120unabh\u00c3\u00a4ngig": 6689,
  "\u0120nahe": 6690,
  "uli": 6691,
  "\u0120inspect": 6692,
  "\u0120klaren": 6693,
  "\u0120einger": 6694,
  "\u0120beschl\u00c3\u00bcsse": 6695,
  "\u0120loss": 6696,
  "\u0120gr\u00c3\u00b6\u00c3\u0141te": 6697,
  "\u0120doha": 6698,
  "\u0120membership": 6699,
  "\u0120northern": 6700,
  "\u0120ought": 6701,
  "\u0120flexible": 6702,
  "\u0120agrarpolitik": 6703,
  "\u0120publish": 6704,
  "\u0120genet": 6705,
  "gerung": 6706,
  "brauch": 6707,
  "\u0120abol": 6708,
  "\u0120entstehen": 6709,
  "\u0120subsidies": 6710,
  "\u0120ehrge": 6711,
  "t\u00c3\u00a4us": 6712,
  "\u0120italy": 6713,
  "\u0120zust\u00c3\u00a4ndigen": 6714,
  "\u0120behinder": 6715,
  "\u0120attitude": 6716,
  "\u0120berat": 6717,
  "\u0120goal": 6718,
  "grenzen": 6719,
  "\u0120ehrgeiz": 6720,
  "\u0120berlin": 6721,
  "\u0120zahlreichen": 6722,
  "iums": 6723,
  "\u0120appears": 6724,
  "\u0120dig": 6725,
  "\u0120schuld": 6726,
  "\u0120entt\u00c3\u00a4us": 6727,
  "\u0120seeking": 6728,
  "spr\u00c3\u00bc": 6729,
  "\u0120stra\u00c3\u0141": 6730,
  "\u0120akp": 6731,
  "\u0120weiterer": 6732,
  "\u0120governance": 6733,
  "\u0120eingegangen": 6734,
  "\u0120greatest": 6735,
  "\u0120vollst\u00c3\u00a4ndig": 6736,
  "\u0120unbe": 6737,
  "\u0120election": 6738,
  "\u0120structure": 6739,
  "\u0120kapital": 6740,
  "\u0120jung": 6741,
  "cer": 6742,
  "uble": 6743,
  "ari": 6744,
  "\u0120volle": 6745,
  "\u0120ziffer": 6746,
  "\u0120imper": 6747,
  "\u0120concentr": 6748,
  "\u0120\u00c3\u00bcberpr\u00c3\u00bcfung": 6749,
  "versorgung": 6750,
  "\u0120phil": 6751,
  "\u0120shared": 6752,
  "\u0120bemerkung": 6753,
  "\u0120gerichtshof": 6754,
  "\u0120heads": 6755,
  "\u0120criticism": 6756,
  "\u0120explan": 6757,
  "\u0120erwart": 6758,
  "\u0120secure": 6759,
  "\u0120dict": 6760,
  "\u0120pse": 6761,
  "\u00c3\u00b6rdert": 6762,
  "\u0120zielen": 6763,
  "\u0120immigrants": 6764,
  "\u0120ehem": 6765,
  "law": 6766,
  "\u0120votes": 6767,
  "\u0120sehe": 6768,
  "istisch": 6769,
  "\u0120nachdr\u00c3\u00bccklich": 6770,
  "\u0120ber\u00c3\u00bccksichtigung": 6771,
  "\u0120zut": 6772,
  "\u0120zus\u00c3\u00a4tzliche": 6773,
  "dis": 6774,
  "\u0120gruppe": 6775,
  "\u0120alban": 6776,
  "\u0120aufgefordert": 6777,
  "\u0120territory": 6778,
  "mine": 6779,
  "\u0120sensib": 6780,
  "\u0120leading": 6781,
  "\u0120w\u00c3\u00bcnsche": 6782,
  "\u0120forced": 6783,
  "\u0120entl": 6784,
  "\u0120betont": 6785,
  "\u0120wichtiges": 6786,
  "\u0120persons": 6787,
  "201": 6788,
  "\u0120m\u00c3\u00bc": 6789,
  "ille": 6790,
  "\u0120ost": 6791,
  "\u0120gelangen": 6792,
  "\u0120aids": 6793,
  "\u0120flexibilit\u00c3\u00a4t": 6794,
  "\u0120dritten": 6795,
  "\u0120competence": 6796,
  "\u0120heimat": 6797,
  "wesen": 6798,
  "\u0120h\u00c3\u00b6ren": 6799,
  "\u0120nahrungs": 6800,
  "\u0120october": 6801,
  "\u0120lines": 6802,
  "\u0120aufbau": 6803,
  "\u0120genehm": 6804,
  "\u0120confirm": 6805,
  "die": 6806,
  "absicht": 6807,
  "\u0120situations": 6808,
  "kre": 6809,
  "\u0120socialist": 6810,
  "\u0120\u00c3\u00a4u\u00c3\u0141ern": 6811,
  "kap": 6812,
  "\u0120won": 6813,
  "ugos": 6814,
  "kr\u00c3\u00a4fte": 6815,
  "\u0120k\u00c3\u00a4mp": 6816,
  "inding": 6817,
  "f\u00c3\u00bcgen": 6818,
  "\u0120talks": 6819,
  "\u0120petitions": 6820,
  "inary": 6821,
  "\u0120failed": 6822,
  "\u0120guarantees": 6823,
  "\u0120attacks": 6824,
  "\u0120expression": 6825,
  "\u0120growing": 6826,
  "unsten": 6827,
  "leiten": 6828,
  "\u0120factor": 6829,
  "\u0120kompet": 6830,
  "\u0120nachhaltigen": 6831,
  "\u0120voraussetzung": 6832,
  "\u0120bom": 6833,
  "gef": 6834,
  "rates": 6835,
  "\u0120verantwortlich": 6836,
  "ikanischen": 6837,
  "\u0120akzeptiert": 6838,
  "\u0120milliarden": 6839,
  "beh\u00c3\u00b6rden": 6840,
  "\u0120finde": 6841,
  "gos": 6842,
  "\u0120granted": 6843,
  "hre": 6844,
  "kungen": 6845,
  "ental": 6846,
  "schefs": 6847,
  "letzt": 6848,
  "\u0120wahrscheinlich": 6849,
  "tein": 6850,
  "\u0120travel": 6851,
  "\u0120risiko": 6852,
  "losen": 6853,
  "\u0120halb": 6854,
  "\u0120involve": 6855,
  "\u0120anstatt": 6856,
  "\u0120works": 6857,
  "\u0120brut": 6858,
  "\u0120instance": 6859,
  "\u0120herzlich": 6860,
  "iable": 6861,
  "general": 6862,
  "\u0120polen": 6863,
  "\u0120begr\u00c3\u00bcnd": 6864,
  "\u0120besonderen": 6865,
  "\u0120delighted": 6866,
  "\u0120verabschiedet": 6867,
  "\u0120courage": 6868,
  "\u0120chairman": 6869,
  "\u0120aus\u00c3\u00bc": 6870,
  "\u0120carefully": 6871,
  "\u0120protecting": 6872,
  "\u0120volksgesundheit": 6873,
  "tedly": 6874,
  "\u0120sagt": 6875,
  "\u0120anteil": 6876,
  "\u0120zuk": 6877,
  "\u0120produktion": 6878,
  "\u0120bed\u00c3\u00bcrf": 6879,
  "\u0120olaf": 6880,
  "\u0120zuletzt": 6881,
  "\u0120stimmt": 6882,
  "aufen": 6883,
  "\u0120\u00c3\u00b6l": 6884,
  "\u0120geb\u00c3\u00bchr": 6885,
  "\u00c3\u00a4tze": 6886,
  "\u0120promotion": 6887,
  "\u0120chemical": 6888,
  "\u0120drugs": 6889,
  "verse": 6890,
  "\u0120poland": 6891,
  "\u0120solcher": 6892,
  "\u0120acp": 6893,
  "hold": 6894,
  "\u0120embar": 6895,
  "\u0120mittl": 6896,
  "\u0120reicht": 6897,
  "\u0120todays": 6898,
  "zielle": 6899,
  "\u0120n\u00c3\u00a4her": 6900,
  "\u00c3\u00a4tzung": 6901,
  "\u0120darunter": 6902,
  "\u0120symbol": 6903,
  "\u0120h\u00c3\u00a4lt": 6904,
  "\u0120range": 6905,
  "\u0120fraud": 6906,
  "\u0120advantage": 6907,
  "\u0120totally": 6908,
  "\u0120koh\u00c3\u00a4r": 6909,
  "\u0120pal\u00c3\u00a4stinensischen": 6910,
  "\u0120balkan": 6911,
  "bo": 6912,
  "\u0120sole": 6913,
  "\u0120europ\u00c3\u00a4isches": 6914,
  "\u0120rig": 6915,
  "\u0120fordert": 6916,
  "\u0120zuk\u00c3\u00bcnft": 6917,
  "ruh": 6918,
  "\u0120eingef\u00c3\u00bchrt": 6919,
  "\u0120judicial": 6920,
  "cn": 6921,
  "arch": 6922,
  "orea": 6923,
  "\u012090": 6924,
  "\u0120anbel": 6925,
  "\u0120l\u00c3\u00a4nger": 6926,
  "\u0120arz": 6927,
  "\u0120advoc": 6928,
  "\u0120au\u00c3\u0141erordentlich": 6929,
  "\u0120anbelangt": 6930,
  "\u0120betr\u00c3\u00a4cht": 6931,
  "\u0120sinnvoll": 6932,
  "mitgliedstaaten": 6933,
  "\u0120urs": 6934,
  "tert": 6935,
  "\u0120herkunft": 6936,
  "\u0120einig": 6937,
  "\u0120letzter": 6938,
  "\u0120idee": 6939,
  "\u0120starting": 6940,
  "\u0120bege": 6941,
  "ereign": 6942,
  "\u0120vorzu": 6943,
  "\u0120drittl\u00c3\u00a4ndern": 6944,
  "\u0120beur": 6945,
  "\u0120sorg": 6946,
  "\u0120proposing": 6947,
  "\u0120truly": 6948,
  "\u0120class": 6949,
  "\u0120centur": 6950,
  "ira": 6951,
  "\u0120seien": 6952,
  "\u0120unterschiedliche": 6953,
  "\u0120lower": 6954,
  "\u0120sources": 6955,
  "\u0120meant": 6956,
  "\u0120verst\u00c3\u00a4ndnis": 6957,
  "ofern": 6958,
  "\u0120hund": 6959,
  "\u0120designed": 6960,
  "\u0120insofern": 6961,
  "\u0120related": 6962,
  "reitung": 6963,
  "\u0120verantwortungs": 6964,
  "\u0120involvement": 6965,
  "\u0120tex": 6966,
  "\u0120bos": 6967,
  "\u0120recommendation": 6968,
  "tragen": 6969,
  "-,": 6970,
  "hle": 6971,
  "\u0120attra": 6972,
  "\u0120controls": 6973,
  "ever": 6974,
  "uerung": 6975,
  "\u0120anz": 6976,
  "\u0120geeign": 6977,
  "\u0120geograph": 6978,
  "\u0120happening": 6979,
  "\u0120ordnungs": 6980,
  "\u0120presence": 6981,
  "\u0120monate": 6982,
  "\u0120interesting": 6983,
  "\u0120speziell": 6984,
  "\u0120anforderungen": 6985,
  "estic": 6986,
  "\u0120oral": 6987,
  "\u0120obsta": 6988,
  "\u0120schwierigen": 6989,
  "\u0120roma": 6990,
  "\u0120independence": 6991,
  "orgt": 6992,
  "\u0120adequate": 6993,
  "\u0120obstac": 6994,
  "\u0120kil": 6995,
  "\u0120solange": 6996,
  "werk": 6997,
  "\u0120pursu": 6998,
  "\u0120st\u00c3\u00a4ndig": 6999,
  "\u0120bse": 7000,
  "\u0120conserv": 7001,
  "\u0120acts": 7002,
  "\u0120effektiv": 7003,
  "\u0120einstimm": 7004,
  "\u0120marit": 7005,
  "\u0120decla": 7006,
  "\u0120mechanisms": 7007,
  "ya": 7008,
  "\u0120treten": 7009,
  "\u0120vorgenommen": 7010,
  "\u0120nether": 7011,
  "\u0120exec": 7012,
  "\u0120bek\u00c3\u00a4mpfen": 7013,
  "\u0120grundlegenden": 7014,
  "nehmern": 7015,
  "\u0120genere": 7016,
  "\u0120followed": 7017,
  "\u0120verfahrens": 7018,
  "\u0120dienste": 7019,
  "\u0120netherlands": 7020,
  "\u0120harm": 7021,
  "\u0120punkten": 7022,
  "\u0120zivilgesellschaft": 7023,
  "\u0120balkans": 7024,
  "\u0120ereignisse": 7025,
  "\u0120describ": 7026,
  "nahm": 7027,
  "\u0120korre": 7028,
  "ugg": 7029,
  "\u012070": 7030,
  "\u0120rasch": 7031,
  "\u0120offiz": 7032,
  "\u0120vorbereitung": 7033,
  "\u0120gruppen": 7034,
  "\u0120paralle": 7035,
  "volle": 7036,
  "\u0120letztend": 7037,
  "\u0120closed": 7038,
  "\u0120destro": 7039,
  "ca": 7040,
  "\u0120vig": 7041,
  "ology": 7042,
  "\u0120beweis": 7043,
  "beauftrag": 7044,
  "neim": 7045,
  "\u0120ready": 7046,
  "\u0120rum\u00c3\u00a4nien": 7047,
  "\u0120thor": 7048,
  "\u0120annehmen": 7049,
  "\u0120spent": 7050,
  "\u0120explain": 7051,
  "\u0120kollegin": 7052,
  "\u00c3\u00bcter": 7053,
  "\u0120ausger": 7054,
  "\u0120families": 7055,
  "\u0120discharge": 7056,
  "\u0120solana": 7057,
  "\u0120erw\u00c3\u00a4hn": 7058,
  "\u0120setzt": 7059,
  "verhandlungen": 7060,
  "\u0120immediate": 7061,
  "\u0120beabsicht": 7062,
  "\u0120aufzunehmen": 7063,
  "\u0120payments": 7064,
  "\u0120please": 7065,
  "systeme": 7066,
  "\u0120einwander": 7067,
  "m\u00c3\u00b6glichkeiten": 7068,
  "\u0120sugar": 7069,
  "\u0120gewisse": 7070,
  "\u0120whate": 7071,
  "\u0120worr": 7072,
  "\u0120wichtigste": 7073,
  "\u0120whatever": 7074,
  "\u0120ol": 7075,
  "asbourg": 7076,
  "\u0120vorteile": 7077,
  "hood": 7078,
  "\u0120equally": 7079,
  "\u0120gedanken": 7080,
  "\u0120detailed": 7081,
  "initi": 7082,
  "\u0120tib": 7083,
  "\u0120vorgeschlagene": 7084,
  "\u0120covered": 7085,
  "\u0120sovereign": 7086,
  "\u0120entit": 7087,
  "zent": 7088,
  "\u0120nation": 7089,
  "\u0120kriminal": 7090,
  "\u0120best\u00c3\u00a4tigt": 7091,
  "\u00c3\u00bcssen": 7092,
  "leistung": 7093,
  "\u0120pr\u00c3\u00bcfung": 7094,
  "\u0120verz\u00c3\u00b6": 7095,
  "\u0120diseases": 7096,
  "orse": 7097,
  "\u0120mitgliedern": 7098,
  "\u0120begr\u00c3\u00bc\u00c3\u0141t": 7099,
  "\u0120moving": 7100,
  "\u0120hintergrund": 7101,
  "\u0120professional": 7102,
  "\u0120letztlich": 7103,
  "\u0120einverstanden": 7104,
  "\u0120ehemal": 7105,
  "\u0120barr": 7106,
  "\u0120illegalen": 7107,
  "uver": 7108,
  "\u0120gleichstellung": 7109,
  "\u0120bem\u00c3\u00bcht": 7110,
  "\u0120km": 7111,
  "stelle": 7112,
  "\u0120strasbourg": 7113,
  "\u0120schl\u00c3\u00bcssel": 7114,
  "\u00c3\u00a4umt": 7115,
  "\u0120unabh\u00c3\u00a4ngigkeit": 7116,
  "stoff": 7117,
  "\u0120georg": 7118,
  "\u0120internationaler": 7119,
  "\u0120grounds": 7120,
  "\u0120verlei": 7121,
  "neimittel": 7122,
  "\u0120endorse": 7123,
  "\u0120structures": 7124,
  "\u0120absolut": 7125,
  "\u0120anerkannt": 7126,
  "\u0120ausschlie\u00c3\u0141lich": 7127,
  "berecht": 7128,
  "\u0120ben\u00c3\u00b6tigen": 7129,
  "cal": 7130,
  "\u0120genutzt": 7131,
  "oul": 7132,
  "\u0120team": 7133,
  "bruch": 7134,
  "\u0120gr\u00c3\u00b6\u00c3\u0141eren": 7135,
  "\u0120betreffenden": 7136,
  "\u0120includes": 7137,
  "\u0120taus": 7138,
  "\u0120damals": 7139,
  "\u0120elim": 7140,
  "\u0120arrangements": 7141,
  "kret": 7142,
  "apt": 7143,
  "\u0120oktober": 7144,
  "\u0120schlimm": 7145,
  "\u0120trotzdem": 7146,
  "\u0120diesbez\u00c3\u00bcglich": 7147,
  "\u0120monopol": 7148,
  "comm": 7149,
  "\u0120derartige": 7150,
  "vi": 7151,
  "\u0120erm": 7152,
  "\u0120effizienz": 7153,
  "af": 7154,
  "\u0120quar": 7155,
  "\u0120perform": 7156,
  "\u0120gef\u00c3\u00b6rdert": 7157,
  "\u0120jeweiligen": 7158,
  "\u0120personally": 7159,
  "\u0120vorzulegen": 7160,
  "setzungen": 7161,
  "\u0120minority": 7162,
  "\u0120ras": 7163,
  "\u0120err": 7164,
  "\u0120politics": 7165,
  "\u0120compar": 7166,
  "\u0120politicians": 7167,
  "\u0120einbezogen": 7168,
  "\u0120unless": 7169,
  "\u0120assoz": 7170,
  "\u0120w\u00c3\u00a4hl": 7171,
  "\u0120anschlie\u00c3\u0141en": 7172,
  "\u0120komme": 7173,
  "\u0120wohlstand": 7174,
  "\u0120maritime": 7175,
  "\u0120expected": 7176,
  "\u0120cle": 7177,
  "\u0120\u00c3\u00bcbrigens": 7178,
  "\u0120rent": 7179,
  "ivity": 7180,
  "\u0120gestalten": 7181,
  "kla": 7182,
  "\u0120finance": 7183,
  "\u0120500": 7184,
  "\u0120generally": 7185,
  "\u0120lernen": 7186,
  "\u0120verst\u00c3\u00a4rkt": 7187,
  "waffen": 7188,
  "\u0120genannt": 7189,
  "sammlung": 7190,
  "wide": 7191,
  "\u0120ability": 7192,
  "\u0120continues": 7193,
  "\u0120redner": 7194,
  "\u0120employees": 7195,
  "\u0120sicherstellen": 7196,
  "\u0120kennen": 7197,
  "\u0120ausgezeichneten": 7198,
  "\u0120enjoy": 7199,
  "\u0120falsch": 7200,
  "\u0120umzusetzen": 7201,
  "\u0120vollkommen": 7202,
  "zwischen": 7203,
  "attet": 7204,
  "\u0120african": 7205,
  "\u0120franz\u00c3\u00b6sischen": 7206,
  "\u0120reagieren": 7207,
  "\u0120charakter": 7208,
  "mm": 7209,
  "\u0120feed": 7210,
  "\u0120inten": 7211,
  "\u0120gr\u00c3\u00bc": 7212,
  "\u0120series": 7213,
  "\u0120unterschiede": 7214,
  "\u0120attach": 7215,
  "eken": 7216,
  "\u0120massen": 7217,
  "\u012029": 7218,
  "\u0120recover": 7219,
  "\u0120reinfor": 7220,
  "cyc": 7221,
  "\u0120approval": 7222,
  "\u0120globalen": 7223,
  "\u0120causes": 7224,
  "\u0120reaktion": 7225,
  "\u0120barn": 7226,
  "\u0120erneuer": 7227,
  "altet": 7228,
  "\u0120suffering": 7229,
  "\u0120beiget": 7230,
  "\u0120temporary": 7231,
  "tering": 7232,
  "ruit": 7233,
  "\u0120reasonable": 7234,
  "\u0120gef\u00c3\u00a4hrd": 7235,
  "erkennen": 7236,
  "\u0120teilweise": 7237,
  "\u0120unfair": 7238,
  "erous": 7239,
  "\u0120mos": 7240,
  "\u0120vert": 7241,
  "uche": 7242,
  "\u0120letztendlich": 7243,
  "\u0120laeken": 7244,
  "\u0120motor": 7245,
  "\u0120destru": 7246,
  "\u0120gave": 7247,
  "zeuge": 7248,
  "\u0120erfordert": 7249,
  "\u0120improvements": 7250,
  "war": 7251,
  "eind": 7252,
  "\u0120appar": 7253,
  "\u0120f\u00c3\u00a4llt": 7254,
  "\u0120zuw": 7255,
  "\u0120indire": 7256,
  "\u0120freiwill": 7257,
  "199": 7258,
  "mann": 7259,
  "erves": 7260,
  "\u0120adapt": 7261,
  "\u0120serve": 7262,
  "\u0120politiker": 7263,
  "\u0120glad": 7264,
  "\u0120eingereicht": 7265,
  "\u0120july": 7266,
  "\u0120gemeinschaftlichen": 7267,
  "\u0120minorities": 7268,
  "\u0120evaluation": 7269,
  "\u0120erle": 7270,
  "\u0120vorge": 7271,
  "\u0120liberalen": 7272,
  "\u0120vorliegende": 7273,
  "\u0120compensation": 7274,
  "\u0120ed": 7275,
  "bry": 7276,
  "\u0120kulturellen": 7277,
  "reche": 7278,
  "\u0120floor": 7279,
  "sman": 7280,
  "arz": 7281,
  "\u0120streit": 7282,
  "verletz": 7283,
  "\u0120dopp": 7284,
  "\u0120m\u00c3\u00b6glichen": 7285,
  "handlung": 7286,
  "\u0120israeli": 7287,
  "\u0120assozi": 7288,
  "erma\u00c3\u0141en": 7289,
  "\u0120stake": 7290,
  "\u0120contributions": 7291,
  "\u0120verh\u00c3\u00a4ltnis": 7292,
  "\u0120stra\u00c3\u0141burg": 7293,
  "%.": 7294,
  "unruh": 7295,
  "\u0120beunruh": 7296,
  "\u0120soft": 7297,
  "\u0120compl": 7298,
  "\u0120frequ": 7299,
  "\u0120automat": 7300,
  "\u0120notwendige": 7301,
  "\u0120krisen": 7302,
  "\u0120saddam": 7303,
  "\u0120emphasis": 7304,
  "fuhr": 7305,
  "gers": 7306,
  "fare": 7307,
  "\u0120regierungschefs": 7308,
  "\u0120verlangen": 7309,
  "\u0120perspekt": 7310,
  "\u0120changed": 7311,
  "aden": 7312,
  "gipf": 7313,
  "\u0120income": 7314,
  "\u0120sil": 7315,
  "\u0120reich": 7316,
  "\u0120supplement": 7317,
  "\u0120limits": 7318,
  "\u0120tsch": 7319,
  "\u0120tiere": 7320,
  "\u0120...": 7321,
  "\u0120kontrollen": 7322,
  "\u0120pakistan": 7323,
  "gment": 7324,
  "f\u00c3\u00a4llen": 7325,
  "\u0120verurteilt": 7326,
  "osition": 7327,
  "\u0120umweltschutz": 7328,
  "\u0120exem": 7329,
  "\u0120geltenden": 7330,
  "\u0120intensiv": 7331,
  "\u0120geste": 7332,
  "\u0120einschr\u00c3\u00a4n": 7333,
  "\u0120thereby": 7334,
  "\u0120verbrechen": 7335,
  "\u0120ablehnung": 7336,
  "\u0120wiederholen": 7337,
  "\u0120occasion": 7338,
  "gelt": 7339,
  "nerst": 7340,
  "\u0120reiter": 7341,
  "\u0120unmittelbar": 7342,
  "hus": 7343,
  "\u0120entfern": 7344,
  "\u0120belong": 7345,
  "\u0120consistent": 7346,
  "\u0120permanent": 7347,
  "\u0120apart": 7348,
  "ehrten": 7349,
  "\u0120repeated": 7350,
  "\u0120details": 7351,
  "\u0120dikt": 7352,
  "haften": 7353,
  "\u0120gel\u00c3\u00b6st": 7354,
  "\u0120betreffend": 7355,
  "\u0120zucker": 7356,
  "\u0120eingehalten": 7357,
  "\u0120restrictions": 7358,
  "\u0120intell": 7359,
  "\u0120continent": 7360,
  "wachstum": 7361,
  "\u0120erg\u00c3\u00a4nz": 7362,
  "based": 7363,
  "\u0120sweden": 7364,
  "ware": 7365,
  "enkt": 7366,
  "schung": 7367,
  "\u0120erfahren": 7368,
  "\u0120mehreren": 7369,
  "\u0120decis": 7370,
  "\u0120t\u00c3\u00a4tig": 7371,
  "\u0120mechanism": 7372,
  "\u0120balt": 7373,
  "\u0120aufrech": 7374,
  "\u0120abgest": 7375,
  "\u0120spanischen": 7376,
  "\u0120popul": 7377,
  "\u0120ordnung": 7378,
  "\u0120k\u00c3\u00bcrzlich": 7379,
  "fle": 7380,
  "\u0120coast": 7381,
  "\u0120technische": 7382,
  "bit": 7383,
  "\u0120echte": 7384,
  "\u0120linked": 7385,
  "\u0120imag": 7386,
  "\u0120gewissen": 7387,
  "it\u00c3\u00a4re": 7388,
  "\u0120krankheiten": 7389,
  "ature": 7390,
  "\u0120lob": 7391,
  "\u0120konflik": 7392,
  "\u0120anwend": 7393,
  "\u0120gefahren": 7394,
  "\u0120registr": 7395,
  "\u0120proposes": 7396,
  "\u0120compliance": 7397,
  "\u00c3\u00a4lter": 7398,
  "\u0120untersuchung": 7399,
  "izin": 7400,
  "\u0120insist": 7401,
  "\u0120weiteres": 7402,
  "\u0120tasks": 7403,
  "\u0120via": 7404,
  "andal": 7405,
  "\u0120bezieht": 7406,
  "\u0120presse": 7407,
  "\u0120started": 7408,
  "\u0120kindern": 7409,
  "\u0120grundlegende": 7410,
  "\u0120credibility": 7411,
  "\u0120alt": 7412,
  "\u0120embry": 7413,
  "\u0120st\u00c3\u00a4d": 7414,
  "\u0120m\u00c3\u00a4rkte": 7415,
  "\u0120seines": 7416,
  "\u0120jahrh": 7417,
  "\u0120unterstreichen": 7418,
  "\u0120richten": 7419,
  "\u0120letter": 7420,
  "sprachen": 7421,
  "\u0120ge\u00c3\u00a4u\u00c3\u0141ert": 7422,
  "\u0120inzwischen": 7423,
  "\u0120m\u00c3\u00bcsste": 7424,
  "hebung": 7425,
  "\u0120forthcoming": 7426,
  "\u0120ergeben": 7427,
  "\u0120zugunsten": 7428,
  "\u0120lautet": 7429,
  "\u0120occasions": 7430,
  "nes": 7431,
  "\u0120dign": 7432,
  "\u0120\u00c3\u00bcbereinstimmung": 7433,
  "\u0120tut": 7434,
  "\u0120pie": 7435,
  "\u00c3\u00a4hlen": 7436,
  "ette": 7437,
  "\u0120demonstrated": 7438,
  "leun": 7439,
  "raf": 7440,
  "\u0120umweltfragen": 7441,
  "\u0120opinions": 7442,
  "sh": 7443,
  "teen": 7444,
  "\u0120factors": 7445,
  "\u0120continued": 7446,
  "spunkt": 7447,
  "\u0120arbeitslosigkeit": 7448,
  "\u0120brok": 7449,
  "\u0120verst\u00c3\u00a4rken": 7450,
  "\u0120universal": 7451,
  "schn": 7452,
  "lichung": 7453,
  "\u0120verschle": 7454,
  "\u0120normen": 7455,
  "\u0120verloren": 7456,
  "\u0120religious": 7457,
  "\u0120source": 7458,
  "\u0120statute": 7459,
  "modell": 7460,
  "\u0120erfolgt": 7461,
  "\u0120eastern": 7462,
  "\u0120austria": 7463,
  "\u0120suchen": 7464,
  "\u0120voice": 7465,
  "\u00c3\u00a4den": 7466,
  "\u0120freie": 7467,
  "\u0120beschleun": 7468,
  "\u012035": 7469,
  "\u0120tibet": 7470,
  "inational": 7471,
  "\u0120danach": 7472,
  "\u0120bezahl": 7473,
  "\u0120vereinbarungen": 7474,
  "\u0120radio": 7475,
  "\u0120diss": 7476,
  "\u0120abscha": 7477,
  "\u0120register": 7478,
  "\u0120parlamente": 7479,
  "\u0120achievement": 7480,
  "\u0120demonstrate": 7481,
  "\u0120incident": 7482,
  "zusammen": 7483,
  "\u0120ungleich": 7484,
  "\u0120beings": 7485,
  "\u0120rac": 7486,
  "\u0120risiken": 7487,
  "\u0120ernsthaft": 7488,
  "\u0120planning": 7489,
  "\u0120\u00c3\u00bcberlegungen": 7490,
  "\u0120consolid": 7491,
  "\u0120volunt": 7492,
  "\u0120benach": 7493,
  "\u0120bestandteil": 7494,
  "\u0120fach": 7495,
  "own": 7496,
  "inner": 7497,
  "\u0120sensible": 7498,
  "\u0120peaceful": 7499,
  "\u0120obligation": 7500,
  "set": 7501,
  "erzeug": 7502,
  "\u0120usw": 7503,
  "zwungen": 7504,
  "\u0120purposes": 7505,
  "\u0120tief": 7506,
  "\u0120juli": 7507,
  "gesellschaften": 7508,
  "\u0120amounts": 7509,
  "\u0120tabak": 7510,
  "cos": 7511,
  "\u0120rass": 7512,
  "f\u00c3\u00bchrten": 7513,
  "\u0120late": 7514,
  "abilit\u00c3\u00a4t": 7515,
  "cision": 7516,
  "certain": 7517,
  "see": 7518,
  "\u00c3\u00a4tzen": 7519,
  "\u0120gutes": 7520,
  "\u0120respected": 7521,
  "\u0120verhandlungs": 7522,
  "systems": 7523,
  "\u0120gradu": 7524,
  "\u0120schriftlich": 7525,
  "po": 7526,
  "\u0120ung": 7527,
  "\u0120negotiating": 7528,
  "sy": 7529,
  "ieb": 7530,
  "\u0120truth": 7531,
  "actory": 7532,
  "\u0120spielt": 7533,
  "\u0120ver\u00c3\u00b6ffent": 7534,
  "\u0120thre": 7535,
  "\u0120welchen": 7536,
  "\u0120wat": 7537,
  "\u0120\u00c3\u00bcberzeugen": 7538,
  "\u0120k\u00c3\u00bcnftige": 7539,
  "\u0120griechenland": 7540,
  "\u0120bulgaria": 7541,
  "\u0120parlamentarischen": 7542,
  "\u0120separate": 7543,
  "\u0120wit": 7544,
  "\u0120leid": 7545,
  "\u0120bestimmt": 7546,
  "urop\u00c3\u00a4ischen": 7547,
  "\u0120ge\u00c3\u00a4ndert": 7548,
  "inen": 7549,
  "\u0120spricht": 7550,
  "\u0120bedeuten": 7551,
  "\u0120worse": 7552,
  "bacco": 7553,
  "ound": 7554,
  "\u0120hence": 7555,
  "\u0120niger": 7556,
  "\u0120restru": 7557,
  "\u0120fighting": 7558,
  "uese": 7559,
  "\u0120berichterstatters": 7560,
  "vert": 7561,
  "operation": 7562,
  "\u0120interested": 7563,
  "\u0120path": 7564,
  "\u0120\u00c3\u00bcbergangs": 7565,
  "\u0120ermut": 7566,
  "\u0120vess": 7567,
  "\u0120tobacco": 7568,
  "undes": 7569,
  "\u00c3\u00a4tigkeit": 7570,
  "\u0120multinational": 7571,
  "\u0120jetzigen": 7572,
  "\u0120hy": 7573,
  "\u0120condition": 7574,
  "\u0120arzneimittel": 7575,
  "hib": 7576,
  "\u0120familie": 7577,
  "\u0120portuguese": 7578,
  "\u0120formen": 7579,
  "\u00c3\u00bcgigkeit": 7580,
  "reben": 7581,
  "\u0120hervorgehoben": 7582,
  "\u0120ausl": 7583,
  "\u0120maximum": 7584,
  "\u0120technologies": 7585,
  "atoren": 7586,
  "\u0120pensions": 7587,
  "\u0120impose": 7588,
  "\u0120serb": 7589,
  "asten": 7590,
  "steller": 7591,
  "\u0120trib": 7592,
  "\u0120197": 7593,
  "\u0120experts": 7594,
  "urd": 7595,
  "\u0120schlie\u00c3\u0141en": 7596,
  "hofs": 7597,
  "\u0120unverz\u00c3\u00bc": 7598,
  "ris": 7599,
  "\u0120jap": 7600,
  "\u0120richtigen": 7601,
  "\u0120wirklichkeit": 7602,
  "wegs": 7603,
  "politischen": 7604,
  "\u0120offenbar": 7605,
  "kommt": 7606,
  "orte": 7607,
  "\u0120hours": 7608,
  "\u0120zusammenarbeiten": 7609,
  "\u0120occur": 7610,
  "\u0120elemente": 7611,
  "\u0120aktionsplan": 7612,
  "\u0120versichern": 7613,
  "\u0120binding": 7614,
  "\u0120herzen": 7615,
  "\u01201997": 7616,
  "\u0120anmerk": 7617,
  "\u0120rechtfert": 7618,
  "\u00c3\u00bcp": 7619,
  "\u0120zer": 7620,
  "\u0120souver": 7621,
  "\u0120betrug": 7622,
  "brit": 7623,
  "edy": 7624,
  "\u0120space": 7625,
  "uell": 7626,
  "\u0120modell": 7627,
  "l\u00c3\u00a4gt": 7628,
  "\u0120remo": 7629,
  "\u0120realise": 7630,
  "\u0120numerous": 7631,
  "\u0120anlass": 7632,
  "\u0120niemals": 7633,
  "\u0120spending": 7634,
  "\u0120visit": 7635,
  "\u0120ultimately": 7636,
  "\u0120breit": 7637,
  "iode": 7638,
  "\u0120entscheidende": 7639,
  "attle": 7640,
  "\u0120participate": 7641,
  "\u0120malta": 7642,
  "\u0120attemp": 7643,
  "\u0120verbesserungen": 7644,
  "\u0120defined": 7645,
  "\u0120gerne": 7646,
  "\u0120widerspruch": 7647,
  "nel": 7648,
  "erte": 7649,
  "\u0120welfare": 7650,
  "\u0120folglich": 7651,
  "don": 7652,
  "\u0120\u00c3\u00a4rm": 7653,
  "este": 7654,
  "\u0120regulatory": 7655,
  "\u0120achten": 7656,
  "\u0120restruct": 7657,
  "finanz": 7658,
  "\u0120zur\u00c3\u00bcckge": 7659,
  "\u0120ging": 7660,
  "etho": 7661,
  "\u0120verf\u00c3\u00bcg": 7662,
  "sv": 7663,
  "\u0120capable": 7664,
  "\u0120friends": 7665,
  "\u0120n\u00c3\u00bctz": 7666,
  "\u0120mittelpunkt": 7667,
  "\u0120freiz\u00c3\u00bcgigkeit": 7668,
  "\u0120praktisch": 7669,
  "\u0120verheugen": 7670,
  "\u0120vermittlungs": 7671,
  "aid": 7672,
  "\u0120fro": 7673,
  "\u0120vorteil": 7674,
  "\u0120traditional": 7675,
  "\u0120rich": 7676,
  "\u0120examples": 7677,
  "\u0120defic": 7678,
  "\u0120sichern": 7679,
  "\u0120strik": 7680,
  "\u0120mitentscheid": 7681,
  "\u0120vorange": 7682,
  "\u0120amts": 7683,
  "ratic": 7684,
  "\u0120threaten": 7685,
  "\u0120h\u00c3\u00a4n": 7686,
  "technolog": 7687,
  "\u0120atom": 7688,
  "\u0120freude": 7689,
  "\u0120n\u00c3\u00a4chste": 7690,
  "\u0120konvents": 7691,
  "\u0120timet": 7692,
  "\u0120glaubw\u00c3\u00bcrdigkeit": 7693,
  "year": 7694,
  "\u0120az": 7695,
  "\u0120er\u00c3\u00b6ff": 7696,
  "imal": 7697,
  "\u0120ausnahme": 7698,
  "\u0120appropriations": 7699,
  "\u0120erzeugnisse": 7700,
  "pers": 7701,
  "\u0120gepr\u00c3\u00bc": 7702,
  "\u0120bef\u00c3\u00bcrworten": 7703,
  "\u0120disasters": 7704,
  "enswert": 7705,
  "\u0120gro\u00c3\u0141es": 7706,
  "\u0120parallel": 7707,
  "eff": 7708,
  "spiel": 7709,
  "\u0120m\u00c3\u00bcssten": 7710,
  "\u0120entitled": 7711,
  "\u0120justified": 7712,
  "\u0120assure": 7713,
  "\u0120einzigen": 7714,
  "\u0120trading": 7715,
  "\u0120gesetze": 7716,
  "\u0120remarks": 7717,
  "\u0120slo": 7718,
  "\u0120\u00c3\u00b6ffentlich": 7719,
  "\u0120heav": 7720,
  "\u0120scale": 7721,
  "lose": 7722,
  "ino": 7723,
  "\u0120verlieren": 7724,
  "going": 7725,
  "\u0120elektron": 7726,
  "\u0120thorough": 7727,
  "nl": 7728,
  "ingu": 7729,
  "\u0120fischer": 7730,
  "\u0120unn": 7731,
  "\u01202008": 7732,
  "\u0120t\u00c3\u00a4": 7733,
  "ints": 7734,
  "\u0120wide": 7735,
  "\u0120einrichtungen": 7736,
  "\u0120currency": 7737,
  "\u0120m\u00c3\u00a4nner": 7738,
  "\u0120japan": 7739,
  "britann": 7740,
  "dienste": 7741,
  "\u0120schweden": 7742,
  "\u0120spread": 7743,
  "\u0120arten": 7744,
  "\u0120latter": 7745,
  "\u0120gro\u00c3\u0141britann": 7746,
  "\u0120resolved": 7747,
  "\u0120angaben": 7748,
  "\u0120wenigen": 7749,
  "\u0120erwartungen": 7750,
  "\u0120langen": 7751,
  "\u0120warten": 7752,
  "\u0120encouraging": 7753,
  "\u0120informiert": 7754,
  "regeln": 7755,
  "\u0120au\u00c3\u0141enpolitik": 7756,
  "\u0120umfassenden": 7757,
  "umen": 7758,
  "\u0120ausreichen": 7759,
  "kl\u00c3\u00a4rung": 7760,
  "\u0120gesp": 7761,
  "\u0120conflicts": 7762,
  "\u0120bedauern": 7763,
  "\u0120umst\u00c3\u00a4nden": 7764,
  "\u0120beibe": 7765,
  "\u0120hands": 7766,
  "\u0120informieren": 7767,
  "\u0120wiss": 7768,
  "\u0120kenn": 7769,
  "\u0120citizen": 7770,
  "\u0120textil": 7771,
  "\u0120revolution": 7772,
  "\u0120erhebliche": 7773,
  "\u0120existence": 7774,
  "\u0120vorgesehenen": 7775,
  "\u0120kapit": 7776,
  "\u0120stol": 7777,
  "l\u00c3\u00a4sslich": 7778,
  "cent": 7779,
  "tes": 7780,
  "ara": 7781,
  "\u0120ngos": 7782,
  "\u0120easier": 7783,
  "\u0120sektoren": 7784,
  "\u0120bolkes": 7785,
  "\u0120mur": 7786,
  "\u00c3\u00b6hn": 7787,
  "\u0120tried": 7788,
  "gebiet": 7789,
  "\u0120ports": 7790,
  "\u0120break": 7791,
  "aust": 7792,
  "gebracht": 7793,
  "\u0120komplex": 7794,
  "enty": 7795,
  "\u0120allzu": 7796,
  "\u0120\u00c3\u00bcbernommen": 7797,
  "\u0120attend": 7798,
  "\u0120gebrauch": 7799,
  "\u0120gleichgewicht": 7800,
  "\u0120stattf": 7801,
  "\u0120religion": 7802,
  "\u0120sexual": 7803,
  "\u0120beam": 7804,
  "\u0120beteiligen": 7805,
  "\u0120verdient": 7806,
  "\u0120urspr\u00c3\u00bcnglichen": 7807,
  "\u00c3\u00bcnden": 7808,
  "\u0120zugest": 7809,
  "\u0120operations": 7810,
  "anda": 7811,
  "\u0120fourth": 7812,
  "\u0120auditors": 7813,
  "\u0120tackle": 7814,
  "ros": 7815,
  "rochen": 7816,
  "\u0120zuver": 7817,
  "\u0120praktiken": 7818,
  "wasser": 7819,
  "stehenden": 7820,
  "\u0120tamp": 7821,
  "\u0120pan": 7822,
  "\u0120submit": 7823,
  "\u0120angeh\u00c3\u00b6r": 7824,
  "\u0120galile": 7825,
  "\u0120verweisen": 7826,
  "\u0120marg": 7827,
  "\u0120insurance": 7828,
  "\u0120d\u00c3\u00bcrfte": 7829,
  "\u0120beziehen": 7830,
  "\u0120legitimate": 7831,
  "\u0120vice": 7832,
  "\u0120alter": 7833,
  "\u0120abstimmen": 7834,
  "\u0120mobility": 7835,
  "bas": 7836,
  "\u0120economies": 7837,
  "rimes": 7838,
  "\u0120visa": 7839,
  "\u0120dutch": 7840,
  "\u0120imposed": 7841,
  "areness": 7842,
  "sein": 7843,
  "\u0120einheitlichen": 7844,
  "\u0120r\u00c3\u00bc": 7845,
  "\u00c3\u00b6rper": 7846,
  "\u0120amerikanischen": 7847,
  "\u0120befindet": 7848,
  "\u0120verf\u00c3\u00bcgt": 7849,
  "\u0120millenn": 7850,
  "entwicklung": 7851,
  "\u0120likely": 7852,
  "\u0120placed": 7853,
  "\u0120wahrheit": 7854,
  "\u0120guaranteed": 7855,
  "kamp": 7856,
  "\u0120crimes": 7857,
  "metho": 7858,
  "\u0120berg": 7859,
  "\u0120federal": 7860,
  "\u0120\u00c3\u00bcbertragen": 7861,
  "\u0120millions": 7862,
  "\u0120ministerpr\u00c3\u00a4sident": 7863,
  "\u0120katastrophen": 7864,
  "\u0120echo": 7865,
  "\u0120s\u00c3\u00a4": 7866,
  "\u0120contained": 7867,
  "\u0120evening": 7868,
  "cas": 7869,
  "atively": 7870,
  "\u0120zeichen": 7871,
  "\u0120benef": 7872,
  "\u0120funktioniert": 7873,
  "ituation": 7874,
  "staats": 7875,
  "\u0120extended": 7876,
  "\u0120prinzipien": 7877,
  "\u0120awareness": 7878,
  "\u0120digital": 7879,
  "\u0120dignity": 7880,
  "inal": 7881,
  "\u0120pil": 7882,
  "geord": 7883,
  "\u0120festzulegen": 7884,
  "\u0120bewegen": 7885,
  "\u0120sele": 7886,
  "\u0120stoffe": 7887,
  "\u0120generell": 7888,
  "\u0120kmu": 7889,
  "netz": 7890,
  "\u0120[": 7891,
  "\u0120difference": 7892,
  "rel": 7893,
  "\u0120knows": 7894,
  "wirkung": 7895,
  "\u0120dankbar": 7896,
  "\u0120auffordern": 7897,
  "icherung": 7898,
  "ark": 7899,
  "\u0120nachzu": 7900,
  "\u0120treated": 7901,
  "\u0120innovative": 7902,
  "\u0120dritte": 7903,
  "\u0120alliance": 7904,
  "\u0120manage": 7905,
  "\u0120organe": 7906,
  "ding": 7907,
  "tung": 7908,
  "\u0120soeben": 7909,
  "steht": 7910,
  "\u0120bound": 7911,
  "\u0120requirement": 7912,
  "\u0120souver\u00c3\u00a4n": 7913,
  "\u0120gepr\u00c3\u00bcft": 7914,
  "wing": 7915,
  "entions": 7916,
  "\u0120anwesend": 7917,
  "utr": 7918,
  "\u0120friend": 7919,
  "latz": 7920,
  "\u0120erheblich": 7921,
  "\u0120gespr\u00c3\u00a4che": 7922,
  "\u0120huss": 7923,
  "\u0120subsequ": 7924,
  "selben": 7925,
  "\u0120substance": 7926,
  "kontrolle": 7927,
  "bu": 7928,
  "\u0120auftrag": 7929,
  "\u0120\u00c3\u00bcb": 7930,
  "spartei": 7931,
  "etschen": 7932,
  "verage": 7933,
  "\u0120aust": 7934,
  "atell": 7935,
  "\u0120wenige": 7936,
  "\u0120portugies": 7937,
  "2013": 7938,
  "hann": 7939,
  "\u0120omb": 7940,
  "\u0120lic": 7941,
  "\u0120freund": 7942,
  "\u0120produz": 7943,
  "\u0120sudan": 7944,
  "\u0120writing": 7945,
  "\u0120ombud": 7946,
  "\u0120mitge": 7947,
  "\u0120wann": 7948,
  "\u0120n\u00c3\u00b6t": 7949,
  "uchen": 7950,
  "onia": 7951,
  "barer": 7952,
  "\u0120einzelstaat": 7953,
  "\u0120taxation": 7954,
  "\u0120individuals": 7955,
  "\u0120television": 7956,
  "\u0120bolkestein": 7957,
  "\u0120galileo": 7958,
  "kom": 7959,
  "\u0120got": 7960,
  "lying": 7961,
  "\u0120gericht": 7962,
  "\u0120played": 7963,
  "\u0120lokalen": 7964,
  "\u0120sozialdemokrat": 7965,
  "\u0120century": 7966,
  "\u0120lose": 7967,
  "\u0120spring": 7968,
  "\u0120manch": 7969,
  "\u0120kommunikation": 7970,
  "\u0120tenden": 7971,
  "iten": 7972,
  "\u0120mold": 7973,
  "orate": 7974,
  "worfen": 7975,
  "ather": 7976,
  "\u0120plural": 7977,
  "\u0120mindestens": 7978,
  "\u0120katastrophe": 7979,
  "verein": 7980,
  "\u0120sev": 7981,
  "\u0120johann": 7982,
  "\u0120irre": 7983,
  "\u0120surely": 7984,
  "\u0120stocks": 7985,
  "\u0120impression": 7986,
  "\u0120prosperity": 7987,
  "\u0120prosec": 7988,
  "\u0120monat": 7989,
  "\u0120kriminalit\u00c3\u00a4t": 7990,
  "\u0120gaz": 7991,
  "opho": 7992,
  "\u0120tschetschen": 7993,
  "\u0120zusammenhalt": 7994,
  "\u0120debt": 7995,
  "\u0120passed": 7996,
  "\u0120regionale": 7997,
  "\u0120engag": 7998,
  "\u0120anfragen": 7999,
  "\u0120\u00c3\u00bcberall": 8000,
  "bew": 8001,
  "\u0120immun": 8002,
  "\u0120destruction": 8003,
  "\u0120base": 8004,
  "\u0120gehalten": 8005,
  "\u0120bosn": 8006,
  "inely": 8007,
  "\u0120medizin": 8008,
  "icherungs": 8009,
  "\u0120phys": 8010,
  "\u0120k\u00c3\u00bcsten": 8011,
  "mutzung": 8012,
  "cod": 8013,
  "\u0120adjust": 8014,
  "\u0120presidents": 8015,
  "ventionen": 8016,
  "\u0120noted": 8017,
  "\u0120schl\u00c3\u00a4gt": 8018,
  "\u0120spreche": 8019,
  "abelling": 8020,
  "\u0120facilitate": 8021,
  "\u0120react": 8022,
  "\u0120gezogen": 8023,
  "\u0120versch\u00c3\u00a4r": 8024,
  "\u0120au\u00c3\u0141enminister": 8025,
  "uren": 8026,
  "\u0120debatten": 8027,
  "\u0120operate": 8028,
  "uber": 8029,
  "\u0120rechten": 8030,
  "\u0120welch": 8031,
  "\u0120schlecht": 8032,
  "\u0120beeintr\u00c3\u00a4cht": 8033,
  "\u0120coup": 8034,
  "\u0120wachsen": 8035,
  "\u0120enab": 8036,
  "\u0120farming": 8037,
  "\u0120officials": 8038,
  "\u0120domestic": 8039,
  "zb": 8040,
  "\u0120propert": 8041,
  "\u0120platz": 8042,
  "\u0120precise": 8043,
  "\u0120emergency": 8044,
  "\u0120complic": 8045,
  "\u0120tampere": 8046,
  "\u0120session": 8047,
  "\u0120rational": 8048,
  "\u0120befasst": 8049,
  "\u0120wissens": 8050,
  "\u0120flag": 8051,
  "uting": 8052,
  "\u0120meaning": 8053,
  "action": 8054,
  "\u0120abkommens": 8055,
  "\u0120protected": 8056,
  "\u0120vorred": 8057,
  "\u0120clause": 8058,
  "\u0120unzure": 8059,
  "\u0120pure": 8060,
  "\u0120interv": 8061,
  "\u0120allowing": 8062,
  "\u0120renewable": 8063,
  "\u0120vehicles": 8064,
  "haushalt": 8065,
  "mechan": 8066,
  "\u0120vieler": 8067,
  "\u0120involves": 8068,
  "\u0120helping": 8069,
  "\u0120hussein": 8070,
  "\u0120mart": 8071,
  "\u0120bislang": 8072,
  "\u0120technologien": 8073,
  "\u0120erfahrung": 8074,
  "oon": 8075,
  "\u0120zone": 8076,
  "\u0120gegenstand": 8077,
  "\u0120india": 8078,
  "\u0120laut": 8079,
  "\u0120lebensmittelsicherheit": 8080,
  "\u0120codecision": 8081,
  "\u0120sla": 8082,
  "\u0120angek": 8083,
  "\u0120entscheidend": 8084,
  "\u0120inflation": 8085,
  "\u0120examine": 8086,
  "\u0120sorgf\u00c3\u00a4lt": 8087,
  "\u0120written": 8088,
  "\u0120merk": 8089,
  "\u0120ausgesetzt": 8090,
  "\u0120besch\u00c3\u00a4ftigen": 8091,
  "\u0120britische": 8092,
  "\u0120drawing": 8093,
  "\u0120anzahl": 8094,
  "ystem": 8095,
  "\u0120described": 8096,
  "richen": 8097,
  "essions": 8098,
  "\u0120handlungs": 8099,
  "\u0120bildungs": 8100,
  "\u0120arbeitspl\u00c3\u00a4tzen": 8101,
  "bre": 8102,
  "\u0120auftreten": 8103,
  "otten": 8104,
  "\u0120gerichtet": 8105,
  "\u0120kept": 8106,
  "struction": 8107,
  "\u0120implic": 8108,
  "\u0120consumption": 8109,
  "\u00c3\u00a4umen": 8110,
  "\u0120wand": 8111,
  "\u00c3\u00a4lfte": 8112,
  "verfol": 8113,
  "vollen": 8114,
  "\u0120briefly": 8115,
  "\u0120johannes": 8116,
  "\u0120exists": 8117,
  "\u0120f\u00c3\u00b6rder": 8118,
  "\u0120infring": 8119,
  "\u0120solches": 8120,
  "ood": 8121,
  "\u0120bulgarien": 8122,
  "strafe": 8123,
  "\u0120dialogs": 8124,
  "hm": 8125,
  "\u0120verord": 8126,
  "ograf": 8127,
  "\u0120voluntary": 8128,
  "laub": 8129,
  "\u0120finanziert": 8130,
  "mittelt": 8131,
  "\u0120haupts": 8132,
  "wan": 8133,
  "\u0120angest": 8134,
  "\u0120concluded": 8135,
  "\u0120termin": 8136,
  "\u0120schwerpunkt": 8137,
  "\u0120vorgelegten": 8138,
  "serv": 8139,
  "\u0120genuinely": 8140,
  "\u0120rechtsstaatlichkeit": 8141,
  "\u0120elimin": 8142,
  "ilen": 8143,
  "ischem": 8144,
  "\u0120bestimmter": 8145,
  "\u0120eco": 8146,
  "\u0120clarify": 8147,
  "partner": 8148,
  "\u0120erkennt": 8149,
  "\u0120verfassungsvertrag": 8150,
  "\u0120jenen": 8151,
  "\u0120m\u00c3\u00a4nnern": 8152,
  "\u0120verleihen": 8153,
  "\u0120poss": 8154,
  "\u0120believes": 8155,
  "\u0120folgende": 8156,
  "\u0120erinnert": 8157,
  "\u0120terr": 8158,
  "angeh\u00c3\u00b6r": 8159,
  "\u0120menschlichen": 8160,
  "mus": 8161,
  "\u0120erscheint": 8162,
  "\u0120waters": 8163,
  "21": 8164,
  "llar": 8165,
  "ranken": 8166,
  "\u0120wollten": 8167,
  "\u0120zusatz": 8168,
  "\u0120deutschen": 8169,
  "\u0120historic": 8170,
  "\u0120schreiben": 8171,
  "auen": 8172,
  "\u0120witness": 8173,
  "\u0120nro": 8174,
  "\u0120considering": 8175,
  "neter": 8176,
  "\u0120check": 8177,
  "regelung": 8178,
  "\u0120virt": 8179,
  "\u0120fu\u00c3\u0141": 8180,
  "\u0120erarbeitung": 8181,
  "\u0120arbeitsplatz": 8182,
  "what": 8183,
  "\u0120wod": 8184,
  "adow": 8185,
  "\u0120london": 8186,
  "\u0120seven": 8187,
  "\u0120incent": 8188,
  "\u0120geboten": 8189,
  "\u0120gefangen": 8190,
  "attung": 8191,
  "\u0120luxembourg": 8192,
  "\u0120gl": 8193,
  "\u0120reprodu": 8194,
  "\u0120contradict": 8195,
  "krieg": 8196,
  "\u0120insp": 8197,
  "\u0120unl": 8198,
  "\u0120n\u00c3\u00a4chst": 8199,
  "\u0120doss": 8200,
  "\u0120ausgang": 8201,
  "\u0120schien": 8202,
  "\u0120welcher": 8203,
  "\u0120\u00c3\u00b6ffnung": 8204,
  "\u0120operators": 8205,
  "\u0120staatlichen": 8206,
  "\u0120verteidigen": 8207,
  "\u0120scheme": 8208,
  "\u0120koh\u00c3\u00a4sion": 8209,
  "ras": 8210,
  "rats": 8211,
  "05": 8212,
  "\u0120gang": 8213,
  "\u0120genannte": 8214,
  "\u0120room": 8215,
  "\u0120somewhat": 8216,
  "\u0120zur\u00c3\u00bcckzu": 8217,
  "berichterstatter": 8218,
  "\u0120happens": 8219,
  "\u0120welcomed": 8220,
  "\u00c3\u00bcnde": 8221,
  "\u0120flow": 8222,
  "\u0120institutionellen": 8223,
  "\u0120beigetragen": 8224,
  "\u0120ungere": 8225,
  "\u0120sp\u00c3\u00a4t": 8226,
  "ikations": 8227,
  "ointed": 8228,
  "union": 8229,
  "\u0120bereitschaft": 8230,
  "\u0120industries": 8231,
  "\u0120expectations": 8232,
  "\u0120benachteil": 8233,
  "orn": 8234,
  "iling": 8235,
  "\u0120decisive": 8236,
  "avour": 8237,
  "feld": 8238,
  "\u0120fif": 8239,
  "\u0120transl": 8240,
  "\u0120missbrauch": 8241,
  "\u0120wirtschaftswachstum": 8242,
  "\u0120wonach": 8243,
  "\u0120unzureich": 8244,
  "\u0120statut": 8245,
  "\u0120l\u00c3\u00a4ndliche": 8246,
  "\u0120distribution": 8247,
  "\u0120quotas": 8248,
  "\u0120starke": 8249,
  "\u0120fishermen": 8250,
  "fassung": 8251,
  "\u0120thanking": 8252,
  "\u0120trifft": 8253,
  "\u0120sau": 8254,
  "\u0120bundes": 8255,
  "tete": 8256,
  "\u0120mitte": 8257,
  "lined": 8258,
  "\u0120afford": 8259,
  "\u0120qualifiz": 8260,
  "mitglieder": 8261,
  "\u0120unif": 8262,
  "amb": 8263,
  "\u0120latest": 8264,
  "\u0120produktions": 8265,
  "\u0120intends": 8266,
  "sych": 8267,
  "\u0120sieben": 8268,
  "\u0120entry": 8269,
  "\u0120imports": 8270,
  "\u0120preventing": 8271,
  "beziehungen": 8272,
  "\u0120spoke": 8273,
  "ses": 8274,
  "\u0120verringerung": 8275,
  "\u0120irgendein": 8276,
  "\u0120undo": 8277,
  "\u0120prohib": 8278,
  "\u0120solve": 8279,
  "\u0120requested": 8280,
  "\u0120gegebenen": 8281,
  "\u0120spoken": 8282,
  "icted": 8283,
  "verfahrens": 8284,
  "\u0120absen": 8285,
  "\u0120durchzuf\u00c3\u00bchren": 8286,
  "str\u00c3\u00b6m": 8287,
  "\u0120intelle": 8288,
  "\u0120k\u00c3\u00a4mpfen": 8289,
  "\u0120gone": 8290,
  "\u0120erika": 8291,
  "ipul": 8292,
  "\u0120plant": 8293,
  "bald": 8294,
  "m\u00c3\u00a4rkte": 8295,
  "zwe": 8296,
  "\u0120politically": 8297,
  "\u0120entscheidender": 8298,
  "\u0120planned": 8299,
  "yer": 8300,
  "\u0120bann": 8301,
  "\u0120indien": 8302,
  "\u0120effectiveness": 8303,
  "\u0120offenen": 8304,
  "\u0120core": 8305,
  "\u0120berufs": 8306,
  "\u0120acknowled": 8307,
  "\u0120zwangs": 8308,
  "\u0120operational": 8309,
  "\u0120exports": 8310,
  "\u0120best\u00c3\u00a4tigen": 8311,
  "\u0120ausgezeichnete": 8312,
  "\u0120l\u00c3\u00a4": 8313,
  "\u012037": 8314,
  "\u0120version": 8315,
  "\u0120verlangt": 8316,
  "\u0120preparing": 8317,
  "\u0120gro\u00c3\u0141britannien": 8318,
  "\u0120hiv": 8319,
  "immungs": 8320,
  "\u0120gegensatz": 8321,
  "\u0120fischler": 8322,
  "\u0120derzeitige": 8323,
  "\u0120os": 8324,
  "\u0120host": 8325,
  "sibly": 8326,
  "\u0120b\u00c3\u00bcrgerbeauftrag": 8327,
  "\u0120electric": 8328,
  "\u0120wirksame": 8329,
  "\u0120\u00c3\u00a4lter": 8330,
  "\u0120ep": 8331,
  "\u0120psych": 8332,
  "\u0120heutige": 8333,
  "\u0120cooperate": 8334,
  "gl": 8335,
  "\u0120gewinnen": 8336,
  "\u0120arguments": 8337,
  "\u0120austrian": 8338,
  "\u0120double": 8339,
  "\u0120begonnen": 8340,
  "vorschl\u00c3\u00a4ge": 8341,
  "\u0120stehenden": 8342,
  "\u0120perfectly": 8343,
  "wers": 8344,
  "\u0120zim": 8345,
  "using": 8346,
  "bene": 8347,
  "igend": 8348,
  "\u0120symp": 8349,
  "\u0120keeping": 8350,
  "\u0120southern": 8351,
  "\u0120t\u00c3\u00bcrkischen": 8352,
  "\u0120gesicht": 8353,
  "agn": 8354,
  "\u0120property": 8355,
  "\u0120h\u00c3\u00a4lfte": 8356,
  "\u0120niveau": 8357,
  "\u0120asia": 8358,
  "\u0120\u00c3\u00bcberaus": 8359,
  "\u0120studies": 8360,
  "\u0120accidents": 8361,
  "\u0120jemand": 8362,
  "\u0120anh\u00c3\u00b6r": 8363,
  "\u0120verank": 8364,
  "leichheit": 8365,
  "\u0120smes": 8366,
  "\u0120verbraucherschutz": 8367,
  "antr\u00c3\u00a4ge": 8368,
  "\u0120follows": 8369,
  "standards": 8370,
  "\u0120defiz": 8371,
  "\u0120mobilit\u00c3\u00a4t": 8372,
  "h\u00c3\u00a4ngen": 8373,
  "\u0120zust\u00c3\u00a4ndig": 8374,
  "\u0120schiffe": 8375,
  "\u0120types": 8376,
  "\u0120zoll": 8377,
  "\u0120rund": 8378,
  "\u0120compared": 8379,
  "\u0120niedrig": 8380,
  "\u0120destroy": 8381,
  "\u0120anne": 8382,
  "\u0120einzig": 8383,
  "aff": 8384,
  "pak": 8385,
  "\u0120jedenfalls": 8386,
  "\u0120j\u00c3\u00a4hrlich": 8387,
  "grenzung": 8388,
  "initiative": 8389,
  "aler": 8390,
  "\u0120vul": 8391,
  "\u0120abgesehen": 8392,
  "\u0120sav": 8393,
  "\u0120angemessene": 8394,
  "\u0120chinese": 8395,
  "emin": 8396,
  "\u0120violations": 8397,
  "\u0120kontinent": 8398,
  "cul": 8399,
  "\u0120sofern": 8400,
  "wirkt": 8401,
  "\u0120arrest": 8402,
  "\u0120recyc": 8403,
  "\u0120prove": 8404,
  "greif": 8405,
  "\u0120ren": 8406,
  "\u0120allocated": 8407,
  "\u0120chanc": 8408,
  "\u0120unverz\u00c3\u00bcglich": 8409,
  "abstimmung": 8410,
  "ratt": 8411,
  "\u0120exclus": 8412,
  "\u0120mangel": 8413,
  "\u0120chanceng": 8414,
  "\u0120konfront": 8415,
  "\u0120gew\u00c3\u00a4hl": 8416,
  "\u0120definit": 8417,
  "tion": 8418,
  "\u0120herrscht": 8419,
  "\u0120processes": 8420,
  "\u0120wissenschaftlichen": 8421,
  "\u0120italienischen": 8422,
  "\u0120umfassend": 8423,
  "\u0120grav": 8424,
  "\u0120published": 8425,
  "lit": 8426,
  "\u0120mcc": 8427,
  "\u0120inade": 8428,
  "\u0120eingebracht": 8429,
  "\u0120premier": 8430,
  "\u0120abziel": 8431,
  "\u0120grunds\u00c3\u00a4tzlich": 8432,
  "usel": 8433,
  "\u0120fehlen": 8434,
  "feil": 8435,
  "\u0120average": 8436,
  "ley": 8437,
  "\u0120debating": 8438,
  "\u0120ambition": 8439,
  "\u0120massive": 8440,
  "\u0120abschaffung": 8441,
  "\u0120chancengleichheit": 8442,
  "\u0120lit": 8443,
  "\u0120stren": 8444,
  "\u0120wirtschaftspolitik": 8445,
  "\u0120facts": 8446,
  "\u0120ablehnen": 8447,
  "gemeinschaft": 8448,
  "\u0120aviation": 8449,
  "\u0120disag": 8450,
  "\u0120vorschlagen": 8451,
  "wortet": 8452,
  "\u0120inclusion": 8453,
  "\u0120folgenden": 8454,
  "\u0120applying": 8455,
  "\u0120obstacles": 8456,
  "afr": 8457,
  "\u0120300": 8458,
  "bereiche": 8459,
  "\u0120strukturen": 8460,
  "\u0120mio": 8461,
  "\u0120driving": 8462,
  "\u0120ordnungsgem\u00c3\u00a4\u00c3\u0141": 8463,
  "1999": 8464,
  "\u0120b\u00c3\u00b6": 8465,
  "rad": 8466,
  "oph": 8467,
  "\u0120beschr\u00c3\u00a4nken": 8468,
  ")).": 8469,
  "\u0120places": 8470,
  "\u0120verstanden": 8471,
  "gust": 8472,
  "kund": 8473,
  "rep": 8474,
  "\u0120gelegt": 8475,
  "\u00c3\u00a4nge": 8476,
  "\u0120erwartet": 8477,
  "\u0120labelling": 8478,
  "\u0120relativ": 8479,
  "\u0120drast": 8480,
  "\u0120regrett": 8481,
  "\u0120undoub": 8482,
  "uable": 8483,
  "\u0120fruit": 8484,
  "\u0120kategor": 8485,
  "\u0120errichtung": 8486,
  "\u0120ansichten": 8487,
  "\u0120primarily": 8488,
  "ala": 8489,
  "\u0120sobald": 8490,
  "ouse": 8491,
  "\u0120represented": 8492,
  "teten": 8493,
  "sph": 8494,
  "\u0120kommissionsvorschlag": 8495,
  "wahlen": 8496,
  "\u0120pillar": 8497,
  "\u0120russischen": 8498,
  "\u0120unternehmens": 8499,
  "\u0120announced": 8500,
  "\u0120jungen": 8501,
  "\u0120exter": 8502,
  "\u0120beispiele": 8503,
  "\u0120befugnisse": 8504,
  "greifen": 8505,
  "\u0120wachstums": 8506,
  "\u0120tort": 8507,
  "\u0120taten": 8508,
  "\u0120arme": 8509,
  "\u0120bewahr": 8510,
  "\u0120luxemburg": 8511,
  "\u0120constantly": 8512,
  "\u0120aband": 8513,
  "\u0120approve": 8514,
  "\u0120equip": 8515,
  "qualit\u00c3\u00a4t": 8516,
  "\u0120blair": 8517,
  "\u0120uncertain": 8518,
  "\u0120umstruktur": 8519,
  "\u0120staates": 8520,
  "\u0120proceedings": 8521,
  "\u0120firmly": 8522,
  "\u0120kopenhagen": 8523,
  "\u0120hilf": 8524,
  "\u0120airport": 8525,
  "\u0120leistungen": 8526,
  "\u0120restructuring": 8527,
  "\u0120timetable": 8528,
  "\u0120fine": 8529,
  "\u0120medicines": 8530,
  "\u0120manchmal": 8531,
  "\u0120sympath": 8532,
  "\u0120honest": 8533,
  "\u0120fehlt": 8534,
  "\u0120maintaining": 8535,
  "ronic": 8536,
  "\u0120copenhagen": 8537,
  "\u0120entlastung": 8538,
  "\u0120gd": 8539,
  "\u0120chines": 8540,
  "ifications": 8541,
  "\u0120learning": 8542,
  "\u0120anpassung": 8543,
  "\u0120clean": 8544,
  "orient": 8545,
  "\u0120daily": 8546,
  "\u0120poet": 8547,
  "\u0120highest": 8548,
  "\u0120leadership": 8549,
  "schw": 8550,
  "\u0120gleichwohl": 8551,
  "\u0120leader": 8552,
  "\u0120extension": 8553,
  "\u0120customs": 8554,
  "\u0120erwer": 8555,
  "achsen": 8556,
  "\u0120besch\u00c3\u00a4ftigt": 8557,
  "\u0120accordingly": 8558,
  "\u0120verhindert": 8559,
  "yn": 8560,
  "aries": 8561,
  "\u0120steuern": 8562,
  "\u00c3\u00a4rkt": 8563,
  "\u0120collective": 8564,
  "ka": 8565,
  "\u0120x": 8566,
  "\u0120scheit": 8567,
  "lav": 8568,
  "christian": 8569,
  "\u0120turning": 8570,
  "\u0120confirmed": 8571,
  "\u0120bran": 8572,
  "oler": 8573,
  "\u0120alger": 8574,
  "grenze": 8575,
  "\u0120reconstruction": 8576,
  "\u0120acknowledge": 8577,
  "\u0120wiederaufbau": 8578,
  "macht": 8579,
  "assungen": 8580,
  "akzept": 8581,
  "\u0120humanit\u00c3\u00a4re": 8582,
  "\u0120investments": 8583,
  "\u0120speziellen": 8584,
  "\u0120anb": 8585,
  "\u0120permit": 8586,
  "\u0120illegale": 8587,
  "\u0120biolog": 8588,
  "n\u00c3\u00bcp": 8589,
  "\u0120phen": 8590,
  "tzeit": 8591,
  "\u0120ratifizierung": 8592,
  "\u0120cast": 8593,
  "\u0120verh": 8594,
  "\u0120marktes": 8595,
  "\u0120verurteilen": 8596,
  "\u0120black": 8597,
  "ws": 8598,
  "\u0120ausw\u00c3\u00a4rt": 8599,
  "\u0120tage": 8600,
  "\u0120pursue": 8601,
  "%,": 8602,
  "\u0120determined": 8603,
  "\u0120ther": 8604,
  "ishing": 8605,
  "\u0120suspend": 8606,
  "\u0120ungar": 8607,
  "\u0120distin": 8608,
  "\u0120undertaken": 8609,
  "pflicht": 8610,
  "\u0120kan": 8611,
  "\u0120prepare": 8612,
  "\u0120alarm": 8613,
  "\u0120eingeleitet": 8614,
  "\u0120krie": 8615,
  "\u0120define": 8616,
  "\u0120kurzem": 8617,
  "\u0120beruht": 8618,
  "\u0120polizei": 8619,
  "\u0120schreck": 8620,
  "\u0120appreciate": 8621,
  "\u0120excessive": 8622,
  "\u0120vulner": 8623,
  "\u0120phenomen": 8624,
  "\u0120los": 8625,
  "\u0120binnenmarktes": 8626,
  "\u0120einzusetzen": 8627,
  "\u0120methode": 8628,
  "\u0120keineswegs": 8629,
  "\u0120hels": 8630,
  "\u0120gew\u00c3\u00a4hlt": 8631,
  "\u0120johannesburg": 8632,
  "\u0120dispos": 8633,
  "\u0120gipfelt": 8634,
  "\u0120angebracht": 8635,
  "\u0120horiz": 8636,
  "\u0120beh\u00c3\u00b6rde": 8637,
  "icip": 8638,
  "\u0120conventions": 8639,
  "\u0120arbeitnehmern": 8640,
  "\u0120entweder": 8641,
  "ziele": 8642,
  "region": 8643,
  "\u0120fields": 8644,
  "\u0120tragic": 8645,
  "\u0120bedrohung": 8646,
  "\u0120bedanken": 8647,
  "\u0120urgency": 8648,
  "\u0120duties": 8649,
  "ski": 8650,
  "\u0120corruption": 8651,
  "\u0120answers": 8652,
  "\u0120h\u00c3\u00a4fen": 8653,
  "\u0120ethnic": 8654,
  "ique": 8655,
  "ktions": 8656,
  "\u0120demokraten": 8657,
  "\u0120beraten": 8658,
  "\u0120irischen": 8659,
  "\u0120primary": 8660,
  "\u0120remark": 8661,
  "\u0120herkunfts": 8662,
  "alien": 8663,
  "rot": 8664,
  "\u0120reichen": 8665,
  "acio": 8666,
  "\u0120breach": 8667,
  "\u0120vessels": 8668,
  "thand": 8669,
  "\u0120corresp": 8670,
  "\u0120reaction": 8671,
  "\u0120gr\u00c3\u00bcnen": 8672,
  "\u0120stolz": 8673,
  "rattini": 8674,
  "\u0120straft": 8675,
  "\u0120guter": 8676,
  "\u0120mittleren": 8677,
  "\u0120gezwungen": 8678,
  "\u0120wiederum": 8679,
  "\u0120ongoing": 8680,
  "behandlung": 8681,
  "\u0120rechtlichen": 8682,
  "\u0120qualit": 8683,
  "\u0120privaten": 8684,
  "\u0120links": 8685,
  "\u0120konsequenzen": 8686,
  "\u0120kr\u00c3\u00a4fte": 8687,
  "\u0120fl\u00c3\u00bcchtlinge": 8688,
  "uung": 8689,
  "ierend": 8690,
  "\u0120reserve": 8691,
  "\u0120minute": 8692,
  "\u0120wirtschaftlich": 8693,
  "\u0120verlassen": 8694,
  "\u0120einheitliche": 8695,
  "\u0120interinstitutional": 8696,
  "\u0120verwirklichung": 8697,
  "\u0120chann": 8698,
  "betr": 8699,
  "\u0120neighbours": 8700,
  "\u0120wiederholt": 8701,
  "viour": 8702,
  "\u0120accomp": 8703,
  "\u0120wiederher": 8704,
  "\u0120f\u00c3\u00bchrung": 8705,
  "\u0120absurd": 8706,
  "kohol": 8707,
  "\u0120undoubtedly": 8708,
  "uens": 8709,
  "reb": 8710,
  "ivit\u00c3\u00a4t": 8711,
  "fried": 8712,
  "\u0120kooper": 8713,
  "lichkeiten": 8714,
  "\u0120associated": 8715,
  "\u0120meeres": 8716,
  "econom": 8717,
  "\u0120news": 8718,
  "\u0120brings": 8719,
  "\u0120verschw": 8720,
  "\u0120vize": 8721,
  "\u0120functioning": 8722,
  "\u0120hamas": 8723,
  "\u0120prest": 8724,
  "\u0120ausgleich": 8725,
  "\u0120exclusion": 8726,
  "\u0120donnerst": 8727,
  "\u0120secretary": 8728,
  "\u0120electricity": 8729,
  "\u0120overcome": 8730,
  "\u0120finding": 8731,
  "\u0120payment": 8732,
  "ete": 8733,
  "\u0120buch": 8734,
  "\u01201996": 8735,
  "\u0120volkes": 8736,
  "\u0120february": 8737,
  "\u0120touch": 8738,
  "\u0120zulassen": 8739,
  "\u0120vors": 8740,
[...]
