e n
e r
Ġ d
Ġ t
i n
Ġ a
c h
Ġt h
o n
Ġ w
Ġ s
e s
u n
i s
i t
Ġth e
a t
Ġ b
r e
i e
Ġ m
i ch
o r
Ġ e
Ġ p
a n
Ġ f
Ġ in
i on
Ġ o
Ġ h
Ġ c
a l
a r
Ġ n
r o
Ġ v
Ġ g
Ġ un
Ġa n
en t
l e
t e
Ġd ie
Ã ¼
un g
Ã ¤
Ġb e
Ġt o
Ġo f
Ġd er
s t
Ġ i
a s
Ġ z
o m
u r
l l
in g
i g
Ġ k
Ġan d
Ġ is
u s
e d
Ġun d
i r
Ġ re
Ġe in
Ã Ł
e m
r a
i c
e l
Ġ l
u t
ich t
i es
e it
g e
Ġv er
d er
om m
o l
s ch
a m
at ion
t en
Ġa u
u l
t er
d en
Ġz u
ro p
Ġw e
Ġw ir
Ġth at
v e
l ich
Ġ r
b er
Ġw h
Ġe u
i l
c t
Ã ¶
h r
Ġd a
g en
Ġh a
Ġs t
Ġf or
Ã¼ r
e t
Ġn o
u m
i d
is ch
Ġd en
Ġ on
e in
Ġeu rop
l y
is s
Ġp ro
Ġ er
er e
Ġd ies
Ġs o
Ġth is
Ġa l
Ġ it
d e
Ġi m
i er
Ġc on
i m
o s
Ġg e
Ġau f
or t
Ġp r
Ġ j
Ġda ÃŁ
omm iss
Ġ ich
es t
Ġa s
f f
c e
v er
b en
Ġd as
es s
Ġm it
Ġp ar
Ġv on
Ġf Ã¼r
ommiss ion
m en
Ġc o
Ġis t
a ch
an d
Ġa re
Ġd e
Ġv or
f t
Ġd es
k t
Ġn icht
Ġ es
Ġno t
i ll
Ġa b
ul d
Ġa us
Ġ le
it h
a b
Ġn e
m ent
Ġwh ich
Ġw ith
isch en
Ã¤ n
Ġs ch
Ġs e
t h
Ġm a
Ġw er
p p
i k
Ã¼ ber
l a
o p
Ġal s
Ġha ve
o uld
ung en
Ġd em
t s
Ġein e
in d
w e
q u
Ġeurop e
i v
i ve
at e
an t
Ġe x
Ġwer den
u st
Ġa ll
id ent
Ġh er
am ent
Ġ ent
i al
Ġs u
en d
Ġ um
Ġ Ã¼ber
Ġ y
Ġre g
s p
Ġs ich
it y
an n
Ġs ie
Ġw ill
Ġd o
l ie
Ġau ch
Ġpar l
Ġun s
Ġs h
Ġ -
Ġm e
c k
un d
n en
i b
Ġf ra
s te
Ġb er
n e
h t
Ġb y
ung s
t r
p e
Ġc ommission
s en
a y
ig en
0 0
o re
Ġm r
Ġun ion
Ġ 1
h al
Ġeurope an
u g
Ġp ol
b e
Ġeurop Ã¤
u ÃŁ
Ġa t
Ġ or
Ġw ie
sch a
k e
ion s
en s
Ġw as
i f
a h
er n
o w
Ġh as
Ġin ter
g es
er s
Ġher r
p ort
Ġc omm
Ġr es
f or
Ġco un
h en
ie l
Ġth ere
Ġg es
Ġun ter
Ġpr es
Ġa r
a us
scha ft
Ġk ommission
i en
Ġwir d
g r
u re
Ġs ind
t z
Ġg r
Ġ ch
m e
a in
Ġh at
et z
u p
a hr
or d
Ġm Ã¶
ch te
te d
is t
Ġc om
Ġb es
Ġ en
a d
al l
ll en
o t
Ġw ould
Ġd ar
Ġt a
Ġh e
Ġals o
h eit
Ġa m
Ġy o
Ã¤n der
Ġz ur
Ġm an
Ġha ben
k eit
er en
isch e
ro m
s e
u ch
en n
Ġd i
Ã¤ s
Ġdies e
Ġ qu
Ġb ut
z e
u e
Ġw or
Ġh o
lich en
Ġn ach
b eit
is e
Ġsh ould
h er
a g
Ġbe i
a u
ar d
e ct
Ġo ur
an g
Ġs te
Ġf a
r it
Ġst at
em ber
ĠeuropÃ¤ ischen
9 9
Ġ ra
Ġa g
Ġpar t
Ġm ein
Ġs ein
Ġf in
ation s
Ġd is
at en
Ġ us
Ġd ur
th er
Ã¤s ident
Ġa d
Ġt e
Ġg ro
Ġ 2
Ġm ust
Ã¶ n
Ġpres ident
i p
ig e
d u
ch t
Ã¤ r
Ġf rom
Ġparl ament
Ġi h
ation al
r an
ic al
Ġpol it
o d
le m
Ġein er
Ã¼ s
Ġst r
i ament
Ġg o
c ial
Ġk on
er t
ab le
es e
p r
ic k
Ġparl iament
Ġm ember
Ġk Ã¶n
it ion
Ġbe en
ul t
Ġdies er
Ġber icht
Ġa c
Ġp rop
Ġa pp
Ġyo u
Ġpr Ã¤sident
omm en
z u
Ġp o
Ġdur ch
h men
for m
f Ã¼
u d
Ġg en
o us
Ġg em
k en
o ur
em ent
Ġbe t
Ġw enn
an z
ig h
f en
ct ion
Ġo b
Ġc an
Ġpro b
Ġcom p
it te
Ġs p
ch en
v el
a st
Ġs a
Ã¼ n
el t
Ġp os
ut ion
o ut
Ġth ese
o g
on der
im m
Ġr at
ĠmÃ¶ chte
Ġz w
om e
c on
Ã¤ t
Ã¼s sen
lich e
Ġre port
Ġcoun tr
ar y
u te
Ã¶ r
Ġein en
Ġl ik
p t
Ġm ore
Ġit s
Ġm Ã¼ssen
Ġa ber
e ar
is h
i z
re at
o k
st a
Ġm uÃŁ
Ġno ch
ier ung
ier en
g t
g lie
Ġprop os
Ġlik e
Ġs pe
Ġcon c
Ġzu m
Ġso ll
Ġi f
c ess
o c
Ġin c
st r
Ġk ann
Ġwh at
h l
el y
Ġp re
ig ht
Ġf re
Ġw o
Ġh in
Ġthe y
Ġn ur
g er
Ġcon s
p l
n ah
ra g
Ġgem ein
Ġj ed
Ġz us
al ly
u b
g ra
l in
Ġne ed
c il
ol le
Ġmit glie
as s
Ġm ar
Ġstat es
Ġdies em
Ġm o
Ġ (
m er
Ġfra u
f ore
ĠkÃ¶n nen
an ce
Ġw ur
os e
k ing
Ġp e
Ġi hr
Ġpol ic
Ġcon t
st en
Ġon e
Ġbe c
Ã¼ ck
Ġver b
Ġwh o
g an
Ġw ar
Ġk ein
g lich
kt ion
y ste
ig keit
Ġge gen
gra m
ch e
im e
us s
Ġs it
sch en
Ġar beit
Ġprob lem
Ġver y
Ġthe ir
Ġm y
Ġo der
Ġin d
a ge
Ġm en
Ġw eit
Ġin t
w o
Ġim p
Ġle g
Ġcoun cil
Ġinter n
w er
i der
c ed
Ġim port
a p
Ġdi re
s am
ier t
a re
Ġent w
Ġent sch
t schaft
Ġe m
r ie
h e
Ġmitglie d
at ive
ff en
s icht
Ġth an
Ġthe m
ment s
fÃ¼ hr
Ġh ier
Ġd am
j ect
s ib
Ġme hr
p f
Ġf e
Ġde b
Ġe ff
Ġ up
00 0
lie ÃŁ
Ġo ther
Ġo ut
v ent
Ġse hr
re ich
in t
Ġs ol
on e
yste m
pp ort
st it
Ġcountr ies
Ġde c
Ġvor sch
Ġv o
Ã¤ hr
aus e
te il
i ous
Ġab out
Ġt ran
Ġgr und
Ġdies es
l ic
Ġr icht
le ich
am men
l le
r at
sta aten
Ġ1 99
Ġsu b
er st
vel op
ug h
Ġj ahr
Ġge w
d r
Ġne w
Ġih re
Ġj ust
Ġon ly
Ġs er
Ġde velop
ar t
men d
ut z
Ġ ro
Ġentw ick
at ter
Ġ Ã¤nder
Ġan y
Ġuns er
Ġt ra
Ġpe op
n ung
Ġy ear
Ã¼ tz
Ġis s
Ġbes ch
Ġin form
Ġa mend
is m
Ġpro du
Ġpro gram
Ġzus ammen
Ġp er
ic e
Ġein em
Ã¤n d
i a
at ed
Ġf ir
r ing
Ġreg ion
igh ts
Ġal le
c y
ĠeuropÃ¤ ische
Ġbec ause
Ġpolic y
Ġb est
Ġo p
as e
Ġmen schen
b ar
Ġcomm un
Ġw icht
as sen
Ġpropos al
Ġpeop le
Ġk olle
il ity
l Ã¤
Ġn ational
Ġin v
Ġber eit
Ġv iel
it ies
f ahr
Ġt ime
Ġqu est
c es
te t
Ġr ights
Ġag re
ct ive
Ġconc ern
l ung
le ar
Ġthere fore
on g
iv en
Ġcomm itte
Ġh and
Ġn at
in k
ar beit
etz t
ch n
a k
Ġin s
Ġs ystem
Ġmitglied staaten
it Ã¤t
hal b
con om
Ġpart ic
w end
Ġimport ant
w n
Ġv ie
ig n
Ġno w
t re
Ġs ome
ig t
ib t
Ġag ain
an s
ah l
Ġfir st
i ÃŁ
Ġp l
u ation
ol it
Ġm on
Ġwor k
o ch
f r
Ġf o
Ġe conom
Ġfa ct
v en
au f
Ġcommitte e
um ent
r Ã¤
ul ar
Ġm in
w ir
Ġfra ge
Ġh um
x t
ll t
Ġe ing
ungs ant
Ġb as
al t
Ġf und
id e
Ġst a
Ġwur de
ch ts
Ġpro v
la g
o b
Ġar t
Ġhum an
m al
Ġunter st
Ġg er
l os
l and
Ã¤ m
Ġta ke
Ġac c
Ġsu ch
Ġa ct
for der
Ġgro up
hal ten
f ol
l ar
i den
ur es
i re
Ġwir tschaft
er ung
Ġs ay
Ġ Ã¶
Ġint o
Ġwh en
it e
f e
v or
iv es
Ġsu pport
Ġdi ff
un kt
k ommen
Ġma ke
nah men
Ġc lear
Ġre c
Ġge b
Ġbe ing
Ġso cial
Ġho we
Ġhowe ver
is ation
Ġw ay
Ġeurop a
Ġden n
Ġso z
Ġdam it
Ġ 3
Ġunterst Ã¼tz
Ġsit uation
Ġma ÃŁ
ge b
ver n
p on
Ġl a
Ġsich er
in e
Ġaus sch
n ow
Ġdis c
if ic
h and
s etz
Ġz eit
Ġgro ÃŁ
r y
le gen
n er
v o
Ġre l
Ġbe z
Ġs el
Ġl and
Ã¤ ch
ra uch
pe ct
m it
Ġpartic ular
Ġre f
Ġw el
it i
s el
ĠmÃ¶ glich
i ff
Ġsoz ial
w or
Ġco ur
f Ã¼r
am e
le d
Ġas s
ing s
ig ung
Ġmar k
Ġof f
Ġf est
Ġb o
Ġs onder
le ment
Ġe ben
ne hmen
ie d
Ġab ge
olit ik
Ġt er
w ie
en z
Ġdies en
Ġst and
Ġjed och
Ġma de
Ġintern ational
h a
Ġg leich
Ġin stit
we en
is ion
Ġbet ween
Ġd ann
Ġg ibt
Ġl Ã¤nder
Ġb ere
ig er
Ġer w
Ġha us
Ġquest ion
ol og
Ġcon f
h Ã¶r
ess en
k s
k te
der n
d ay
Ġreg ard
sib le
ĠÃ¤nder ungsant
Ġth ose
Ġhe ute
Ġm ich
ge t
o y
Ġwie der
p ro
Ġein es
u es
Ġpolit ical
z eit
or s
Ġo ver
Ġk now
Ġzw ischen
Ġg anz
h n
iss en
Ġuns ere
Ġz we
ur al
Ġsonder n
Ġp la
st Ã¤nd
Ġein z
Ġs in
Ġund er
at z
Ġb in
Ġinform ation
te l
Ġor gan
g in
v ed
Ġges ch
Ġmark et
we ise
Ġkein e
lin ie
er ation
Ġw ere
u en
is ten
Ġ end
Ġse e
il d
Ġe t
Ġgemein sam
Ġherr n
Ġcons ider
Ġk o
hal t
f l
ce pt
Ġg el
Ġfor m
Ġpr in
f ra
Ġfin anz
ub lic
Ġdevelop ment
Ġbere ich
Ġbereit s
ert ain
es ent
ord nung
el s
Ġf r
Ġres pon
i ent
Ġdo ch
am p
de ut
Ġpo int
d em
Ġand eren
Ġre qu
Ġp ers
is ed
Ġte chn
b st
Ġwith in
Ġman y
at er
e ll
ut h
Ġwir k
Ġw Ã¼r
Ġreg ul
Ġg reat
Ġdire ctive
Ġiss ue
Ġtran sp
Ġwh ere
Ġen v
a c
Ġcommission er
Ġcommun ity
Ġgo vern
Ġih nen
Ġbe tr
Ġre chts
Ġre cht
Ġweit er
Ġin iti
st er
st imm
f all
Ġha be
Ġe ver
Ġgemein schaft
l d
Ġex p
Ġan ge
ord ne
im in
Ġentwick lung
Ġbes te
an ge
Ġre m
at s
ach t
Ġeu ro
Ġdo es
Ġth ink
Ġsel bst
Ġf ar
Ġf l
Ġb is
gen d
on ment
Ġl i
ent r
is en
Ġe ven
Ġso wie
sp r
Ġan t
Ġb Ã¼r
Ġg et
Ã¤ l
Ġbe d
re ad
el n
Ġd an
o un
Ġc ertain
at ing
ir onment
la gen
m itte
re chen
Ã¤ ft
Ġwe il
Ġenv ironment
Ġr ight
f in
Ġbe lie
u al
Ġeconom ic
le g
Ġm ill
Ġau ÃŁ
w ort
ic ult
ate g
Ġstr u
Ġh ere
Ġge ht
Ġp ublic
Ġ ur
Ġver sch
ter n
Ġw ant
Ġum w
mitte l
ach en
Ġabge ordne
ĠmaÃŁ nahmen
n is
Ġparlament s
ie t
Ġpres ent
Ġres ol
Ġre form
Ġmit tel
Ġmr s
Ġyear s
Ġentsch e
b es
pl oy
Ġs c
Ġl ie
Ġpro te
Ġor der
Ġco uld
ent ion
h in
m s
Ġb ud
Ġvorsch lag
p h
Ġ 4
Ġdes halb
Ġd ra
Ġc ann
Ġme as
Ġcann ot
Ġbe k
Ġf all
us e
Ġm ir
Ġdeb ate
i le
v ing
op e
Ġs eit
Ġwicht ig
Ġm atter
u ll
is l
Ã¼ hr
Ġ 5
g em
Ġma y
Ġricht linie
i an
Ġeff ect
re i
Ġmein e
Ġdar auf
w ard
Ġfin an
Ġleg isl
Ġunser er
Ġad op
Ġre al
vent ion
Ġagain st
Ġsoll ten
en den
Ġda fÃ¼r
ll ung
Ġsch w
r imin
Ġte il
be i
ke hr
Ġpos ition
fahr en
Ġt reat
Ġever y
ges ch
Ġagre ement
Ġh al
Ġumw elt
a ck
Ġapp ro
Ġinc l
Ġwe ll
Ġmo st
k l
Ġa ff
Ġp ra
la u
Ã¤ tz
Ġt wo
is p
Ġt r
Ġmember s
Ġvie w
ten s
Ġkolle gen
Ġh ow
k on
Ġind ust
h ne
Ġyo ur
nah me
Ġle tz
Ġsoll te
Ġg u
Ġto o
Ġth en
Ġs ame
Ġbe it
Ġl ast
Ġle vel
c ip
et h
Ġihr er
Ġst ate
Ġver t
m in
Ġto day
Ġver ein
Ġamend ments
Ġk ommiss
t ing
Ġal read
Ġalread y
Ġden en
Ġbelie ve
o ugh
Ġra hmen
a ct
Ġf ol
Ġc it
Ġz iel
pp or
Ġgo od
Ġl o
Ġvo te
f Ã¤
Ġim mer
Ġa id
Ġbe gr
Ġprin cip
Ġal lem
Ġad d
Ġet w
Ġdisc uss
Ġn un
Ġcour se
Ġbud get
ab l
Ġda zu
ff ent
Ġs et
Ã¤ ÃŁ
v es
Ġkommiss ar
iss e
Ġdem oc
ic t
Ġsa gen
Ġ ens
Ġver s
Ġspe c
d am
d s
Ġn am
Ġnot wend
Ġinc re
u er
re g
Ġbe isp
t t
Ġle ben
Ġha d
Ġh el
isch er
Ġsch a
Ġprogram me
c ted
Ġh igh
t ro
Ġcit iz
Ġv om
Ġo wn
Ġe le
Ġgen er
Ġpos sible
ge ben
i o
ut ions
Ġdis k
ĠbÃ¼r ger
r u
a ÃŁ
Ġj etzt
Ġab le
lich keit
m ar
Ġm uch
Ġmein er
Ġcountr y
Ġein ige
Ġleg al
i or
re e
or y
Ġb ring
Ġc ar
Ġpro cess
re chte
Ã¤ re
Ġqu al
Ġa ch
Ġst ill
Ġf ut
Ġn um
ur r
stimm ung
Ġw en
is ierung
Ġcomm on
Ġwh y
Ġnat Ã¼r
is ter
Ġfra ktion
Ġw issen
onder e
s atz
Ġeing e
Ġpolit ik
Ġc ase
r i
en e
la ge
Ġmeas ures
Ġth ro
Ġp ut
Ġinv est
con d
Ġda her
Ġpers on
Ġaus ge
Ġat t
Ġsa id
ok rat
ent ly
Ġus e
Ġimp lement
Ġh ope
lich er
Ġall er
eren ce
Ġfra gen
rit t
Ġbest imm
a de
as on
Ã¶ s
Ġco op
Ġ Ã¤
it ed
pr ess
Ġob ject
Ġcont in
Ġare a
Ġbeisp iel
ĠwÃ¼r de
h il
w ay
Ġh is
Ġr is
Ġas k
Ġcitiz ens
p unkt
Ġse cond
Ġ2 000
Ġs im
Ġm or
Ġf Ã¼hr
Ġinstit ution
Ġli ber
Ġmill ion
Ġo hne
Ġbo th
Ġta ken
Ġfinan cial
Ã¼ ÃŁ
2 000
Ġpos it
Ġser v
ver s
Ġregion al
ie den
Ġwur den
Ġprogram m
f ul
Ġwo llen
hal ts
Ġwor ld
Ġfut ure
Ġ est
Ġa fr
re d
setz ung
Ġp ort
ll ow
erst atter
Ġs om
Ġpro ced
amp le
Ġthro ugh
Ġre ason
Ġt un
str u
gan gen
Ġnum ber
l es
Ġex ample
ĠnatÃ¼r lich
Ġa ction
Ġm ed
Ġstr ateg
Ġinter est
Ġbe deut
te ur
Ġzw eit
er g
Ġem ploy
Ġc urr
Ã¤l t
Ġg ut
tr ib
z ie
Ġiniti ative
Ã¶ l
z us
Ġg est
Ġk omm
ze ug
Ġsch on
Ġa gr
om en
wo hl
l uÃŁ
Ġf ur
ĠauÃŁ er
ppor teur
s er
Ġres pect
Ġbericht erstatter
ant wort
Ġin te
kl Ã¤r
ab ility
Ġw elt
Ġf ind
Ġinv ol
r icht
Ġdeb at
gen ommen
Ġm il
Ġra pporteur
ical ly
rÃ¤ ge
Ġa uth
ic es
Ã¤n g
Ġcomp et
Ġne g
g est
Ġw Ã¤hr
Ġre pr
ten d
heit en
Ġop in
Ġtran s
a il
Ġach ie
Ġne uen
Ġproblem s
Ġch ar
Ġliber al
Ġare as
ĠkÃ¶n n
Ġ .
Ġg l
Ġsicher heit
Ġcoop eration
ar m
bes ondere
it al
Ġins besondere
te llt
Ġdem okrat
Ġresol ution
ff e
Ġ199 9
al th
Ġauth or
p olitik
it Ã¤
Ġb al
ent ial
ag t
Ġjahr en
ĠÃ¶ ffent
Ġens ure
Ġne cess
Ġamend ment
Ġfur ther
Ġg iven
wer b
Ã¶ ÃŁ
Ġgovern ment
a ir
Ġi r
j or
Ġin de
ze ich
Ġcons um
iff t
Ġw Ã¤re
Ġpla ce
Ġs m
Ġma jor
reich en
Ġla w
abl ish
ste llen
Ġen erg
et her
Ġz ahl
Ġdiff er
Ġho use
Ġand ere
Ġi de
Ġrepr esent
Ġentsch lieÃŁ
f ass
oun t
Ġetw as
un den
Ġk os
Ġein mal
ier ungs
Ġbe fore
Ġl ong
Ġer st
Ġall en
Ġentsche id
ar ge
Ġaussch uÃŁ
Ġk lar
Ġme ans
Ġ2 00
str ument
u ck
ch ten
Ġunter nehmen
re it
der ung
Ġdar Ã¼ber
Ġre du
im men
Ġall ow
Ġwith out
Ġzusammen arbeit
Ġt ur
Ġbesch Ã¤ft
l Ã¤nder
Ġle t
Ġvo ll
Ġa k
Ġs ign
Ġn or
Ġne ue
Ġde ut
Ġse c
kt ur
pp en
gr und
Ġvie le
Ġsin ce
ism us
Ġest ablish
Ġver antwort
Ġa f
Ġv ol
Ġ 6
Ġre p
Ġk e
Ġver w
Ġe qu
ur s
Ġf ull
Ġpr ior
m Ã¶
un ft
Ġer forder
i um
Ġwe tt
Ġfo llow
Ġopin ion
Ġm achen
Ġparticular ly
Ġnam en
al e
Ġge f
l icht
Ġarbeit s
imm t
los sen
fall s
Ġkos o
Ġthan k
Ġincl ud
m o
Ġihr en
Ġz un
ig ten
k unft
Ġzw ar
Ġinte gr
Ġwett be
n isse
u f
Ġbe w
Ġb l
Ġsein e
Ġprote ction
j e
Ġprob le
Ġk om
Ġverb rauch
Ġwettbe werb
Ã¼ b
en g
Ġl ang
re t
Ġe l
an k
Ġn ie
Ġcont ro
uss es
Ġzwe i
eren z
c ing
Ġst ra
Ġw omen
Ġg ive
Ġeinz el
wir tschaft
Ġnecess ary
Ġvor ge
Ġf ran
Ġda v
z ip
st and
Ġwh ether
ra gen
Ġregul ation
l ungs
Ġr ul
f ten
at ely
Ã¶l k
Ġan ges
st an
Ġhe alth
le gt
Ġconcern ed
Ġhaus halts
Ġbas is
ĠmÃ¶glich keit
Ġbetr ifft
Ġse ct
Ġkoso vo
ib le
Ġwor den
Ġl assen
Ġj a
ing e
Ġex press
Ġfund ament
Ġ 8
wor k
Ġver tre
kt or
Ġmein ung
Ġrequ ire
Ġex tre
Ġimp ro
Ġdiffer ent
Ġbes onder
ann t
Ġport ug
a ce
Ġges am
Ġv al
sch lieÃŁ
Ġiss ues
p ar
sp ro
Ġste llen
h ang
Ġsch utz
hal f
u de
Ġw ish
Ġter ms
in n
fÃ¼hr t
Ġdemoc rat
Ġbe half
Ġde al
Ġgener al
d it
it z
Ġdec ision
v our
Ġser ious
Ġprincip le
ir d
sp rechen
mer k
Ġp at
Ġ %
at es
Ġer klÃ¤r
ell schaft
sib ility
Ġart ik
gem ein
Ġda bei
Ġabgeordne ten
Ġin strument
Ġsub ject
Ġpo st
y s
Ġ 7
icht s
Ġd el
Ġte xt
g ung
h o
we isen
ab il
Ġd ien
Ġk ommen
ord in
Ġkon tro
dr uck
Ġrul es
g a
Ġgr Ã¶ÃŁ
ĠprÃ¤sident in
Ġd Ã¼r
e hen
Ġproposal s
Ġab stimmung
Ġfrau en
v ious
Ġunter sch
entr al
Ġe igen
Ġz ie
ug ht
Ġrat es
gin nen
ah re
Ġzur Ã¼ck
Ġvorsch lÃ¤
Ġb r
Ġz e
Ġreg ierung
Ġh Ã¶
Ġac cept
sp olitik
ste llung
Ġdav on
Ġs or
Ġg lau
mar kt
Ġr est
ĠunterstÃ¼tz ung
Ġer fol
tr Ã¤
ĠÃ¤nderungsant rÃ¤ge
Ġbeste ht
m an
k es
Ġste hen
Ġso c
Ġn Ã¤m
le x
Ġprodu ct
an te
Ġsta aten
Ġfundament al
ĠnÃ¤m lich
is ions
und heit
Ġaf ter
Ġre v
ach e
Ġde fin
f it
f erenz
Ã¼n d
Ġzusammen hang
Ġk ur
Ġma dam
Ġbez ug
Ġdar f
Ġpo in
c ome
Ġge ben
Ġlo ok
ĠÃ¤nderungsant rag
Ġf Ã¶r
Ġfor t
Ġverb ess
Ġpolit ischen
Ġstru ct
Ġzu g
sel ves
Ġab s
Ġpropos ed
r if
Ġ u
Ġartik el
Ġt ats
id ed
Ġlegisl ation
ik a
ĠÃ¤ uÃŁ
ra che
Ġle a
etz en
o ck
Ġemploy ment
Ġj ahre
Ġthem a
1 99
ze pt
Ġcom e
se qu
Ġfe w
Ġwirk lich
Ġh arm
Ġclear ly
Ġproble me
Ġb ro
Ġh il
ier ten
Ġwho le
k ten
Ġb ess
Ġo pport
Ġopport un
ra ph
Ġqu ite
Ġmenschen rechte
Ġdiff icult
Ġ 9
h ol
Ġne xt
fÃ¼hr ung
Ġdire ct
Ġtreat y
Ġc or
ag ement
Ġgemeinsam en
Ġdebat te
Ġbe l
Ã¼ck sicht
r Ã¤n
Ġtransp ort
Ġkon k
Ġgl ob
Ġcontro l
u ge
as ed
Ġpr iv
if ied
Ġverbrauch er
Ġsoc iet
b ed
Ġm ention
Ġtransp ar
Ġletz ten
Ġcon trib
Ġart ic
Ġand er
Ġbe f
ĠlÃ¤nder n
Ġspec ific
rif ten
Ġj o
Ġsein er
alt ung
Ġw ord
Ġs um
Ġc r
lie gen
en de
Ġpro ject
Ġver l
Ġum f
u ally
Ġreg el
Ġp unkt
c o
n ing
Ġme et
gr ess
Ġcomm it
Ġfa vour
Ġj e
g o
Ġs ens
Ġf am
Ġfra me
Ġb ack
Ã¼n ft
Ã¤ch st
Ġindust ry
Ġagr icult
Ġ Ã¼b
Ġacc ord
Ġproced ure
s s
Ġbedeut ung
up t
Ġth ird
an der
iv il
h m
Ġbez ie
Ġw ort
Ġc rit
al s
le i
Ġber Ã¼cksicht
0 1
Ġconc l
Ġd one
Ġa kt
ra cht
Ġsh all
Ġpra ct
c c
Ġhin sicht
Ġextre m
199 9
le icht
Ġ1 9
Ġinter ess
Ġbegr Ã¼ÃŁ
if e
Ġb u
Ġvor gesch
Ġen g
Ġfo od
Ġtechn olog
ga ben
Ġframe work
Ġstat t
Ġadop ted
Ġa w
Ġim m
Ġwor king
Ġco st
Ġgegen Ã¼ber
Ġc olle
Ġres our
aus sch
ward s
b l
ra ft
Ġl Ã¶s
ab e
Ġleben s
e p
Ġan sicht
g lichen
g leich
Ġrat her
Ġglob al
Ġsociet y
Ġc ap
Ġun ited
Ġges agt
Ġhel p
Ġe v
Ġc all
il t
Ġres ult
f et
ver kehr
wend ung
f te
Ġt al
Ġb rauch
Ġmin ister
wir k
Ġerw eit
h ungen
Ġgo ing
ich te
Ġacc ount
ĠunterstÃ¼tz en
Ġinstit utions
u rop
Ġg ar
vor sch
Ġref er
Ġversch ieden
Ġc re
Ġstand ard
Ġappro ach
Ġaff air
Ġv ar
Ġk in
pro chen
er ien
ot i
Ġf isch
Ġver fÃ¼
Ġintern al
Ġtra de
i ar
Ġver pf
Ġwe iÃŁ
Ġdur ing
Ġuns eren
Ġenvironment al
Ġg ent
Ġfund s
il y
Ġge hÃ¶r
Ġorgan is
l ungen
Ġc l
iv ely
eth ing
h Ã¤ng
re if
Ġre ad
Ġsom ething
Ġreg ions
Ġges etz
Ġfin ally
Ġgu ar
Ġw esent
Ġl im
Ġagre e
Ġvorgesch lagen
Ġwe ise
Ġ1 5
rie den
Ġartic le
in es
Ġb ar
Ġv i
Ġder zeit
cial ly
Ġa ir
Ġbe g
Ġof fen
Ġsh ow
Ġgew Ã¤hr
Ġneg oti
fet y
Ġguar ante
h Ã¤lt
at ives
re cht
Ġund erst
Ġall gemein
Ġafr ic
Ġh Ã¤t
Ġf un
Ã¤m pf
ur ity
Ġk rit
Ġdar an
Ġfre i
f ach
w eit
Ġst ar
Ġta x
ze ÃŁ
ĠwÃ¤hr end
Ġp ow
Ġan s
Ġvert rag
fass ung
Ġon ce
Ġste ht
Ġsa fety
Ġ ess
way s
it t
an gen
Ġst Ã¤r
sch e
Ġsub s
ĠkÃ¶nn te
Ġzun Ã¤chst
v ement
is ts
Ġm ind
Ġl ad
Ġzu kunft
rop ri
Ġspe ak
Ġkolle ginnen
Ġwel che
Ġd ial
on ds
ent s
Ġde f
Ġes pe
Ġro le
Ġpl an
Ġaffair s
b au
l er
le men
Ġma in
Ġad v
Ġbet ter
Ġfre ed
Ġespe cially
el f
Ġdar in
Ġta ges
Ġdo wn
Ġac cess
Ġadd ition
Ġglau be
Ġk ind
ber e
m aÃŁ
Ġsim p
Ġe ach
Ġn utz
Ġschw ier
ĠfÃ¼hr en
re ffen
ies en
der t
are d
teil ung
en ce
Ġe ur
Ġex ist
Ġher aus
Ġpart y
Ġresour ces
Ġfreed om
ens ion
Ġcompet ition
Ġa gend
Ġc ult
Ġder en
Ġpro gress
f ort
t y
Ġan o
ier te
Ġy et
sta at
Ġem pf
Ġano ther
u ft
s o
Ġe th
Ġl ab
Ġess ential
d ings
Ġw ider
Ġre chte
Ġkur z
Ġb en
ich er
Ġsu c
stit ution
Ġserv ices
Ġharm on
g ement
Ġin ner
Ġ1 2
dit ions
ing ungen
Ġver ordnung
Ġso llen
iv id
g el
h ip
Ġbe gin
Ġto wards
ed er
Ġus ed
o gen
is ing
at t
ab ly
sp rache
Ġdar um
Ġits elf
Ġrespon sibility
Ġsec urity
Ġagend a
z w
Ġk le
ge hen
Ġop er
Ġm ot
Ġp ay
Ġpoin ts
Ġgent lemen
as es
Ġcomp an
rie d
Ġaller dings
Ġprogramm es
f er
te m
Ġse i
Ġmar kt
Ġstru ktur
Ġposit ive
Ġextrem ely
Ġlad ies
Ġf Ã¤
Ġger ade
Ġm om
Ġp un
ul ation
Ġer geb
Ġso wohl
Ġwar en
Ġprov ide
Ġaussch usses
Ġlie gt
a king
Ġwo hl
v Ã¶lk
Ġst art
ste hen
ĠdÃ¼r fen
g ar
p end
Ġnicht s
Ġind ivid
Ġsozial en
Ã¤mpf ung
w Ã¤r
Ġto t
Ġr u
Ġj ob
ik an
Ġapp ropri
Ġsm all
c om
at ul
lin ien
ro ffen
ge ther
Ġa v
on t
iv ing
Ġbesonder s
ĠvorschlÃ¤ ge
Ġher vor
Ġd et
Ġb an
Ġn on
Ġan n
st o
if y
ges ehen
Ġpolic ies
Ġsch lieÃŁ
legen heit
Ġl age
Ġo pp
Ġer n
ier ungen
Ġse em
Ġste p
Ġdial og
ver stÃ¤nd
Ġges undheit
ĠgroÃŁ en
Ġsect or
Ġd ort
Ġbe hand
Ġeurop as
Ġgro w
is es
igkeit en
Ġth ree
Ġl ess
Ġho ffe
Ġregion en
Ġnational en
Ġequ al
re ten
fÃ¤ h
Ġinde ed
ig ent
we g
Ġeff ort
one y
Ġsubs id
Ġd rei
ro du
Ġk l
ge w
ges tellt
Ġro lle
Ġw ahr
us ion
Ġmom ent
Ġconcern s
Ġver fahren
Ġstand punkt
Ġbeste hen
Ġfol gen
Ġnotwend ig
ĠentschlieÃŁ ung
Ġein igen
Ġl ife
Ġa ut
at iven
Ġver gangen
Ġle ad
ktion en
Ġquest ions
b an
r igen
ra um
Ġwe g
ct ions
Ġer sten
enn t
Ġcontin ue
s weise
is tr
Ġk ult
Ġre ally
Ġsu ff
Ġres ear
Ġgen au
Ġunderst and
Ġtages ordnung
Ġresear ch
Ġ 000
th ough
Ġwel come
Ġal though
im es
Ġ199 8
z iel
un de
Ġvar ious
Ġe vent
Ġviel leicht
Ġeconom y
Ġd id
re ch
Ġaus sprache
Ġpre c
Ġeben e
d i
e hmen
Ġfor ward
Ġin n
Ġcon ditions
Ġimport ance
Ġchar ter
Ġm oney
Ġle ast
Ġabs ol
r es
Ġwer de
Ġfe hl
ĠauÃŁer dem
Ġak zept
i od
Ġw ater
Ġb us
Ġc reat
Ġvers uch
p er
ic ial
Ġen de
Ġerw Ã¤
o v
Ġa im
Ġver hand
Ġne ver
Ġcomp le
Ġvor aus
Ġ- ,
bl ick
Ġv ot
Ġto gether
ll er
Ġact iv
itÃ¤ ten
Ġ1 0
c l
Ġf ore
el le
Ġma king
Ġop en
Ġviel en
Ġhil fe
Ġen lar
art a
k omm
Ġb ene
Ġbe vÃ¶lk
Ġl arge
Ġneed s
Ġinterest s
d ent
Ġl oc
Ġr Ã¼ck
Ġpro m
Ġpar te
Ġex pl
sp ect
Ġsol che
Ġper iod
Ġinner halb
i ation
Ġcon vention
fÃ¼hr en
ic ient
Ġs an
Ġauf ge
Ġpres iden
Ġint rodu
Ġorgan isation
Ġpro t
Ġdem and
Ġges ellschaft
Ġfe el
wÃ¤r t
Ġt ro
Ġt Ã¼r
sch utz
Ġal ways
g ed
s uch
z Ã¼
scha ften
Ġpre vent
Ġsit z
Ġentwick lungs
Ġbeispiel sweise
Ġer g
Ġgr Ã¼n
Ġpolit ische
es en
Ġo cc
Ã¤ hl
Ġreg ierungs
Ġ2 0
Ġkin der
Ġp ass
Ġp ap
Ġkomm t
Ġinvol ved
Ġverantwort ung
d ition
Ġsch ne
Ġpe ace
Ġpresiden cy
Ġb rit
Ġl is
Ġum setzung
Ġam er
Ġmein es
ĠlÃ¶s ung
Ġe igent
Ġst abil
d ien
Ã¤ d
Ġapp lic
g abe
Ġp h
Ġent sprechen
Ġconf erence
Ġhal te
Ġentscheid ung
we is
Ġgr enz
Ġadop t
ol d
Ġpro je
Ġbec ome
Ġgroup s
Ġbin nen
Ġrem ain
Ġdan ken
Ġt y
Ġme an
Ġau str
Ġha ving
Ġpr ess
Ġsch wer
Ġachie ve
th ing
Ġall es
Ġsol id
Ġinclud ing
h ung
Ġsh ort
Ġbring en
Ġauthor ities
Ġdeut lich
in ess
Ġbe teil
ĠgroÃŁ e
kon ferenz
Ġproduct s
ic ation
Ġbas ed
Ġrel ations
ild ung
Ġscha ffen
Ġko sten
Ġcertain ly
Ġobject ive
Ġconsum er
Ġeinzel nen
ĠÃ¼b rigen
Ġd rit
Ġg ra
te xt
Ġsystem s
t o
le it
Ġbe im
Ġintern et
Ġihre m
ll ig
ff ung
Ġ1 1
Ġhand elt
Ġmon th
Ġdra ft
ĠstÃ¤r k
at h
Ġm ult
Ġg ed
Ġjed er
Ġwettbewerb s
ĠÃ¤uÃŁ erst
Ġbrauch en
bere ich
Ġindivid ual
s Ã¤tz
Ġauf grund
Ġaw are
Ġg ilt
as ing
Ġle d
Ġfre e
Ġerweit erung
Ġf Ã¼n
il dr
ĠÃ¼ber ein
iden ce
ster reich
Ġinstitution en
Ġre le
Ġcurr ent
p or
w ert
Ġm od
Ġf ight
Ġg ere
Ġas pect
ap s
Ġgeb ie
Ġinternational en
Ġerfol g
Ġs w
Ġre ce
Ġer ach
ver fahren
Ġsu pp
Ġad min
Ġeben falls
Ġentsche iden
Ġris k
Ġp le
Ġn Ã¤ch
ĠÃ¶ sterreich
Ġst ud
Ġer ne
Ġas pe
Ġaus druck
iel d
Ġmillion en
Ġto ur
Ġcom b
Ġrec og
Ġgemeinsam e
fra ge
Ġvert ra
Ġmajor ity
Ġsuc cess
Ġan al
ur f
Ġit al
mal s
Ġincre ase
h Ã¶
Ġer halten
Ġdo c
zeit ig
Ġmil it
lÃ¤nder n
Ġfor sch
Ġge geben
Ġjahr es
iÃŁ t
Ġfollow ing
ildr en
en cy
Ġw ahl
re chts
Ġex ce
Ġstat ement
Ġobject ives
Ġ ,
sch ein
Ġch ange
spr Ã¤sident
Ġdoc ument
Ġw ach
Ġman agement
Ġgreat er
er k
Ġs y
Ġun ab
el ess
Ġdien st
Ġer ste
og raph
Ġd essen
Ġe ar
Ġf al
Ġof ten
Ġde leg
setz en
Ġlea der
m Ã¼
Ġf lex
ent e
Ġi dent
Ġein deut
Ġer reichen
Ġta king
Ġgeb iet
Ġuntersch ied
Ġhinsicht lich
Ġwh ile
and id
Ġvor liegen
Ġne hmen
Ġprop er
Ġpl en
n ess
Ġd ring
Ġzu stÃ¤nd
Ġste llung
Ġwirtschaft s
Ġland wirtschaft
Ġhal ten
Ġword s
Ġs ing
Ġup on
Ġdemocrat ic
Ġfam il
Ġenlar gement
y l
it or
eit s
Ġhin aus
hn t
Ġopportun ity
Ġre ach
ter s
Ġspe cial
in a
Ġm acht
Ġer inn
la st
Ġch ildren
Ġadmin istr
Ġw a
Ġvor gesehen
dr ess
Ġbinnen markt
Ġc los
Ġgleich zeitig
Ġatt ention
z ogen
Ġt able
Ġwas te
Ġch an
Ġweit ere
Ġabgeordne te
Ġjo int
f onds
g ang
h ing
le tz
Ġav ail
z ahl
Ġor ig
Ġintegr ation
Ġp op
ro w
Ġpro di
Ġfirst ly
Ġwen iger
hil fen
iss ion
Ġgegen wÃ¤rt
Ġserv ice
or m
Ġg re
Ġcre ate
Ġstandard s
reif en
Ġvi ol
Ġcomple te
Ġverpf licht
Ġorig in
Ġweiter hin
Ġdan k
Ġbek annt
Ġbek Ã¤mpfung
Ġbus iness
a kt
Ġha ppen
Ġre t
Ġden ke
Ġproject s
ch an
if iz
Ġgrund lage
Ġrequ est
Ġstruct ural
Ġt as
Ġver kehr
Ġsu re
Ġla ck
Ġanges ichts
Ġeigen en
Ġsolid ar
al en
Ġer mÃ¶
Ġ1 3
Ġgem acht
Ġcour t
Ġeben so
Ġerforder lich
Ġsimp ly
Ġfor ce
Ġdo ub
Ġad dress
Ġdec isions
Ġmention ed
Ġcon gr
Ġar g
mit t
hil fe
ur ch
ra cy
Ġregard ing
ĠwÃ¼r den
Ġeffect ive
Ġbess er
Ġkle in
b our
it s
th ers
Ġbei den
Ġafric a
Ġcompan ies
Ġcongr atul
Ġl on
ein ander
Ġqual ity
Ġkom p
Ġsp rechen
m Ã¤ÃŁ
isch es
Ġch e
he b
e an
Ġt ry
Ġpr Ã¼
Ġdis p
Ġsp iel
Ġsta at
Ġzwe if
Ġloc al
Ġerach tens
Ġv ier
ation en
Ġjust ice
Ġact ually
Ġmatter s
Ġmor gen
i ver
an den
le ist
Ġver Ã¤nder
Ġwe e
Ġauf fassung
Ġob l
Ġgemeinschaft s
Ġdisk uss
aÃŁ t
Ġzie le
Ġsing le
Ġc ases
Ġv Ã¶
Ġk at
Ġhat te
ĠfÃ¼n f
re icht
Ġver st
Ġwicht ige
Ġregierungs konferenz
l ess
r ang
Ġf our
ing en
ges etzt
Ġpla y
Ġbene fit
it er
Ġb ill
Ġo pt
Ġh on
Ġein fach
Ġch arta
ip f
Ġhin blick
rimin al
h ere
o f
Ġs l
un ter
Ġb il
Ġc ivil
Ġab schlieÃŁ
Ġfin den
Ġarbeit sp
Ġopp os
o ll
ers eits
Ġimplement ation
Ġaccord ing
ber eit
Ġsum mit
Ġcolle ag
aussch uÃŁ
Ġp ast
ge gen
Ġverschieden en
h aps
Ġaus wirk
Ġper haps
ster dam
n et
Ġm ight
Ġbe hÃ¶r
Ġte le
Ġpre vious
Ġcont ain
Ġo thers
Ġam sterdam
Ġjed en
Ġrecog n
Ġobl ig
b on
Ġso gar
Ġstr eng
Ġzus Ã¤tz
Ġkein en
Ġverein igten
Ġas yl
Ġle ider
Ġste llt
Ġgesch Ã¤ft
Ġf rieden
ro ss
st immen
omm end
Ġsch luÃŁ
pp e
ang er
pr Ã¼
Ġrec ommend
ĠauÃŁ en
itÃ¤ ts
Ġtats Ã¤ch
r on
Ġr ass
Ġvor s
ific ation
Ġavail able
Ġan wendung
ing t
Ġk am
ĠÃ¼ber w
Ġsh e
Ġherr en
dr Ã¼ck
Ġlegisl ative
Ġbeit rag
at or
Ġb or
Ġbe mÃ¼
Ġj ud
Ġenerg y
Ġinteress e
Ġdiskuss ion
a ges
g ern
Ġex t
Ġapp ly
Ġpo ll
Ġfort sch
Ġm iÃŁ
ute t
Ġsecond ly
ĠbeschÃ¤ft igung
Ġan genommen
ann ten
Ġgrund sÃ¤tz
Ġnat ur
Ġincre asing
Ġpow er
Ġunab hÃ¤ng
ne h
Ġwen ig
Ġgef Ã¤hr
m or
ut es
Ġab kommen
Ġmein en
forder t
Ġdisc rimin
Ġwirk sam
Ã¤r en
Ġmehr heit
teil en
ha ft
Ġauswirk ungen
ent en
Ġver fol
Ġsu g
fra gen
Ġt Ã¤t
Ġth ings
Ġf is
Ġin st
Ġc are
al led
Ġass ist
Ġbis her
0 2
t rag
Ġs Ã¼
Ġs icht
Ġsein en
Ġpre p
Ġwirtschaft lichen
e hr
Ġwas ser
oc ol
Ġgel d
Ġrespon sible
Ġscha ffung
ie llen
Ġh ist
Ġcon sequ
ast rop
Ġgovern ments
in ing
Ġbe fÃ¼r
Ġso uth
im um
iv ed
Ġagreement s
Ġnegoti ations
Ġguarante e
ah n
Ġgu id
Ġk Ã¼nft
Ġver n
Ġex am
Ġch all
Ġschne ll
Ġinformation en
halt ung
Ġfisch ere
Ġappropri ate
e kt
m ut
ich en
Ġp a
Ġhe iÃŁt
Ġag o
Ġregul ations
ĠÃ¶ffent lichen
Ġre d
Ġho ch
ĠhÃ¤t te
verstÃ¤nd lich
Ġge hen
Ġco h
Ġle it
Ġsch ul
Ġsch ritt
Ġans wer
i x
Ġc entral
id es
Ġconcern ing
Ġprote ct
Ġin tend
Ġtra ff
Ġpra kt
Ġprincip les
Ġfull y
ĠvÃ¶ llig
h end
j en
le is
Ġco ver
Ġverein bar
Ġdemoc racy
ĠbevÃ¶lk erung
Ġp ot
st um
st ant
Ġre i
Ġinter essen
Ġfar m
Ġdisk rimin
Ġf ish
Ġv e
ent w
Ġdo ing
Ġhin ter
Ġsozial e
Ġdemokrat ie
un ehmen
Ġauf merk
Ġse hen
Ġ1 4
rit te
stan ces
Ġaufmerk sam
Ġm eth
ro und
Ġer fÃ¼
Ġcon text
Ġen c
Ġste uer
Ġconf lic
mo st
ĠgeschÃ¤ft s
b ur
Ġd im
Ġn et
Ġg ute
qu e
Ġstr ess
Ġtechn ical
spr uch
re te
Ġun t
te llen
Ã¶ t
Ġit em
Ġco ordin
Ġthem selves
Ġke ep
Ġu hr
Ġeffort s
z en
Ġnot hing
Ġob vious
Ġvo ted
Ġ5 0
o ver
an ts
me hr
Ġam ong
Ġcommun ication
Ġgrow th
Ġein zu
ce ed
Ġih m
Ġpartic ip
Ġrec ent
Ġzweit ens
neh mer
u ppen
ig es
Ġl in
am t
Ġda y
Ġer zeug
Ġcom es
Ġour selves
Ġpart ies
sel f
Ġwissen schaft
Ġf ern
Ġi g
ess ion
Ġent er
Ġsign ific
Ġfun ktion
fort un
b ring
Ġto mor
Ġent halten
Ġstr ong
Ġlon ger
Ġtomor row
f ung
o ten
Ġra il
Ġmo dern
Ġbed ingungen
ĠkÃ¶nn ten
ĠgehÃ¶r t
Ġempf e
ĠschlieÃŁ lich
ag ed
Ġdam en
Ġsin n
Ġdra w
z unehmen
rit ts
Ġbericht s
Ġbet ra
Ġfre m
ĠhÃ¶ ch
vorsch riften
ĠnÃ¤ch sten
Ġs ur
Ġg ree
Ġun fortun
Ġges tellt
fin den
Ġstrateg y
Ġbal k
Ġagricult ural
n ers
den ken
Ġfa ir
Ġmonth s
Ġchall en
ich tet
Ġan w
Ġst im
Ġfr Ã¼
Ġdiscuss ion
Ġkult ur
ĠabschlieÃŁ end
jen igen
in ed
Ġp ur
ik en
Ġmon itor
Ġprin zip
rei ben
u gen
Ġd ist
Ġc aus
Ġcont ra
stan den
Ġpap er
Ġm al
ur ing
Ġein be
Ġsp an
Ġem ph
Ġfo und
Ġ3 0
Ġoff icial
Ġb re
Ġm ater
Ġver te
Ġaus fÃ¼hr
Ġra c
Ġexp erien
Ġant wort
Ġreason s
Ġide a
Ġsor gen
Ġeth n
Ġern st
Ġe c
Ġp al
lie d
Ġen ough
Ġam b
Ġsol ution
Ġkontro lle
ĠfÃ¶r derung
k o
Ġs ag
iss ab
im s
Ã¼s se
Ġ200 1
Ġseem s
Ġrei he
issab on
Ġof t
ke i
Ġob ser
wor ten
Ġko h
Ġbudget ary
Ġvol ks
Ġtro tz
Ġlis bon
v ant
Ġw es
Ġl issabon
Ġver g
ter m
Ġra d
Ġarbeit en
Ġind em
Ġant rag
Ġevery one
Ġdisk ut
Ġconsum ers
lei ben
Ġfore ign
Ġd ue
Ġd anger
it ive
Ġcurr ently
Ġflex ib
Ġdiscrimin ation
Ġfis her
c kt
z entr
at is
Ġb od
Ġund ert
fr ist
b est
ÃŁ en
Ġl itt
Ġl uft
ment al
Ġhuman it
ĠunterstÃ¼tz t
Ġkommissar in
on str
ke y
Ġreport s
Ġweit eren
teil t
Ġabsol ute
Ġlitt le
Ġb se
Ġb itte
Ġto b
ll ent
Ġer reicht
ver b
Ġsch l
Ġy es
Ġste lle
vo ll
led ge
zus tellen
go vern
Ġverte id
f re
Ġa ktion
Ġe lement
Ġbe de
Ġgr ie
Ã¤s s
Ġdevelop ing
Ġtra dition
Ġfind et
Ġinn ov
Ġempfe hl
ch es
Ġpr Ã¤
Ġdis ast
rie g
lÃ¤ tz
Ġver hin
Ġres ul
Ġob wohl
Ġfest ge
Ġberichterstatter in
Ġnutz en
Ġguid el
) )
Ġis ra
Ġst immen
Ġse en
Ġra um
Ġtur key
Ġexce llent
el d
Ġge fahr
Ġj un
Ġrel ation
Ġsitz ung
Ġst ability
Ġma kes
la f
gram m
Ġerst ens
Ġagricult ure
icher heit
ĠtÃ¼r kei
Ġg ipf
ic s
Ġdem onstr
Ġke y
ho f
Ġarbeitsp lÃ¤tz
govern mental
ch er
Ġp fl
Ġwicht igen
trÃ¤ ge
Ġactiv ities
Ġdeleg ation
Ġtable d
o ve
or gan
Ġn u
ir c
Ġex cl
Ġbei hilfen
land s
Ġko ordin
Ġselbst verstÃ¤ndlich
Ġbel g
Ġeigent lich
Ġfrem den
Ġc irc
Ġreg ierungen
ull y
Ġbezie hungen
Ġsubsid iar
. )
Ġw Ã¼n
Ġv ict
Ġl ink
Ġver k
Ġme chan
Ġbet roffen
forder ungen
Ġbu ild
Ġtot al
Ġverhand lungen
Ġhon our
Ġbede utet
a pp
e urop
s ystem
u ese
en ch
in zip
Ġi ra
Ġj an
Ġse ver
Ġex pect
ub l
Ġmen sch
Ġprodu ction
Ġact ions
Ġportug uese
Ġjob s
Ġarg ument
Ġguidel ines
c en
s on
Ġder art
Ġse x
Ġsh are
Ġres pe
Ġlang u
. .
g liche
i ffen
at iv
at ors
Ġre in
Ġpro zeÃŁ
Ġer hÃ¶
Ġvorsch riften
Ġprov ided
Ġenc our
f ully
on en
Ġh im
Ġk ap
am b
Ġauf gabe
Ġle ft
se hen
Ġmein em
Ġkon n
Ġkon t
ĠprÃ¤sident schaft
mittel n
Ġincl ude
mÃ¶ glich
Ġvertre ten
ĠberÃ¼cksicht igt
ĠbehÃ¶r den
Ġunt il
Ġemph as
w Ã¼r
en nen
enn ung
Ġgro und
Ġsta ats
Ġnotwend igkeit
bur g
c r
h ens
u ppe
Ġf ield
ig ungs
Ġein heit
Ġr ural
Ġsch ein
Ġgrund rechte
Ġbas ic
mit glie
Ġbew uÃŁ
Ġcost s
at ory
Ġb ur
Ġm Ã¼ÃŁ
Ġpro mo
Ġdo k
Ġqu ick
Ġsp ra
Ġmo b
Ġportug ies
Ġpat ent
Ġstreng th
i ft
Ġb it
ig lich
Ġunser em
fÃ¤h igkeit
Ġdok ument
Ġhe ad
Ġpart ners
Ġfran z
Ġvot ing
Ġled iglich
Ġisra el
Ġbe ant
Ġre de
Ġkommission s
ot t
Ġrat sprÃ¤sident
Ġfr ench
Ġbeit ritts
Ġpun kte
ĠgrÃ¼n den
o te
Ġm er
Ġc ent
ar ten
Ġl ine
Ã¤n de
Ġma int
Ġwer t
la ub
Ġeing es
zie hen
Ġverst Ã¤r
Ġmaint ain
l Ã¼ck
o ff
Ġser b
Ġcor re
h nen
p art
ie w
Ġver z
Ġfin al
Ġ2 5
Ġcongratul ate
ĠsÃ¼ d
Ġh Ã¤
Ġv is
Ã¼ cht
du c
Ġricht ig
Ġmin or
Ġcar ried
Ġperson al
or g
Ġent ire
Ġcomp rom
Ġgew alt
Ġform ul
kon tro
Ġbestimm te
Ġenerg ie
Ġgesam ten
Ġeindeut ig
a f
an ted
ar f
Ġan im
icht en
der s
ab sch
Ã¼s sel
Ġkon fl
Ġagr ar
Ġpop ulation
Ġb rie
ith er
we il
Ġwar um
Ġleg it
Ġwork ers
Ġru le
Ġe ither
Ġr uss
ust ain
ste ll
Ġunter such
Ġsol chen
bar en
Ġtr ue
Ġunfortun ately
Ġa cht
Ġo laf
Ġh inge
Ġan erk
Ġk or
ir m
Ġdes p
Ġneed ed
Ġverb ind
yste me
Ġzweit e
Ġchan ges
i vers
Ġk ennt
Ġse ktor
Ġagre ed
Ġmeet ing
Ġakt iv
Ġforsch ung
Ġl Ã¤nd
Ġmin der
Ġetw a
Ġele ct
Ġimpro ve
Ġverbess erung
Ġprep ared
Ġb zw
Ġn r
Ġk r
em ploy
lich es
Ã¼r z
Ġab sch
Ġinter vention
Ġho hen
Ġ199 7
tre ten
Ġter rit
Ġproced ures
richt ung
atis f
Ġjan u
i ze
i led
p id
s ide
Ġm Ã¤r
Ġe as
Ġbe ha
mit ted
Ġgel ten
Ġbereich en
Ġsignific ant
Ġe duc
Ġan geb
Ġbe merk
Ġer heb
Ġmit teilung
Ġne u
Ġsein em
Ġpo or
Ġgen e
Ġorganis ations
Ġpur p
a ut
n issen
ck en
Ġricht ung
Ġprodu kt
Ġcrit er
Ġgar ant
Ġd est
Ġfa il
Ġra ised
Ã¤r m
fÃ¤ lle
Ġthrough out
Ġumf assen
maÃŁ nahmen
Ġaustr ia
Ġanal ys
a ffen
i ans
Ġn ahr
Ġan g
Ġl ow
gr enz
Ġih n
Ġass ess
ĠmÃ¶glichkeit en
Ġty pe
ĠtatsÃ¤ch lich
b ildung
Ġd r
Ġd isch
Ġs ustain
Ġun ver
Ġre pe
Ġein sch
Ġwe gen
lin e
Ġask ed
Ġval ues
Ġcommit ment
b are
Ġthe men
Ġf ive
Ġr as
Ġj u
la ÃŁ
Ġmitglie der
Ġeff iz
legen heiten
Ġsens e
w Ã¼n
Ġo pf
Ã¤ cht
Ġpro fit
Ġcon ne
ce p
ĠÃ¼ber zeug
Ġdurch ge
Ġunser es
Ġnat ure
Ġass oc
Ġindust r
Ġeinge hen
Ġdefin ition
Ġsever al
d urch
w iesen
Ġex tend
Ġhat ten
fra stru
Ġcar ry
ĠÃ¶ffent lichkeit
Ġvorge legt
Ġmot ion
Ġvergangen en
Ġparte i
Ġaspect s
Ġmater ial
Ġresul ts
f ert
Ġc lar
Ġbe vor
Ġter m
Ã¤ÃŁ t
Ġexpress ed
Ġwach stum
0 3
ges ellschaft
Ġch ance
Ġimp os
Ġprov isions
Ġref uge
Ġindust rie
Ġestablish ed
komm ens
Ġamer ic
Ġfranz Ã¶s
Ġth ing
Ã¼ l
Ã¤n ger
Ġange legenheit
Ġstra f
ĠerklÃ¤r ung
Ġrest r
Ġcontrib ution
Ġlegit im
b y
Ġs etzen
Ġre a
ĠÃ¤nder ung
Ġget an
Ġsc ient
Ġgere cht
bring en
Ġnahr ungs
Ġt ar
Ġs ache
an a
Ġc riminal
Ġn ations
ic ations
Ġso on
ist ischen
Ġfa st
Ġpart ner
Ġinform ations
leg ung
ĠverfÃ¼ gung
Ġsug gest
Ġd at
Ġin fl
Ġbe h
ig r
Ġer arbeit
Ġvor bereit
op h
fol ge
Ġentscheid ungen
Ġrequire d
Ġfrei heit
e llen
Ġv an
le ben
Ġst o
pr inzip
pl an
Ġpers Ã¶n
Ġachie ved
leis tet
Ġsag te
Ġinter reg
Ġhin weisen
Ġgrund legen
Ġtra gen
geb ung
Ġexist ing
Ġergeb nis
Ġdet ail
al ten
al ity
Ġun bed
Ġer ster
Ġge fÃ¼hrt
Ġunter b
Ġwo bei
Ġconf idence
Ġtur n
Ġtats ache
Ġd ut
Ġwer te
Ġex port
Ġinvest ment
Ġallgemein en
c lear
Ġp en
Ġal tern
ass ung
Ġdec ided
ĠgroÃŁ er
pend ent
Ġdialog ue
Ġstellung nahme
Ġb leiben
Ġe ast
Ġl ange
Ġfor der
reich e
Ġbro ad
Ġkomp rom
Ġwee k
m ore
p re
Ġt est
un der
Ġb ank
Ġm ut
Ġc la
Ġc andid
Ġun employ
Ġst age
iel le
Ġch o
Ġhe ut
Ġfl Ã¼cht
Ġpresent ed
b ab
p s
ie ben
ed en
et t
Ġab ove
Ġch ocol
ang t
Ġbet reffen
Ġfund ing
Ġassist ance
Ġpot ential
Ġin frastru
ig te
Ġpro f
Ġor d
zu legen
Ġgem Ã¤ÃŁ
Ġbesch luÃŁ
rÃ¤ gen
Ġbed au
Ġbal ance
Ġlim it
Ġtas k
Ġdesp ite
Ġo ld
Ġan gem
Ġi lle
Ġno te
Ġcon stru
ver ty
op er
ste llt
Ġinter governmental
Ġpo verty
ok ol
Ġzeit punkt
Ġter r
Ġrem ind
Ġseit e
Ġzug ang
Ġcult ure
Ġille g
Ġver absch
Ġwh ose
id ing
Ġer ziel
rit ten
Ġcontin u
zeich ne
Ġvertre ter
Ġdel ay
Ġtal k
at ic
or n
Ġk raft
ed i
gen cy
Ġ1 8
Ġfa cil
Ġ2 1
he ben
Ġmenschen rechts
Ġsay ing
Ġmarket s
Ġur g
Ġvertrag s
Ġtour ism
Ġdoub t
Ġrass ismus
Ġstim me
Ġf oc
Ġv Ã¶lk
ess our
Ġhe ar
au fen
Ġhaus halt
ĠbÃ¼r gern
Ġkontro ll
Ġrev iew
Ġpriv ate
Ġquick ly
Ġchocol ate
b uch
l assen
Ġt at
ar te
Ġan frage
Ġl ight
Ġl Ã¤ÃŁt
Ġcon v
os s
setz ungen
Ġperson en
Ġnie der
Ġstrength en
b od
Ġt im
es ted
Ġfor dern
Ġch ina
Ġkon zentr
Ġlevel s
Ġfurther more
Ġumf ang
Ġtal king
ĠflÃ¼cht l
i kt
u ted
er v
Ġoff er
Ġfinanz iellen
Ġhel d
Ġstrateg ie
Ġpract ice
ĠbegrÃ¼ÃŁ en
Ġcap ital
Ġverg essen
Ã¼l t
Ġbe ar
Ġto p
Ġz entral
Ġz ivil
Ġmitglied staat
Ġbesch rÃ¤n
Ġimplement ed
Ġcriter ia
a gen
Ġt rag
Ġs atisf
Ġver ur
Ġge legenheit
ab kommen
Ġkein er
Ġdenn och
Ġoff ens
Ġregel ung
Ġsy m
c ies
n ommen
Ġ rom
Ġw to
Ġin ste
Ġda durch
Ġgen ommen
Ġur ban
Ġlab our
Ġple ased
Ġcomprom ise
Ġinste ad
a fr
b t
p fen
en ces
Ġm ess
Ġwh ite
Ġex cept
for men
Ġinc or
iven ess
Ġger man
Ġaff ect
Ġspec if
ĠbegrÃ¼ÃŁ e
Ġsuff er
Ġpromo te
Ġbrie f
Ġe ch
Ġh ard
um e
Ġreg eln
ag raph
Ġstat us
Ġte ll
Ġjed em
Ġrechts vorschriften
gesch lossen
Ġread ing
Ġdim ension
Ġrac ism
Ġfisher ies
) :
Ġb ie
Ġan satz
Ġauf genommen
ĠÃ¼ber prÃ¼
Ġmo ve
Ġro ad
Ġbesch lossen
Ġalle in
Ġzwe ck
Ġfol gt
Ġbestimm ten
Ġanges prochen
last ung
Ġcomplete ly
Ġhist or
e c
i ere
is on
Ġh ome
Ġno s
Ġsch em
ges amt
ink i
hand el
Ġknow ledge
els inki
Ġfl ug
bes ch
Ġbestimm ungen
Ġdemokrat ischen
ĠentschlieÃŁ ungsant
Ġprior ity
uf ig
Ġtranspar ency
Ġlebens mittel
Ġvertra uen
Ġcorre ct
er c
Ġth ough
Ġh elsinki
Ġl es
Ġer fahr
Ġde ter
th e
pe ten
Ġverb unden
Ġsit ting
Ġger ichts
Ġlie gen
Ġir gend
Ġinclud ed
ĠermÃ¶ glichen
Ġdisch arge
f ern
i op
Ġp ension
os la
Ġsch okol
sp rech
Ġme isten
ug osla
Ġyo ung
Ġins gesamt
Ġele kt
Ġfoc us
Ġd ritt
Ġs en
Ġein fÃ¼hrung
we gen
ne hm
ist ic
Ġus a
ger ungen
Ġange legenheiten
Ġdan ke
Ġseit en
Ġprom ot
wÃ¼r d
l ies
u ff
ie ht
Ġc ru
Ġre ch
Ġl ist
gr iffen
Ġkon s
ha ben
Ġsin ne
Ġel se
Ġimm edi
dien st
Ġrele vant
d ict
Ġt imes
le ibt
Ġre con
Ġst op
Ġch ild
pr Ã¤
Ġsa fe
Ġhin zu
los igkeit
Ġ4 0
Ġhigh l
Ġzweit en
Ġfran k
Ġhonour able
Ġc ause
Ġun ivers
Ġz ul
Ġpro ceed
Ġer k
Ġab satz
ind ust
Ġat tem
Ġra pid
pr il
Ġwirtschaft liche
Ġevery thing
Ġkomm un
Ġkat astrop
Ġcolleag ues
ehr te
ĠbewuÃŁ t
Ġangem essen
Ġt ab
Ġs us
Ġab sicht
ĠeuropÃ¤ ischer
Ġpre par
Ġref le
Ġrepresent atives
Ġmeth od
Ġconflic t
Ġabsolute ly
b ahn
Ġd inge
Ġf ig
Ġk rieg
Ġand ers
Ġl u
Ġver letz
Ġeff ekt
Ġprodu c
Ġref erence
Ġtreat ies
Ġrequire ments
Ġsuff icient
Ġa pril
Ġin halt
Ġh old
Ã¶ sen
ition en
Ġapp lied
Ġhand els
Ġauthor ity
ikan ischen
Ġeduc ation
c omm
is ely
Ġc ut
Ġges prochen
Ġprov ision
zeich net
Ġverw altung
Ġerinn ern
Ġpoll ution
Ġvict ims
bab we
in nen
Ġa vo
on d
ie b
ar ian
Ġn ationen
Ġha pp
end ing
sp e
Ġarbeit nehmer
Ġricht linien
leg ten
Ġappro ved
Ġnor mal
Ġakzept ieren
Ġversuch en
Ġapplic ation
Ġh altung
Ġn ah
Ġl og
Ġst Ã¤nd
Ġex tern
Ġdis trib
Ġconsider ation
Ġfarm ers
Ġkoh Ã¤r
Ġnu clear
essour cen
Ġspecif ically
a v
is iert
Ġm ass
Ġr un
ik o
Ġfra ud
Ġihr es
Ġimp act
Ġregard s
Ġnam ely
Ġtranspar enz
Ġbeh ind
y n
Ġ x
an ced
Ġein w
th eless
Ġar mut
Ġcont ent
Ġind ic
Ġgleich en
Ġwieder auf
Ġend lich
Ġconsider ed
min ister
Ġvoll stÃ¤nd
Ġval ue
Ġnever theless
Ġkam pf
s icherheit
Ġs k
st re
Ġac cep
Ġliberal isierung
ĠhÃ¤t ten
Ġdienst leist
drÃ¼ck lich
Ġunbed ingt
indust rie
k ung
Ġd aten
an ken
Ġver stÃ¤nd
Ġr ate
Ġpar agraph
Ġle isten
Ġsch iff
ure d
Ġdurch aus
Ġhand eln
Ġrespon se
Ġcrit ic
Ġproje kte
Ġtob ac
organ isation
Ġm ann
Ġin e
Ġun e
Ġdie jenigen
ort h
Ġde z
Ġma x
Ġapp ear
igh ted
Ġspe zie
Ġjed es
Ġbest Ã¤t
Ġsta ff
Ġexp la
Ġopportun ities
Ġbeg lÃ¼ck
Ġmilit ary
Ġdat a
Ġkomprom iÃŁ
Ġoffens icht
Ġtobac co
Ġb leibt
or en
Ġnach halt
Ġac p
ok oll
Ġany thing
Ġhand el
wend et
Ġoff ice
ha upt
Ġiniti atives
Ġrece ived
ĠschluÃŁ fol
ĠgeschÃ¤fts ordnung
off ice
ĠbeglÃ¼ck wÃ¼n
e ign
f ang
Ġw eder
at ten
Ġm is
ier s
Ġcon stit
Ġover all
Ġlie be
Ġergeb nisse
Ġobvious ly
Ġopf er
Ġconne ction
Ġcandid ate
b ru
g u
Ġo ught
sch t
Ġau gen
Ġr ene
Ġ1 6
ish ed
Ġtra ining
Ġnat o
pro du
fra ktion
Ġgest immt
Ġprec isely
d ing
i j
p o
Ġp urs
Ġh ol
Ġc alled
Ġl ok
ter day
Ġcomm ent
ĠmÃ¶ chten
Ġdurch fÃ¼hrung
Ã¶r en
Ġwieder hol
Ġsicherheit s
Ġredu ce
Ġpat ten
Ġ19 8
Ġerne ut
Ġyes terday
Ġextern al
t ain
Ġt reffen
Ġin spect
Ġn orth
ib e
ag ing
Ġpropos e
Ġmo vement
Ġfe bru
Ġak p
Ġmod el
Ġaspe kte
Ġvorliegen den
Ġgree ce
Ġkennt nis
z ess
in ation
ll te
us ions
Ġzu dem
ein d
ort ion
Ġ1 7
Ġam ount
Ġzus atz
ism s
Ġpl ans
Ġrec ently
Ġincre ased
reit en
Ġverw alt
Ġbehand elt
Ġmonitor ing
sprech end
a z
is is
Ġm and
Ġe isen
Ġun ac
Ã¤ um
Ġvor h
ist ische
Ġta kes
Ġman uf
Ġgrund satz
Ġgeb racht
Ġcr isis
Ġstruktur fonds
ĠgegenwÃ¤rt ig
bour g
Ġexperien ce
Ġmanuf act
b el
l ing
Ġt on
Ġth us
Ġan nahme
Ġge fordert
ind est
Ġsu ppor
be zÃ¼
Ġus ing
Ġzum indest
Ġdiscuss ions
Ġvol k
ĠfÃ¶r dern
Ġpract ical
Ġgesundheit s
Ġleit linien
Ġfish ing
Ġcoordin ation
Ġrene w
b et
er weise
Ġd on
Ġt en
Ġs ach
Ġp ack
Ġi ll
ll ar
Ġso und
ĠÃ¼ber haupt
sp l
Ġcomm ents
Ġkon sequ
ick ing
zu fÃ¼hren
Ġmon et
Ġexp er
Ġsom it
ho ben
Ġkonk rete
Ġcult ural
Ġdring end
Ġunemploy ment
ĠvÃ¶lk er
Ġo il
Ġentw urf
Ġrel ating
Ġafr ika
Ġrev ision
Ġander er
Ġgrenz en
Ġret ur
iter ran
Ġvors itz
Ġdiskrimin ierung
h em
le isten
Ġj ur
qu ate
Ġsect ors
ĠgewÃ¤hr leisten
Ġverpflicht ungen
Ġext ent
Ġcoh es
ĠarbeitsplÃ¤tz e
Ġcirc um
Ġunac cept
m utz
te ile
Ġzu stimmung
Ġcoun ter
Ġta g
Ġhe ard
Ġparliament ary
ken nen
Ġentsch ieden
Ġdam age
Ã¤m t
reg el
Ġgesam te
r ist
Ġdies bezÃ¼
Ġsu per
wo gen
Ġbez Ã¼
Ġverbess ern
Ġstar k
Ġocc as
Ġplen um
ĠprÃ¼ fen
Ġconsequ ences
Ġaufmerksam keit
Ġdanger ous
Ġgrie chen
Ġbit ten
Ġincor por
e cted
z ug
is ieren
Ġkon ferenz
Ã¼n st
ĠÃ¤nder ungen
Ġbest and
Ġget roffen
zus etzen
Ġinde pendent
bed ingungen
Ġvergangen heit
Ġscient ific
igr ation
f rieden
m os
it en
Ġun er
Ġk ern
ber icht
Ġcon dem
Ġele ctions
Ġimpro vement
ĠberÃ¼cksicht igen
Ġconcl usions
Ġschwier igkeiten
ie f
Ġc red
Ġer schein
Ġgen et
Ġwo che
forder ung
Ġbereich e
spr icht
Ġwichtig sten
Ġliberal isation
Ġwesent lichen
ĠbemÃ¼ hungen
Ġhinge wiesen
Ġles ung
o x
Ġd ro
st ra
ll ten
Ġk a
Ġver urs
lieÃŁ en
spro zeÃŁ
ĠhÃ¶ch st
Ġschein t
Ġpurp ose
Ġcohes ion
d es
Ġs Ã¤mt
et s
Ġauf zu
ab el
Ġgesch affen
Ġbed arf
Ġausge zeichne
Ġris ks
ĠfÃ¤ llen
Ġfischere i
Ġtab ak
Ġunaccept able
f ect
s eit
Ġg iving
Ã¤ ter
st att
Ġvor be
ze hn
Ġspe z
Ġbec om
Ġkolle ge
Ġur spr
Ġaff ected
Ġgut en
Ġcr ime
Ġrefer red
ente il
Ġfortsch ritte
Ġkoordin ierung
iterran ean
it ions
Ġe hr
Ġun ge
Ġl ive
be k
ĠkÃ¶n ig
rie ben
Ġcreat ing
Ġprot okoll
Ġtraff icking
Ġanw es
Ġcru cial
Ġproduc ers
r aten
in iti
Ġa round
it ure
Ġc amp
Ã¼ g
Ġfor derung
Ġex act
Ġbes org
Ġqu ot
ze ugen
Ġcons ult
Ġdire ction
ĠfÃ¼hr t
Ġfran ce
Ġinstrument s
Ġpow ers
Ġaut om
Ġverhin dern
ĠbezÃ¼ glich
an ze
Ġal most
Ġne uer
our n
Ġland es
ĠwÃ¤hr ung
Ġzahl en
Ġdirect ives
Ġje weil
Ġaccord ance
Ġcreat ed
Ġoffensicht lich
ch ter
Ġs ix
te en
gen er
iss ions
ver gen
Ġspe e
Ġthan ks
Ġsub stant
olog y
Ġbetr ug
Ġstra ÃŁ
Ġbar n
tem ber
Ġnahrungs mittel
w and
Ġth reat
ir es
Ġver hÃ¤lt
il ar
Ġde ath
Ġcom ing
Ġfin n
Ġ2 4
ieren den
Ã¼tz en
Ġmon aten
ĠÃ¤nderungsant rÃ¤gen
Ġdiscuss ed
Ġbrit ish
Ġgipf el
Ġju gend
Ġschokol ade
2 00
w h
Ġl iving
Ġde fen
Ġma g
Ġall oc
Ġsie ht
Ġta ck
olog ical
Ġexp end
zus ch
Ġserious ly
Ġtot ally
Ġgebie ten
Ġital ien
Ġbil ater
Ġintend ed
n ungen
y p
on s
Ġs pr
Ġh uge
Ġan zu
Ã¤ uÃŁ
Ġzu stimmen
ach ung
Ġle ar
Ġber u
Ġfinanz ierung
Ġgood s
Ġqual itÃ¤t
Ġsim ilar
Ġze igt
Ġev al
Ġfal le
o od
Ġc e
Ġun z
Ġver gleich
Ġso gen
Ġme er
Ġgen u
Ġout side
fahr ens
Ġmin imum
Ġform s
Ġmeas ure
Ġeffect s
verkehr s
Ġreach ed
f rei
w ise
it ing
Ġm et
Ġf ahr
Ġbe denken
ing d
Ġha upt
gr iff
Ġbesch l
olog ie
Ġkonk reten
Ġpriv at
Ġcl ose
Ġsolidar ity
Ġexpend iture
n ern
Ġre ject
Ġver halten
Ġj en
Ġcomm er
Ġfre ue
Ġmy self
ri ft
Ġmor ning
Ġander erseits
Ġconcl usion
ĠgehÃ¶r en
Ġvorgeschlagen en
Ġkrit erien
Ġmilit Ã¤r
Ġvern Ã¼nft
Ġmonet ary
Ġc ross
Ġv ital
Ġso ur
Ġges che
Ġho ffen
ous ly
Ġpl ann
wir ken
Ġzie hen
Ġlim ited
Ġbegin n
Ġentsprechen den
Ġdurchge fÃ¼hrt
Ġconv in
b Ã¼r
Ġt ier
Ġg anze
Ġbe am
Ġl ot
ut en
ff t
Ġsch re
Ġex erc
Ġpos sibility
Ġcommun ities
Ġinvest ig
Ġbro ught
sto ffe
Ġtry ing
Ġmob il
Ġsustain able
) .
r upt
Ġan str
ig are
ul f
Ġge g
Ġauf gaben
Ġde v
Ġent hÃ¤lt
Ġent lastung
ges undheit
Ġstat ed
Ġac ross
Ġmore over
Ġdec lar
Ġger ing
Ġconsider able
lau fen
zie hung
aussch usses
stitution al
ĠkÃ¶nig reich
m a
n ungs
er ungen
Ã¼ t
ra hmen
Ġda gegen
Ġmit t
Ġent sprechend
Ġapp lies
lÃ¤ ÃŁ
Ġsc ope
Ġinstitution al
ĠweiÃŁ buch
Ġasyl um
entw ick
Ġrefuge es
Ġheut igen
Ġsuppor ted
e g
Ġa way
Ġb ild
Ġbe ein
ul y
Ġco de
Ġex tens
Ġme x
eren ces
uch t
Ġfa ce
Ġparliament s
Ġdeb t
ĠÃ¶ k
Ġfest stellen
Ġregel ungen
ĠtÃ¤t igkeit
Ġchallen ge
Ġcircum stances
or gung
Ġp pe
Ġg ab
Ã¼ ro
id ay
Ġal ong
Ġges tern
ure au
Ġste ts
Ġgo es
Ġapp e
Ġspe aking
Ġconf irm
Ġfraktion en
ĠbeschÃ¤ft igungs
Ġzweif el
Ġve h
ĠausfÃ¼hr ungen
Ġkonfl ikt
Ġelekt ron
Ġeisen bahn
h aus
i que
p tember
x is
y ing
er ve
it ation
Ġg ern
Ġun an
Ġne ben
Ġsch le
Ġse ptember
se c
ue llen
Ġentwick eln
ĠmÃ¶glich st
Ġeinz ige
Ġban an
Ġche ck
Ġdisast er
Ġkap ital
Ġkommissions mitglie
Ġretur n
b rauch
j ahr
k raft
w here
at ik
Ġb ildung
Ġb ureau
Ġe mer
ar k
Ġi i
ig ungen
Ġver stehen
il ities
Ġpr ice
Ġse a
sen s
Ġcap ac
Ġcomb at
Ġadministr ative
Ġgre en
Ġminder heiten
Ġaccep ted
Ġver d
Ġver wendung
Ã¤n den
Ġse ch
gr uppen
Ġnoch mals
Ġdire kt
Ġeff icient
bar keit
Ġeing ere
wor ks
oun ts
Ġausge wogen
Ġposit iv
Ġprior ities
Ġverpf lich
Ġgebie te
oph ob
Ġs on
at isch
Ġc y
Ġre ag
Ġver mitt
am ber
qu al
ĠÃ¼ber sch
Ġgen ug
anz en
wer te
Ġgew or
Ġop eration
Ġrel ig
Ġrem ember
Ġant i
Ġbeit ragen
Ġallow ed
Ġaccess ion
Ġaddition al
Ġben Ã¶t
ĠlÃ¤nd lichen
Ġvorh anden
Ġcondem n
a ke
f eind
p olit
v al
Ġs ort
ie ll
Ġin tens
Ġein iger
ach ten
Ġse par
ens ions
Ġinter oper
Ġbes ten
Ġob tain
Ġsp ir
Ġsicher lich
ac io
Ġresol utions
Ġmed ium
Ġerg reifen
Ġverkehr s
Ġpal acio
Ġfestge legt
Ġterrit or
Ġfrank reich
Ġx en
g Ã¼lt
in s
Ġk Ã¼
Ġver ste
Ġcon tr
Ġsch we
me er
Ġam t
Ġstr ict
Ġprob ably
pt ion
Ġjust iz
Ġwicht iger
Ã¤m pfen
Ġinternational e
Ġerw arten
acht ung
Ġset ting
Ġvorge hen
Ġshow n
Ġann ual
Ġparte ien
Ġproper ly
Ġbill ion
ĠkÃ¼nft ig
Ġbalk an
Ġpartners hip
kontro lle
Ġrestr ict
ĠentschlieÃŁungsant rag
Ġdefen ce
Ġxen ophob
a ken
Ġd ate
Ġver ring
Ġst ad
Ġer sch
la re
Ġher kunft
sp er
ib ility
Ġpolic e
ĠÃ¤nder n
Ġbegr enz
Ġdiscuss ing
richt linie
Ġredu ction
Ġklein en
Ġacht ung
Ġeffiz ient
w ill
ch rÃ¤n
Ġs ent
Ġc a
Ġn immt
Ġun g
Ġre cy
Ġr and
de ll
Ġreg ime
chte t
Ġsel f
ateg or
Ġeinge b
Ġerg Ã¤n
Ġkont in
Ġurg ent
ĠschluÃŁfol gerungen
Ġcontr ary
h nung
Ġt em
Ġbe y
Ġi ran
Ġer ika
Ġdes ign
Ġaus s
Ġex ch
Ġch amber
Ġsp o
wer k
vent ions
Ġdevelop ed
Ġnat ural
Ġnotwend igen
Ġwelt weit
Ġminister s
Ġcaus ed
europ ean
ubl ik
Ġavo id
Ġanstr eng
Ġverpflich tet
Ġd ru
Ġw r
ar ily
el ten
Ġl at
Ġj Ã¼n
Ġgr ant
Ġparlament ar
pl iz
Ġem issions
Ġ199 6
Ġganz en
Ġli ability
Ġeffect ively
ĠÃ¤ hn
Ġestablish ing
Ġwesent lich
Ġproje kt
k om
v ision
Ġan schlieÃŁ
Ġzu frieden
Ġda ys
ff nung
Ġse ll
ĠÃ¼ber gang
Ġber ichte
ungs verfahren
Ġinvest itionen
Ġimplement ing
Ġmil k
Ġlang frist
Ġspeak ers
att le
Ġkult ure
Ġentsprechen de
Ġadministr ation
Ġlin ie
ĠfrÃ¼ h
ĠprÃ¤ z
Ġda uer
Ġab stimm
Ġen able
Ġbet onen
arbeit et
Ġzeit raum
Ġright ly
Ġreform s
Ġteil en
Ġbestehen den
ĠstÃ¤rk er
Ġig c
Ġh or
Ġan spruch
Ġto ok
Ġk Ã¼rz
us ed
em b
ic ien
hr en
Ġst re
Ġpr im
be hÃ¶r
Ġrecogn ise
Ġdru ck
Ġwr ong
e ben
f s
n or
er zeug
Ġb i
om in
Ã¶ st
Ġdar stellt
Ġhal f
Ġpolitik en
Ġtechnolog y
Ġgesetz gebung
Ġexpl an
Ġsan ctions
Ġrespe kt
Ġaltern ative
Ġbesorg nis
in den
Ġn ord
Ġein druck
Ġaus zu
op o
Ġgr Ã¼nd
Ġqu ant
Ġho he
Ġprodu ce
Ġviel mehr
Ġmor al
Ġdemocrat s
Ġbess ere
Ġhumanit arian
Ġgerichts hof
Ġunan im
Ġcapac ity
Ġanstreng ungen
ĠjÃ¼n g
Ġd iv
Ġw al
it ude
Ġf Ã¼
Ġf as
os ed
Ġ1 00
Ġinter p
ran k
Ġac qu
Ġint ention
Ġdevelop ments
arbeit ung
Ġreal ity
mar k
Ġrepresent ative
Ġbl ock
Ġ8 0
Ġdirect ly
Ġbusiness es
Ġterr or
Ġgesche hen
2 0
Ġver trÃ¤ge
Ġau dit
Ġj Ã¤hr
Ġher z
Ġunion s
Ġpol ize
ges etz
Ġen orm
Ġdar stellen
Ġbal d
Ġpress ure
Ġobser v
Ġdeter min
Ġveh ic
Ġbey ond
i ance
l o
u fen
Ġw est
at ch
Ġf le
Ġer lÃ¤
Ã¤n gt
Ġsch o
Ġent gegen
ges te
ok raten
Ġwo chen
Ġjed e
Ġem bar
Ġins of
ire d
Ġview s
Ġfun ction
Ġdef end
Ġactiv ity
leit et
Ġnet works
Ġbetroffen en
ourn al
ĠerlÃ¤ ut
le l
Ġein ver
Ġge kommen
Ġj ournal
Ġle icht
Ġwith d
Ġsp Ã¤ter
str Ã¶
hl en
Ġverb r
Ġjahr h
Ġmin utes
Ġaussch lieÃŁ
Ġtreat ment
Ġuse ful
Ġcurr ency
Ġzahl reiche
urop Ã¤
Ġexpl o
Ġsolidar itÃ¤t
Ġschul den
Ġofficial s
Ġfremden feind
mÃ¶glich keit
ĠmÃ¼ÃŁ te
Ġanalys is
afr ika
gu ard
3 0
m et
s itz
re hens
Ġm io
Ġzu ge
Ġfor ces
op ol
ĠÃ¼ber nehmen
Ġber lin
ze uge
Ġinc in
Ġmar ch
reich end
rÃ¤ ft
Ġrequ ires
gem Ã¤ÃŁ
Ġpra xis
lau f
Ġens uring
Ġsor ge
Ġdifficult ies
Ġharmon isierung
Ġoppos ition
Ġverfol gen
Ġethn ic
Ġkonn te
Ġabsch luÃŁ
initi ative
Ġexact ly
Ġgewor den
u ed
in king
Ġn etz
Ġn ame
im ate
Ġde ep
Ġaus gaben
Ġum gesetzt
ĠprÃ¤sident en
uss els
Ġgew esen
ĠmaÃŁ e
gest immt
Ġtrans fer
grund lage
Ġu k
Ġty p
Ġdrit tens
Ġvolks gesundheit
ĠbeglÃ¼ckwÃ¼n schen
g licht
l ier
u ations
Ġb ig
Ġb Ã¶
Ġh ar
Ġn iel
Ġso fort
Ġne ar
Ġum st
ien ce
Ġper fect
pro gramm
fl uÃŁ
Ġmed iterranean
Ġrep ublic
Ġprior itÃ¤ten
Ġbr ussels
Ġfam ily
ĠermÃ¶ glicht
Ġpa id
Ġbod y
Ġlu x
Ġgriechen land
Ġscho ol
e f
i end
j ust
l ant
y se
Ġt w
at ure
Ġm Ã¤n
Ġo z
Ġbe kommen
Ġl isten
Ġauf nahme
ben d
Ġpar ts
Ġde alt
Ġaus bildung
Ġsh ip
Ġch ang
Ġper spect
Ġfest gestellt
Ġarbeits losigkeit
Ġpost al
Ġwort h
Ġaspe kt
Ġrad io
Ġassess ment
Ġ ort
Ġa de
Ġs ide
Ġe her
ar en
ent sche
ge hend
Ġr essourcen
Ġer eign
ist isch
Ġentsch lossen
rÃ¤ fte
Ġmittel n
ffent lich
reg ion
Ġwish es
Ġbr Ã¼ssel
Ġcommit ments
Ġadopt ion
Ġwahl en
mitt ag
Ġparticip ation
Ġlangu age
Ġmess age
a ign
er ungs
Ġb ad
ent lich
Ġein satz
Ġver me
Ġver ehrte
il iation
Ġfor mer
Ġno v
Ġal ban
ier ter
Ġpre m
Ġmehr ere
fall en
Ġmill iar
Ġur ge
Ġmed ia
Ġpoin ted
Ġcre ation
Ġvot es
Ġsan ktionen
Ġdocument s
mÃ¤ÃŁ ig
ĠerfÃ¼ llen
Ġportugies ischen
Ġrepe at
Ġcamp aign
u ern
Ġd Ã¤n
Ġs end
re c
te chn
Ġi re
Ġein f
Ġr ise
um s
Ġcon cept
Ġge leistet
Ġge Ã¤uÃŁ
ver sch
Ġvor rang
Ġex em
Ġwor te
Ġacc ident
hÃ¶r en
Ġsee k
eth eless
Ġ6 0
Ġafric an
Ġadv ant
Ġnon etheless
Ġdemand s
Ġdiskut ieren
Ġbod ies
Ġnieder l
Ġgeg enteil
Ġexch ange
b ank
z ust
Ġd ise
Ġm id
Ġbe ginnen
Ġl Ã¶sen
ul s
Ġde ad
Ġvor an
Ġreg ret
ud ed
Ġkein es
arbeit en
press ion
ĠauÃŁer ord
Ġcompet it
ktor en
Ġdeal ing
Ġdel iver
Ġaccept able
Ġlook ing
Ġthird ly
Ġharmon isation
Ġdet a
gew icht
andid aten
Ġverz Ã¶
Ġverabsch ied
entsche id
u ber
is te
Ġein haltung
Ġver an
am m
Ġauf bau
Ġvor her
ste ller
Ġch air
Ġbes eit
Ġbes itz
ement s
sib ilities
Ġother wise
Ġact ual
ĠmÃ¶glich erweise
Ġgemeinschaft lichen
Ġvers ich
Ġhigh ly
Ġsign al
Ġnie dr
Ġmain ly
Ġsimp le
Ġsubsidiar ity
Ġira q
Ġcent ur
ĠmÃ¤r z
Ġassoc i
Ġindustr ial
Ġanwes end
Ġlear n
Ġspir it
Ġwithd ra
Ġire land
c a
Ġt re
Ġa ktionen
Ġb Ã¼ro
Ġin it
Ġl om
Ġha ider
Ġma i
Ġar rang
au ft
Ġsol ana
ell os
kon om
Ġsom et
Ġlet ter
abil itÃ¤t
Ġerne uer
Ġear lier
Ġcolleag ue
entw urf
ĠfranzÃ¶s ischen
Ġech o
Ġspez if
Ġnov ember
Ġs ter
it ious
Ġm os
Ġbe in
Ġbe weis
ur ance
Ġre chn
Ġein schlieÃŁ
Ġl ater
Ġso v
Ġge k
Ġab zu
Ġdi vers
Ġsa ge
Ġ199 5
Ġ3 7
Ġland wir
Ġdra wn
Ġgesam t
Ġlea ve
Ġtranspar ent
Ġschwier ig
Ġevent s
Ġaustr ian
Ġrece ive
Ġsuccess ful
Ġzweif ellos
Ġbalk ans
Ġeinbe ziehung
Ġverteid igung
ĠhÃ¤ ufig
Ġforder ungen
Ġsafe guard
Ġniel son
Ġg laub
Ġbe ob
Ġl ar
Ġfor est
Ġal one
lie gt
Ġgr Ã¼
Ġcomp rehens
Ġprov iding
Ġiniti ativen
Ġportug al
Ġglau ben
Ġcommit ted
Ġgene hm
Ġverwalt ungs
Ġinit ial
g ing
o ught
s etzt
Ġa ck
or ge
Ġv ir
Ġan fang
ly ing
Ġent stehen
Ġspe ed
isten ce
Ġant worten
Ġabgeordne ter
Ġreason able
Ġerforder lichen
Ġimpro ving
ĠerklÃ¤r t
Ġze hn
Ġbu iten
ĠerwÃ¤ hnt
Ġschwer wie
Ġspiel en
Ġground s
Ġurspr Ã¼n
bÃ¼r ger
Ġf la
Ġver m
ver trag
Ġges etzt
Ġbes ondere
Ġapp rec
Ġgen annten
Ġfe llow
Ġsub mitted
Ġgleich e
ell ing
Ġbeit ritt
ĠÃ¶ffent liche
ĠvorschlÃ¤ gen
Ġbegin ning
Ġfehl er
Ġversuch t
Ġplen ary
Ġaktion spl
Ġbur den
Ġattem pt
Ġson st
Ġsomet imes
b al
j Ã¤hr
o int
Ġw Ã¤ren
Ġs al
it ives
ie de
Ġc le
Ã¤ her
Ġz ut
Ġk n
ge ts
Ġar men
Ġpolit isch
Ã¶r t
Ġconc iliation
Ġfe ed
Ġmon t
Ġhaus es
Ġorgan ised
Ġhel fen
Ġ9 0
vorsch lag
Ġviol ence
ĠverÃ¤nder ungen
Ġchallen ges
Ġempfehl ung
Ġkonzentr ieren
Ġimmedi ately
Ġmax imum
5 0
e ver
m aking
r ic
Ġa ge
Ġw id
Ġw onder
Ġin f
Ġg ives
Ġan p
Ġst ock
ach tet
Ġges ehen
Ġprop ortion
Ġfinanz ielle
Ġletz t
Ġfol ge
Ġbegr Ã¼nd
Ġ200 2
Ġderzeit igen
com ing
Ġremain s
ĠÃ¼berein kommen
Ġspra chen
Ġmer ely
Ġerfahr ungen
gener al
Ġlux em
in ter
Ġa ctive
Ġth ous
Ġth ought
un kte
Ġf ear
Ġk ar
Ġha ar
Ġim pl
Ġcon du
Ġsch Ã¼tzen
we ist
etz ung
uch en
Ġte ile
Ġ2 3
Ġsp rache
Ġpre is
Ġkolle gin
pro b
leg ungen
Ġfinan cing
Ġadd itives
Ġregional en
Ġzun ehmen
Ġkonk ret
Ġbeteil igung
Ġear ly
Ġext ra
ĠgrundsÃ¤tz e
Ġilleg al
Ġrefle ct
Ġinterp ret
Ġack now
Ġthous and
a cy
g elt
i ro
Ġp ensions
Ġf lag
Ġn ennen
Ġk inn
Ġre formen
Ġl angen
Ġpr Ã¤s
Ġab fall
Ã¤n e
Ġgr uppe
ze igt
Ġdis app
Ġfir m
Ġmon opol
wor tet
Ġend gÃ¼lt
Ġfr iday
Ġscha den
Ġneg ative
Ġbl ick
Ġabsol ut
Ġorganisation en
Ġclos ely
Ġopt im
ĠunabhÃ¤ng ig
Ġwes halb
Ġverbind ung
Ġaktiv itÃ¤ten
Ġjanu ary
Ġka um
Ġvehic les
Ġkinn ock
c el
e x
un dert
Ġver tr
Ġdes cr
Ġaus einander
ive au
Ġent spricht
Ġwill en
aus ch
gr uppe
Ġhe im
Ġ2 8
Ġconc entr
ger ung
Ġcons ist
Ġsol utions
Ã¼tz t
Ġway s
Ġtechn ischen
Ġfall s
Ġnun mehr
Ġkom pliz
Ġnutz ung
Ġheraus forderungen
Ġstep s
Ġira k
Ġlangu ages
Ġencour age
Ġanim als
Ġang ol
ĠÃ¼berzeug t
m and
Ġs agt
un sch
Ġg ain
Ġun mittel
as bourg
Ġre den
Ġer r
Ġge Ã¤nder
Ġgr unde
Ġhe art
ĠmaÃŁ nahme
Ġet ik
Ġmittel meer
Ġqual ifiz
Ġtrans ition
zeich nen
Ġrep la
Ġverschieden e
zess es
Ġspee ch
Ġmilliar den
b r
Ġw anted
Ġf er
ig ran
us h
ic it
im ent
Ġvor legen
ind et
Ġsa v
Ġpre fer
sam m
los en
Ġgesch ieht
Ġletz te
Ġatt ack
Ġinvol ving
Ġcontrib ute
Ġkrit ik
Ġintrodu ced
Ġstabil itÃ¤ts
Ġverpflicht ung
Ġcoh erence
Ġtraff ic
Ġspra ch
Ġeinges etzt
Ġanim al
b it
i ber
Ġb au
Ġbe ide
Ġfor get
Ġnach dem
ang s
Ġpeop les
geb ie
Ġrespon d
Ġbed ro
Ġredu cing
Ġsec ret
Ġundert aking
Ġinnov ation
Ġunivers al
ĠkohÃ¤r enz
Ġjeweil igen
Ġconvin ced
Ġeinver standen
un ch
Ġb la
Ġb ot
an ten
an de
Ġo ber
Ã¤ us
Ġbe wer
Ġj ene
Ġle ist
Ġdo llar
Ġme ps
Ġrat s
Ġcons erv
Ġdec ember
Ġsozial dem
Ġgesch ichte
gend es
Ġadop ting
Ġverein ten
fÃ¤ llen
Ġstrateg ic
Ġsm ok
Ġredu z
ĠerklÃ¤r en
ĠerklÃ¤r ungen
Ġwettbewerbs fÃ¤higkeit
Ġfamil ien
Ġamb itious
Ġkonn ten
Ġfig ures
Ġbecom ing
Ġxenophob ia
) ,
m ed
en der
Ġno ise
Ġcon stant
Ġde pend
Ġra ise
Ġfre it
Ġprov ides
Ġhaus e
Ġgesch lossen
Ġbud gets
spro gramm
Ġkommen den
Ġstatt finden
ĠverfÃ¼ gen
Ġheraus forderung
Ġcompan y
Ġrecommend ation
Ġnatur ally
Ġcover ed
Ġjanu ar
bod y
yn am
Ġmanufact ur
Ġsubstant ial
c os
k Ã¼nd
Ġw it
Ġf onds
Ġf ulf
Ġn eit
Ġbe finden
Ġz im
Ġein setzen
ol id
ul ated
Ġer griffen
Ġde g
Ġvor haben
ab sicht
ik ation
Ġen for
Ġdar aus
Ġstr asbourg
fÃ¼ gen
Ġdec ide
utz t
hand els
Ġfest legung
Ġrechts grundlage
Ġbring t
Ġbew ert
Ġze igen
Ġstruct ures
Ġsupp lement
Ġbekannt lich
Ġinst ance
ĠerfÃ¼ llt
Ġbuild ing
Ġanerk ennung
Ġmann er
Ġrechn ungs
Ġneit her
v i
in ational
an lagen
Ġh ung
Ġg a
Ġun able
Ġfor th
Ġne igh
for d
Ġar r
Ġnational e
spr Ã¼
ĠauÃŁer halb
Ġgl Ã¼ck
Ġdeut sch
Ġrep ublik
ĠgrÃ¶ÃŁ ere
Ġbehand lung
Ġvoraus setzung
Ġocc ur
Ġstabil itÃ¤t
Ġorigin al
Ġaddress ed
Ġwee ks
Ġfunktion ieren
ĠpersÃ¶n lich
Ġdut y
Ġhapp y
ĠsÃ¤mt liche
Ġneigh bour
f le
v ic
Ġa bend
Ġin ten
Ġh em
Ġl ud
ol ution
Ġwe ak
Ġpr ices
ver se
Ġab hÃ¤ng
Ġent s
Ġfin de
Ġprodu ced
Ġsay s
ell schaften
Ġnie mand
Ġmind est
Ġfreedom s
eder al
Ġbeteil igt
Ġleader s
unter nehmen
Ġkeiner lei
Ġexcept ion
Ġkons ult
Ġdez ember
Ġcommer cial
Ġcy pr
opo ul
Ġhaar der
i ens
Ġv ess
Ġfor mal
im ately
Ġse le
iv al
Ġunter nommen
Ġkon stru
Ġsub stances
rÃ¤ gt
ha fte
Ġknow n
Ġfall en
Ġeinge gangen
Ġestablish ment
Ġgef unden
je cted
Ġbef assen
01 0
Ġben ach
ĠÃ¼brigen s
Ġmult inational
schein lich
Ġcontain s
Ġfrieden s
Ġincreasing ly
Ġverfol gt
best imm
Ġameric an
Ġinfrastru ct
igare t
ĠÃ¶k olog
Ġrecy cl
ĠausschlieÃŁ lich
Ġcompetit iveness
b ild
at ically
re b
Ġm ist
Ġh ig
Ġbe absicht
Ġein stimm
Ġl aufen
Ġver h
Ġr ig
Ġpro sec
Ġal ten
Ġmit arbeit
Ġsch uld
Ġex cess
ann te
Ġch rist
Ġapp ar
Ġcomp lex
Ġmo der
Ġricht ige
pro gram
Ġfr iend
Ġris iko
Ġgest alten
Ġlaw s
Ġdien en
Ġappropri ations
Ġann oun
ĠÃ¼berw achung
Ġbor ders
ĠmiÃŁ brauch
Ġbetra chtet
Ġderart ige
Ġminor ities
Ġbie tet
Ġbuiten weg
m on
m ission
n Ã¼
w an
y ear
Ġd ynam
Ġe co
Ã¤ den
om p
ra k
Ġas king
Ġab stimmen
sp ra
Ġstr en
Ġsp ent
Ġsp ain
Ġwar n
Ġsit uations
Ġsub st
ak a
ak ter
Ġass emb
amp ere
Ġtechn ische
Ġatt itude
Ġkomm e
Ġtur k
Ġnor men
ĠhÃ¶ he
maÃŁ en
res pon
Ã¤hl t
Ġsech s
Ġcomprehens ive
Ġfreit ag
Ġhig her
f alt
g os
w ahl
Ġp act
Ġg vo
Ã¤ st
Ġsch ritte
Ġgr uppen
Ġgr anted
Ġinform ed
Ġris iken
stru ktur
Ġjo in
Ġakzept iert
ĠzustÃ¤nd igkeit
Ġhappen ed
Ġsl ow
Ġeas y
Ġinsof ern
Ġcentur y
Ġt arge
Ġt ampere
at astrop
Ġe g
Ġk aka
Ġein fluÃŁ
Ġha ft
et te
Ġer such
ff end
Ġaus reichend
Ã¤n glich
sp arte
Ġdo ct
Ġpropos es
Ġwo llte
Ġcommitte es
ĠÃ¶ l
Ġvers ion
Ġliberal en
Ġkontro llen
Ġeng agement
Ġhervor ge
Ġunterschied liche
Ġstaat lichen
Ġopt ion
ron ic
Ġvereinbar ung
Ġetik ett
Ġzim babwe
i ot
o st
w enden
al er
Ġz erst
us es
Ġpro of
kt ors
iel t
Ġgen Ã¼
Ġcomp ens
Ġinc ome
Ġind ire
Ġappro val
Ġ. ..
spro gram
Ġerfol gen
Ġlab elling
ĠfÃ¤ lle
ĠgegenwÃ¤rt igen
Ġfern er
Ġenter pr
Ġpfl icht
ĠsÃ¼d afrika
Ġpen alt
Ġrenew able
mutz ung
ĠstraÃŁ burg
Ġgenu ine
Ġexerc ise
ĠergÃ¤n z
Ġrecycl ing
b or
p ft
Ġw ants
es ten
un sten
re aten
st at
Ġl ives
Ġver Ã¶
Ġcon dition
Ġge ograph
ore d
str ateg
Ġfre qu
Ġany one
Ġger ne
Ġrec ord
Ġmed ien
richt ungen
Ġrep ly
gemein schaft
ĠdÃ¼r fte
Ġeigen e
Ġconcl ude
Ġequal ity
Ġdrit ten
Ġbetra chten
Ġportugies ische
icien cy
Ġassemb ly
a pt
n s
w esen
Ġth inking
Ġb io
Ġp orn
Ġha up
Ġfor men
Ġco p
Ġco ast
Ġne ues
Ġcommission ers
if or
Ġinter in
Ġgr atul
Ġ2 7
Ġgo al
Ġprodu kte
Ġrel ated
Ġfl o
Ġdra m
Ġele ments
Ġcar s
Ġsens itive
ĠberÃ¼cksicht igung
ĠlÃ¶s ungen
Ġglobal isierung
Ġcall ing
Ġpun kten
Ġph ase
Ġsw eden
Ġstud y
Ġdiskut iert
Ġdeclar ation
t ragen
Ġ ult
in en
Ġre icht
ut er
Ġver wendet
Ġver fahrens
sch reit
Ġwh om
Ġpro stitution
la us
lin es
Ġentwick elt
enz en
Ġbed Ã¼r
Ġinvol ve
zeich nung
zip lin
Ġeng l
Ġcl ass
Ġlim its
ĠbevÃ¶lk erungs
Ġlis te
Ġfal sch
Ġempfehl ungen
Ġjun e
Ġbemerk ungen
Ġras ch
Ġcho ice
ugosla w
Ġappe al
Ġenorm ous
Ġlud ford
o ber
er ten
Ġth reaten
un t
is men
Ġr ent
Ġse he
ste lle
Ġcommission s
se ktor
ard s
iz ed
Ġconc rete
ĠunterstÃ¼tz e
ĠwÃ¤hr ungs
Ġimm igration
ify ing
Ġbehand eln
Ġstatement s
Ġrecogn ised
ĠmÃ¼ÃŁ ten
Ġbeam ten
ĠgrÃ¼ nen
Ġturk ish
u elle
Ġm alt
Ġe d
Ġe hem
Ġk ingd
Ġl Ã¤rm
Ġeurop ol
os en
Ġco co
Ġad apt
Ġsp ace
Ġpropos ing
Ġpre vention
Ġachie ving
Ġredu ced
Ġproble men
Ġstruct ure
Ġander es
Ġkin dern
Ġair port
Ġintrodu ce
Ġgrenz Ã¼ber
ĠzusÃ¤tz liche
Ġred ner
Ġcontra dict
Ġemphas ise
Ġrech nung
comm un
ĠstÃ¤nd ig
Ġdienstleist ungen
Ġfremdenfeind lichkeit
Ġfulf il
Ġkingd om
e u
h ab
o z
z ut
Ġt sch
Ġk lare
il itÃ¤t
iss ens
Ġsh ar
Ġor ient
Ġcom peten
her ent
Ġapp ell
Ġprogram ms
ac ter
Ġaid s
Ġbegr iff
Ġset t
Ġgener ally
Ġqual ified
Ġgest atten
Ġide as
Ġinstrument e
Ġsor g
Ġbezie ht
Ġallgemein e
Ġprot est
Ġvorgesehen en
Ġrecommend ations
Ġhist ory
Ġelect ronic
Ġpartner schaft
Ġcontinu ing
Ġgerman y
Ġcritic ism
Ġexpla in
ĠdiesbezÃ¼ glich
Ġverme iden
ĠeinschlieÃŁ lich
Ġporn ograph
b o
c alled
n el
en ken
on nen
ie le
Ġp ure
ge ber
gen den
Ġer fahren
Ġge be
Ġab geschlossen
Ġsch lÃ¤
Ġse ien
th iop
Ġinter ven
Ġwor ten
Ġ2 6
Ġ2 9
Ġgew isse
Ġfr ont
Ġput ting
ĠÃ¤ thiop
Ġbrauch t
Ġsubsid ies
Ġwahr scheinlich
Ã¤hl en
Ġrelations hip
Ġbeha up
Ġbemerk ung
Ġkatastrop he
Ġpurs u
ĠanschlieÃŁ en
uropÃ¤ ischen
Ġade quate
Ġglaub wÃ¼rd
Ġcoco a
2 1
d is
d ie
z ed
es tens
Ġun less
Ġan nehmen
Ã¼ ter
ing es
Ġl auf
Ġl ines
Ġl Ã¤nger
et schen
Ġden ken
Ġer fre
Ġal ters
ach s
Ġvor red
Ġdes wegen
Ġab ility
Ġaus sprechen
Ġaus drÃ¼cklich
Ġwill ing
Ġho urs
Ġho ffentlich
Ġbet re
Ġimpro ved
ĠÃ¤uÃŁ ern
Ġcontrib utions
Ġcall s
Ġforsch ungs
ĠzustÃ¤nd igen
Ġcontra ct
Ġjun i
Ġassoc iation
Ġinfl uen
Ġschem e
bek Ã¤mpfung
Ġbarn ier
Ġvermitt lungs
Ġperspect ive
ĠauÃŁerord entlich
Ġbewert ung
Ġehem al
Ġtsch etschen
l ang
m m
Ġw unsch
Ġh op
Ġh ence
Ġc al
Ġbe hin
Ġz er
Ġon es
Ġde p
Ġent it
Ġber uf
Ġbericht en
Ġur s
Ġlo st
Ġemploy e
Ġchar acter
Ġprior itÃ¤t
Ġinclud es
Ġcrit ical
Ġguarante es
zw ischen
Ġprec a
ĠgrÃ¼n de
Ġged anken
Ġtas ks
Ġoppos ed
Ġjud icial
Ġord nungs
Ġpromot ing
Ġsus pend
lÃ¤ÃŁ lich
Ġkommissionsmitglie d
Ġeingere icht
Ġreag ieren
Ġkonstru kt
c raft
Ġf ift
Ġc ol
Ġc ame
Ġv ig
Ġto ler
Ġto des
Ġver fass
Ġst Ã¤d
Ġim pression
Ġj ugoslaw
Ġus w
Ġpolit ischer
Ġfre ien
Ġsol cher
Ġpl ant
Ġgleich gewicht
Ġeinz us
Ġziel en
Ġele cted
reit ung
ĠbeschÃ¤ft igen
Ġverantwort ungs
Ġdien ste
Ġzug unsten
Ġwesent liche
Ġvorgeschlagen e
ĠstÃ¤rk ung
Ġbenefit s
Ġcare fully
Ġwes tern
)) .
Ġminor ity
Ġhighl ight
ĠvollstÃ¤nd ig
Ġspezie ll
Ġwiederhol en
Ġausgezeichne ten
strÃ¶ m
mÃ¶glichkeit en
samm lung
e ig
f Ã¤lt
m Ã¤r
s h
s k
s ized
en ze
Ġd re
Ġm old
Ġf u
Ġin zwischen
Ġk u
Ġer Ã¶r
Ġal t
Ġ2 2
Ġgen ere
Ã¶r dert
Ġmo z
Ġsol ange
Ġro th
Ġ3 1
Ġla id
Ġschw eden
Ġach ten
Ġperson s
Ġcoop er
richt en
Ġander em
Ġtechnolog ies
Ġev idence
Ġshow s
Ġeth iop
Ġwider spruch
Ġoper ations
Ġanal yse
Ġital y
Ġoblig ations
Ġnet work
Ġpack age
Ġsogen annten
frei heit
rupt ion
Ġherz lich
Ġflo or
c od
o ts
on es
an o
Ġan teil
ge f
Ġer kennen
Ġvor zulegen
Ġman aged
Ġqu or
Ġmitglied s
Ġout come
Ġvorsch lagen
Ġper man
Ġmon ate
Ã¤l ter
Ġletz tend
Ġinterest ing
Ġdemokrat ische
trÃ¤ cht
Ġglobal isation
Ġair craft
Ġintrodu ction
ĠtÃ¼r k
leit en
Ġrail way
Ġsinn voll
Ġkor re
Ġkr isen
Ġimpos sible
Ġschem es
Ġmeer es
Ġbeschl Ã¼sse
Ġperfect ly
Ġdeg ree
Ġrechnungs hof
r ate
v olle
z er
Ġt ut
Ġb ra
Ġm ission
Ġp ubl
ar ch
Ġk op
Ġl ay
Ġl au
Ġst immt
os ition
Ġaus ges
Ġkommission sprÃ¤sident
ted ly
ue ll
Ġfa cing
Ã¤r z
Ġumwelt schutz
Ġumwelt fragen
Ġperson ally
Ġdel ighted
Ġimm igran
Ġadv oc
Ġstart ing
ĠerwÃ¤ hn
ĠprÃ¼ fung
Ġstrong ly
Ġmechan isms
ĠerhÃ¶ hung
Ġinfrastru ktur
Ġfacil it
Ġlandwir te
Ġinten ds
i ate
i able
k rat
n immt
s ysteme
w ing
Ġt ib
Ġf il
Ġein richtung
Ġauf zunehmen
Ġj etz
Ġco ll
ind ung
Ġy ugosla
Ġfin ance
Ġgen eration
ieren de
he ad
Ġsub mit
ak te
forder n
Ġsupport ing
Ġrespon sibilities
Ġwirk lichkeit
Ġatt ach
licher weise
Ġbedeut en
Ġextre me
ĠzurÃ¼ck ge
Ġ19 7
Ġfisch ler
Ġaufge fordert
Ġbrit ischen
Ġunterschied lichen
Ġdisp la
Ġfortsch ritt
Ġeinbe zogen
Ġspan ien
Ġrein for
Ġeast ern
organisation en
Ġquot as
qual itÃ¤t
v is
y a
Ġ ut
Ġm Ã¼
Ġh Ã¤lt
Ġv ision
Ġun gleich
Ġan statt
te te
om s
Ġre chten
Ġl ies
Ã¶ der
Ġer Ã¶
ver fol
Ġmit einander
Ġpar al
ate ful
Ġges prÃ¤
Ġmein ungs
Ġbet ont
nah m
fÃ¼hr ungs
reich ung
Ġ3 00
Ġweiter er
Ġappro ve
Ã¤tz e
ru h
Ġmil ch
Ġcompet itive
Ġexpress ion
Ġkat ifor
Ġerzeug er
Ġsur pr
Ġflexib ility
Ġumfassen de
Ġvorbereit ung
Ġerziel t
yp ern
ĠÃ¼bergang s
Ġaudit ors
bor der
Ġpreca ution
Ġmoz amb
Ġyugosla v
Ġkatifor is
c ent
Ġ Ã¤rm
Ġth or
on ien
Ġw issens
al tet
Ġan z
Ġto ld
Ġwh il
um p
Ġcon stitutional
Ġsch reiben
Ġma zed
sp ekt
ien z
Ġte x
Ã¼n den
pl es
Ġem ission
Ġbo und
Ġwen igen
Ġarbeits zeit
Ġintegr ated
Ġbesonder en
Ġhappen ing
Ġjud gement
Ġmeth o
Ġgree k
system s
grenz ung
ĠÃ¼berprÃ¼ fung
ĠverhÃ¤lt nis
ĠgeÃ¤uÃŁ ert
ĠgeÃ¤nder t
Ġwit ness
ĠschlÃ¤ gt
Ġwhil st
p unkte
en kt
Ġs ah
or gt
Ġan laÃŁ
Ġan griff
Ġbe ig
Ġbe ef
Ġz ypern
Ġis ol
Ġre jected
el assen
ge iz
Ġer f
hal te
ens wert
Ġhe av
Ġdi ox
Ġcomp la
Ġsol d
Ġinternational er
Ġerw art
Ġposit ions
Ġdebat es
Ġbal anced
Ġir land
Ġerforder t
Ġbew Ã¤lt
je kt
Ġel imin
Ġerfol gt
trÃ¤ gen
Ġbezie hen
Ġerzeug nisse
Ġdest ro
Ġtest s
Ġdistrib ution
Ġschiff e
Ġehr geiz
Ġplann ing
Ġbeein trÃ¤cht
chrÃ¤n kt
Ġadvant age
Ġforth coming
Ġletztend lich
Ġtib et
b ol
o o
p ie
r en
r ig
Ġt reten
on a
Ġb ind
Ġm ach
or ted
or ient
Ġp hil
Ġan fragen
Ġan forderungen
Ã¼ ben
Ġk rank
Ġein erseits
Ġge he
Ġj em
Ġab ol
iv itÃ¤t
Ġex c
sp ar
if orm
Ġcomp ly
Ġgew issen
Ġser ve
Ġins urance
Ġfact or
Ġeing er
Ġwel com
Ġbo ard
Ġbetr Ã¤cht
Ġfl ugh
Ġget ting
Ġsc ra
Ġvorschlag s
Ġseit ens
Ġteil weise
Ġrepresent s
Ġsign ed
par l
ĠgrÃ¶ÃŁ er
Ġuntersch iede
ĠgewÃ¤hr leistet
Ġsuc ceed
ĠfÃ¤ llt
Ġvoraus setzungen
Ġerfolg reich
Ġcomb ating
Ġclos er
Ġwissenschaft lichen
Ġrea ction
Ġcla im
Ġune inges
Ġfebru ar
Ġfebru ary
Ġexper ts
Ġconsult ation
Ġtack le
Ġsell af
Ġpolize i
Ġcypr us
z ent
in strument
Ġs etzt
Ġs ysteme
Ġc ust
Ġg mos
Ġan liegen
Ġwh ate
Ġso eben
ben e
Ġco up
Ġab st
ĠÃ¼ber legungen
ste ht
ges ted
Ġen j
Ġhin dern
Ġwar ten
Ġgegen seit
Ġdam als
Ġeff iciency
fr ont
Ġgeb Ã¼hr
Ġdisc ip
Ġwel ch
Ġoff iz
Ġadd ed
Ġregional politik
Ġbef ug
Ġtechnolog ien
Ġoper ators
Ġflex ible
Ġoblig ation
Ġschl imm
af o
Ġeinsch rÃ¤n
Ġinformations gesellschaft
Ġconstru ction
Ġmos amb
Ġga ve
Ġsellaf ield
Ġwhate ver
Ġb ird
Ġm Ã¼nd
Ġn Ã¶t
Ã¼ ckt
Ã¤ h
Ġein ig
Ġl ann
Ġl ag
Ġver weisen
Ã¶ hn
Ġge ist
Ġvor zu
Ġle iden
pp ed
sp olit
Ġdo pp
Ġen or
Ġfa ced
Ġkon vention
Ġcomp ar
Ġhin weis
Ġmitglie dern
Ġser ies
rÃ¤ um
Ġbeing s
Ġknow s
Ġexp ens
Ġdan ach
Ġversch Ã¤r
io de
Ġposit iven
stru ction
Ġinvol ves
Ġchar akter
fass end
Ġklar en
reit et
Ġverantwort lich
Ġbr enn
ĠfÃ¶r der
bau en
Ġkl im
Ġaut on
Ġaim s
dien ste
Ġsure ly
ĠwÃ¼n schen
Ġbetreffen den
Ġtim et
Ġsym bol
Ġbie ten
Ġmethod s
vergen ce
Ġthousand s
Ġbenach teil
ĠgrenzÃ¼ber schreit
Ġmozamb ique
Ġenj oy
Ġlann oy
a den
n itt
y er
in o
at ischen
Ġb ase
Ġin ade
ar a
Ġn afo
st uff
Ġk riminal
Ġre act
Ġzu folge
Ġer geben
Ġer leicht
Ġge zeigt
and al
Ġdes ire
ĠÃ¼ber tragen
Ġgr ateful
Ġdi pl
Ġnach drÃ¼cklich
Ġrat ifiz
fÃ¼hr ten
sib ly
Ġ199 4
Ġ3 2
Ġsozial schutz
Ġass ure
ha ften
Ġange ht
Ġregional e
Ġir re
ĠgrÃ¶ÃŁ te
Ġstehen den
Ġbess eren
Ġstruktur en
Ġprot ocol
Ġgra du
Ġple ase
Ġbil den
Ġgrie ch
europ e
Ġsektor en
Ġtar get
Ġoccas ion
behÃ¶r de
Ġacqu is
Ġincin eration
Ġdeta iled
Ġarrang ements
Ġdeutsch land
Ġlannoy e
Ġdipl om
Ġd ub
Ġp ill
an ces
ar ks
Ġn ight
Ġl ob
Ġcon sens
Ġcon vergence
Ã¤n gen
Ġber at
Ġat tend
Ġapp oint
Ġcomp uls
Ġsub vention
Ġ3 5
Ġgel angen
Ġur gency
Ġdra st
Ġreal itÃ¤t
Ġfol gendes
Ġgef Ã¶rdert
Ġdirect or
Ġsens ible
Ġtax ation
Ġhervor heben
ziel le
Ġgegeben en
Ġvis it
Ġangeb racht
ĠflÃ¼chtl inge
Ġappear s
entwick lung
Ġcondu ct
Ġangol a
Ġinfluen ce
s c
u erung
w ass
Ġa part
ch sel
Ġs ad
un ruh
at ively
ro chen
Ġun l
ent ions
Ġbe unruh
om b
ic ip
ol er
Ġwe ge
Ġpro sper
Ġpr ison
Ġsu chen
ist an
Ġcomp l
Ġdec is
Ġprodu z
Ġla unch
Ġgel ungen
Ġversch le
Ġbek rÃ¤ft
Ġ200 6
ĠgrÃ¶ÃŁ eren
Ġ9 5
Ġverl oren
Ġguarante ed
sto ff
Ġexam ine
Ġcaus es
Ġlink ed
Ġkonfl ik
Ġterrit ory
ĠÃ¼berzeug ung
Ġinfl ation
Ġconstru ctive
Ġnah e
Ġoccas ions
Ġsour ces
Ġschwe iz
Ġconsens us
k ret
l ose
Ġw ann
or f
Ġf ederal
Ġk re
Ġk il
Ġl ate
Ġfor ced
ere ign
Ġab gestimmt
Ġle gen
Ġall zu
be f
be hand
Ġinc ident
Ġ199 3
Ġnational er
Ġdiff erences
Ġabge le
Ġbetr ieb
Ġentwicklung spolitik
Ġnotwend ige
Ġinvest ments
vers orgung
Ġnie mals
Ġpress e
Ġvorliegen de
Ġconsequ ently
Ġernst haft
Ġdisast ers
Ġrom a
ĠverstÃ¤nd nis
Ġeval u
Ġbureau c
Ġdise ase
strateg ie
Ġausges prochen
0 4
d as
p akt
r is
v a
w ach
Ġd ig
re che
Ġn ation
Ġv ice
ib ed
Ġman age
Ġdurch zufÃ¼hren
Ġfre iz
Ġumw el
Ġ4 8
Ġschw ed
Ġletz ter
Ġeinge fÃ¼hrt
Ġcontin ent
Ġsim babwe
zus ammen
Ġuntersch e
Ġdefin ed
Ġcontrol s
Ġfrei heiten
Ġlab el
Ġgrow ing
komm t
Ġamer ikan
Ġbeteil igten
Ġfight ing
Ġclos ed
Ġamong st
Ġparticip ate
Ġig nor
Ġtrotz dem
Ġdesign ed
Ġvir t
Ġprecaution ary
Ġcompuls ory
% .
a ctive
er maÃŁen
Ġs la
Ġs ession
ar s
ll ing
Ġk an
Ġl oss
Ġfor dert
Ġer m
Ġpr ime
Ġvor ange
Ġvor genommen
Ġaus ger
Ġse ction
Ġse ven
Ġma ast
ik e
ĠÃ¼ber nommen
Ġfa iled
pr Ã¤sident
igkeit s
Ġgegen stand
Ġsub sequ
Ġgew iÃŁ
Ġinform ieren
bar er
Ġfact ors
Ġsocial ist
Ġfr ist
Ġcitiz en
Ġzahl reichen
Ġallow ing
Ġpost pon
Ġmeet ings
Ġindividual s
Ġgre ens
Ġexam ples
Ġprakt isch
Ġhinter grund
Ġconflic ts
Ġdraw ing
ĠfrÃ¼ her
ĠarbeitsplÃ¤tz en
ĠerhÃ¶ hen
stell ungen
grenz en
besch Ã¤ft
Ġelse where
Ġbanan en
Ġsepar ate
Ġdivers ity
Ġcle an
Ġsmok ing
fle isch
Ġordnungs gemÃ¤ÃŁ
Ġmaast richt
l Ã¤ss
m iss
p ath
er ves
at tet
Ġh und
em it
Ġver he
Ġver standen
am er
Ġr ange
Ġso weit
os es
Ġge prÃ¼
Ġthere by
Ġch em
Ġwor se
Ġpolit ic
fÃ¼ hl
Ġjust ified
Ġmon at
Ġbez ahl
Ġwel cher
sel ben
Ġfest stellung
amp ag
Ġlast ly
Ġausge hen
Ġafr ikanischen
Ġimm un
Ġrefer end
Ġdef iz
stehen den
ĠnÃ¤ch ste
Ġwa ffen
Ġcontain ed
Ġsug gested
Ġprotect ing
Ġserb ia
ĠlÃ¤nd liche
Ġerheb lich
Ġlow er
Ġmaterial s
Ġgrundlegen de
Ġdritt lÃ¤ndern
Ġce il
Ġtyp es
Ġverabschied et
Ġletzt lich
Ġgratul ieren
Ġmalt a
eig ne
Ġethiop ia
d le
u ver
Ġs Ã¤
it able
Ġver we
Ġzu gr
Ġst ip
Ġauf treten
Ġj ap
iv ity
ĠÃ¼ber all
lÃ¤ ge
Ġsocial ists
Ġeinz igen
isten z
Ġange hÃ¶r
act ory
abl es
Ġhigh est
Ġgut er
Ġbel ong
Ġsens ib
Ġstar ted
Ġpass ed
Ġmean ing
Ġvors orge
ĠkÃ¼nft igen
Ġvereinbar ungen
Ġexcl usion
Ġeffiz ienz
Ġwachstum s
Ġirgend ein
ĠjÃ¼ng sten
Ġbot schaft
ĠÃ¤thiop ien
parl iament
Ġmosamb ik
Ġzugr unde
b rit
c ast
c ision
Ġ Ã¤rz
at ur
at ible
Ġb ir
Ġb ol
Ġh ul
Ġh Ã¶ren
as ch
as se
ur d
Ġk ennen
Ġis land
Ġein igung
ut ter
Ġr ind
Ġr ational
Ġsch rift
sp unkt
Ġsich ern
ib iot
pe cted
ĠmÃ¶ glichen
Ġta gen
Ġgen annt
ak is
Ġfo ot
Ġconsider s
Ġeven ing
Ġresol ve
Ġtr uly
ĠbeschÃ¤ft igt
Ġeinzel staat
urop a
recht lichen
Ġspeak er
Ġkle ine
Ġprec ise
Ġfehl en
Ġital ian
Ġfamil ie
Ġfamil ies
ko sten
Ġfremden verkehr
Ġruss ia
Ġdetail s
Ġord nung
Ġbedau er
Ġlebensmittel sicherheit
Ġverletz ung
Ġhor iz
Ġbio techn
ĠgeprÃ¼ ft
- ,
b all
g reif
h ib
k ungen
n es
p ers
Ġan k
Ġver wirk
sch ung
Ġpro spect
Ġauf sch
Ã¤n ge
Ġsch Ã¤d
ik ations
Ġex ists
ug g
scha u
Ġges p
se h
Ġob sta
Ã¼n de
Ã¤t igkeit
Ã¶r per
Ġentw eder
Ġsome wh
Ġwork ed
Ġwirtschaft spolitik
wor fen
Ġexp ert
Ġant ibiot
Ġsc ale
Ġbek Ã¤mpfen
enden ce
Ġtr end
Ġziel setzungen
Ġsim pl
Ġinstitution ellen
Ġmil ose
Ġenerg ien
Ġvorge legten
Ġsupp ly
Ġviol ations
Ġtele commun
Ġspan ish
Ġimpos ed
Ġprof ession
ĠbeschrÃ¤n ken
Ġbrief ly
regel ung
Ġbilater al
Ġspr icht
Ġelektron ischen
Ġwal es
Ġsov ereign
Ġvess els
Ġjap an
Ġobsta c
Ġsomewh at
b ased
f eit
n erst
r ne
u le
Ġ 0
Ġ essen
Ġd ign
in c
Ġw om
is ierten
re chten
Ġn ro
Ġk y
Ġzu k
Ġcon ventions
im al
Ġaus be
Ġaus nahme
Ġle id
Ġma ced
Ġreg ular
Ġme ant
Ġfra g
Ġby rne
Ġat lant
Ġen h
Ġqu oten
Ġpolit ics
Ġmo dell
Ġgew iss
Ġamend ed
Ġviel falt
chn ya
Ġins ist
Ġsupport s
Ġfl or
leg te
mittel t
Ġ200 3
Ġarbeits markt
Ġverbess ert
Ġverbraucher politik
Ġtechnolog ical
weg s
Ġlead ing
Ġerinn ert
Ġbinnenmarkt es
Ġche chnya
Ġfunktion iert
ĠratsprÃ¤sident schaft
Ġrea ktion
Ġerarbeit ung
Ġspezie llen
Ġjur is
Ġincorpor ated
Ġheim at
ĠstabilitÃ¤ts pakt
Ġdoct ors
Ġentit led
Ġemploye es
Ġmazed onien
Ġtimet able
beschÃ¤ft igung
Ġmaced on
g eln
n ational
Ġw on
Ġw at
at o
Ġm iss
Ġg ing
Ġan gaben
ic ate
Ġl ank
il le
Ã¶ konom
gen de
Ġdies el
Ġso le
Ġsch ien
Ġse attle
Ġher zen
Ġreg ister
be w
Ġdar unter
wir kt
Ġger icht
ĠgroÃŁ brit
Ġwel chen
ha gen
Ġwieder um
Ġwieder her
Ġsee king
Ġwen ige
Ġrapporteur s
Ġtrans l
Ġvoll kommen
Ġpract ices
Ġdef ine
Ġoper ate
fÃ¤h ig
Ġtele vision
Ġbor der
Ġdiskussion en
Ġtob in
Ġlink s
Ġsex ual
Ġentire ly
Ġanerk annt
Ġverur teilt
Ġsym path
Ġsuffer ing
Ġpromot ion
Ġhinzu fÃ¼gen
Ġmass ive
ĠbenÃ¶t igen
polit ischen
Ġstad t
Ġabstimm ungen
Ġmont i
opoul os
Ġenterpr ises
Ġpornograph y
Ġquor um
ĠÃ¤rm sten
Ġbird al
stuff s
Ġdig ital
Ġmilose vic
Ġtelecommun ications
ĠgroÃŁbrit ann
a ust
a ction
c ement
e hm
n etz
u ens
w al
in ts
Ġs ri
Ġb os
Ġb und
Ġo l
Ġc rop
Ġn gos
ig end
Ġk ategor
Ġre iter
Ġver lei
Ġr uÃŁ
and a
Ġab fÃ¤lle
Ġum fassend
Ġsein es
Ġcons olid
rat es
Ġ199 2
Ġdiff erence
Ġrequ ested
Ġwirk ung
Ġrem arks
Ġeinge halten
Ġopin ions
stan de
Ġ7 0
ĠgrÃ¶ÃŁ ten
Ġpriv aten
Ġbef aÃŁt
ĠverfÃ¼ gt
Ġplan ts
Ġfolgen de
Ġmult i
ĠÃ¼berein stimmung
Ġsw ed
Ġstud ies
Ġdring lichkeit
Ġdisp os
ĠtÃ¤t ig
ĠbefÃ¼r wor
Ġtradition al
ĠwÃ¼n sche
Ġagrar politik
Ġerziel en
comm er
stra fe
Ġalloc ated
Ġmex ic
Ġspo ken
Ġkulture llen
Ġsozialdem okrat
Ġmanufactur ers
Ġtarge ts
sparte i
Ġjetz igen
Ġthor ough
c ns
m eld
Ġa ver
Ġw rit
it uation
it rak
Ġp assen
ar tet
Ġun iform
Ġal ter
Ġco herent
Ġaus grenzung
Ġsch ott
op eration
Ġint oler
Ġper mit
Ġacc ounts
Ġpla ced
cept ion
Ġgreat est
Ġrechts staat
Ġrecht fert
Ġsc r
Ġwichtig es
Ġwichtig ste
kl ang
Ġbring ing
Ġide e
Ġrequire ment
ĠbegrÃ¼ÃŁ t
Ġdrit te
ĠbemÃ¼ hen
Ġdim itrak
Ġfestge legten
Ġunver zÃ¼
Ġrecon struction
Ġzusatz stoffe
Ġcounter feit
Ġchair man
ĠbÃ¼ro krat
Ġtschetschen ien
Ġperman ent
Ġparal lel
Ġabgele hnt
Ġzuk Ã¼nft
commer ce
Ġdimitrak opoulos
f un
k rit
un er
Ġbe ur
Ġto ol
ra ct
ut ing
Ġha bit
Ġst or
ere gel
Ġso uver
Ġal arm
Ġge eigne
Ġmit teilen
Ġde part
pp ing
Ġex istence
Ġher steller
be hr
Ġdi am
Ġqu ote
Ġho ffnung
Ġsa ke
Ġzw angs
Ġmo ving
Ġwar m
ak et
Ġfest zulegen
Ġrecht lichen
Ġreal ise
Ġappro x
Ġbestimm ter
Ġgut es
Ġentscheid ungs
Ġstra ÃŁen
Ġrev olution
Ġzug elassen
Ġread y
Ġopen ing
Ġocc up
letz t
Ġruss ian
Ġrestr ic
Ġsto ffe
Ġbedau ern
ĠbestÃ¤t igt
Ġbetrug s
Ġumst Ã¤nden
Ġmitarbeit er
Ġsubst ance
Ġbeig et
Ġbind ing
Ġdign ity
a vour
d et
h le
s et
Ġ Ã¤lter
Ġg ap
Ġun re
Ġan wend
Ġan gest
Ġan zahl
le un
Ġz igaret
am a
Ġzu letzt
Ġwe alth
Ġden mark
Ġim ag
Ġvor teil
Ġaus reichen
Ġle ute
ab or
ts ein
Ġsie ben
Ġor al
iel ds
Ġges te
ain ed
Ġnach bar
Ġkon zept
Ġem b
Ġmehr fach
Ġbesch leun
Ġbas que
Ġet c
Ġconsider ations
Ġweiter es
Ġant is
fin anz
Ġmittel punkt
Ġvers icher
Ġbeisp iele
Ġverl angen
Ġbu ilt
Ġsupp osed
Ġtour ismus
Ġrecogn ition
Ġexcl us
Ġsubsidiar itÃ¤t
Ġpoor est
Ġforder e
Ġimmedi ate
Ġnorth ern
vergen z
ĠdÃ¤n em
Ġniedr ig
Ġconcentr ate
Ġimmigran ts
Ġerwart ungen
Ġvorsorge prinzip
b ie
e conom
w ide
Ġt se
Ġt enden
Ġt ief
at om
Ġe y
Ġp ie
Ġo st
Ġan sch
Ġz iff
ut ung
Ġver sammlung
lich ung
il ater
Ġst unden
Ġfor ts
Ġpro ve
Ġer le
ver t
Ġmit te
Ġne un
Ġum ge
Ġsh ared
Ġpres ence
Ġam ounts
enn ungs
Ġkon vergenz
ick s
lin ed
Ġmar it
Ġmehr eren
Ġricht en
Ġass ume
Ġenv is
Ġange kÃ¼nd
fÃ¤ ll
Ġnum er
Ġmed a
Ġfollow ed
stand ing
Ġoffen bar
Ġschwier igen
zw ungen
Ġunderstand ing
Ġentwicklungs lÃ¤nder
Ġdraft ing
Ġexce ed
Ġwa it
Ġspiel t
Ġfour th
Ġmodern isierung
Ġrespe cted
Ġgene va
Ġclar ify
Ġlegitim ate
Ġgrundlegen den
Ġimprovement s
Ġinteroper abilitÃ¤t
Ġterritor ial
ĠjÃ¤hr lich
Ġchang ed
Ġversich ern
Ġfla x
Ġundertaking s
Ġannoun ced
Ġkriminal itÃ¤t
Ġdecis ive
Ġsouver Ã¤n
p ay
y m
z b
er nen
Ġd om
on ial
es te
Ġb ran
Ġm ug
an f
le y
Ġz entr
ig erung
Ġk m
ra gt
ut or
Ġau st
Ġr ich
Ġge ber
ver letz
Ġmit entscheid
Ġsch Ã¤den
Ġma k
Ġta gung
Ġdis ag
Ġ2 010
Ġsp ending
Ġpos sibly
ish ing
Ġmar ine
Ġmar gin
Ġ199 0
Ġro und
vor sitz
Ġorgan e
Ġgel Ã¶st
Ġwirk lichen
tern o
Ġ5 00
Ã¤tz en
Ġsec ure
Ġequ ally
Ġwettbewerb spolitik
Ġgesetz e
Ġfehl t
Ġrele ase
por n
Ġfamil iar
Ġpot ent
Ġve get
Ġprinzip ien
Ġdemonstr ated
Ġserb ien
Ġuntersuch ung
Ġextend ed
ĠfranzÃ¶s ische
Ġtar iff
Ġerk ennt
Ġlok alen
Ã¤um t
Ġcred ibility
Ġunz ul
Ġcode cision
Ġemer gency
Ġinteroper ability
Ġexplo itation
Ġimpl ications
Ġsupplement ary
Ġinfrastruct ure
Ġhervorge hoben
Ġhaup ts
Ġvorred ner
Ġbetre ffend
ĠerÃ¶ ff
Ġswed ish
Ġantis emit
2 5
s ession
Ġd iss
Ġt iere
Ġa kte
it el
Ġh Ã¤l
Ġn Ã¼tz
Ġbe ge
Ġk andidaten
Ġein klang
Ġver sto
Ġmit ge
ach er
Ġvor hin
Ġab gesehen
Ġaus maÃŁ
Ġaus arbeitung
th eit
la d
ĠÃ¼ber zeugen
00 4
Ġherr scht
Ġnach druck
Ġdis ziplin
Ġspe zielle
Ġsol ve
Ġins el
Ġact s
Ġgeb ill
Ġsicher stellen
Ġass oz
Ġbere cht
Ġconsider ably
Ġaff ord
Ġbestimm t
zie ht
Ġvorge hens
itz er
Ġpat h
Ġcolle ctive
Ġmind estens
sto ffen
Ġkinder porn
Ġgre m
Ġethn ischen
Ġkoh Ã¤s
ĠmÃ¤r kte
Ġindustr ies
Ġerarbeit et
Ġhighl ighted
Ġproceed ings
Ġattem p
stre am
Ġcompeten ce
Ġyugoslav ia
Ġinade quate
Ġfreiz Ã¼g
Ġwat ers
Ġaver age
ĠhÃ¤l fte
a ff
d ire
g round
h re
h uber
z ul
Ġt rÃ¤gt
Ġs ides
ich ert
Ġp hen
Ġf if
Ġc ard
Ġn ether
Ġun f
Ġan lagen
as h
ge ordne
Ġauf rech
Ġaus gest
Ġall iance
Ġta i
Ġnach zu
Ġad just
Ġgen aus
Ġlik ely
ĠmuÃŁ ten
Ġverb ot
Ġleg ally
Ġsol ches
Ġentwick lungen
Ġprodu ktion
Ġviel er
Ġpl atz
geb iet
ĠgroÃŁ es
Ġstand s
Ġprote cted
rei ft
Ġtr ust
Ġfol glich
ser v
Ġberichterstatter s
Ġequ ip
Ġverl angt
go ing
Ġcap able
Ġcl imate
Ġopp ose
ehr ten
Ġflexib ilitÃ¤t
Ã¤um en
200 6
Ġextens ion
region en
Ġconsist ent
Ġunmittel bar
Ġsorg fÃ¤lt
Ġgenere ll
Ġauton om
Ġhoriz ont
Ġzigaret ten
Ġmarit ime
Ġkinderporn ograph
Ġphen omen
Ġnether lands
c er
g ere
s v
v iel
w s
w ind
Ġt Ã¤
Ġt aus
Ġb omb
Ġan merk
ent y
Ġbe achtung
Ġk enn
ut s
Ġab scha
Ġex ec
Ġent fern
ste chn
Ġbes uch
Ġstat ist
Ġsp reche
hl t
Ġmar t
Ã¼ck en
Ġweit gehend
wer ten
Ġdeb ating
lÃ¤ ufig
Ġbas ically
Ġsta uner
Ġgeb oten
geb racht
Ġrel ativ
Ġcour age
Ġrem o
Ġ4 2
gangen en
Ġinvol vement
Ġvoll beschÃ¤ftigung
eng th
wirtschaft ung
Ġze ichen
ĠfÃ¤ h
bereich e
Ġstress ed
Ġec ological
Ġundert aken
Ġbelg ium
Ġeinheit lichen
Ġcent re
Ġameric a
Ġmut ual
Ġfig ure
Ġeinw ander
Ġinspect ion
Ġmand ate
Ġbestand teil
Ġextens ive
Ġeingeb racht
Ġauss age
Ġjahrh under
aren ess
Ġmid dle
Ġbeseit igung
Ġbein hal
Ġacknow led
Ġfer ber
Ġdispos al
econom ic
Ġfif teen
c ertain
k re
k atastrop
m il
y r
Ġt ank
Ġth ir
Ġs wo
Ġthe ato
Ġb ann
Ġh om
Ġv ia
ing u
Ġr und
um ed
Ġpro hib
Ġcon ven
Ġeuropean s
Ġinter ested
Ġyo uth
pr es
Ġgen utzt
Ġsp read
Ġtran se
Ġinform iert
Ġ3 8
Ġpolitical ly
Ġrem ote
Ġrem ark
reg eln
Ġdifficult y
Ġcor respon
Ġaw areness
wirk ung
Ġrefer ring
Ġderzeit ige
Ġaddition ality
Ġmarkt es
ikan en
Ġapplic ant
Ġwach sen
ĠzusÃ¤tz lichkeit
Ġprep are
ix ed
Ġdiskrimin ierungen
Ġdemonstr ate
Ġpfl anzen
Ġargument s
Ġkatastrop hen
Ġeinw an
Ġwiederauf bau
Ġill ust
Ġsour ce
Ġnetz e
ĠbÃ¶ sch
prob lem
Ġinterpret ation
ĠverÃ¶ ffent
Ġcal c
Ġhul ten
Ġmacedon ia
b le
d ac
h ner
s es
w elt
Ġa head
Ġw and
Ġw ide
Ġm ur
Ġo ste
Ġun k
te in
te ten
Ġto uch
Ġz oll
Ġk Ã¼r
em ann
Ġge fahren
Ġab use
end et
Ġum zusetzen
Ġch ann
Ġpresident s
Ġcont act
Ġverb reitung
Ġgleich stellung
Ġmill ions
Ġeffect iveness
Ġtr uth
Ġausge hend
Ġaf terno
Ġsubject s
01 6
Ġglobal en
bere cht
Ġeur atom
Ġpay ments
Ġende avour
Ġvoraus schau
Ġintrodu cing
Ġinnov ative
Ġmensch lichen
Ġhead ing
Ġbeha vi
Ġrepe ated
bod a
Ġsufficient ly
Ġvolk spartei
statt ung
Ġmitt l
Ġverd ient
Ġverring erung
Ġereign isse
ĠursprÃ¼n glichen
Ġconserv ation
Ġpure ly
Ġlau tet
Ġscra pie
behand lung
bew uÃŁ
ĠruÃŁ land
Ġmug abe
Ġbeinhal tet
Ġswo boda
Ġbehavi our
f ers
o und
u able
Ġd omin
Ġb uch
re pr
Ġp an
Ġh ip
Ġg as
Ġg ang
Ġg one
Ġg Ã¼ter
Ġto wn
Ġzu stand
isch em
Ġpro zent
Ġer haltung
Ġall i
Ġent standen
Ġat mos
Ġinter pre
Ġpre ced
Ġint entions
pf licht
Ġhand lungs
Ġeconom ies
Ġgeb rauch
Ġsicher zustellen
vo llen
Ġgel der
Ġfinanz iert
Ġincl usion
Ġeinge leitet
Ġrepresent ed
Ġverantwort lichen
Ġlang sam
ĠhÃ¶ her
Ġumf aÃŁt
Ġoper ational
Ġaim ed
ĠzustÃ¤nd ig
heb ung
ĠzusÃ¤tz lichen
Ġprakt iken
Ġfail ure
Ġcho ose
ĠbestÃ¤t igen
Ġverste he
Ġjahrh undert
Ġhem p
Ġbeabsicht igt
Ġfift h
Ġfacilit ate
wach stum
zusammen arbeit
Ġpolitic ians
Ġrind fleisch
Ġausbe utung
Ġbeiget ragen
ĠdÃ¤nem ark
Ġnumer ous
Ġassoz i
ĠfreizÃ¼g igkeit
Ġeinwan derung
Ġhip c
c al
g ipf
k r
m lich
Ġp se
an e
Ġh y
Ġn ine
Ġl ose
Ġl ength
ter t
Ġr en
il en
Ġst reit
Ġfor um
Ġge zogen
Ġvor teile
Ġab w
Ġab ziel
end t
Ġber aten
Ġman ch
Ġpart ly
Ġdurch sch
Ġgegen satz
Ġfact s
Ġoff ers
Ġtreat ed
Ġconsum ption
Ġnor m
Ġdel iber
Ġzug leich
ĠverfÃ¼ g
Ġbrit ain
Ġentscheiden d
Ġeindeut ige
Ġstaat liche
Ġjeden falls
Ġhumanit Ã¤ren
ĠwÃ¼n sch
Ġexpect ations
Ġemphas is
Ġgelten den
Ġsatisf actory
Ġdistrib uted
Ġconstit ute
Ġjen er
Ġgrant ing
zust immen
Ġanp assung
ĠbegrÃ¼nd ung
Ġexcess ive
Ġwelch em
Ġgegebenen falls
ĠgroÃŁbritann ien
Ġgenaus o
Ġafterno on
d a
f eld
k ap
p et
t Ã¤us
en hagen
Ġd oss
un ion
re p
ich erung
Ġv ul
Ġun ne
Ġk rie
us ing
ir y
Ġre ich
Ġl Ã¤
Ġer hÃ¤lt
Ġer lassen
de p
Ġge halten
Ġaus geschlossen
ĠÃ¼ber trag
lie ben
ĠeuropÃ¤ isches
Ġar m
Ġch in
Ã¤nder ungsant
Ġgo als
Ġcomp lic
Ġfre ie
ass ungen
yste men
Ġgew Ã¤hl
Ġnew s
Ġro om
Ġper spekt
hand lungen
Ġrel atively
Ġconsider ing
Ġeuro dac
Ġinte lle
Ġunternehmen s
ĠzurÃ¼ck zu
Ġverbess erungen
Ġbar cel
sche fs
Ġinn ere
komm un
Ġbene f
leit ung
Ġvertra uens
Ġsy r
Ġident ity
Ġapply ing
ĠgrundsÃ¤tz lich
Ġwirksam e
Ġbre ak
Ġbeant worten
Ġprepar ing
Ġerschein t
Ġeval uation
Ġverbr ennung
Ġgenehm igung
Ġbla ck
Ġcompens ation
Ġpenalt y
Ġdub lin
Ġreferend um
Ġunne cess
Ġbarcel ona
o u
z one
Ġw all
Ġw ritten
re ck
Ġo sten
Ġc entr
Ġn Ã¤her
Ġun w
Ġbe mer
Ġl ien
Ġl atter
der ly
Ġwe ap
Ġim age
ier end
Ġge ehrte
ver tre
Ġvor mittag
Ġaus nahmen
Ġent tÃ¤us
sp ie
ĠeuropÃ¤ er
ure ich
ord nungen
ot ten
Ã¼s s
Ġsp Ã¤t
sta ats
Ġimp ose
Ġnational s
Ġsta ke
Ġgeb Ã¤
Ġzeit plan
Ġrel ates
Ġter min
Ġgel ingt
Ġli ikanen
Ġresol ved
Ġtr ial
Ġtr ib
Ġscha fft
Ġable hnung
Ġfollow s
Ġkom peten
Ġgeneral dire
Ġabs urd
Ġhil f
Ġback ground
Ġinteress iert
so ever
Ġkurz em
Ġwahr heit
raum s
Ġentscheiden de
Ġdoub le
ĠbehÃ¶r de
verb r
Ġmaintain ing
Ġkr ise
Ġeas ily
ĠflÃ¼chtl ings
Ġnahrungsmittel hilfe
Ġschre yer
Ġbanan as
ĠmÃ¤n ner
Ġsav ary
gebie te
mÃ¤r kte
Ġjem and
Ġklim a
b s
e ten
k rÃ¤fte
m iÃŁ
r um
t on
w ers
Ġb reit
Ġn ein
Ġg al
Ġre lie
Ġre ichen
ul ations
Ġr um
Ġpar ad
Ġab sen
Ġab kommens
Ġsch m
ungs bereich
Ġar ten
Ġman gel
se kret
igh ten
ĠmuÃŁ te
lin ary
Ã¤hr ung
utz en
ĠgroÃŁ em
Ġfinanz ierungs
fÃ¤ llig
Ġpolitik er
Ġbedeut sam
Ġdebat t
ium s
mo dell
Ġel derly
ĠgrÃ¶ÃŁ t
Ġstatt f
Ġhelp ing
Ġstar ke
Ġtax es
Ġwohl stand
leist ungen
Ġoppos ite
ĠbemÃ¼ ht
Ġsouth ern
Ġoft mals
Ġmensch liche
Ġpurp oses
Ġzivil gesellschaft
ĠbeschrÃ¤n kt
Ġsus p
Ġhold ing
Ġine v
Ġgenet ically
Ġausgezeichne te
Ġunz ureich
Ġplann ed
haus halt
Ġrestrict ions
ĠkÃ¼rz lich
Ġembar go
ĠerlÃ¤ut ern
Ġoz one
ĠbedÃ¼r f
Ġpubl ished
Ġheav y
pres ident
Ġvul ner
2 4
g l
i Ã¶
k rieg
n ach
y ed
Ġt aten
at ische
Ġm igration
Ġc ategor
Ġn iveau
Ġv itor
Ġun mÃ¶glich
Ġan sprechen
Ġan zunehmen
Ġbe ibe
ur en
Ġer nen
Ġaus gesetzt
Ġex pected
sp iel
ungs ver
Ġres erv
Ġges icht
ot o
Ġfin land
Ġparlament e
Ġinc ent
Ġwhat soever
Ġwo llten
gra d
Ġhier bei
Ġricht igen
Ġzusammen halt
Ġper form
lÃ¤ uft
Ġhand s
Ġref ers
Ġko operation
Ġbetr Ã¤
Ġversch w
Ġset s
Ġprocess es
Ġdeut schen
Ġke pt
Ġverw iesen
Ġeinzel ne
Ġhaushalts kontrolle
Ġvertre tern
Ġharm ful
hol d
Ġfrei will
Ġans wers
Ġadv is
Ġav iation
Ġentwicklungs lÃ¤ndern
Ġrequest s
Ġsl ight
ĠbefÃ¼r worten
Ġrac ist
Ġeinheit liche
ĠverstÃ¤r kt
ĠverstÃ¤r ken
Ġerheb liche
Ġumfassen den
Ġsatisf ied
Ġquot a
geste llten
Ġerneuer baren
Ġapprec iate
Ġfeed ing
br uch
Ġsecret ary
spra chen
Ġetikett ierung
Ġairport s
Ġurs achen
ĠnÃ¶t ig
ĠÃ¤rz te
Ġlank a
Ġbos n
Ġhaupts Ã¤ch
Ġlien emann
0 8
en ing
ch rist
Ġw ind
it ative
it ologie
at her
Ġe chte
Ġf ried
Ġg or
st ens
ul ich
Ġwe ist
Ġer teilen
Ġer leben
Ġvor stellen
kt ure
Ġaus weit
Ġaus nahm
00 1
Ġman che
Ã¤s ser
Ġnach mittag
Ġfre und
ub a
Ġproblem atik
Ġhier zu
rat ed
rat ic
Ġcommun ications
lÃ¤ chen
Ġpl oo
Ġunterst reichen
Ġacc omp
Ġ3 4
Ġ3 6
Ġbo den
ient s
Ġgovern ance
Ġbetr ieben
Ġtr ifft
abl ing
Ã¤ng st
Ġcompet ent
Ġir ish
Ġkom itologie
Ġel dr
Ġwesent licher
Ġbar r
ĠstÃ¤r ken
Ġessential ly
Ġhervor ragen
Ġpeace ful
Ġident ified
leist ung
Ġplay ed
Ġoblig ator
ĠgrundsÃ¤tz en
Ġsteuer zahl
term ine
Ġfacil ities
Ġkommun ikation
Ġhapp ens
Ġtem por
Ġparlamentar ischen
Ġkeines wegs
Ġassoci ated
Ġdescr ibed
Ġconstant ly
Ġult imately
ĠglaubwÃ¼rd igkeit
Ġlauf e
Ġcoll abor
Ġphil os
Ġcoup le
Ġbol kes
Ġjuris dict
Ġverlei hen
ĠunverzÃ¼ glich
behr endt
Ġequip ment
Ġploo ij
Ġaccomp an
c ro
l en
is ierungs
Ġb ahn
ie ÃŁen
Ġm erk
Ġin spe
Ġh Ã¤ngt
ar i
Ġn one
Ġg ot
Ġun be
Ġan trÃ¤ge
Ã¤ fen
Ġbe we
Ġbe wegen
Ġbe zeichnet
om et
Ġein richtungen
ra chten
ut in
Ġr h
Ġda ily
Ġj ungen
Ġde termine
Ġent h
ĠÃ¼ber lassen
ers und
aus gaben
gr enze
uch ner
Ġbut ter
Ġwor ry
her r
Ġsp end
Ġspe ct
wo hner
Ġimp er
ak es
ak zept
Ġger ichtet
Ġko uchner
fra gt
Ġange wand
Ġpresent ation
Ġreal istic
Ġcontin ues
Ġval lel
Ġrest ru
Ġtax pay
Ġwider sprÃ¼
ĠschlieÃŁ en
ĠerwÃ¤ hnen
Ġfore most
ĠÃ¶sterreich ischen
Ġarbeitsp l
Ġverteid igen
Ġelement e
Ġexcl uded
Ġbeitritts k
Ġcorrect ly
Ġerfahr ung
Ġzul Ã¤ss
ĠfrÃ¼h eren
Ġnear ly
Ġaktionspl an
bal d
Ġluxem bourg
Ġrig or
Ġthreaten ed
Ġtodes strafe
Ġbund es
Ġmexic o
Ġbolkes tein
Ġvallel ersund
b a
g ers
l it
m achen
u hr
er kennen
is ted
Ġe ight
Ġf ats
Ġg lad
Ġun sch
Ġun certain
Ġver wir
Ġr enten
Ġst ol
Ġno ted
isch ung
Ġco re
ach sen
Ġaus l
Ġsch ro
Ġma cc
qu es
iv ation
Ġges ellschaften
ĠmÃ¶ gliche
Ġbes orgt
ag ung
Ġte am
Ġbet reiben
Ġcomp ared
Ġgemein schaften
Ġiss ued
Ġprogram men
Ġact ing
Ġwirtschaft licher
Ġdiff erenz
Ġwel ches
Ġover come
Ġteil nehmen
Ġposition en
klÃ¤r ung
Ġtrans national
Ġir reg
Ġzusammenarbeit en
Ġtur ning
Ġak in
Ġvol unt
Ġartic les
Ġtal ks
Ġorganis men
ĠgewÃ¤hr t
Ġunderst ood
com ings
Ġshort comings
wert ung
Ġwa iting
orm ick
Ġtele kommun
ĠunabhÃ¤ng igen
Ġcare ful
ĠbefÃ¼r cht
ĠkÃ¼nft ige
Ġrail ways
Ġschl Ã¼ssel
Ġbelg ien
Ġbur ma
kontro ll
Ġeas ier
Ġrefuge e
Ġverabsch ieden
Ġcontinu ed
Ġzentral bank
Ġaffect s
Ġhistor ic
Ġine ff
Ġkonsequ enzen
Ġschre ck
ĠkÃ¼ sten
Ġherkunft s
Ġexplan ation
Ġoz on
Ġchang ing
Ġaccident s
ĠprÃ¤s id
Ġreduz ierung
Ġehemal igen
itzer land
Ġtai wan
Ġkinderpornograph ie
Ġtranse uropÃ¤ischen
Ġvallelersund i
Ġmacc ormick
f ter
p ir
v an
Ġd ingen
Ġs ize
Ġb ab
an ia
Ġv olle
Ġan stre
le b
Ġder og
ur t
ul ate
Ġer lau
ere i
Ġal te
Ġpar itÃ¤t
Ġvor lage
ill s
Ġaus richtung
Ã¤n en
Ġsch lagen
Ġcoun t
se bene
Ġho her
Ġfin e
Ġdurch fÃ¼hren
Ã¶r derung
leich heit
iÃŁ en
Ġwirtschaft lich
Ġcour ts
Ġgesch le
Ġfl ow
Ġfinan ced
bei hilfen
Ã¤tz ung
ĠÃ¶ffent lich
Ġregierung schefs
ĠhÃ¶ here
Ġstehen de
Ġdefin it
Ġbef indet
Ġev ident
vorsch lÃ¤ge
Ġmot ions
Ġfolgen den
ged e
Ġerg ibt
Ġsw itzerland
Ġentscheiden den
ĠgegenwÃ¤rt ige
Ġviol ation
ĠauÃŁen politik
Ġsur v
Ġverhin dert
Ġmechan ismen
Ġencour aging
Ġuntersuch ungen
Ġunterb rochen
Ġstrengthen ing
Ġtop ical
Ġverur teilen
Ġsen kung
Ġindic ated
Ġexpla ined
Ġdon nerst
Ġinvestig ation
Ġconfirm ed
Ġlangfrist ig
ĠprÃ¤s ent
Ġneighbour ing
Ġmist ake
Ġprosec utor
Ġstren ge
Ġky oto
Ġwon ach
verletz ungen
Ġalli anz
Ġunnecess ary
Ġphilos oph
Ġdonnerst ag
e fe
f are
h me
u ous
er y
Ġt rop
in i
in ted
at al
Ġe zb
Ġp ict
Ġn a
Ġv ac
Ġg elt
Ġz one
Ġk Ã¤mpfen
Ġk rÃ¤fte
Ġein stellung
Ġwe chsel
id ung
Ġso bald
Ġcon stitution
Ġge zwungen
Ġauf nehmen
Ġauf trag
ck e
00 6
Ġdar y
Ġhe ik
Ġra ce
ud es
Ġob jekt
Ġhin weg
ger ufen
Ġverb rechen
Ġmen ge
Ġbereit stellung
get ragen
Ġko oper
Ġregul atory
Ġget r
Ġsc ot
Ġlie ber
Ġyour self
Ġfut ter
Ġkomm er
Ġfind ing
Ġdebat ten
Ġvertre t
01 5
Ġconcl uded
Ġbar ingd
Ġkurz frist
Ġpay ment
Ġprevent ing
Ġgra v
Ġgra efe
Ġmod ified
Ġbeant wortet
ĠhÃ¤ fen
weil en
Ġheut ige
Ġbear ing
Ġsuffer ed
Ġkonsequ ent
Ġsuper vision
Ġjen en
Ġkontin ent
Ġtw enty
versch mutzung
Ġbewer ber
Ġeco fin
Ġinterven e
Ġvulner able
Ġirreg ular
. ,
c eng
g reifen
p endence
Ġth urs
Ġw ild
Ġs ier
Ġp il
Ġp et
Ġf ach
Ġf uÃŁ
Ġin qu
Ġin kraft
Ġh it
ir k
ge legt
Ġim men
Ġge leis
Ġj ung
est ic
Ġpar is
Ġaus gang
qu ality
Ġher ange
Ġreg re
Ġar ms
Ġprop ag
Ġsp Ã¼r
Ġzum al
Ġwork s
rÃ¤ ften
Ġla ut
Ġsozial politik
Ġerw iesen
pro zeÃŁ
Ġgel ingen
Ġgovern ing
Ġrecht liche
Ġget re
Ġ4 5
Ġport s
Ġnumber s
antwort ung
Ġinde pendence
Ġenerg ies
stand ards
Ġverl assen
Ġfeel ing
Ġentwicklungs hilfe
Ġapplic ations
Ġchan ceng
ĠverÃ¤nder t
ĠfÃ¼nf zehn
ĠunabhÃ¤ng igkeit
Ġluft verkehrs
Ġdut ch
Ġdelay s
Ġsen ior
nehm ern
Ġprepar ation
Ġkrieg s
Ġdienstleist ungs
Ġnachhalt igen
Ġberu ht
Ġrelig ion
Ġprim ary
Ġdetermin ed
Ġkeines falls
Ġbefug nisse
Ġprosper ity
Ġsovereign ty
Ġrestric ted
Ġveget able
Ġphenomen on
ĠverÃ¶ffent licht
Ġatmos ph
Ġvitor ino
Ġausnahm eregel
Ġjurisdict ion
Ġbaringd orf
Ġthurs day
Ġsier ra
Ġchanceng leichheit
z we
Ġw Ã¤hl
Ġs ab
it re
it ology
re l
or al
Ġe he
Ġf ert
Ġh anf
Ġun ann
ing er
Ġr in
Ġha fen
Ġfor g
Ġer hoben
Ġj ul
Ġvor liegt
Ġdes erves
Ġaus wirken
Ġex ter
Ġent steht
sp art
Ġsh ame
Ġsh ift
Ġme at
me chan
Ġcom itology
ad vant
ag n
Ġra uchen
Ġdis advant
Ġad mit
Ġper cent
Ġbereit gestellt
Ġhal b
Ġqual itÃ¤ts
Ġmor g
Ġverw enden
Ġbew ahr
Ġbl ok
Ġval uable
Ġdeal s
bed arf
Ġverl ieren
Ġverl Ã¤nger
01 1
Ġben ch
Ġsmall er
zÃ¼ ge
Ġpass iert
Ġschne ller
Ġamer ikanischen
Ġapplic able
Ġph are
Ġph ys
Ġbeteil igen
Ġident itÃ¤t
Ġbinnenmarkt s
Ġkomp lex
Ġig n
ĠerhÃ¶ ht
Ġminder heit
Ġprodukt ions
Ġzul assen
Ġeffekt iv
Ġvorsitz enden
Ġmex iko
Ġrand lage
Ġunanim ously
ĠmÃ¤n nern
auft rag
Ġcooper ate
ĠtÃ¼rk ischen
ĠgesprÃ¤ che
Ġtex ts
ĠbewÃ¤lt igen
Ġprofession al
Ġcounterfeit ing
krit erien
Ġcentr es
sekret Ã¤r
Ġbeitrittsk andidaten
f a
g h
u fe
Ġd ict
ch arta
Ġs Ã¶ren
Ġe chten
Ġf assen
Ġc ateg
Ġg Ã¼nst
Ġan ne
Ġz Ã¼g
Ġund o
Ġl ists
Ġer ad
Ġer itre
Ġvor zunehmen
Ġab and
Ġsu d
ck x
tz eit
Ġman ag
Ġho ff
Ġfa ktoren
Ġdurch fÃ¼hrungs
Ġbet racht
Ġcomp on
Ġsp ite
Ġentsch Ã¤d
Ġjust ify
Ġprov ed
Ġstru kture
rei ber
Ġzweit er
par te
Ġzie mlich
Ġfort un
Ġbro k
Ġakt uellen
Ġev p
Ġmain stream
Ġpay s
Ġbestehen de
Ġproje kten
ĠstÃ¤rk ere
Ġdank bar
ator en
Ġfarm ing
ĠhÃ¶ch ste
Ġbre ach
Ġundert ake
Ġhead s
Ġruss ischen
Ġelect ric
Ġgarant ieren
Ġvorbereit et
Ġrapid ly
Ġnachhalt ige
Ġberu hen
Ġschle cht
Ġspo ke
Ġobserv ations
Ġship s
Ġster ckx
Ġbedro ht
Ġkaka ob
sprogram me
bo ard
Ġpursu ant
Ġjugoslaw ien
Ġlob by
Ġobstac les
gipf el
Ġdurchsch nitt
ĠhauptsÃ¤ch lich
Ġunann ehm
ĠsÃ¶ren sen
Ġcateg ory
k ommission
l Ã¶s
m ail
r ies
Ġ [
ie ÃŁ
Ġm atch
or te
or se
Ġf elt
Ġf Ã¶der
Ġin akzept
Ġv et
Ġun it
em in
Ġver ank
Ġzu vor
Ġvor sicht
Ġle one
th and
Ġher stellung
Ġent ry
Ġfra gest
gr Ã¶ÃŁ
ze p
Ġste uern
Ġpolit isches
ick en
Ġsp ann
Ġzus ch
Ġem p
Ġdec entral
Ġamend ing
fahr t
Ġger aten
Ġwel thand
Ġeinz ig
ange hÃ¶r
Ġsc ience
use hen
Ã¼hr en
Ġspec ies
lichkeit en
Ġstrateg ischen
Ġrespect s
Ġvol kes
Ã¼b t
Ġcr es
Ġann Ã¤her
Ġwahr ung
itÃ¤ts prinzip
ĠgefÃ¤hr lich
ko hol
Ġrad ical
best and
Ġbelg ian
Ġprofit s
Ġcarry ing
Ġfacil ity
Ġrech tzeit
Ġwiederhol t
Ġuner lÃ¤ÃŁlich
Ġverurs acher
Ġsogen annte
Ã¼t ung
Ġkontin u
behÃ¶r den
Ġdetermin ation
lo ok
Ġfunction ing
Ġexem ption
jÃ¤hr igen
Ġluxem burg
Ġfirm ly
Ġrepla ce
bestimm ungen
ĠgenÃ¼ gend
Ġindire ct
ĠbevÃ¶lkerungs gruppen
Ġflugh Ã¤fen
rÃ¤um en
Ġcompl iance
Ġeinzelstaat lichen
Ġmanch mal
e ast
j ud
l iste
o ted
p rechen
Ġt ie
in ely
Ġa fra
Ġs il
it ably
at te
Ġf ields
Ġin folge
Ġg ue
le vel
ed ter
ir a
el te
ol ig
Ġwir ken
gen cies
Ġge werk
ver w
ver handlungen
Ġnot ice
qu ote
ah me
Ġinter f
ze prÃ¤sident
Ġnach frage
Ġfa ktor
ran ken
Ġfre ude
Ġsit es
Ġentsch uld
Ġdeb ated
ugh ter
Ġgew icht
dr ing
Ġtra vel
Ġmenschen handel
Ġsituation en
Ġbis lang
Ġschw Ã¤
Ġteil nahme
Ġest im
Ġnecess arily
Ġide al
ĠentschlieÃŁ ungen
Ġval id
Ġje gliche
Ġvi zeprÃ¤sident
Ġbeg onnen
Ġoffen en
Ġnegoti ating
Ġkind s
Ġoblig ed
ĠgefÃ¤hr det
Ġinst all
Ġenter ed
Ġec b
Ġdokument e
Ġhinge gen
Ġgarant ie
Ġcla ims
Ġerschein en
Ġfinn land
Ġgenu inely
Ġcheck s
zut ragen
Ġgebe ten
Ġkrank heit
Ġsubvention en
bef ug
ampag ne
Ġsole ly
ĠbefÃ¼rwor te
Ġziff er
ĠsouverÃ¤n itÃ¤t
Ġdom estic
ĠkÃ¼r ze
Ġabsen ce
Ġschro edter
Ġblok land
ĠverlÃ¤nger ung
Ġafra id
d on
f Ã¤hr
g ely
i i
n iveau
o inted
p ass
Ġd rÃ¤n
Ġs au
re ben
Ġp fe
an ke
Ġg d
Ġan re
Ġan schein
ed y
Ġl if
Ġver fassung
Ġer reichung
Ġso fern
Ġauf sicht
Ġco sta
ach ing
Ġab Ã¤nderungsant
Ġsch ad
Ġsch lage
op ard
Ġent ail
ĠÃ¼ber aus
ges ellschaften
Ġres erve
Ġunter nehmer
Ġra uch
Ġkon serv
Ġgen der
Ġbet rag
Ġsa al
ok ument
Ġwo hn
ub tedly
Ġbesch lieÃŁen
Ġprodu cing
Ġpl Ã¤ne
Ġmin ute
Ġsta ates
Ġrec over
sel be
Ġregard ed
Ġpla ces
Ġend orse
Ġrechts rahmen
Ġant icip
Ġdan ish
Ġsc re
Ġmembers hip
Ġbestimm ung
Ġneg ativen
Ġsicherheit spolitik
Ġel ig
Ġfrauen handel
ĠzurÃ¼ck zufÃ¼hren
Ġhil fs
Ġwider spie
Ġban ana
Ġlead s
Ġgesellschaft lichen
Ġbrit ische
Ġaspe kten
Ġunterschied lich
Ġret ain
Ġopt ions
Ġkeep ing
Ġbre ite
Ġluft verkehr
Ġbeant ragt
Ġmaintain ed
Ġformul ierung
Ġirgend w
Ġangemessen e
zess e
Ġbecom es
Ġfahr zeuge
Ġverhalten s
ĠvernÃ¼nft ig
Ġjournal isten
Ġlar gely
Ġeinstimm ig
Ġappar ently
Ġinterin stitution
Ġinterin stitutional
Ġsuspend ed
Ġdiscip linary
Ġscr utin
Ġmittl eren
Ġausweit ung
Ġvolunt ary
Ġjul i
Ġundo ubtedly
Ġcres po
b els
h eren
n a
Ġa gency
Ġw ent
es h
Ġm un
Ġm us
Ġp f
Ġf ro
Ġf assung
Ġg Ã¼lt
Ġan bel
Ġder iv
ir able
Ġre ass
ic ed
Ġver teilt
Ġha ug
Ġden jenigen
Ġer d
Ġer sta
Ġauf fordern
Ġde vo
Ġvor stellung
ab kommens
Ġne hme
Ġsch icks
Ġma cro
Ġher an
Ġum setzen
ck er
Ġunter zeichnet
Ġta ge
Ġam ts
Ã¤s ent
Ġbei hilfe
wo hn
Ġtra ce
Ġsicher gestellt
Ġwel fare
Ġunder lying
Ġsee ing
Ġgemeinsam er
Ġgel angt
Ã¼hr t
kon vention
Ġris ik
Ġerforder n
Ġje opard
Ġeng ag
Ġaw a
ĠgewÃ¤hr en
Ġadv ance
Ġexpl icit
ĠÃ¶sterreich s
Ġstud ien
Ġwach sam
Ġlandwirtschaft s
Ġmechan ism
Ġextend ing
Ġclar ity
Ġurg ently
Ġtop ic
Ġverbunden en
nehm bar
Ġrun ning
eign et
Ġverurs acht
Ġvorhanden en
Ġbegrenz t
Ġung ere
ĠverzÃ¶ gerung
Ġacknow ledge
Ġtransition al
Ġhaft ung
Ġersuch en
Ġhop es
verfol g
Ġuneinges chrÃ¤nkt
Ġcrop s
Ġerle bt
Ġzentr ale
Ġaufrech ter
Ġabscha ffung
Ġgor sel
Ġrestru ct
Ġaband on
Ġelectric ity
Ġfragest unde
Ġanbel angt
a fft
b il
d okument
f ted
l imin
m ann
m acht
in ary
is ierte
re ib
re ds
Ġin nen
Ġc ast
al ter
ar es
Ġun regel
ur ate
ed u
Ġl esen
Ġver trÃ¤gen
Ġwe ight
id o
Ġpro zesses
Ġj uly
ver ordnung
ess ions
Ġvor n
Ġaus gleich
Ġaus gel
ik as
la red
Ġdem ograph
ate ll
ĠÃ¼ber r
ĠÃ¼ber leben
ste uer
Ġste el
anz ig
Ġsa ve
Ġspe k
Ġpre limin
Ġcouncil s
Ġem u
Ġdec lared
Ġbest immen
Ġviel zahl
Ġimportant ly
Ġ3 9
Ġerw artet
Ġet a
Ġwirk liche
Ġbed anken
Ġenvironment ally
Ġ5 3
Ġbeit rÃ¤ge
fÃ¤ llt
spro zesses
Ġschutz es
trÃ¤ glich
Ġdefin iert
Ġdef icit
Ġmot or
Ġpun ish
ĠerwÃ¤ g
ov a
Ġprom ises
Ġdemand ing
Ġpap ier
ĠÃ¤uÃŁerst er
Ġident ify
zahl t
Ġexam ination
Ġschritt weise
Ġmodern isation
Ġsur round
Ġdist in
Ġmal m
Ġpal est
Ġamb ition
Ġrad ik
Ġsubsidiar itÃ¤tsprinzip
Ġstaats an
Ġformul iert
fert igt
Ġclar ification
Ġexport s
Ġkontroll iert
Ġrefle cted
Ġdez entral
Ġgenet isch
Ġautom ob
wh ile
ĠmilitÃ¤r ischen
Ġprim arily
Ġwid men
Ġerr or
ĠabhÃ¤ng ig
Ġengl ish
Ġwelcom ed
Ġbrenn er
wass er
Ġsubsequ ently
Ġbezahl en
Ġimag ine
Ġweap ons
ĠgebÃ¤ ude
ĠprÃ¤sid ium
Ġscot land
Ġanne x
ĠannÃ¤her ung
Ġprelimin ary
0 7
b art
f angen
Ġt ried
Ġa ra
re m
Ġin sp
Ġg mo
Ġun n
Ġbe weisen
Ġder eg
il er
Ġst imm
Ġfor ese
et or
de b
Ġge arbeitet
kt iv
Ġsch en
be wer
Ġdi ent
Ġwor st
Ġdis tr
Ġgro ss
Ã¤r kt
Ġkon stitution
Ġprop ert
ieren der
Ġcons c
Ġweit aus
Ġgew innen
Ġmin uten
ĠÃ¶ konom
Ġconf usion
Ġorgan isms
Ġfr u
dem okraten
Ġbed ing
Ġur teil
Ġ5 6
Ġprocess ing
Ġtrans fers
zeich en
Ġpost s
trÃ¤ ger
Ġwort meld
Ġbeg Ã¼nst
Ġoper ating
gew Ã¶hn
Ġshort ly
mÃ¤ÃŁ igen
Ġhon est
Ġprevious ly
Ġleit en
Ġverk auf
mitglie d
Ġgarant ien
Ġunterb reiten
Ġcla use
Ġaffect ing
ĠÃ¼berprÃ¼ fen
Ġanders son
Ġlok aler
Ġton nes
ĠbenÃ¶t igt
Ġcondemn ed
Ġkulture lle
Ġschulden er
Ġkonsult ation
Ġfriend s
Ġrent ner
Ġbehaup ten
ĠerwÃ¤hn ten
Ġgriech ischen
Ġpill ar
Ġbetrieb s
Ġsympath y
Ġsozialdemokrat ischen
Ġversicher ungs
Ġkm u
ĠsorgfÃ¤lt ig
Ġsab ot
Ġunregel mÃ¤ÃŁ
2 3
j ido
o ÃŁ
w u
Ġd uff
Ġs port
at lant
ie ller
Ġc ur
al a
Ġver deut
Ġver lauf
Ġzu ges
Ġzu erst
Ġzu stande
Ġr ub
Ġst ahl
Ġer teilt
de x
Ġas ide
Ġvor bild
Ġdes erve
Ġab gesch
Ġaus wahl
Ġse ktors
Ġsh o
Ġinter ventions
Ġres ist
Ġnach t
Ġstr ik
Ġkon sens
Ġdurch setzung
Ġcomp atible
Ġsp here
con s
Ġinc om
Ġgew Ã¼n
Ġrel ate
Ġregard less
Ġfinanz ieren
Ġfl achs
Ġget ragen
Ġversch mutzung
Ġsc ore
ĠbÃ¼rger innen
Ġregional er
Ġide olog
Ġvol ume
Ġsor ry
Ġrest ore
Ġcr imes
co hol
Ġtechnolog ie
Ġadv ice
gew iesen
Ġprom ised
Ġentwicklungs zusammenarbeit
Ġgebie ts
Ġple as
Ġrecog nis
Ġvertra ges
Ġpoll uter
Ġpa ar
Ġeinzu fÃ¼hren
Ġsignific ance
Ġenthalten en
ĠausfÃ¼hr lich
Ġgipf elt
Ġnu k
Ġverk nÃ¼
Ġderart igen
.. .
Ġdest ru
Ġumfassen der
Ġdr ug
Ġprofit ieren
Ġstraf recht
Ġmenschenrechts verletzungen
Ġhear ing
Ġkontroll ieren
Ġverletz t
bet rie
Ġincorpor ate
zusch lieÃŁen
Ġintens iv
Ġstrict ly
Ġanspruch s
Ġunanim ity
Ġschool s
Ġwithdra w
ca o
vertrag s
Ġstock s
ĠbegrÃ¼nd et
Ġvertr itt
ĠabhÃ¤ng igkeit
wahl en
ĠwÃ¤hrungs union
Ġerfre ut
Ġeinzus etzen
gef unden
Ġdiox in
Ġuntersche iden
aust ausch
finanz ierung
Ġmak ro
Ġdisziplin ar
Ġgebill igt
Ġattemp ts
Ġjahrhunder ts
Ġrh etor
Ġworry ing
ĠbefÃ¼rcht ungen
Ġwelthand els
Ġrechtzeit ig
% ,
e k
f lag
n gl
o ben
u ert
w es
y rom
er te
er ved
Ġt ang
on i
Ġw og
Ġw atch
Ġm Ã¤ng
Ġe jido
Ġf inger
Ġo spar
Ġc ities
Ġan lage
Ġan gleich
Ã¼ ge
Ġi cao
Ġein kommen
el on
Ġl iter
Ġl ernen
Ġwe isen
Ġpro c
Ġer mut
Ġer laÃŁ
os ing
Ġdas selbe
Ġab bau
Ġle is
Ġy or
ow n
Ġho olig
au er
pr Ã¤ch
Ġdurch zusetzen
Ġcomp lement
Ġfre is
Ġwar ning
Ġdire kte
Ġbereit schaft
Ġact ively
ite ten
geb aut
Ġsel ten
Ġoff ices
Ġfest zustellen
Ġgleich wohl
Ġconf ident
Ġgemeinsam es
Ġfinanz kontrolle
Ġ4 1
Ġdra fted
Ġschw Ã¤ch
Ġele ction
Ġir res
fass ungen
Ġklar heit
Ġverbrauch ern
ho le
Ġexist iert
Ġged enkt
bereich en
Ġwirtschafts wachstum
Ġverst Ã¶ÃŁ
drÃ¼ck en
Ġfern sehen
Ġpal Ã¤st
Ġsag ten
Ġhim self
Ġmob ile
ĠratsprÃ¤sident en
Ġgerecht igkeit
Ġerarbeit en
Ġpen al
Ġexcept ions
Ġaugen blick
Ġfinn ish
ĠÃ¤hn lich
Ġobserv ation
Ġincin er
Ġniederl Ã¤nd
Ġbeweis last
Ġdisapp ear
Ġverfass er
Ġfu el
Ġhindern isse
Ġgradu ally
sc ale
Ġverwirk lichung
Ġunre al
Ġexclus ively
ennungs anlagen
Ġremo ved
Ġcomplic ated
Ġintelle ct
Ġstol z
Ġerlau ben
Ġkakaob utter
h ear
i leg
s y
u ung
Ġa qu
Ġw enden
Ġw wu
Ġs ending
Ġm ck
Ġf unkt
Ġin wie
al ition
ar ies
Ġn ament
Ġv ast
Ġun o
Ġan sehen
st Ã¤tigkeit
as tet
Ġk ol
Ġver sp
sch lag
ul ierung
Ġfor st
Ġer weisen
de z
Ġge pl
Ġmit wirkung
Ġde pl
Ġnicht reg
Ġle gt
Ġwer ten
ck ung
be ziehen
Ġat om
Ġherr schen
Ġges ichert
Ġch ain
ist ischer
Ġqu a
Ġra cial
Ġgen fer
Ġcan ad
sta ates
Ġconc ent
mer z
Ġentwick elten
Ġper ip
Ġsome one
Ġmon it
Ġeconom ically
Ġ3 3
Ġsozial er
Ġfest legen
Ġabge geben
Ġgesch Ã¼tzt
Ġfr isten
Ġpers u
Ġwhere as
Ġrecht lich
Ġange hÃ¶ren
Ġlast en
Ġvert ie
Ġinvest itions
Ġstrateg ies
Ġdemokrat isch
Ġallow s
Ġstra ft
Ġbr ut
Ġcor ruption
Ġverbraucher schutz
Ġstatt gefunden
Ġoffen heit
Ġevent ually
Ġstabil isation
weis ung
Ġmult ilater
Ġaccording ly
ĠtatsÃ¤ch lichen
Ġwissenschaft liche
Ġfern seh
fre und
Ġkor rig
Ġang st
Ġbroad cast
Ġbedau ere
Ġech elon
Ġhard ly
Ġabsicht en
Ġdon ors
Ġcred it
Ġmobil itÃ¤t
Ġii i
Ġabstimm ungs
nor men
Ġexplan atory
Ġdead line
Ġverabschied ung
Ġbeob ach
Ġforest ry
Ġflag s
ĠendgÃ¼lt igen
ĠÃ¶kolog ischen
struktur en
Ġshar es
Ġku hne
Ġmetho de
Ġvorange gangenen
Ġhund reds
Ġpie ce
Ġaust ausch
Ġconven ience
Ġcategor ies
Ġmalm strÃ¶m
Ġpropert y
Ġwog au
Ġmck enn
Ġfunkt ions
Ġnichtreg ierungs
4 0
a der
e b
g ut
k an
r essourcen
t ion
v ar
z id
er ing
on sten
it es
Ġb ul
an lage
Ġh under
Ġh yp
Ġun fall
Ġan hÃ¶r
Ã¤ he
as en
Ġein treten
ge ht
Ġzu ver
de ten
Ġj on
ben s
Ġvor g
ab geordne
ungs maÃŁnahmen
Ġcomm end
Ġres ident
Ġres umed
all ing
Ġman ip
ult ur
Ġwenn gleich
Ġob gleich
Ġthan king
Ġdam aging
Ġfe wer
Ġro ll
Ġzusammen zu
Ġper pet
Ġagre es
arbeit s
Ġgemeinschaft liche
Ġpresent ing
Ġschw ar
Ġneg ativ
Ġlook s
Ġansicht en
Ġminister rat
Ġans onsten
Ġinn eren
Ġverhand lungs
Ġdrit tel
ĠstÃ¤rk sten
Ġrele v
Ġstud ie
Ġdoub ts
Ġche ap
Ġexam ined
Ġcoordin ated
Ġanw enden
best Ã¤nde
part ner
Ġterr ible
Ġtrag ic
ĠentschlieÃŁungsant rÃ¤ge
Ġpurs ue
Ġhol z
ief st
Ġspee ches
Ġreag iert
gesetz gebung
Ġniederl anden
Ġassoci ations
Ġzut iefst
Ġinf ring
Ġkompliz iert
Ġrats vorsitz
Ġcompar ison
Ġkan ad
Ġausger ichtet
Ġrechtsstaat lichkeit
Ġrechtfert igen
Ġzwangs lÃ¤ufig
ĠkohÃ¤s ion
Ġanmerk ungen
Ġdebatt ieren
Ġtempor ary
Ġangewand t
Ġmckenn a
Ġhyp oc
a pe
c is
p ut
w a
Ġa p
Ġthe ore
Ġm assen
an cing
Ġf ischer
Ã¼ st
Ġder er
as pe
Ġk urs
Ġre ve
Ġver teilung
Ġzu gestimmt
Ġda hin
Ġal cohol
Ġdem okraten
Ġent repr
sp ap
pe ctive
ow en
Ġinter im
Ġad mitted
Ġstr ugg
cess ion
Ġinc omp
Ġpre ise
Ġbereit et
Ġmon ten
Ġger ichte
now n
Ġeinz ur
Ġmarket ing
Ġexp and
Ġperson nel
klÃ¤r t
Ġbew iesen
je kte
Ġcontro vers
Ġstra ight
Ġhaushalts jahr
spro chen
ĠhÃ¶ heren
Ġzug ute
Ġbel der
Ġword ing
Ġeng age
Ġresour ce
Ġstar ken
Ġpay ing
Ġkl ass
Ġsitz ungen
Ġerinn ere
Ġlon don
Ġgemeinschafts initiative
ĠsÃ¼ den
Ġve ter
Ġeinzu beziehen
Ġfisher men
Ġhumanit Ã¤re
verb ind
Ġdeter ior
Ġwiederauf genommen
Ġton nen
Ġsach verstÃ¤nd
ĠstraÃŁ e
Ġanzu wenden
igare tt
Ġbild ungs
Ġeingere ichten
Ġlat est
Ġdeep ly
Ġwid ely
Ġqualifiz ierte
Ġleist ungen
Ġoccur red
Ġalters versorgung
Ġvig il
Ġmetho den
Ġeinger Ã¤umt
Ġkonflik te
Ġschwed ischen
Ġprospect s
Ġwiederher stellung
ĠangekÃ¼nd igt
Ġvorgehens weise
Ġunf air
Ġrum Ã¤n
Ġsteuerzahl er
Ġcollabor ation
Ġinkraft treten
rel ated
Ġirres pective
Ġnichtregierungs organisationen
Ġtheore t
b as
f tet
g ust
h ow
l ife
r ess
z ard
Ġt ritt
on ger
un ction
Ġb n
Ġp ush
Ġp sy
ion al
Ġo ct
Ġc igarett
Ã¼ ste
Ġk unden
Ġver f
Ġau ge
Ġzu kommen
Ġst able
Ġer setzt
Ġal kohol
os p
Ġde pr
Ġsch Ã¶
Ġsch ier
Ġma aten
Ġwer k
we if
Ġum gang
sp h
ay s
igen de
Ġinter nen
ien ste
Ġch ap
Ġhat zid
Ġad j
Ġkon front
Ġkein em
Ġvo ice
Ġzusammen h
Ġmenschen rechten
Ġaussch Ã¼sse
Ġgleich berecht
zeit raum
Ġfl ood
eth o
Ġatt ra
Ġhope fully
Ġohne hin
Ġgest altet
Ġachie vement
Ġgef aÃŁt
Ġhaushalts linie
Ġkur ze
Ġlook ed
Ġpriv ileg
Ġbef ried
Ġcr ises
Ġbu y
Ġless ons
Ġevent uell
rech ung
Ġcreat es
ĠÃ¼berein kommens
Ġchan cen
Ġlack ing
mÃ¤ÃŁ ige
ĠprÃ¼ f
Ġgemeinschafts recht
Ġvors ieht
Ġpower ful
Ġbisher igen
Ġlin ken
Ġfair ly
Ġspan ischen
Ġobser ved
Ġsex uellen
Ġmer it
org ungs
Ã¼rz t
Ġameric ans
Ġparagraph s
Ġinspect ions
Ġtabak erzeug
ĠvernÃ¼nft ige
eg ro
Ġbild et
Ġefficient ly
Ġeinf ache
Ġvertr ieben
Ġlaufen den
program me
Ġgeograph ical
Ġsett lement
ĠerwÃ¤hn te
Ġcust om
spolit ischen
Ġbeunruh igt
miss ible
Ġschrift lich
Ġapprox imately
Ġunzul Ã¤nglich
Ġbege g
ĠwÃ¼nsch enswert
Ġrelie f
Ġarbeitspl atz
Ġgetre ide
Ġmainstream ing
Ġelig ible
ĠunregelmÃ¤ÃŁ igkeiten
Ġmakro Ã¶konom
Ġintellect ual
Ġmonten egro
Ġpsy ch
Ġoct ober
Ġcigarett es
Ġhatzid akis
a ire
b u
k und
p aÃŁt
r ik
w are
Ġd rop
in ens
Ġw ip
ie g
Ġp lÃ¤
Ġo kt
ig ern
Ġl enken
Ġver zeichnen
Ġr ies
ber g
Ġst ich
Ġno on
ein bar
Ġpro ud
Ġauf ent
Ġvor der
Ġvor nehmen
Ġaus b
Ġle inen
Ġsch n
Ġex istenz
Ġher it
Ġher gestellt
Ġwill kommen
tr an
be zie
be auftrag
Ġges prÃ¤ch
Ġar me
Ġdar gelegt
enn ess
Ġstr onger
Ġob liegt
Ġcan ce
iz in
str ichen
Ġverb ie
Ġverb rech
Ġarbeit nehmern
Ġind ication
Ġup d
Ġgew Ã¤hlt
Ġzusammen setzung
Ġmin im
Ã¤m pft
Ġzeit en
Ġass ets
Ġabge ben
Ġsin cer
Ġange wendet
Ġeuro s
Ġbelie ves
Ġsc andal
Ġ4 00
Ġable hnen
Ġrepr Ã¤sent
Ġchar ges
Ġauthor ised
Ġide en
Ġrepresent ation
Ġklar stellen
ĠbeschÃ¤ft igten
Ġequ ival
Ġzun ahme
Ġpost dienste
Ġ7 5
Ġ7 00
Ġkonk urr
Ġverschieden er
Ġorganis ierten
Ġgesetz es
Ġ15 2
Ġschwier ige
Ġaut os
Ġakzept abel
Ġverhand lung
ĠzustÃ¤nd igkeiten
Ġcontain ing
Ġamsterdam er
ĠgefÃ¤hr lichen
ĠgefÃ¤hr liche
Ġwirksam en
Ġfischere ip
Ġred und
ĠgeschÃ¤fts verkehr
Ġdist ort
Ġraum s
Ġgipf els
Ġkap az
ĠbewuÃŁ tsein
ott i
Ġnah en
Ġlog ical
ĠbeglÃ¼ckwÃ¼n sche
Ġlok ale
Ġautom atisch
Ġjugend lichen
Ġalloc ation
Ġprivat isation
Ġcommer ce
Ġbeginn t
jahr es
Ġrelig ious
ĠbÃ¶ ge
Ġreflect s
Ġenfor ce
Ġchrist ian
Ġkaka o
Ġkorre kt
Ġdispla ced
ĠeinschrÃ¤n kung
Ġerleicht ern
Ġprison ers
Ġsla ughter
Ġreiter ate
Ġwrit ing
Ġakte ure
ĠlÃ¤ uft
Ġchin ese
Ġreserv ations
Ġanstre ben
Ġdefinit ely
Ġpict ure
Ġfert ig
Ġschicks al
Ġrestruct uring
bezie hungen
) ;
) ]
b in
d o
h ous
h inge
m es
m Ã¤h
Ġt isch
Ġw in
Ġs urf
re ter
Ġn it
Ġz Ã¤hlen
ut ive
Ġver ordnungen
ul ating
Ġzu w
Ġwe aken
Ġco vers
kt ions
Ġab h
Ġaus f
op s
ant rag
Ġall mÃ¤h
Ġsich erung
Ġar med
uch e
Ġqu ar
Ġfa ith
Ġstat ute
Ġdis par
Ġdurch setzen
Ġcomp uter
Ġsp ar
Ġsp lit
Ġpre jud
Ġhin weise
rat ing
ĠÃ¤nder ungs
Ġper mitted
Ġaussch Ã¼ssen
Ġref use
Ġbo we
Ġrechts p
Ġ4 6
Ġgu ilt
Ġverein igte
Ġcitizens hip
ĠfÃ¼hr ung
Ġmed ical
Ġgest attet
Ġgest Ã¤rkt
Ġtrans it
Ġbl ind
Ġcor rie
Ġsociet ies
Ġverl ust
ĠgewÃ¤hr leistung
Ġru fen
ĠschlieÃŁ e
Ġeigent lichen
Ġremain ing
Ġgere gelt
Ġentscheiden der
Ġklein er
Ġangenommen en
Ġguarantee ing
Ġschul en
Ġpfl ichten
Ġargument e
Ġmob ility
Ġkor ruption
Ġunterb reitet
Ġtalk ed
Ġmenschenrechts konvention
Ġexper ten
Ġdro gen
Ġka iro
Ġunge fÃ¤hr
Ġobtain ed
Ġlangfrist ige
ĠgrÃ¼nd lich
Ġdiv ided
Ġspezif ischen
Ġverteidigung spolitik
Ġextra ordin
Ġhung er
Ġmultinational s
Ġeinstimm igkeit
Ġdynam ic
laus el
Ġut most
Ġexpens e
Ġlaunch ed
Ġnahe zu
Ġexpert ise
Ġdiesel ben
ĠÃ¤lter en
Ġey e
Ġmargin al
Ġinev itably
ĠbedÃ¼rf nisse
Ġfeeding stuffs
Ġbarr iers
Ġspect rum
Ġregre tt
Ġeritre a
lÃ¶s ung
bewer ber
Ġgipfelt reffen
ĠmÃ¤ng el
Ġokt ober
Ġherit age
a ure
b stÃ¤nd
m od
p ed
s elt
s ituation
v est
Ġw Ã¤l
is ite
Ġb ott
or ing
Ġe hre
Ġp ak
Ġf yrom
Ġo ben
Ġv og
Ġan halten
Ġz iti
Ġk ranken
Ġand ern
Ġis a
el k
Ġeurop ar
iss es
Ġer mitt
Ġer laub
Ġer richtung
Ġge fÃ¼hl
la ut
Ġum gehen
ĠÃ¼ber mitteln
sp ort
tr itt
aus end
Ġch a
ad es
Ġman geln
Ġdi kt
Ġus ual
zu folge
Ã¶r ung
Ġfre uen
Ġverb oten
wer fen
Ġdire cted
he ber
Ġgrund lagen
Ġro t
Ġop enness
Ġsystem atisch
auf gaben
Ġbas ken
ĠmaÃŁ st
Ġgleich ermaÃŁen
Ġerw arte
Ġwieder hole
Ġrechts ausschuÃŁ
Ġrem ove
Ġcertain ty
Ġsc en
Ġ4 4
Ġlegisl ativen
Ġumwelt sch
Ġumwelt ausschuÃŁ
Ġverein bart
ital s
Ġ6 1
Ġtext es
ho od
Ġkur d
Ġtats achen
Ġkonk reter
Ġcontrib uted
Ġshow ing
Ġperiod s
Ġaufge worfen
Ġsw ift
Ġcomb ined
Ġbill ig
Ġbor n
ĠtÃ¤t igkeiten
ĠhÃ¶ch sten
Ã¤ss ern
Ġvict im
Ġras se
Ġopf ern
Ġbevor stehenden
ĠpersÃ¶n lichen
Ġdut ies
ĠflÃ¼chtl ingen
Ġdritt staaten
ieb ung
ĠvollstÃ¤nd ige
Ġconstit utes
Ġgering er
Ġverring ern
Ġrand z
Ġstre ben
ĠfÃ¼ hlen
Ġeinf achen
Ġdeta ill
Ġbesitz t
Ġforest s
Ġschwerwie gende
Ġmoder nen
Ġpenalt ies
Ġverantwortungs bewuÃŁ
ĠgrenzÃ¼berschreit ende
ĠbekrÃ¤ft igt
Ġbureauc ratic
Ġchem ical
Ġceil ing
inc in
Ġatlant ic
Ġschott land
Ġgeeigne te
Ġbetrugs bekÃ¤mpfung
Ġentfern t
kre is
mil ch
Ġstattf indet
ari at
Ġunannehm bar
Ġsurround ing
ĠpalÃ¤st inens
Ġentrepr ene
Ġfischereip olitik
Ġziti ere
k y
m ine
n dez
p Ã¶
s a
er re
Ġd ump
Ġw Ã¤hlen
Ġs ale
Ġs atell
at ures
re formen
Ġm ere
Ġf ixed
Ġf pÃ¶
Ġin haft
Ġun recht
Ġan stelle
Ġbe le
Ġein nehmen
icht ung
Ġver fe
Ġver ehrten
ve y
Ġauf hebung
Ġj ack
Ġle hnt
Ġges chen
Ġch osen
Ġfa kten
ran ge
Ġgen uÃŁ
Ġrat ified
Ġmo ved
Ġcont am
fÃ¼hr te
Ġdec lare
lle d
Ġnew spap
Ġjust ification
Ġtra ditions
Ġmon day
Ġdisc over
ĠgroÃŁ zÃ¼
Ġbo ost
Ġbed aure
Ġlie fern
Ġ4 3
gesch rieben
gesch wind
Ġrahmen bedingungen
act ions
Ġmed izin
Ġsm et
Ġerst es
Ġvol lem
Ġanges ehen
Ġsect ions
Ġexpress ly
Ġ8 00
Ġgesam theit
ĠvorschlÃ¤ gt
man agement
Ġzug Ã¤nglich
Ġwhole hear
Ġregel mÃ¤ÃŁig
Ġakt ive
Ġakt ual
Ġinteress ant
Ġev ans
Ġoffen ces
Ġzukunft s
Ġharmon ised
Ġergeb nissen
Ġern Ã¤hr
Ġdialog s
ĠrÃ¼ck kehr
Ġtele ph
ĠzusÃ¤tz lich
ĠauÃŁen handel
ĠÃ¼berw achen
Ġbor ne
Ġwirksam keit
Ġwissenschaft ler
Ġobser vers
Ġkont akt
ĠverstÃ¤r kte
Ġgarant iert
Ġdurchge fÃ¼hrten
Ġscient ists
Ġtest ing
Ġpension ers
Ġsen ken
Ġ198 9
Ġvorbe halt
Ġjeweil s
ĠkÃ¶nigreich s
Ġstad ium
Ġlat ein
ĠÃ¤hn liche
Ġbi omet
Ġdead lines
Ġbesitz en
jÃ¤hr ige
Ġmonopol ies
bestimm ung
Ġappar ent
Ġmold ova
Ġenor men
Ġdirector ate
Ġkonflik ten
Ġceil ings
Ġmiss ing
Ġstor ms
Ġwand el
vertre ter
Ġunzureich end
Ġtaxpay ers
ĠwÃ¤hl er
Ġscrutin y
Ġtrace ability
Ġpalest in
Ġinwie weit
ĠgroÃŁzÃ¼ g
d ro
f on
g ert
h es
i ated
k Ã¶rper
m t
p la
p ap
r s
u ct
z if
Ġ Ã¶rt
en ne
Ġt it
Ġa gencies
Ġw age
Ġs n
is tern
it ten
Ġm Ã¼sse
Ġp ir
Ġc as
Ġg ol
Ġbe wirken
Ġbe zeichnen
Ġbe endet
st Ã¤nde
us sen
Ġein m
Ġein kommens
el ung
ter ing
id et
Ġge prÃ¤
ver fahrens
Ġvor feld
ill ing
Ġaus z
Ġaus sicht
Ġaus Ã¼ben
Ġsch licht
Ã¼ber ein
ĠÃ¼ber mittelt
Ġreg istr
Ġch ines
ĠmÃ¶ ge
ist ent
se ktors
Ġnach teil
Ġbei zutragen
Ġdis reg
Ġgo eb
Ġweit em
Ġdire kten
Ġdec re
vo ller
Ġbez ogen
Ġref erences
Ġeben en
Ġfr esh
Ġregul ate
Ġregul ated
Ġversch mutz
Ġbeit rÃ¤gt
Ġverein fach
reg ierung
Ġbring s
ĠnatÃ¼r lichen
Ġausge geben
Ġworld wide
Ġproced ural
Ġtrans actions
Ġvoll er
Ġprior it
Ġerforder liche
Ġ8 5
Ġ% ,
Ġaccept ance
Ġbro ader
hol en
bed ing
Ġsum mer
Ġnegoti ate
Ġplan ung
Ġmot iv
fÃ¤h igen
Ġcomple ted
ĠrÃ¼ck verfolg
Ġsy n
Ġdienst stellen
Ġcongratul ations
Ġplay ing
02 7
Ġprakt ische
Ġunfortun ate
Ġdist ingu
Ġcaus ing
Ġdemonstr ation
Ġkap itel
Ġeinges chrÃ¤nkt
Ġangeb lich
Ġgerecht fertigt
Ġconv ict
Ġsatisf action
ĠÃ¼berprÃ¼ ft
Ġroad s
Ġflug zeuge
Ġrecon cil
Ġgenet ic
Ġitalien ischen
frei heiten
sper iode
Ġca iro
Ġung lÃ¼ck
Ġlat in
Ġparlamentar ier
Ġhor r
Ġfle isch
Ġjournal ists
Ġentschlossen heit
Ġprem ier
Ġvorrang ig
Ġexem pt
Ġbeseit igen
Ġschwerwie genden
Ġmonopol y
Ġleist ungs
Ġcontract s
Ġkonstrukt iven
Ġkop f
ĠbeeintrÃ¤cht igt
Ġgehe im
Ġwelcom es
ĠmÃ¼nd lichen
Ġratifiz ierung
Ġguter res
Ġkategor ie
Ġmur der
miÃŁ brauch
Ġaccompan ied
Ġrigor ous
Ġgeleis tete
spart ner
Ġbench mar
Ġkontinu ier
verw altung
Ġkonserv ativen
Ġfro h
Ġungere cht
Ġautomob il
Ġunn Ã¶t
Ġwelthandels organisation
Ġperip her
Ġschier huber
Ġgoeb bels
3 5
i as
k rÃ¤ft
t schaften
u x
z a
Ġw ille
Ġf ate
Ġin hab
Ġc ere
Ġn az
ro at
Ġv ag
Ġan bie
Ã¤ be
st ad
ll es
Ġis lands
Ġein fÃ¼hren
ra in
ic kt
ge halt
ge geben
Ġver dien
Ġver mitteln
Ġst unde
Ġden k
est s
Ġmit verbr
Ġvor getragen
Ġle hren
Ġuns icherheit
ib re
Ġfra hm
Ġnach denken
au ern
Ġdis m
ĠkÃ¶n ne
Ġgen ieÃŁen
our ismus
Ġcomp osition
Ġzw anzig
Ġpre d
Ġwo zu
Ġpe king
Ã¼ck e
Ġdec ade
Ġwicht igkeit
Ġbereit en
Ġeing reifen
Ġprov ider
ific ations
Ġsee ks
Ġfr ust
Ġwhere by
ac cession
Ġli ft
Ġmill enn
Ġur heber
Ġschw ere
Ġown ers
Ġafr ikan
Ġstrateg ien
Ġemploy ed
Ġemploy ers
Ġinte ll
ĠentschlieÃŁ ungs
Ġnor den
mÃ¶ gen
Ġgeneral sekretÃ¤r
Ġlea ving
ĠgewÃ¤hr ung
Ġnegoti ation
Ġkind es
Ġkl Ã¤ren
ĠerwÃ¤ gung
Ġopen ed
Ġsuccess fully
Ġunab ding
Ġaddress ing
Ġcivil ian
Ġitem s
Ġfound ed
Ġtradition ellen
Ġjun ior
Ġrespe ctive
Ġstaats bÃ¼rger
Ġbeant ragen
Ġenergie trÃ¤ger
Ġuntersuch en
Ġelect oral
Ġprof ess
uff icient
Ġcut s
produ ktion
Ġautom atically
Ġdeclar ations
Ġmitt ler
Ġvermitt lung
ĠkÃ¼ mm
ĠergÃ¤n zen
Ġrespekt ieren
Ġunions bÃ¼rger
Ġradio akt
ĠverzÃ¶ gerungen
Ġwithdra wn
Ġsav ings
Ġbau ern
gebie ten
Ġsozialdem okraten
Ġweak ness
program ms
stat us
Ġappell iere
Ġzer o
Ġuneinges chrÃ¤n
ĠgrenzÃ¼berschreit enden
Ġappoint ments
Ġverschle chter
Ġumwel tz
pers on
Ġgewiss er
Ġversto ÃŁen
Ġkenn zeichnung
kr ise
Ġdoss ier
Ġperspekt ive
Ġparad ox
Ġbeibe halten
Ġirregular ities
Ġpil ot
Ġpropag anda
mechan ismen
Ġinakzept abel
Ġschuldener laÃŁ
Ġangleich ung
Ġyor k
Ġmonit ored
zard ous
Ġbn fl
Ġwip o
Ġsincer ely
1 1
4 6
4 8
5 5
l angen
o hlen
p one
t ag
v ier
z el
Ġw od
un kten
Ġb iÃŁ
Ġb attle
Ġe ag
an cies
Ġf it
Ġn ut
Ġn omin
Ġun m
Ġan bet
Ġan lÃ¤ÃŁlich
Ġan erkennen
Ġbe wirtschaftung
Ġder selben
ic ated
Ġl ic
Ġl oy
Ġver sprechen
sch w
Ġau gust
ter ung
hr t
Ġst ay
Ġst ance
Ġno body
Ġpro stit
Ġer setzen
ere qu
Ġim pr
Ġge fragt
Ġpr erequ
ver teilung
Ġvor wand
Ġab uses
Ġle hnen
Ġsch Ã¶n
Ġma d
Ġsu itable
end es
end ung
ĠÃ¼ber fl
Ġsh ock
ck he
be zogen
ain e
heit s
Ġho st
Ġus ers
Ġstr ing
Ã¶r der
Ġgemein den
Ġarbeit geber
Ġproblem atisch
Ġhier fÃ¼r
Ġhier arch
Ġjahr zehn
Ġtra ding
Ġhand lungen
ĠÃ¶ ffnung
vor haben
Ġass ent
Ġeinz iges
Ġgemeinschaft spolitik
Ġgemeinschaft sebene
Ġfar ms
Ġversch iebung
kehr en
Ġstrateg ische
Ġzahl ungen
Ã¼b ung
Ġhealth y
Ġbesonder er
Ġ% .
Ġpost pone
Ġeng land
Ġerweit ert
Ġmarkt wirtschaft
weg ungen
Ġkl Ã¤r
Ġaut o
per iode
Ġerste llt
ission en
Ġvier tens
Ġjud ge
ĠmiÃŁ verstÃ¤nd
Ġwirksam er
ehr ter
ĠbefÃ¼r wortet
Ġeinbe ziehen
Ġpfl anz
Ġbuild ings
Ġemphas ised
Ġpromo ted
Ġisrael i
Ġrede beit
ĠverstÃ¤r kung
pid em
Ġunemploy ed
Ġtim ber
Ġelekt r
wÃ¼rd ig
dienst leistungen
Ġkommun ikations
Ġsk ills
ĠverstÃ¤nd lich
Ġmand at
ĠdiesbezÃ¼ glichen
Ġcred ible
Ġausgewogen heit
sitz ung
Ġcampaign s
Ġdeliver ed
Ġveran laÃŁ
Ġmont ag
Ġfriday s
Ġdepend s
Ġmanufactur er
Ġmultinational en
Ġbehaup tet
Ġvermittlungs verfahren
ĠerÃ¶r tert
Ġadvoc ate
Ġenor me
Ġimmun ity
Ġbedauer lich
Ġansch luÃŁ
Ġenvis aged
Ġdisag ree
Ġtaus ende
Ġwall strÃ¶m
Ġuncertain ty
leb ung
Ġkooper ations
ĠfuÃŁ ball
Ġsud den
betrie be
Ġleis tet
ĠanhÃ¶r ung
Ġjon ckhe
owen ig
bu ild
Ġequival ent
Ġdisreg ard
ĠrÃ¼ckverfolg barkeit
Ġwod urch
Ġjonckhe er
b re
c ard
f assen
g n
j ing
m ing
m etho
o pp
r ation
r iment
s ider
s man
t c
z le
er b
ch tern
Ġs omm
Ġs we
Ġs ke
Ġb on
ie gen
Ġe pidem
Ġp ain
Ġn ull
te hen
Ġbe zeichnung
st ieg
Ġk uck
Ġre ven
Ġre isen
Ġein seit
Ġver arbeit
omm od
ul ted
den k
ct ing
Ġda hinge
Ġst rom
Ġst ammen
Ġfor tz
Ġcon j
Ġge eignet
Ġge klÃ¤rt
Ġauf richt
Ġauf fassungen
Ġaus wÃ¤rt
Ġma f
Ġent last
ann ual
Ġunter strichen
Ġar ise
etz ten
Ġcom pe
Ġbei jing
Ġra ising
Ġparlament en
fÃ¼ gt
Ġzw Ã¶l
con t
pl ath
sicht lich
Ġfe ature
Ġgrund freiheiten
Ġro ute
Ġpl at
Ġacc ommod
Ġrec all
Ġsel bstÃ¤nd
Ġeben s
Ġunder mine
isten cy
Ġange wiesen
Ġevery body
Ġgener ations
Ġqual it
Ġtun is
zus prechen
Ġgest altung
gest altung
Ġdemokrat isierung
Ġ200 5
Ġdeut liche
Ġke en
Ġgef Ã¤ng
spro b
ĠgrÃ¶ÃŁ ter
Ġaccept ing
Ġlebens qualitÃ¤t
Ġresult ing
Ġerweit ern
weit e
Ġwider stand
Ġkurz en
gehen de
Ġdet riment
Ġban ks
Ġban otti
ĠschlieÃŁ t
Ġsitz en
Ġerinn erung
ĠverÃ¤nder ung
ĠauÃŁen minister
ĠÃ¼berw ach
Ġnatur a
ĠunabhÃ¤ng ige
Ġwenig sten
Ġschul milch
Ġernst hafte
ko dex
Ġencour aged
Ġbeitritts will
Ġsignificant ly
ĠpersÃ¶n liche
Ġstrengthen ed
Ġrom ano
Ġhistor ical
Ġverwalt ungen
regel ungen
polit ische
Ġfas c
Ġhar bour
Ġspezif ische
Ġbein halten
Ġqualifiz ierter
Ġattack s
Ġverh Ã¼tung
ĠergÃ¤nz ung
Ġvig or
Ġgeneration en
ĠgesprÃ¤ chen
Ġemission en
Ġdestro yed
Ġcust oms
Ġoffiz iell
Ġberat ungen
Ġsad ly
Ġdefiz ite
Ġmeant ime
Ġexceed ed
Ġhorizont al
Ġeinwander er
Ġchann el
Ġtown s
ĠÃ¼bertrag ung
Ġkompeten z
Ġschm id
Ġenth us
Ġfutter mittel
Ġvertret ung
Ġpercent age
Ġhoff nungen
Ġspann ungen
Ġgd p
Ġschen gen
Ġkonstitution elle
Ġrandz io
Ġwholehear tedly
Ġverdien en
s ah
er ven
Ġt v
Ġt end
Ġs ten
Ġs and
re bt
Ġm iÃŁt
an ges
an teil
Ġf esten
Ġin halts
Ġh es
Ġh alt
Ġh ush
Ġc uba
Ġn ic
Ġg on
Ġan hang
Ġbe weist
Ġk Ã¤
Ġk Ã¶rper
us agen
Ġein k
Ġein halten
ic a
Ġl Ã¶
Ġver mut
sch l
sch ul
am il
ul ative
Ġst amm
um welt
Ġon going
ere ien
Ġge legt
Ġj Ã¶r
ver antwortung
Ġde le
Ġde pendent
Ġvor ab
Ġab fÃ¤llen
Ġsch lag
Ġdem zufolge
Ġsu che
Ġum gehend
Ġber ger
Ġber Ã¼hrt
00 7
00 9
Ġmr d
if iable
Ġinter ne
Ġgr enze
ĠmÃ¶ gen
Ã¤nder ungen
keit en
Ġnach voll
Ġus ually
Ġad vert
Ġgro wn
Ġpo et
Ġdurch gesetzt
Ġsa w
str Ã¤
Ġwo fÃ¼r
Ġmar ok
Ġihr erseits
Ġfe as
Ã¤hr t
art ige
Ġtra in
Ġsoz usagen
Ġrel iable
Ġsozial isten
Ġmark ed
Ġbo ok
Ġstand punkte
Ġgleich behandlung
Ġgesch m
Ġfl ights
Ġ4 7
rei ze
Ġgener ated
Ġwen de
Ġput s
Ġinvest ors
Ġausge fÃ¼hrt
hil f
Ġmor oc
Ġgest r
Ġtrans form
Ġsm es
Ġgef angen
Ġarbeits weise
Ġbl oÃŁ
Ġexpress ing
Ġ8 1
ĠgrÃ¶ÃŁ e
ĠzurÃ¼ck kommen
Ġdefin ing
01 2
Ġhelp ed
Ġ15 0
Ġvi able
Ġempf ohlen
Ġsubsid y
Ġkl amt
Ġwahr en
ĠrÃ¼ck Ã¼ber
Ġaufge treten
Ġmult ip
ĠÃ¶sterreich ische
Ġear th
Ġpop ulations
ifiz ierung
Ġbil anz
ĠÃ¼berw inden
Ġwenig stens
ĠgefÃ¤hr den
Ġinst anz
Ġconsequ ence
Ġhoch geschwind
Ġprakt ischen
Ġeinzu gehen
Ġparticip ating
Ġmensch heit
Ġkommissions vorschlag
Ġsuggest ion
pre ise
spe ed
ĠstÃ¤nd igen
ĠstÃ¤nd ige
Ġvorsitz ende
Ġanwes enden
Ġfahr en
ĠmilitÃ¤r ische
Ġelektron ische
Ġausgewogen e
Ġschwe igen
Ġamt ierenden
Ġtem per
Ġparlamentar ische
Ġbi olog
Ġgerichtshof s
Ġzuge hÃ¶r
Ġadvant ages
Ġbeob achten
Ġlar ger
Ġverm ieden
Ġapprec iation
Ġdisapp oint
ĠendgÃ¼lt ige
Ġreduz ieren
Ġexception al
Ġcop enhagen
Ġcontradict ion
Ġmold au
Ġfil m
Ġreinfor ce
Ġexc use
Ġbenachteil igten
Ġbureauc racy
Ġimmun itÃ¤t
Ġflor a
Ġheimat land
Ġschien e
ĠbÃ¼rokrat ie
Ġforts etzen
Ġantisemit ismus
katastrop hen
Ġunk lar
Ġrepeated ly
Ġdeliber ate
ĠgewÃ¤hl ten
Ã¼ss ig
Ġausl Ã¤nd
Ġinqu iry
dring lich
Ġrecover y
ĠerwÃ¤g ungen
Ġfru it
Ġdestru ction
elk orn
kÃ¶rper schaften
Ġkuck elkorn
ĠjÃ¶r g
b ud
c rimin
d Ã¤m
e ing
n ord
r ust
y le
Ġd ed
re form
Ġm essen
or ten
or ate
Ġo tc
Ġh art
Ġc f
ro us
Ġv ent
Ġg ather
Ġun ity
Ġun ique
Ġan reize
le ute
Ã¼ hm
Ġz it
ig ert
ig sten
ra ge
Ġl Ã¼cken
ge fÃ¼hrt
Ġzu weilen
Ġr uf
um er
Ġso ft
Ġso ught
Ġcon ce
Ġpr Ã¤m
Ġmit unter
Ġvor zusch
Ġab we
Ġaus bau
la gt
Ġsu p
Ġsu gar
ĠÃ¼ber legen
Ġreg imes
tr ieben
igen ce
be ob
Ġunter liegen
gr Ã¼nd
ahr t
Ġdar legen
Ġhe ft
Ġnach kommen
au en
Ġra ises
Ġkon text
Ġbet one
Ġbet reiber
Ġbec ame
Ġdeb ts
Ġout set
teil ungen
Ġgrund prinzip
erst att
Ġcommun aut
chn et
Ġpl ural
Ġacc used
Ġref used
Ġfest halten
Ġganz es
Ġinformation stechn
Ġpers ec
ater ial
Ġgreat ly
Ġrechts sicherheit
Ġrechts ausschusses
Ġbeste uerung
Ã¤l schung
Ġsc ar
kehr t
kon s
Ġspec ified
Ġinvest ieren
ĠfÃ¼hr te
ĠfÃ¼hr ungs
zie le
ĠauÃŁer gewÃ¶hn
Ġdeut sche
Ġ6 00
Ġarbeits losen
Ġbl ut
Ġbl ood
Ġwish ed
ĠÃ¤uÃŁ erungen
Ġglob ale
Ġlebens mitteln
Ġnegoti ated
Ġexist ieren
Ġlab els
Ġharmon ise
wÃ¤r ts
Ġgenau er
Ġprevent ed
Ġschwer punkt
Ġrele ased
Ġdeleg ates
Ġarg ue
Ġcongratul ating
ĠtatsÃ¤ch liche
ĠbefÃ¼r chten
Ġhoch rang
Ġcover ing
ĠerfÃ¼ llung
Ġkultur en
Ġexperien ces
fre ie
Ġresul ted
Ġeinsch Ã¤tzung
Ġju den
Ġsuggest ions
plan ung
Ġturn ed
Ġverur teilung
Ġprepar atory
Ġaccep ts
Ġune qu
Ġkonsequ enz
Ġgriechen lands
Ġgetroffen en
Ġprotokoll s
Ġjugend liche
Ġintens ive
Ġeffizient er
ĠprÃ¤z ise
Ġrespekt iert
Ġunanim ous
Ġdiv ision
ĠjÃ¤hr lichen
Ġdise ases
Ġzunehmen d
Ġarr ived
igaret te
ĠlÃ¤rm bel
hab t
ĠerÃ¶r tern
zer r
Ġattach ed
ĠmÃ¼ ll
Ġerf aÃŁt
ĠmÃ¼nd liche
Ġgesp ielt
Ġfrag ment
Ġflor enz
Ġpassen gers
ĠzukÃ¼nft igen
Ġwarm ly
Ġangest reb
Ġmitte laus
ĠnÃ¼tz lich
zul assen
christ ian
Ġinterinstitution ellen
Ġersta un
Ġrub rik
Ġgebiets kÃ¶rperschaften
Ġpleas ure
Ġcontrovers ial
beauftrag ten
Ġsurf ace
Ġguilt y
incin eration
Ġjack son
Ġpremier minister
Ġbenchmar king
Ġmillenn ium
ĠbiÃŁ chen
Ġunm ik
ĠveranlaÃŁ t
zle z
Ġsomm er
Ġcompe te
Ġebens owenig
Ġhush k
Ġgon zlez
Ġcommunaut aire
4 4
a ktionen
e ff
h ard
l ern
o ÃŁen
p read
r al
u ing
u pp
x as
er kt
Ġd up
Ġw iden
Ġw ides
it a
at iver
ie be
Ġe p
Ġp oms
Ġf and
Ġin g
Ġc olog
ar r
Ġn ik
Ġder jenigen
st ock
ur b
ur m
Ġk Ã¶l
us al
ul ous
Ġda vor
Ġden oun
de velop
os te
os ystem
Ġauf er
ver hÃ¤lt
ver zerr
and t
Ġde te
Ġdes per
Ġaus sehen
Ġsch edu
Ġsh ape
Ġme p
ste in
tr ans
00 5
be vÃ¶lk
scha ffen
ah lung
Ġres idence
Ġar ch
Ġhe il
her steller
Ġkon vent
Ġcan cel
Ġsp itz
Ġpos sibilities
Ġpre text
gra de
he im
Ġmitglied staates
Ġthem as
reich enden
rat s
lÃ¤ uf
Ġins ufficient
Ġsystem atic
Ġfact o
Ġmin en
Ġacc urate
ĠÃ¶ ff
Ġbo y
Ġstand ing
fl icht
Ġmay be
ĠdafÃ¼r halten
Ġschw ach
Ġbeit reten
Ġziel setzung
Ġlo hn
io u
Ġprogramm ing
Ġtun es
Ġwelt bank
Ġir ischen
Ġerst mals
Ġ200 4
Ġaf gh
mÃ¶ gliche
Ġdefin ieren
Ġlea ves
Ġ9 6
Ġje glich
ep ing
Ġgesetz lichen
Ġbeg un
Ġkrit isch
Ġkrit ischen
Ġsubs cr
Ġsei xas
Ġaut or
Ġprom ise
Ġexpl os
Ġeigent liche
Ġged anke
Ġrece iving
ĠzustÃ¤nd ige
Ġstellung nahmen
ĠverÃ¤nder n
Ġtele fon
Ġasyl bewerber
verb ot
Ġverteid igt
Ġderart iger
Ġschein en
Ġeinges ch
Ġeinsch lÃ¤
Ġcho ices
Ġkonzentr iert
Ġumfang reiche
Ġoffer ed
Ġrom ania
Ġzul assung
Ġeffekt ivitÃ¤t
ĠvollstÃ¤nd igen
ĠschluÃŁfol gerung
po int
Ġinspect ors
Ġdon or
llar iou
ĠdiesbezÃ¼ gliche
Ġbilater alen
Ġbeein fl
haus halts
Ġung laub
Ġlangfrist igen
Ġexplan ations
Ġbesorgnis erre
Ġquant ity
ĠerlÃ¤ut ert
Ġaufbau en
Ġster ben
Ġaktionspl Ã¤ne
med iterranean
opoul ou
Ġinfrastruct ures
Ġzerst Ã¶rt
ĠergÃ¤nz t
Ġed f
Ġappell ieren
Ġvermittlungs ausschuÃŁ
Ġberuf s
ĠstÃ¤d te
Ġanz up
Ġelimin ate
Ġabst ained
Ġgradu al
Ġdiplom atic
Ġproduz enten
Ġpostpon ement
Ġhund red
Ġstip ulated
Ġdringlichkeit s
Ġsake llariou
Ġtenden z
Ġfourth ly
Ġbran che
Ġdisag re
Ġberecht igt
Ġassozi ierungs
Ġernen nung
Ġincent ives
Ġverschw inden
Ġslight ly
ĠparitÃ¤t ischen
Ġgeschle chts
Ġausnahmeregel ung
Ġforg otten
ĠzÃ¼g ig
Ġverursacher prinzip
ĠdrÃ¤n gen
ĠÃ¼berr as
Ġforese e
deb atte
Ġfreis etzung
Ġbul gar
Ġstrugg le
Ġchap ter
Ġpak istan
ĠernÃ¤hr ungs
Ġlatein amer
ĠentschlieÃŁungs entwurf
Ġdahinge hend
Ġhochgeschwind igkeits
Ġwides pread
Ġcolog ne
ĠkÃ¶l n
Ġschedu led
Ġafgh an
8 0
a fen
f lÃ¤chen
i pp
k rimin
k rank
n est
n ot
t im
Ġt ort
in ner
Ġa ward
Ġth res
on ym
Ġs ight
re aching
ie fert
Ġe pp
an ks
ion age
Ġh osp
Ġc ert
Ġc igarette
Ġn ar
Ġn Ã¤he
ro lle
Ġk red
Ġand re
ed s
Ġre chen
Ġl icht
ol met
Ġzu zustimmen
Ġst reichung
et ten
Ġcon stra
Ġge forder
Ġauf forderung
Ġas ia
ver stand
Ġmit ro
Ġdes irable
Ġnot ably
Ġsch enken
Ġse xt
Ġma il
la v
qu ately
iv oc
Ġum sch
Ġwill ens
ib ly
Ġber g
sen z
Ġwas s
Ġar ising
Ġcom pr
Ġhe iÃŁen
Ġho hem
Ġste igerung
Ġag gress
Ġad verse
zu gehen
ud ing
Ġcons istency
Ġmo x
mer ken
pf e
Ġout standing
Ġdec ades
Ġricht er
Ġgew inn
Ġro h
Ġprodu kten
Ġfir ms
fahr zeuge
Ġprov in
Ġgeb unden
Ġeinz ug
ild et
Ġfinanz iell
ĠwÃ¼r d
Ġregul ierung
Ġweiter entwick
spr inzip
Ġget reten
Ġversch l
Ġversch ieben
iet y
lau fe
Ġgu ard
Ġlast ing
Ġincre ases
aÃŁ nahmen
Ġafr ikas
Ġbedeut ende
Ġchar ge
Ġdemokrat ischer
Ġerst re
Ġarbeits bedingungen
Ġel end
Ġeinzel heiten
Ġvorge legte
ĠdÃ¼r ften
Ġbel ow
Ġverl Ã¤ng
Ġbezie hung
Ġapproach es
Ġfrei handels
Ġadv anced
Ġben utzt
gehen den
Ġmoment an
Ġtro ub
Ġpass ing
Ġgrenz werte
sÃ¤tz e
Ġtour ist
Ġfrieden sprozeÃŁ
ĠbeschÃ¤ftigung spolitik
ĠgefÃ¤hr licher
Ġfis cal
02 1
Ġred is
Ġanw esen
Ġexperien ced
Ġamb ig
ĠprÃ¤ senz
app ropri
ĠverstÃ¤r kten
Ġgewalt ige
kontro llen
Ġuntersuch t
Ġverbind lich
Ġsuggest s
Ġtim or
Ġrecon sider
Ġverletz ungen
Ġnachhalt ig
Ġthreat s
Ġlear ning
Ġprivat isierung
Ġinvestig ations
Ġappe ared
Ġterritor ies
Ġdiv ide
Ġfle et
Ġumst Ã¤nde
Ġperspect ives
Ġradio active
Ġseek ers
Ġgek enn
Ġkn app
ĠendgÃ¼lt ig
Ġenfor cement
Ġents orgung
Ġwarn hin
Ġbehin der
Ġdopp el
Ġverhe ugen
Ġbir ds
Ġfoot ball
Ġenh anced
Ġhabit ats
Ġausreichen de
Ġmitentscheid ung
ĠerÃ¶ff net
Ġgrem ium
ĠtÃ¤ glich
ĠbetrÃ¤ gt
Ġmerk mal
Ġphys ical
ĠentschÃ¤d igung
Ġfortun ately
Ġsau ber
Ġstaatsan wal
Ġsabot age
Ġscore board
Ġtang ible
Ġgepl ant
Ġvorder grund
Ġschn elle
ĠwÃ¤l der
Ġbasken land
Ġanbet racht
Ġconj unction
Ġbeitrittswill igen
Ġmittelaus stattung
Ġbeeinfl ussen
a ue
c le
c as
d ung
i ques
k w
l ander
v ina
z ig
Ġ +
Ġ uen
er ium
Ġa ly
on ing
Ġm em
Ġm cc
or i
Ġp in
Ġp aket
an agement
Ġf ang
Ġin fe
Ġo s
Ġc eder
ar io
ro ad
Ġv ill
Ġan gel
Ġan kÃ¼nd
Ġbe herr
Ġz Ã¶
Ġk irk
Ġre ception
Ġein leitung
ut age
Ġver ze
Ġver weise
sch iÃ¶
ter min
Ġr id
Ġst Ã¼r
um b
Ġal to
Ġge fol
Ġauf ru
Ġmit zu
Ġco x
Ġco ex
and rak
ab in
th en
Ġma at
ĠÃ¼ber denken
sp flicht
ungs weise
be lebung
Ġor te
ah nen
Ġpres erve
ad ing
ad ays
Ġta cis
Ġhe kt
Ġhe utz
Ġra p
Ġfin ish
our se
Ġbet on
Ġcons ulted
Ġind ones
Ġdam al
lieÃŁ t
Ġgew onnen
Ġgew Ã¶hn
Ġtra ins
Ġzusammen halts
Ġmenschen handels
Ġviel es
ign ed
Ġnow adays
Ġsocial ly
olog ien
tel n
Ġtechn ischer
Ġbetr iebe
Ġange k
Ġange hen
Ġbelie f
Ġ5 2
Ġ5 4
Ġ5 5
Ġteil t
Ġumwelt freund
Ġkommiss are
tt ung
Ġeinge hend
Ġmed ina
Ġrespect ing
Ġauthor isation
Ġir r
Ġzahl ungs
Ġdiffer ently
Ġarbeits gruppe
Ġbew aff
Ġlang em
Ġhaushalts ausschuÃŁ
Ġvertre te
Ġdel icate
Ġrev ised
Ġbef ind
Ġfavour able
ĠÃ¼b lichen
ss andrak
Ġ19 6
Ġorganis ieren
Ġgesetz geb
Ġoffen e
Ġwahr nehmen
Ġverhand eln
ĠrÃ¼ck gang
ĠgrÃ¼n buch
Ġjahres bericht
Ġlandwirtschaft lichen
Ġreach ing
mÃ¤ÃŁ igkeit
Ġdisp ute
Ġvier zehn
02 6
que llen
Ġverteid igungs
Ġaktion sprogramm
Ġverhin derung
Ġtotal it
mitglie der
Ġbit ter
ĠsÃ¼d oste
ĠmÃ¤r kten
Ġlegitim acy
Ġnahrungs mitteln
Ġilleg ale
Ġilleg alen
Ġtrag edy
Ġangesprochen en
Ġflug zeug
Ġprepar ations
Ġindic ate
ij k
Ġjur istischen
Ġdro ht
Ġvorbe halte
Ġunge achtet
Ġreject ion
Ġdev ast
Ġkonflikt s
Ġkommissionsmitglie der
Ġsent ence
Ġauss agen
Ġweltweit en
ĠkÃ¼rz ung
Ġfas ch
Ġtw el
Ġworth y
ĠgeÃ¤uÃŁ erten
Ġtre mend
Ġcondu cted
Ġkompliz ierten
Ġbedro hung
Ġbewer ten
Ġalten er
wan derung
Ġwarn ings
Ġcoast al
Ġwilling ness
mÃ¤r kten
Ġsurpr ise
Ġsah ara
Ġisol ation
Ġgegenseit igen
Ġexpens ive
Ġevalu ierung
Ġloss es
Ġsubsequ ent
Ġdefiz it
Ġbiotechn ology
Ġenh ance
Ġemb ra
ĠerÃ¶ff nen
ĠfÃ¤h igkeit
katastrop he
ĠenttÃ¤us cht
Ġhilf reich
Ġgetr enn
Ġkommer zie
ĠfÃ¶der al
ĠschwÃ¤ chen
Ġscre ening
Ġmun icip
bil den
Ġabgesch afft
Ġdisziplinar verfahren
flag gen
ĠrumÃ¤n ien
Ġverbie ten
Ġdispar ities
Ġinhab it
Ġstring ent
ĠzwÃ¶l f
Ġunequ ivoc
Ġmitro vic
Ġaly ssandrak
Ġceder schiÃ¶
Ġkirk h
Ġheutz utage
Ġalyssandrak is
ĠcederschiÃ¶ ld
a ktion
b us
b em
b aus
b indung
d ies
f isch
i pped
k al
k am
k Ã¼r
k urs
u um
v iew
Ġt ieren
Ġb Ã¶r
Ġm g
Ġm erg
Ġp rag
an forderungen
Ġf em
Ġf ette
Ġc atastrop
Ġun um
Ġan hand
te gr
ir ing
Ġre h
Ġre ise
Ġre verse
ge kommen
Ġver ts
Ġver sprochen
Ġver laufe
sch er
ul der
Ã¶ tz
Ġst Ã¼ck
Ġpro l
Ġer b
de cken
Ġim bal
Ġcon tem
Ġas pir
ach lÃ¤ss
Ġde ploy
Ġab zustimmen
Ã¼ber trag
ant opoulou
und s
Ġber Ã¼hm
ne ten
Ġres ort
Ġges onder
Ġunter lagen
Ġbes agt
Ġen abling
Ġqu e
Ġho ur
Ġus d
Ġstr and
Ġkon f
oc ation
Ġpre f
pl ans
ass oni
Ġmo ther
Ġwar s
he ll
Ġbest reben
Ġnational ity
Ġsystem atically
Ġpl Ã¶tz
Ġfo ught
Ġmin e
Ġeing et
Ġbas k
ine a
hand elt
Ġass um
Ġfest geschrieben
Ġunder min
Ġgesch Ã¤d
Ġfinanz mittel
Ġfinanz mÃ¤rkte
Ġfr assoni
Ġange paÃŁt
acht ungs
Ġbed ienste
Ġversch oben
Ġresol ving
Ġreal isierung
Ġrahmen s
Ġimmer hin
Ġgener ate
Ġgest rigen
Ġberichterstatter n
Ġide ology
Ġtur mes
Ġrep orted
Ġintegr iert
Ġbl ame
Ġdemocrat ically
Ġpost dienst
Ġu c
Ġcor por
Ġsum s
Ġsum me
Ġje ws
Ġtechnolog ischen
Ġcolle ction
urop as
Ġgent e
Ġbar bar
Ġkrit isiert
Ġprogress ive
Ġben utzen
stehen de
Ġru in
Ġern ste
fÃ¤h ige
Ġkl uft
Ġ20 20
Ġstabil isierungs
ĠÃ¼berein stimmen
hÃ¶ re
Ġjoint ly
Ġviol ated
Ġklein eren
oll ar
Ġverfol gung
02 5
Ġvern achlÃ¤ss
Ġcoordin ate
Ġeinzu halten
Ġsitzung speriode
Ġverk aufen
Ġgrundrechte charta
Ġdokument en
Ġuntersuch ungs
Ġerheb lichen
Ġfail ing
Ġclar ified
ĠbeschluÃŁ fÃ¤higkeit
ĠvÃ¶lk ern
Ġzentral en
Ġsym pt
Ġrecon c
Ġeffekt ive
Ġsk andal
Ġmax im
Ġhol ds
Ġmovement s
Ġtack led
Ġce ase
Ġbeschl Ã¼ssen
Ġrestrict ive
Ġeffizient e
Ġeingeb rachten
Ġprem ature
Ġvoran zu
Ġsov iel
Ġvir us
Ġpensions fonds
Ġrepla ced
Ġvess el
spra ch
ĠverÃ¶ ffentlich
Ġfrequ enz
Ġcop yr
Ġsett le
ĠstÃ¤d t
ĠstÃ¤d ten
Ġmitglieds lÃ¤nder
ĠtÃ¼rk ische
Ġinfrastruktur en
ĠbewÃ¤lt igung
Ġeinger ichtet
Ġberat ung
ĠangehÃ¶r t
Ġwom it
netz e
Ġdiam antopoulou
Ġoccup ied
Ġforts etzung
Ġversto ÃŁ
Ġausgest attet
Ġnachzu denken
Ġacknowled ged
Ġoste uropa
Ġabziel en
Ġsusp ic
Ġderog ations
Ġdict ators
Ġsil ence
Ġforst wirtschaft
Ġzuver lÃ¤ss
Ġreve al
sph ase
ĠplÃ¤ d
hous e
Ġextraordin ary
Ġvereinfach ung
Ġvag ue
ĠauswÃ¤rt ige
Ġpoet tering
bevÃ¶lk erung
ĠeinschlÃ¤ g
Ġrechen schaft
Ġsext ourismus
Ġmitrovic a
Ġkirkh ope
Ġcopyr ight
c s
d auer
h y
i ary
o ven
r Ã¼ckt
s achen
v ine
w em
w ater
en k
Ġd u
in burg
Ġs ant
Ġs enten
re ct
re ise
an bau
Ġf ont
Ġin cons
Ġo d
Ġo m
Ġc ity
le me
le inen
Ġbe lastung
as il
Ġz iv
Ġk lage
Ġre mit
Ġein iges
Ġein rÃ¤umen
em essen
em issionen
Ġl or
Ġl am
Ġver un
sch te
sch ten
am es
Ġzu zu
Ã¶ ste
gen huber
Ġha zardous
Ġden y
Ġden ied
ein igt
Ġer de
Ġer stellung
Ġdies mal
im ine
Ġauf gerufen
Ġnot ion
uld ung
Ġaus land
Ġaus Ã¼bung
Ġne ut
Ġsch Ã¤tz
Ġma es
ant ini
Ġent zieht
Ġum struktur
Ġdo or
be wirtschaftung
Ġor dent
if ies
for schung
gr Ã¼nden
Ġgr at
me ister
ord net
ord nungs
Ġbes che
Ġman if
Ġman gelt
Ġfa kt
Ġad ap
Ġapp la
Ġapp alling
Ġgen es
Ġgen aue
con tro
Ġfre ut
Ġhin der
Ġimport s
Ġthem atik
pf ul
Ġgrund zÃ¼ge
Ġgew id
ner g
Ġsozial istischen
Ġend es
Ġtechn isch
Ġli able
Ġmittel frist
Ġschw eren
Ġlo bens
Ġens hr
Ġcar go
Ġmor gan
Ġmed ic
Ġkomm ent
Ġ8 7
Ġstellen wert
Ġdemocrat isation
Ġtransport ation
Ġeng aged
ichte ten
Ġbeg reifen
Ġkrit isieren
Ġplan et
Ġinn oc
Ġschne llen
ĠstÃ¤rk eren
Ġsw iss
Ġsy nerg
Ġverpflicht en
Ġbill igen
Ġflexib il
Ġempfehl en
Ġbelg ischen
Ġstaats angehÃ¶r
ĠsÃ¼d lichen
Ġkr imine
Ġdr iving
Ġprof ound
Ġkonzentr ation
besch luÃŁ
Ġdritt lÃ¤nder
Ġrech nen
Ġhinzu weisen
Ġcut ting
Ġnormal en
ĠkohÃ¤r ent
av an
Ġpurs ued
Ġexper iment
Ġverurs achen
ĠsÃ¤mt lichen
Ġvorbe ugen
Ġehr lich
Ġspr ing
Ġxenophob ic
Ġterror ism
Ġterror ismus
Ġtransfer red
Ġlisten ed
Ġalban ian
ĠdÃ¤n ischen
entscheid ungen
Ġiraq i
Ġerneuer barer
prob leme
Ġauseinander setzung
Ġmittelmeer raum
iber al
Ġober grenze
Ġmoder ne
nÃ¼ gen
Ġtarge ted
Ġed inburg
Ġcontradict ions
Ġdep th
Ġurs ache
Ġfu els
Ġsurpr ised
Ġwitness ed
Ġsold iers
ĠbeeintrÃ¤cht igen
Ġincident s
Ġfoot ing
greif ende
Ġverwirk lichen
Ġdiesel be
Ġkategor ien
Ġmulti annual
Ġey es
Ġchann els
Ġperform ance
Ġimper ative
Ġunsch uld
Ġtelekommun ikations
Ġbewerber lÃ¤ndern
Ġmorg antini
Ġbewahr en
Ġanre iz
Ġanschein end
ĠabÃ¤nderungsant rÃ¤ge
Ġirgendw el
Ġdevo ted
Ġabandon ed
Ġbeding ung
Ġresist ance
Ġqua est
Ġvigil ant
Ġkonfront iert
Ġverbrech ens
Ġerlaub t
Ġprofess or
Ġprerequ isite
Ġsten zel
Ġalto gether
Ġfem ale
Ġfont aine
Ġedinburg h
8 7
g ten
l am
m Ã¤cht
p ack
r Ã¼st
s orge
w icht
w agen
Ġd olmet
Ġs ar
Ġs int
Ġb ip
Ġb Ã¼nd
Ġb reiten
or gen
Ġp ertain
Ġf oss
Ġan bau
Ġbe wirkt
Ġto ugh
Ġz Ã¤hlt
ll y
Ġk arte
Ġre vers
Ġein igkeit
Ġein bringen
el a
Ġl iv
Ġver se
Ġpro ven
Ġpro active
Ġer a
Ġal beit
Ġge ehrten
ver l
Ġco alition
Ġdes ired
kt ive
Ġse arch
th y
Ġdem nach
qu oten
ĠÃ¼ber legung
Ġwill kÃ¼r
Ġfra ktions
sen den
igen den
Ġwas hing
ow er
Ġman aging
Ġqu Ã¤st
Ġho hes
Ġnach weis
ag og
Ġra re
Ġpos selt
Ġwo od
Ġneed less
Ġind ik
he il
pf l
Ġfe ier
Ġfe atures
Ġdec line
Ġ199 1
Ġgew Ã¤sser
art igen
Ġbesch rieben
Ġviel fach
Ġins eln
Ġhuman ity
Ġger ingen
Ġacc oun
Ġrec ip
Ġrec ru
geb Ã¼hren
ĠgroÃŁ teil
Ġoff ic
iger weise
Ġwieder ver
Ġover look
Ġunder line
Ġorgan ise
Ġiniti ativ
Ġ4 9
Ġlegisl ativ
Ġevery where
Ġhel pful
Ġgener ous
ĠnatÃ¼r liche
Ġbedeut enden
Ġir on
Ġredu ctions
Ġdav ies
Ġbr id
Ġsoc io
Ġseiner zeit
Ġsum mar
Ġsens it
Ġwort laut
Ġinteress ante
Ġfood stuffs
Ġgar ca
Ġorganis ierte
Ġgesetz geber
Ġschwier iger
Ġharmon ising
Ġru iz
Ġfore cast
Ġopen ly
Ġaufge hoben
Ġph Ã¤n
Ġerfolg reiche
Ġfal sche
Ġdisp utes
Ġsl oven
bereit en
Ġexam ining
Ġfischere ise
Ġschul z
Ġenter ing
Ġprinzip iell
Ġpatent amt
Ġvis ible
Ġbeha upt
Ġangeb oten
Ġdest abil
Ġdisch ar
Ġstraf rechtlichen
Ġumfang reich
Ġfocus ed
Ġerk annt
Ġnormal erweise
Ġarmut s
Ġcritic isms
Ġmax imal
Ġmis under
initi ativen
Ã¼g ereien
ĠvernÃ¼nft igen
Ġbeam te
ĠÃ¼bersch ritten
Ġamt ierende
Ġverring ert
Ġdauer haften
Ġleicht er
strÃ¶ me
ĠauÃŁerord ent
Ġtre ib
ĠursprÃ¼n glich
Ġfear s
Ġdisapp ointed
Ġconsist ently
ĠmiÃŁbrauch t
Ġslow en
sparte ien
Ġfrequ ently
Ġfront iers
Ġkonstrukt ive
Ġroth ley
Ġdiscip line
Ġschlimm er
Ġdrast ic
Ġkil led
Ġconsolid ation
fun k
Ġemb ry
Ġgrem ien
Ġpreced ent
rep ublik
iÃ¶ se
ĠwidersprÃ¼ ch
Ġverwir r
atal og
Ġrin dern
Ġign ore
Ġverank ert
Ġwortmeld ung
Ġnuk lear
Ġap olog
ĠallmÃ¤h lich
Ġdump ing
ĠgeprÃ¤ gt
Ġexempt ions
Ġreven ue
ĠÃ¼berwach ungs
Ġgekenn zeichnet
Ġprag m
Ġreh abil
Ġadap ted
- -
9 6
b rechen
c ar
c ia
d ed
d lichen
h ern
k ter
k ultur
k lausel
p us
p aket
r Ã¼ck
s inn
t es
t ra
z usehen
er ted
Ġt s
Ġt ighten
in form
Ġw esen
Ġb our
Ġm eld
Ġe ef
an spruch
Ġin put
Ġo ost
Ġc at
ar n
Ġg Ã¶
Ġg ott
Ġbe gangen
st im
st reit
Ġk h
Ġre gen
Ġre la
Ġein nahmen
Ġver la
Ġver gew
Ġzu zulassen
gen der
Ġha vel
Ġst Ã¼tzt
Ġden selben
Ġpro zesse
Ġer h
Ġer be
Ġer bringen
Ġde ll
Ġvor sehen
Ġab zusch
Ġaus de
Ġsch iffen
Ġse as
op ath
Ġher n
Ġher zustellen
Ġent f
Ġsich eren
ann akis
ck s
ay annakis
ug t
ah e
ges prÃ¤
Ġunter drÃ¼ck
Ġar z
ad ed
all o
Ġta gt
au ert
Ġstat ut
ip s
ip t
Ġbeen den
Ġcomp lied
Ġrat ification
Ġfre ely
Ġhin nehmbar
Ġverb leiben
pf ung
Ġfe els
Ġsol ved
Ġbest Ã¤nde
lÃ¤ che
ak ten
ans ion
iÃŁ ig
Ġger inge
Ġwhen ever
Ġclear er
Ġref usal
Ġsozial es
Ġinternational ly
Ġconf used
Ġbetr Ã¼gereien
Ġrechts akt
stimm t
mittel meer
Ġmittel s
Ġbek annten
Ġfall ing
Ġ5 1
Ġteil s
Ġumwelt ver
Ġleben den
Ġausge zeichnet
Ġobject ions
Ġir respon
Ġide ologie
Ġintegr al
Ġfundament ally
Ġbesonder es
ĠerklÃ¤r te
Ġartik els
Ġjo ining
Ġback ing
01 7
Ġcolle ct
vorsch rift
Ġorganis ing
Ġoffen ce
recht liche
Ġcult ures
Ġwider spricht
Ġhervor ra
Ġann ually
Ġverhand elt
Ġconvention al
Ġaufge griffen
Ġdemand ed
Ġpap ayannakis
Ġstabil isierung
Ġph arm
weis ungen
Ġwettbewerbs verzerr
Ġfal schen
Ġwa ke
Ġvorgesehen e
Ġavail ability
ĠverÃ¤nder ten
Ġfour teen
ĠgrundsÃ¤tz liche
Ġnatur katastrophen
Ġwasser politik
Ġanswer ed
Ġsur pl
Ġdist ance
Ġcontra st
Ġbeitritts lÃ¤ndern
ĠhÃ¤ uf
stell ern
Ġlow est
Ġras che
Ġgrundlegen der
Ġtrag Ã¶
Ġincor rect
Ġhistor ischen
Ġlog ik
Ġaufzu bauen
enteil s
Ġtack ling
Ġexerc ised
lÃ¤ÃŁ t
ĠÃ¼bersch wem
Ġverste ht
ĠanschlieÃŁ end
eben e
ĠjÃ¼ng ste
Ġinsof ar
Ġjournal ist
Ġbig gest
Ġade quately
Ġbesitz stand
Ġinitial ly
Ġprefer red
Ġleist ung
Ġarr ive
Ġneighbour s
Ġleaders hip
Ġersuch t
Ġshar ing
dis crimin
zer ne
Ġabol ition
Ġabol ish
ĠbetrÃ¤cht lich
Ġflugh afen
Ġsozialschutz es
Ġappoint ment
Ġunl ike
Ġamerikan ische
Ġverhe eren
Ġpermit s
Ġantisemit ism
Ġthir teen
Ġinterpre ted
Ġren ational
Ġbemer ken
Ġgeneraldire ktion
Ġbosn ien
Ġbosn ia
Ġhervorragen den
Ġbewe gung
ĠzulÃ¤ss ig
Ġgelt ungsbereich
Ġatmosph ere
Ġmanag ers
Ġcompon ents
Ġgewerk schaften
Ġestim ates
Ġinstall ations
befug nisse
Ġrhetor ic
Ġbeobach ter
Ġaufent halts
Ġausf uhr
ĠÃ¶rt lichen
Ġcere als
ĠklÃ¤r ung
sprob lem
Ġmoroc co
Ġhushk its
hard t
Ġjeglich er
Ġtroub le
Ġcoex istence
Ġmunicip al
Ġlam y
Ġmanif est
Ġoost lander
3 2
a id
d own
d ollar
f as
h Ã¤nd
k op
m ungen
p est
u z
u be
w achung
Ġt abling
Ġt anks
in stitution
Ġa hern
Ġm at
Ġe us
an cy
Ġf eind
Ġc attle
al ien
Ġn ap
Ġn av
Ġv ary
Ġg ast
Ġg ulf
Ġan x
Ã¼ d
Ġbe gan
st es
st ag
Ġz in
Ġk rÃ¤ften
Ġis lam
Ġre ib
Ġein her
ic ter
el fen
Ġl it
Ġl ib
Ġl ingu
Ġver markt
Ġver dienst
ul icher
Ġr Ã¤
Ġst ations
Ġst ick
Ġst ory
Ġst reichen
Ġeurop es
Ġer stellen
Ġer heben
Ġge we
Ġge ziel
Ġge zahlt
Ġauf s
ben dit
ĠfÃ¼r chte
men gen
Ġco hn
kt iven
Ġnot iced
Ġaus fÃ¼hrung
Ġsch eit
Ã¼ber wachung
sp unkte
Ġsie d
ne iden
hal opath
ot te
se e
Ġqu oted
Ġbei zu
ect ive
ang ing
Ġste llte
Ġmein t
Ġstr icter
Ġgem isch
Ġlik ed
Ġfre ight
Ġfre unde
Ġhin nehmen
uss ions
Ġsit e
Ġproblem atic
Ġind ien
Ġem ot
Ġout lined
Ġjust it
Ġkolle g
Ġinv ited
Ġbereit zustellen
Ġpl us
Ġfo ster
rÃ¤ ume
Ġprov an
ite te
Ġrec ourse
Ġgeb lieben
Ġsel ber
zeit en
Ġorgan en
Ġgesch rieben
Ġend ors
Ġgel iefert
Ġtechn ik
Ġwhere ver
ac ted
Ġexp ansion
Ġbek lagen
Ġziel s
abl en
Ġcountry side
Ġinvest iert
Ġatt ain
Ġtun nel
erg ie
ĠÃ¶ffent licher
Ġzahl reich
Ġide ological
Ġdeut licher
Ġrep erc
Ġhaushalts mittel
Ġ8 8
Ġbesonder heiten
Ġeigen schaft
Ġhil fen
Ġumf eld
Ġpract ically
Ġlebens bedingungen
gleich en
Ġfun ctions
weit en
gew ichts
Ġstandpunkt s
Ġresearch ers
rech er
Ġbus qu
Ġtro ops
Ġged e
Ġerfolg reichen
Ġunterschied licher
Ġrecommend ed
ĠunabhÃ¤ng iger
Ġprakt iz
Ġvereinbar ten
Ġstress es
Ġethn ischer
Ġanalys ieren
Ġgrundlegen d
Ġcandid ates
zeichne ten
ĠbeschrÃ¤n kungen
wÃ¼rd igen
Ġkommun al
Ġangemessen en
Ġeffekt iver
spe zif
Ġindic ates
Ġschiff s
Ġine quality
Ġconstit uen
Ġ198 6
Ġmanufact ure
Ġsuper vis
Ġspez ial
Ġfinn ischen
Ġsimilar ly
Ġausgewogen en
Ġamt ierender
Ġeingeb unden
Ġdauer hafte
Ġnord ir
Ġwal d
Ġverbr ennungsanlagen
Ġexplo it
Ġveran lassen
Ġlar gest
Ġsal es
Ġkar as
ĠglÃ¼ck licherweise
ĠÃ¶kolog ische
reb ungen
Ġdram atic
Ġpursu ing
Ġkop enhagen
Ġkrank heiten
Ġsucceed ed
Ġabst ain
Ġschlimm sten
Ġvorzu gehen
Ġamerikan er
Ġvirt ually
Ġpostpon ed
ampag nen
Ġirgendein er
Ġbedauer licherweise
Ġessen ce
Ġbeur teilung
Ġdepart ments
Ġapprox im
Ġbomb ard
Ġexec utive
Ġbann ed
Ġcorrespon ding
Ġgas p
dep th
Ġbenef icial
Ġhervorragen de
Ġobligator ische
Ġtelekommun ikation
Ġausgang spunkt
parte i
Ġexplicit ly
Ġdistin ction
ĠgewÃ¼n scht
Ġconfident ial
Ġcanad ian
Ġfunktions weise
abgeordne ten
Ġadj ourn
Ġandern falls
Ġgeschen kt
Ġdism ant
ĠuneingeschrÃ¤n kte
Ġelektr iz
ĠmiÃŁt ra
Ġnik ot
Ġassoziierungs abkommen
Ġthres hold
Ġtremend ous
Ġmerg ers
Ġgente chn
Ġgewid met
Ġquaest ors
Ġreperc ussions
1 0
8 4
b c
b ack
b ett
c oun
d om
f Ã¶rderung
g te
g ue
g allo
h te
k ay
l assungen
m as
n isses
o ke
r up
r ire
r unde
t a
Ġd ine
Ġt Ã¶
Ġt ens
in ken
in vest
Ġa st
Ġth er
Ġth ors
Ġth ys
Ġs cept
un a
Ġb ret
Ġb bc
ie th
Ġm ism
an y
Ġf f
Ġf ed
Ġc lin
al itÃ¤ten
ar thy
Ġn uts
Ġv at
Ġg od
Ġun just
Ġan stehenden
le t
Ã¼ gen
st alten
Ġi v
as ion
ig ter
Ġk au
Ġand al
us ted
ed e
ed ing
Ġre tro
Ġre pression
Ġein leit
Ġein wohner
Ġl kw
Ġver grÃ¶ÃŁ
Ġver schaffen
am ount
ul se
Ġzu gest
Ġst il
Ġst urm
et hn
Ġer reich
Ġal ert
Ġal avan
de ckung
de termin
Ġim stande
Ġcon front
Ġge fÃ¼
Ġge habt
Ġauf halten
pp ich
ts te
Ġent ziehen
Ġdo g
00 2
be wegungen
Ġgr ass
ist ics
Ġwor um
Ġwor auf
Ġnach fol
her ze
ang ers
Ġag ent
Ġpart ial
Ġstr ike
Ġgen f
Ġzw ingen
Ã¶r r
Ġmo llar
Ġind ia
Ġind isp
Ġmen gen
iert es
Ġdec ent
Ġbesch uld
Ġprodu ctive
Ġwieder belebung
Ġgel assen
Ġtechn iques
ell er
Ġthink s
Ġstru ck
Ġpresent s
Ġfinan ces
gesch ritten
Ġverein f
Ġverein heit
Ġziel t
Ġsecond ary
Ġinstitution elle
Ġliber t
Ġtrans atlant
Ġliberal e
Ġverw and
mÃ¶ glichen
Ġintegr ate
Ġbew ill
Ġrul ing
Ġhaushalts ausschusses
Ġ7 1
Ġrest ra
Ġproduct ivity
Ġjahre lang
Ġbro ken
Ġspecific ations
Ġbezie he
Ġakt iven
Ġakt uelle
Ġhervor zu
gew Ã¤sser
ĠrÃ¼ck stand
Ġprom pt
Ġamer ika
Ġremain ed
Ġmean while
Ġexce llen
Ġadministr ations
Ġwa ges
akt iv
Ġret ire
ĠmiÃŁ achtung
Ġred ing
Ġeinzu leiten
Ġofficial ly
Ġethn ische
Ġvolks wirtschaft
Ġtradition en
Ġmechan ismus
Ġgewalt igen
Ġdr ive
Ġsustain ed
Ġconne cted
Ġrea ktionen
Ġtar if
Ġsto pped
Ġaltern ativen
Ġbetreffen de
ĠbeschluÃŁ fassung
Ġzugang s
Ġhistor ische
Ġhighl ights
Ġangemessen er
Ġinhalt lich
Ġrichtlinien vorschlag
ĠbestÃ¤t igung
Ġvorbe halten
Ġterritor ium
erzeug er
Ġquant itative
Ġwest lichen
Ġbad ly
versch ieden
Ġvoran kommen
Ġkn Ã¶rr
inter essen
Ġzunehmen de
Ġconcentr ation
Ġconserv ative
Ġhem m
Ġeingegangen en
Ġdynam ik
Ġstren gen
Ġclass ification
Ġcontradict ory
zut reten
Ġorient ierung
Ġcompeten ces
Ġtoler ance
ano u
Ġlay ing
Ġreinfor ced
Ġsurpr ising
Ġwitness ing
Ġcompla ints
ĠgrÃ¶ÃŁer er
Ġgriech ische
Ġproduz ieren
Ġbiotechn ologie
greif enden
Ġregular ly
Ġintoler able
Ġmitentscheid ungsverfahren
Ġmitge teilt
Ġadjust ments
Ġbann ing
Ġarm y
ĠgewÃ¤hl te
Ġkompeten zen
ĠgrÃ¶ÃŁt enteils
Ġgesicht spunkt
Ġdisadvant aged
Ġentail s
Ġderiv atives
mitglied staaten
Ġincomp atible
Ġrechtsp rechung
Ġpalestin ian
pla ce
Ġreconcil iation
stad t
ĠÃ¼berfl Ã¼ssig
Ġplat form
Ġstamm t
Ġfeas ible
Ġgestr ichen
Ġing red
Ġspitz en
Ġafghan istan
Ġconstra ints
Ġredis trib
Ġanwesen heit
Ġmcc arthy
Ġorte ga
Ġtwel ve
ĠbÃ¶r sen
Ġreconc ile
ĠquÃ¤st oren
Ġreib ungs
Ġbusqu in
Ġsupervis ory
Ġdine h
Ġalavan os
5 7
e le
e ktor
i Ã¶s
k ommiss
k rÃ¤ften
l anges
m ung
m el
o eu
r ession
v p
w eren
z enten
in sel
Ġth rust
on y
Ġw is
Ġw ise
Ġs amm
an en
an al
Ġin vent
Ġo ga
Ġc ra
Ġn Ã¶r
Ġun a
Ġan h
Ġan stieg
ent ed
Ã¼ mer
Ġto x
Ġk och
Ġk Ã¼nst
Ġk ampagne
ic ts
ic able
Ġver lag
Ġver hÃ¤ng
Ġver mÃ¶gen
am anou
ul ates
Ġzu kommt
Ġzu cker
Ġr ande
Ġst range
Ġfor me
Ġer fassung
Ġge gangen
Ġge plan
Ġauf gestellt
Ġauf hÃ¶ren
Ġauf klÃ¤rung
Ġauf greifen
Ġj ar
Ġj ac
est ablish
ver trÃ¤ge
men ge
Ġco fin
Ġvor lÃ¤uf
Ġnot ification
Ġab ges
Ġaus geb
Ġaus setzung
Ġaus drÃ¼ck
Ġle hr
ab stimmung
Ġse ason
th a
ant ast
Ġex ert
ĠÃ¼ber arbeitung
ne z
ug ung
Ġpres cr
aus ende
Ġgr Ã¶n
Ġen ger
ot ine
Ġhe ct
Ġman oeu
Ġdi lem
Ġwor ried
Ġfa ster
Ġstat ing
Ġra w
Ġpart nern
Ġus es
Ġkon z
Ġkon zep
out h
Ġreport ing
iz it
Ġzus agen
Ġarbeit et
Ġmehr zahl
Ġvo ters
Ġgrund recht
Ġgew ahrt
Ġro utes
Ġro ots
Ġany where
Ġnational itÃ¤t
ink el
tre ffen
Ġeing est
Ġbas iert
vo ured
Ġass urance
Ġzwischen staat
Ġpla ys
Ġform ation
ac a
Ġrechts akte
Ġrem ov
Ġreal istisch
Ġappro ving
Ġgu inea
min en
Ġrahmen richtlinie
Ġincre d
Ġcar bon
Ġcontin uation
Ã¼ÃŁ en
Ġposit ives
vers icherung
Ġ6 9
Ġkom pon
Ġlang er
Ġcontro lled
Ġdav id
Ġpat ents
Ġerfol ge
Ġdefin itive
Ġfort gesetzt
Ġcor bett
Ġcontrib utes
Ġcontrib uting
ĠÃ¼b lich
Ġinteress anten
Ġvorgesch rieben
Ġcolle ge
Ġvi ability
Ġoffen kund
Ġempf angen
Ġlab or
Ġkurz er
Ġru he
Ġkl ug
Ġevent uelle
Ġenlar ged
Ġaufge fÃ¼hrt
Ġprevent ive
Ġjeder zeit
Ġgere chte
Ġident ical
Ġverkehr ss
Ġspiel raum
Ġzweif els
Ġcivil isation
ĠabschlieÃŁ en
ĠÃ¼berw acht
Ġpoll ut
Ġlin ke
Ġbetra chte
Ġamb itions
Ġdemonstr ates
Ġkont akte
Ġrede zeit
Ġverz ichten
Ġverbind ungen
Ã¼rz ung
Ġcriter ion
Ġdr iven
Ġras chen
Ġsto ÃŁen
Ġmut ter
Ġord inary
Ġremind ed
Ġdelay ed
Ġzweck mÃ¤ÃŁig
besch l
Ġthough ts
Ġkons olid
Ġproduc er
Ġnah m
Ġindic ators
Ġmand atory
Ġmanufact uring
200 1
Ġdev a
Ġersch Ã¼t
Ġiran ian
Ġprojekt s
kom peten
icien cies
ĠgrÃ¼nd ung
Ġacqu ired
Ġvorher igen
Ġarrang ement
Ġkar amanou
Ġauseinander setzen
Ġgain ed
Ġerr ungen
Ġqualifiz ierten
Ġsubstantial ly
Ġhung ers
Ġmist akes
Ġschuld ig
program men
ĠÃ¶l pest
sprogram ms
Ġenterpr ise
Ġehemal ige
Ġcharacter ised
Ġverfass ungs
ĠzurÃ¼ckge zogen
Ġut il
ĠmÃ¼ he
Ġungleich heiten
Ġtex te
Ġehrgeiz ig
orient ierten
ĠbetrÃ¤cht lichen
Ġoffiz iellen
ĠeinschrÃ¤n kungen
Ġvorzu bereiten
ris y
ĠordnungsgemÃ¤ÃŁ e
Ġwom an
Ġtransl ation
Ġunzul Ã¤ss
Ġadjust ment
Ġtank ers
Ġabziel t
Ġnorm ally
Ġdoss iers
Ġsusp ension
ĠwidersprÃ¼ che
ĠspÃ¼r en
Ġrin der
Ġmanag er
Ġcompon ent
Ġinterf erence
ĠvizeprÃ¤sident in
Ġpfe iler
Ġawa it
Ġaufrechter halten
reib ung
Ġhoolig an
Ġkol onial
Ġdepl ore
Ġmanip ulation
Ġhypoc risy
ĠunzulÃ¤nglich keiten
Ġbott om
Ġconvict ion
Ġautomobil industrie
ĠkÃ¼mm ern
Ġnut rit
build ing
ĠgefÃ¤ng nis
Ġadvert ising
Ġvorzusch lagen
Ġanzup assen
ĠÃ¼berras cht
Ġinhabit ants
Ġenshr ined
Ġinnoc ent
Ġsensit ivity
Ġrehabil itation
institution en
Ġlingu istic
Ġthys sen
Ġandal us
Ġexcellen ce
Ġmanoeu v
Ġremov al
1 5
4 1
b Ã¼ro
f el
f ree
f utter
g rem
i os
j o
k nown
m ord
n ed
p unkten
r ich
s m
t uung
u chte
w affen
en cies
er er
Ġd angers
Ġt reiben
Ġt itel
in ne
Ġa par
ch ung
ch nung
Ġw ed
it ar
it udes
Ġm ig
Ġe lles
Ġp iet
Ġp urch
Ġp ending
Ġf ly
Ġin stances
Ġin appropri
Ġc atch
al itÃ¤t
Ġg ame
Ġun us
Ġun bek
Ġan scha
Ġan fÃ¼hren
Ġan onym
Ġan merken
Ã¤ glich
Ġbe if
Ġbe auft
Ġk ne
Ġk ub
Ġk lagen
Ġk uba
us te
us etzen
ed enz
el ie
el led
am s
Ġzu wenden
il ing
Ġst Ã¼tzen
Ġer we
Ġer satz
Ġer werb
Ġge ehrter
Ġauf kommen
Ġauf weisen
Ġauf einander
Ġpr on
Ġpr ud
ver halten
Ġde em
Ġvor legt
Ġvor stellungen
Ġab seh
Ġaus genommen
Ġaus laufen
ik ationen
la im
la sten
we ises
Ġex ac
Ġum s
ĠÃ¼ber geben
lie hen
Ġfra geste
Ġber n
Ġber eng
Ġber ichtet
00 8
Ġres erves
Ġres erved
Ġar bit
Ġch ief
ord an
ot ential
Ġdi verse
Ġho using
Ġbei der
Ġfa c
Ġra ft
Ġte ach
ult ure
Ġac ted
Ġac ute
Ġgen oc
iz es
Ġpre v
Ġhin ein
gra ben
Ġwur tz
Ġcont ents
Ġwho lly
Ġarbeit sprogramm
wo oll
wer den
wer tet
Ġem pt
Ġmitglied staats
Ġhier mit
Ġbest ra
Ġmenschen wÃ¼r
Ġinv ite
Ġinv ested
Ġbas es
Ġsoz io
Ġla gend
setz ungs
Ġrel uct
Ġass ured
Ġbo vine
Ġconf ederal
Ġover wh
stÃ¤nd ig
fl ug
Ġform ally
Ġfinanz dienstleistungen
Ġrespon ding
Ġange fÃ¼hrt
Ġget s
Ġsc ott
Ġgood year
Ġadd ing
Ġthro wn
Ġatt ent
Ġatt wooll
Ġposit ively
Ġwelt markt
Ġneg le
Ġsign ing
Ġ6 5
Ġhaushalts kontroll
Ġinstrument en
Ġdien sten
ĠÃ¤nderungsantrag s
Ġfam ine
ĠÃ¼b el
ĠÃ¼b rig
Ġaccount able
Ġaccess ible
Ġcult ivation
Ġeth ical
gel d
sto ÃŁ
usion en
Ġgenau en
res ted
Ġfehl ende
Ġerne uerung
Ġvertra ut
Ġplen ar
ĠverÃ¤nder te
Ġstreng ere
Ġkam en
ator ium
ĠtÃ¤t igen
Ġvern ommen
Ġfound ation
Ġexperien cing
Ġlissabon ner
ĠprÃ¤ vent
Ġdisast rous
eld et
Ġargument en
Ġgelten de
Ġdr inking
Ġsustain ability
03 7
Ġimpos ing
Ġsto ffen
Ġtim ely
Ġzweck e
the id
Ġschokol aden
nehm lich
Ġkons um
Ġkatastrop hal
Ġdienstleist ung
Ġton ight
Ġerschein ung
Ġsix th
griff e
Ġconvin ce
Ġinvestig ate
ĠtÃ¤tigkeit s
Ġalong side
Ġgenug tuung
Ġvorhanden e
ĠkÃ¼ ste
Ġtem po
ĠÃ¤hn lichen
ĠprÃ¤z edenz
Ġdauer haft
ĠgrÃ¼nd et
Ġwest sah
Ġdefend ed
Ġexem pl
iste ll
Ġwithdra wal
Ġgenehm igt
Ġangol an
Ġbau en
Ġsmok ers
Ġoccur ring
Ġverh Ã¤ngt
Ġhervorge ht
Ġcompens ate
Ġindire kt
sprogram men
dis ziplin
Ġjugoslaw ischen
sk i
Ġgenere llen
Ġadvoc ates
Ġelimin ating
Ġdestro y
Ġgegenseit ig
Ġratifiz iert
Ġpill ars
ĠbekrÃ¤ft igen
Ġschweiz er
ĠsÃ¤ uber
ĠsÃ¤ ule
Ġbelong s
Ġbir gt
pers onen
Ġwrit e
Ġtool s
Ġgeste llten
Ġerkennt nisse
Ġmitge fÃ¼hl
ĠkohÃ¤s ions
Ġtank er
Ġthir ty
Ġremark able
Ġbenef ic
Ġincent ive
Ġverwir kl
Ġtrop ical
Ġimmen se
Ġdecentral isation
Ġdecentral ised
Ġwiderspie gelt
Ġwiderspie geln
Ġara b
Ġinsp ir
Ġdistr ess
Ġconcent rating
Ġmultilater al
Ġkorrig ieren
Ġhunder tt
Ġkapaz itÃ¤ten
Ġcha os
Ġentreprene urs
Ã¼berein kommen
Ġprovider s
Ġkindes miÃŁbrauch
ĠÃ¶ff nen
Ġdisagre ement
Ġbewaff neten
kam pf
Ġaccoun ting
determin ation
Ġgeplan ten
Ġapar theid
Ġexac erb
Ġbereng uer
Ġgenoc ide
ĠmenschenwÃ¼r de
Ġlagend ijk
Ġoverwh el
a ppe
f ungen
g ibt
g Ã¤ng
h Ã¤r
l s
o h
p ol
t ings
u w
z Ã¶
Ġd ri
Ġt or
Ġt amil
Ġth un
Ġw Ã¤chst
it ze
Ġthe ory
Ġm our
Ġm ix
Ġm ixed
Ġp ity
Ġp led
Ġin j
Ġh undert
ar ians
Ġg old
Ġg reift
Ġun gen
Ġun its
Ġun best
Ġun fÃ¤lle
Ġbe legt
ur z
ll ation
ing ly
Ġk auf
ic an
Ġl Ã¤ch
Ġl osing
ge ist
Ġver arbeitung
omm t
den ce
Ġzu genommen
il s
Ġda uern
um en
Ġon to
Ġer led
Ġer halt
Ġer ho
Ġer weist
de ckt
Ġge einigt
Ġauf stellung
Ġas ym
ver einbar
Ġco inc
Ġvor Ã¼ber
Ġvor zug
Ġab gest
Ġaus ged
Ġaus bild
Ġle hne
Ġsch ock
ĠÃ¼ber wie
sp rÃ¤
ck ten
00 3
iel ten
Ġar rested
schaft s
Ġbes ides
ad em
Ġam nest
Ġman chen
ze igen
ag ger
Ġbei hilf
Ġste igen
Ġdis gra
Ġad here
ran ational
ran che
Ġstr ikt
ick lung
Ġrat ify
Ġzw ing
ok es
Ġlike wise
Ġmo un
Ġverb inden
Ġsit tings
Ġimp ulse
Ġsol ch
Ġdec iding
Ġjahr t
Ġser ben
Ġtra ck
Ġzusammen leben
Ġper mission
Ġbereit gestellten
Ġhand ling
ign ation
Ġmon ats
Ġsta ges
ĠmaÃŁ geb
Ġla an
ha fter
Ġerw achsen
pro t
Ġpla in
Ġbin den
Ġorgan ic
Ġend s
Ġend ed
Ġko finanzierung
Ġgel tend
ater ie
Ġweiter entwicklung
Ġdan ube
Ġlie ÃŁ
Ġreal en
Ġteil ung
Ġlo ve
Ġlo ck
Ġlo ans
Ġbegr Ã¼nden
Ġvers orgung
ri um
cond ition
Ġausge ht
Ġatt ract
Ġtrans mission
Ġenerg isch
Ġnor wegen
Ġbl ue
je kten
ret ch
Ġstra fe
Ġzie ht
Ġze ich
Ġrest oring
ĠfÃ¶r dert
199 8
Ġ9 3
Ġbef Ã¶rderung
Ġeng ine
Ġvar i
Ġorganis iert
Ġkrit ische
Ġans Ã¤ss
Ġmind s
ennt nis
Ġakzept anz
Ġtro cken
Ġpass ion
Ã¤d chen
ĠfÃ¼n ften
Ġerfolg te
Ġcomb ination
Ġwahl beob
Ġfal se
Ġhinaus gehen
Ġclos ing
Ġpop ul
Ġorigin ally
Ġlack s
ingen ommen
Ġcivil ians
bereit ung
Ġrass istische
ĠÃ¼berw unden
Ġjud ges
Ġfortsch ritts
Ġpa ul
Ġleit ung
Ġprakt ik
Ġobser ve
zentr en
Ġemphas ises
Ġeinheit s
Ġbeitritts lÃ¤nder
Ġbeitritts verhandlungen
Ġeinges tellt
Ġverz er
Ġformul ieren
Ġformul ated
Ġagrar haushalt
stell te
stell end
Ġangeb ot
Ã¤cht nis
Ġsto ppen
Ġerziel ten
Ġsus pect
Ġeffekt iven
Ġhandels abkommen
Ġavo ided
Ġeinw Ã¤nde
Ġnachhalt igkeit
Ġmis le
Ġhol iday
Ġzusatz stoffen
bericht erstatter
ĠverhÃ¤lt nisse
Ġdeath s
Ġmag n
Ġbilater ale
Ġberu h
Ġfahr zeug
ĠweiÃŁbuch s
Ġblock ade
Ġembar k
Ġumst ritten
Ġtw ice
Ġlisten ing
Ġereign is
Ġniederl ande
Ġlearn t
Ġlearn ed
Ġerneuer bare
Ġsafeguard ing
Ġbeob achtungs
Ġletzt es
Ġimpl ies
Ġdescr ibe
Ġuniversal dienst
sprÃ¼ che
Ġgeograph ischen
ĠglaubwÃ¼rd ig
Ġbehin dern
Ġfift y
Ġtoler anz
Ġ197 0
Ġmeinungs verschieden
Ġheav ily
Ġehrgeiz ige
ĠverschÃ¤r ft
ĠverschÃ¤r fen
ĠverschÃ¤r fung
Ġvirt ue
Ġbezahl t
Ġobstac le
Ġatlant ik
ĠstabilitÃ¤tspakt s
Ġschien en
Ġanwend ungsbereich
Ġbeschleun igen
Ġexclus ive
Ġumge kehrt
Ġpotent iellen
Ġpotent ielle
Ġstatist ics
Ġwachsen de
Ġgebrauch t
Ġperspekt iven
Ġbemer kt
ierend es
Ġfreiwill igen
christ demokraten
Ġfried liche
Ġinspe ktoren
Ġschreck lichen
Ġsurv ive
Ġatmosph Ã¤re
Ġvet o
east ern
Ġaufsicht s
Ġmacro economic
Ġverdeut licht
Ġincom es
Ġrecognis es
Ġinciner ators
Ġstraft at
Ġadmitted ly
Ġbegeg nen
Ġchines ischen
metho den
Ġnachvoll ziehen
strÃ¤ ger
Ġmarok ko
Ġgeschm ack
Ġsup ranational
erstatt ung
Ġweiterentwick elt
Ġwarnhin weise
Ġhekt ar
Ġkommerzie llen
tegr ation
Ġbedienste ten
Ġbesche iden
Ġbour langes
Ġnikot in
Ġhervorzu heben
Ġoga w
Ġinappropri ate
Ġprev ail
Ġverwirkl icht
Ġasym met
Ġamnest y
0 5
2 20
b i
g g
m achung
n ism
r ent
u hren
v ere
w f
w Ã¤
w Ã¤cht
Ġ ul
er geb
Ġs atz
at ischer
Ġb irm
Ġb aut
re in
Ġm ale
or ter
Ġe at
Ġf ill
Ġf lÃ¤chen
Ġin fect
Ġh ide
Ġv ic
Ġg ift
Ġg ama
Ġun pre
Ġun miÃŁ
Ġan fangen
Ġbe ige
Ġbe weise
Ġbe achten
st rom
st Ã¼ck
st abilitÃ¤t
Ġi cc
Ġk reat
Ġk aufen
Ġk enne
Ġre ine
Ġre pro
Ġre press
Ġein setzt
Ġein leiten
ra chte
el i
Ġl aps
Ġl Ã¤ngst
Ġver gabe
Ġver mittelt
am ment
ve ll
Ġr ichtet
ber ichte
Ġha b
et us
um in
Ġal p
Ġim f
Ġauf weist
ver y
ver sammlung
Ġvor gaben
Ġvor gestellt
Ġaus gesch
Ġaus machen
ab fÃ¤lle
Ġne o
Ġsch ule
Ġma ij
Ġdem agog
ust er
sp ace
Ġme ÃŁ
ste igen
tr y
be halten
be wertung
Ġges unden
Ġunter nimmt
Ġar isen
Ġam mon
Ġdi ver
ze ch
Ġfa ces
Ġfa una
Ġmein ungen
ert o
Ġac id
our rire
Ġsp ong
ast ung
Ġzw ang
oc kt
Ġfre il
Ġhin reichend
Ġzus age
Ġzus amment
ose x
Ġmy ller
Ġimp orted
Ġimp etus
are z
Ġout er
Ġsol ide
Ġsol ving
stit ute
Ġdec ourrire
Ġvo llen
Ġser ves
Ġro me
Ġro ot
Ġinform al
Ġper fe
bar es
fahr zeugen
Ġmon tre
Ġsta es
Ġacc el
Ġzeit ungen
wor king
ha ftet
Ġgleich er
Ġgleich gÃ¼lt
pro jekte
Ġunder p
Ġet abl
Ġregul ating
Ġbed acht
Ġpublic ly
Ġur an
Ġumwelt politik
Ġspec ulation
Ġspec ify
ĠbÃ¼rger meister
aÃŁ ten
Ġprocess ed
Ġcontin ually
Ġmor atorium
ĠfÃ¼hr er
Ġdiffer ing
Ġrepresent ing
Ġklar er
Ġarbeits krÃ¤fte
Ġintegr ity
Ġhaushalts plan
Ġ8 50
Ġfort geschritten
Ġ9 8
hol t
Ġpriv ile
Ġfam ous
ichte te
Ġvar iety
Ġcl ash
Ġair lines
weit erung
weg gen
Ġdrei zehn
Ġloc ated
Ġgesellschaft liche
Ġpass ive
dien sten
Ġgra d
Ġgra in
ĠÃ¶sterreich er
Ġcomb ine
Ġgegeben heiten
Ġeindeut igen
ifiz ieren
Ġplay ers
Ġjud ged
ĠmiÃŁ b
haft ung
Ġinst ability
Ġguid ance
Ġcentral ised
Ġsteuer politik
Ġerzeug ung
Ġprinzip s
Ġbre aking
ko hÃ¤r
verb rauch
Ġinnov ations
organ e
Ġcirc ulation
ĠwÃ¼n scht
Ġwert volle
Ġserb ian
ĠsÃ¼d afr
Ġformul ate
Ġverbind liche
Ġunver z
cep ts
Ġstraf rechts
Ġlegitim itÃ¤t
Ġvorbereit en
Ġaltern atives
Ġlimit ing
Ġfocus ing
Ġfrank ly
produ kte
Ġgesundheits wesen
bet rag
Ġvorsitz ender
Ġuner wÃ¼n
ĠsÃ¤mt licher
seit e
Ġurspr ungs
Ġehr en
Ġunge he
Ã¤uÃŁ erung
bÃ¼r gern
Ġschle chter
Ġersch ien
Ġbegrenz ung
Ġauss ieht
Ġzufrieden stellend
Ġmoral ischen
ĠjÃ¤hr liche
ĠbÃ¼ro s
ĠursprÃ¼n gliche
Ġbla k
Ġbewer tet
Ġchrist demokraten
Ġhaup tz
ĠbedÃ¼r fen
Ġfulfil led
Ġinterven ieren
Ġvorred nern
Ġcol our
Ġcol onial
Ġsold aten
ĠgebÃ¼hr en
Ġunl Ã¤ngst
Ġevalu ate
ĠangehÃ¶r igen
Ġank ara
Ġaufsch w
Ġgesp annt
Ġpassen ger
Ġbeur teilen
Ġhabit at
Ġgeeigne ten
ĠstraÃŁen verkehr
Ġanmerk ung
Ġstatist ical
Ġwachsen den
Ġcontact s
Ġprozent satz
kap ital
kap az
Ġsyr ien
Ġtrib un
Ġtrib ute
ĠflÃ¼chtlings fonds
gede ckt
Ġvac c
Ġexter nen
Ġign ored
Ġheran fÃ¼hrungs
Ġaufrechter haltung
Ġdemograph ic
Ġdezentral isierung
Ġzuges agt
ĠniederlÃ¤nd ischen
Ġunreal istic
Ġvertie fung
Ġzusammenzu arbeiten
Ġveter in
Ġdepr ived
Ġries ige
tran sport
Ġprejud ice
Ġregrett able
Ġnewspap ers
Ġteleph one
Ġpir acy
Ġeinm ischung
Ġqualit ativ
Ġnic otine
Ġvermut lich
ĠlÃ¤rmbel Ã¤st
Ġsubscr ibe
krimin ierung
Ġgeforder ten
Ġstaatsanwal tschaft
Ġpin och
Ġwashing ton
ĠunterdrÃ¼ck ung
discrimin ation
Ġscheit ern
Ġmism anagement
Ġingred ients
Ġdilem ma
kompeten z
Ġpiet ro
Ġscott ish
Ġwestsah ara
Ġmour a
Ġausged rÃ¼ckt
nism Ã¤ÃŁ
Ġicc at
Ġammon ia
4 5
9 8
d t
e w
g ent
h reb
i hen
i pping
k k
k ette
n Ã¤chst
p ted
s ystemen
t ur
u is
v arez
w est
w art
Ġa z
ch st
Ġw reck
Ġs em
Ġs ank
Ġs ystemen
Ġm ent
Ġm as
Ġm ild
Ġm ulder
Ġm Ã¤dchen
Ġp hr
Ġp ick
Ġp ace
Ġf ische
Ġf ett
Ġh ot
Ġh orn
Ġc zech
Ġn ice
Ġn iger
Ġn ichte
ro c
Ġv it
Ġg att
Ġun ilater
Ġan ch
Ġbe achtet
st ud
ur ances
Ġk ir
Ġk Ã¶r
Ġre produ
Ġein tritt
ra ine
Ġl os
Ġzu grund
Ġzu wanderung
rop ortion
Ġwe t
Ġwe bs
Ġwir ft
Ġr iver
Ġha ut
Ġha var
um n
Ġer richten
de cess
Ġge fallen
Ġge fÃ¤ll
Ġge hÃ¶re
Ġauf z
Ġas ks
Ġmit bÃ¼rger
ach te
Ġab road
Ġaus legung
Ġsch merz
Ġdem ent
Ġdem nÃ¤chst
we ile
iv ate
Ġex isted
Ġher um
Ġum gebung
ĠÃ¼ber gehen
Ġwie viel
for ce
Ġch urch
ord nen
Ġen ables
Ġta ct
Ã¤nder t
uch ung
Ġdi agn
Ġwor Ã¼ber
Ġnach gewiesen
au ff
Ġte er
Ġapp ointed
Ã¶r ungen
Ġpre dict
Ġpre decess
ger ichts
Ġgemein wohl
Ġsol bes
Ġro ten
Ġany body
Ġtra ur
Ġper ce
Ġfir men
Ġalle g
Ġbest rebungen
Ġbereit stellen
Ġmin imal
Ġger ufen
fol d
Ġgeb oren
ific ial
fÃ¼r sorge
Ġconf ine
Ġover r
stÃ¤nd igen
Ġeinz ut
Ġgesch ah
Ġgel esen
Ġform ed
Ġfinanz en
Ġpoint ing
Ġrechts hilfe
Ġsc and
Ġreal ised
Ġaff irm
Ġview ed
kon fl
kon ting
mar gallo
Ġeinge le
Ġausge Ã¼bt
Ġris ing
Ġliber ty
Ġest imate
Ġtun a
Ġfind ings
ffe kt
Ġnecess ity
zeich nungen
Ġsm oo
Ġkos tet
Ġvoll zogen
Ġsign s
Ġnor way
Ġel tern
Ġstra fen
Ġhaushalts ordnung
rÃ¤n gt
Ġbezie h
ĠbegrÃ¼ÃŁ enswert
Ġev ol
Ġcl oning
Ġkrit erium
Ġplan eten
Ġwider sprechen
Ġstruktur reformen
Ġseem ed
Ġprom ising
Ġocc urs
Ġpap ers
Ġschwer punkte
Ġgra a
Ġged acht
Ġged Ã¤chtnis
zahl en
Ġpop ular
chan ges
Ġvier tel
ĠvÃ¶ ll
Ġeinfach er
Ġsl ick
Ġsicht bar
ĠbefÃ¼r chte
Ġchall eng
Ġschnell st
Ġhoch wert
Ġhinter her
Ġerzeug nissen
bring t
Ġsinn volle
Ġspan ische
Ġfound ations
Ġvis ited
Ġentire ty
Ġcomprom ises
Ġeduc ational
Ġfail s
Ġstraf sachen
pre is
Ġverabsch iede
Ġreview ed
Ġzivil isation
Ġmess ages
Ġlu cas
ĠkohÃ¤r enten
Ġmass iv
Ġhandel te
Ġgesundheits schutz
Ġmag hreb
Ġitalien ische
Ġbeschl usses
Ġbeam ter
Ġverd opp
Ġpartnership s
Ġbegrenz en
Ġbegrenz ten
Ġrecy c
Ġkontin ents
erzeug nisse
Ġauszu Ã¼ben
opo le
Ġquant ities
Ġblock ed
Ġverme idung
Ġdeliver y
Ġvorher r
Ġblick w
Ġunmittel baren
Ġmittelmeer politik
Ġober flÃ¤chen
Ġsele ction
Ġrig id
Ġrig our
Ġprosec ution
Ġzerst Ã¶ren
Ġfrequ ent
Ġreicht um
Ġengl ischen
Ġthreaten ing
Ġerfre ulich
Ġerfre ulicher
Ġmitglieds land
Ġmeeres umwelt
Ġwissens gesellschaft
Ġdrast isch
nes day
Ġaufsch ub
Ġsimpl ify
Ġtransl ated
Ġthorough ly
Ġalarm ing
Ġdepart ment
Ġangest rebt
Ġnachbar n
Ġattemp ted
Ġprohib ited
Ġbuch st
Ġlength y
Ġsyr ia
Ġernen nungen
Ġadvis ory
Ġderog ation
Ġgetr ennt
Ġkurzfrist ig
Ġjung e
Ġausnahmeregel ungen
Ġshift ing
Ġerad ication
Ġvorsicht ig
Ġtie fe
Ġerd Ã¶l
Ġengag iert
Ġausgel Ã¶st
Ġgross ette
ĠbegÃ¼nst igt
ĠverknÃ¼ pft
wes ens
ĠschwÃ¤ch sten
merz ung
Ġeinzur ichten
Ġeinzur Ã¤umen
Ġdeterior ation
Ġcance llation
ĠÃ¤nderungs vorschlÃ¤ge
ĠmaÃŁst ab
Ġkurd ish
pap ier
Ġperipher al
Ġmitverbr ennung
Ġunabding bar
Ġmittler weile
Ġumweltz e
Ġimpr ison
nord ic
Ġcf sp
grÃ¼nd et
Ġforesee able
Ã¼bertrag ung
ĠplÃ¶tz lich
Ġbask ischen
Ġom bud
Ġziv ile
Ġfakt isch
Ġrecru it
stim me
Ġbeizu behalten
Ġadjourn ed
ethn ic
kommiss ar
Ġkonz ert
Ġmanoeuv re
Ġwed nesday
Ġarbit r
Ġoverwhel ming
ĠlÃ¤ch er
Ġdisgra ce
Ġjahrt ausend
Ġbeobachtungs stelle
Ġmontre al
Ġunverz icht
ĠlÃ¤rmbelÃ¤st igung
Ġpinoch et
Ġzugrund elie
Ġsmoo th
b and
c all
d lich
f ir
f il
g ow
g ieb
g Ã¼nst
h am
j unkt
k ind
l ab
m ir
n isch
r ass
w id
z um
z ial
Ġd ry
Ġt sche
Ġt ension
Ġa ro
ch el
Ġw ies
Ġs am
at ibility
Ġb alt
Ġb ritt
re ffend
re iteten
Ġm c
Ġm ic
Ġm Ã¼n
or es
Ġf at
Ġin herent
Ġh ith
Ġh amp
Ġh Ã¤nde
Ġc ul
al ban
Ġv el
Ġg ir
Ġg reifen
Ġg Ã¤be
Ġun p
Ġun st
Ġan zeichen
ent schlieÃŁ
le hnen
Ã¤ chte
Ġto d
Ġi wf
Ġz y
Ġk for
Ġre pl
Ġein stellen
ÃŁ t
ic ing
ic ulous
Ġl ande
Ġl varez
ge gangen
Ġver geben
Ġver weist
sch arta
ten ance
Ġr ente
Ġr Ã¼ckt
Ã¶ ch
Ã¶ hnung
Ã¶ pft
Ġda ph
Ġha dep
Ġst ation
Ġst ufe
Ġer teilung
Ġso w
Ġcon ver
Ġcon vers
Ġcon cepts
im ents
Ġge h
Ġge achtet
Ġauf lagen
Ġauf stock
Ġas ien
ver pflicht
Ġde ar
Ġvor w
Ġes a
Ġab lauf
Ġle b
ab hÃ¤ng
Ġsch e
Ġsch Ã¤r
Ġsch Ã¼ssel
Ġsch Ã¤tzen
Ġma dr
Ġma ster
la den
Ġex ek
Ġex changes
Ġent senden
ĠÃ¼ber nahme
ĠÃ¼ber trieben
ann ter
Ġsh ell
Ġfra gt
ens able
ens werte
Ġinter ception
Ġunter einander
Ġgr and
Ġgr ants
Ġch i
enn bar
ag on
au x
Ġour s
Ġdis in
Ġkon junkt
able d
Ġparliament arians
Ġsp ie
Ġhin fÃ¤llig
Ġcons ent
Ġind es
wo ch
Ġimp uls
wer ks
ced ented
Ġmitglied schaft
fÃ¼hr enden
Ġgew Ã¤ssern
utz ung
Ġper u
Ġbest raft
lÃ¤ re
Ġnational staaten
iven Ã¶l
Ġhand led
Ġins ide
fr isten
fr iend
wir tschaften
Ġeing reif
Ġart ificial
Ġacc us
ĠÃ¶ vp
Ġsozial modell
Ġabge w
Ġhaus halte
Ġconf ined
pro jekt
Ġeinz iger
Ġunder lined
fl Ã¼ge
Ġrespon ses
Ġpers istent
Ġtransp osition
Ġrechts instrument
Ġselbst bestimmung
Ġlie fert
hin dert
Ġmeas ured
Ġ5 8
Ġtr ink
Ġziel ger
Ġlo op
Ġspec ulative
reg ulierung
ru fen
Ġqual itative
Ġausge arbeitet
Ġobject ion
Ġsim bab
Ġfind s
Ġentscheid et
Ġdeut lichkeit
Ġrep ut
Ġrep lied
Ġverw ende
Ġcontro lling
Ġvorge geben
Ġvorge gangen
Ġhaushalts fÃ¼hrung
Ġhaushalts verfahren
Ġhaushalts behÃ¶rde
inn a
Ġdel ors
Ġfrauen handels
Ġbr Ã¼
Ġdefin itions
Ġakt ions
iar ies
Ġread mission
Ġbar on
Ġbeg leit
Ġbeg leitet
Ġoffen er
Ġempf ind
gar ant
com pass
Ġfehl enden
Ġvot um
ĠrÃ¼ck en
Ġeigent ums
Ġmult if
Ġmod est
Ġdienst es
Ġdeleg ations
Ġdring liche
Ġviol ent
Ġarg ued
Ġgemeinschafts rechts
Ġkat al
Ġmehrheit lich
Ġassist ants
Ġpa asil
Ġred nern
Ġenc oun
Ġstim ul
ĠfrÃ¼ here
Ġcontra ven
ĠausfÃ¼hr liche
Ġstaats fÃ¼hrung
Ġverz weif
Ġformul a
stell ungs
Ġabsch nitt
Ġprodukt ivitÃ¤t
Ġdest o
igr ant
Ġvorbereit ungen
Ġbroad ly
Ġbank rupt
Ġprof ite
Ġumfang reichen
Ġbear s
Ġtell ing
Ġbeschlossen en
besch rÃ¤n
Ġliegen den
Ġerk lÃ¤re
Ġcritic ise
Ġcritic ised
Ġconstit utions
Ġmand ats
Ġgrundsatz es
Ġrenew al
Ġdon au
Ġbestand s
Ġcondem ning
Ġaufzu heben
Ġgering sten
Ġmitt woch
Ġcheck ed
Ġgreen house
Ġsort s
Ġersch weren
Ġbegrenz te
Ġzeitraum s
Ġmoral ische
Ġterror ist
Ġembar gos
Ġalban ians
entscheid ung
Ġversich ert
ca pe
Ġabzu lehnen
Ġsafeguard s
ĠgrÃ¼ ne
Ġschwerwie gend
Ġproportion al
Ġflag ge
Ġschaden s
ĠgeÃ¤nder ten
Ġenfor ced
Ġsele ctive
Ġfriend ly
ĠgenÃ¼ gt
Ġcondition al
Ġrecord ed
Ġpartnerschaft s
Ġhop ed
Ġcharacter istics
Ġdre iÃŁig
Ġmitglieds lÃ¤ndern
Ġmeeres verschmutzung
verfol gung
Ġdestro ying
spolit ische
Ġkonvention ellen
Ġbenachteil igt
Ġignor iert
Ġsla very
Ġstip ulates
Ġsensib len
Ã¼nde te
Ġol ivenÃ¶l
Ġanwend ungen
Ġautonom y
Ġautonom ie
Ġmart in
Ġhom es
Ġbeibe haltung
ĠbetrÃ¤ ge
Ġexter ne
ieÃŁ t
Ġindirect ly
Ġestim ated
Ġirgendw ann
Ġdrug s
Ġhoolig ans
Ġbroadcast ing
ĠmakroÃ¶konom ischen
Ġzuw ider
Ġquar ters
Ġermitt lungen
Ġswift ly
Ġcontam ination
ĠgroÃŁzÃ¼g ig
Ġjahrzehn ten
Ġredebeit rag
Ġfortz usetzen
Ġtunis ia
Ġschmid t
Ġtunes ien
Ġlateinamer ika
Ġdamal igen
Ġaspir ations
ĠverÃ¶ffentlich ung
Ġoffic ers
ĠphÃ¤n omen
Ġsloven ia
Ġarmuts bekÃ¤mpfung
ĠgÃ¶ te
Ġtagt Ã¤glich
Ġvermarkt ung
Ġconstituen cy
Ġindisp ensable
aktiv itÃ¤ten
Ġretire ment
Ġwis dom
ĠnÃ¶r dlichen
ĠgrÃ¶n er
Ġplenar sitzung
ĠprÃ¤zedenz fall
ĠkohÃ¤sions fonds
Ġunpre cedented
ĠgefÃ¤ll igkeits
Ġhith erto
Ġdaph ne
Ġmadr id
friend ly
Ġpaasil inna
9 7
e te
f indung
g ro
h ion
h Ã¤us
j Ã¶ste
k Ã¼n
l abel
m aterial
n utzen
r ight
z qu
z essen
z emb
Ġd um
Ġd ates
in ated
Ġw under
Ġw inter
Ġs olle
Ġs jÃ¶ste
es ter
un ken
Ġthe or
Ġb a
Ġm igran
an mar
Ġf eder
Ġf ix
Ġin sec
Ġo au
Ġh am
Ġh Ã¤n
Ġh Ã¤nden
Ġc ad
Ġc old
ar ious
Ġv ort
Ġg ig
Ġun ten
Ġun aus
Ġun kontroll
Ġan c
Ġan le
Ġan reg
Ġan nehmbar
ent h
Ġdie d
Ã¤ men
Ġbe last
Ġbe antwortung
Ġto de
Ġz o
us ive
Ġein halt
Ġl Ã¤ng
Ġl ama
ut ors
Ġver weis
sch iff
Ġwe igh
lich em
ber gen
il led
Ġst anden
Ġst agn
um an
Ġden kt
de f
Ġim press
os sen
Ġge is
Ġge legen
est ag
ver k
Ġvon einander
men schen
Ġde utet
Ġvor fall
Ġvor nehmlich
Ġes p
Ġle uten
Ġne ug
Ġsch ande
Ġse es
Ġse pp
th ink
op hil
we chsel
ant ly
Ġher stellen
Ġum sicht
Ġuns inn
Ġme ere
ste uern
ow ski
Ġinter view
Ġres c
for me
Ġges enkt
Ġunter m
Ġunter s
Ġunter liegt
Ġunter worfen
Ġgr upp
Ġen compass
ad ow
Ġdar gestellt
ze hnt
ue ller
Ġho sta
ag d
Ġfa ult
Ġag ieren
Ġfin ished
Ġgo then
Ġgem essen
Ġsp okes
Ġsa f
Ġconc essions
Ġverb reitet
ap ing
fÃ¼hr er
Ġdam aged
Ġmehr mals
teil te
ious ly
Ġser ved
Ġbest anden
Ġviel fÃ¤lt
Ġhand le
chn ungen
ak ters
Ġfund ed
Ġbo uw
Ġko st
Ġko hlen
Ġfinanz minister
Ġfinanz rahmen
Ġfinanz ieller
Ġrequ iring
ac c
Ġrechts ex
Ġrechts vorschrift
Ġweiter gehen
Ġiniti ated
Ġbelie ved
Ġbek Ã¤mpft
Ġseit dem
ull ing
Ġreal e
Ġumwelt bel
Ġpra ise
Ġcit es
Ġprincip al
Ġadd itive
Ġpolitik bereiche
Ġinvest ition
Ġausge w
vers orgungs
klÃ¤r ungen
Ġmil itÃ¤
Ġsm ugg
Ġklar es
Ġlet ters
Ġrep air
Ġverw ert
Ġintegr itÃ¤t
Ġhaushalts vor
ĠÃ¤uÃŁ ert
Ġcor pus
Ġmention ing
Ġregel werk
Ġmeet s
Ġje w
Ġakt uell
Ġcolle cted
Ġlebens wicht
Ġcap ita
Ġminister prÃ¤sident
Ġaccount ability
Ġfisch fang
Ġcl ub
Ġair line
Ġdef ending
ler nen
Ġmain tenance
Ġ12 0
Ġhervor gerufen
Ġban ken
Ġern Ã¤hrung
verstÃ¤nd nis
ban ken
Ġprec arious
Ġversuch e
Ġentscheidung sprozeÃŁ
Ġwettbewerbs fÃ¤hig
Ġmod els
hÃ¶ chst
Ġplen ars
ĠverÃ¤nder ter
ĠfÃ¼nf jahres
ĠÃ¼berw indung
Ġstress ing
Ġeinzu bringen
Ġerzeug t
Ġsur vey
Ġdist anz
Ġdist ortion
Ġwes te
Ġraum fahrt
Ġfremden verkehrs
Ġencour ages
Ġvertreten en
Ġemphas ising
Ġdokument s
Ġrede ploy
ĠhÃ¤ us
Ġintervention en
Ġbeha ve
Ġang ere
Ġsatisf y
Ġflug zeugen
Ġavo iding
Ġlog ic
Ġindic ative
Ġzusatz stoff
Ġill usion
Ġretur ning
Ġjur istische
Ġcamp s
Ġsubstant ive
Ġschle chten
Ġreturn ed
Ġcondemn ation
Ġzufrieden stellen
Ġstre am
Ġbi ological
ĠfÃ¼ hlt
Ġfas hion
Ġblock iert
Ġdetermin ing
geste llte
uropÃ¤ ische
Ġdeep er
Ġworth while
Ġereign issen
ĠdÃ¤n ische
zust and
Ġlandwir ten
Ġentstehen den
Ġsal mon
Ġcle ans
Ġarmen ia
Ġzunehmen den
Ġsele cted
Ġbenach bar
Ġersuch e
Ġult imate
Ġbehin dert
sh ore
Ġkorre kte
Ġumweltschutz es
Ġimmigran ten
Ġdispla y
ĠerÃ¶ ffnung
Ġmeinungs Ã¤uÃŁerung
ĠÃ¼bergangs zeit
Ġwissens bas
Ġsah ra
Ġcompla int
orient ierte
ĠbetrÃ¤cht liche
Ġcompar able
Ġpresse freiheit
Ġschwed ische
Ġuntersche idet
Ġbir th
Ġrational e
Ġank lage
ĠschÃ¤d lich
Ġantibiot ika
Ġantibiot ics
Ġgewiss ermaÃŁen
Ġintoler ance
ĠzukÃ¼nft ige
Ġbeur teilt
Ġterritorial en
Ġbege ister
Ġautonom ous
Ġeinwander ungs
Ġhom osex
Ġinterpre ters
Ġeinwanderung spolitik
Ġabw arten
ĠverfÃ¼g barkeit
Ġkrie ges
Ġchin as
Ġflow s
Ġsurv ival
Ġheik len
ĠgÃ¼nst ig
Ġstrukture lle
Ġinterf ere
Ġentschuld igen
Ġlif ted
Ġspek ul
ĠverstÃ¶ÃŁ e
Ġvorg Ã¤nger
Ġveter inary
Ġtabakerzeug nissen
Ġcustom ers
Ġarme e
Ġkonkurr enz
)] .
Ġvog genhuber
Ġmangeln de
Ġscen ario
Ġumweltsch Ã¤den
Ġdiscover ed
Ġvorbehalt los
Ġbiomet r
Ġintell igent
Ġverarbeit ungs
Ġhes it
Ġvent ure
Ġsoft ware
ĠprÃ¤m ien
develop ed
Ġautor itÃ¤t
Ġtort ure
Ġcert ific
Ġwass ers
Ġgefol gt
Ġbefind lichen
Ġeinget reten
ĠstÃ¤dt ischen
Ġsint ra
Ġslowen ien
Ġvergew alt
Ġdell al
Ġhern ndez
Ġirrespon sible
Ġapproxim ation
Ġjar zemb
Ġjac ques
Ġverkehrss icherheit
Ġhungers not
Ġempt y
Ġdri vers
ĠheranfÃ¼hrungs strategie
Ġeinzut reten
Ġblickw inkel
Ġaufstock ung
ĠsjÃ¶ste dt
Ġsepp Ã¤nen
Ġgothen burg
Ġbouw man
Ġrechtsex tre
Ġplenars a
Ġjarzemb owski
1 2
4 2
5 3
9 4
b ted
c ere
d io
f ibre
k ar
l inge
m p
m us
n l
r er
s an
t ig
u ers
w unsch
z Ã¤hlt
Ġ Ã¼ben
er ving
Ġd read
Ġd ual
Ġt ensions
Ġt ses
Ġs etz
Ġb ib
Ġb read
ie hlt
Ġm ary
Ġm Ã¤cht
ich ern
Ġf ab
Ġf este
Ġin ad
Ġh ieÃŁ
al le
Ġv are
Ġun iver
Ġun verstÃ¤ndlich
Ġun amb
Ġan gabe
Ã¼ chter
Ã¤ uf
Ġbe fallen
st atten
Ġi zqu
as p
ll nisch
Ġk Ã¼nd
Ġre ly
Ġein setzung
Ġl iz
Ġl yn
eit e
Ġver sehen
sch ungen
sch lagen
den kt
Ġwe in
il ung
ct ure
Ġpro min
Ġer wer
Ġer teile
Ġcon fr
os is
Ġge legenheiten
Ġge fÃ¤llt
Ġauf klÃ¤r
Ġco d
Ġco des
and o
Ġde grad
Ġvor geb
Ġab laufen
Ġaus nah
Ġaus merzung
Ġle bt
Ġsch ori
we ll
Ġum zu
Ġum lauf
ĠÃ¼ber sehen
ĠÃ¼ber arbeitet
Ġsie g
lie derung
Ġuns icher
Ġber gen
be we
ke eping
Ġunter halten
Ġen ge
Ġen vo
Ġen rich
Ġnach richten
Ġte ppich
Ġgo llnisch
ick elt
Ġbet ragen
Ġcomp lying
Ġsp itze
Ã¤t igkeiten
Ã¶r dern
cess ing
oc aust
Ġinc ur
Ġpre isen
ger icht
Ġcons ists
ass ungs
Ġintern ally
wer ke
Ġup hold
Ġjahr zehnt
Ġro b
Ġro card
ak ers
Ġvie h
olit ano
Ġmon opole
Ġwork force
fr Ã¼
Ġmin es
Ġeing r
Ġunterst reicht
Ġacc um
Ġrec ital
Ġ3 50
Ġdisc rep
ied elten
Ġgleich heit
Ġgleich gewichts
Ġconf erences
hÃ¶r t
Ġmich el
Ġzwe ier
Ġsin cere
Ġinformation spolitik
ient en
Ġbis weilen
Ġli qu
isen berg
Ġbek ommt
gem acht
Ġschw ein
kehr ungen
Ġumwelt bereich
Ġgu ide
Ġvert ik
Ġvers ions
tt a
Ġatt itudes
Ġport fol
Ġtun e
Ġfur cht
Ġliberal s
Ġinde bted
reichen de
Ġsign ale
Ġsign als
grund satz
Ġ6 4
Ġintegr ierten
Ġbew Ã¤hr
Ġkom bin
Ġel f
Ġanges etzt
Ġ7 2
Ġzie he
Ġ9 4
Ġcor nerst
Ġtranspar enten
Ġsum men
Ġverl iert
Ġje gg
Ġinteress ieren
Ġtechnolog ische
Ġminister ial
Ġstandard ised
Ġread s
Ġafric ans
Ġfun ktionen
ĠstÃ¤r ke
Ġdef iciencies
Ġadv ise
Ġempf iehlt
Ġ12 44
ulation en
Ġann immt
fÃ¤h iger
res erven
Ġcreat ive
Ġged rÃ¤ngt
Ġstud ied
Ġwahl periode
Ġdienst ag
Ġlandwirtschaft liche
ina v
Ġklein ere
Ġdisp roportion
Ġrecommend s
ĠauÃŁen beziehungen
Ġrass istischen
ĠgrundsÃ¤tz lichen
Ġrei hen
Ġdiskrimin iert
Ġfair en
Ġbre m
Ġbre eding
Ġflexib el
Ġflexib ler
Ġluft fahrt
Ġerreicht en
voll es
Ġinnov ativen
Ġfestge halten
Ġgefahr gut
Ġverk auft
Ġsex uelle
Ġrein en
Ġkont ra
Ġground water
Ġisrael ischen
Ġmer its
Ġserb s
Ġgewalt t
Ġagrar ausgaben
Ġassess ing
Ġassess ed
Ġeingehen der
Ġbevor zug
03 6
03 8
Ġpotential ly
Ġilleg ally
Ġcontinu ity
Ġtrag weite
Ġirgend wie
Ġunivers ally
ĠkohÃ¤r ente
Ġhol ocaust
Ġ198 0
Ġ198 5
spl it
ĠvÃ¶lker mord
Ġentwurf s
Ġjur istisch
Ġdro hen
ĠhÃ¶chst ens
Ġvorbe ugung
Ġurspr ung
Ġthreat ens
Ġvergleich en
Ġdev isen
Ġhar sh
Ġalban ien
Ġalban ia
Ġeinf uhr
Ġversich erung
Ġcentur ies
Ġabzu geben
Ġspeed y
Ġzut reffend
Ġkompliz ierte
Ġrespond ed
Ġconserv atives
ĠÃ¶kolog isch
Ġmist aken
Ġstren ger
ĠzustÃ¤ndigkeit s
Ġslow ly
Ġeg al
Ġzerst Ã¶rung
Ġgratul iere
Ġadapt ation
commun ity
Ġbegriff e
Ġhop ing
Ġbehin derung
Ġemploye e
Ġkorre ktur
Ġisol ated
Ġphil ipp
Ġabol ished
Ġgegenseit ige
Ġdopp elten
Ġoccasion ally
Ġdrast ically
Ġincident ally
Ġconsolid ate
fun ktion
Ġziff ern
Ġremo ving
ĠfÃ¤h igkeiten
Ġrund funk
Ġillust rate
ble me
Ġunk nown
Ġdeliber ately
Ġkrie gen
Ġgal ic
Ġparad ig
Ġobligator ischen
Ġherkunfts land
Ġphilosoph y
Ġhit ler
Ġherange zogen
Ġdisadvant age
Ġerad icate
Ġstrukture llen
ĠschwÃ¤ che
Ġrisik ok
Ġjeopard ise
Ġwachsam keit
Ġdereg ulation
ĠÃ¶konom ischen
Ġwortmeld ungen
Ġverdeut lichen
Ġnament lich
Ġpersu ade
Ġrelev ance
Ġcheap er
Ġinfring ement
Ġhypoc rit
aspe kte
ĠsachverstÃ¤nd igen
Ġabh Ã¤ngen
ĠpalÃ¤stinens ischen
Ġbiomet ric
Ġgol an
Ġdistingu ish
Ġske pt
Ġvigor ous
Ġgefangen en
ĠbloÃŁ e
ĠrÃ¼ckÃ¼ber nahme
Ġded icated
Ġaufer legt
Ġverschl imm
Ġrap kay
Ġpref erence
Ġcorpor ate
Ġsant a
Ġsenten ced
rÃ¼st ung
Ġdolmet scher
Ġdischar ges
Ġverla gerung
Ġerh ielt
Ġabzusch affen
Ġsurpl us
Ġnap olitano
Ġzahlreich er
Ġcofin ancing
Ġbeauft ragt
Ġbirm a
Ġrepro cessing
Ġfreil assung
Ġaufschw ung
Ġhavar ie
Ġschnellst mÃ¶glich
Ġerfreulicher weise
Ġtsche ch
Ġbaron ess
Ġencoun ter
ĠhÃ¤n sch
Ġdellal ba
Ġvare la
Ġizqu ier
Ġconfr on
Ġjegg le
1 7
b leiben
g Ã¤
i ast
k ur
k ampagne
l i
l ib
l ist
m ang
n ischen
o vers
p at
w Ã¤hrung
z y
Ġ 99
Ġd il
Ġd ala
Ġt ues
in der
in de
Ġw ro
Ġw Ã¶ch
Ġs ine
Ġs zen
Ġs emin
it ch
re ibt
Ġm el
Ġm ort
Ġe igh
Ġp atter
Ġf el
Ġf lying
Ġf Ã¤lschung
Ġin kohÃ¤r
ion en
Ġh Ã¼r
Ġh imm
Ġc ry
Ġc amb
Ġc roat
al k
ro g
Ġv ierte
Ġun ice
Ġun clear
Ġan zusprechen
le are
Ã¼ m
Ġbe heben
st ar
as i
ur y
ur ities
ig ation
Ġk ill
Ġk asch
ir ies
ir ms
Ġein s
Ġein sicht
Ġein dÃ¤m
Ġein bindung
Ġl as
ies t
ge arbeitet
Ġver voll
Ġver laufen
Ġver gemeinschaft
Ġver liehen
Ġver haftet
Ġver bergen
sch uÃŁ
sch reiten
ul ose
Ġwe b
Ġr essour
Ġr ush
Ġwh ist
Ã¶ ten
Ã¶ pfen
gen ehm
Ġst ab
et ic
um es
id is
isch t
ein heit
Ġer zeugen
Ġer langen
Ġer lernen
de te
Ġim pliz
Ġge werb
Ġge wohn
Ġauf geschlossen
Ġauf gebaut
Ġco pe
Ġvor igen
Ġvor fÃ¤lle
Ġab zuschlieÃŁen
Ġab gedeckt
Ġaus kunft
Ġaus sprachen
Ġse vere
qu elle
Ġall ot
Ġent ste
Ġent legen
Ġsu it
Ġsu ited
ĠÃ¼ber nimmt
Ġsich ere
Ġsie b
und ed
be am
Ġat roc
tz uer
Ġbes uchen
Ġwor an
Ġho heits
au erung
ard o
Ġste ckt
rit or
Ġad her
Ã¤r er
Ġstr ive
Ġkon zip
Ġapp ra
zu halten
Ġsp ur
Ġsa cr
Ġrat io
Ġzw ingt
ok olle
oc ratic
gan isation
Ġint ent
Ġint im
wer ter
Ġfe et
teil ten
Ġgew achsen
Ġnew ly
Ġro les
Ġalle vi
Ġcommun ist
Ġhand werk
Ġhand hab
Ġeing el
alt ungen
Ġprov ing
Ġprov ok
Ġhuman ressourcen
Ġger a
vor aus
Ġgeb ildet
pon ien
Ġzeit ung
Ġrel ative
Ġland f
Ġland s
Ġref using
Ġsozial istische
Ġganz em
Ġunder est
Ġend ing
Ġfr ucht
Ġtechn ically
Ġwirk ungs
Ġregul ierungs
Ġiniti ate
Ġgemeinschaft licher
Ġange legt
Ġfar mer
Ġget Ã¶
Ġreform ing
Ġreform ed
Ã¤tz t
Ġtr uppen
Ġtr ennung
kon zept
Ġvert agung
Ġrahmen programm
Ġens ures
Ġinvest oren
ĠfÃ¼hr ende
Ġreason ably
les en
Ġgest iegen
Ġchar ged
Ġchar akters
Ġsm oke
Ġkoso v
Ġkom pl
Ġverbrauch s
Ġverbrauch ers
Ġja vier
ace ut
spro bleme
itz ung
ĠgrÃ¶ÃŁ en
Ġeigen er
Ġeigen es
ĠzurÃ¼ck kehren
Ġbr and
Ġze ugen
markt es
Ġkur den
Ġbezug s
Ġpriv atis
Ġakt ien
Ġbrauch e
Ġerweit erten
Ġgesetz liche
Ġans Ã¤tze
ĠstÃ¤r kt
Ġdef er
maÃŁ nahme
Ġexist ierenden
Ġheraus stellen
Ġkurz um
icher ungs
att form
Ġkle ines
Ġmot ivation
Ġpun ished
gew ichte
Ġaut umn
ĠrÃ¼ck sch
Ġsan ter
Ġsan ction
Ġsitz ungs
Ġpass ieren
Ġlis ted
Ġentscheidung spro
Ġaustr ians
ĠfÃ¼n fte
Ġgere chten
Ġdring ende
Ġret ained
Ġtas te
Ġbesser es
Ġche chen
Ġgemeinschafts initiativen
Ġbenefit ing
Ġcivil ised
ĠzusÃ¤tz licher
Ġshe a
Ġshe ep
Ġpoll uted
ĠmiÃŁ achtet
ĠgefÃ¤hr dung
Ġmehrheit s
ĠgeschÃ¤fts verkehrs
Ġfound ing
ĠausfÃ¼hr te
Ġec osystem
Ġrad ically
Ġdiskut ierten
Ġluft qualitÃ¤t
Ġelement en
Ġexcl ude
Ġkoordin iert
Ġisrael is
Ġserb ischen
Ġkennt nisse
Ġerheb ung
Ġprodukt pir
Ġprofit able
Ġbevor stehende
Ġstraf verfolgung
Ġdat um
Ġsto od
Ġlimit ations
Ġcontinu ous
Ġoffer ing
afr ica
ec d
Ġflug gesellschaften
Ġirgend wo
Ġproceed ing
Ġrefle ction
Ġindic ating
Ġmis ery
Ġvorh ers
Ġsuper v
Ġincorpor ation
Ġincorpor ating
Ġdro ught
Ġverurs achten
Ġanzu gehen
ĠvernÃ¼nft iger
Ġinvestig ated
Ġemer ged
Ġsepar ately
Ġrestrict ion
ĠentschlieÃŁungsantrag s
Ġersch wert
Ġeffizient en
Ġsell ing
ĠprÃ¤z is
ĠkÃ¼rz ungen
Ġembar rass
Ġzuge geben
Ġberlin er
Ġship ow
ĠbrÃ¼ssel er
Ġniedr igen
bal anced
Ġarmen ien
Ġoptim al
Ġoptim istic
Ġerr ors
Ġfer rer
Ġdollar s
Ġcypr iot
Ġsubst anzen
ĠgenÃ¼ gen
Ġult ra
Ġbegriff s
Ġsett led
Ġdre w
Ġku wa
Ġbra chte
ĠzurÃ¼ckge gangen
Ġanz usehen
Ġerf assen
Ġoffiz ielle
Ġgeist igen
Ġsymbol ic
Ġerleicht ert
Ġlob b
Ġcompl iment
Ġkre is
Ġpostpon ing
Ġclean ing
Ġantibiot ic
Ġantibiot ik
Ġol ive
Ġreiter ated
Ġentscheidungs findung
Ġoccup ation
Ġsupposed ly
bie ten
Ġdiss emin
Ġaufrech tzuer
Ġbomb ing
Ġexec ution
mil it
Ġcalc ulated
Ġoste uropÃ¤ischen
ĠverfÃ¼g baren
ĠspÃ¤t estens
Ġbewe gt
Ġtaxpay er
ĠzulÃ¤ss igen
ĠparitÃ¤t ische
Ġlif el
Ġrauch er
Ġanticip ate
Ġreass ure
Ġawa iting
Ġrecognis ing
Ġnuk leare
Ġkorrig iert
arbeits losigkeit
Ġschwar z
ress e
Ġprivileg ed
Ġvertrieben en
Ġcance lling
uche lei
Ġspar sam
Ġregrett ably
Ġverschlechter ung
bezogen en
Ġgemeinschaftspolitik en
Ġsudden ly
Ġbon de
Ġenthus ias
Ġdisappoint ment
Ġgrundprinzip ien
Ġinformationstechn ologie
Ġangestreb ten
krank heit
Ġumsch ichtung
ĠverlÃ¤ng ern
Ġambig u
Ġmerkmal e
ĠsÃ¼doste uropa
Ġgetrenn te
Ġprol ong
Ġuc its
Ġdictators hip
ĠeinschlÃ¤g igen
Ġumstruktur ierung
Ġindik atoren
pfl anzen
Ġfischereise ktor
Ġhervorra gend
ĠtragÃ¶ die
ĠÃ¼berschwem mungen
Ġnordir land
Ġkau pp
tha ft
Ġkne w
Ġfrageste ller
Ġexempl ary
Ġbenefic iaries
Ġhundertt ausende
Ġzwing end
Ġmoun tain
Ġmeinungsverschieden heiten
Ġouter most
ĠkÃ¶r ner
Ġombud sman
ĠmilitÃ¤ ra
Ġplenarsa al
Ġunamb ig
Ġausnah ms
Ġliqu id
Ġrisikok ap
Ġdala i
Ġtues day
Ġwhist le
Ġallot ted
Ġsacr ific
Ġaufrechtzuer halten
b ung
b org
d est
f ens
h ten
h ire
i pe
i xt
i ably
i Ã¶sen
k er
l im
l iberal
o ok
o ured
r ichtet
s ely
t ime
v on
w ier
er fl
Ġd icht
Ġw ine
Ġs le
is ations
Ġb all
Ġb ru
Ġb old
re isen
ie in
Ġm s
Ġe w
Ġp Ã¤d
Ġf ischen
Ġf eld
Ġf Ã¼ÃŁen
Ġin ne
Ġo ecd
Ġh Ã¶rt
Ġc ell
Ġc ash
al ts
Ġn ass
Ġn go
Ġn ennt
ro ttung
Ġg Ã¤n
Ġun ent
Ġan te
Ġan ze
Ġan laufen
le te
Ã¼ mm
Ã¤ fte
Ġbe halten
Ġbe aut
Ġbe denk
st Ã¤d
ig em
Ġk g
Ġk as
Ġk roat
us hing
Ġein dringlich
em bl
el ter
Ġl ord
Ġver gehen
Ġver ification
Ġver pack
Ġau ction
ul ts
ul ieren
ul ichen
Ġzu fÃ¤llig
Ġzu stimmt
Ġwe ib
Ġr ang
Ġr Ã¼cksicht
Ġr ibe
Ġr ender
ber t
il ib
Ã¶ glich
gen ce
Ġst if
Ġst orm
Ġst retch
et land
ein richtungen
Ġer wor
Ġso ul
Ġcon gress
Ġauf geb
Ġauf teilung
ess e
Ġpar ame
Ġco w
Ġvor gebracht
Ġvor dringlich
ft a
Ġes c
Ġaus reicht
Ġaus zuschlieÃŁen
Ġsch Ã¤nd
Ġsch ritten
Ġsch icken
Ġsch auen
Ġwer fen
ik el
ik ament
la w
ive aus
Ġex agger
Ġall tag
Ġher bst
Ġum hin
Ġum stand
ĠÃ¼ber setzung
Ġy ard
Ġy ield
Ġy ields
sp otential
Ġsh op
Ġsh etland
ib be
Ġat trib
scha fter
ah ll
ern Ã¤hrung
Ġunter zeichnung
me id
ad o
Ġhe uchelei
se ek
ag ent
Ġra in
Ġdis appe
Ġdur ation
Ġkon ting
Ġbericht erstattung
Ġac ced
Ġpo os
Ġdurch fÃ¼hr
Ġgen annte
Ġgen ieÃŁt
Ġgem eldet
Ġsp ot
imm er
Ġconc erted
Ġfre ier
rag ung
Ġmar s
Ġpe ters
wer ken
ap se
Ġout line
Ġvorsch rift
Ġtran che
Ġgrund rechten
Ġgew inne
Ġro bin
ĠÃ¤nder t
ring en
Ġmenschen verstand
chn itten
ak er
Ġfo ol
auf nahme
Ġeing angs
Ġeing reift
lag ten
Ã¤m ter
hand eln
Ġref unds
iti ver
Ġass urances
Ġoff shore
Ġfest setzung
ha ul
Ġzwischen zeit
Ġganz er
Ġzwe imal
Ġgesch wind
Ġgesch ickt
Ġend anger
Ġsee le
Ġform ing
Ġtransp osed
Ġeuro zone
Ġfl otten
Ġsc our
Ġteil nehmer
bei hilfe
Ġhow itt
Ġvert ical
Ġcit ed
reg ime
Ġscha de
Ġcar r
Ġcar ibbe
Ġput in
ĠfÃ¼hr enden
zie h
Ġwelt krieg
Ġdemokrat isches
Ġensure d
Ġlaw ful
Ġzahl t
Ġklar stellung
Ġvoll wert
Ġnor weg
Ġsec ured
Ġintegr ating
uf ung
Ġbl ow
Ġlang wier
Ġnie man
Ġhaushalts disziplin
Ġexpress es
Ġinstrument ar
ys is
Ġze ugt
ĠhÃ¶ re
Ġrest ri
Ġstruct ured
Ġabs or
Ġabs ent
hol fen
hol ders
Ġbel astet
Ġverl uste
Ġconcl udes
Ġcost ly
Ġcl im
Ġbar ak
Ġair space
Ġshow ed
Ġallgemein er
Ġstar ts
Ġstar ving
Ġspeak s
gel dern
ikan ische
Ġbehand elten
Ġless on
Ġkl onen
Ġwahr haft
Ġunderstand able
Ġvoraus gesetzt
Ġloc ation
Ġparte ip
Ġsan ktion
schutz es
Ã¤d lich
Ġgra ve
Ġadmin ister
Ġanal y
Ġital iens
Ġear mark
Ġret ten
its ky
Ġbor rs
Ġgute m
Ġwissenschaft lich
Ġfern ando
Ġsinn voller
Ġec u
Ġundert ook
Ġluft raum
Ġtradition elle
Ġinnov ationen
ĠprÃ¤ vention
Ġraum es
app ar
Ġsever ely
Ġanalys ed
Ġanalys iert
Ġindustrie llen
Ġlegitim en
plan ungs
Ġwerte gemeinschaft
Ġlimit ation
Ġmenschenrechts politik
Ġdoubt less
Ġzivil bevÃ¶lkerung
Ġrom an
Ġanders wo
Ġeinw and
Ġwiederauf nahme
Ġ198 4
Ġ198 8
Ġerneut en
Ġgesundheits fÃ¼rsorge
Ġbesorg nisse
Ġconsult ing
Ġconsult ations
200 2
Ġalloc ate
Ġspr ung
Ġvergleich bar
Ġmobil isieren
Ġkonflikt ver
Ġschle chte
Ġemer ge
Ġverd anken
Ġintens iver
Ġca ution
erzeug ung
ĠfÃ¼ lle
Ġvehic le
Ġexplo ited
Ġtransfer ring
Ġuk raine
Ġsofort hilfe
ĠverzÃ¶ gern
ĠverzÃ¶ gert
Ġbeseit igt
Ġsonst ige
Ġwonder ful
Ġanp assungen
Ġkar ib
Ġauseinander setzungen
Ġ28 0
Ġarr est
Ġents orgt
Ġniemand em
Ġfriedens abkommen
reb s
Ġbeabsicht igen
Ġmitarbeit ern
Ġhaft ungs
Ġoption en
Ġrecord s
Ġdram atischen
Ġberuf liche
Ġeinzus tellen
gef Ã¤hr
Ġlay s
Ġbound aries
Ġcompla in
Ġmach in
bene fit
Ġhindern is
Ġkonvention en
Ġenjoy ed
Ġreact ions
Ġattend ance
Ġkil ome
ris iken
Ġumwel thaft
amer ikanischen
Ġverwe igert
Ġsensib il
Ġirgendein e
Ġmiss ed
ituation en
ĠzukÃ¼nft ig
Ġbetrugs fÃ¤lle
ĠÃ¤lter e
Ġbeschleun igung
Ġvorsorgeprinzip s
Ġenvis age
fÃ¤ll igkeit
Ġgebill igten
Ġmart nez
Ġcourage ous
Ġpflanzen fet
Ġillust rates
Ġdomin ated
Ġhy dro
Ġabw icklung
Ġstattf and
Ġadvis ers
Ġwind ow
Ġbab itz
Ġphilosoph ie
Ġwechsel kurs
Ġpet itions
ĠspÃ¼r bar
Ġmorg igen
Ġverhaltens kodex
Ġcast ro
trÃ¤glich keit
Ġradik al
Ġanspruchs vollen
Ġfinger pr
Ġunreal istisch
Ġversp Ã¤t
Ġcanad a
Ġperpet rated
Ġkanad a
Ã¼ste t
Ġflood s
Ġdistort ions
Ġenforce able
Ġbele id
Ġtit le
Ġcas aca
Ġprostit utes
Ġaufricht ig
Ġentlast ungsverfahren
Ġaccommod ate
Ġenthus iast
Ġtransform ation
Ġabwe ich
Ġbesorgniserre gend
Ġhosp ital
Ġnar row
ĠgewÃ¶hn lich
Ġirr ational
Ġdevast ating
fisch erei
Ġkonf Ã¶der
Ġsuspic ion
Ġdu isenberg
Ġappla ud
Ġkrimine llen
Ġirgendwel che
Ġbrid ge
Ġapolog ise
Ġausde hnung
Ġpharm aceut
ĠhÃ¤uf iger
Ġconfidential ity
Ġgentechn isch
coun try
Ġff h
Ġvereinheit lichung
anal yse
Ġkompon ente
Ġoffenkund ig
Ġbeif all
Ġbern ard
Ġeinheits wÃ¤hrung
ĠunmiÃŁ verstÃ¤ndlich
eli hood
Ġaccel er
Ġnichte in
Ġbezieh ungsweise
Ġrecruit ment
Ġarbitr ary
Ġbritt any
Ġgir ls
Ġreput ation
Ġgig ant
Ġbelast ungen
Ġresc ue
Ġjew ish
hÃ¶chst grenzen
Ġcleans ing
Ġdread ful
Ġizquier do
Ġcroat ia
Ġressour ce
Ġentste hung
ĠgetÃ¶ tet
Ġantibiotik ares
Ġkaupp i
erfl achs
Ġribe iro
Ġdisappe ared
Ġcaribbe an
Ġnieman den
Ġumwelthaft ung
a ug
c ul
e ut
f ish
j an
k atalog
l assung
l angt
m ath
r ifft
u c
x id
y ers
z eln
z onen
er mÃ¤cht
Ġd un
Ġd uly
Ġt di
Ġt Ã¤ter
Ġw il
Ġw ien
Ġs id
Ġs qu
un st
at ant
Ġb ord
re den
or ation
Ġp as
Ġp ess
Ġp aÃŁt
an p
Ġf ire
Ġf lieÃŁen
Ġf ibre
Ġin stru
Ġin forme
ion ed
Ġh orm
Ġc ards
Ġc abin
ar ischen
Ġn ir
Ġun ified
Ġan geschlossen
Ġan zust
le iden
Ã¤ le
om pl
ur er
Ġk lÃ¤
Ġk Ã¤mpf
Ġein ber
ra cies
ic ted
ic ism
Ġl an
Ġl ichte
Ġver glichen
sch icht
sch reiben
Ġzu h
Ġzu me
Ġzu geben
Ġzu gewiesen
Ġwir tschaften
il es
Ġda uert
Ġst ore
Ġst Ã¼tz
Ġer mitteln
Ġcon form
Ġcon vey
Ġge handelt
Ġj Ã¼d
est ock
ff ens
Ġpar ents
Ġde eds
kt s
Ġnot es
Ġab b
Ġab ide
Ġab zus
uld ig
Ġaus lands
Ġaus wirkt
Ġaus stattung
Ġaus macht
Ġaus zusprechen
Ġma p
Ġwer bung
pp t
pp er
op fer
we ge
ant wortet
Ġex akt
Ġent nehmen
Ġent lassungen
Ġfra cht
ug gel
be teil
ens ysteme
if en
if ul
ern t
ers on
ers atz
Ġcomm od
Ġres ignation
Ġges und
Ġunter min
Ġunter laufen
Ġar ises
gr Ã¼nde
Ġbes etzten
ot ism
Ã¤nder ung
Ġman kind
uch ten
Ġnach richt
her ein
Ġste ad
Ġste igt
Ġste uers
Ġag ents
Ġdis abled
Ġte uer
pr ang
zu frieden
Ġpo sten
igh ter
itte l
Ġsa c
Ġsa ck
Ġsa ison
Ġpos itiver
pl Ã¤ne
Ġgemein de
Ġpolic ing
Ġverb Ã¤nde
Ġwar nen
Ġind igen
Ġind iff
Ġweit est
wer tste
ap able
Ġdire ktor
fÃ¼hr end
Ġmehr wertste
Ġout lines
Ġout bre
Ġout rage
Ġgrund werte
Ġsub jected
Ġro se
Ġbesch lieÃŁt
Ġalle ged
Ġmenschen recht
Ġcommun it
lÃ¤ gen
Ġnational ism
Ġnational ismus
arbeit er
Ġins ol
Ġsystem atische
Ġwork er
auf wand
rÃ¤ ger
Ġger ichten
Ġacc ompl
Ġrec itals
ĠmÃ¶glich er
Ġass et
Ġmark s
Ġfest legt
Ġmade ira
iger ungen
pro jekten
Ġgel dern
Ġbereich erung
Ġweiter zu
Ġweiter fÃ¼hrung
Ġexp ed
Ġexp osed
Ġrem ed
Ġeuro just
Ġselbst verstÃ¤nd
Ġfl ight
fin it
Ġbelie b
Ġbek unden
Ġreal istische
Ġteil genommen
Ġteil zunehmen
Ġbeit rÃ¤gen
Ġbegr iffen
Ġvers auerung
Ġthro w
Ġinvest ing
Ġmed ikament
Ġbedeut end
Ġcurr encies
Ġgest ure
zeug nisse
Ġwelt raum
Ġliberal ised
Ġresolution en
Ġauthor ising
Ġir ische
Ġinde x
ĠbeschÃ¤ft igte
Ġverantwort liche
Ġ6 2
Ġke hren
Ġequ ipped
Ġequ ilib
Ġextre men
spro jekte
Ġschutz maÃŁnahmen
abil ities
ĠzurÃ¼ck gehen
Ġbel ange
Ġjo hn
Ġjo ined
Ġsum m
co ver
go vina
Ġaccord ed
01 3
Ġimm igrant
Ġbeg ann
Ġallgemein em
Ġheraus zu
Ġheraus gestellt
Ġinner es
gel Ã¶st
Ġoper ates
Ġmot to
Ġnichts dest
gew innen
Ġwahr genommen
Ġwahr nehm
Ġvoraus setzt
Ġaufge zeigt
zÃ¼ gen
Ã¤hl ten
Ġmonth ly
Ġged enken
Ġmod alitÃ¤ten
Ġsupp ose
Ġsuccess ive
Ġwahl kreis
Ġident ification
akt ions
Ġrequest ing
Ġkomp et
Ġdisp osed
Ġopt imum
Ġbil der
Ġkam bod
Ġangenommen e
Ġvereinbar en
bur ger
bring ung
Ġmodern ise
Ġempfe hle
Ġfrem d
Ġsur ve
Ġemph atically
Ġernst es
Ġec olog
ko pp
Ġvolks wirtschaften
Ġfisher y
Ġcirc le
Ġbetroffen e
Ġeinheit liches
Ġpatent ing
Ġverz ichtet
Ġpersonal politik
Ġkr is
Ġpoor er
Ġunver meid
Ġbeh arr
Ġvorbereit ungs
Ġfreiheit lichen
Ġinterreg ion
Ġkomprom isse
Ġcla uses
Ġconstru ct
Ġzivil en
Ġhistor ischer
Ġlebensmittel behÃ¶rde
Ġerfahr ungs
Ġkons ument
Ġunivers ity
Ġinhalt liche
Ġrichtlinien entwurf
Ġrun s
Ġkampf es
Ġsk and
Ġine qual
produ ctive
Ġ198 7
Ġverwalt ungsverfahren
Ġrenew ed
Ġrenew ables
Ġtabak industrie
Ġtabak anbau
200 5
Ġberu fen
Ġreject ing
Ġjen es
Ġgering eren
Ġemer ging
Ġpositiv liste
ĠÃ¼bersch reiten
Ġobtain ing
Ġersch reck
Ġemissions hÃ¶chstgrenzen
ĠfrÃ¼h jahr
Ġenable d
Ġacqu ire
gesetz e
gesetz ten
ĠerlÃ¤ut erungen
Ġverbr ennungs
Ġniedr ige
Ġniedr iger
Ġbein ahe
Ġabzu bauen
Ġattempt ing
Ġage ing
Ġanp assen
inter vention
Ġkar l
Ġabfall bewirtschaftung
Ġunmittel bare
Ġdepend ing
ĠglÃ¼ck wunsch
Ġinten se
Ġents endung
Ġkonsult iert
Ġkonsult ationen
Ġschuld igen
Ġmoder ate
Ġdoct or
Ġdram atically
Ġengl ische
Ġclass es
Ġed d
Ġorient ieren
Ġcontract ing
Ġzer split
Ġdep endence
Ġverfass ungen
Ġquor ums
Ġpubl ish
ĠkommissionsprÃ¤sident en
Ġjetz ige
Ġsubmit ting
Ġlies t
Ġmeinungs freiheit
Ġarbeitszeit gestaltung
Ġjudgement s
Ġergeben den
Ġerleicht erung
Ġdub ious
Ġamerikan ern
Ġignor ieren
Ġerm ord
ĠschÃ¤d lichen
Ġwiederher zustellen
Ġschott ischen
Ġcalc ulation
Ġcalc ulations
Ġendeavour s
ound ed
Ġpan el
Ġintelle kt
Ġgeneraldire ktionen
Ġinev itable
ungsver fahrens
Ġfried lichen
Ġbab itsky
Ġobjekt iv
Ġobjekt ive
Ġkurzfrist igen
Ġherange hen
Ġdienstleistungs aus
Ġshame ful
mechan ismus
fa ktor
Ġvalid ity
Ġpfe il
Ġrechtsrahmen s
wohn ern
Ġrisik om
Ġlandwirtschafts ausschuÃŁ
Ġproc laim
ĠverstÃ¶ÃŁ t
Ġnament liche
Ġherrschen den
Ġinvestitions bank
Ġcommend able
Ġperpet rat
arbeits zeit
partner schaft
verbind ungen
ĠsachverstÃ¤nd iger
Ġpsych ological
Ġscandal ous
Ġvog el
Ġanhalten de
Ġdikt atur
Ġbillig flaggen
Ġsatell ite
Ġnewspap er
Ġmotiv ated
Ġkontinuier lich
Ġafrikan ische
Ġlic ences
Ġhierarch y
Ġdisregard ed
Ġfasc ist
Ġvigor ously
ĠkÃ¤ me
Ġbiolog ischen
ĠzugehÃ¶r igkeit
Ġpersec ution
Ġscar ce
Ġhochrang igen
Ġdesper ate
Ġdesper ately
tim or
Ġaward ing
pfe iler
Ġerstre cken
ĠstÃ¼r me
Ġcatastrop he
Ġgesonder te
Ġvoranzu bringen
Ġrechenschaft spflicht
Ġneut ral
Ġmittelfrist ig
Ġliv estock
Ġrare ly
Ġsummar ise
Ġbehaupt ung
Ġverwirr ung
Ġendors ed
Ġast on
Ġscept ical
Ġbret on
Ġfed eration
Ġclin ton
Ġzugest Ã¤nd
Ġpartial ly
beschl usses
Ġkonsolid ierung
Ġmanager ial
grem ien
Ġunus ual
vereinbar ungen
Ġlaps es
Ġacid ification
Ġprivile ge
Ġhauptz iel
Ġtribun al
ew g
Ġniger ia
konfl ikt
gow ina
Ġtrink wasser
Ġsimbab wes
Ġinsec urity
Ġanle ger
bewe gung
Ġeingr iff
mang el
Ġwro te
Ġeigh teen
Ġcamb od
Ġintim id
Ġlandf ill
seek ers
Ġscour ge
ermÃ¤cht igungen
Ġpess im
Ġzume ist
Ġoutbre ak
Ġequilib rium
Ġinequal ities
4 9
5 24
6 0
f aÃŁt
f ood
g ht
g ien
h our
h undert
h Ã¼tung
j et
k or
k Ã¼ste
s ein
t ank
u ay
u ated
w ith
z ucht
Ġ /
Ġd ir
Ġd ying
Ġt ue
Ġt ied
Ġt Ã¤us
in tens
ch ar
Ġw ol
Ġw uÃŁ
Ġw ag
un ktion
un dern
is al
is onment
it ts
Ġb lie
Ġb are
re ut
Ġm ache
Ġe ck
Ġp y
an ter
Ġf usionen
Ġh ud
Ġc en
Ġc ub
Ġc ite
Ġc yn
al da
ar ren
Ġv ien
Ġv age
Ġv ide
Ġan ger
Ġan hÃ¤ng
Ġan setzen
le in
le id
le ments
Ã¼ tern
Ġbe legen
st ab
st ate
Ġz yn
ll or
Ġk od
ed a
ed ed
Ġund es
Ġre ct
Ġre op
Ġein ander
Ġein spruch
Ġein richten
em ination
Ġl ip
Ġl Ã¼cke
ut ze
Ġver ge
Ġver lÃ¤ÃŁ
Ġver lÃ¤uft
Ġver ordnungs
ol ved
am en
Ġwe is
Ġwir kt
Ġr unde
ber n
Ġst off
Ġfor cing
Ã¼r en
Ġer ziehung
Ġal ger
de llen
Ġim ages
Ġge op
Ġge fl
Ġauf gest
Ġauf stellen
Ġauf bringen
ort s
ben ga
Ġco al
Ġco incineration
Ġde cken
Ġvor kommen
Ġes cape
Ġab stand
Ġab used
Ġaus lÃ¤nder
Ġaus gede
Ġle v
Ġle ge
Ġsch Ã¤tze
Ġse k
Ġse ats
ind ed
we i
Ġher be
Ġent ity
Ġum verteilung
ĠÃ¼ber dies
Ġsich ert
ck te
ib ung
igen der
Ġwie benga
Ġinter action
ges ucht
Ġthere of
Ġges etzen
Ġges unde
Ġunter stellt
Ġunter graben
aus stattung
Ġbes etzung
ad or
Ġta il
Ġta pe
Ġhe gen
Ġqu elle
Ġho ll
her d
Ġste he
Ġag gra
Ġdurch einander
Ġcan cer
Ġcomp are
Ġcomp atibility
Ġsa at
Ġpos ed
Ã¤t igen
iz en
Ġconc ur
Ġinc apable
Ġfre ig
Ġwo her
Ġwo hnen
Ġgemein t
Ġjed w
Ġmar fil
Ġwho ever
Ġweit reichenden
Ġimp f
art ikel
utz er
Ġro lling
Ġany way
Ġtra um
Ġiss uing
Ġbesch wer
Ġprodu ces
Ġhand ic
Ġprov es
Ġger m
Ġacc ur
Ġaussch luÃŁ
Ġdisc our
hand ed
Ġref erenz
Ġref rain
Ġbo ught
Ġinstit ute
pro zesses
ues a
Ġsin ken
Ġgesch eit
Ġgel ang
Ġfinanz instrument
Ġtransp orted
Ġrechts etzung
Ġeuro stat
Ġant ir
Ġget Ã¤t
Ġdan eben
Ġversch uldung
Ġreform ieren
Ġlie ÃŁen
hin der
Ġbek und
Ġhal be
Ġumwelt politischen
Ġumwelt katastrophe
Ġview point
kon zentr
Ġverein igungen
Ġdemoc racies
Ġown er
Ġele f
Ġele ph
io xid
ĠbÃ¼rger rechte
Ġqual if
Ġausge prÃ¤
zus atz
Ġauthor ise
Ġvoll zieht
Ġrep ay
Ġverw altet
Ġarbeits lose
Ġintegr ieren
Ġlang zeit
Ġvorge zogen
stand s
Ġhaushalts linien
Ġ8 2
par agraph
spro du
Ġpat ients
Ġrev ise
Ġharm less
Ġhil ft
Ġbel grade
bed Ã¼r
Ġregel ungs
bl ow
ĠlÃ¶s ungs
wirk sam
Ġfisch bestÃ¤nde
ĠgehÃ¶r te
Ġ15 8
Ġbeg leiten
Ġempf unden
Ġinner gemeinschaft
Ġ12 84
gel der
Ġmot ives
Ġindivid uellen
ikan er
Ġappropri ately
Ġgrow ers
Ġmoment um
Ġaut ob
Ġabsol uten
ĠerwÃ¤ hnung
Ġaim ing
Ġcomple tion
Ġfore front
Ġfeel ings
Ġeigent um
Ġph ant
Ġph asing
Ġdrit ter
to u
Ġdraft sman
Ġerach tet
Ġwahl kampf
Ġdring enden
Ġadministr ativen
zahl ungen
Ġpop ulated
ifiz iert
Ġdisp ose
Ġstaat licher
Ġfour tou
Ġbill iger
Ġasyl politik
ĠauÃŁen politischen
Ġjud ic
Ġfortsch ritten
02 8
Ġsicht weise
Ġvern ichtung
Ġschnell hardt
Ġhinter lassen
Ġerzeug nis
Ġfern ndez
Ġfunktion ierenden
Ġenthalten e
Ġdist urb
Ġverg nÃ¼gen
Ġantrag steller
Ġtradition ell
Ġexpect ing
Ġencour agement
Ġschein bar
Ġvis iting
Ġruss ische
Ġanerk ennt
Ġerheb licher
Ġunver antwort
Ġeinsch lagen
03 5
Ġrea ff
Ġnahrungs kette
Ġsoon er
Ġpartner schaften
Ġinterreg ional
Ġprof ile
Ġmenschenrechts kommission
Ġnieder schlag
Ġtop ics
Ġzentral er
Ġtrag ischen
Ġoffens ive
Ġzul Ã¤ÃŁt
Ġerk ran
Ġerk ennbar
Ġverletz en
Ġstaff ing
Ġaugen merk
po th
Ġinspect orate
Ġgesundheits sch
Ġkonsequ ente
Ġplenum s
zug reifen
ox id
Ġautom atic
Ġbilater aler
Ġspr ich
Ġconvin cing
Ġtier futter
Ġgeg ner
Ġmitt ag
Ġauszu drÃ¼cken
ĠgrÃ¼nd liche
ĠspÃ¤ter en
Ġexplo iting
Ġfremdenfeind liche
versch mutz
Ġtransparent er
Ġerforderlichen falls
Ġzut age
Ġinf lex
Ġinterpret iert
Ġirak ische
Ġrepla cing
Ġreduz iert
Ġweak er
Ġexception ally
Ġsele ct
mon th
stat ut
Ġgeograph ische
Ġdram atisch
Ġorient ation
Ġtoler ate
Ġcooper ating
gef aÃŁt
Ġkrisen management
Ġrechnungshof es
Ġadvoc ated
Ġ197 3
ĠÃ¼bergangs fristen
Ġmach te
Ġexc ise
Ġexc iting
ĠgebÃ¼hr end
Ã¤h ern
Ġdopp elt
Ġdopp elte
ĠfÃ¶rder ungs
Ġirre le
Ġdiplom atischen
Ġattend ed
wass ers
Ġprosper ous
Ġfederal ist
Ġkre ise
Ġignor ing
Ġerm essen
ĠordnungsgemÃ¤ÃŁ en
ĠangehÃ¶r ige
Ġleid et
Ġinsist ing
Ã¶konom ische
Ġdigital e
Ġol der
Ġconsolid ated
Ġsozialdemokrat ische
Ġintoler anz
ĠbÃ¼rokrat ischen
Ġstor age
Ġanwend bar
Ġtenden cy
Ġmak ers
vorsitz enden
Ġdiss emination
geordne te
Ġnachzu kommen
Ġvieler lei
ĠtÃ¤ glichen
Ġentfern ung
Ġbesuch er
Ġmart n
Ġprohib ition
Ġtouch ed
Ġendeavour ing
Ġdomin ant
Ġkrie ge
ĠenttÃ¤us chung
ĠbedÃ¼rf nissen
Ġinspe ktion
Ġcount less
Ġheik le
Ġobjekt iven
Ġkurzfrist ige
Ġgeleis teten
Ġsud an
Ġtie fer
Ġinstall ation
ĠabÃ¤nderungsant rag
Ġschad stoffe
Ġunternehmer geist
Ġpf und
Ġersta unt
Ġdevo te
Ġengag ieren
Ġvorn herein
Ġdemograph ischen
Ġermut igen
Ġdisappear ance
Ġconcent rated
Ġstraft aten
Ġhunder te
Ġkanad ischen
Ġdahin ter
Ġtheoret isch
Ġupd ate
Ġredund ant
Ġredund ancies
Ġabh Ã¤ngt
Ġquar ter
Ġkranken hÃ¤us
Ġdetaill ierte
Ġchemical s
Ġentreprene ur
Ġtit ley
ĠunnÃ¶t ig
krÃ¤ft ig
Ġdenk bar
Ġverschlechter t
Ġnomin al
ĠmiÃŁverstÃ¤nd nis
Ġpflanz lichen
Ġmaf ia
Ġmaf alda
Ġtemper atur
ĠauslÃ¤nd ischen
Ġconce al
Ġangestreb te
Ġerstaun lich
Ġdup lic
Ġdenoun ce
Ġcancel led
Ġeingesch lagen
Ġdringlichkeits debatte
Ġbulgar ien
Ġerstre ckt
ĠzÃ¶ gern
Ġrid iculous
Ġtotalit arian
Ġunequivoc al
Ġunequivoc ally
Ġerb racht
Ġimbal ance
ĠberÃ¼hm ten
Ġfrequenz politik
Ġgrat itude
ĠstaatsangehÃ¶r igen
Ġpertain ing
Ġfoss il
Ġforecast s
Ġmisunder standing
gesprÃ¤ che
Ġwettbewerbsverzerr ungen
kop f
Ġkolleg ium
Ġelektriz itÃ¤ts
ĠmiÃŁtra uen
invest itionen
Ġtox ic
Ġeingest uft
Ġpollut ants
Ġpron oun
Ġabgest imm
Ġmisle ading
Ġmagn ific
umin osen
Ġwebs ite
Ġdement sprechend
Ġalleg ations
Ġeingele iteten
lab elling
Ġbalt ic
Ġmic ro
Ġvel zen
Ġrepl ies
beschrÃ¤n kungen
ĠgÃ¶te borg
Ġmigran ts
Ġsmugg ling
ĠzustÃ¤ndigkeits bereich
Ġskept isch
Ġconfron ted
gÃ¤ ste
ĠwÃ¶ch ent
ĠhÃ¼r den
ĠeindÃ¤m mung
Ġatroc ities
Ġproduktpir aterie
Ġshipow ners
Ġenthusias m
Ġrisikokap ital
Ġnass au
Ġkroat ien
Ġrobin son
Ġbabitz k
Ġperpetrat ors
Ġhud ght
Ġvien na
Ġaggra v
1 9
4 3
4 7
a ppen
b Ã¼
b les
c end
d able
f at
f elt
g f
g els
g reg
h un
i ol
i ating
k lar
l or
l ene
l ock
n itte
n ight
n orm
n iveaus
p ing
r ige
s ir
s los
s ighted
t ies
v ol
Ġ ?
er klÃ¤rung
Ġd g
Ġd m
Ġd rag
Ġd sir
Ġt one
ch ard
on ents
Ġw Ã¼
Ġw em
Ġw Ã¼ÃŁ
Ġs r
is ky
Ġthe me
Ġb Ã¼
Ġb ow
re ÃŁ
Ġm igr
Ġm asch
Ġe is
Ġe ase
Ġe kl
Ġe go
Ġp ul
Ġf ung
Ġf anden
Ġf uster
ion e
Ġo we
Ġh Ã¼
Ġh all
Ġh ielt
Ġh Ã¼ter
Ġh ingenommen
Ġc ro
al ia
ar ing
Ġn Ã¼tzt
Ġn ii
Ġg all
Ġg au
Ġg alt
Ġg reif
Ġun h
Ġun ang
Ġun gar
Ġan nehm
Ġan arch
Ġan trÃ¤gen
Ġdie t
Ã¼ ne
Ã¼ ler
Ġbe end
Ġbe fol
Ġto ten
st al
st ick
st unden
st Ã¤nden
Ġz Ã¼ge
ur teile
Ġk la
Ġk abel
Ġand auern
Ġund em
Ġein mÃ¼
Ġein spar
ic op
ic its
el and
Ġver ab
Ġver teilen
ol es
sch ra
ten ds
ul den
Ġzu viel
ve lling
Ġr isen
Ġr Ã¼b
Ġr Ã¤umen
ber at
Ġwh isky
il ation
Ġda iry
Ġno x
Ġer sichtlich
Ġso d
Ġal ib
im ittel
Ġge le
Ġge ared
Ġge teilt
Ġge antwortet
Ġauf wand
ce ll
Ġco ws
ach es
ach ts
Ġde gress
Ġde ponien
Ġvor reit
Ġvor sÃ¤tz
Ġvor entwurf
Ġvor lÃ¤ufig
Ġvor beding
Ġvor zusehen
Ġvor kehrungen
ill es
Ġaus zusetzen
Ġaus drÃ¼cken
Ġsch ar
Ġse ed
Ġse kret
th al
Ġdem selben
Ġher den
Ġent r
ĠÃ¼ber griffe
Ġdo ors
lie fer
Ġuns atisf
Ġsh ipping
Ġme al
ne y
ne imittel
uÃŁ en
ens ystem
Ġwas ted
if er
if eration
Ġres id
Ġunter richtung
Ġgr asp
Ġcom fort
Ġbes prechen
Ġen em
Ġen gen
Ġen cep
Ġman cher
Ġqu er
Ġqu asi
Ġwor ries
Ġho uses
Ġnach weisen
her es
ect s
Ġra pe
Ġdis ability
Ġdis miss
Ġad m
Ġad resse
ip tion
Ġac adem
anz ut
Ġsp er
Ġsp ionage
Ġsp heres
Ġspe kt
Ġpre condition
Ġzus te
lin ing
ass es
Ġwur zeln
Ġint ra
Ġhier her
Ġro ut
Ġzusammen fassen
Ġmenschen leben
fahr zeug
Ġhand ful
wend ungen
Ġmin er
Ġeing ang
ide ut
Ġla x
Ġaussch lag
Ġsozial ausschuÃŁ
Ġbo x
Ġover la
Ġgesch afft
Ġend et
Ġko hl
Ġbereich s
Ġrespon ds
Ġrespon sibly
Ġgovern ed
Ġange geben
Ġrem edy
Ġfl uÃŁ
Ġbed ingt
leg uminosen
wort hy
Ġresol ute
Ġreform prozeÃŁ
Ġmeas uring
gem aÃŁnahmen
Ġlegisl ate
Ġadop ts
Ġreal itÃ¤ten
Ġreal isieren
Ġtreat ing
Ġtr ennen
Ġgu ided
Ġfol ter
Ġlo hnt
Ġadd ict
Ġhel icop
Ġscha fen
Ġele ven
ĠbÃ¼rger beauftragten
aÃŁ te
Ġausge gangen
Ġausge legt
Ġausge glichen
Ġausge grenz
Ġserv ants
Ġprogramm planung
ser klÃ¤rung
Ġbefore hand
Ġvoll ziehen
Ġvoll endung
Ġverantwort lichkeiten
Ġerforder nisse
Ġzun ichte
Ġintegr ierte
Ġeinzel ner
Ġvertre ters
Ġdel ight
ĠdÃ¼r re
Ġabs Ã¤tze
Ġbro vina
hol ding
Ġbel ize
hm ir
Ġglobal ised
Ġagree ing
Ġdial yse
Ġdef icits
Ġempf Ã¤nger
Ġben ennen
zw ingen
Ġmarkt anteil
Ġstruktur politik
Ġmom ents
Ġhervor rufen
Ġern annt
Ġdort hin
Ġkl asse
Ġwahr zunehmen
Ġstandpunkt es
cl ass
ged acht
Ġentwicklungs fonds
Ġregierungs bildung
Ġpress ures
Ġ11 5
Ġmult is
Ġerweiterung sprozeÃŁ
ĠÃ¼berein kunft
Ġerfolg s
Ġsupp lies
Ġstud enten
Ġvertra ulich
Ġforsch er
Ġident ifying
Ġspecial ist
row ing
Ġsolidar isch
Ġaddress es
Ġdiskuss ions
Ġrass istischer
ator ial
ĠmiÃŁ wirtschaft
neh me
Ġdiscrimin ated
Ġwirksam es
Ġinst ig
Ġinst anzen
Ġinst abilitÃ¤t
Ġwasser qualitÃ¤t
Ġwasser ressourcen
Ġgeld es
Ġcover age
Ġcoordin ating
Ġstim ulate
Ġpur vis
ĠausfÃ¼hr licher
Ġernst haften
Ġvolks gruppen
fre ien
Ġtradition ally
Ġeinheit lich
Ġwert vollen
Ġvis its
Ã¼ssel ung
Ġbemerk enswert
Ġerheb t
Ġprodukt iv
Ġanalys es
Ġdr ink
Ġdurchge fÃ¼hrte
Ġterm ine
Ġchance llor
Ġinformations austausch
Ġinfl ux
Ġunbed enk
Ġterr n
Ġdoubt ful
ĠflÃ¼chtl ing
ĠbeschrÃ¤n kung
Ġfocus es
Ġpromot es
Ġlog isch
Ġlog ischer
Ġx u
Ġhandeln s
Ġmis use
Ġconstit u
produ zenten
Ġstrukturfonds mittel
Ġstrukturfonds verordnung
Ġten der
Ġsach verstand
Ġpack aging
zug ang
Ġkern anlagen
Ġerschein ungen
Ġaufzu fordern
ĠverhÃ¤lt nismÃ¤ÃŁ
Ġanzu k
Ġreject s
Ġexerc ising
Ġmobil ise
ĠbeschÃ¤ftigungs mÃ¶glichkeiten
Ġoperation en
Ġverkehrs un
Ġca pt
Ġca ught
Ġiran ischen
erzeug nissen
Ġeindruck s
Ġobserv ance
Ġobserv atory
Ġentgegen zu
Ġuseful ness
Ġdeep ening
Ġeinf lieÃŁen
Ġvorrang ige
Ġaccident al
Ġdeliver ing
Ġvorher gehenden
Ġsov iet
vertrag sparteien
Ġkn appen
Ġoptim alen
Ġvertr ieb
Ġprefer ential
Ġforget ting
Ġsecret ariat
Ġbla ir
Ġgeschlossen en
Ġexcess ively
Ġsubst anz
Ġredner in
Ġshar p
Ġpursu it
Ġcol on
Ġhighlight ing
Ġperman ently
Ġrechnungshof s
Ġlau dable
akte ure
Ġangriff e
Ġbeig emessen
Ġelimin ation
Ġehrgeiz igen
ĠgebÃ¼hr t
Ġbefug t
Ġleiden schaft
Ġratifiz ieren
Ġvisit ors
wass erst
Ġverwe igern
Ġbelong ing
Ġsensib ilitÃ¤t
Ġsimpl ified
Ġdiam anten
Ġbeschleun igt
Ġkonvergenz kriterien
Ġinsel regionen
gere cht
Ġabscha ffen
Ġacknowled ges
Ġmur cia
Ġmittl ere
Ġgas lib
Ġentstanden en
Ġpreced ence
ĠhÃ¶her er
Ġhy gien
Ġhy poth
Ġbedeutsam e
Ġdebatt iert
modell s
Ġunzureich ende
Ġfreiwill ige
Ġdifferenz en
Ġineff iz
Ġgeschle chter
ĠprÃ¤sent iert
Ġgelt ungs
Ġkommer zielle
Ġbewerber lÃ¤nder
Ġinqu iries
Ġkriegs verb
Ġsil ent
befug nis
ĠdrÃ¤n gt
Ġschad et
Ġanticip ated
Ġverhaltens weisen
ĠgÃ¼lt igkeit
reib ungen
Ġausgleich s
ĠÃ¼berr asch
Ġpunish able
Ġradik ale
ĠsubsidiaritÃ¤tsprinzip s
Ġstaatsan w
Ġinsp ired
Ġconsc ience
Ġstahl industrie
Ġnacht flÃ¼ge
Ġverfasser in
Ġaqu ac
Ġmultilater alen
Ġresident s
Ġattra ctive
Ġachievement s
Ġpsych olog
Ġausb reitung
mod ified
Ġanhalten den
Ġeuropar at
Ġinhaft iert
Ġmedizin ische
Ġaktual isierung
Ġdecre ased
Ġsyn th
Ġdistingu ished
Ġanbie ten
Ġintell igence
Ġloy al
Ġprostit u
Ġimpr isonment
cont ract
Ġhes itation
Ġwiden ing
verhÃ¤lt nisse
Ġbulgar ia
Ġkred it
Ġaggress ive
ĠwÃ¼rd igen
Ġmem ory
bus iness
Ġimbal ances
ĠvernachlÃ¤ss igt
Ġverun rein
ĠschÃ¤tz ungen
verl ust
Ġrela unch
Ġarz neimittel
Ġverheeren den
Ġjustit iellen
Ġdismant ling
ĠvergrÃ¶ÃŁ ern
Ġtransatlant ic
Ġredistrib ution
mel de
Ġhect ares
Ġkonzep te
Ġgrundrecht scharta
Ġnutrit ion
Ġerwerb s
Ġbestra fen
Ġpled ges
Ġausbild ungs
prot okoll
Ġperce ived
Ġimprison ed
Ġunverzicht bar
Ġsow jet
garant ien
Ġtheor ie
Ġgrupp ierungen
Ġsaf ely
Ġhaushaltsvor entwurf
Ġbenachbar ten
Ġwissensbas ierten
Ġuniver se
Ġhimm el
Ġkasch mir
Ġvergemeinschaft ung
Ġappra isal
Ġkompl iment
ĠgrÃ¶ÃŁen ordnung
ĠkÃ¶rner leguminosen
Ġkas hmir
Ġerwor ben
Ġearmark ed
Ġmachin ery
Ġsid el
Ġnir gend
Ġanzust reben
Ġinsol ven
Ġsumm ary
Ġwahrnehm ung
Ġunvermeid lich
Ġirrele vant
Ġmagnific ent
Ġhudght on
Ġunang emessen
Ġbeend igung
ĠrÃ¼b ig
Ġvorreit er
Ġvorbeding ung
Ġunsatisf actory
Ġencep halopath
Ġgaslib a
1 8
6 7
b ul
c ist
d el
f Ã¶rder
f lÃ¤che
h elfen
i ant
j a
k olle
l end
m Ã¤chte
m inded
n ally
n itten
n itts
r est
s ub
t agung
v c
v in
v able
w issen
Ġt b
Ġt ant
Ġt ested
in y
in st
in ity
in nung
Ġw achen
Ġs achen
Ġs enden
Ġb om
Ġb ay
Ġb uesa
re de
Ġm ord
Ġe b
Ġp ern
Ġp ip
Ġp yr
Ġf Ã¤l
Ġf als
Ġin h
Ġin tr
Ġc um
Ġc atal
Ġg il
Ġg ingen
Ġg az
Ġun ber
Ġun we
Ġun auf
Ġun gewÃ¶hn
Ġun contro
Ġan hebung
ent halten
te x
te enth
Ã¼ chte
Ã¼ ger
Ã¤ en
Ġbe geben
Ġbe gehen
Ġbe lÃ¤uft
Ġbe denkt
st unde
Ġz ones
ll a
ll i
Ġk ernen
Ġk ampagnen
Ġre all
Ġein heim
ra pporteur
Ġl ament
Ġl end
Ġl uck
Ġl ived
Ġl achs
ge fÃ¼gt
der e
der ivate
ol onial
sch m
sch Ã¤tzung
am i
Ġau dio
ul en
Ġzu weisung
Ġwe i
Ġwe hr
Ã¶ ver
Ã¶ mm
Ġst ir
Ġst ufen
Ã¼r fe
Ġpro gn
Ġer inner
Ġal as
Ġim ben
ier n
Ġge grÃ¼ndet
Ġauf geben
Ġauf zustellen
Ġpr ize
Ġpr icing
Ġj ordan
est and
Ġmit ber
Ġmit teilungen
Ġde parte
Ġde ckung
Ġvor weg
Ġvor wÃ¤rts
Ġdes gleichen
kt iver
Ġab stra
Ġab gebaut
Ġaus setzen
Ġaus zug
Ġaus reichenden
Ġaus rottung
Ġle hre
Ġne p
Ġsch ed
Ġsch atten
Ġsch Ã¼ler
la ger
ind ungen
Ġher d
Ġher ab
Ġher bei
Ġher self
Ġher stellern
Ġsu cht
Ġum kehr
Ġreg lement
sp ir
sp osition
Ġsh adow
Ġsh aping
Ġber end
Ġ1 01
hal l
ĠeuropÃ¤ isch
ĠeuropÃ¤ ern
ens ive
Ġres ume
Ġcoun ting
Ġges icher
Ġunter zogen
Ġunter nehm
Ġpres um
Ġpres erv
aus chen
Ġch en
Ġhat red
Ġdar le
Ġdar stellung
Ġta ught
Ġhe at
Ġqu o
Ġwor in
Ġho c
Ġnach teile
ag ten
Ġbei legung
Ġste igern
Ġte aching
Ġmust er
Ġparlament sprÃ¤sident
Ġkon form
Ġkon zerne
ult uren
Ġbericht es
Ġpo lem
ken ne
Ġob stru
Ġsp lend
con te
Ã¶r p
iz isten
Ġfre istell
Ġwo von
Ġmar pol
Ġgegen wart
che z
Ġind ul
Ġleg te
Ġfe e
Ġdec ree
Ġro ugh
Ġro jo
Ġop ted
Ġkolle ktive
Ġinv asion
ak ed
Ġwork place
Ġbas in
land es
fe hl
Ġdiff ers
Ġgeb aut
Ġeuropa weit
Ġeuropa wahlen
Ġsicher er
Ġaussch lieÃŁen
Ġzeit lich
Ġzeit weil
Ġref lex
Ġass ert
Ġmark ov
Ġeben dies
Ġter rain
ha ÃŁ
ha ust
Ġbere chnung
iger lich
pro ben
Ġover d
Ġgesch wÃ¤cht
Ġko ex
Ġgel ernt
Ġfinanz hilfe
Ġpoint less
dem okrat
Ġfl chard
Ġant ip
Ġget rieben
Ġpublic ation
Ġpublic ity
Ġur teilen
Ġprote ktion
Ġorder s
Ġdra ma
Ġmir anda
Ġlegisl ature
Ġevery day
Ġtr ip
kon zerne
Ġtoday s
Ġrahmen beschluÃŁ
Ġprincip ally
Ġallem al
Ġadd s
Ġbudget ing
Ġvers Ã¤um
Ġvers Ã¶hnung
Ġnam es
Ġgener elle
geben d
ru ppe
Ġach tz
ri age
ene es
Ġausge weit
Ġobject ively
Ġliber ia
red it
Ġgut he
zeug nissen
richt linien
Ġmil est
Ġmil cher
Ġauth ors
Ġneg l
Ġtrans missible
Ġliberal ismus
Ġgl uten
Ġdemokrat ien
Ġlaw yers
Ġklar gestellt
reit ungen
Ġestablish es
Ġvol at
Ġ6 8
ank ungen
Ġ8 6
Ġ8 9
Ġgesam th
Ġserious ness
Ġpat ri
gemein schaften
Ġ7 7
ĠzurÃ¼ck ziehen
Ġze igte
Ġsor gt
Ġrest ored
Ġrev id
Ġdefin es
Ġdefin ite
Ġcor rupt
Ġtranspar ente
Ġfavour s
ander s
Ġev il
Ġerweit erte
vorsch lÃ¤gen
Ġstandard isation
ĠverfÃ¼ t
Ġorganis ational
Ġwesent liches
Ġbeg nÃ¼gen
Ġstar kes
Ġdial ysis
Ġdown ward
Ġeth ischen
Ġwider setzen
Ġgerade zu
Ġdet ract
Ġann um
Ġern sten
Ġgesundheit lichen
Ġsector al
ĠrÃ¼ck fÃ¼hrung
Ġperiod ic
Ġprot okolle
Ġpass age
Ġstabil en
Ġentscheidung strÃ¤ger
Ġshort age
Ġdeutlich es
Ġkosten gÃ¼nst
Ġged ient
Ġged auert
Ġwettbewerbs regeln
Ġgere chter
Ġstud ents
Ġerne ute
Ġcomb ining
Ġanal og
Ġear n
Ġsing ap
Ġhinaus lÃ¤uft
Ġclos ure
ifiz ierungs
mÃ¤ÃŁ iger
Ġspiel regeln
ĠfÃ¼nf tens
Ġbill ions
Ġbill igt
unter such
Ġoppos ing
bereit ungs
ĠÃ¼berw Ã¤lt
02 0
Ġgeld f
ahn sinn
Ġschul ung
Ġsteuer lichen
Ġwissenschaft lern
Ġmodern ising
Ġamb ass
Ġluft verschmutzung
Ġisra els
Ġexcl uding
Ġbelg ische
Ġverk Ã¼nden
Ġmensch licher
Ġsex es
Ġeinheit licher
Ġschein heil
Ġcorre cted
Ġanerk annten
Ġelect orate
Ġrepe ating
Ġprofit iert
03 3
Ġlegitim ately
Ġerarbeit eten
Ġmut ually
Ġzivil isten
Ġwhite head
Ġdritt staats
Ġkommun istischen
Ġnormal e
Ġdaten schutz
ĠverstÃ¤nd igung
Ġexpla ining
produ ktiv
ij s
Ġsicherheits rates
Ġsuppor ters
bet reiber
spl an
ĠvÃ¶lker gemeinschaft
Ġbestand teile
ĠhÃ¶chst grenzen
Ġsix teen
Ġfinn ische
Ġ24 0
Ġalloc ating
Ġanzu erkennen
Ġfahr zeugen
Ġjen em
Ġgesche hn
Ġbeein fluÃŁ
ĠÃ¶k ol
Ġappe als
Ġveh ement
Ġeisenbahn netz
Ġcy cle
Ġweltweit e
ĠprÃ¤z isiert
Ġwrong ly
Ġpolize ibe
gesetz te
Ġfle ets
Ġeinver nehmen
Ġverbr annt
Ġschulden last
Ġhar ass
Ġhar vest
Ġentschlossen e
Ġalban ischen
Ġprem ise
Ġprem ises
Ġcompetit ors
Ġveran st
Ġwithdra wing
Ġhaider s
Ġgenehm igen
Ġschwerwie gender
Ġverm ute
Ġapprec iated
Ġoptim istisch
Ġheim gesucht
Ġstattfinden den
Ġkonsult ieren
ĠbedÃ¼r ft
Ġadapt ing
Ġorient iert
Ġprotest ieren
Ġberuf ung
Ġkonstrukt iv
Ġalt fahrzeuge
Ġcooper ative
Ġlay er
Ġfacilit ating
Ġdiox ins
ĠbeeintrÃ¤cht igung
ren Ã¤en
Ġjem als
Ġclaim ing
Ġclaim ed
rÃ¤um t
Ġdirector ates
Ġbeunruh igend
Ġkil omet
Ġvice conte
ĠgewiÃŁ heit
Ġmonat lichen
ĠÃ¤rz ten
Ġky i
Ġdigital en
Ġstor ies
Ġniedrig eren
vert ra
ĠangekÃ¼nd igte
ĠnÃ¼tz liche
ĠausmaÃŁ es
Ġhorizont ale
Ġtaus end
ĠfÃ¤h ig
Ġhom ogen
Ġcorrespon d
Ġoste uropas
ĠkÃ¼r zen
Ġassozi ierung
Ġpse ud
ĠzurÃ¼ckzu ziehen
Ġbreak down
Ġwohlstand s
spiel en
Ġimper ial
lit ten
Ġtransnational en
Ġherkunfts lÃ¤ndern
Ġpict ures
Ġvac uum
Ġgrav ierend
Ġregre ts
Ġkomplex en
Ġhoff nungs
Ġberuhen den
Ġdurchschnitt lichen
angehÃ¶r igen
Ġentschuld igung
ĠvizeprÃ¤sident en
Ġrauch ens
Ġwohn sitz
ĠerwÃ¤g ungs
Ġdereg ulierung
Ġdistr icts
Ġconsc ious
Ġstrik es
Ġvertie fen
Ġvigil ance
ĠschÃ¶ nen
ĠschÃ¶ ne
Ġzusammenh Ã¤ngen
ĠmakroÃ¶konom ische
Ġaufent halt
Ġupd ating
Ġkapaz itÃ¤t
Ġrot ation
ĠmaÃŁst Ã¤be
Ġverfe chter
Ġsn chez
Ġausz ur
beding ten
Ġpred omin
ĠgeneralsekretÃ¤r s
ĠstaatsbÃ¼rger schaft
ĠunionsbÃ¼rger schaft
Ġweakness es
Ġeag fl
bezogen e
Ġhierarch ie
kons um
Ġdup uis
verhÃ¤lt nis
Ġcompr ising
ĠverlÃ¤ng ert
Ġambig uous
Ġbehinder ten
Ġbeherr schen
Ġverze ihen
Ġaufru f
Ġbeton ung
Ġindones ia
Ġangek lagten
Ġgesetzgeb ungs
Ġembra ce
ĠgeschÃ¤d igten
Ġuntersuchungs ausschuÃŁ
Ġvoranzu kommen
Ġod ds
Ġlor ries
Ġmedic ine
Ġmedic ines
Ġflexibil isierung
Ġkarte ll
Ġoverlook ed
anspruch nahme
Ġzin sen
Ġsied lungs
Ġgemisch ten
Ġunjust ified
Ġeinleit ungen
herze govina
Ġagent ur
Ġvereinf achen
Ġverlag ern
ĠverhÃ¤ng nis
Ġincred ible
Ġhooligan ism
Ġdeem ed
Ġhaushaltskontroll ausschuÃŁ
Ġunbest reit
Ġul tr
ĠgleichgÃ¼lt ig
kapaz itÃ¤ten
Ġanch ov
Ġoverr iding
Ġverabschiede ten
Ġumweltze ich
fir st
Ġmc nally
entschlieÃŁ ung
verpflicht ungen
Ġshell fish
ĠgefÃ¤lligkeits flaggen
def izit
menschen rechts
Ġesp ionage
Ġweste uropa
Ġsahra w
Ġvorgeb rachten
Ġdiscrep ancies
Ġportfol io
Ġstab ile
ritor ial
Ġallevi ate
Ġhandhab ung
Ġkuwa it
Ġlobb ies
Ġunambig uous
Ġlan cker
Ġweitest gehend
Ġmehrwertste uer
Ġaufgest ockt
Ġjudic iary
ĠwÃ¼ÃŁ te
Ġgau ge
Ġrout ine
Ġtant amount
Ġpyr enees
Ġunwe igerlich
Ġimben i
Ġsplend id
Ġkoex istenz
Ġkilomet res
b id
b ian
b orn
b inden
b ahnen
d ated
d acht
e ffe
e ec
e val
f lich
f erung
g Ã¼ter
g na
h arm
i ang
k rie
k ampagnen
k enntnis
m edi
m akers
o hne
p a
p os
p lex
s wert
u i
u k
u gend
u dence
w ed
z lich
Ġ Ã¤ng
en a
in ent
in os
in frastru
in richtungen
Ġw inn
Ġs hr
un te
un ity
is ible
is kriminierung
at ri
Ġb reat
re cy
re cken
re itete
Ġm ol
Ġm ud
Ġm entions
ich e
or a
Ġe h
Ġe ce
Ġp es
Ġp akt
Ġp ped
an liegen
Ġf an
Ġf iled
Ġf atal
Ġin halte
Ġin anspruchnahme
Ġo wing
Ġh u
Ġh ugh
Ġh ull
Ġh ielten
Ġc rimin
Ġc raft
Ġn ative
ro k
ro t
Ġg f
Ġg n
Ġg ames
Ġun ein
Ġan f
Ġan lauf
Ġan wohner
te le
Ã¤ ck
Ġbe fragt
Ġbe zeichnungen
st ers
Ġz ert
om ot
ll ungen
Ġk illing
Ġk abin
Ġk unst
Ġund urch
Ġre think
Ġre aktions
ic ious
el en
Ġl ungen
ge legten
Ġver ant
Ġver nehmen
Ġver setzen
Ġver mehr
Ġver haftung
Ġzu teil
Ġzu erk
Ġzu geste
Ġzu stimme
Ġwe cken
Ġwe ather
lich sten
Ġr Ã¼
Ġr uft
ber ichts
Ġeu ph
ct s
ein nahmen
ein igung
Ġer schlieÃŁ
Ġcon go
im p
im et
Ġge iÃŁ
Ġge halt
Ġge iste
Ġauf trÃ¤ge
Ġauf tritt
ort ions
ach ter
Ġde fe
Ġvor ant
Ġvor anzut
kt ik
Ġab wesen
Ġab trÃ¤glich
Ġaus geben
Ġaus fallen
Ġaus bauen
ab ak
Ġne ol
Ġsch r
Ġsch uman
la ven
Ġdem ont
qu est
Ġex tr
Ġent sprochen
Ġsu anz
end iskriminierung
ĠÃ¼ber l
ĠÃ¼ber arbeit
ann e
Ġme ist
ib es
ungs system
pe gna
sen se
if ik
Ġinter ims
ers onen
Ġunter richten
Ġunter wegs
Ġunter zeichneten
ure ichen
me x
ist isches
Ġdar zulegen
Ġta pie
Ġam ado
Ġqu ellen
Ġho tel
Ġnach lÃ¤ss
ang ed
Ġfa ire
Ġag greg
Ġmein erseits
Ġkon g
Ġkon go
zu fÃ¼gen
Ġpo ol
Ġpo ison
Ġcomp ut
Ġsp ill
Ġsp ont
Ġsp recher
Ġsa ving
iz iert
iz za
ok ing
Ġinc idence
Ġgegen zug
ime ter
Ġsit ze
Ġind ian
wo che
Ġleg umes
wer be
rie b
Ġfe ira
int ing
ystem s
Ġdec ides
Ġvorsch ub
leich en
rat ory
Ġgew alts
art agung
Ġinform ing
Ġzusammen fassung
Ġzusammen gefaÃŁt
Ġbest rebt
Ġcommun icate
Ġinv itation
ak uum
Ġnow here
Ġpl ight
Ġhum ans
Ġbas ieren
Ġger Ã¼ckt
Ġeuropa abgeordneten
Ġzeit liche
Ġsel ben
Ġwel coming
Ġsozial vers
Ġsozial partner
Ġcour ses
Ġass umed
Ġfest stellte
lement e
Ġstand ort
Ġgleich zeit
Ġgleich stellungs
Ġbere chnungen
Ġconf irms
Ġwieder er
Ġknow ing
hn ten
Ġpla cing
fra me
Ġfinanz ierten
Ġfinanz hilfen
Ġfinanz mÃ¤rkten
Ġanderen falls
Ġrechts etz
Ġrechts mittel
Ġrecht mÃ¤ÃŁig
Ġrecht mÃ¤ÃŁigkeit
ster weiterung
Ġange gangen
ĠbÃ¼r gers
Ġmill imet
Ġversch lieÃŁen
Ġwant ing
Ġpresent ly
Ġlie ben
Ġseit her
gem erkt
Ġhal ben
Ġtr ies
Ġgood will
Ġvers etzt
Ġable hnt
Ġpolitik bereichen
Ġgest anden
werb ung
Ġsec uring
Ġsec urities
Ġverw Ã¤ss
Ġerforder nis
Ġkoso var
Ġeinzel fall
Ġeinzel personen
Ġanges tellt
Ġwish ing
Ġ7 9
Ġkommen de
ordin ate
Ġuntersch ieden
spolitik en
trÃ¤ gliche
Ġfort fÃ¼hrung
ĠÃ¤uÃŁ erung
Ġ9 7
Ġbef rem
Ġback ed
Ġconcl uding
Ġextrem ism
aussch Ã¼sse
bl att
Ġhelp s
Ġev olution
Ġerweit erungs
Ġapproach ing
Ġread ily
Ġbeg leitung
Ġnutz er
Ġschwier igkeit
Ġwohl haben
Ġwohl gemerkt
Ġru fe
Ġru led
Ġann ivers
Ġdort igen
ban anen
ĠrÃ¼ck nahme
ged anken
Ġprevent ative
Ġsitz t
Ġerg reift
Ã¤hl ung
Ġpass iv
Ġapplic ants
Ġschwer er
Ġmod us
Ġsw itch
Ġtour isten
Ġmilit ar
Ġwahl recht
Ġwa iver
Ġorigin s
ifiz ierte
Ġcongratul ated
leist ungs
Ġbill ige
Ġbill igung
bereit schaft
Ġsummit s
Ġasyl such
prÃ¼ fung
ĠauÃŁen hilfe
Ġbeitrag s
ator ies
Ġpoll uting
Ġcare er
Ġgeld geber
Ġvern etzung
Ġschnell stens
Ġfischere if
Ġpa ed
Ġcentral isation
Ġvereinbar keit
Ġsteuer liche
Ġkeep s
Ġparticip ated
Ġparticip ants
Ġsinn los
Ġstim ulating
Ġcontra d
Ġmal p
ĠprÃ¤ ferenz
Ġvict ory
Ġverk Ã¶rp
Ġhead way
Ġhead line
Ġmer ger
stell ten
employ ed
Ġabsch reck
Ġangeb aut
grenz werte
Ġunver einbar
ĠÃ¼berzeug ungen
Ġsuggest ing
ĠpersÃ¶n lichkeiten
zeichne te
Ġtim ing
Ġspecif ies
Ġech ter
Ġzweck s
Ġzweck dien
wÃ¼rd ige
Ġhinzu zufÃ¼gen
spe aking
ĠstÃ¤nd iger
Ġwiederauf bereitung
Ġsk lav
ĠkompromiÃŁ antrag
Ġmis er
produ cing
Ġsicherheits standards
Ġzusatz frage
Ġmand ela
ĠvÃ¶lker rechts
Ġtag ungen
Ġnahrungsmittel sicherheit
200 3
Ġanzu bieten
Ġmet als
Ġtier ernÃ¤hrung
Ġschre ibt
Ġschre cken
Ġmobil isierung
Ġgering ste
rahmen s
ĠÃ¶k osystem
haus g
Ġreturn s
Ġverd acht
Ġausgewogen es
Ġrelig ions
Ġcondemn s
Ġsepar at
Ġsepar ation
Ġverkehrs minister
Ġfrankreich s
Ġung Ã¼nst
ĠprÃ¤z isieren
Ġstre ets
Ġauszu arbeiten
Ġquant it
ĠfÃ¼ hle
Ġpolize ik
lo ad
Ġdefend s
Ġbig ger
Ġereign et
Ġvoran schreit
Ġversich ere
Ġindustrial ised
Ġspezif ikationen
Ġster ling
Ġgek nÃ¼
Ġgek Ã¼rzt
Ġfla gr
Ġanp assungs
Ġblick en
Ġheart felt
Ġmittelmeer raums
Ġbot schafter
Ġober ste
Ġenfor cing
Ġhung ern
ĠglÃ¼ck lich
Ġmindest maÃŁ
Ġlaufen de
Ġverh elfen
Ġgruppen fre
ĠÃ¶l tank
Ġzerst Ã¶r
Ġcop y
Ġcoast line
ĠwÃ¤hrungs reserven
Ġsorg falt
Ġrelationship s
Ġlauf bahn
Ġalters versorgungs
Ġforschungs raum
Ġcal m
Ġeinzus ch
Ġbra chten
Ġadvoc ating
Ġfil led
Ġungleich behandlung
verfol gen
Ġthor p
Ġmazed on
Ġdiox ide
Ġelimin ated
Ġmach bar
ĠgrÃ¶ÃŁer es
Ã¤h le
Ġexpens es
Ġbrenn stoffe
Ġauton omen
Ġproduz iert
Ġlaunch ing
Ġverschle chtern
Ġkre uz
ris iko
Ġletzter e
Ġmeaning ful
Ġaufsch luÃŁ
ĠbefÃ¼rwor ter
Ġtief greifende
Ġansch uld
Ġumge ht
Ġenvis ages
ĠangekÃ¼nd igten
fÃ¤ll igen
Ġgeber n
Ġmargin s
Ġkandidaten lÃ¤nder
Ġafford able
Ġacknowled ging
Ġspread ing
Ġwand els
Ġtouch es
repr esent
Ġinterpre ting
Ġstreit igkeiten
ĠwÃ¼nsch te
Ġweap on
Ġbedeutsam en
ĠgrÃ¶ÃŁt mÃ¶gliche
Ġfreiwill ig
Ġadvis able
Ġkommunikation stechn
Ġausl Ã¶sen
Ġineff ective
Ġschreck liche
Ġevident ly
Ġvac lav
Ġgelt ung
Ġgrav ierenden
Ġforg ive
Ġbewahr t
Ġzusch lÃ¤ge
Ġkontinu itÃ¤t
dokument e
Ġeta ppe
Ġpunish ment
Ġradik alen
Ġcur ious
Ġideolog ischen
Ġumfassender e
Ġstrafrecht liche
Ġfinger ab
Ġproc ure
Ġpenal ise
ĠniederlÃ¤nd ische
Ġaqu ak
abgeordne te
Ġrelev anten
Ġreve als
Ġexpand ing
ĠsÃ¼den s
Ġbefried igung
Ġcustom er
tran sp
Ġkranken haus
Ġ61 3
ĠverantwortungsbewuÃŁ te
ĠverantwortungsbewuÃŁ tsein
Ġcontam inated
Ġmedizin ischen
Ġpalestin ians
Ġgol f
Ã¼berein kommens
Ġdecre ase
Ġpriorit ise
Ġconvict ions
Ġhorr or
Ġnaz i
Ġlift ing
Ġurheber recht
Ġunabding bare
Ġradioakt iven
46 8
Ġeag gf
Ġmad ame
Ġshock ed
ĠmiÃŁverstÃ¤nd nisse
ĠrÃ¼ckÃ¼ber weisung
Ġdisappoint ing
Ġzit ieren
Ġinformationstechn ologien
Ġscar c
Ġhochrang ige
Ġfragment ed
Ġfragment ation
Ġheil igen
Ġminen rÃ¤um
Ġhosp itals
Ġprovin ce
Ġeinzug reifen
Ġmem or
Ġdeploy ed
Ġassum ing
Ġundermin ed
Ġsympt om
ĠplÃ¤d ieren
Ġincons istent
Ġlobens wert
Ġkomment ieren
Ġsar dellen
Ġrevers al
Ġverse uchung
Ġtreib hausg
car pegna
Ġmeld ungen
Ġcat ches
Ġumweltver trÃ¤glichkeit
hÃ¤nd ler
Ġanx ious
Ġgeziel t
Ġemot ional
Ġhemm nisse
insel n
Ġsamm eln
Ġanh Ã¤nger
ĠvorlÃ¤uf igen
Ġzweifels ohne
Ġmig ratory
Ġprud ential
Ġums ied
Ġinj ured
ĠlieÃŁ e
Ġverzer ren
Ġasymmet r
Ġperfe kt
tur n
Ġvit ally
Ġunilater al
Ġhaut ala
Ġtact ics
Ġpredecess or
Ġscand als
Ġbuchst abe
kommissar in
zum achen
Ġhamp er
Ġzy pr
Ġverwende ten
ĠbrÃ¼ der
ĠlÃ¤ng ere
Ġgeis eln
Ġunters agt
Ġredeploy ment
Ġfab ric
Ġlyn ne
Ġerwer bst
Ġkontra produktiv
Ġgalic ia
Ġhypocrit ical
Ġverschlimm ert
Ġunice f
Ġlifel ong
Ġambigu ity
Ġyard stick
Ġpeters berg
Ġeingreift ruppe
anp assung
Ġeinber ufung
Ġcommod ity
finit ely
Ġkambod scha
Ġecolog ically
kopp elt
Ġkris ens
ĠzugestÃ¤nd nisse
Ġcambod ia
Ġintimid ation
Ġpy renÃ¤en
Ġverge ud
Ġelef anten
Ġbabitzk ij
Ġmigr ations
ĠhÃ¼ter in
Ġhelicop ters
Ġlogischer weise
contract ing
Ġkernen ergie
Ġwei hn
Ġgeschehn isse
ĠbeeinfluÃŁ t
Ġsahraw i
Ġpped e
Ġcrimin als
Ġvoranzut reiben
Ġabwesen heit
Ġsuanz es
Ġannivers ary
Ġsklav erei
4 32
7 0
b ination
b ranche
c ow
d c
h ar
h eld
j ahre
k all
l us
l og
l ings
l Ã¶sen
l iers
m y
m ischen
m oney
n Ã¶ten
o i
p ets
r id
r and
s u
s organisation
s icherung
v it
w ett
Ġ )
Ġd imin
Ġd ating
Ġd edu
Ġt ight
Ġt ong
in ations
Ġa er
Ġa ung
Ġw ahre
Ġw ander
Ġw alten
Ġw yn
Ġs me
un ha
un sicherheit
it arian
at um
at ami
Ġb og
re ien
Ġm atik
or ben
or able
Ġe ating
Ġp ed
Ġp ad
Ġp ac
Ġp kk
an bie
an stalten
Ġf ein
Ġf iel
Ġf liegen
Ġo x
Ġo sterweiterung
Ġh ur
Ġh ind
Ġh Ã¤r
Ġc os
Ġc ement
Ġc atalog
Ġc unha
al d
al es
Ġn etzen
Ġn enne
Ġn izza
ro ugh
ro ots
Ġv oc
Ġv ater
Ġv ierten
Ġg inge
Ġg aps
Ġun ite
Ġun vor
Ġun com
Ġun will
Ġun nach
[...]
