{"[PAD]": 0, "[BOS]": 1, "[EOS]": 2, "[UNK]": 3, "!": 4, "$": 5, "%": 6, "&": 7, "(": 8, ")": 9, "+": 10, ",": 11, "-": 12, ".": 13, "/": 14, "0": 15, "1": 16, "2": 17, "3": 18, "4": 19, "5": 20, "6": 21, "7": 22, "8": 23, "9": 24, ":": 25, ";": 26, "?": 27, "[": 28, "]": 29, "a": 30, "b": 31, "c": 32, "d": 33, "e": 34, "f": 35, "g": 36, "h": 37, "i": 38, "j": 39, "k": 40, "l": 41, "m": 42, "n": 43, "o": 44, "p": 45, "q": 46, "r": 47, "s": 48, "t": 49, "u": 50, "v": 51, "w": 52, "x": 53, "y": 54, "z": 55, "\u00a3": 56, "\u00a4": 57, "\u00b6": 58, "\u00bc": 59, "\u00c2": 60, "\u00c3": 61, "\u0120": 62, "\u0141": 63, "en": 64, "er": 65, "\u0120d": 66, "\u0120t": 67, "in": 68, "\u0120a": 69, "ch": 70, "\u0120th": 71, "on": 72, "\u0120w": 73, "\u0120s": 74, "es": 75, "un": 76, "is": 77, "it": 78, "\u0120the": 79, "at": 80, "\u0120b": 81, "re": 82, "ie": 83, "\u0120m": 84, "ich": 85, "or": 86, "\u0120e": 87, "\u0120p": 88, "an": 89, "\u0120f": 90, "\u0120in": 91, "ion": 92, "\u0120o": 93, "\u0120h": 94, "\u0120c": 95, "al": 96, "ar": 97, "\u0120n": 98, "ro": 99, "\u0120v": 100, "\u0120g": 101, "\u0120un": 102, "\u0120an": 103, "ent": 104, "le": 105, "te": 106, "\u0120die": 107, "\u00c3\u00bc": 108, "ung": 109, "\u00c3\u00a4": 110, "\u0120be": 111, "\u0120to": 112, "\u0120of": 113, "\u0120der": 114, "st": 115, "\u0120i": 116, "as": 117, "\u0120z": 118, "om": 119, "ur": 120, "ll": 121, "ing": 122, "ig": 123, "\u0120k": 124, "\u0120and": 125, "\u0120is": 126, "us": 127, "ed": 128, "\u0120und": 129, "ir": 130, "\u0120re": 131, "\u0120ein": 132, "\u00c3\u0141": 133, "em": 134, "ra": 135, "ic": 136, "el": 137, "\u0120l": 138, "ut": 139, "icht": 140, "ies": 141, "eit": 142, "ge": 143, "\u0120ver": 144, "der": 145, "omm": 146, "ol": 147, "sch": 148, "am": 149, "ation": 150, "ten": 151, "\u0120au": 152, "ul": 153, "ter": 154, "den": 155, "\u0120zu": 156, "rop": 157, "\u0120we": 158, "\u0120wir": 159, "\u0120that": 160, "ve": 161, "lich": 162, "\u0120r": 163, "ber": 164, "\u0120wh": 165, "\u0120eu": 166, "il": 167, "ct": 168, "\u00c3\u00b6": 169, "hr": 170, "\u0120da": 171, "gen": 172, "\u0120ha": 173, "\u0120st": 174, "\u0120for": 175, "\u00c3\u00bcr": 176, "et": 177, "\u0120no": 178, "um": 179, "id": 180, "isch": 181, "\u0120den": 182, "\u0120on": 183, "ein": 184, "\u0120europ": 185, "ly": 186, "iss": 187, "\u0120pro": 188, "\u0120er": 189, "ere": 190, "\u0120dies": 191, "\u0120so": 192, "\u0120this": 193, "\u0120al": 194, "\u0120it": 195, "de": 196, "\u0120im": 197, "ier": 198, "\u0120con": 199, "im": 200, "os": 201, "\u0120ge": 202, "\u0120auf": 203, "ort": 204, "\u0120pr": 205, "\u0120j": 206, "\u0120da\u00c3\u0141": 207, "ommiss": 208, "\u0120ich": 209, "est": 210, "\u0120as": 211, "ff": 212, "ce": 213, "ver": 214, "ben": 215, "\u0120das": 216, "ess": 217, "\u0120mit": 218, "\u0120par": 219, "\u0120von": 220, "\u0120f\u00c3\u00bcr": 221, "ommission": 222, "men": 223, "\u0120co": 224, "\u0120ist": 225, "ach": 226, "and": 227, "\u0120are": 228, "\u0120de": 229, "\u0120vor": 230, "ft": 231, "\u0120des": 232, "kt": 233, "\u0120nicht": 234, "\u0120es": 235, "\u0120not": 236, "ill": 237, "\u0120ab": 238, "uld": 239, "\u0120aus": 240, "\u0120le": 241, "ith": 242, "ab": 243, "\u0120ne": 244, "ment": 245, "\u0120which": 246, "\u0120with": 247, "ischen": 248, "\u00c3\u00a4n": 249, "\u0120sch": 250, "\u0120se": 251, "th": 252, "\u0120ma": 253, "\u0120wer": 254, "pp": 255, "ik": 256, "\u00c3\u00bcber": 257, "la": 258, "op": 259, "\u0120als": 260, "\u0120have": 261, "ould": 262, "ungen": 263, "\u0120dem": 264, "ts": 265, "\u0120eine": 266, "ind": 267, "we": 268, "qu": 269, "\u0120europe": 270, "iv": 271, "ive": 272, "ate": 273, "ant": 274, "\u0120ex": 275, "\u0120werden": 276, "ust": 277, "\u0120all": 278, "ident": 279, "\u0120her": 280, "ament": 281, "\u0120ent": 282, "ial": 283, "\u0120su": 284, "end": 285, "\u0120um": 286, "\u0120\u00c3\u00bcber": 287, "\u0120y": 288, "\u0120reg": 289, "sp": 290, "\u0120sich": 291, "ity": 292, "ann": 293, "\u0120sie": 294, "\u0120will": 295, "\u0120do": 296, "lie": 297, "\u0120auch": 298, "\u0120parl": 299, "\u0120uns": 300, "\u0120sh": 301, "\u0120-": 302, "\u0120me": 303, "ck": 304, "und": 305, "nen": 306, "ib": 307, "\u0120fra": 308, "ste": 309, "\u0120ber": 310, "ne": 311, "ht": 312, "\u0120by": 313, "ungs": 314, "tr": 315, "pe": 316, "\u0120commission": 317, "sen": 318, "ay": 319, "igen": 320, "00": 321, "ore": 322, "\u0120mr": 323, "\u0120union": 324, "\u01201": 325, "hal": 326, "\u0120european": 327, "ug": 328, "\u0120pol": 329, "be": 330, "\u0120europ\u00c3\u00a4": 331, "u\u00c3\u0141": 332, "\u0120at": 333, "\u0120or": 334, "\u0120wie": 335, "scha": 336, "ke": 337, "ions": 338, "ens": 339, "\u0120was": 340, "if": 341, "ah": 342, "ern": 343, "ow": 344, "\u0120has": 345, "\u0120inter": 346, "ges": 347, "ers": 348, "\u0120herr": 349, "port": 350, "\u0120comm": 351, "\u0120res": 352, "for": 353, "\u0120coun": 354, "hen": 355, "iel": 356, "\u0120there": 357, "\u0120ges": 358, "\u0120unter": 359, "\u0120pres": 360, "\u0120ar": 361, "aus": 362, "schaft": 363, "\u0120kommission": 364, "ien": 365, "\u0120wird": 366, "gr": 367, "ure": 368, "\u0120sind": 369, "tz": 370, "\u0120gr": 371, "\u0120ch": 372, "me": 373, "ain": 374, "\u0120hat": 375, "etz": 376, "up": 377, "ahr": 378, "ord": 379, "\u0120m\u00c3\u00b6": 380, "chte": 381, "ted": 382, "ist": 383, "\u0120com": 384, "\u0120bes": 385, "\u0120en": 386, "ad": 387, "all": 388, "llen": 389, "ot": 390, "\u0120would": 391, "\u0120dar": 392, "\u0120ta": 393, "\u0120he": 394, "\u0120also": 395, "heit": 396, "\u0120am": 397, "\u0120yo": 398, "\u00c3\u00a4nder": 399, "\u0120zur": 400, "\u0120man": 401, "\u0120haben": 402, "keit": 403, "eren": 404, "ische": 405, "rom": 406, "se": 407, "uch": 408, "enn": 409, "\u0120di": 410, "\u00c3\u00a4s": 411, "\u0120diese": 412, "\u0120qu": 413, "\u0120but": 414, "ze": 415, "ue": 416, "\u0120wor": 417, "\u0120ho": 418, "lichen": 419, "\u0120nach": 420, "beit": 421, "ise": 422, "\u0120should": 423, "her": 424, "ag": 425, "\u0120bei": 426, "au": 427, "ard": 428, "ect": 429, "\u0120our": 430, "ang": 431, "\u0120ste": 432, "\u0120fa": 433, "rit": 434, "\u0120stat": 435, "ember": 436, "\u0120europ\u00c3\u00a4ischen": 437, "99": 438, "\u0120ra": 439, "\u0120ag": 440, "\u0120part": 441, "\u0120mein": 442, "\u0120sein": 443, "\u0120fin": 444, "ations": 445, "\u0120dis": 446, "aten": 447, "\u0120us": 448, "\u0120dur": 449, "ther": 450, "\u00c3\u00a4sident": 451, "\u0120ad": 452, "\u0120te": 453, "\u0120gro": 454, "\u01202": 455, "\u0120must": 456, "\u00c3\u00b6n": 457, "\u0120president": 458, "ip": 459, "ige": 460, "du": 461, "cht": 462, "\u00c3\u00a4r": 463, "\u0120from": 464, "\u0120parlament": 465, "\u0120ih": 466, "ational": 467, "ran": 468, "ical": 469, "\u0120polit": 470, "od": 471, "lem": 472, "\u0120einer": 473, "\u00c3\u00bcs": 474, "\u0120str": 475, "iament": 476, "\u0120go": 477, "cial": 478, "\u0120kon": 479, "ert": 480, "able": 481, "ese": 482, "pr": 483, "ick": 484, "\u0120parliament": 485, "\u0120member": 486, "\u0120k\u00c3\u00b6n": 487, "ition": 488, "\u0120been": 489, "ult": 490, "\u0120dieser": 491, "\u0120bericht": 492, "\u0120ac": 493, "\u0120prop": 494, "\u0120app": 495, "\u0120you": 496, "\u0120pr\u00c3\u00a4sident": 497, "ommen": 498, "zu": 499, "\u0120po": 500, "\u0120durch": 501, "hmen": 502, "form": 503, "f\u00c3\u00bc": 504, "ud": 505, "\u0120gen": 506, "ous": 507, "\u0120gem": 508, "ken": 509, "our": 510, "ement": 511, "\u0120bet": 512, "\u0120wenn": 513, "anz": 514, "igh": 515, "fen": 516, "ction": 517, "\u0120ob": 518, "\u0120can": 519, "\u0120prob": 520, "\u0120comp": 521, "itte": 522, "\u0120sp": 523, "chen": 524, "vel": 525, "ast": 526, "\u0120sa": 527, "\u00c3\u00bcn": 528, "elt": 529, "\u0120pos": 530, "ution": 531, "out": 532, "\u0120these": 533, "og": 534, "onder": 535, "imm": 536, "\u0120rat": 537, "\u0120m\u00c3\u00b6chte": 538, "\u0120zw": 539, "ome": 540, "con": 541, "\u00c3\u00a4t": 542, "\u00c3\u00bcssen": 543, "liche": 544, "\u0120report": 545, "\u0120countr": 546, "ary": 547, "ute": 548, "\u00c3\u00b6r": 549, "\u0120einen": 550, "\u0120lik": 551, "pt": 552, "\u0120more": 553, "\u0120its": 554, "\u0120m\u00c3\u00bcssen": 555, "\u0120aber": 556, "ear": 557, "ish": 558, "iz": 559, "reat": 560, "ok": 561, "sta": 562, "\u0120mu\u00c3\u0141": 563, "\u0120noch": 564, "ierung": 565, "ieren": 566, "gt": 567, "glie": 568, "\u0120propos": 569, "\u0120like": 570, "\u0120spe": 571, "\u0120conc": 572, "\u0120zum": 573, "\u0120soll": 574, "\u0120if": 575, "cess": 576, "oc": 577, "\u0120inc": 578, "str": 579, "\u0120kann": 580, "\u0120what": 581, "hl": 582, "ely": 583, "\u0120pre": 584, "ight": 585, "\u0120fre": 586, "\u0120wo": 587, "\u0120hin": 588, "\u0120they": 589, "\u0120nur": 590, "ger": 591, "\u0120cons": 592, "pl": 593, "nah": 594, "rag": 595, "\u0120gemein": 596, "\u0120jed": 597, "\u0120zus": 598, "ally": 599, "ub": 600, "gra": 601, "lin": 602, "\u0120need": 603, "cil": 604, "olle": 605, "\u0120mitglie": 606, "ass": 607, "\u0120mar": 608, "\u0120states": 609, "\u0120diesem": 610, "\u0120mo": 611, "\u0120(": 612, "mer": 613, "\u0120frau": 614, "fore": 615, "\u0120k\u00c3\u00b6nnen": 616, "ance": 617, "\u0120wur": 618, "ose": 619, "king": 620, "\u0120pe": 621, "\u0120ihr": 622, "\u0120polic": 623, "\u0120cont": 624, "sten": 625, "\u0120one": 626, "\u0120bec": 627, "\u00c3\u00bcck": 628, "\u0120verb": 629, "\u0120who": 630, "gan": 631, "\u0120war": 632, "\u0120kein": 633, "glich": 634, "ktion": 635, "yste": 636, "igkeit": 637, "\u0120gegen": 638, "gram": 639, "che": 640, "ime": 641, "uss": 642, "\u0120sit": 643, "schen": 644, "\u0120arbeit": 645, "\u0120problem": 646, "\u0120very": 647, "\u0120their": 648, "\u0120my": 649, "\u0120oder": 650, "\u0120ind": 651, "age": 652, "\u0120men": 653, "\u0120weit": 654, "\u0120int": 655, "wo": 656, "\u0120imp": 657, "\u0120leg": 658, "\u0120council": 659, "\u0120intern": 660, "wer": 661, "ider": 662, "ced": 663, "\u0120import": 664, "ap": 665, "\u0120dire": 666, "sam": 667, "iert": 668, "are": 669, "\u0120entw": 670, "\u0120entsch": 671, "tschaft": 672, "\u0120em": 673, "rie": 674, "he": 675, "\u0120mitglied": 676, "ative": 677, "ffen": 678, "sicht": 679, "\u0120than": 680, "\u0120them": 681, "ments": 682, "f\u00c3\u00bchr": 683, "\u0120hier": 684, "\u0120dam": 685, "ject": 686, "sib": 687, "\u0120mehr": 688, "pf": 689, "\u0120fe": 690, "\u0120deb": 691, "\u0120eff": 692, "\u0120up": 693, "000": 694, "lie\u00c3\u0141": 695, "\u0120other": 696, "\u0120out": 697, "vent": 698, "\u0120sehr": 699, "reich": 700, "int": 701, "\u0120sol": 702, "one": 703, "ystem": 704, "pport": 705, "stit": 706, "\u0120countries": 707, "\u0120dec": 708, "\u0120vorsch": 709, "\u0120vo": 710, "\u00c3\u00a4hr": 711, "ause": 712, "teil": 713, "ious": 714, "\u0120about": 715, "\u0120tran": 716, "\u0120grund": 717, "\u0120dieses": 718, "lic": 719, "\u0120richt": 720, "leich": 721, "ammen": 722, "lle": 723, "rat": 724, "staaten": 725, "\u0120199": 726, "\u0120sub": 727, "erst": 728, "velop": 729, "ugh": 730, "\u0120jahr": 731, "\u0120gew": 732, "dr": 733, "\u0120new": 734, "\u0120ihre": 735, "\u0120just": 736, "\u0120only": 737, "\u0120ser": 738, "\u0120develop": 739, "art": 740, "mend": 741, "utz": 742, "\u0120ro": 743, "\u0120entwick": 744, "atter": 745, "\u0120\u00c3\u00a4nder": 746, "\u0120any": 747, "\u0120unser": 748, "\u0120tra": 749, "\u0120peop": 750, "nung": 751, "\u0120year": 752, "\u00c3\u00bctz": 753, "\u0120iss": 754, "\u0120besch": 755, "\u0120inform": 756, "\u0120amend": 757, "ism": 758, "\u0120produ": 759, "\u0120program": 760, "\u0120zusammen": 761, "\u0120per": 762, "ice": 763, "\u0120einem": 764, "\u00c3\u00a4nd": 765, "ia": 766, "ated": 767, "\u0120fir": 768, "ring": 769, "\u0120region": 770, "ights": 771, "\u0120alle": 772, "cy": 773, "\u0120europ\u00c3\u00a4ische": 774, "\u0120because": 775, "\u0120policy": 776, "\u0120best": 777, "\u0120op": 778, "ase": 779, "\u0120menschen": 780, "bar": 781, "\u0120commun": 782, "\u0120wicht": 783, "assen": 784, "\u0120proposal": 785, "\u0120people": 786, "\u0120kolle": 787, "ility": 788, "l\u00c3\u00a4": 789, "\u0120national": 790, "\u0120inv": 791, "\u0120bereit": 792, "\u0120viel": 793, "ities": 794, "fahr": 795, "\u0120time": 796, "\u0120quest": 797, "ces": 798, "tet": 799, "\u0120rights": 800, "\u0120agre": 801, "ctive": 802, "\u0120concern": 803, "lung": 804, "lear": 805, "\u0120therefore": 806, "ong": 807, "iven": 808, "\u0120committe": 809, "\u0120hand": 810, "\u0120nat": 811, "ink": 812, "arbeit": 813, "etzt": 814, "chn": 815, "ak": 816, "\u0120ins": 817, "\u0120system": 818, "\u0120mitgliedstaaten": 819, "it\u00c3\u00a4t": 820, "halb": 821, "conom": 822, "\u0120partic": 823, "wend": 824, "\u0120important": 825, "wn": 826, "\u0120vie": 827, "ign": 828, "\u0120now": 829, "tre": 830, "\u0120some": 831, "igt": 832, "ibt": 833, "\u0120again": 834, "ans": 835, "ahl": 836, "\u0120first": 837, "i\u00c3\u0141": 838, "\u0120pl": 839, "uation": 840, "olit": 841, "\u0120mon": 842, "\u0120work": 843, "och": 844, "fr": 845, "\u0120fo": 846, "\u0120econom": 847, "\u0120fact": 848, "ven": 849, "auf": 850, "\u0120committee": 851, "ument": 852, "r\u00c3\u00a4": 853, "ular": 854, "\u0120min": 855, "wir": 856, "\u0120frage": 857, "\u0120hum": 858, "xt": 859, "llt": 860, "\u0120eing": 861, "ungsant": 862, "\u0120bas": 863, "alt": 864, "\u0120fund": 865, "ide": 866, "\u0120sta": 867, "\u0120wurde": 868, "chts": 869, "\u0120prov": 870, "lag": 871, "ob": 872, "\u0120art": 873, "\u0120human": 874, "mal": 875, "\u0120unterst": 876, "\u0120ger": 877, "los": 878, "land": 879, "\u00c3\u00a4m": 880, "\u0120take": 881, "\u0120acc": 882, "\u0120such": 883, "\u0120act": 884, "forder": 885, "\u0120group": 886, "halten": 887, "fol": 888, "lar": 889, "iden": 890, "ures": 891, "ire": 892, "\u0120wirtschaft": 893, "erung": 894, "\u0120say": 895, "\u0120\u00c3\u00b6": 896, "\u0120into": 897, "\u0120when": 898, "ite": 899, "fe": 900, "vor": 901, "ives": 902, "\u0120support": 903, "\u0120diff": 904, "unkt": 905, "kommen": 906, "\u0120make": 907, "nahmen": 908, "\u0120clear": 909, "\u0120rec": 910, "\u0120geb": 911, "\u0120being": 912, "\u0120social": 913, "\u0120howe": 914, "\u0120however": 915, "isation": 916, "\u0120way": 917, "\u0120europa": 918, "\u0120denn": 919, "\u0120soz": 920, "\u0120damit": 921, "\u01203": 922, "\u0120unterst\u00c3\u00bctz": 923, "\u0120situation": 924, "\u0120ma\u00c3\u0141": 925, "geb": 926, "vern": 927, "pon": 928, "\u0120la": 929, "\u0120sicher": 930, "ine": 931, "\u0120aussch": 932, "now": 933, "\u0120disc": 934, "ific": 935, "hand": 936, "setz": 937, "\u0120zeit": 938, "\u0120gro\u00c3\u0141": 939, "ry": 940, "legen": 941, "ner": 942, "vo": 943, "\u0120rel": 944, "\u0120bez": 945, "\u0120sel": 946, "\u0120land": 947, "\u00c3\u00a4ch": 948, "rauch": 949, "pect": 950, "mit": 951, "\u0120particular": 952, "\u0120ref": 953, "\u0120wel": 954, "iti": 955, "sel": 956, "\u0120m\u00c3\u00b6glich": 957, "iff": 958, "\u0120sozial": 959, "wor": 960, "\u0120cour": 961, "f\u00c3\u00bcr": 962, "ame": 963, "led": 964, "\u0120ass": 965, "ings": 966, "igung": 967, "\u0120mark": 968, "\u0120off": 969, "\u0120fest": 970, "\u0120bo": 971, "\u0120sonder": 972, "lement": 973, "\u0120eben": 974, "nehmen": 975, "ied": 976, "\u0120abge": 977, "olitik": 978, "\u0120ter": 979, "wie": 980, "enz": 981, "\u0120diesen": 982, "\u0120stand": 983, "\u0120jedoch": 984, "\u0120made": 985, "\u0120international": 986, "ha": 987, "\u0120gleich": 988, "\u0120instit": 989, "ween": 990, "ision": 991, "\u0120between": 992, "\u0120dann": 993, "\u0120gibt": 994, "\u0120l\u00c3\u00a4nder": 995, "\u0120bere": 996, "iger": 997, "\u0120erw": 998, "\u0120haus": 999, "\u0120question": 1000, "olog": 1001, "\u0120conf": 1002, "h\u00c3\u00b6r": 1003, "essen": 1004, "ks": 1005, "kte": 1006, "dern": 1007, "day": 1008, "\u0120regard": 1009, "sible": 1010, "\u0120\u00c3\u00a4nderungsant": 1011, "\u0120those": 1012, "\u0120heute": 1013, "\u0120mich": 1014, "get": 1015, "oy": 1016, "\u0120wieder": 1017, "pro": 1018, "\u0120eines": 1019, "ues": 1020, "\u0120political": 1021, "zeit": 1022, "ors": 1023, "\u0120over": 1024, "\u0120know": 1025, "\u0120zwischen": 1026, "\u0120ganz": 1027, "hn": 1028, "issen": 1029, "\u0120unsere": 1030, "\u0120zwe": 1031, "ural": 1032, "\u0120sondern": 1033, "\u0120pla": 1034, "st\u00c3\u00a4nd": 1035, "\u0120einz": 1036, "\u0120sin": 1037, "\u0120under": 1038, "atz": 1039, "\u0120bin": 1040, "\u0120information": 1041, "tel": 1042, "\u0120organ": 1043, "gin": 1044, "ved": 1045, "\u0120gesch": 1046, "\u0120market": 1047, "weise": 1048, "\u0120keine": 1049, "linie": 1050, "eration": 1051, "\u0120were": 1052, "uen": 1053, "isten": 1054, "\u0120end": 1055, "\u0120see": 1056, "ild": 1057, "\u0120et": 1058, "\u0120gemeinsam": 1059, "\u0120herrn": 1060, "\u0120consider": 1061, "\u0120ko": 1062, "halt": 1063, "fl": 1064, "cept": 1065, "\u0120gel": 1066, "\u0120form": 1067, "\u0120prin": 1068, "fra": 1069, "\u0120finanz": 1070, "ublic": 1071, "\u0120development": 1072, "\u0120bereich": 1073, "\u0120bereits": 1074, "ertain": 1075, "esent": 1076, "ordnung": 1077, "els": 1078, "\u0120fr": 1079, "\u0120respon": 1080, "ient": 1081, "\u0120doch": 1082, "amp": 1083, "deut": 1084, "\u0120point": 1085, "dem": 1086, "\u0120anderen": 1087, "\u0120requ": 1088, "\u0120pers": 1089, "ised": 1090, "\u0120techn": 1091, "bst": 1092, "\u0120within": 1093, "\u0120many": 1094, "ater": 1095, "ell": 1096, "uth": 1097, "\u0120wirk": 1098, "\u0120w\u00c3\u00bcr": 1099, "\u0120regul": 1100, "\u0120great": 1101, "\u0120directive": 1102, "\u0120issue": 1103, "\u0120transp": 1104, "\u0120where": 1105, "\u0120env": 1106, "ac": 1107, "\u0120commissioner": 1108, "\u0120community": 1109, "\u0120govern": 1110, "\u0120ihnen": 1111, "\u0120betr": 1112, "\u0120rechts": 1113, "\u0120recht": 1114, "\u0120weiter": 1115, "\u0120initi": 1116, "ster": 1117, "stimm": 1118, "fall": 1119, "\u0120habe": 1120, "\u0120ever": 1121, "\u0120gemeinschaft": 1122, "ld": 1123, "\u0120exp": 1124, "\u0120ange": 1125, "ordne": 1126, "imin": 1127, "\u0120entwicklung": 1128, "\u0120beste": 1129, "ange": 1130, "\u0120rem": 1131, "ats": 1132, "acht": 1133, "\u0120euro": 1134, "\u0120does": 1135, "\u0120think": 1136, "\u0120selbst": 1137, "\u0120far": 1138, "\u0120fl": 1139, "\u0120bis": 1140, "gend": 1141, "onment": 1142, "\u0120li": 1143, "entr": 1144, "isen": 1145, "\u0120even": 1146, "\u0120sowie": 1147, "spr": 1148, "\u0120ant": 1149, "\u0120b\u00c3\u00bcr": 1150, "\u0120get": 1151, "\u00c3\u00a4l": 1152, "\u0120bed": 1153, "read": 1154, "eln": 1155, "\u0120dan": 1156, "oun": 1157, "\u0120certain": 1158, "ating": 1159, "ironment": 1160, "lagen": 1161, "mitte": 1162, "rechen": 1163, "\u00c3\u00a4ft": 1164, "\u0120weil": 1165, "\u0120environment": 1166, "\u0120right": 1167, "fin": 1168, "\u0120belie": 1169, "ual": 1170, "\u0120economic": 1171, "leg": 1172, "\u0120mill": 1173, "\u0120au\u00c3\u0141": 1174, "wort": 1175, "icult": 1176, "ateg": 1177, "\u0120stru": 1178, "\u0120here": 1179, "\u0120geht": 1180, "\u0120public": 1181, "\u0120ur": 1182, "\u0120versch": 1183, "tern": 1184, "\u0120want": 1185, "\u0120umw": 1186, "mittel": 1187, "achen": 1188, "\u0120abgeordne": 1189, "\u0120ma\u00c3\u0141nahmen": 1190, "nis": 1191, "\u0120parlaments": 1192, "iet": 1193, "\u0120present": 1194, "\u0120resol": 1195, "\u0120reform": 1196, "\u0120mittel": 1197, "\u0120mrs": 1198, "\u0120years": 1199, "\u0120entsche": 1200, "bes": 1201, "ploy": 1202, "\u0120sc": 1203, "\u0120lie": 1204, "\u0120prote": 1205, "\u0120order": 1206, "\u0120could": 1207, "ention": 1208, "hin": 1209, "ms": 1210, "\u0120bud": 1211, "\u0120vorschlag": 1212, "ph": 1213, "\u01204": 1214, "\u0120deshalb": 1215, "\u0120dra": 1216, "\u0120cann": 1217, "\u0120meas": 1218, "\u0120cannot": 1219, "\u0120bek": 1220, "\u0120fall": 1221, "use": 1222, "\u0120mir": 1223, "\u0120debate": 1224, "ile": 1225, "ving": 1226, "ope": 1227, "\u0120seit": 1228, "\u0120wichtig": 1229, "\u0120matter": 1230, "ull": 1231, "isl": 1232, "\u00c3\u00bchr": 1233, "\u01205": 1234, "gem": 1235, "\u0120may": 1236, "\u0120richtlinie": 1237, "ian": 1238, "\u0120effect": 1239, "rei": 1240, "\u0120meine": 1241, "\u0120darauf": 1242, "ward": 1243, "\u0120finan": 1244, "\u0120legisl": 1245, "\u0120unserer": 1246, "\u0120adop": 1247, "\u0120real": 1248, "vention": 1249, "\u0120against": 1250, "\u0120sollten": 1251, "enden": 1252, "\u0120daf\u00c3\u00bcr": 1253, "llung": 1254, "\u0120schw": 1255, "rimin": 1256, "\u0120teil": 1257, "bei": 1258, "kehr": 1259, "\u0120position": 1260, "fahren": 1261, "\u0120treat": 1262, "\u0120every": 1263, "gesch": 1264, "\u0120agreement": 1265, "\u0120hal": 1266, "\u0120umwelt": 1267, "ack": 1268, "\u0120appro": 1269, "\u0120incl": 1270, "\u0120well": 1271, "\u0120most": 1272, "kl": 1273, "\u0120aff": 1274, "\u0120pra": 1275, "lau": 1276, "\u00c3\u00a4tz": 1277, "\u0120two": 1278, "isp": 1279, "\u0120tr": 1280, "\u0120members": 1281, "\u0120view": 1282, "tens": 1283, "\u0120kollegen": 1284, "\u0120how": 1285, "kon": 1286, "\u0120indust": 1287, "hne": 1288, "\u0120your": 1289, "nahme": 1290, "\u0120letz": 1291, "\u0120sollte": 1292, "\u0120gu": 1293, "\u0120too": 1294, "\u0120then": 1295, "\u0120same": 1296, "\u0120beit": 1297, "\u0120last": 1298, "\u0120level": 1299, "cip": 1300, "eth": 1301, "\u0120ihrer": 1302, "\u0120state": 1303, "\u0120vert": 1304, "min": 1305, "\u0120today": 1306, "\u0120verein": 1307, "\u0120amendments": 1308, "\u0120kommiss": 1309, "ting": 1310, "\u0120alread": 1311, "\u0120already": 1312, "\u0120denen": 1313, "\u0120believe": 1314, "ough": 1315, "\u0120rahmen": 1316, "act": 1317, "\u0120fol": 1318, "\u0120cit": 1319, "\u0120ziel": 1320, "ppor": 1321, "\u0120good": 1322, "\u0120lo": 1323, "\u0120vote": 1324, "f\u00c3\u00a4": 1325, "\u0120immer": 1326, "\u0120aid": 1327, "\u0120begr": 1328, "\u0120princip": 1329, "\u0120allem": 1330, "\u0120add": 1331, "\u0120etw": 1332, "\u0120discuss": 1333, "\u0120nun": 1334, "\u0120course": 1335, "\u0120budget": 1336, "abl": 1337, "\u0120dazu": 1338, "ffent": 1339, "\u0120set": 1340, "\u00c3\u00a4\u00c3\u0141": 1341, "ves": 1342, "\u0120kommissar": 1343, "isse": 1344, "\u0120democ": 1345, "ict": 1346, "\u0120sagen": 1347, "\u0120ens": 1348, "\u0120vers": 1349, "\u0120spec": 1350, "dam": 1351, "ds": 1352, "\u0120nam": 1353, "\u0120notwend": 1354, "\u0120incre": 1355, "uer": 1356, "reg": 1357, "\u0120beisp": 1358, "tt": 1359, "\u0120leben": 1360, "\u0120had": 1361, "\u0120hel": 1362, "ischer": 1363, "\u0120scha": 1364, "\u0120programme": 1365, "cted": 1366, "\u0120high": 1367, "tro": 1368, "\u0120citiz": 1369, "\u0120vom": 1370, "\u0120own": 1371, "\u0120ele": 1372, "\u0120gener": 1373, "\u0120possible": 1374, "geben": 1375, "io": 1376, "utions": 1377, "\u0120disk": 1378, "\u0120b\u00c3\u00bcrger": 1379, "ru": 1380, "a\u00c3\u0141": 1381, "\u0120jetzt": 1382, "\u0120able": 1383, "lichkeit": 1384, "mar": 1385, "\u0120much": 1386, "\u0120meiner": 1387, "\u0120country": 1388, "\u0120einige": 1389, "\u0120legal": 1390, "ior": 1391, "ree": 1392, "ory": 1393, "\u0120bring": 1394, "\u0120car": 1395, "\u0120process": 1396, "rechte": 1397, "\u00c3\u00a4re": 1398, "\u0120qual": 1399, "\u0120ach": 1400, "\u0120still": 1401, "\u0120fut": 1402, "\u0120num": 1403, "urr": 1404, "stimmung": 1405, "\u0120wen": 1406, "isierung": 1407, "\u0120common": 1408, "\u0120why": 1409, "\u0120nat\u00c3\u00bcr": 1410, "ister": 1411, "\u0120fraktion": 1412, "\u0120wissen": 1413, "ondere": 1414, "satz": 1415, "\u0120einge": 1416, "\u0120politik": 1417, "\u0120case": 1418, "ri": 1419, "ene": 1420, "lage": 1421, "\u0120measures": 1422, "\u0120thro": 1423, "\u0120put": 1424, "\u0120invest": 1425, "cond": 1426, "\u0120daher": 1427, "\u0120person": 1428, "\u0120ausge": 1429, "\u0120att": 1430, "\u0120said": 1431, "okrat": 1432, "ently": 1433, "\u0120use": 1434, "\u0120implement": 1435, "\u0120hope": 1436, "licher": 1437, "\u0120aller": 1438, "erence": 1439, "\u0120fragen": 1440, "ritt": 1441, "\u0120bestimm": 1442, "ade": 1443, "ason": 1444, "\u00c3\u00b6s": 1445, "\u0120coop": 1446, "\u0120\u00c3\u00a4": 1447, "ited": 1448, "press": 1449, "\u0120object": 1450, "\u0120contin": 1451, "\u0120area": 1452, "\u0120beispiel": 1453, "\u0120w\u00c3\u00bcrde": 1454, "hil": 1455, "way": 1456, "\u0120his": 1457, "\u0120ris": 1458, "\u0120ask": 1459, "\u0120citizens": 1460, "punkt": 1461, "\u0120second": 1462, "\u01202000": 1463, "\u0120sim": 1464, "\u0120mor": 1465, "\u0120f\u00c3\u00bchr": 1466, "\u0120institution": 1467, "\u0120liber": 1468, "\u0120million": 1469, "\u0120ohne": 1470, "\u0120both": 1471, "\u0120taken": 1472, "\u0120financial": 1473, "\u00c3\u00bc\u00c3\u0141": 1474, "2000": 1475, "\u0120posit": 1476, "\u0120serv": 1477, "vers": 1478, "\u0120regional": 1479, "ieden": 1480, "\u0120wurden": 1481, "\u0120programm": 1482, "ful": 1483, "\u0120wollen": 1484, "halts": 1485, "\u0120world": 1486, "\u0120future": 1487, "\u0120est": 1488, "\u0120afr": 1489, "red": 1490, "setzung": 1491, "\u0120port": 1492, "llow": 1493, "erstatter": 1494, "\u0120som": 1495, "\u0120proced": 1496, "ample": 1497, "\u0120through": 1498, "\u0120reason": 1499, "\u0120tun": 1500, "stru": 1501, "gangen": 1502, "\u0120number": 1503, "les": 1504, "\u0120example": 1505, "\u0120nat\u00c3\u00bcrlich": 1506, "\u0120action": 1507, "\u0120med": 1508, "\u0120strateg": 1509, "\u0120interest": 1510, "\u0120bedeut": 1511, "teur": 1512, "\u0120zweit": 1513, "erg": 1514, "\u0120employ": 1515, "\u0120curr": 1516, "\u00c3\u00a4lt": 1517, "\u0120gut": 1518, "trib": 1519, "zie": 1520, "\u0120initiative": 1521, "\u00c3\u00b6l": 1522, "zus": 1523, "\u0120gest": 1524, "\u0120komm": 1525, "zeug": 1526, "\u0120schon": 1527, "\u0120agr": 1528, "omen": 1529, "wohl": 1530, "lu\u00c3\u0141": 1531, "\u0120fur": 1532, "\u0120au\u00c3\u0141er": 1533, "pporteur": 1534, "ser": 1535, "\u0120respect": 1536, "\u0120berichterstatter": 1537, "antwort": 1538, "\u0120inte": 1539, "kl\u00c3\u00a4r": 1540, "ability": 1541, "\u0120welt": 1542, "\u0120find": 1543, "\u0120invol": 1544, "richt": 1545, "\u0120debat": 1546, "genommen": 1547, "\u0120mil": 1548, "\u0120rapporteur": 1549, "ically": 1550, "r\u00c3\u00a4ge": 1551, "\u0120auth": 1552, "ices": 1553, "\u00c3\u00a4ng": 1554, "\u0120compet": 1555, "\u0120neg": 1556, "gest": 1557, "\u0120w\u00c3\u00a4hr": 1558, "\u0120repr": 1559, "tend": 1560, "heiten": 1561, "\u0120opin": 1562, "\u0120trans": 1563, "ail": 1564, "\u0120achie": 1565, "\u0120neuen": 1566, "\u0120problems": 1567, "\u0120char": 1568, "\u0120liberal": 1569, "\u0120areas": 1570, "\u0120k\u00c3\u00b6nn": 1571, "\u0120.": 1572, "\u0120gl": 1573, "\u0120sicherheit": 1574, "\u0120cooperation": 1575, "arm": 1576, "besondere": 1577, "ital": 1578, "\u0120insbesondere": 1579, "tellt": 1580, "\u0120demokrat": 1581, "\u0120resolution": 1582, "ffe": 1583, "\u01201999": 1584, "alth": 1585, "\u0120author": 1586, "politik": 1587, "it\u00c3\u00a4": 1588, "\u0120bal": 1589, "ential": 1590, "agt": 1591, "\u0120jahren": 1592, "\u0120\u00c3\u00b6ffent": 1593, "\u0120ensure": 1594, "\u0120necess": 1595, "\u0120amendment": 1596, "\u0120further": 1597, "\u0120given": 1598, "werb": 1599, "\u00c3\u00b6\u00c3\u0141": 1600, "\u0120government": 1601, "air": 1602, "\u0120ir": 1603, "jor": 1604, "\u0120inde": 1605, "zeich": 1606, "\u0120consum": 1607, "ifft": 1608, "\u0120w\u00c3\u00a4re": 1609, "\u0120place": 1610, "\u0120sm": 1611, "\u0120major": 1612, "reichen": 1613, "\u0120law": 1614, "ablish": 1615, "stellen": 1616, "\u0120energ": 1617, "ether": 1618, "\u0120zahl": 1619, "\u0120differ": 1620, "\u0120house": 1621, "\u0120andere": 1622, "\u0120ide": 1623, "\u0120represent": 1624, "\u0120entschlie\u00c3\u0141": 1625, "fass": 1626, "ount": 1627, "\u0120etwas": 1628, "unden": 1629, "\u0120kos": 1630, "\u0120einmal": 1631, "ierungs": 1632, "\u0120before": 1633, "\u0120long": 1634, "\u0120erst": 1635, "\u0120allen": 1636, "\u0120entscheid": 1637, "arge": 1638, "\u0120ausschu\u00c3\u0141": 1639, "\u0120klar": 1640, "\u0120means": 1641, "\u0120200": 1642, "strument": 1643, "uck": 1644, "chten": 1645, "\u0120unternehmen": 1646, "reit": 1647, "derung": 1648, "\u0120dar\u00c3\u00bcber": 1649, "\u0120redu": 1650, "immen": 1651, "\u0120allow": 1652, "\u0120without": 1653, "\u0120zusammenarbeit": 1654, "\u0120tur": 1655, "\u0120besch\u00c3\u00a4ft": 1656, "l\u00c3\u00a4nder": 1657, "\u0120let": 1658, "\u0120voll": 1659, "\u0120ak": 1660, "\u0120sign": 1661, "\u0120nor": 1662, "\u0120neue": 1663, "\u0120deut": 1664, "\u0120sec": 1665, "ktur": 1666, "ppen": 1667, "grund": 1668, "\u0120viele": 1669, "\u0120since": 1670, "ismus": 1671, "\u0120establish": 1672, "\u0120verantwort": 1673, "\u0120af": 1674, "\u0120vol": 1675, "\u01206": 1676, "\u0120rep": 1677, "\u0120ke": 1678, "\u0120verw": 1679, "\u0120equ": 1680, "urs": 1681, "\u0120full": 1682, "\u0120prior": 1683, "m\u00c3\u00b6": 1684, "unft": 1685, "\u0120erforder": 1686, "ium": 1687, "\u0120wett": 1688, "\u0120follow": 1689, "\u0120opinion": 1690, "\u0120machen": 1691, "\u0120particularly": 1692, "\u0120namen": 1693, "ale": 1694, "\u0120gef": 1695, "licht": 1696, "\u0120arbeits": 1697, "immt": 1698, "lossen": 1699, "falls": 1700, "\u0120koso": 1701, "\u0120thank": 1702, "\u0120includ": 1703, "mo": 1704, "\u0120ihren": 1705, "\u0120zun": 1706, "igten": 1707, "kunft": 1708, "\u0120zwar": 1709, "\u0120integr": 1710, "\u0120wettbe": 1711, "nisse": 1712, "uf": 1713, "\u0120bew": 1714, "\u0120bl": 1715, "\u0120seine": 1716, "\u0120protection": 1717, "je": 1718, "\u0120proble": 1719, "\u0120kom": 1720, "\u0120verbrauch": 1721, "\u0120wettbewerb": 1722, "\u00c3\u00bcb": 1723, "eng": 1724, "\u0120lang": 1725, "ret": 1726, "\u0120el": 1727, "ank": 1728, "\u0120nie": 1729, "\u0120contro": 1730, "usses": 1731, "\u0120zwei": 1732, "erenz": 1733, "cing": 1734, "\u0120stra": 1735, "\u0120women": 1736, "\u0120give": 1737, "\u0120einzel": 1738, "wirtschaft": 1739, "\u0120necessary": 1740, "\u0120vorge": 1741, "\u0120fran": 1742, "\u0120dav": 1743, "zip": 1744, "stand": 1745, "\u0120whether": 1746, "ragen": 1747, "\u0120regulation": 1748, "lungs": 1749, "\u0120rul": 1750, "ften": 1751, "ately": 1752, "\u00c3\u00b6lk": 1753, "\u0120anges": 1754, "stan": 1755, "\u0120health": 1756, "legt": 1757, "\u0120concerned": 1758, "\u0120haushalts": 1759, "\u0120basis": 1760, "\u0120m\u00c3\u00b6glichkeit": 1761, "\u0120betrifft": 1762, "\u0120sect": 1763, "\u0120kosovo": 1764, "ible": 1765, "\u0120worden": 1766, "\u0120lassen": 1767, "\u0120ja": 1768, "inge": 1769, "\u0120express": 1770, "\u0120fundament": 1771, "\u01208": 1772, "work": 1773, "\u0120vertre": 1774, "ktor": 1775, "\u0120meinung": 1776, "\u0120require": 1777, "\u0120extre": 1778, "\u0120impro": 1779, "\u0120different": 1780, "\u0120besonder": 1781, "annt": 1782, "\u0120portug": 1783, "ace": 1784, "\u0120gesam": 1785, "\u0120val": 1786, "schlie\u00c3\u0141": 1787, "\u0120issues": 1788, "par": 1789, "spro": 1790, "\u0120stellen": 1791, "hang": 1792, "\u0120schutz": 1793, "half": 1794, "ude": 1795, "\u0120wish": 1796, "\u0120terms": 1797, "inn": 1798, "f\u00c3\u00bchrt": 1799, "\u0120democrat": 1800, "\u0120behalf": 1801, "\u0120deal": 1802, "\u0120general": 1803, "dit": 1804, "itz": 1805, "\u0120decision": 1806, "vour": 1807, "\u0120serious": 1808, "\u0120principle": 1809, "ird": 1810, "sprechen": 1811, "merk": 1812, "\u0120pat": 1813, "\u0120%": 1814, "ates": 1815, "\u0120erkl\u00c3\u00a4r": 1816, "ellschaft": 1817, "sibility": 1818, "\u0120artik": 1819, "gemein": 1820, "\u0120dabei": 1821, "\u0120abgeordneten": 1822, "\u0120instrument": 1823, "\u0120subject": 1824, "\u0120post": 1825, "ys": 1826, "\u01207": 1827, "ichts": 1828, "\u0120del": 1829, "\u0120text": 1830, "gung": 1831, "ho": 1832, "weisen": 1833, "abil": 1834, "\u0120dien": 1835, "\u0120kommen": 1836, "ordin": 1837, "\u0120kontro": 1838, "druck": 1839, "\u0120rules": 1840, "ga": 1841, "\u0120gr\u00c3\u00b6\u00c3\u0141": 1842, "\u0120pr\u00c3\u00a4sidentin": 1843, "\u0120d\u00c3\u00bcr": 1844, "ehen": 1845, "\u0120proposals": 1846, "\u0120abstimmung": 1847, "\u0120frauen": 1848, "vious": 1849, "\u0120untersch": 1850, "entral": 1851, "\u0120eigen": 1852, "\u0120zie": 1853, "ught": 1854, "\u0120rates": 1855, "ginnen": 1856, "ahre": 1857, "\u0120zur\u00c3\u00bcck": 1858, "\u0120vorschl\u00c3\u00a4": 1859, "\u0120br": 1860, "\u0120ze": 1861, "\u0120regierung": 1862, "\u0120h\u00c3\u00b6": 1863, "\u0120accept": 1864, "spolitik": 1865, "stellung": 1866, "\u0120davon": 1867, "\u0120sor": 1868, "\u0120glau": 1869, "markt": 1870, "\u0120rest": 1871, "\u0120unterst\u00c3\u00bctzung": 1872, "\u0120erfol": 1873, "tr\u00c3\u00a4": 1874, "\u0120\u00c3\u00a4nderungsantr\u00c3\u00a4ge": 1875, "\u0120besteht": 1876, "man": 1877, "kes": 1878, "\u0120stehen": 1879, "\u0120soc": 1880, "\u0120n\u00c3\u00a4m": 1881, "lex": 1882, "\u0120product": 1883, "ante": 1884, "\u0120staaten": 1885, "\u0120fundamental": 1886, "\u0120n\u00c3\u00a4mlich": 1887, "isions": 1888, "undheit": 1889, "\u0120after": 1890, "\u0120rev": 1891, "ache": 1892, "\u0120defin": 1893, "fit": 1894, "ferenz": 1895, "\u00c3\u00bcnd": 1896, "\u0120zusammenhang": 1897, "\u0120kur": 1898, "\u0120madam": 1899, "\u0120bezug": 1900, "\u0120darf": 1901, "\u0120poin": 1902, "come": 1903, "\u0120geben": 1904, "\u0120look": 1905, "\u0120\u00c3\u00a4nderungsantrag": 1906, "\u0120f\u00c3\u00b6r": 1907, "\u0120fort": 1908, "\u0120verbess": 1909, "\u0120politischen": 1910, "\u0120struct": 1911, "\u0120zug": 1912, "selves": 1913, "\u0120abs": 1914, "\u0120proposed": 1915, "rif": 1916, "\u0120u": 1917, "\u0120artikel": 1918, "\u0120tats": 1919, "ided": 1920, "\u0120legislation": 1921, "ika": 1922, "\u0120\u00c3\u00a4u\u00c3\u0141": 1923, "rache": 1924, "\u0120lea": 1925, "etzen": 1926, "ock": 1927, "\u0120employment": 1928, "\u0120jahre": 1929, "\u0120thema": 1930, "199": 1931, "zept": 1932, "\u0120come": 1933, "sequ": 1934, "\u0120few": 1935, "\u0120wirklich": 1936, "\u0120harm": 1937, "\u0120clearly": 1938, "\u0120probleme": 1939, "\u0120bro": 1940, "\u0120hil": 1941, "ierten": 1942, "\u0120whole": 1943, "kten": 1944, "\u0120bess": 1945, "\u0120opport": 1946, "\u0120opportun": 1947, "raph": 1948, "\u0120quite": 1949, "\u0120menschenrechte": 1950, "\u0120difficult": 1951, "\u01209": 1952, "hol": 1953, "\u0120next": 1954, "f\u00c3\u00bchrung": 1955, "\u0120direct": 1956, "\u0120treaty": 1957, "\u0120cor": 1958, "agement": 1959, "\u0120gemeinsamen": 1960, "\u0120debatte": 1961, "\u0120bel": 1962, "\u00c3\u00bccksicht": 1963, "r\u00c3\u00a4n": 1964, "\u0120transport": 1965, "\u0120konk": 1966, "\u0120glob": 1967, "\u0120control": 1968, "uge": 1969, "ased": 1970, "\u0120priv": 1971, "ified": 1972, "\u0120verbraucher": 1973, "\u0120societ": 1974, "bed": 1975, "\u0120mention": 1976, "\u0120transpar": 1977, "\u0120letzten": 1978, "\u0120contrib": 1979, "\u0120artic": 1980, "\u0120ander": 1981, "\u0120bef": 1982, "\u0120l\u00c3\u00a4ndern": 1983, "\u0120specific": 1984, "riften": 1985, "\u0120jo": 1986, "\u0120seiner": 1987, "altung": 1988, "\u0120word": 1989, "\u0120sum": 1990, "\u0120cr": 1991, "liegen": 1992, "ende": 1993, "\u0120project": 1994, "\u0120verl": 1995, "\u0120umf": 1996, "ually": 1997, "\u0120regel": 1998, "\u0120punkt": 1999, "co": 2000, "ning": 2001, "\u0120meet": 2002, "gress": 2003, "\u0120commit": 2004, "\u0120favour": 2005, "\u0120je": 2006, "go": 2007, "\u0120sens": 2008, "\u0120fam": 2009, "\u0120frame": 2010, "\u0120back": 2011, "\u00c3\u00bcnft": 2012, "\u00c3\u00a4chst": 2013, "\u0120industry": 2014, "\u0120agricult": 2015, "\u0120\u00c3\u00bcb": 2016, "\u0120accord": 2017, "\u0120procedure": 2018, "ss": 2019, "\u0120bedeutung": 2020, "upt": 2021, "\u0120third": 2022, "ander": 2023, "ivil": 2024, "hm": 2025, "\u0120bezie": 2026, "\u0120wort": 2027, "\u0120crit": 2028, "als": 2029, "lei": 2030, "\u0120ber\u00c3\u00bccksicht": 2031, "01": 2032, "\u0120concl": 2033, "\u0120done": 2034, "\u0120akt": 2035, "racht": 2036, "\u0120shall": 2037, "\u0120pract": 2038, "cc": 2039, "\u0120hinsicht": 2040, "\u0120extrem": 2041, "1999": 2042, "leicht": 2043, "\u012019": 2044, "\u0120interess": 2045, "\u0120begr\u00c3\u00bc\u00c3\u0141": 2046, "ife": 2047, "\u0120bu": 2048, "\u0120vorgesch": 2049, "\u0120eng": 2050, "\u0120food": 2051, "\u0120technolog": 2052, "gaben": 2053, "\u0120framework": 2054, "\u0120statt": 2055, "\u0120adopted": 2056, "\u0120aw": 2057, "\u0120imm": 2058, "\u0120working": 2059, "\u0120cost": 2060, "\u0120gegen\u00c3\u00bcber": 2061, "\u0120colle": 2062, "\u0120resour": 2063, "aussch": 2064, "wards": 2065, "bl": 2066, "raft": 2067, "\u0120l\u00c3\u00b6s": 2068, "abe": 2069, "\u0120lebens": 2070, "ep": 2071, "\u0120ansicht": 2072, "glichen": 2073, "gleich": 2074, "\u0120rather": 2075, "\u0120global": 2076, "\u0120society": 2077, "\u0120cap": 2078, "\u0120united": 2079, "\u0120gesagt": 2080, "\u0120help": 2081, "\u0120ev": 2082, "\u0120call": 2083, "ilt": 2084, "\u0120result": 2085, "fet": 2086, "verkehr": 2087, "wendung": 2088, "fte": 2089, "\u0120tal": 2090, "\u0120brauch": 2091, "\u0120minister": 2092, "wirk": 2093, "\u0120erweit": 2094, "hungen": 2095, "\u0120going": 2096, "ichte": 2097, "\u0120account": 2098, "\u0120unterst\u00c3\u00bctzen": 2099, "\u0120institutions": 2100, "urop": 2101, "\u0120gar": 2102, "vorsch": 2103, "\u0120refer": 2104, "\u0120verschieden": 2105, "\u0120cre": 2106, "\u0120standard": 2107, "\u0120approach": 2108, "\u0120affair": 2109, "\u0120var": 2110, "\u0120kin": 2111, "prochen": 2112, "erien": 2113, "oti": 2114, "\u0120fisch": 2115, "\u0120verf\u00c3\u00bc": 2116, "\u0120internal": 2117, "\u0120trade": 2118, "iar": 2119, "\u0120verpf": 2120, "\u0120wei\u00c3\u0141": 2121, "\u0120during": 2122, "\u0120unseren": 2123, "\u0120environmental": 2124, "\u0120gent": 2125, "\u0120funds": 2126, "ily": 2127, "\u0120geh\u00c3\u00b6r": 2128, "\u0120organis": 2129, "lungen": 2130, "\u0120cl": 2131, "ively": 2132, "ething": 2133, "h\u00c3\u00a4ng": 2134, "reif": 2135, "\u0120read": 2136, "\u0120something": 2137, "\u0120regions": 2138, "\u0120gesetz": 2139, "\u0120finally": 2140, "\u0120guar": 2141, "\u0120wesent": 2142, "\u0120lim": 2143, "\u0120agree": 2144, "\u0120vorgeschlagen": 2145, "\u0120weise": 2146, "\u012015": 2147, "rieden": 2148, "\u0120article": 2149, "ines": 2150, "\u0120bar": 2151, "\u0120vi": 2152, "\u0120derzeit": 2153, "cially": 2154, "\u0120air": 2155, "\u0120beg": 2156, "\u0120offen": 2157, "\u0120show": 2158, "\u0120gew\u00c3\u00a4hr": 2159, "\u0120negoti": 2160, "fety": 2161, "\u0120guarante": 2162, "h\u00c3\u00a4lt": 2163, "atives": 2164, "recht": 2165, "\u0120underst": 2166, "\u0120allgemein": 2167, "\u0120afric": 2168, "\u0120h\u00c3\u00a4t": 2169, "\u0120fun": 2170, "\u00c3\u00a4mpf": 2171, "urity": 2172, "\u0120krit": 2173, "\u0120daran": 2174, "\u0120frei": 2175, "fach": 2176, "weit": 2177, "\u0120star": 2178, "\u0120tax": 2179, "ze\u00c3\u0141": 2180, "\u0120w\u00c3\u00a4hrend": 2181, "\u0120pow": 2182, "\u0120ans": 2183, "\u0120vertrag": 2184, "fassung": 2185, "\u0120once": 2186, "\u0120steht": 2187, "\u0120safety": 2188, "\u0120ess": 2189, "ways": 2190, "itt": 2191, "angen": 2192, "\u0120st\u00c3\u00a4r": 2193, "sche": 2194, "\u0120subs": 2195, "\u0120k\u00c3\u00b6nnte": 2196, "\u0120zun\u00c3\u00a4chst": 2197, "vement": 2198, "ists": 2199, "\u0120mind": 2200, "\u0120lad": 2201, "\u0120zukunft": 2202, "ropri": 2203, "\u0120speak": 2204, "\u0120kolleginnen": 2205, "\u0120welche": 2206, "\u0120dial": 2207, "onds": 2208, "ents": 2209, "\u0120def": 2210, "\u0120espe": 2211, "\u0120role": 2212, "\u0120plan": 2213, "\u0120affairs": 2214, "bau": 2215, "ler": 2216, "lemen": 2217, "\u0120main": 2218, "\u0120adv": 2219, "\u0120better": 2220, "\u0120freed": 2221, "\u0120especially": 2222, "elf": 2223, "\u0120darin": 2224, "\u0120tages": 2225, "\u0120down": 2226, "\u0120access": 2227, "\u0120addition": 2228, "\u0120glaube": 2229, "\u0120kind": 2230, "bere": 2231, "ma\u00c3\u0141": 2232, "\u0120simp": 2233, "\u0120each": 2234, "\u0120nutz": 2235, "\u0120schwier": 2236, "\u0120f\u00c3\u00bchren": 2237, "reffen": 2238, "iesen": 2239, "dert": 2240, "ared": 2241, "teilung": 2242, "ence": 2243, "\u0120eur": 2244, "\u0120exist": 2245, "\u0120heraus": 2246, "\u0120party": 2247, "\u0120resources": 2248, "\u0120freedom": 2249, "ension": 2250, "\u0120competition": 2251, "\u0120agend": 2252, "\u0120cult": 2253, "\u0120deren": 2254, "\u0120progress": 2255, "fort": 2256, "ty": 2257, "\u0120ano": 2258, "ierte": 2259, "\u0120yet": 2260, "staat": 2261, "\u0120empf": 2262, "\u0120another": 2263, "uft": 2264, "so": 2265, "\u0120eth": 2266, "\u0120lab": 2267, "\u0120essential": 2268, "dings": 2269, "\u0120wider": 2270, "\u0120rechte": 2271, "\u0120kurz": 2272, "\u0120ben": 2273, "icher": 2274, "\u0120suc": 2275, "stitution": 2276, "\u0120services": 2277, "\u0120harmon": 2278, "gement": 2279, "\u0120inner": 2280, "\u012012": 2281, "ditions": 2282, "ingungen": 2283, "\u0120verordnung": 2284, "\u0120sollen": 2285, "ivid": 2286, "gel": 2287, "hip": 2288, "\u0120begin": 2289, "\u0120towards": 2290, "eder": 2291, "\u0120used": 2292, "ogen": 2293, "ising": 2294, "att": 2295, "ably": 2296, "sprache": 2297, "\u0120darum": 2298, "\u0120itself": 2299, "\u0120responsibility": 2300, "\u0120security": 2301, "\u0120agenda": 2302, "zw": 2303, "\u0120kle": 2304, "gehen": 2305, "\u0120oper": 2306, "\u0120mot": 2307, "\u0120pay": 2308, "\u0120points": 2309, "\u0120gentlemen": 2310, "ases": 2311, "\u0120compan": 2312, "ried": 2313, "\u0120allerdings": 2314, "\u0120programmes": 2315, "fer": 2316, "tem": 2317, "\u0120sei": 2318, "\u0120markt": 2319, "\u0120struktur": 2320, "\u0120positive": 2321, "\u0120extremely": 2322, "\u0120ladies": 2323, "\u0120f\u00c3\u00a4": 2324, "\u0120gerade": 2325, "\u0120mom": 2326, "\u0120pun": 2327, "ulation": 2328, "\u0120ergeb": 2329, "\u0120sowohl": 2330, "\u0120waren": 2331, "\u0120provide": 2332, "\u0120ausschusses": 2333, "\u0120liegt": 2334, "aking": 2335, "\u0120wohl": 2336, "v\u00c3\u00b6lk": 2337, "\u0120start": 2338, "stehen": 2339, "\u0120d\u00c3\u00bcrfen": 2340, "gar": 2341, "pend": 2342, "\u0120nichts": 2343, "\u0120individ": 2344, "\u0120sozialen": 2345, "\u00c3\u00a4mpfung": 2346, "w\u00c3\u00a4r": 2347, "\u0120tot": 2348, "\u0120ru": 2349, "\u0120job": 2350, "ikan": 2351, "\u0120appropri": 2352, "\u0120small": 2353, "com": 2354, "atul": 2355, "linien": 2356, "roffen": 2357, "gether": 2358, "\u0120av": 2359, "ont": 2360, "iving": 2361, "\u0120besonders": 2362, "\u0120vorschl\u00c3\u00a4ge": 2363, "\u0120hervor": 2364, "\u0120det": 2365, "\u0120ban": 2366, "\u0120non": 2367, "\u0120ann": 2368, "sto": 2369, "ify": 2370, "gesehen": 2371, "\u0120policies": 2372, "\u0120schlie\u00c3\u0141": 2373, "legenheit": 2374, "\u0120lage": 2375, "\u0120opp": 2376, "\u0120ern": 2377, "ierungen": 2378, "\u0120seem": 2379, "\u0120step": 2380, "\u0120dialog": 2381, "verst\u00c3\u00a4nd": 2382, "\u0120gesundheit": 2383, "\u0120gro\u00c3\u0141en": 2384, "\u0120sector": 2385, "\u0120dort": 2386, "\u0120behand": 2387, "\u0120europas": 2388, "\u0120grow": 2389, "ises": 2390, "igkeiten": 2391, "\u0120three": 2392, "\u0120less": 2393, "\u0120hoffe": 2394, "\u0120regionen": 2395, "\u0120nationalen": 2396, "\u0120equal": 2397, "reten": 2398, "f\u00c3\u00a4h": 2399, "\u0120indeed": 2400, "igent": 2401, "weg": 2402, "\u0120effort": 2403, "oney": 2404, "\u0120subsid": 2405, "\u0120drei": 2406, "rodu": 2407, "\u0120kl": 2408, "gew": 2409, "gestellt": 2410, "\u0120rolle": 2411, "\u0120wahr": 2412, "usion": 2413, "\u0120moment": 2414, "\u0120concerns": 2415, "\u0120verfahren": 2416, "\u0120standpunkt": 2417, "\u0120bestehen": 2418, "\u0120folgen": 2419, "\u0120notwendig": 2420, "\u0120entschlie\u00c3\u0141ung": 2421, "\u0120einigen": 2422, "\u0120life": 2423, "\u0120aut": 2424, "ativen": 2425, "\u0120vergangen": 2426, "\u0120lead": 2427, "ktionen": 2428, "\u0120questions": 2429, "ban": 2430, "rigen": 2431, "raum": 2432, "\u0120weg": 2433, "ctions": 2434, "\u0120ersten": 2435, "ennt": 2436, "\u0120continue": 2437, "sweise": 2438, "istr": 2439, "\u0120kult": 2440, "\u0120really": 2441, "\u0120suff": 2442, "\u0120resear": 2443, "\u0120genau": 2444, "\u0120understand": 2445, "\u0120tagesordnung": 2446, "\u0120research": 2447, "\u0120000": 2448, "though": 2449, "\u0120welcome": 2450, "\u0120although": 2451, "imes": 2452, "\u01201998": 2453, "ziel": 2454, "unde": 2455, "\u0120various": 2456, "\u0120event": 2457, "\u0120vielleicht": 2458, "\u0120economy": 2459, "\u0120did": 2460, "rech": 2461, "\u0120aussprache": 2462, "\u0120prec": 2463, "\u0120ebene": 2464, "di": 2465, "ehmen": 2466, "\u0120forward": 2467, "\u0120inn": 2468, "\u0120conditions": 2469, "\u0120importance": 2470, "\u0120charter": 2471, "\u0120money": 2472, "\u0120least": 2473, "\u0120absol": 2474, "res": 2475, "\u0120werde": 2476, "\u0120fehl": 2477, "\u0120au\u00c3\u0141erdem": 2478, "\u0120akzept": 2479, "iod": 2480, "\u0120water": 2481, "\u0120bus": 2482, "\u0120creat": 2483, "\u0120versuch": 2484, "per": 2485, "icial": 2486, "\u0120ende": 2487, "\u0120erw\u00c3\u00a4": 2488, "ov": 2489, "\u0120aim": 2490, "\u0120verhand": 2491, "\u0120never": 2492, "\u0120comple": 2493, "\u0120voraus": 2494, "\u0120-,": 2495, "blick": 2496, "\u0120vot": 2497, "\u0120together": 2498, "ller": 2499, "\u0120activ": 2500, "it\u00c3\u00a4ten": 2501, "\u012010": 2502, "cl": 2503, "\u0120fore": 2504, "elle": 2505, "\u0120making": 2506, "\u0120open": 2507, "\u0120vielen": 2508, "\u0120hilfe": 2509, "\u0120enlar": 2510, "arta": 2511, "komm": 2512, "\u0120bene": 2513, "\u0120bev\u00c3\u00b6lk": 2514, "\u0120large": 2515, "\u0120needs": 2516, "\u0120interests": 2517, "dent": 2518, "\u0120loc": 2519, "\u0120r\u00c3\u00bcck": 2520, "\u0120prom": 2521, "\u0120parte": 2522, "\u0120expl": 2523, "spect": 2524, "\u0120solche": 2525, "\u0120period": 2526, "\u0120innerhalb": 2527, "iation": 2528, "\u0120convention": 2529, "f\u00c3\u00bchren": 2530, "icient": 2531, "\u0120san": 2532, "\u0120aufge": 2533, "\u0120presiden": 2534, "\u0120introdu": 2535, "\u0120organisation": 2536, "\u0120prot": 2537, "\u0120demand": 2538, "\u0120gesellschaft": 2539, "\u0120feel": 2540, "w\u00c3\u00a4rt": 2541, "\u0120tro": 2542, "\u0120t\u00c3\u00bcr": 2543, "schutz": 2544, "\u0120always": 2545, "ged": 2546, "such": 2547, "z\u00c3\u00bc": 2548, "schaften": 2549, "\u0120prevent": 2550, "\u0120sitz": 2551, "\u0120entwicklungs": 2552, "\u0120beispielsweise": 2553, "\u0120erg": 2554, "\u0120gr\u00c3\u00bcn": 2555, "\u0120politische": 2556, "esen": 2557, "\u0120occ": 2558, "\u00c3\u00a4hl": 2559, "\u0120regierungs": 2560, "\u012020": 2561, "\u0120kinder": 2562, "\u0120pass": 2563, "\u0120pap": 2564, "\u0120kommt": 2565, "\u0120involved": 2566, "\u0120verantwortung": 2567, "dition": 2568, "\u0120schne": 2569, "\u0120peace": 2570, "\u0120presidency": 2571, "\u0120brit": 2572, "\u0120lis": 2573, "\u0120umsetzung": 2574, "\u0120amer": 2575, "\u0120meines": 2576, "\u0120l\u00c3\u00b6sung": 2577, "\u0120eigent": 2578, "\u0120stabil": 2579, "dien": 2580, "\u00c3\u00a4d": 2581, "\u0120applic": 2582, "gabe": 2583, "\u0120ph": 2584, "\u0120entsprechen": 2585, "\u0120conference": 2586, "\u0120halte": 2587, "\u0120entscheidung": 2588, "weis": 2589, "\u0120grenz": 2590, "\u0120adopt": 2591, "old": 2592, "\u0120proje": 2593, "\u0120become": 2594, "\u0120groups": 2595, "\u0120binnen": 2596, "\u0120remain": 2597, "\u0120danken": 2598, "\u0120ty": 2599, "\u0120mean": 2600, "\u0120austr": 2601, "\u0120having": 2602, "\u0120press": 2603, "\u0120schwer": 2604, "\u0120achieve": 2605, "thing": 2606, "\u0120alles": 2607, "\u0120solid": 2608, "\u0120including": 2609, "hung": 2610, "\u0120short": 2611, "\u0120bringen": 2612, "\u0120authorities": 2613, "\u0120deutlich": 2614, "iness": 2615, "\u0120beteil": 2616, "\u0120gro\u00c3\u0141e": 2617, "konferenz": 2618, "\u0120products": 2619, "ication": 2620, "\u0120based": 2621, "\u0120relations": 2622, "ildung": 2623, "\u0120schaffen": 2624, "\u0120kosten": 2625, "\u0120certainly": 2626, "\u0120objective": 2627, "\u0120consumer": 2628, "\u0120einzelnen": 2629, "\u0120\u00c3\u00bcbrigen": 2630, "\u0120drit": 2631, "\u0120gra": 2632, "text": 2633, "\u0120systems": 2634, "to": 2635, "leit": 2636, "\u0120beim": 2637, "\u0120internet": 2638, "\u0120ihrem": 2639, "llig": 2640, "ffung": 2641, "\u012011": 2642, "\u0120handelt": 2643, "\u0120month": 2644, "\u0120draft": 2645, "\u0120st\u00c3\u00a4rk": 2646, "ath": 2647, "\u0120mult": 2648, "\u0120ged": 2649, "\u0120jeder": 2650, "\u0120wettbewerbs": 2651, "\u0120\u00c3\u00a4u\u00c3\u0141erst": 2652, "\u0120brauchen": 2653, "bereich": 2654, "\u0120individual": 2655, "s\u00c3\u00a4tz": 2656, "\u0120aufgrund": 2657, "\u0120aware": 2658, "\u0120gilt": 2659, "asing": 2660, "\u0120led": 2661, "\u0120free": 2662, "\u0120erweiterung": 2663, "\u0120f\u00c3\u00bcn": 2664, "ildr": 2665, "\u0120\u00c3\u00bcberein": 2666, "idence": 2667, "sterreich": 2668, "\u0120institutionen": 2669, "\u0120rele": 2670, "\u0120current": 2671, "por": 2672, "wert": 2673, "\u0120mod": 2674, "\u0120fight": 2675, "\u0120gere": 2676, "\u0120aspect": 2677, "aps": 2678, "\u0120gebie": 2679, "\u0120internationalen": 2680, "\u0120erfolg": 2681, "\u0120sw": 2682, "\u0120rece": 2683, "\u0120erach": 2684, "verfahren": 2685, "\u0120supp": 2686, "\u0120admin": 2687, "\u0120ebenfalls": 2688, "\u0120entscheiden": 2689, "\u0120risk": 2690, "\u0120ple": 2691, "\u0120n\u00c3\u00a4ch": 2692, "\u0120\u00c3\u00b6sterreich": 2693, "\u0120stud": 2694, "\u0120erne": 2695, "\u0120aspe": 2696, "\u0120ausdruck": 2697, "ield": 2698, "\u0120millionen": 2699, "\u0120tour": 2700, "\u0120comb": 2701, "\u0120recog": 2702, "\u0120gemeinsame": 2703, "frage": 2704, "\u0120vertra": 2705, "\u0120majority": 2706, "\u0120success": 2707, "\u0120anal": 2708, "urf": 2709, "\u0120ital": 2710, "mals": 2711, "\u0120increase": 2712, "h\u00c3\u00b6": 2713, "\u0120erhalten": 2714, "\u0120doc": 2715, "zeitig": 2716, "\u0120milit": 2717, "l\u00c3\u00a4ndern": 2718, "\u0120forsch": 2719, "\u0120gegeben": 2720, "\u0120jahres": 2721, "i\u00c3\u0141t": 2722, "\u0120following": 2723, "ildren": 2724, "ency": 2725, "\u0120wahl": 2726, "rechts": 2727, "\u0120exce": 2728, "\u0120statement": 2729, "\u0120objectives": 2730, "\u0120,": 2731, "schein": 2732, "\u0120change": 2733, "spr\u00c3\u00a4sident": 2734, "\u0120document": 2735, "\u0120wach": 2736, "\u0120management": 2737, "\u0120greater": 2738, "erk": 2739, "\u0120sy": 2740, "\u0120unab": 2741, "eless": 2742, "\u0120dienst": 2743, "\u0120erste": 2744, "ograph": 2745, "\u0120dessen": 2746, "\u0120ear": 2747, "\u0120fal": 2748, "\u0120often": 2749, "\u0120deleg": 2750, "setzen": 2751, "\u0120leader": 2752, "m\u00c3\u00bc": 2753, "\u0120flex": 2754, "ente": 2755, "\u0120ident": 2756, "\u0120eindeut": 2757, "\u0120erreichen": 2758, "\u0120taking": 2759, "\u0120gebiet": 2760, "\u0120unterschied": 2761, "\u0120hinsichtlich": 2762, "\u0120while": 2763, "andid": 2764, "\u0120vorliegen": 2765, "\u0120nehmen": 2766, "\u0120proper": 2767, "\u0120plen": 2768, "ness": 2769, "\u0120dring": 2770, "\u0120zust\u00c3\u00a4nd": 2771, "\u0120stellung": 2772, "\u0120wirtschafts": 2773, "\u0120landwirtschaft": 2774, "\u0120halten": 2775, "\u0120words": 2776, "\u0120sing": 2777, "\u0120upon": 2778, "\u0120democratic": 2779, "\u0120famil": 2780, "\u0120enlargement": 2781, "yl": 2782, "itor": 2783, "eits": 2784, "\u0120hinaus": 2785, "hnt": 2786, "\u0120opportunity": 2787, "\u0120reach": 2788, "ters": 2789, "\u0120special": 2790, "ina": 2791, "\u0120macht": 2792, "\u0120erinn": 2793, "last": 2794, "\u0120children": 2795, "\u0120administr": 2796, "\u0120wa": 2797, "\u0120vorgesehen": 2798, "dress": 2799, "\u0120binnenmarkt": 2800, "\u0120clos": 2801, "\u0120gleichzeitig": 2802, "\u0120attention": 2803, "zogen": 2804, "\u0120table": 2805, "\u0120waste": 2806, "\u0120chan": 2807, "\u0120weitere": 2808, "\u0120abgeordnete": 2809, "\u0120joint": 2810, "fonds": 2811, "gang": 2812, "hing": 2813, "letz": 2814, "\u0120avail": 2815, "zahl": 2816, "\u0120orig": 2817, "\u0120integration": 2818, "\u0120pop": 2819, "row": 2820, "\u0120prodi": 2821, "\u0120firstly": 2822, "\u0120weniger": 2823, "hilfen": 2824, "ission": 2825, "\u0120gegenw\u00c3\u00a4rt": 2826, "\u0120service": 2827, "orm": 2828, "\u0120gre": 2829, "\u0120create": 2830, "\u0120standards": 2831, "reifen": 2832, "\u0120viol": 2833, "\u0120complete": 2834, "\u0120verpflicht": 2835, "\u0120origin": 2836, "\u0120weiterhin": 2837, "\u0120dank": 2838, "\u0120bekannt": 2839, "\u0120bek\u00c3\u00a4mpfung": 2840, "\u0120business": 2841, "akt": 2842, "\u0120happen": 2843, "\u0120ret": 2844, "\u0120denke": 2845, "\u0120projects": 2846, "chan": 2847, "ifiz": 2848, "\u0120grundlage": 2849, "\u0120request": 2850, "\u0120structural": 2851, "\u0120tas": 2852, "\u0120verkehr": 2853, "\u0120sure": 2854, "\u0120lack": 2855, "\u0120angesichts": 2856, "\u0120eigenen": 2857, "\u0120solidar": 2858, "alen": 2859, "\u0120erm\u00c3\u00b6": 2860, "\u012013": 2861, "\u0120gemacht": 2862, "\u0120court": 2863, "\u0120ebenso": 2864, "\u0120erforderlich": 2865, "\u0120simply": 2866, "\u0120force": 2867, "\u0120doub": 2868, "\u0120address": 2869, "\u0120decisions": 2870, "\u0120mentioned": 2871, "\u0120congr": 2872, "\u0120arg": 2873, "mitt": 2874, "hilfe": 2875, "urch": 2876, "racy": 2877, "\u0120regarding": 2878, "\u0120w\u00c3\u00bcrden": 2879, "\u0120effective": 2880, "\u0120besser": 2881, "\u0120klein": 2882, "bour": 2883, "its": 2884, "thers": 2885, "\u0120beiden": 2886, "\u0120africa": 2887, "\u0120companies": 2888, "\u0120congratul": 2889, "\u0120lon": 2890, "einander": 2891, "\u0120quality": 2892, "\u0120komp": 2893, "\u0120sprechen": 2894, "m\u00c3\u00a4\u00c3\u0141": 2895, "isches": 2896, "\u0120che": 2897, "heb": 2898, "ean": 2899, "\u0120try": 2900, "\u0120pr\u00c3\u00bc": 2901, "\u0120disp": 2902, "\u0120spiel": 2903, "\u0120staat": 2904, "\u0120zweif": 2905, "\u0120local": 2906, "\u0120erachtens": 2907, "\u0120vier": 2908, "ationen": 2909, "\u0120justice": 2910, "\u0120actually": 2911, "\u0120matters": 2912, "\u0120morgen": 2913, "iver": 2914, "anden": 2915, "leist": 2916, "\u0120ver\u00c3\u00a4nder": 2917, "\u0120wee": 2918, "\u0120auffassung": 2919, "\u0120obl": 2920, "\u0120gemeinschafts": 2921, "\u0120diskuss": 2922, "a\u00c3\u0141t": 2923, "\u0120ziele": 2924, "\u0120single": 2925, "\u0120cases": 2926, "\u0120v\u00c3\u00b6": 2927, "\u0120kat": 2928, "\u0120hatte": 2929, "\u0120f\u00c3\u00bcnf": 2930, "reicht": 2931, "\u0120verst": 2932, "\u0120wichtige": 2933, "\u0120regierungskonferenz": 2934, "less": 2935, "rang": 2936, "\u0120four": 2937, "ingen": 2938, "gesetzt": 2939, "\u0120play": 2940, "\u0120benefit": 2941, "iter": 2942, "\u0120bill": 2943, "\u0120opt": 2944, "\u0120hon": 2945, "\u0120einfach": 2946, "\u0120charta": 2947, "ipf": 2948, "\u0120hinblick": 2949, "riminal": 2950, "here": 2951, "of": 2952, "\u0120sl": 2953, "unter": 2954, "\u0120bil": 2955, "\u0120civil": 2956, "\u0120abschlie\u00c3\u0141": 2957, "\u0120finden": 2958, "\u0120arbeitsp": 2959, "\u0120oppos": 2960, "oll": 2961, "erseits": 2962, "\u0120implementation": 2963, "\u0120according": 2964, "bereit": 2965, "\u0120summit": 2966, "\u0120colleag": 2967, "ausschu\u00c3\u0141": 2968, "\u0120past": 2969, "gegen": 2970, "\u0120verschiedenen": 2971, "haps": 2972, "\u0120auswirk": 2973, "\u0120perhaps": 2974, "sterdam": 2975, "net": 2976, "\u0120might": 2977, "\u0120beh\u00c3\u00b6r": 2978, "\u0120tele": 2979, "\u0120previous": 2980, "\u0120contain": 2981, "\u0120others": 2982, "\u0120amsterdam": 2983, "\u0120jeden": 2984, "\u0120recogn": 2985, "\u0120oblig": 2986, "bon": 2987, "\u0120sogar": 2988, "\u0120streng": 2989, "\u0120zus\u00c3\u00a4tz": 2990, "\u0120keinen": 2991, "\u0120vereinigten": 2992, "\u0120asyl": 2993, "\u0120leider": 2994, "\u0120stellt": 2995, "\u0120gesch\u00c3\u00a4ft": 2996, "\u0120frieden": 2997, "ross": 2998, "stimmen": 2999, "ommend": 3000, "\u0120schlu\u00c3\u0141": 3001, "ppe": 3002, "anger": 3003, "pr\u00c3\u00bc": 3004, "\u0120recommend": 3005, "\u0120au\u00c3\u0141en": 3006, "it\u00c3\u00a4ts": 3007, "\u0120tats\u00c3\u00a4ch": 3008, "ron": 3009, "\u0120rass": 3010, "\u0120vors": 3011, "ification": 3012, "\u0120available": 3013, "\u0120anwendung": 3014, "ingt": 3015, "\u0120kam": 3016, "\u0120\u00c3\u00bcberw": 3017, "\u0120she": 3018, "\u0120herren": 3019, "dr\u00c3\u00bcck": 3020, "\u0120legislative": 3021, "\u0120beitrag": 3022, "ator": 3023, "\u0120bor": 3024, "\u0120bem\u00c3\u00bc": 3025, "\u0120jud": 3026, "\u0120energy": 3027, "\u0120interesse": 3028, "\u0120diskussion": 3029, "ages": 3030, "gern": 3031, "\u0120ext": 3032, "\u0120apply": 3033, "\u0120poll": 3034, "\u0120fortsch": 3035, "\u0120mi\u00c3\u0141": 3036, "utet": 3037, "\u0120secondly": 3038, "\u0120besch\u00c3\u00a4ftigung": 3039, "\u0120angenommen": 3040, "annten": 3041, "\u0120grunds\u00c3\u00a4tz": 3042, "\u0120natur": 3043, "\u0120increasing": 3044, "\u0120power": 3045, "\u0120unabh\u00c3\u00a4ng": 3046, "neh": 3047, "\u0120wenig": 3048, "\u0120gef\u00c3\u00a4hr": 3049, "mor": 3050, "utes": 3051, "\u0120abkommen": 3052, "\u0120meinen": 3053, "fordert": 3054, "\u0120discrimin": 3055, "\u0120wirksam": 3056, "\u00c3\u00a4ren": 3057, "\u0120mehrheit": 3058, "teilen": 3059, "haft": 3060, "\u0120auswirkungen": 3061, "enten": 3062, "\u0120verfol": 3063, "\u0120sug": 3064, "fragen": 3065, "\u0120t\u00c3\u00a4t": 3066, "\u0120things": 3067, "\u0120fis": 3068, "\u0120inst": 3069, "\u0120care": 3070, "alled": 3071, "\u0120assist": 3072, "\u0120bisher": 3073, "02": 3074, "trag": 3075, "\u0120s\u00c3\u00bc": 3076, "\u0120sicht": 3077, "\u0120seinen": 3078, "\u0120prep": 3079, "\u0120wirtschaftlichen": 3080, "ehr": 3081, "\u0120wasser": 3082, "ocol": 3083, "\u0120geld": 3084, "\u0120responsible": 3085, "\u0120schaffung": 3086, "iellen": 3087, "\u0120hist": 3088, "\u0120consequ": 3089, "astrop": 3090, "\u0120governments": 3091, "ining": 3092, "\u0120bef\u00c3\u00bcr": 3093, "\u0120south": 3094, "imum": 3095, "ived": 3096, "\u0120agreements": 3097, "\u0120negotiations": 3098, "\u0120guarantee": 3099, "ahn": 3100, "\u0120guid": 3101, "\u0120k\u00c3\u00bcnft": 3102, "\u0120vern": 3103, "\u0120exam": 3104, "\u0120chall": 3105, "\u0120schnell": 3106, "\u0120informationen": 3107, "haltung": 3108, "\u0120fischere": 3109, "\u0120appropriate": 3110, "ekt": 3111, "mut": 3112, "ichen": 3113, "\u0120pa": 3114, "\u0120hei\u00c3\u0141t": 3115, "\u0120ago": 3116, "\u0120regulations": 3117, "\u0120\u00c3\u00b6ffentlichen": 3118, "\u0120red": 3119, "\u0120hoch": 3120, "\u0120h\u00c3\u00a4tte": 3121, "verst\u00c3\u00a4ndlich": 3122, "\u0120gehen": 3123, "\u0120coh": 3124, "\u0120leit": 3125, "\u0120schul": 3126, "\u0120schritt": 3127, "\u0120answer": 3128, "ix": 3129, "\u0120central": 3130, "ides": 3131, "\u0120concerning": 3132, "\u0120protect": 3133, "\u0120intend": 3134, "\u0120traff": 3135, "\u0120prakt": 3136, "\u0120principles": 3137, "\u0120fully": 3138, "\u0120v\u00c3\u00b6llig": 3139, "hend": 3140, "jen": 3141, "leis": 3142, "\u0120cover": 3143, "\u0120vereinbar": 3144, "\u0120democracy": 3145, "\u0120bev\u00c3\u00b6lkerung": 3146, "\u0120pot": 3147, "stum": 3148, "stant": 3149, "\u0120rei": 3150, "\u0120interessen": 3151, "\u0120farm": 3152, "\u0120diskrimin": 3153, "\u0120fish": 3154, "\u0120ve": 3155, "entw": 3156, "\u0120doing": 3157, "\u0120hinter": 3158, "\u0120soziale": 3159, "\u0120demokratie": 3160, "unehmen": 3161, "\u0120aufmerk": 3162, "\u0120sehen": 3163, "\u012014": 3164, "ritte": 3165, "stances": 3166, "\u0120aufmerksam": 3167, "\u0120meth": 3168, "round": 3169, "\u0120erf\u00c3\u00bc": 3170, "\u0120context": 3171, "\u0120enc": 3172, "\u0120steuer": 3173, "\u0120conflic": 3174, "most": 3175, "\u0120gesch\u00c3\u00a4fts": 3176, "bur": 3177, "\u0120dim": 3178, "\u0120net": 3179, "\u0120gute": 3180, "que": 3181, "\u0120stress": 3182, "\u0120technical": 3183, "spruch": 3184, "rete": 3185, "\u0120unt": 3186, "tellen": 3187, "\u00c3\u00b6t": 3188, "\u0120item": 3189, "\u0120coordin": 3190, "\u0120themselves": 3191, "\u0120keep": 3192, "\u0120uhr": 3193, "\u0120efforts": 3194, "zen": 3195, "\u0120nothing": 3196, "\u0120obvious": 3197, "\u0120voted": 3198, "\u012050": 3199, "over": 3200, "ants": 3201, "mehr": 3202, "\u0120among": 3203, "\u0120communication": 3204, "\u0120growth": 3205, "\u0120einzu": 3206, "ceed": 3207, "\u0120ihm": 3208, "\u0120particip": 3209, "\u0120recent": 3210, "\u0120zweitens": 3211, "nehmer": 3212, "uppen": 3213, "iges": 3214, "\u0120lin": 3215, "amt": 3216, "\u0120day": 3217, "\u0120erzeug": 3218, "\u0120comes": 3219, "\u0120ourselves": 3220, "\u0120parties": 3221, "self": 3222, "\u0120wissenschaft": 3223, "\u0120fern": 3224, "\u0120ig": 3225, "ession": 3226, "\u0120enter": 3227, "\u0120signific": 3228, "\u0120funktion": 3229, "fortun": 3230, "bring": 3231, "\u0120tomor": 3232, "\u0120enthalten": 3233, "\u0120strong": 3234, "\u0120longer": 3235, "\u0120tomorrow": 3236, "fung": 3237, "oten": 3238, "\u0120rail": 3239, "\u0120modern": 3240, "\u0120bedingungen": 3241, "\u0120k\u00c3\u00b6nnten": 3242, "\u0120geh\u00c3\u00b6rt": 3243, "\u0120empfe": 3244, "\u0120schlie\u00c3\u0141lich": 3245, "aged": 3246, "\u0120damen": 3247, "\u0120sinn": 3248, "\u0120draw": 3249, "zunehmen": 3250, "ritts": 3251, "\u0120berichts": 3252, "\u0120betra": 3253, "\u0120frem": 3254, "\u0120h\u00c3\u00b6ch": 3255, "vorschriften": 3256, "\u0120n\u00c3\u00a4chsten": 3257, "\u0120sur": 3258, "\u0120gree": 3259, "\u0120unfortun": 3260, "\u0120gestellt": 3261, "finden": 3262, "\u0120strategy": 3263, "\u0120balk": 3264, "\u0120agricultural": 3265, "ners": 3266, "denken": 3267, "\u0120fair": 3268, "\u0120months": 3269, "\u0120challen": 3270, "ichtet": 3271, "\u0120anw": 3272, "\u0120stim": 3273, "\u0120fr\u00c3\u00bc": 3274, "\u0120discussion": 3275, "\u0120kultur": 3276, "\u0120abschlie\u00c3\u0141end": 3277, "jenigen": 3278, "ined": 3279, "\u0120pur": 3280, "iken": 3281, "\u0120monitor": 3282, "\u0120prinzip": 3283, "reiben": 3284, "ugen": 3285, "\u0120dist": 3286, "\u0120caus": 3287, "\u0120contra": 3288, "standen": 3289, "\u0120paper": 3290, "\u0120mal": 3291, "uring": 3292, "\u0120einbe": 3293, "\u0120span": 3294, "\u0120emph": 3295, "\u0120found": 3296, "\u012030": 3297, "\u0120official": 3298, "\u0120bre": 3299, "\u0120mater": 3300, "\u0120verte": 3301, "\u0120ausf\u00c3\u00bchr": 3302, "\u0120rac": 3303, "\u0120experien": 3304, "\u0120antwort": 3305, "\u0120reasons": 3306, "\u0120idea": 3307, "\u0120sorgen": 3308, "\u0120ethn": 3309, "\u0120ernst": 3310, "\u0120ec": 3311, "\u0120pal": 3312, "lied": 3313, "\u0120enough": 3314, "\u0120amb": 3315, "\u0120solution": 3316, "\u0120kontrolle": 3317, "\u0120f\u00c3\u00b6rderung": 3318, "ko": 3319, "\u0120sag": 3320, "issab": 3321, "ims": 3322, "\u00c3\u00bcsse": 3323, "\u01202001": 3324, "\u0120seems": 3325, "\u0120reihe": 3326, "issabon": 3327, "\u0120oft": 3328, "kei": 3329, "\u0120obser": 3330, "worten": 3331, "\u0120koh": 3332, "\u0120budgetary": 3333, "\u0120volks": 3334, "\u0120trotz": 3335, "\u0120lisbon": 3336, "vant": 3337, "\u0120wes": 3338, "\u0120lissabon": 3339, "\u0120verg": 3340, "term": 3341, "\u0120rad": 3342, "\u0120arbeiten": 3343, "\u0120indem": 3344, "\u0120antrag": 3345, "\u0120everyone": 3346, "\u0120diskut": 3347, "\u0120consumers": 3348, "leiben": 3349, "\u0120foreign": 3350, "\u0120due": 3351, "\u0120danger": 3352, "itive": 3353, "\u0120currently": 3354, "\u0120flexib": 3355, "\u0120discrimination": 3356, "\u0120fisher": 3357, "ckt": 3358, "zentr": 3359, "atis": 3360, "\u0120bod": 3361, "\u0120undert": 3362, "frist": 3363, "best": 3364, "\u00c3\u0141en": 3365, "\u0120litt": 3366, "\u0120luft": 3367, "mental": 3368, "\u0120humanit": 3369, "\u0120unterst\u00c3\u00bctzt": 3370, "\u0120kommissarin": 3371, "onstr": 3372, "key": 3373, "\u0120reports": 3374, "\u0120weiteren": 3375, "teilt": 3376, "\u0120absolute": 3377, "\u0120little": 3378, "\u0120bse": 3379, "\u0120bitte": 3380, "\u0120tob": 3381, "llent": 3382, "\u0120erreicht": 3383, "verb": 3384, "\u0120schl": 3385, "\u0120yes": 3386, "\u0120stelle": 3387, "voll": 3388, "ledge": 3389, "zustellen": 3390, "govern": 3391, "\u0120verteid": 3392, "fre": 3393, "\u0120aktion": 3394, "\u0120element": 3395, "\u0120bede": 3396, "\u0120grie": 3397, "\u00c3\u00a4ss": 3398, "\u0120developing": 3399, "\u0120tradition": 3400, "\u0120findet": 3401, "\u0120innov": 3402, "\u0120empfehl": 3403, "ches": 3404, "\u0120pr\u00c3\u00a4": 3405, "\u0120disast": 3406, "rieg": 3407, "l\u00c3\u00a4tz": 3408, "\u0120verhin": 3409, "\u0120resul": 3410, "\u0120obwohl": 3411, "\u0120festge": 3412, "\u0120berichterstatterin": 3413, "\u0120nutzen": 3414, "\u0120guidel": 3415, "))": 3416, "\u0120isra": 3417, "\u0120stimmen": 3418, "\u0120seen": 3419, "\u0120raum": 3420, "\u0120turkey": 3421, "\u0120excellent": 3422, "eld": 3423, "\u0120gefahr": 3424, "\u0120jun": 3425, "\u0120relation": 3426, "\u0120sitzung": 3427, "\u0120stability": 3428, "\u0120makes": 3429, "laf": 3430, "gramm": 3431, "\u0120erstens": 3432, "\u0120agriculture": 3433, "icherheit": 3434, "\u0120t\u00c3\u00bcrkei": 3435, "\u0120gipf": 3436, "ics": 3437, "\u0120demonstr": 3438, "\u0120key": 3439, "hof": 3440, "\u0120arbeitspl\u00c3\u00a4tz": 3441, "governmental": 3442, "cher": 3443, "\u0120pfl": 3444, "\u0120wichtigen": 3445, "tr\u00c3\u00a4ge": 3446, "\u0120activities": 3447, "\u0120delegation": 3448, "\u0120tabled": 3449, "ove": 3450, "organ": 3451, "\u0120nu": 3452, "irc": 3453, "\u0120excl": 3454, "\u0120beihilfen": 3455, "lands": 3456, "\u0120koordin": 3457, "\u0120selbstverst\u00c3\u00a4ndlich": 3458, "\u0120belg": 3459, "\u0120eigentlich": 3460, "\u0120fremden": 3461, "\u0120circ": 3462, "\u0120regierungen": 3463, "ully": 3464, "\u0120beziehungen": 3465, "\u0120subsidiar": 3466, ".)": 3467, "\u0120w\u00c3\u00bcn": 3468, "\u0120vict": 3469, "\u0120link": 3470, "\u0120verk": 3471, "\u0120mechan": 3472, "\u0120betroffen": 3473, "forderungen": 3474, "\u0120build": 3475, "\u0120total": 3476, "\u0120verhandlungen": 3477, "\u0120honour": 3478, "\u0120bedeutet": 3479, "app": 3480, "europ": 3481, "system": 3482, "uese": 3483, "ench": 3484, "inzip": 3485, "\u0120ira": 3486, "\u0120jan": 3487, "\u0120sever": 3488, "\u0120expect": 3489, "ubl": 3490, "\u0120mensch": 3491, "\u0120production": 3492, "\u0120actions": 3493, "\u0120portuguese": 3494, "\u0120jobs": 3495, "\u0120argument": 3496, "\u0120guidelines": 3497, "cen": 3498, "son": 3499, "\u0120derart": 3500, "\u0120sex": 3501, "\u0120share": 3502, "\u0120respe": 3503, "\u0120langu": 3504, "..": 3505, "gliche": 3506, "iffen": 3507, "ativ": 3508, "ators": 3509, "\u0120rein": 3510, "\u0120proze\u00c3\u0141": 3511, "\u0120erh\u00c3\u00b6": 3512, "\u0120vorschriften": 3513, "\u0120provided": 3514, "\u0120encour": 3515, "fully": 3516, "onen": 3517, "\u0120him": 3518, "\u0120kap": 3519, "amb": 3520, "\u0120aufgabe": 3521, "\u0120left": 3522, "sehen": 3523, "\u0120meinem": 3524, "\u0120konn": 3525, "\u0120kont": 3526, "\u0120pr\u00c3\u00a4sidentschaft": 3527, "mitteln": 3528, "\u0120include": 3529, "m\u00c3\u00b6glich": 3530, "\u0120vertreten": 3531, "\u0120ber\u00c3\u00bccksichtigt": 3532, "\u0120beh\u00c3\u00b6rden": 3533, "\u0120until": 3534, "\u0120emphas": 3535, "w\u00c3\u00bcr": 3536, "ennen": 3537, "ennung": 3538, "\u0120ground": 3539, "\u0120staats": 3540, "\u0120notwendigkeit": 3541, "burg": 3542, "cr": 3543, "hens": 3544, "uppe": 3545, "\u0120field": 3546, "igungs": 3547, "\u0120einheit": 3548, "\u0120rural": 3549, "\u0120schein": 3550, "\u0120grundrechte": 3551, "\u0120basic": 3552, "mitglie": 3553, "\u0120bewu\u00c3\u0141": 3554, "\u0120costs": 3555, "atory": 3556, "\u0120bur": 3557, "\u0120m\u00c3\u00bc\u00c3\u0141": 3558, "\u0120promo": 3559, "\u0120dok": 3560, "\u0120quick": 3561, "\u0120spra": 3562, "\u0120mob": 3563, "\u0120portugies": 3564, "\u0120patent": 3565, "\u0120strength": 3566, "ift": 3567, "\u0120bit": 3568, "iglich": 3569, "\u0120unserem": 3570, "f\u00c3\u00a4higkeit": 3571, "\u0120dokument": 3572, "\u0120head": 3573, "\u0120partners": 3574, "\u0120franz": 3575, "\u0120voting": 3576, "\u0120lediglich": 3577, "\u0120israel": 3578, "\u0120beant": 3579, "\u0120rede": 3580, "\u0120kommissions": 3581, "ott": 3582, "\u0120ratspr\u00c3\u00a4sident": 3583, "\u0120french": 3584, "\u0120beitritts": 3585, "\u0120punkte": 3586, "\u0120gr\u00c3\u00bcnden": 3587, "ote": 3588, "\u0120mer": 3589, "\u0120cent": 3590, "arten": 3591, "\u0120line": 3592, "\u00c3\u00a4nde": 3593, "\u0120maint": 3594, "\u0120wert": 3595, "laub": 3596, "\u0120einges": 3597, "ziehen": 3598, "\u0120verst\u00c3\u00a4r": 3599, "\u0120maintain": 3600, "l\u00c3\u00bcck": 3601, "off": 3602, "\u0120serb": 3603, "\u0120corre": 3604, "hnen": 3605, "part": 3606, "iew": 3607, "\u0120verz": 3608, "\u0120final": 3609, "\u012025": 3610, "\u0120congratulate": 3611, "\u0120s\u00c3\u00bcd": 3612, "\u0120h\u00c3\u00a4": 3613, "\u0120vis": 3614, "\u00c3\u00bccht": 3615, "duc": 3616, "\u0120richtig": 3617, "\u0120minor": 3618, "\u0120carried": 3619, "\u0120personal": 3620, "org": 3621, "\u0120entire": 3622, "\u0120comprom": 3623, "\u0120gewalt": 3624, "\u0120formul": 3625, "kontro": 3626, "\u0120bestimmte": 3627, "\u0120energie": 3628, "\u0120gesamten": 3629, "\u0120eindeutig": 3630, "af": 3631, "anted": 3632, "arf": 3633, "\u0120anim": 3634, "ichten": 3635, "ders": 3636, "absch": 3637, "\u00c3\u00bcssel": 3638, "\u0120konfl": 3639, "\u0120agrar": 3640, "\u0120population": 3641, "\u0120brie": 3642, "ither": 3643, "weil": 3644, "\u0120warum": 3645, "\u0120legit": 3646, "\u0120workers": 3647, "\u0120rule": 3648, "\u0120either": 3649, "\u0120russ": 3650, "ustain": 3651, "stell": 3652, "\u0120untersuch": 3653, "\u0120solchen": 3654, "baren": 3655, "\u0120true": 3656, "\u0120unfortunately": 3657, "\u0120acht": 3658, "\u0120olaf": 3659, "\u0120hinge": 3660, "\u0120anerk": 3661, "\u0120kor": 3662, "irm": 3663, "\u0120desp": 3664, "\u0120needed": 3665, "\u0120verbind": 3666, "ysteme": 3667, "\u0120zweite": 3668, "\u0120changes": 3669, "ivers": 3670, "\u0120kennt": 3671, "\u0120sektor": 3672, "\u0120agreed": 3673, "\u0120meeting": 3674, "\u0120aktiv": 3675, "\u0120forschung": 3676, "\u0120l\u00c3\u00a4nd": 3677, "\u0120minder": 3678, "\u0120etwa": 3679, "\u0120elect": 3680, "\u0120improve": 3681, "\u0120verbesserung": 3682, "\u0120prepared": 3683, "\u0120bzw": 3684, "\u0120nr": 3685, "\u0120kr": 3686, "employ": 3687, "liches": 3688, "\u00c3\u00bcrz": 3689, "\u0120absch": 3690, "\u0120intervention": 3691, "\u0120hohen": 3692, "\u01201997": 3693, "treten": 3694, "\u0120territ": 3695, "\u0120procedures": 3696, "richtung": 3697, "atisf": 3698, "\u0120janu": 3699, "ize": 3700, "iled": 3701, "pid": 3702, "side": 3703, "\u0120m\u00c3\u00a4r": 3704, "\u0120eas": 3705, "\u0120beha": 3706, "mitted": 3707, "\u0120gelten": 3708, "\u0120bereichen": 3709, "\u0120significant": 3710, "\u0120educ": 3711, "\u0120angeb": 3712, "\u0120bemerk": 3713, "\u0120erheb": 3714, "\u0120mitteilung": 3715, "\u0120neu": 3716, "\u0120seinem": 3717, "\u0120poor": 3718, "\u0120gene": 3719, "\u0120organisations": 3720, "\u0120purp": 3721, "aut": 3722, "nissen": 3723, "cken": 3724, "\u0120richtung": 3725, "\u0120produkt": 3726, "\u0120criter": 3727, "\u0120garant": 3728, "\u0120dest": 3729, "\u0120fail": 3730, "\u0120raised": 3731, "\u00c3\u00a4rm": 3732, "f\u00c3\u00a4lle": 3733, "\u0120throughout": 3734, "\u0120umfassen": 3735, "ma\u00c3\u0141nahmen": 3736, "\u0120austria": 3737, "\u0120analys": 3738, "affen": 3739, "ians": 3740, "\u0120nahr": 3741, "\u0120ang": 3742, "\u0120low": 3743, "grenz": 3744, "\u0120ihn": 3745, "\u0120assess": 3746, "\u0120m\u00c3\u00b6glichkeiten": 3747, "\u0120type": 3748, "\u0120tats\u00c3\u00a4chlich": 3749, "bildung": 3750, "\u0120dr": 3751, "\u0120disch": 3752, "\u0120sustain": 3753, "\u0120unver": 3754, "\u0120repe": 3755, "\u0120einsch": 3756, "\u0120wegen": 3757, "line": 3758, "\u0120asked": 3759, "\u0120values": 3760, "\u0120commitment": 3761, "bare": 3762, "\u0120themen": 3763, "\u0120five": 3764, "\u0120ras": 3765, "\u0120ju": 3766, "la\u00c3\u0141": 3767, "\u0120mitglieder": 3768, "\u0120effiz": 3769, "legenheiten": 3770, "\u0120sense": 3771, "w\u00c3\u00bcn": 3772, "\u0120opf": 3773, "\u00c3\u00a4cht": 3774, "\u0120profit": 3775, "\u0120conne": 3776, "cep": 3777, "\u0120\u00c3\u00bcberzeug": 3778, "\u0120durchge": 3779, "\u0120unseres": 3780, "\u0120nature": 3781, "\u0120assoc": 3782, "\u0120industr": 3783, "\u0120eingehen": 3784, "\u0120definition": 3785, "\u0120several": 3786, "durch": 3787, "wiesen": 3788, "\u0120extend": 3789, "\u0120hatten": 3790, "frastru": 3791, "\u0120carry": 3792, "\u0120\u00c3\u00b6ffentlichkeit": 3793, "\u0120vorgelegt": 3794, "\u0120motion": 3795, "\u0120vergangenen": 3796, "\u0120partei": 3797, "\u0120aspects": 3798, "\u0120material": 3799, "\u0120results": 3800, "fert": 3801, "\u0120clar": 3802, "\u0120bevor": 3803, "\u0120term": 3804, "\u00c3\u00a4\u00c3\u0141t": 3805, "\u0120expressed": 3806, "\u0120wachstum": 3807, "03": 3808, "gesellschaft": 3809, "\u0120chance": 3810, "\u0120impos": 3811, "\u0120provisions": 3812, "\u0120refuge": 3813, "\u0120industrie": 3814, "\u0120established": 3815, "kommens": 3816, "\u0120americ": 3817, "\u0120franz\u00c3\u00b6s": 3818, "\u0120thing": 3819, "\u00c3\u00bcl": 3820, "\u00c3\u00a4nger": 3821, "\u0120angelegenheit": 3822, "\u0120straf": 3823, "\u0120erkl\u00c3\u00a4rung": 3824, "\u0120restr": 3825, "\u0120contribution": 3826, "\u0120legitim": 3827, "by": 3828, "\u0120setzen": 3829, "\u0120rea": 3830, "\u0120\u00c3\u00a4nderung": 3831, "\u0120getan": 3832, "\u0120scient": 3833, "\u0120gerecht": 3834, "bringen": 3835, "\u0120nahrungs": 3836, "\u0120tar": 3837, "\u0120sache": 3838, "ana": 3839, "\u0120criminal": 3840, "\u0120nations": 3841, "ications": 3842, "\u0120soon": 3843, "istischen": 3844, "\u0120fast": 3845, "\u0120partner": 3846, "\u0120informations": 3847, "legung": 3848, "\u0120verf\u00c3\u00bcgung": 3849, "\u0120suggest": 3850, "\u0120dat": 3851, "\u0120infl": 3852, "\u0120beh": 3853, "igr": 3854, "\u0120erarbeit": 3855, "\u0120vorbereit": 3856, "oph": 3857, "folge": 3858, "\u0120entscheidungen": 3859, "\u0120required": 3860, "\u0120freiheit": 3861, "ellen": 3862, "\u0120van": 3863, "leben": 3864, "\u0120sto": 3865, "prinzip": 3866, "plan": 3867, "\u0120pers\u00c3\u00b6n": 3868, "\u0120achieved": 3869, "leistet": 3870, "\u0120sagte": 3871, "\u0120interreg": 3872, "\u0120hinweisen": 3873, "\u0120grundlegen": 3874, "\u0120tragen": 3875, "gebung": 3876, "\u0120existing": 3877, "\u0120ergebnis": 3878, "\u0120detail": 3879, "alten": 3880, "ality": 3881, "\u0120unbed": 3882, "\u0120erster": 3883, "\u0120gef\u00c3\u00bchrt": 3884, "\u0120unterb": 3885, "\u0120wobei": 3886, "\u0120confidence": 3887, "\u0120turn": 3888, "\u0120tatsache": 3889, "\u0120dut": 3890, "\u0120werte": 3891, "\u0120export": 3892, "\u0120investment": 3893, "\u0120allgemeinen": 3894, "clear": 3895, "\u0120pen": 3896, "\u0120altern": 3897, "assung": 3898, "\u0120decided": 3899, "\u0120gro\u00c3\u0141er": 3900, "pendent": 3901, "\u0120dialogue": 3902, "\u0120stellungnahme": 3903, "\u0120bleiben": 3904, "\u0120east": 3905, "\u0120lange": 3906, "\u0120forder": 3907, "reiche": 3908, "\u0120broad": 3909, "\u0120komprom": 3910, "\u0120week": 3911, "more": 3912, "pre": 3913, "\u0120test": 3914, "under": 3915, "\u0120bank": 3916, "\u0120mut": 3917, "\u0120cla": 3918, "\u0120candid": 3919, "\u0120unemploy": 3920, "\u0120stage": 3921, "ielle": 3922, "\u0120cho": 3923, "\u0120heut": 3924, "\u0120fl\u00c3\u00bccht": 3925, "\u0120presented": 3926, "bab": 3927, "ps": 3928, "ieben": 3929, "eden": 3930, "ett": 3931, "\u0120above": 3932, "\u0120chocol": 3933, "angt": 3934, "\u0120betreffen": 3935, "\u0120funding": 3936, "\u0120assistance": 3937, "\u0120potential": 3938, "\u0120infrastru": 3939, "igte": 3940, "\u0120prof": 3941, "\u0120ord": 3942, "zulegen": 3943, "\u0120gem\u00c3\u00a4\u00c3\u0141": 3944, "\u0120beschlu\u00c3\u0141": 3945, "r\u00c3\u00a4gen": 3946, "\u0120bedau": 3947, "\u0120balance": 3948, "\u0120limit": 3949, "\u0120task": 3950, "\u0120despite": 3951, "\u0120old": 3952, "\u0120angem": 3953, "\u0120ille": 3954, "\u0120note": 3955, "\u0120constru": 3956, "verty": 3957, "oper": 3958, "stellt": 3959, "\u0120intergovernmental": 3960, "\u0120poverty": 3961, "okol": 3962, "\u0120zeitpunkt": 3963, "\u0120terr": 3964, "\u0120remind": 3965, "\u0120seite": 3966, "\u0120zugang": 3967, "\u0120culture": 3968, "\u0120illeg": 3969, "\u0120verabsch": 3970, "\u0120whose": 3971, "iding": 3972, "\u0120erziel": 3973, "ritten": 3974, "\u0120continu": 3975, "zeichne": 3976, "\u0120vertreter": 3977, "\u0120delay": 3978, "\u0120talk": 3979, "atic": 3980, "orn": 3981, "\u0120kraft": 3982, "edi": 3983, "gency": 3984, "\u012018": 3985, "\u0120facil": 3986, "\u012021": 3987, "heben": 3988, "\u0120menschenrechts": 3989, "\u0120saying": 3990, "\u0120markets": 3991, "\u0120urg": 3992, "\u0120vertrags": 3993, "\u0120tourism": 3994, "\u0120doubt": 3995, "\u0120rassismus": 3996, "\u0120stimme": 3997, "\u0120foc": 3998, "\u0120v\u00c3\u00b6lk": 3999, "essour": 4000, "\u0120hear": 4001, "aufen": 4002, "\u0120haushalt": 4003, "\u0120b\u00c3\u00bcrgern": 4004, "\u0120kontroll": 4005, "\u0120review": 4006, "\u0120private": 4007, "\u0120quickly": 4008, "\u0120chocolate": 4009, "buch": 4010, "lassen": 4011, "\u0120tat": 4012, "arte": 4013, "\u0120anfrage": 4014, "\u0120light": 4015, "\u0120l\u00c3\u00a4\u00c3\u0141t": 4016, "\u0120conv": 4017, "oss": 4018, "setzungen": 4019, "\u0120personen": 4020, "\u0120nieder": 4021, "\u0120strengthen": 4022, "bod": 4023, "\u0120tim": 4024, "ested": 4025, "\u0120fordern": 4026, "\u0120china": 4027, "\u0120konzentr": 4028, "\u0120levels": 4029, "\u0120furthermore": 4030, "\u0120umfang": 4031, "\u0120talking": 4032, "\u0120fl\u00c3\u00bcchtl": 4033, "ikt": 4034, "uted": 4035, "erv": 4036, "\u0120offer": 4037, "\u0120finanziellen": 4038, "\u0120held": 4039, "\u0120strategie": 4040, "\u0120practice": 4041, "\u0120begr\u00c3\u00bc\u00c3\u0141en": 4042, "\u0120capital": 4043, "\u0120vergessen": 4044, "\u00c3\u00bclt": 4045, "\u0120bear": 4046, "\u0120top": 4047, "\u0120zentral": 4048, "\u0120zivil": 4049, "\u0120mitgliedstaat": 4050, "\u0120beschr\u00c3\u00a4n": 4051, "\u0120implemented": 4052, "\u0120criteria": 4053, "agen": 4054, "\u0120trag": 4055, "\u0120satisf": 4056, "\u0120verur": 4057, "\u0120gelegenheit": 4058, "abkommen": 4059, "\u0120keiner": 4060, "\u0120dennoch": 4061, "\u0120offens": 4062, "\u0120regelung": 4063, "\u0120sym": 4064, "cies": 4065, "nommen": 4066, "\u0120rom": 4067, "\u0120wto": 4068, "\u0120inste": 4069, "\u0120dadurch": 4070, "\u0120genommen": 4071, "\u0120urban": 4072, "\u0120labour": 4073, "\u0120pleased": 4074, "\u0120compromise": 4075, "\u0120instead": 4076, "afr": 4077, "bt": 4078, "pfen": 4079, "ences": 4080, "\u0120mess": 4081, "\u0120white": 4082, "\u0120except": 4083, "formen": 4084, "\u0120incor": 4085, "iveness": 4086, "\u0120german": 4087, "\u0120affect": 4088, "\u0120specif": 4089, "\u0120begr\u00c3\u00bc\u00c3\u0141e": 4090, "\u0120suffer": 4091, "\u0120promote": 4092, "\u0120brief": 4093, "\u0120ech": 4094, "\u0120hard": 4095, "ume": 4096, "\u0120regeln": 4097, "agraph": 4098, "\u0120status": 4099, "\u0120tell": 4100, "\u0120jedem": 4101, "\u0120rechtsvorschriften": 4102, "geschlossen": 4103, "\u0120reading": 4104, "\u0120dimension": 4105, "\u0120racism": 4106, "\u0120fisheries": 4107, "):": 4108, "\u0120bie": 4109, "\u0120ansatz": 4110, "\u0120aufgenommen": 4111, "\u0120\u00c3\u00bcberpr\u00c3\u00bc": 4112, "\u0120move": 4113, "\u0120road": 4114, "\u0120beschlossen": 4115, "\u0120allein": 4116, "\u0120zweck": 4117, "\u0120folgt": 4118, "\u0120bestimmten": 4119, "\u0120angesprochen": 4120, "lastung": 4121, "\u0120completely": 4122, "\u0120histor": 4123, "ec": 4124, "iere": 4125, "ison": 4126, "\u0120home": 4127, "\u0120nos": 4128, "\u0120schem": 4129, "gesamt": 4130, "inki": 4131, "handel": 4132, "\u0120knowledge": 4133, "elsinki": 4134, "\u0120flug": 4135, "besch": 4136, "\u0120bestimmungen": 4137, "\u0120demokratischen": 4138, "\u0120entschlie\u00c3\u0141ungsant": 4139, "\u0120priority": 4140, "ufig": 4141, "\u0120transparency": 4142, "\u0120lebensmittel": 4143, "\u0120vertrauen": 4144, "\u0120correct": 4145, "erc": 4146, "\u0120though": 4147, "\u0120helsinki": 4148, "\u0120les": 4149, "\u0120erfahr": 4150, "\u0120deter": 4151, "the": 4152, "peten": 4153, "\u0120verbunden": 4154, "\u0120sitting": 4155, "\u0120gerichts": 4156, "\u0120liegen": 4157, "\u0120irgend": 4158, "\u0120included": 4159, "\u0120erm\u00c3\u00b6glichen": 4160, "\u0120discharge": 4161, "fern": 4162, "iop": 4163, "\u0120pension": 4164, "osla": 4165, "\u0120schokol": 4166, "sprech": 4167, "\u0120meisten": 4168, "ugosla": 4169, "\u0120young": 4170, "\u0120insgesamt": 4171, "\u0120elekt": 4172, "\u0120focus": 4173, "\u0120dritt": 4174, "\u0120sen": 4175, "\u0120einf\u00c3\u00bchrung": 4176, "wegen": 4177, "nehm": 4178, "istic": 4179, "\u0120usa": 4180, "gerungen": 4181, "\u0120angelegenheiten": 4182, "\u0120danke": 4183, "\u0120seiten": 4184, "\u0120promot": 4185, "w\u00c3\u00bcrd": 4186, "lies": 4187, "uff": 4188, "ieht": 4189, "\u0120cru": 4190, "\u0120rech": 4191, "\u0120list": 4192, "griffen": 4193, "\u0120kons": 4194, "haben": 4195, "\u0120sinne": 4196, "\u0120else": 4197, "\u0120immedi": 4198, "dienst": 4199, "\u0120relevant": 4200, "dict": 4201, "\u0120times": 4202, "leibt": 4203, "\u0120recon": 4204, "\u0120stop": 4205, "\u0120child": 4206, "pr\u00c3\u00a4": 4207, "\u0120safe": 4208, "\u0120hinzu": 4209, "losigkeit": 4210, "\u012040": 4211, "\u0120highl": 4212, "\u0120zweiten": 4213, "\u0120frank": 4214, "\u0120honourable": 4215, "\u0120cause": 4216, "\u0120univers": 4217, "\u0120zul": 4218, "\u0120proceed": 4219, "\u0120erk": 4220, "\u0120absatz": 4221, "indust": 4222, "\u0120attem": 4223, "\u0120rapid": 4224, "pril": 4225, "\u0120wirtschaftliche": 4226, "\u0120everything": 4227, "\u0120kommun": 4228, "\u0120katastrop": 4229, "\u0120colleagues": 4230, "ehrte": 4231, "\u0120bewu\u00c3\u0141t": 4232, "\u0120angemessen": 4233, "\u0120tab": 4234, "\u0120sus": 4235, "\u0120absicht": 4236, "\u0120europ\u00c3\u00a4ischer": 4237, "\u0120prepar": 4238, "\u0120refle": 4239, "\u0120representatives": 4240, "\u0120method": 4241, "\u0120conflict": 4242, "\u0120absolutely": 4243, "bahn": 4244, "\u0120dinge": 4245, "\u0120fig": 4246, "\u0120krieg": 4247, "\u0120anders": 4248, "\u0120lu": 4249, "\u0120verletz": 4250, "\u0120effekt": 4251, "\u0120produc": 4252, "\u0120reference": 4253, "\u0120treaties": 4254, "\u0120requirements": 4255, "\u0120sufficient": 4256, "\u0120april": 4257, "\u0120inhalt": 4258, "\u0120hold": 4259, "\u00c3\u00b6sen": 4260, "itionen": 4261, "\u0120applied": 4262, "\u0120handels": 4263, "\u0120authority": 4264, "ikanischen": 4265, "\u0120education": 4266, "comm": 4267, "isely": 4268, "\u0120cut": 4269, "\u0120gesprochen": 4270, "\u0120provision": 4271, "zeichnet": 4272, "\u0120verwaltung": 4273, "\u0120erinnern": 4274, "\u0120pollution": 4275, "\u0120victims": 4276, "babwe": 4277, "innen": 4278, "\u0120avo": 4279, "ond": 4280, "ieb": 4281, "arian": 4282, "\u0120nationen": 4283, "\u0120happ": 4284, "ending": 4285, "spe": 4286, "\u0120arbeitnehmer": 4287, "\u0120richtlinien": 4288, "legten": 4289, "\u0120approved": 4290, "\u0120normal": 4291, "\u0120akzeptieren": 4292, "\u0120versuchen": 4293, "\u0120application": 4294, "\u0120haltung": 4295, "\u0120nah": 4296, "\u0120log": 4297, "\u0120st\u00c3\u00a4nd": 4298, "\u0120extern": 4299, "\u0120distrib": 4300, "\u0120consideration": 4301, "\u0120farmers": 4302, "\u0120koh\u00c3\u00a4r": 4303, "\u0120nuclear": 4304, "essourcen": 4305, "\u0120specifically": 4306, "av": 4307, "isiert": 4308, "\u0120mass": 4309, "\u0120run": 4310, "iko": 4311, "\u0120fraud": 4312, "\u0120ihres": 4313, "\u0120impact": 4314, "\u0120regards": 4315, "\u0120namely": 4316, "\u0120transparenz": 4317, "\u0120behind": 4318, "yn": 4319, "\u0120x": 4320, "anced": 4321, "\u0120einw": 4322, "theless": 4323, "\u0120armut": 4324, "\u0120content": 4325, "\u0120indic": 4326, "\u0120gleichen": 4327, "\u0120wiederauf": 4328, "\u0120endlich": 4329, "\u0120considered": 4330, "minister": 4331, "\u0120vollst\u00c3\u00a4nd": 4332, "\u0120value": 4333, "\u0120nevertheless": 4334, "\u0120kampf": 4335, "sicherheit": 4336, "\u0120sk": 4337, "stre": 4338, "\u0120accep": 4339, "\u0120liberalisierung": 4340, "\u0120h\u00c3\u00a4tten": 4341, "\u0120dienstleist": 4342, "dr\u00c3\u00bccklich": 4343, "\u0120unbedingt": 4344, "industrie": 4345, "kung": 4346, "\u0120daten": 4347, "anken": 4348, "\u0120verst\u00c3\u00a4nd": 4349, "\u0120rate": 4350, "\u0120paragraph": 4351, "\u0120leisten": 4352, "\u0120schiff": 4353, "ured": 4354, "\u0120durchaus": 4355, "\u0120handeln": 4356, "\u0120response": 4357, "\u0120critic": 4358, "\u0120projekte": 4359, "\u0120tobac": 4360, "organisation": 4361, "\u0120mann": 4362, "\u0120ine": 4363, "\u0120une": 4364, "\u0120diejenigen": 4365, "orth": 4366, "\u0120dez": 4367, "\u0120max": 4368, "\u0120appear": 4369, "ighted": 4370, "\u0120spezie": 4371, "\u0120jedes": 4372, "\u0120best\u00c3\u00a4t": 4373, "\u0120staff": 4374, "\u0120expla": 4375, "\u0120opportunities": 4376, "\u0120begl\u00c3\u00bcck": 4377, "\u0120military": 4378, "\u0120data": 4379, "\u0120kompromi\u00c3\u0141": 4380, "\u0120offensicht": 4381, "\u0120tobacco": 4382, "\u0120bleibt": 4383, "oren": 4384, "\u0120nachhalt": 4385, "\u0120acp": 4386, "okoll": 4387, "\u0120anything": 4388, "\u0120handel": 4389, "wendet": 4390, "\u0120office": 4391, "haupt": 4392, "\u0120initiatives": 4393, "\u0120received": 4394, "\u0120schlu\u00c3\u0141fol": 4395, "\u0120gesch\u00c3\u00a4ftsordnung": 4396, "office": 4397, "\u0120begl\u00c3\u00bcckw\u00c3\u00bcn": 4398, "eign": 4399, "fang": 4400, "\u0120weder": 4401, "atten": 4402, "\u0120mis": 4403, "iers": 4404, "\u0120constit": 4405, "\u0120overall": 4406, "\u0120liebe": 4407, "\u0120ergebnisse": 4408, "\u0120obviously": 4409, "\u0120opfer": 4410, "\u0120connection": 4411, "\u0120candidate": 4412, "bru": 4413, "gu": 4414, "\u0120ought": 4415, "scht": 4416, "\u0120augen": 4417, "\u0120rene": 4418, "\u012016": 4419, "ished": 4420, "\u0120training": 4421, "\u0120nato": 4422, "produ": 4423, "fraktion": 4424, "\u0120gestimmt": 4425, "\u0120precisely": 4426, "ding": 4427, "ij": 4428, "po": 4429, "\u0120purs": 4430, "\u0120hol": 4431, "\u0120called": 4432, "\u0120lok": 4433, "terday": 4434, "\u0120comment": 4435, "\u0120m\u00c3\u00b6chten": 4436, "\u0120durchf\u00c3\u00bchrung": 4437, "\u00c3\u00b6ren": 4438, "\u0120wiederhol": 4439, "\u0120sicherheits": 4440, "\u0120reduce": 4441, "\u0120patten": 4442, "\u0120198": 4443, "\u0120erneut": 4444, "\u0120yesterday": 4445, "\u0120external": 4446, "tain": 4447, "\u0120treffen": 4448, "\u0120inspect": 4449, "\u0120north": 4450, "ibe": 4451, "aging": 4452, "\u0120propose": 4453, "\u0120movement": 4454, "\u0120febru": 4455, "\u0120akp": 4456, "\u0120model": 4457, "\u0120aspekte": 4458, "\u0120vorliegenden": 4459, "\u0120greece": 4460, "\u0120kenntnis": 4461, "zess": 4462, "ination": 4463, "llte": 4464, "usions": 4465, "\u0120zudem": 4466, "eind": 4467, "ortion": 4468, "\u012017": 4469, "\u0120amount": 4470, "\u0120zusatz": 4471, "isms": 4472, "\u0120plans": 4473, "\u0120recently": 4474, "\u0120increased": 4475, "reiten": 4476, "\u0120verwalt": 4477, "\u0120behandelt": 4478, "\u0120monitoring": 4479, "sprechend": 4480, "az": 4481, "isis": 4482, "\u0120mand": 4483, "\u0120eisen": 4484, "\u0120unac": 4485, "\u00c3\u00a4um": 4486, "\u0120vorh": 4487, "istische": 4488, "\u0120takes": 4489, "\u0120manuf": 4490, "\u0120grundsatz": 4491, "\u0120gebracht": 4492, "\u0120crisis": 4493, "\u0120strukturfonds": 4494, "\u0120gegenw\u00c3\u00a4rtig": 4495, "bourg": 4496, "\u0120experience": 4497, "\u0120manufact": 4498, "bel": 4499, "ling": 4500, "\u0120ton": 4501, "\u0120thus": 4502, "\u0120annahme": 4503, "\u0120gefordert": 4504, "indest": 4505, "\u0120suppor": 4506, "bez\u00c3\u00bc": 4507, "\u0120using": 4508, "\u0120zumindest": 4509, "\u0120discussions": 4510, "\u0120volk": 4511, "\u0120f\u00c3\u00b6rdern": 4512, "\u0120practical": 4513, "\u0120gesundheits": 4514, "\u0120leitlinien": 4515, "\u0120fishing": 4516, "\u0120coordination": 4517, "\u0120renew": 4518, "bet": 4519, "erweise": 4520, "\u0120don": 4521, "\u0120ten": 4522, "\u0120sach": 4523, "\u0120pack": 4524, "\u0120ill": 4525, "llar": 4526, "\u0120sound": 4527, "\u0120\u00c3\u00bcberhaupt": 4528, "spl": 4529, "\u0120comments": 4530, "\u0120konsequ": 4531, "icking": 4532, "zuf\u00c3\u00bchren": 4533, "\u0120monet": 4534, "\u0120exper": 4535, "\u0120somit": 4536, "hoben": 4537, "\u0120konkrete": 4538, "\u0120cultural": 4539, "\u0120dringend": 4540, "\u0120unemployment": 4541, "\u0120v\u00c3\u00b6lker": 4542, "\u0120oil": 4543, "\u0120entwurf": 4544, "\u0120relating": 4545, "\u0120afrika": 4546, "\u0120revision": 4547, "\u0120anderer": 4548, "\u0120grenzen": 4549, "\u0120retur": 4550, "iterran": 4551, "\u0120vorsitz": 4552, "\u0120diskriminierung": 4553, "hem": 4554, "leisten": 4555, "\u0120jur": 4556, "quate": 4557, "\u0120sectors": 4558, "\u0120gew\u00c3\u00a4hrleisten": 4559, "\u0120verpflichtungen": 4560, "\u0120extent": 4561, "\u0120cohes": 4562, "\u0120arbeitspl\u00c3\u00a4tze": 4563, "\u0120circum": 4564, "\u0120unaccept": 4565, "mutz": 4566, "teile": 4567, "\u0120zustimmung": 4568, "\u0120counter": 4569, "\u0120tag": 4570, "\u0120heard": 4571, "\u0120parliamentary": 4572, "kennen": 4573, "\u0120entschieden": 4574, "\u0120damage": 4575, "\u00c3\u00a4mt": 4576, "regel": 4577, "\u0120gesamte": 4578, "rist": 4579, "\u0120diesbez\u00c3\u00bc": 4580, "\u0120super": 4581, "wogen": 4582, "\u0120bez\u00c3\u00bc": 4583, "\u0120verbessern": 4584, "\u0120stark": 4585, "\u0120occas": 4586, "\u0120plenum": 4587, "\u0120pr\u00c3\u00bcfen": 4588, "\u0120consequences": 4589, "\u0120aufmerksamkeit": 4590, "\u0120dangerous": 4591, "\u0120griechen": 4592, "\u0120bitten": 4593, "\u0120incorpor": 4594, "ected": 4595, "zug": 4596, "isieren": 4597, "\u0120konferenz": 4598, "\u00c3\u00bcnst": 4599, "\u0120\u00c3\u00a4nderungen": 4600, "\u0120bestand": 4601, "\u0120getroffen": 4602, "zusetzen": 4603, "\u0120independent": 4604, "bedingungen": 4605, "\u0120vergangenheit": 4606, "\u0120scientific": 4607, "igration": 4608, "frieden": 4609, "mos": 4610, "iten": 4611, "\u0120uner": 4612, "\u0120kern": 4613, "bericht": 4614, "\u0120condem": 4615, "\u0120elections": 4616, "\u0120improvement": 4617, "\u0120ber\u00c3\u00bccksichtigen": 4618, "\u0120conclusions": 4619, "\u0120schwierigkeiten": 4620, "ief": 4621, "\u0120cred": 4622, "\u0120erschein": 4623, "\u0120genet": 4624, "\u0120woche": 4625, "forderung": 4626, "\u0120bereiche": 4627, "spricht": 4628, "\u0120wichtigsten": 4629, "\u0120liberalisation": 4630, "\u0120wesentlichen": 4631, "\u0120bem\u00c3\u00bchungen": 4632, "\u0120hingewiesen": 4633, "\u0120lesung": 4634, "ox": 4635, "\u0120dro": 4636, "stra": 4637, "llten": 4638, "\u0120ka": 4639, "\u0120verurs": 4640, "lie\u00c3\u0141en": 4641, "sproze\u00c3\u0141": 4642, "\u0120h\u00c3\u00b6chst": 4643, "\u0120scheint": 4644, "\u0120purpose": 4645, "\u0120cohesion": 4646, "des": 4647, "\u0120s\u00c3\u00a4mt": 4648, "ets": 4649, "\u0120aufzu": 4650, "abel": 4651, "\u0120geschaffen": 4652, "\u0120bedarf": 4653, "\u0120ausgezeichne": 4654, "\u0120risks": 4655, "\u0120f\u00c3\u00a4llen": 4656, "\u0120fischerei": 4657, "\u0120tabak": 4658, "\u0120unacceptable": 4659, "fect": 4660, "seit": 4661, "\u0120giving": 4662, "\u00c3\u00a4ter": 4663, "statt": 4664, "\u0120vorbe": 4665, "zehn": 4666, "\u0120spez": 4667, "\u0120becom": 4668, "\u0120kollege": 4669, "\u0120urspr": 4670, "\u0120affected": 4671, "\u0120guten": 4672, "\u0120crime": 4673, "\u0120referred": 4674, "enteil": 4675, "\u0120fortschritte": 4676, "\u0120koordinierung": 4677, "iterranean": 4678, "itions": 4679, "\u0120ehr": 4680, "\u0120unge": 4681, "\u0120live": 4682, "bek": 4683, "\u0120k\u00c3\u00b6nig": 4684, "rieben": 4685, "\u0120creating": 4686, "\u0120protokoll": 4687, "\u0120trafficking": 4688, "\u0120anwes": 4689, "\u0120crucial": 4690, "\u0120producers": 4691, "raten": 4692, "initi": 4693, "\u0120around": 4694, "iture": 4695, "\u0120camp": 4696, "\u00c3\u00bcg": 4697, "\u0120forderung": 4698, "\u0120exact": 4699, "\u0120besorg": 4700, "\u0120quot": 4701, "zeugen": 4702, "\u0120consult": 4703, "\u0120direction": 4704, "\u0120f\u00c3\u00bchrt": 4705, "\u0120france": 4706, "\u0120instruments": 4707, "\u0120powers": 4708, "\u0120autom": 4709, "\u0120verhindern": 4710, "\u0120bez\u00c3\u00bcglich": 4711, "anze": 4712, "\u0120almost": 4713, "\u0120neuer": 4714, "ourn": 4715, "\u0120landes": 4716, "\u0120w\u00c3\u00a4hrung": 4717, "\u0120zahlen": 4718, "\u0120directives": 4719, "\u0120jeweil": 4720, "\u0120accordance": 4721, "\u0120created": 4722, "\u0120offensichtlich": 4723, "chter": 4724, "\u0120six": 4725, "teen": 4726, "gener": 4727, "issions": 4728, "vergen": 4729, "\u0120spee": 4730, "\u0120thanks": 4731, "\u0120substant": 4732, "ology": 4733, "\u0120betrug": 4734, "\u0120stra\u00c3\u0141": 4735, "\u0120barn": 4736, "tember": 4737, "\u0120nahrungsmittel": 4738, "wand": 4739, "\u0120threat": 4740, "ires": 4741, "\u0120verh\u00c3\u00a4lt": 4742, "ilar": 4743, "\u0120death": 4744, "\u0120coming": 4745, "\u0120finn": 4746, "\u012024": 4747, "ierenden": 4748, "\u00c3\u00bctzen": 4749, "\u0120monaten": 4750, "\u0120\u00c3\u00a4nderungsantr\u00c3\u00a4gen": 4751, "\u0120discussed": 4752, "\u0120british": 4753, "\u0120gipfel": 4754, "\u0120jugend": 4755, "\u0120schokolade": 4756, "200": 4757, "wh": 4758, "\u0120living": 4759, "\u0120defen": 4760, "\u0120mag": 4761, "\u0120alloc": 4762, "\u0120sieht": 4763, "\u0120tack": 4764, "ological": 4765, "\u0120expend": 4766, "zusch": 4767, "\u0120seriously": 4768, "\u0120totally": 4769, "\u0120gebieten": 4770, "\u0120italien": 4771, "\u0120bilater": 4772, "\u0120intended": 4773, "nungen": 4774, "yp": 4775, "ons": 4776, "\u0120spr": 4777, "\u0120huge": 4778, "\u0120anzu": 4779, "\u00c3\u00a4u\u00c3\u0141": 4780, "\u0120zustimmen": 4781, "achung": 4782, "\u0120lear": 4783, "\u0120beru": 4784, "\u0120finanzierung": 4785, "\u0120goods": 4786, "\u0120qualit\u00c3\u00a4t": 4787, "\u0120similar": 4788, "\u0120zeigt": 4789, "\u0120eval": 4790, "\u0120falle": 4791, "ood": 4792, "\u0120ce": 4793, "\u0120unz": 4794, "\u0120vergleich": 4795, "\u0120sogen": 4796, "\u0120meer": 4797, "\u0120genu": 4798, "\u0120outside": 4799, "fahrens": 4800, "\u0120minimum": 4801, "\u0120forms": 4802, "\u0120measure": 4803, "\u0120effects": 4804, "verkehrs": 4805, "\u0120reached": 4806, "frei": 4807, "wise": 4808, "iting": 4809, "\u0120met": 4810, "\u0120fahr": 4811, "\u0120bedenken": 4812, "ingd": 4813, "\u0120haupt": 4814, "griff": 4815, "\u0120beschl": 4816, "ologie": 4817, "\u0120konkreten": 4818, "\u0120privat": 4819, "\u0120close": 4820, "\u0120solidarity": 4821, "\u0120expenditure": 4822, "nern": 4823, "\u0120reject": 4824, "\u0120verhalten": 4825, "\u0120jen": 4826, "\u0120commer": 4827, "\u0120freue": 4828, "\u0120myself": 4829, "rift": 4830, "\u0120morning": 4831, "\u0120andererseits": 4832, "\u0120conclusion": 4833, "\u0120geh\u00c3\u00b6ren": 4834, "\u0120vorgeschlagenen": 4835, "\u0120kriterien": 4836, "\u0120milit\u00c3\u00a4r": 4837, "\u0120vern\u00c3\u00bcnft": 4838, "\u0120monetary": 4839, "\u0120cross": 4840, "\u0120vital": 4841, "\u0120sour": 4842, "\u0120gesche": 4843, "\u0120hoffen": 4844, "ously": 4845, "\u0120plann": 4846, "wirken": 4847, "\u0120ziehen": 4848, "\u0120limited": 4849, "\u0120beginn": 4850, "\u0120entsprechenden": 4851, "\u0120durchgef\u00c3\u00bchrt": 4852, "\u0120convin": 4853, "b\u00c3\u00bcr": 4854, "\u0120tier": 4855, "\u0120ganze": 4856, "\u0120beam": 4857, "\u0120lot": 4858, "uten": 4859, "fft": 4860, "\u0120schre": 4861, "\u0120exerc": 4862, "\u0120possibility": 4863, "\u0120communities": 4864, "\u0120investig": 4865, "\u0120brought": 4866, "stoffe": 4867, "\u0120trying": 4868, "\u0120mobil": 4869, "\u0120sustainable": 4870, ").": 4871, "rupt": 4872, "\u0120anstr": 4873, "igare": 4874, "ulf": 4875, "\u0120geg": 4876, "\u0120aufgaben": 4877, "\u0120dev": 4878, "\u0120enth\u00c3\u00a4lt": 4879, "\u0120entlastung": 4880, "gesundheit": 4881, "\u0120stated": 4882, "\u0120across": 4883, "\u0120moreover": 4884, "\u0120declar": 4885, "\u0120gering": 4886, "\u0120considerable": 4887, "laufen": 4888, "ziehung": 4889, "ausschusses": 4890, "stitutional": 4891, "\u0120k\u00c3\u00b6nigreich": 4892, "ma": 4893, "nungs": 4894, "erungen": 4895, "\u00c3\u00bct": 4896, "rahmen": 4897, "\u0120dagegen": 4898, "\u0120mitt": 4899, "\u0120entsprechend": 4900, "\u0120applies": 4901, "l\u00c3\u00a4\u00c3\u0141": 4902, "\u0120scope": 4903, "\u0120institutional": 4904, "\u0120wei\u00c3\u0141buch": 4905, "\u0120asylum": 4906, "entwick": 4907, "\u0120refugees": 4908, "\u0120heutigen": 4909, "\u0120supported": 4910, "eg": 4911, "\u0120away": 4912, "\u0120bild": 4913, "\u0120beein": 4914, "uly": 4915, "\u0120code": 4916, "\u0120extens": 4917, "\u0120mex": 4918, "erences": 4919, "ucht": 4920, "\u0120face": 4921, "\u0120parliaments": 4922, "\u0120debt": 4923, "\u0120\u00c3\u00b6k": 4924, "\u0120feststellen": 4925, "\u0120regelungen": 4926, "\u0120t\u00c3\u00a4tigkeit": 4927, "\u0120challenge": 4928, "\u0120circumstances": 4929, "orgung": 4930, "\u0120ppe": 4931, "\u0120gab": 4932, "\u00c3\u00bcro": 4933, "iday": 4934, "\u0120along": 4935, "\u0120gestern": 4936, "ureau": 4937, "\u0120stets": 4938, "\u0120goes": 4939, "\u0120appe": 4940, "\u0120speaking": 4941, "\u0120confirm": 4942, "\u0120fraktionen": 4943, "\u0120besch\u00c3\u00a4ftigungs": 4944, "\u0120zweifel": 4945, "\u0120veh": 4946, "\u0120ausf\u00c3\u00bchrungen": 4947, "\u0120konflikt": 4948, "\u0120elektron": 4949, "\u0120eisenbahn": 4950, "haus": 4951, "ique": 4952, "ptember": 4953, "xis": 4954, "ying": 4955, "erve": 4956, "itation": 4957, "\u0120gern": 4958, "\u0120unan": 4959, "\u0120neben": 4960, "\u0120schle": 4961, "\u0120september": 4962, "sec": 4963, "uellen": 4964, "\u0120entwickeln": 4965, "\u0120m\u00c3\u00b6glichst": 4966, "\u0120einzige": 4967, "\u0120banan": 4968, "\u0120check": 4969, "\u0120disaster": 4970, "\u0120kapital": 4971, "\u0120kommissionsmitglie": 4972, "\u0120return": 4973, "brauch": 4974, "jahr": 4975, "kraft": 4976, "where": 4977, "atik": 4978, "\u0120bildung": 4979, "\u0120bureau": 4980, "\u0120emer": 4981, "ark": 4982, "\u0120ii": 4983, "igungen": 4984, "\u0120verstehen": 4985, "ilities": 4986, "\u0120price": 4987, "\u0120sea": 4988, "sens": 4989, "\u0120capac": 4990, "\u0120combat": 4991, "\u0120administrative": 4992, "\u0120green": 4993, "\u0120minderheiten": 4994, "\u0120accepted": 4995, "\u0120verd": 4996, "\u0120verwendung": 4997, "\u00c3\u00a4nden": 4998, "\u0120sech": 4999, "gruppen": 5000, "\u0120nochmals": 5001, "\u0120direkt": 5002, "\u0120efficient": 5003, "barkeit": 5004, "\u0120eingere": 5005, "works": 5006, "ounts": 5007, "\u0120ausgewogen": 5008, "\u0120positiv": 5009, "\u0120priorities": 5010, "\u0120verpflich": 5011, "\u0120gebiete": 5012, "ophob": 5013, "\u0120son": 5014, "atisch": 5015, "\u0120cy": 5016, "\u0120reag": 5017, "\u0120vermitt": 5018, "amber": 5019, "qual": 5020, "\u0120\u00c3\u00bcbersch": 5021, "\u0120genug": 5022, "anzen": 5023, "werte": 5024, "\u0120gewor": 5025, "\u0120operation": 5026, "\u0120relig": 5027, "\u0120remember": 5028, "\u0120anti": 5029, "\u0120beitragen": 5030, "\u0120allowed": 5031, "\u0120accession": 5032, "\u0120additional": 5033, "\u0120ben\u00c3\u00b6t": 5034, "\u0120l\u00c3\u00a4ndlichen": 5035, "\u0120vorhanden": 5036, "\u0120condemn": 5037, "ake": 5038, "feind": 5039, "polit": 5040, "val": 5041, "\u0120sort": 5042, "iell": 5043, "\u0120intens": 5044, "\u0120einiger": 5045, "achten": 5046, "\u0120separ": 5047, "ensions": 5048, "\u0120interoper": 5049, "\u0120besten": 5050, "\u0120obtain": 5051, "\u0120spir": 5052, "\u0120sicherlich": 5053, "acio": 5054, "\u0120resolutions": 5055, "\u0120medium": 5056, "\u0120ergreifen": 5057, "\u0120verkehrs": 5058, "\u0120palacio": 5059, "\u0120festgelegt": 5060, "\u0120territor": 5061, "\u0120frankreich": 5062, "\u0120xen": 5063, "g\u00c3\u00bclt": 5064, "ins": 5065, "\u0120k\u00c3\u00bc": 5066, "\u0120verste": 5067, "\u0120contr": 5068, "\u0120schwe": 5069, "meer": 5070, "\u0120amt": 5071, "\u0120strict": 5072, "\u0120probably": 5073, "ption": 5074, "\u0120justiz": 5075, "\u0120wichtiger": 5076, "\u00c3\u00a4mpfen": 5077, "\u0120internationale": 5078, "\u0120erwarten": 5079, "achtung": 5080, "\u0120setting": 5081, "\u0120vorgehen": 5082, "\u0120shown": 5083, "\u0120annual": 5084, "\u0120parteien": 5085, "\u0120properly": 5086, "\u0120billion": 5087, "\u0120k\u00c3\u00bcnftig": 5088, "\u0120balkan": 5089, "\u0120partnership": 5090, "kontrolle": 5091, "\u0120restrict": 5092, "\u0120entschlie\u00c3\u0141ungsantrag": 5093, "\u0120defence": 5094, "\u0120xenophob": 5095, "aken": 5096, "\u0120date": 5097, "\u0120verring": 5098, "\u0120stad": 5099, "\u0120ersch": 5100, "lare": 5101, "\u0120herkunft": 5102, "sper": 5103, "ibility": 5104, "\u0120police": 5105, "\u0120\u00c3\u00a4ndern": 5106, "\u0120begrenz": 5107, "\u0120discussing": 5108, "richtlinie": 5109, "\u0120reduction": 5110, "\u0120kleinen": 5111, "\u0120achtung": 5112, "\u0120effizient": 5113, "will": 5114, "chr\u00c3\u00a4n": 5115, "\u0120sent": 5116, "\u0120ca": 5117, "\u0120nimmt": 5118, "\u0120ung": 5119, "\u0120recy": 5120, "\u0120rand": 5121, "dell": 5122, "\u0120regime": 5123, "chtet": 5124, "\u0120self": 5125, "ategor": 5126, "\u0120eingeb": 5127, "\u0120erg\u00c3\u00a4n": 5128, "\u0120kontin": 5129, "\u0120urgent": 5130, "\u0120schlu\u00c3\u0141folgerungen": 5131, "\u0120contrary": 5132, "hnung": 5133, "\u0120tem": 5134, "\u0120bey": 5135, "\u0120iran": 5136, "\u0120erika": 5137, "\u0120design": 5138, "\u0120auss": 5139, "\u0120exch": 5140, "\u0120chamber": 5141, "\u0120spo": 5142, "werk": 5143, "ventions": 5144, "\u0120developed": 5145, "\u0120natural": 5146, "\u0120notwendigen": 5147, "\u0120weltweit": 5148, "\u0120ministers": 5149, "\u0120caused": 5150, "european": 5151, "ublik": 5152, "\u0120avoid": 5153, "\u0120anstreng": 5154, "\u0120verpflichtet": 5155, "\u0120dru": 5156, "\u0120wr": 5157, "arily": 5158, "elten": 5159, "\u0120lat": 5160, "\u0120j\u00c3\u00bcn": 5161, "\u0120grant": 5162, "\u0120parlamentar": 5163, "pliz": 5164, "\u0120emissions": 5165, "\u01201996": 5166, "\u0120ganzen": 5167, "\u0120liability": 5168, "\u0120effectively": 5169, "\u0120\u00c3\u00a4hn": 5170, "\u0120establishing": 5171, "\u0120wesentlich": 5172, "\u0120projekt": 5173, "kom": 5174, "vision": 5175, "\u0120anschlie\u00c3\u0141": 5176, "\u0120zufrieden": 5177, "\u0120days": 5178, "ffnung": 5179, "\u0120sell": 5180, "\u0120\u00c3\u00bcbergang": 5181, "\u0120berichte": 5182, "ungsverfahren": 5183, "\u0120investitionen": 5184, "\u0120implementing": 5185, "\u0120milk": 5186, "\u0120langfrist": 5187, "\u0120speakers": 5188, "attle": 5189, "\u0120kulture": 5190, "\u0120entsprechende": 5191, "\u0120administration": 5192, "\u0120linie": 5193, "\u0120fr\u00c3\u00bch": 5194, "\u0120pr\u00c3\u00a4z": 5195, "\u0120dauer": 5196, "\u0120abstimm": 5197, "\u0120enable": 5198, "\u0120betonen": 5199, "arbeitet": 5200, "\u0120zeitraum": 5201, "\u0120rightly": 5202, "\u0120reforms": 5203, "\u0120teilen": 5204, "\u0120bestehenden": 5205, "\u0120st\u00c3\u00a4rker": 5206, "\u0120igc": 5207, "\u0120hor": 5208, "\u0120anspruch": 5209, "\u0120took": 5210, "\u0120k\u00c3\u00bcrz": 5211, "used": 5212, "emb": 5213, "icien": 5214, "hren": 5215, "\u0120stre": 5216, "\u0120prim": 5217, "beh\u00c3\u00b6r": 5218, "\u0120recognise": 5219, "\u0120druck": 5220, "\u0120wrong": 5221, "eben": 5222, "fs": 5223, "nor": 5224, "erzeug": 5225, "\u0120bi": 5226, "omin": 5227, "\u00c3\u00b6st": 5228, "\u0120darstellt": 5229, "\u0120half": 5230, "\u0120politiken": 5231, "\u0120technology": 5232, "\u0120gesetzgebung": 5233, "\u0120explan": 5234, "\u0120sanctions": 5235, "\u0120respekt": 5236, "\u0120alternative": 5237, "\u0120besorgnis": 5238, "inden": 5239, "\u0120nord": 5240, "\u0120eindruck": 5241, "\u0120auszu": 5242, "opo": 5243, "\u0120gr\u00c3\u00bcnd": 5244, "\u0120quant": 5245, "\u0120hohe": 5246, "\u0120produce": 5247, "\u0120vielmehr": 5248, "\u0120moral": 5249, "\u0120democrats": 5250, "\u0120bessere": 5251, "\u0120humanitarian": 5252, "\u0120gerichtshof": 5253, "\u0120unanim": 5254, "\u0120capacity": 5255, "\u0120anstrengungen": 5256, "\u0120j\u00c3\u00bcng": 5257, "\u0120div": 5258, "\u0120wal": 5259, "itude": 5260, "\u0120f\u00c3\u00bc": 5261, "\u0120fas": 5262, "osed": 5263, "\u0120100": 5264, "\u0120interp": 5265, "rank": 5266, "\u0120acqu": 5267, "\u0120intention": 5268, "\u0120developments": 5269, "arbeitung": 5270, "\u0120reality": 5271, "mark": 5272, "\u0120representative": 5273, "\u0120block": 5274, "\u012080": 5275, "\u0120directly": 5276, "\u0120businesses": 5277, "\u0120terror": 5278, "\u0120geschehen": 5279, "20": 5280, "\u0120vertr\u00c3\u00a4ge": 5281, "\u0120audit": 5282, "\u0120j\u00c3\u00a4hr": 5283, "\u0120herz": 5284, "\u0120unions": 5285, "\u0120polize": 5286, "gesetz": 5287, "\u0120enorm": 5288, "\u0120darstellen": 5289, "\u0120bald": 5290, "\u0120pressure": 5291, "\u0120observ": 5292, "\u0120determin": 5293, "\u0120vehic": 5294, "\u0120beyond": 5295, "iance": 5296, "lo": 5297, "ufen": 5298, "\u0120west": 5299, "atch": 5300, "\u0120fle": 5301, "\u0120erl\u00c3\u00a4": 5302, "\u00c3\u00a4ngt": 5303, "\u0120scho": 5304, "\u0120entgegen": 5305, "geste": 5306, "okraten": 5307, "\u0120wochen": 5308, "\u0120jede": 5309, "\u0120embar": 5310, "\u0120insof": 5311, "ired": 5312, "\u0120views": 5313, "\u0120function": 5314, "\u0120defend": 5315, "\u0120activity": 5316, "leitet": 5317, "\u0120networks": 5318, "\u0120betroffenen": 5319, "ournal": 5320, "\u0120erl\u00c3\u00a4ut": 5321, "lel": 5322, "\u0120einver": 5323, "\u0120gekommen": 5324, "\u0120journal": 5325, "\u0120leicht": 5326, "\u0120withd": 5327, "\u0120sp\u00c3\u00a4ter": 5328, "str\u00c3\u00b6": 5329, "hlen": 5330, "\u0120verbr": 5331, "\u0120jahrh": 5332, "\u0120minutes": 5333, "\u0120ausschlie\u00c3\u0141": 5334, "\u0120treatment": 5335, "\u0120useful": 5336, "\u0120currency": 5337, "\u0120zahlreiche": 5338, "urop\u00c3\u00a4": 5339, "\u0120explo": 5340, "\u0120solidarit\u00c3\u00a4t": 5341, "\u0120schulden": 5342, "\u0120officials": 5343, "\u0120fremdenfeind": 5344, "m\u00c3\u00b6glichkeit": 5345, "\u0120m\u00c3\u00bc\u00c3\u0141te": 5346, "\u0120analysis": 5347, "afrika": 5348, "guard": 5349, "30": 5350, "met": 5351, "sitz": 5352, "rehens": 5353, "\u0120mio": 5354, "\u0120zuge": 5355, "\u0120forces": 5356, "opol": 5357, "\u0120\u00c3\u00bcbernehmen": 5358, "\u0120berlin": 5359, "zeuge": 5360, "\u0120incin": 5361, "\u0120march": 5362, "reichend": 5363, "r\u00c3\u00a4ft": 5364, "\u0120requires": 5365, "gem\u00c3\u00a4\u00c3\u0141": 5366, "\u0120praxis": 5367, "lauf": 5368, "\u0120ensuring": 5369, "\u0120sorge": 5370, "\u0120difficulties": 5371, "\u0120harmonisierung": 5372, "\u0120opposition": 5373, "\u0120verfolgen": 5374, "\u0120ethnic": 5375, "\u0120konnte": 5376, "\u0120abschlu\u00c3\u0141": 5377, "initiative": 5378, "\u0120exactly": 5379, "\u0120geworden": 5380, "ued": 5381, "inking": 5382, "\u0120netz": 5383, "\u0120name": 5384, "imate": 5385, "\u0120deep": 5386, "\u0120ausgaben": 5387, "\u0120umgesetzt": 5388, "\u0120pr\u00c3\u00a4sidenten": 5389, "ussels": 5390, "\u0120gewesen": 5391, "\u0120ma\u00c3\u0141e": 5392, "gestimmt": 5393, "\u0120transfer": 5394, "grundlage": 5395, "\u0120uk": 5396, "\u0120typ": 5397, "\u0120drittens": 5398, "\u0120volksgesundheit": 5399, "\u0120begl\u00c3\u00bcckw\u00c3\u00bcnschen": 5400, "glicht": 5401, "lier": 5402, "uations": 5403, "\u0120big": 5404, "\u0120b\u00c3\u00b6": 5405, "\u0120har": 5406, "\u0120niel": 5407, "\u0120sofort": 5408, "\u0120near": 5409, "\u0120umst": 5410, "ience": 5411, "\u0120perfect": 5412, "programm": 5413, "flu\u00c3\u0141": 5414, "\u0120mediterranean": 5415, "\u0120republic": 5416, "\u0120priorit\u00c3\u00a4ten": 5417, "\u0120brussels": 5418, "\u0120family": 5419, "\u0120erm\u00c3\u00b6glicht": 5420, "\u0120paid": 5421, "\u0120body": 5422, "\u0120lux": 5423, "\u0120griechenland": 5424, "\u0120school": 5425, "ef": 5426, "iend": 5427, "just": 5428, "lant": 5429, "yse": 5430, "\u0120tw": 5431, "ature": 5432, "\u0120m\u00c3\u00a4n": 5433, "\u0120oz": 5434, "\u0120bekommen": 5435, "\u0120listen": 5436, "\u0120aufnahme": 5437, "bend": 5438, "\u0120parts": 5439, "\u0120dealt": 5440, "\u0120ausbildung": 5441, "\u0120ship": 5442, "\u0120chang": 5443, "\u0120perspect": 5444, "\u0120festgestellt": 5445, "\u0120arbeitslosigkeit": 5446, "\u0120postal": 5447, "\u0120worth": 5448, "\u0120aspekt": 5449, "\u0120radio": 5450, "\u0120assessment": 5451, "\u0120ort": 5452, "\u0120ade": 5453, "\u0120side": 5454, "\u0120eher": 5455, "aren": 5456, "entsche": 5457, "gehend": 5458, "\u0120ressourcen": 5459, "\u0120ereign": 5460, "istisch": 5461, "\u0120entschlossen": 5462, "r\u00c3\u00a4fte": 5463, "\u0120mitteln": 5464, "ffentlich": 5465, "region": 5466, "\u0120wishes": 5467, "\u0120br\u00c3\u00bcssel": 5468, "\u0120commitments": 5469, "\u0120adoption": 5470, "\u0120wahlen": 5471, "mittag": 5472, "\u0120participation": 5473, "\u0120language": 5474, "\u0120message": 5475, "aign": 5476, "erungs": 5477, "\u0120bad": 5478, "entlich": 5479, "\u0120einsatz": 5480, "\u0120verme": 5481, "\u0120verehrte": 5482, "iliation": 5483, "\u0120former": 5484, "\u0120nov": 5485, "\u0120alban": 5486, "ierter": 5487, "\u0120prem": 5488, "\u0120mehrere": 5489, "fallen": 5490, "\u0120milliar": 5491, "\u0120urge": 5492, "\u0120media": 5493, "\u0120pointed": 5494, "\u0120creation": 5495, "\u0120votes": 5496, "\u0120sanktionen": 5497, "\u0120documents": 5498, "m\u00c3\u00a4\u00c3\u0141ig": 5499, "\u0120erf\u00c3\u00bcllen": 5500, "\u0120portugiesischen": 5501, "\u0120repeat": 5502, "\u0120campaign": 5503, "uern": 5504, "\u0120d\u00c3\u00a4n": 5505, "\u0120send": 5506, "rec": 5507, "techn": 5508, "\u0120ire": 5509, "\u0120einf": 5510, "\u0120rise": 5511, "ums": 5512, "\u0120concept": 5513, "\u0120geleistet": 5514, "\u0120ge\u00c3\u00a4u\u00c3\u0141": 5515, "versch": 5516, "\u0120vorrang": 5517, "\u0120exem": 5518, "\u0120worte": 5519, "\u0120accident": 5520, "h\u00c3\u00b6ren": 5521, "\u0120seek": 5522, "etheless": 5523, "\u012060": 5524, "\u0120african": 5525, "\u0120advant": 5526, "\u0120nonetheless": 5527, "\u0120demands": 5528, "\u0120diskutieren": 5529, "\u0120bodies": 5530, "\u0120niederl": 5531, "\u0120gegenteil": 5532, "\u0120exchange": 5533, "bank": 5534, "zust": 5535, "\u0120dise": 5536, "\u0120mid": 5537, "\u0120beginnen": 5538, "\u0120l\u00c3\u00b6sen": 5539, "uls": 5540, "\u0120dead": 5541, "\u0120voran": 5542, "\u0120regret": 5543, "uded": 5544, "\u0120keines": 5545, "arbeiten": 5546, "pression": 5547, "\u0120au\u00c3\u0141erord": 5548, "\u0120competit": 5549, "ktoren": 5550, "\u0120dealing": 5551, "\u0120deliver": 5552, "\u0120acceptable": 5553, "\u0120looking": 5554, "\u0120thirdly": 5555, "\u0120harmonisation": 5556, "\u0120deta": 5557, "gewicht": 5558, "andidaten": 5559, "\u0120verz\u00c3\u00b6": 5560, "\u0120verabschied": 5561, "entscheid": 5562, "uber": 5563, "iste": 5564, "\u0120einhaltung": 5565, "\u0120veran": 5566, "amm": 5567, "\u0120aufbau": 5568, "\u0120vorher": 5569, "steller": 5570, "\u0120chair": 5571, "\u0120beseit": 5572, "\u0120besitz": 5573, "ements": 5574, "sibilities": 5575, "\u0120otherwise": 5576, "\u0120actual": 5577, "\u0120m\u00c3\u00b6glicherweise": 5578, "\u0120gemeinschaftlichen": 5579, "\u0120versich": 5580, "\u0120highly": 5581, "\u0120signal": 5582, "\u0120niedr": 5583, "\u0120mainly": 5584, "\u0120simple": 5585, "\u0120subsidiarity": 5586, "\u0120iraq": 5587, "\u0120centur": 5588, "\u0120m\u00c3\u00a4rz": 5589, "\u0120associ": 5590, "\u0120industrial": 5591, "\u0120anwesend": 5592, "\u0120learn": 5593, "\u0120spirit": 5594, "\u0120withdra": 5595, "\u0120ireland": 5596, "ca": 5597, "\u0120tre": 5598, "\u0120aktionen": 5599, "\u0120b\u00c3\u00bcro": 5600, "\u0120init": 5601, "\u0120lom": 5602, "\u0120haider": 5603, "\u0120mai": 5604, "\u0120arrang": 5605, "auft": 5606, "\u0120solana": 5607, "ellos": 5608, "konom": 5609, "\u0120somet": 5610, "\u0120letter": 5611, "abilit\u00c3\u00a4t": 5612, "\u0120erneuer": 5613, "\u0120earlier": 5614, "\u0120colleague": 5615, "entwurf": 5616, "\u0120franz\u00c3\u00b6sischen": 5617, "\u0120echo": 5618, "\u0120spezif": 5619, "\u0120november": 5620, "\u0120ster": 5621, "itious": 5622, "\u0120mos": 5623, "\u0120bein": 5624, "\u0120beweis": 5625, "urance": 5626, "\u0120rechn": 5627, "\u0120einschlie\u00c3\u0141": 5628, "\u0120later": 5629, "\u0120sov": 5630, "\u0120gek": 5631, "\u0120abzu": 5632, "\u0120divers": 5633, "\u0120sage": 5634, "\u01201995": 5635, "\u012037": 5636, "\u0120landwir": 5637, "\u0120drawn": 5638, "\u0120gesamt": 5639, "\u0120leave": 5640, "\u0120transparent": 5641, "\u0120schwierig": 5642, "\u0120events": 5643, "\u0120austrian": 5644, "\u0120receive": 5645, "\u0120successful": 5646, "\u0120zweifellos": 5647, "\u0120balkans": 5648, "\u0120einbeziehung": 5649, "\u0120verteidigung": 5650, "\u0120h\u00c3\u00a4ufig": 5651, "\u0120forderungen": 5652, "\u0120safeguard": 5653, "\u0120nielson": 5654, "\u0120glaub": 5655, "\u0120beob": 5656, "\u0120lar": 5657, "\u0120forest": 5658, "\u0120alone": 5659, "liegt": 5660, "\u0120gr\u00c3\u00bc": 5661, "\u0120comprehens": 5662, "\u0120providing": 5663, "\u0120initiativen": 5664, "\u0120portugal": 5665, "\u0120glauben": 5666, "\u0120committed": 5667, "\u0120genehm": 5668, "\u0120verwaltungs": 5669, "\u0120initial": 5670, "ging": 5671, "ought": 5672, "setzt": 5673, "\u0120ack": 5674, "orge": 5675, "\u0120vir": 5676, "\u0120anfang": 5677, "lying": 5678, "\u0120entstehen": 5679, "\u0120speed": 5680, "istence": 5681, "\u0120antworten": 5682, "\u0120abgeordneter": 5683, "\u0120reasonable": 5684, "\u0120erforderlichen": 5685, "\u0120improving": 5686, "\u0120erkl\u00c3\u00a4rt": 5687, "\u0120zehn": 5688, "\u0120buiten": 5689, "\u0120erw\u00c3\u00a4hnt": 5690, "\u0120schwerwie": 5691, "\u0120spielen": 5692, "\u0120grounds": 5693, "\u0120urspr\u00c3\u00bcn": 5694, "b\u00c3\u00bcrger": 5695, "\u0120fla": 5696, "\u0120verm": 5697, "vertrag": 5698, "\u0120gesetzt": 5699, "\u0120besondere": 5700, "\u0120apprec": 5701, "\u0120genannten": 5702, "\u0120fellow": 5703, "\u0120submitted": 5704, "\u0120gleiche": 5705, "elling": 5706, "\u0120beitritt": 5707, "\u0120\u00c3\u00b6ffentliche": 5708, "\u0120vorschl\u00c3\u00a4gen": 5709, "\u0120beginning": 5710, "\u0120fehler": 5711, "\u0120versucht": 5712, "\u0120plenary": 5713, "\u0120aktionspl": 5714, "\u0120burden": 5715, "\u0120attempt": 5716, "\u0120sonst": 5717, "\u0120sometimes": 5718, "bal": 5719, "j\u00c3\u00a4hr": 5720, "oint": 5721, "\u0120w\u00c3\u00a4ren": 5722, "\u0120sal": 5723, "itives": 5724, "iede": 5725, "\u0120cle": 5726, "\u00c3\u00a4her": 5727, "\u0120zut": 5728, "\u0120kn": 5729, "gets": 5730, "\u0120armen": 5731, "\u0120politisch": 5732, "\u00c3\u00b6rt": 5733, "\u0120conciliation": 5734, "\u0120feed": 5735, "\u0120mont": 5736, "\u0120hauses": 5737, "\u0120organised": 5738, "\u0120helfen": 5739, "\u012090": 5740, "vorschlag": 5741, "\u0120violence": 5742, "\u0120ver\u00c3\u00a4nderungen": 5743, "\u0120challenges": 5744, "\u0120empfehlung": 5745, "\u0120konzentrieren": 5746, "\u0120immediately": 5747, "\u0120maximum": 5748, "50": 5749, "ever": 5750, "making": 5751, "ric": 5752, "\u0120age": 5753, "\u0120wid": 5754, "\u0120wonder": 5755, "\u0120inf": 5756, "\u0120gives": 5757, "\u0120anp": 5758, "\u0120stock": 5759, "achtet": 5760, "\u0120gesehen": 5761, "\u0120proportion": 5762, "\u0120finanzielle": 5763, "\u0120letzt": 5764, "\u0120folge": 5765, "\u0120begr\u00c3\u00bcnd": 5766, "\u01202002": 5767, "\u0120derzeitigen": 5768, "coming": 5769, "\u0120remains": 5770, "\u0120\u00c3\u00bcbereinkommen": 5771, "\u0120sprachen": 5772, "\u0120merely": 5773, "\u0120erfahrungen": 5774, "general": 5775, "\u0120luxem": 5776, "inter": 5777, "\u0120active": 5778, "\u0120thous": 5779, "\u0120thought": 5780, "unkte": 5781, "\u0120fear": 5782, "\u0120kar": 5783, "\u0120haar": 5784, "\u0120impl": 5785, "\u0120condu": 5786, "\u0120sch\u00c3\u00bctzen": 5787, "weist": 5788, "etzung": 5789, "uchen": 5790, "\u0120teile": 5791, "\u012023": 5792, "\u0120sprache": 5793, "\u0120preis": 5794, "\u0120kollegin": 5795, "prob": 5796, "legungen": 5797, "\u0120financing": 5798, "\u0120additives": 5799, "\u0120regionalen": 5800, "\u0120zunehmen": 5801, "\u0120konkret": 5802, "\u0120beteiligung": 5803, "\u0120early": 5804, "\u0120extra": 5805, "\u0120grunds\u00c3\u00a4tze": 5806, "\u0120illegal": 5807, "\u0120reflect": 5808, "\u0120interpret": 5809, "\u0120acknow": 5810, "\u0120thousand": 5811, "acy": 5812, "gelt": 5813, "iro": 5814, "\u0120pensions": 5815, "\u0120flag": 5816, "\u0120nennen": 5817, "\u0120kinn": 5818, "\u0120reformen": 5819, "\u0120langen": 5820, "\u0120pr\u00c3\u00a4s": 5821, "\u0120abfall": 5822, "\u00c3\u00a4ne": 5823, "\u0120gruppe": 5824, "zeigt": 5825, "\u0120disapp": 5826, "\u0120firm": 5827, "\u0120monopol": 5828, "wortet": 5829, "\u0120endg\u00c3\u00bclt": 5830, "\u0120friday": 5831, "\u0120schaden": 5832, "\u0120negative": 5833, "\u0120blick": 5834, "\u0120absolut": 5835, "\u0120organisationen": 5836, "\u0120closely": 5837, "\u0120optim": 5838, "\u0120unabh\u00c3\u00a4ngig": 5839, "\u0120weshalb": 5840, "\u0120verbindung": 5841, "\u0120aktivit\u00c3\u00a4ten": 5842, "\u0120january": 5843, "\u0120kaum": 5844, "\u0120vehicles": 5845, "\u0120kinnock": 5846, "cel": 5847, "ex": 5848, "undert": 5849, "\u0120vertr": 5850, "\u0120descr": 5851, "\u0120auseinander": 5852, "iveau": 5853, "\u0120entspricht": 5854, "\u0120willen": 5855, "ausch": 5856, "gruppe": 5857, "\u0120heim": 5858, "\u012028": 5859, "\u0120concentr": 5860, "gerung": 5861, "\u0120consist": 5862, "\u0120solutions": 5863, "\u00c3\u00bctzt": 5864, "\u0120ways": 5865, "\u0120technischen": 5866, "\u0120falls": 5867, "\u0120nunmehr": 5868, "\u0120kompliz": 5869, "\u0120nutzung": 5870, "\u0120herausforderungen": 5871, "\u0120steps": 5872, "\u0120irak": 5873, "\u0120languages": 5874, "\u0120encourage": 5875, "\u0120animals": 5876, "\u0120angol": 5877, "\u0120\u00c3\u00bcberzeugt": 5878, "mand": 5879, "\u0120sagt": 5880, "unsch": 5881, "\u0120gain": 5882, "\u0120unmittel": 5883, "asbourg": 5884, "\u0120reden": 5885, "\u0120err": 5886, "\u0120ge\u00c3\u00a4nder": 5887, "\u0120grunde": 5888, "\u0120heart": 5889, "\u0120ma\u00c3\u0141nahme": 5890, "\u0120etik": 5891, "\u0120mittelmeer": 5892, "\u0120qualifiz": 5893, "\u0120transition": 5894, "zeichnen": 5895, "\u0120repla": 5896, "\u0120verschiedene": 5897, "zesses": 5898, "\u0120speech": 5899, "\u0120milliarden": 5900, "br": 5901, "\u0120wanted": 5902, "\u0120fer": 5903, "igran": 5904, "ush": 5905, "icit": 5906, "iment": 5907, "\u0120vorlegen": 5908, "indet": 5909, "\u0120sav": 5910, "\u0120prefer": 5911, "samm": 5912, "losen": 5913, "\u0120geschieht": 5914, "\u0120letzte": 5915, "\u0120attack": 5916, "\u0120involving": 5917, "\u0120contribute": 5918, "\u0120kritik": 5919, "\u0120introduced": 5920, "\u0120stabilit\u00c3\u00a4ts": 5921, "\u0120verpflichtung": 5922, "\u0120coherence": 5923, "\u0120traffic": 5924, "\u0120sprach": 5925, "\u0120eingesetzt": 5926, "\u0120animal": 5927, "bit": 5928, "iber": 5929, "\u0120bau": 5930, "\u0120beide": 5931, "\u0120forget": 5932, "\u0120nachdem": 5933, "angs": 5934, "\u0120peoples": 5935, "gebie": 5936, "\u0120respond": 5937, "\u0120bedro": 5938, "\u0120reducing": 5939, "\u0120secret": 5940, "\u0120undertaking": 5941, "\u0120innovation": 5942, "\u0120universal": 5943, "\u0120koh\u00c3\u00a4renz": 5944, "\u0120jeweiligen": 5945, "\u0120convinced": 5946, "\u0120einverstanden": 5947, "unch": 5948, "\u0120bla": 5949, "\u0120bot": 5950, "anten": 5951, "ande": 5952, "\u0120ober": 5953, "\u00c3\u00a4us": 5954, "\u0120bewer": 5955, "\u0120jene": 5956, "\u0120leist": 5957, "\u0120dollar": 5958, "\u0120meps": 5959, "\u0120rats": 5960, "\u0120conserv": 5961, "\u0120december": 5962, "\u0120sozialdem": 5963, "\u0120geschichte": 5964, "gendes": 5965, "\u0120adopting": 5966, "\u0120vereinten": 5967, "f\u00c3\u00a4llen": 5968, "\u0120strategic": 5969, "\u0120smok": 5970, "\u0120reduz": 5971, "\u0120erkl\u00c3\u00a4ren": 5972, "\u0120erkl\u00c3\u00a4rungen": 5973, "\u0120wettbewerbsf\u00c3\u00a4higkeit": 5974, "\u0120familien": 5975, "\u0120ambitious": 5976, "\u0120konnten": 5977, "\u0120figures": 5978, "\u0120becoming": 5979, "\u0120xenophobia": 5980, "),": 5981, "med": 5982, "ender": 5983, "\u0120noise": 5984, "\u0120constant": 5985, "\u0120depend": 5986, "\u0120raise": 5987, "\u0120freit": 5988, "\u0120provides": 5989, "\u0120hause": 5990, "\u0120geschlossen": 5991, "\u0120budgets": 5992, "sprogramm": 5993, "\u0120kommenden": 5994, "\u0120stattfinden": 5995, "\u0120verf\u00c3\u00bcgen": 5996, "\u0120herausforderung": 5997, "\u0120company": 5998, "\u0120recommendation": 5999, "\u0120naturally": 6000, "\u0120covered": 6001, "\u0120januar": 6002, "body": 6003, "ynam": 6004, "\u0120manufactur": 6005, "\u0120substantial": 6006, "cos": 6007, "k\u00c3\u00bcnd": 6008, "\u0120wit": 6009, "\u0120fonds": 6010, "\u0120fulf": 6011, "\u0120neit": 6012, "\u0120befinden": 6013, "\u0120zim": 6014, "\u0120einsetzen": 6015, "olid": 6016, "ulated": 6017, "\u0120ergriffen": 6018, "\u0120deg": 6019, "\u0120vorhaben": 6020, "absicht": 6021, "ikation": 6022, "\u0120enfor": 6023, "\u0120daraus": 6024, "\u0120strasbourg": 6025, "f\u00c3\u00bcgen": 6026, "\u0120decide": 6027, "utzt": 6028, "handels": 6029, "\u0120festlegung": 6030, "\u0120rechtsgrundlage": 6031, "\u0120bringt": 6032, "\u0120bewert": 6033, "\u0120zeigen": 6034, "\u0120structures": 6035, "\u0120supplement": 6036, "\u0120bekanntlich": 6037, "\u0120instance": 6038, "\u0120erf\u00c3\u00bcllt": 6039, "\u0120building": 6040, "\u0120anerkennung": 6041, "\u0120manner": 6042, "\u0120rechnungs": 6043, "\u0120neither": 6044, "vi": 6045, "inational": 6046, "anlagen": 6047, "\u0120hung": 6048, "\u0120ga": 6049, "\u0120unable": 6050, "\u0120forth": 6051, "\u0120neigh": 6052, "ford": 6053, "\u0120arr": 6054, "\u0120nationale": 6055, "spr\u00c3\u00bc": 6056, "\u0120au\u00c3\u0141erhalb": 6057, "\u0120gl\u00c3\u00bcck": 6058, "\u0120deutsch": 6059, "\u0120republik": 6060, "\u0120gr\u00c3\u00b6\u00c3\u0141ere": 6061, "\u0120behandlung": 6062, "\u0120voraussetzung": 6063, "\u0120occur": 6064, "\u0120stabilit\u00c3\u00a4t": 6065, "\u0120original": 6066, "\u0120addressed": 6067, "\u0120weeks": 6068, "\u0120funktionieren": 6069, "\u0120pers\u00c3\u00b6nlich": 6070, "\u0120duty": 6071, "\u0120happy": 6072, "\u0120s\u00c3\u00a4mtliche": 6073, "\u0120neighbour": 6074, "fle": 6075, "vic": 6076, "\u0120abend": 6077, "\u0120inten": 6078, "\u0120hem": 6079, "\u0120lud": 6080, "olution": 6081, "\u0120weak": 6082, "\u0120prices": 6083, "verse": 6084, "\u0120abh\u00c3\u00a4ng": 6085, "\u0120ents": 6086, "\u0120finde": 6087, "\u0120produced": 6088, "\u0120says": 6089, "ellschaften": 6090, "\u0120niemand": 6091, "\u0120mindest": 6092, "\u0120freedoms": 6093, "ederal": 6094, "\u0120beteiligt": 6095, "\u0120leaders": 6096, "unternehmen": 6097, "\u0120keinerlei": 6098, "\u0120exception": 6099, "\u0120konsult": 6100, "\u0120dezember": 6101, "\u0120commercial": 6102, "\u0120cypr": 6103, "opoul": 6104, "\u0120haarder": 6105, "iens": 6106, "\u0120vess": 6107, "\u0120formal": 6108, "imately": 6109, "\u0120sele": 6110, "ival": 6111, "\u0120unternommen": 6112, "\u0120konstru": 6113, "\u0120substances": 6114, "r\u00c3\u00a4gt": 6115, "hafte": 6116, "\u0120known": 6117, "\u0120fallen": 6118, "\u0120eingegangen": 6119, "\u0120establishment": 6120, "\u0120gefunden": 6121, "jected": 6122, "\u0120befassen": 6123, "010": 6124, "\u0120benach": 6125, "\u0120\u00c3\u00bcbrigens": 6126, "\u0120multinational": 6127, "scheinlich": 6128, "\u0120contains": 6129, "\u0120friedens": 6130, "\u0120increasingly": 6131, "\u0120verfolgt": 6132, "bestimm": 6133, "\u0120american": 6134, "\u0120infrastruct": 6135, "igaret": 6136, "\u0120\u00c3\u00b6kolog": 6137, "\u0120recycl": 6138, "\u0120ausschlie\u00c3\u0141lich": 6139, "\u0120competitiveness": 6140, "bild": 6141, "atically": 6142, "reb": 6143, "\u0120mist": 6144, "\u0120hig": 6145, "\u0120beabsicht": 6146, "\u0120einstimm": 6147, "\u0120laufen": 6148, "\u0120verh": 6149, "\u0120rig": 6150, "\u0120prosec": 6151, "\u0120alten": 6152, "\u0120mitarbeit": 6153, "\u0120schuld": 6154, "\u0120excess": 6155, "annte": 6156, "\u0120christ": 6157, "\u0120appar": 6158, "\u0120complex": 6159, "\u0120moder": 6160, "\u0120richtige": 6161, "program": 6162, "\u0120friend": 6163, "\u0120risiko": 6164, "\u0120gestalten": 6165, "\u0120laws": 6166, "\u0120dienen": 6167, "\u0120appropriations": 6168, "\u0120announ": 6169, "\u0120\u00c3\u00bcberwachung": 6170, "\u0120borders": 6171, "\u0120mi\u00c3\u0141brauch": 6172, "\u0120betrachtet": 6173, "\u0120derartige": 6174, "\u0120minorities": 6175, "\u0120bietet": 6176, "\u0120buitenweg": 6177, "mon": 6178, "mission": 6179, "n\u00c3\u00bc": 6180, "wan": 6181, "year": 6182, "\u0120dynam": 6183, "\u0120eco": 6184, "\u00c3\u00a4den": 6185, "omp": 6186, "rak": 6187, "\u0120asking": 6188, "\u0120abstimmen": 6189, "spra": 6190, "\u0120stren": 6191, "\u0120spent": 6192, "\u0120spain": 6193, "\u0120warn": 6194, "\u0120situations": 6195, "\u0120subst": 6196, "aka": 6197, "akter": 6198, "\u0120assemb": 6199, "ampere": 6200, "\u0120technische": 6201, "\u0120attitude": 6202, "\u0120komme": 6203, "\u0120turk": 6204, "\u0120normen": 6205, "\u0120h\u00c3\u00b6he": 6206, "ma\u00c3\u0141en": 6207, "respon": 6208, "\u00c3\u00a4hlt": 6209, "\u0120sechs": 6210, "\u0120comprehensive": 6211, "\u0120freitag": 6212, "\u0120higher": 6213, "falt": 6214, "gos": 6215, "wahl": 6216, "\u0120pact": 6217, "\u0120gvo": 6218, "\u00c3\u00a4st": 6219, "\u0120schritte": 6220, "\u0120gruppen": 6221, "\u0120granted": 6222, "\u0120informed": 6223, "\u0120risiken": 6224, "struktur": 6225, "\u0120join": 6226, "\u0120akzeptiert": 6227, "\u0120zust\u00c3\u00a4ndigkeit": 6228, "\u0120happened": 6229, "\u0120slow": 6230, "\u0120easy": 6231, "\u0120insofern": 6232, "\u0120century": 6233, "\u0120targe": 6234, "\u0120tampere": 6235, "atastrop": 6236, "\u0120eg": 6237, "\u0120kaka": 6238, "\u0120einflu\u00c3\u0141": 6239, "\u0120haft": 6240, "ette": 6241, "\u0120ersuch": 6242, "ffend": 6243, "\u0120ausreichend": 6244, "\u00c3\u00a4nglich": 6245, "sparte": 6246, "\u0120doct": 6247, "\u0120proposes": 6248, "\u0120wollte": 6249, "\u0120committees": 6250, "\u0120\u00c3\u00b6l": 6251, "\u0120version": 6252, "\u0120liberalen": 6253, "\u0120kontrollen": 6254, "\u0120engagement": 6255, "\u0120hervorge": 6256, "\u0120unterschiedliche": 6257, "\u0120staatlichen": 6258, "\u0120option": 6259, "ronic": 6260, "\u0120vereinbarung": 6261, "\u0120etikett": 6262, "\u0120zimbabwe": 6263, "iot": 6264, "ost": 6265, "wenden": 6266, "aler": 6267, "\u0120zerst": 6268, "uses": 6269, "\u0120proof": 6270, "ktors": 6271, "ielt": 6272, "\u0120gen\u00c3\u00bc": 6273, "\u0120compens": 6274, "\u0120income": 6275, "\u0120indire": 6276, "\u0120approval": 6277, "\u0120...": 6278, "sprogram": 6279, "\u0120erfolgen": 6280, "\u0120labelling": 6281, "\u0120f\u00c3\u00a4lle": 6282, "\u0120gegenw\u00c3\u00a4rtigen": 6283, "\u0120ferner": 6284, "\u0120enterpr": 6285, "\u0120pflicht": 6286, "\u0120s\u00c3\u00bcdafrika": 6287, "\u0120penalt": 6288, "\u0120renewable": 6289, "mutzung": 6290, "\u0120stra\u00c3\u0141burg": 6291, "\u0120genuine": 6292, "\u0120exercise": 6293, "\u0120erg\u00c3\u00a4nz": 6294, "\u0120recycling": 6295, "bor": 6296, "pft": 6297, "\u0120wants": 6298, "esten": 6299, "unsten": 6300, "reaten": 6301, "stat": 6302, "\u0120lives": 6303, "\u0120ver\u00c3\u00b6": 6304, "\u0120condition": 6305, "\u0120geograph": 6306, "ored": 6307, "strateg": 6308, "\u0120frequ": 6309, "\u0120anyone": 6310, "\u0120gerne": 6311, "\u0120record": 6312, "\u0120medien": 6313, "richtungen": 6314, "\u0120reply": 6315, "gemeinschaft": 6316, "\u0120d\u00c3\u00bcrfte": 6317, "\u0120eigene": 6318, "\u0120conclude": 6319, "\u0120equality": 6320, "\u0120dritten": 6321, "\u0120betrachten": 6322, "\u0120portugiesische": 6323, "iciency": 6324, "\u0120assembly": 6325, "apt": 6326, "ns": 6327, "wesen": 6328, "\u0120thinking": 6329, "\u0120bio": 6330, "\u0120porn": 6331, "\u0120haup": 6332, "\u0120formen": 6333, "\u0120cop": 6334, "\u0120coast": 6335, "\u0120neues": 6336, "\u0120commissioners": 6337, "ifor": 6338, "\u0120interin": 6339, "\u0120gratul": 6340, "\u012027": 6341, "\u0120goal": 6342, "\u0120produkte": 6343, "\u0120related": 6344, "\u0120flo": 6345, "\u0120dram": 6346, "\u0120elements": 6347, "\u0120cars": 6348, "\u0120sensitive": 6349, "\u0120ber\u00c3\u00bccksichtigung": 6350, "\u0120l\u00c3\u00b6sungen": 6351, "\u0120globalisierung": 6352, "\u0120calling": 6353, "\u0120punkten": 6354, "\u0120phase": 6355, "\u0120sweden": 6356, "\u0120study": 6357, "\u0120diskutiert": 6358, "\u0120declaration": 6359, "tragen": 6360, "\u0120ult": 6361, "inen": 6362, "\u0120reicht": 6363, "uter": 6364, "\u0120verwendet": 6365, "\u0120verfahrens": 6366, "schreit": 6367, "\u0120whom": 6368, "\u0120prostitution": 6369, "laus": 6370, "lines": 6371, "\u0120entwickelt": 6372, "enzen": 6373, "\u0120bed\u00c3\u00bcr": 6374, "\u0120involve": 6375, "zeichnung": 6376, "ziplin": 6377, "\u0120engl": 6378, "\u0120class": 6379, "\u0120limits": 6380, "\u0120bev\u00c3\u00b6lkerungs": 6381, "\u0120liste": 6382, "\u0120falsch": 6383, "\u0120empfehlungen": 6384, "\u0120june": 6385, "\u0120bemerkungen": 6386, "\u0120rasch": 6387, "\u0120choice": 6388, "ugoslaw": 6389, "\u0120appeal": 6390, "\u0120enormous": 6391, "\u0120ludford": 6392, "ober": 6393, "erten": 6394, "\u0120threaten": 6395, "unt": 6396, "ismen": 6397, "\u0120rent": 6398, "\u0120sehe": 6399, "stelle": 6400, "\u0120commissions": 6401, "sektor": 6402, "ards": 6403, "ized": 6404, "\u0120concrete": 6405, "\u0120unterst\u00c3\u00bctze": 6406, "\u0120w\u00c3\u00a4hrungs": 6407, "\u0120immigration": 6408, "ifying": 6409, "\u0120behandeln": 6410, "\u0120statements": 6411, "\u0120recognised": 6412, "\u0120m\u00c3\u00bc\u00c3\u0141ten": 6413, "\u0120beamten": 6414, "\u0120gr\u00c3\u00bcnen": 6415, "\u0120turkish": 6416, "uelle": 6417, "\u0120malt": 6418, "\u0120ed": 6419, "\u0120ehem": 6420, "\u0120kingd": 6421, "\u0120l\u00c3\u00a4rm": 6422, "\u0120europol": 6423, "osen": 6424, "\u0120coco": 6425, "\u0120adapt": 6426, "\u0120space": 6427, "\u0120proposing": 6428, "\u0120prevention": 6429, "\u0120achieving": 6430, "\u0120reduced": 6431, "\u0120problemen": 6432, "\u0120structure": 6433, "\u0120anderes": 6434, "\u0120kindern": 6435, "\u0120airport": 6436, "\u0120introduce": 6437, "\u0120grenz\u00c3\u00bcber": 6438, "\u0120zus\u00c3\u00a4tzliche": 6439, "\u0120redner": 6440, "\u0120contradict": 6441, "\u0120emphasise": 6442, "\u0120rechnung": 6443, "commun": 6444, "\u0120st\u00c3\u00a4ndig": 6445, "\u0120dienstleistungen": 6446, "\u0120fremdenfeindlichkeit": 6447, "\u0120fulfil": 6448, "\u0120kingdom": 6449, "eu": 6450, "hab": 6451, "oz": 6452, "zut": 6453, "\u0120tsch": 6454, "\u0120klare": 6455, "ilit\u00c3\u00a4t": 6456, "issens": 6457, "\u0120shar": 6458, "\u0120orient": 6459, "\u0120competen": 6460, "herent": 6461, "\u0120appell": 6462, "\u0120programms": 6463, "acter": 6464, "\u0120aids": 6465, "\u0120begriff": 6466, "\u0120sett": 6467, "\u0120generally": 6468, "\u0120qualified": 6469, "\u0120gestatten": 6470, "\u0120ideas": 6471, "\u0120instrumente": 6472, "\u0120sorg": 6473, "\u0120bezieht": 6474, "\u0120allgemeine": 6475, "\u0120protest": 6476, "\u0120vorgesehenen": 6477, "\u0120recommendations": 6478, "\u0120history": 6479, "\u0120electronic": 6480, "\u0120partnerschaft": 6481, "\u0120continuing": 6482, "\u0120germany": 6483, "\u0120criticism": 6484, "\u0120explain": 6485, "\u0120diesbez\u00c3\u00bcglich": 6486, "\u0120vermeiden": 6487, "\u0120einschlie\u00c3\u0141lich": 6488, "\u0120pornograph": 6489, "bo": 6490, "called": 6491, "nel": 6492, "enken": 6493, "onnen": 6494, "iele": 6495, "\u0120pure": 6496, "geber": 6497, "genden": 6498, "\u0120erfahren": 6499, "\u0120gebe": 6500, "\u0120abgeschlossen": 6501, "\u0120schl\u00c3\u00a4": 6502, "\u0120seien": 6503, "thiop": 6504, "\u0120interven": 6505, "\u0120worten": 6506, "\u012026": 6507, "\u012029": 6508, "\u0120gewisse": 6509, "\u0120front": 6510, "\u0120putting": 6511, "\u0120\u00c3\u00a4thiop": 6512, "\u0120braucht": 6513, "\u0120subsidies": 6514, "\u0120wahrscheinlich": 6515, "\u00c3\u00a4hlen": 6516, "\u0120relationship": 6517, "\u0120behaup": 6518, "\u0120bemerkung": 6519, "\u0120katastrophe": 6520, "\u0120pursu": 6521, "\u0120anschlie\u00c3\u0141en": 6522, "urop\u00c3\u00a4ischen": 6523, "\u0120adequate": 6524, "\u0120glaubw\u00c3\u00bcrd": 6525, "\u0120cocoa": 6526, "21": 6527, "dis": 6528, "die": 6529, "zed": 6530, "estens": 6531, "\u0120unless": 6532, "\u0120annehmen": 6533, "\u00c3\u00bcter": 6534, "inges": 6535, "\u0120lauf": 6536, "\u0120lines": 6537, "\u0120l\u00c3\u00a4nger": 6538, "etschen": 6539, "\u0120denken": 6540, "\u0120erfre": 6541, "\u0120alters": 6542, "achs": 6543, "\u0120vorred": 6544, "\u0120deswegen": 6545, "\u0120ability": 6546, "\u0120aussprechen": 6547, "\u0120ausdr\u00c3\u00bccklich": 6548, "\u0120willing": 6549, "\u0120hours": 6550, "\u0120hoffentlich": 6551, "\u0120betre": 6552, "\u0120improved": 6553, "\u0120\u00c3\u00a4u\u00c3\u0141ern": 6554, "\u0120contributions": 6555, "\u0120calls": 6556, "\u0120forschungs": 6557, "\u0120zust\u00c3\u00a4ndigen": 6558, "\u0120contract": 6559, "\u0120juni": 6560, "\u0120association": 6561, "\u0120influen": 6562, "\u0120scheme": 6563, "bek\u00c3\u00a4mpfung": 6564, "\u0120barnier": 6565, "\u0120vermittlungs": 6566, "\u0120perspective": 6567, "\u0120au\u00c3\u0141erordentlich": 6568, "\u0120bewertung": 6569, "\u0120ehemal": 6570, "\u0120tschetschen": 6571, "lang": 6572, "mm": 6573, "\u0120wunsch": 6574, "\u0120hop": 6575, "\u0120hence": 6576, "\u0120cal": 6577, "\u0120behin": 6578, "\u0120zer": 6579, "\u0120ones": 6580, "\u0120dep": 6581, "\u0120entit": 6582, "\u0120beruf": 6583, "\u0120berichten": 6584, "\u0120urs": 6585, "\u0120lost": 6586, "\u0120employe": 6587, "\u0120character": 6588, "\u0120priorit\u00c3\u00a4t": 6589, "\u0120includes": 6590, "\u0120critical": 6591, "\u0120guarantees": 6592, "zwischen": 6593, "\u0120preca": 6594, "\u0120gr\u00c3\u00bcnde": 6595, "\u0120gedanken": 6596, "\u0120tasks": 6597, "\u0120opposed": 6598, "\u0120judicial": 6599, "\u0120ordnungs": 6600, "\u0120promoting": 6601, "\u0120suspend": 6602, "l\u00c3\u00a4\u00c3\u0141lich": 6603, "\u0120kommissionsmitglied": 6604, "\u0120eingereicht": 6605, "\u0120reagieren": 6606, "\u0120konstrukt": 6607, "craft": 6608, "\u0120fift": 6609, "\u0120col": 6610, "\u0120came": 6611, "\u0120vig": 6612, "\u0120toler": 6613, "\u0120todes": 6614, "\u0120verfass": 6615, "\u0120st\u00c3\u00a4d": 6616, "\u0120impression": 6617, "\u0120jugoslaw": 6618, "\u0120usw": 6619, "\u0120politischer": 6620, "\u0120freien": 6621, "\u0120solcher": 6622, "\u0120plant": 6623, "\u0120gleichgewicht": 6624, "\u0120einzus": 6625, "\u0120zielen": 6626, "\u0120elected": 6627, "reitung": 6628, "\u0120besch\u00c3\u00a4ftigen": 6629, "\u0120verantwortungs": 6630, "\u0120dienste": 6631, "\u0120zugunsten": 6632, "\u0120wesentliche": 6633, "\u0120vorgeschlagene": 6634, "\u0120st\u00c3\u00a4rkung": 6635, "\u0120benefits": 6636, "\u0120carefully": 6637, "\u0120western": 6638, ")).": 6639, "\u0120minority": 6640, "\u0120highlight": 6641, "\u0120vollst\u00c3\u00a4ndig": 6642, "\u0120speziell": 6643, "\u0120wiederholen": 6644, "\u0120ausgezeichneten": 6645, "str\u00c3\u00b6m": 6646, "m\u00c3\u00b6glichkeiten": 6647, "sammlung": 6648, "eig": 6649, "f\u00c3\u00a4lt": 6650, "m\u00c3\u00a4r": 6651, "sh": 6652, "sk": 6653, "sized": 6654, "enze": 6655, "\u0120dre": 6656, "\u0120mold": 6657, "\u0120fu": 6658, "\u0120inzwischen": 6659, "\u0120ku": 6660, "\u0120er\u00c3\u00b6r": 6661, "\u0120alt": 6662, "\u012022": 6663, "\u0120genere": 6664, "\u00c3\u00b6rdert": 6665, "\u0120moz": 6666, "\u0120solange": 6667, "\u0120roth": 6668, "\u012031": 6669, "\u0120laid": 6670, "\u0120schweden": 6671, "\u0120achten": 6672, "\u0120persons": 6673, "\u0120cooper": 6674, "richten": 6675, "\u0120anderem": 6676, "\u0120technologies": 6677, "\u0120evidence": 6678, "\u0120shows": 6679, "\u0120ethiop": 6680, "\u0120widerspruch": 6681, "\u0120operations": 6682, "\u0120analyse": 6683, "\u0120italy": 6684, "\u0120obligations": 6685, "\u0120network": 6686, "\u0120package": 6687, "\u0120sogenannten": 6688, "freiheit": 6689, "ruption": 6690, "\u0120herzlich": 6691, "\u0120floor": 6692, "cod": 6693, "ots": 6694, "ones": 6695, "ano": 6696, "\u0120anteil": 6697, "gef": 6698, "\u0120erkennen": 6699, "\u0120vorzulegen": 6700, "\u0120managed": 6701, "\u0120quor": 6702, "\u0120mitglieds": 6703, "\u0120outcome": 6704, "\u0120vorschlagen": 6705, "\u0120perman": 6706, "\u0120monate": 6707, "\u00c3\u00a4lter": 6708, "\u0120letztend": 6709, "\u0120interesting": 6710, "\u0120demokratische": 6711, "tr\u00c3\u00a4cht": 6712, "\u0120globalisation": 6713, "\u0120aircraft": 6714, "\u0120introduction": 6715, "\u0120t\u00c3\u00bcrk": 6716, "leiten": 6717, "\u0120railway": 6718, "\u0120sinnvoll": 6719, "\u0120korre": 6720, "\u0120krisen": 6721, "\u0120impossible": 6722, "\u0120schemes": 6723, "\u0120meeres": 6724, "\u0120beschl\u00c3\u00bcsse": 6725, "\u0120perfectly": 6726, "\u0120degree": 6727, "\u0120rechnungshof": 6728, "rate": 6729, "volle": 6730, "zer": 6731, "\u0120tut": 6732, "\u0120bra": 6733, "\u0120mission": 6734, "\u0120publ": 6735, "arch": 6736, "\u0120kop": 6737, "\u0120lay": 6738, "\u0120lau": 6739, "\u0120stimmt": 6740, "osition": 6741, "\u0120ausges": 6742, "\u0120kommissionspr\u00c3\u00a4sident": 6743, "tedly": 6744, "uell": 6745, "\u0120facing": 6746, "\u00c3\u00a4rz": 6747, "\u0120umweltschutz": 6748, "\u0120umweltfragen": 6749, "\u0120personally": 6750, "\u0120delighted": 6751, "\u0120immigran": 6752, "\u0120advoc": 6753, "\u0120starting": 6754, "\u0120erw\u00c3\u00a4hn": 6755, "\u0120pr\u00c3\u00bcfung": 6756, "\u0120strongly": 6757, "\u0120mechanisms": 6758, "\u0120erh\u00c3\u00b6hung": 6759, "\u0120infrastruktur": 6760, "\u0120facilit": 6761, "\u0120landwirte": 6762, "\u0120intends": 6763, "iate": 6764, "iable": 6765, "krat": 6766, "nimmt": 6767, "systeme": 6768, "wing": 6769, "\u0120tib": 6770, "\u0120fil": 6771, "\u0120einrichtung": 6772, "\u0120aufzunehmen": 6773, "\u0120jetz": 6774, "\u0120coll": 6775, "indung": 6776, "\u0120yugosla": 6777, "\u0120finance": 6778, "\u0120generation": 6779, "ierende": 6780, "head": 6781, "\u0120submit": 6782, "akte": 6783, "fordern": 6784, "\u0120supporting": 6785, "\u0120responsibilities": 6786, "\u0120wirklichkeit": 6787, "\u0120attach": 6788, "licherweise": 6789, "\u0120bedeuten": 6790, "\u0120extreme": 6791, "\u0120zur\u00c3\u00bcckge": 6792, "\u0120197": 6793, "\u0120fischler": 6794, "\u0120aufgefordert": 6795, "\u0120britischen": 6796, "\u0120unterschiedlichen": 6797, "\u0120displa": 6798, "\u0120fortschritt": 6799, "\u0120einbezogen": 6800, "\u0120spanien": 6801, "\u0120reinfor": 6802, "\u0120eastern": 6803, "organisationen": 6804, "\u0120quotas": 6805, "qualit\u00c3\u00a4t": 6806, "vis": 6807, "ya": 6808, "\u0120ut": 6809, "\u0120m\u00c3\u00bc": 6810, "\u0120h\u00c3\u00a4lt": 6811, "\u0120vision": 6812, "\u0120ungleich": 6813, "\u0120anstatt": 6814, "tete": 6815, "oms": 6816, "\u0120rechten": 6817, "\u0120lies": 6818, "\u00c3\u00b6der": 6819, "\u0120er\u00c3\u00b6": 6820, "verfol": 6821, "\u0120miteinander": 6822, "\u0120paral": 6823, "ateful": 6824, "\u0120gespr\u00c3\u00a4": 6825, "\u0120meinungs": 6826, "\u0120betont": 6827, "nahm": 6828, "f\u00c3\u00bchrungs": 6829, "reichung": 6830, "\u0120300": 6831, "\u0120weiterer": 6832, "\u0120approve": 6833, "\u00c3\u00a4tze": 6834, "ruh": 6835, "\u0120milch": 6836, "\u0120competitive": 6837, "\u0120expression": 6838, "\u0120katifor": 6839, "\u0120erzeuger": 6840, "\u0120surpr": 6841, "\u0120flexibility": 6842, "\u0120umfassende": 6843, "\u0120vorbereitung": 6844, "\u0120erzielt": 6845, "ypern": 6846, "\u0120\u00c3\u00bcbergangs": 6847, "\u0120auditors": 6848, "border": 6849, "\u0120precaution": 6850, "\u0120mozamb": 6851, "\u0120yugoslav": 6852, "\u0120katiforis": 6853, "cent": 6854, "\u0120\u00c3\u00a4rm": 6855, "\u0120thor": 6856, "onien": 6857, "\u0120wissens": 6858, "altet": 6859, "\u0120anz": 6860, "\u0120told": 6861, "\u0120whil": 6862, "ump": 6863, "\u0120constitutional": 6864, "\u0120schreiben": 6865, "\u0120mazed": 6866, "spekt": 6867, "ienz": 6868, "\u0120tex": 6869, "\u00c3\u00bcnden": 6870, "ples": 6871, "\u0120emission": 6872, "\u0120bound": 6873, "\u0120wenigen": 6874, "\u0120arbeitszeit": 6875, "\u0120integrated": 6876, "\u0120besonderen": 6877, "\u0120happening": 6878, "\u0120judgement": 6879, "\u0120metho": 6880, "\u0120greek": 6881, "systems": 6882, "grenzung": 6883, "\u0120\u00c3\u00bcberpr\u00c3\u00bcfung": 6884, "\u0120verh\u00c3\u00a4ltnis": 6885, "\u0120ge\u00c3\u00a4u\u00c3\u0141ert": 6886, "\u0120ge\u00c3\u00a4ndert": 6887, "\u0120witness": 6888, "\u0120schl\u00c3\u00a4gt": 6889, "\u0120whilst": 6890, "punkte": 6891, "enkt": 6892, "\u0120sah": 6893, "orgt": 6894, "\u0120anla\u00c3\u0141": 6895, "\u0120angriff": 6896, "\u0120beig": 6897, "\u0120beef": 6898, "\u0120zypern": 6899, "\u0120isol": 6900, "\u0120rejected": 6901, "elassen": 6902, "geiz": 6903, "\u0120erf": 6904, "halte": 6905, "enswert": 6906, "\u0120heav": 6907, "\u0120diox": 6908, "\u0120compla": 6909, "\u0120sold": 6910, "\u0120internationaler": 6911, "\u0120erwart": 6912, "\u0120positions": 6913, "\u0120debates": 6914, "\u0120balanced": 6915, "\u0120irland": 6916, "\u0120erfordert": 6917, "\u0120bew\u00c3\u00a4lt": 6918, "jekt": 6919, "\u0120elimin": 6920, "\u0120erfolgt": 6921, "tr\u00c3\u00a4gen": 6922, "\u0120beziehen": 6923, "\u0120erzeugnisse": 6924, "\u0120destro": 6925, "\u0120tests": 6926, "\u0120distribution": 6927, "\u0120schiffe": 6928, "\u0120ehrgeiz": 6929, "\u0120planning": 6930, "\u0120beeintr\u00c3\u00a4cht": 6931, "chr\u00c3\u00a4nkt": 6932, "\u0120advantage": 6933, "\u0120forthcoming": 6934, "\u0120letztendlich": 6935, "\u0120tibet": 6936, "bol": 6937, "oo": 6938, "pie": 6939, "ren": 6940, "rig": 6941, "\u0120treten": 6942, "ona": 6943, "\u0120bind": 6944, "\u0120mach": 6945, "orted": 6946, "orient": 6947, "\u0120phil": 6948, "\u0120anfragen": 6949, "\u0120anforderungen": 6950, "\u00c3\u00bcben": 6951, "\u0120krank": 6952, "\u0120einerseits": 6953, "\u0120gehe": 6954, "\u0120jem": 6955, "\u0120abol": 6956, "ivit\u00c3\u00a4t": 6957, "\u0120exc": 6958, "spar": 6959, "iform": 6960, "\u0120comply": 6961, "\u0120gewissen": 6962, "\u0120serve": 6963, "\u0120insurance": 6964, "\u0120factor": 6965, "\u0120einger": 6966, "\u0120welcom": 6967, "\u0120board": 6968, "\u0120betr\u00c3\u00a4cht": 6969, "\u0120flugh": 6970, "\u0120getting": 6971, "\u0120scra": 6972, "\u0120vorschlags": 6973, "\u0120seitens": 6974, "\u0120teilweise": 6975, "\u0120represents": 6976, "\u0120signed": 6977, "parl": 6978, "\u0120gr\u00c3\u00b6\u00c3\u0141er": 6979, "\u0120unterschiede": 6980, "\u0120gew\u00c3\u00a4hrleistet": 6981, "\u0120succeed": 6982, "\u0120f\u00c3\u00a4llt": 6983, "\u0120voraussetzungen": 6984, "\u0120erfolgreich": 6985, "\u0120combating": 6986, "\u0120closer": 6987, "\u0120wissenschaftlichen": 6988, "\u0120reaction": 6989, "\u0120claim": 6990, "\u0120uneinges": 6991, "\u0120februar": 6992, "\u0120february": 6993, "\u0120experts": 6994, "\u0120consultation": 6995, "\u0120tackle": 6996, "\u0120sellaf": 6997, "\u0120polizei": 6998, "\u0120cyprus": 6999, "zent": 7000, "instrument": 7001, "\u0120setzt": 7002, "\u0120systeme": 7003, "\u0120cust": 7004, "\u0120gmos": 7005, "\u0120anliegen": 7006, "\u0120whate": 7007, "\u0120soeben": 7008, "bene": 7009, "\u0120coup": 7010, "\u0120abst": 7011, "\u0120\u00c3\u00bcberlegungen": 7012, "steht": 7013, "gested": 7014, "\u0120enj": 7015, "\u0120hindern": 7016, "\u0120warten": 7017, "\u0120gegenseit": 7018, "\u0120damals": 7019, "\u0120efficiency": 7020, "front": 7021, "\u0120geb\u00c3\u00bchr": 7022, "\u0120discip": 7023, "\u0120welch": 7024, "\u0120offiz": 7025, "\u0120added": 7026, "\u0120regionalpolitik": 7027, "\u0120befug": 7028, "\u0120technologien": 7029, "\u0120operators": 7030, "\u0120flexible": 7031, "\u0120obligation": 7032, "\u0120schlimm": 7033, "afo": 7034, "\u0120einschr\u00c3\u00a4n": 7035, "\u0120informationsgesellschaft": 7036, "\u0120construction": 7037, "\u0120mosamb": 7038, "\u0120gave": 7039, "\u0120sellafield": 7040, "\u0120whatever": 7041, "\u0120bird": 7042, "\u0120m\u00c3\u00bcnd": 7043, "\u0120n\u00c3\u00b6t": 7044, "\u00c3\u00bcckt": 7045, "\u00c3\u00a4h": 7046, "\u0120einig": 7047, "\u0120lann": 7048, "\u0120lag": 7049, "\u0120verweisen": 7050, "\u00c3\u00b6hn": 7051, "\u0120geist": 7052, "\u0120vorzu": 7053, "\u0120leiden": 7054, "pped": 7055, "spolit": 7056, "\u0120dopp": 7057, "\u0120enor": 7058, "\u0120faced": 7059, "\u0120konvention": 7060, "\u0120compar": 7061, "\u0120hinweis": 7062, "\u0120mitgliedern": 7063, "\u0120series": 7064, "r\u00c3\u00a4um": 7065, "\u0120beings": 7066, "\u0120knows": 7067, "\u0120expens": 7068, "\u0120danach": 7069, "\u0120versch\u00c3\u00a4r": 7070, "iode": 7071, "\u0120positiven": 7072, "struction": 7073, "\u0120involves": 7074, "\u0120charakter": 7075, "fassend": 7076, "\u0120klaren": 7077, "reitet": 7078, "\u0120verantwortlich": 7079, "\u0120brenn": 7080, "\u0120f\u00c3\u00b6rder": 7081, "bauen": 7082, "\u0120klim": 7083, "\u0120auton": 7084, "\u0120aims": 7085, "dienste": 7086, "\u0120surely": 7087, "\u0120w\u00c3\u00bcnschen": 7088, "\u0120betreffenden": 7089, "\u0120timet": 7090, "\u0120symbol": 7091, "\u0120bieten": 7092, "\u0120methods": 7093, "vergence": 7094, "\u0120thousands": 7095, "\u0120benachteil": 7096, "\u0120grenz\u00c3\u00bcberschreit": 7097, "\u0120mozambique": 7098, "\u0120enjoy": 7099, "\u0120lannoy": 7100, "aden": 7101, "nitt": 7102, "yer": 7103, "ino": 7104, "atischen": 7105, "\u0120base": 7106, "\u0120inade": 7107, "ara": 7108, "\u0120nafo": 7109, "stuff": 7110, "\u0120kriminal": 7111, "\u0120react": 7112, "\u0120zufolge": 7113, "\u0120ergeben": 7114, "\u0120erleicht": 7115, "\u0120gezeigt": 7116, "andal": 7117, "\u0120desire": 7118, "\u0120\u00c3\u00bcbertragen": 7119, "\u0120grateful": 7120, "\u0120dipl": 7121, "\u0120nachdr\u00c3\u00bccklich": 7122, "\u0120ratifiz": 7123, "f\u00c3\u00bchrten": 7124, "sibly": 7125, "\u01201994": 7126, "\u012032": 7127, "\u0120sozialschutz": 7128, "\u0120assure": 7129, "haften": 7130, "\u0120angeht": 7131, "\u0120regionale": 7132, "\u0120irre": 7133, "\u0120gr\u00c3\u00b6\u00c3\u0141te": 7134, "\u0120stehenden": 7135, "\u0120besseren": 7136, "\u0120strukturen": 7137, "\u0120protocol": 7138, "\u0120gradu": 7139, "\u0120please": 7140, "\u0120bilden": 7141, "\u0120griech": 7142, "europe": 7143, "\u0120sektoren": 7144, "\u0120target": 7145, "\u0120occasion": 7146, "beh\u00c3\u00b6rde": 7147, "\u0120acquis": 7148, "\u0120incineration": 7149, "\u0120detailed": 7150, "\u0120arrangements": 7151, "\u0120deutschland": 7152, "\u0120lannoye": 7153, "\u0120diplom": 7154, "\u0120dub": 7155, "\u0120pill": 7156, "ances": 7157, "arks": 7158, "\u0120night": 7159, "\u0120lob": 7160, "\u0120consens": 7161, "\u0120convergence": 7162, "\u00c3\u00a4ngen": 7163, "\u0120berat": 7164, "\u0120attend": 7165, "\u0120appoint": 7166, "\u0120compuls": 7167, "\u0120subvention": 7168, "\u012035": 7169, "\u0120gelangen": 7170, "\u0120urgency": 7171, "\u0120drast": 7172, "\u0120realit\u00c3\u00a4t": 7173, "\u0120folgendes": 7174, "\u0120gef\u00c3\u00b6rdert": 7175, "\u0120director": 7176, "\u0120sensible": 7177, "\u0120taxation": 7178, "\u0120hervorheben": 7179, "zielle": 7180, "\u0120gegebenen": 7181, "\u0120visit": 7182, "\u0120angebracht": 7183, "\u0120fl\u00c3\u00bcchtlinge": 7184, "\u0120appears": 7185, "entwicklung": 7186, "\u0120conduct": 7187, "\u0120angola": 7188, "\u0120influence": 7189, "sc": 7190, "uerung": 7191, "wass": 7192, "\u0120apart": 7193, "chsel": 7194, "\u0120sad": 7195, "unruh": 7196, "atively": 7197, "rochen": 7198, "\u0120unl": 7199, "entions": 7200, "\u0120beunruh": 7201, "omb": 7202, "icip": 7203, "oler": 7204, "\u0120wege": 7205, "\u0120prosper": 7206, "\u0120prison": 7207, "\u0120suchen": 7208, "istan": 7209, "\u0120compl": 7210, "\u0120decis": 7211, "\u0120produz": 7212, "\u0120launch": 7213, "\u0120gelungen": 7214, "\u0120verschle": 7215, "\u0120bekr\u00c3\u00a4ft": 7216, "\u01202006": 7217, "\u0120gr\u00c3\u00b6\u00c3\u0141eren": 7218, "\u012095": 7219, "\u0120verloren": 7220, "\u0120guaranteed": 7221, "stoff": 7222, "\u0120examine": 7223, "\u0120causes": 7224, "\u0120linked": 7225, "\u0120konflik": 7226, "\u0120territory": 7227, "\u0120\u00c3\u00bcberzeugung": 7228, "\u0120inflation": 7229, "\u0120constructive": 7230, "\u0120nahe": 7231, "\u0120occasions": 7232, "\u0120sources": 7233, "\u0120schweiz": 7234, "\u0120consensus": 7235, "kret": 7236, "lose": 7237, "\u0120wann": 7238, "orf": 7239, "\u0120federal": 7240, "\u0120kre": 7241, "\u0120kil": 7242, "\u0120late": 7243, "\u0120forced": 7244, "ereign": 7245, "\u0120abgestimmt": 7246, "\u0120legen": 7247, "\u0120allzu": 7248, "bef": 7249, "behand": 7250, "\u0120incident": 7251, "\u01201993": 7252, "\u0120nationaler": 7253, "\u0120differences": 7254, "\u0120abgele": 7255, "\u0120betrieb": 7256, "\u0120entwicklungspolitik": 7257, "\u0120notwendige": 7258, "\u0120investments": 7259, "versorgung": 7260, "\u0120niemals": 7261, "\u0120presse": 7262, "\u0120vorliegende": 7263, "\u0120consequently": 7264, "\u0120ernsthaft": 7265, "\u0120disasters": 7266, "\u0120roma": 7267, "\u0120verst\u00c3\u00a4ndnis": 7268, "\u0120evalu": 7269, "\u0120bureauc": 7270, "\u0120disease": 7271, "strategie": 7272, "\u0120ausgesprochen": 7273, "04": 7274, "das": 7275, "pakt": 7276, "ris": 7277, "va": 7278, "wach": 7279, "\u0120dig": 7280, "reche": 7281, "\u0120nation": 7282, "\u0120vice": 7283, "ibed": 7284, "\u0120manage": 7285, "\u0120durchzuf\u00c3\u00bchren": 7286, "\u0120freiz": 7287, "\u0120umwel": 7288, "\u012048": 7289, "\u0120schwed": 7290, "\u0120letzter": 7291, "\u0120eingef\u00c3\u00bchrt": 7292, "\u0120continent": 7293, "\u0120simbabwe": 7294, "zusammen": 7295, "\u0120untersche": 7296, "\u0120defined": 7297, "\u0120controls": 7298, "\u0120freiheiten": 7299, "\u0120label": 7300, "\u0120growing": 7301, "kommt": 7302, "\u0120amerikan": 7303, "\u0120beteiligten": 7304, "\u0120fighting": 7305, "\u0120closed": 7306, "\u0120amongst": 7307, "\u0120participate": 7308, "\u0120ignor": 7309, "\u0120trotzdem": 7310, "\u0120designed": 7311, "\u0120virt": 7312, "\u0120precautionary": 7313, "\u0120compulsory": 7314, "%.": 7315, "active": 7316, "erma\u00c3\u0141en": 7317, "\u0120sla": 7318, "\u0120session": 7319, "ars": 7320, "lling": 7321, "\u0120kan": 7322, "\u0120loss": 7323, "\u0120fordert": 7324, "\u0120erm": 7325, "\u0120prime": 7326, "\u0120vorange": 7327, "\u0120vorgenommen": 7328, "\u0120ausger": 7329, "\u0120section": 7330, "\u0120seven": 7331, "\u0120maast": 7332, "ike": 7333, "\u0120\u00c3\u00bcbernommen": 7334, "\u0120failed": 7335, "pr\u00c3\u00a4sident": 7336, "igkeits": 7337, "\u0120gegenstand": 7338, "\u0120subsequ": 7339, "\u0120gewi\u00c3\u0141": 7340, "\u0120informieren": 7341, "barer": 7342, "\u0120factors": 7343, "\u0120socialist": 7344, "\u0120frist": 7345, "\u0120citizen": 7346, "\u0120zahlreichen": 7347, "\u0120allowing": 7348, "\u0120postpon": 7349, "\u0120meetings": 7350, "\u0120individuals": 7351, "\u0120greens": 7352, "\u0120examples": 7353, "\u0120praktisch": 7354, "\u0120hintergrund": 7355, "\u0120conflicts": 7356, "\u0120drawing": 7357, "\u0120fr\u00c3\u00bcher": 7358, "\u0120arbeitspl\u00c3\u00a4tzen": 7359, "\u0120erh\u00c3\u00b6hen": 7360, "stellungen": 7361, "grenzen": 7362, "besch\u00c3\u00a4ft": 7363, "\u0120elsewhere": 7364, "\u0120bananen": 7365, "\u0120separate": 7366, "\u0120diversity": 7367, "\u0120clean": 7368, "\u0120smoking": 7369, "fleisch": 7370, "\u0120ordnungsgem\u00c3\u00a4\u00c3\u0141": 7371, "\u0120maastricht": 7372, "l\u00c3\u00a4ss": 7373, "miss": 7374, "path": 7375, "erves": 7376, "attet": 7377, "\u0120hund": 7378, "emit": 7379, "\u0120verhe": 7380, "\u0120verstanden": 7381, "amer": 7382, "\u0120range": 7383, "\u0120soweit": 7384, "oses": 7385, "\u0120gepr\u00c3\u00bc": 7386, "\u0120thereby": 7387, "\u0120chem": 7388, "\u0120worse": 7389, "\u0120politic": 7390, "f\u00c3\u00bchl": 7391, "\u0120justified": 7392, "\u0120monat": 7393, "\u0120bezahl": 7394, "\u0120welcher": 7395, "selben": 7396, "\u0120feststellung": 7397, "ampag": 7398, "\u0120lastly": 7399, "\u0120ausgehen": 7400, "\u0120afrikanischen": 7401, "\u0120immun": 7402, "\u0120referend": 7403, "\u0120defiz": 7404, "stehenden": 7405, "\u0120n\u00c3\u00a4chste": 7406, "\u0120waffen": 7407, "\u0120contained": 7408, "\u0120suggested": 7409, "\u0120protecting": 7410, "\u0120serbia": 7411, "\u0120l\u00c3\u00a4ndliche": 7412, "\u0120erheblich": 7413, "\u0120lower": 7414, "\u0120materials": 7415, "\u0120grundlegende": 7416, "\u0120drittl\u00c3\u00a4ndern": 7417, "\u0120ceil": 7418, "\u0120types": 7419, "\u0120verabschiedet": 7420, "\u0120letztlich": 7421, "\u0120gratulieren": 7422, "\u0120malta": 7423, "eigne": 7424, "\u0120ethiopia": 7425, "dle": 7426, "uver": 7427, "\u0120s\u00c3\u00a4": 7428, "itable": 7429, "\u0120verwe": 7430, "\u0120zugr": 7431, "\u0120stip": 7432, "\u0120auftreten": 7433, "\u0120jap": 7434, "ivity": 7435, "\u0120\u00c3\u00bcberall": 7436, "l\u00c3\u00a4ge": 7437, "\u0120socialists": 7438, "\u0120einzigen": 7439, "istenz": 7440, "\u0120angeh\u00c3\u00b6r": 7441, "actory": 7442, "ables": 7443, "\u0120highest": 7444, "\u0120guter": 7445, "\u0120belong": 7446, "\u0120sensib": 7447, "\u0120started": 7448, "\u0120passed": 7449, "\u0120meaning": 7450, "\u0120vorsorge": 7451, "\u0120k\u00c3\u00bcnftigen": 7452, "\u0120vereinbarungen": 7453, "\u0120exclusion": 7454, "\u0120effizienz": 7455, "\u0120wachstums": 7456, "\u0120irgendein": 7457, "\u0120j\u00c3\u00bcngsten": 7458, "\u0120botschaft": 7459, "\u0120\u00c3\u00a4thiopien": 7460, "parliament": 7461, "\u0120mosambik": 7462, "\u0120zugrunde": 7463, "brit": 7464, "cast": 7465, "cision": 7466, "\u0120\u00c3\u00a4rz": 7467, "atur": 7468, "atible": 7469, "\u0120bir": 7470, "\u0120bol": 7471, "\u0120hul": 7472, "\u0120h\u00c3\u00b6ren": 7473, "asch": 7474, "asse": 7475, "urd": 7476, "\u0120kennen": 7477, "\u0120island": 7478, "\u0120einigung": 7479, "utter": 7480, "\u0120rind": 7481, "\u0120rational": 7482, "\u0120schrift": 7483, "spunkt": 7484, "\u0120sichern": 7485, "ibiot": 7486, "pected": 7487, "\u0120m\u00c3\u00b6glichen": 7488, "\u0120tagen": 7489, "\u0120genannt": 7490, "akis": 7491, "\u0120foot": 7492, "\u0120considers": 7493, "\u0120evening": 7494, "\u0120resolve": 7495, "\u0120truly": 7496, "\u0120besch\u00c3\u00a4ftigt": 7497, "\u0120einzelstaat": 7498, "uropa": 7499, "rechtlichen": 7500, "\u0120speaker": 7501, "\u0120kleine": 7502, "\u0120precise": 7503, "\u0120fehlen": 7504, "\u0120italian": 7505, "\u0120familie": 7506, "\u0120families": 7507, "kosten": 7508, "\u0120fremdenverkehr": 7509, "\u0120russia": 7510, "\u0120details": 7511, "\u0120ordnung": 7512, "\u0120bedauer": 7513, "\u0120lebensmittelsicherheit": 7514, "\u0120verletzung": 7515, "\u0120horiz": 7516, "\u0120biotechn": 7517, "\u0120gepr\u00c3\u00bcft": 7518, "-,": 7519, "ball": 7520, "greif": 7521, "hib": 7522, "kungen": 7523, "nes": 7524, "pers": 7525, "\u0120ank": 7526, "\u0120verwirk": 7527, "schung": 7528, "\u0120prospect": 7529, "\u0120aufsch": 7530, "\u00c3\u00a4nge": 7531, "\u0120sch\u00c3\u00a4d": 7532, "ikations": 7533, "\u0120exists": 7534, "ugg": 7535, "schau": 7536, "\u0120gesp": 7537, "seh": 7538, "\u0120obsta": 7539, "\u00c3\u00bcnde": 7540, "\u00c3\u00a4tigkeit": 7541, "\u00c3\u00b6rper": 7542, "\u0120entweder": 7543, "\u0120somewh": 7544, "\u0120worked": 7545, "\u0120wirtschaftspolitik": 7546, "worfen": 7547, "\u0120expert": 7548, "\u0120antibiot": 7549, "\u0120scale": 7550, "\u0120bek\u00c3\u00a4mpfen": 7551, "endence": 7552, "\u0120trend": 7553, "\u0120zielsetzungen": 7554, "\u0120simpl": 7555, "\u0120institutionellen": 7556, "\u0120milose": 7557, "\u0120energien": 7558, "\u0120vorgelegten": 7559, "\u0120supply": 7560, "\u0120violations": 7561, "\u0120telecommun": 7562, "\u0120spanish": 7563, "\u0120imposed": 7564, "\u0120profession": 7565, "\u0120beschr\u00c3\u00a4nken": 7566, "\u0120briefly": 7567, "regelung": 7568, "\u0120bilateral": 7569, "\u0120spricht": 7570, "\u0120elektronischen": 7571, "\u0120wales": 7572, "\u0120sovereign": 7573, "\u0120vessels": 7574, "\u0120japan": 7575, "\u0120obstac": 7576, "\u0120somewhat": 7577, "based": 7578, "feit": 7579, "nerst": 7580, "rne": 7581, "ule": 7582, "\u01200": 7583, "\u0120essen": 7584, "\u0120dign": 7585, "inc": 7586, "\u0120wom": 7587, "isierten": 7588, "rechten": 7589, "\u0120nro": 7590, "\u0120ky": 7591, "\u0120zuk": 7592, "\u0120conventions": 7593, "imal": 7594, "\u0120ausbe": 7595, "\u0120ausnahme": 7596, "\u0120leid": 7597, "\u0120maced": 7598, "\u0120regular": 7599, "\u0120meant": 7600, "\u0120frag": 7601, "\u0120byrne": 7602, "\u0120atlant": 7603, "\u0120enh": 7604, "\u0120quoten": 7605, "\u0120politics": 7606, "\u0120modell": 7607, "\u0120gewiss": 7608, "\u0120amended": 7609, "\u0120vielfalt": 7610, "chnya": 7611, "\u0120insist": 7612, "\u0120supports": 7613, "\u0120flor": 7614, "legte": 7615, "mittelt": 7616, "\u01202003": 7617, "\u0120arbeitsmarkt": 7618, "\u0120verbessert": 7619, "\u0120verbraucherpolitik": 7620, "\u0120technological": 7621, "wegs": 7622, "\u0120leading": 7623, "\u0120erinnert": 7624, "\u0120binnenmarktes": 7625, "\u0120chechnya": 7626, "\u0120funktioniert": 7627, "\u0120ratspr\u00c3\u00a4sidentschaft": 7628, "\u0120reaktion": 7629, "\u0120erarbeitung": 7630, "\u0120speziellen": 7631, "\u0120juris": 7632, "\u0120incorporated": 7633, "\u0120heimat": 7634, "\u0120stabilit\u00c3\u00a4tspakt": 7635, "\u0120doctors": 7636, "\u0120entitled": 7637, "\u0120employees": 7638, "\u0120mazedonien": 7639, "\u0120timetable": 7640, "besch\u00c3\u00a4ftigung": 7641, "\u0120macedon": 7642, "geln": 7643, "national": 7644, "\u0120won": 7645, "\u0120wat": 7646, "ato": 7647, "\u0120miss": 7648, "\u0120ging": 7649, "\u0120angaben": 7650, "icate": 7651, "\u0120lank": 7652, "ille": 7653, "\u00c3\u00b6konom": 7654, "gende": 7655, "\u0120diesel": 7656, "\u0120sole": 7657, "\u0120schien": 7658, "\u0120seattle": 7659, "\u0120herzen": 7660, "\u0120register": 7661, "bew": 7662, "\u0120darunter": 7663, "wirkt": 7664, "\u0120gericht": 7665, "\u0120gro\u00c3\u0141brit": 7666, "\u0120welchen": 7667, "hagen": 7668, "\u0120wiederum": 7669, "\u0120wiederher": 7670, "\u0120seeking": 7671, "\u0120wenige": 7672, "\u0120rapporteurs": 7673, "\u0120transl": 7674, "\u0120vollkommen": 7675, "\u0120practices": 7676, "\u0120define": 7677, "\u0120operate": 7678, "f\u00c3\u00a4hig": 7679, "\u0120television": 7680, "\u0120border": 7681, "\u0120diskussionen": 7682, "\u0120tobin": 7683, "\u0120links": 7684, "\u0120sexual": 7685, "\u0120entirely": 7686, "\u0120anerkannt": 7687, "\u0120verurteilt": 7688, "\u0120sympath": 7689, "\u0120suffering": 7690, "\u0120promotion": 7691, "\u0120hinzuf\u00c3\u00bcgen": 7692, "\u0120massive": 7693, "\u0120ben\u00c3\u00b6tigen": 7694, "politischen": 7695, "\u0120stadt": 7696, "\u0120abstimmungen": 7697, "\u0120monti": 7698, "opoulos": 7699, "\u0120enterprises": 7700, "\u0120pornography": 7701, "\u0120quorum": 7702, "\u0120\u00c3\u00a4rmsten": 7703, "\u0120birdal": 7704, "stuffs": 7705, "\u0120digital": 7706, "\u0120milosevic": 7707, "\u0120telecommunications": 7708, "\u0120gro\u00c3\u0141britann": 7709, "aust": 7710, "action": 7711, "cement": 7712, "ehm": 7713, "netz": 7714, "uens": 7715, "wal": 7716, "ints": 7717, "\u0120sri": 7718, "\u0120bos": 7719, "\u0120bund": 7720, "\u0120ol": 7721, "\u0120crop": 7722, "\u0120ngos": 7723, "igend": 7724, "\u0120kategor": 7725, "\u0120reiter": 7726, "\u0120verlei": 7727, "\u0120ru\u00c3\u0141": 7728, "anda": 7729, "\u0120abf\u00c3\u00a4lle": 7730, "\u0120umfassend": 7731, "\u0120seines": 7732, "\u0120consolid": 7733, "rates": 7734, "\u01201992": 7735, "\u0120difference": 7736, "\u0120requested": 7737, "\u0120wirkung": 7738, "\u0120remarks": 7739, "\u0120eingehalten": 7740, "\u0120opinions": 7741, "stande": 7742, "\u012070": 7743, "\u0120gr\u00c3\u00b6\u00c3\u0141ten": 7744, "\u0120privaten": 7745, "\u0120befa\u00c3\u0141t": 7746, "\u0120verf\u00c3\u00bcgt": 7747, "\u0120plants": 7748, "\u0120folgende": 7749, "\u0120multi": 7750, "\u0120\u00c3\u00bcbereinstimmung": 7751, "\u0120swed": 7752, "\u0120studies": 7753, "\u0120dringlichkeit": 7754, "\u0120dispos": 7755, "\u0120t\u00c3\u00a4tig": 7756, "\u0120bef\u00c3\u00bcrwor": 7757, "\u0120traditional": 7758, "\u0120w\u00c3\u00bcnsche": 7759, "\u0120agrarpolitik": 7760, "\u0120erzielen": 7761, "commer": 7762, "strafe": 7763, "\u0120allocated": 7764, "\u0120mexic": 7765, "\u0120spoken": 7766, "\u0120kulturellen": 7767, "\u0120sozialdemokrat": 7768, "\u0120manufacturers": 7769, "\u0120targets": 7770, "spartei": 7771, "\u0120jetzigen": 7772, "\u0120thorough": 7773, "cns": 7774, "meld": 7775, "\u0120aver": 7776, "\u0120writ": 7777, "ituation": 7778, "itrak": 7779, "\u0120passen": 7780, "artet": 7781, "\u0120uniform": 7782, "\u0120alter": 7783, "\u0120coherent": 7784, "\u0120ausgrenzung": 7785, "\u0120schott": 7786, "operation": 7787, "\u0120intoler": 7788, "\u0120permit": 7789, "\u0120accounts": 7790, "\u0120placed": 7791, "ception": 7792, "\u0120greatest": 7793, "\u0120rechtsstaat": 7794, "\u0120rechtfert": 7795, "\u0120scr": 7796, "\u0120wichtiges": 7797, "\u0120wichtigste": 7798, "klang": 7799, "\u0120bringing": 7800, "\u0120idee": 7801, "\u0120requirement": 7802, "\u0120begr\u00c3\u00bc\u00c3\u0141t": 7803, "\u0120dritte": 7804, "\u0120bem\u00c3\u00bchen": 7805, "\u0120dimitrak": 7806, "\u0120festgelegten": 7807, "\u0120unverz\u00c3\u00bc": 7808, "\u0120reconstruction": 7809, "\u0120zusatzstoffe": 7810, "\u0120counterfeit": 7811, "\u0120chairman": 7812, "\u0120b\u00c3\u00bcrokrat": 7813, "\u0120tschetschenien": 7814, "\u0120permanent": 7815, "\u0120parallel": 7816, "\u0120abgelehnt": 7817, "\u0120zuk\u00c3\u00bcnft": 7818, "commerce": 7819, "\u0120dimitrakopoulos": 7820, "fun": 7821, "krit": 7822, "uner": 7823, "\u0120beur": 7824, "\u0120tool": 7825, "ract": 7826, "uting": 7827, "\u0120habit": 7828, "\u0120stor": 7829, "eregel": 7830, "\u0120souver": 7831, "\u0120alarm": 7832, "\u0120geeigne": 7833, "\u0120mitteilen": 7834, "\u0120depart": 7835, "pping": 7836, "\u0120existence": 7837, "\u0120hersteller": 7838, "behr": 7839, "\u0120diam": 7840, "\u0120quote": 7841, "\u0120hoffnung": 7842, "\u0120sake": 7843, "\u0120zwangs": 7844, "\u0120moving": 7845, "\u0120warm": 7846, "aket": 7847, "\u0120festzulegen": 7848, "\u0120rechtlichen": 7849, "\u0120realise": 7850, "\u0120approx": 7851, "\u0120bestimmter": 7852, "\u0120gutes": 7853, "\u0120entscheidungs": 7854, "\u0120stra\u00c3\u0141en": 7855, "\u0120revolution": 7856, "\u0120zugelassen": 7857, "\u0120ready": 7858, "\u0120opening": 7859, "\u0120occup": 7860, "letzt": 7861, "\u0120russian": 7862, "\u0120restric": 7863, "\u0120stoffe": 7864, "\u0120bedauern": 7865, "\u0120best\u00c3\u00a4tigt": 7866, "\u0120betrugs": 7867, "\u0120umst\u00c3\u00a4nden": 7868, "\u0120mitarbeiter": 7869, "\u0120substance": 7870, "\u0120beiget": 7871, "\u0120binding": 7872, "\u0120dignity": 7873, "avour": 7874, "det": 7875, "hle": 7876, "set": 7877, "\u0120\u00c3\u00a4lter": 7878, "\u0120gap": 7879, "\u0120unre": 7880, "\u0120anwend": 7881, "\u0120angest": 7882, "\u0120anzahl": 7883, "leun": 7884, "\u0120zigaret": 7885, "ama": 7886, "\u0120zuletzt": 7887, "\u0120wealth": 7888, "\u0120denmark": 7889, "\u0120imag": 7890, "\u0120vorteil": 7891, "\u0120ausreichen": 7892, "\u0120leute": 7893, "abor": 7894, "tsein": 7895, "\u0120sieben": 7896, "\u0120oral": 7897, "ields": 7898, "\u0120geste": 7899, "ained": 7900, "\u0120nachbar": 7901, "\u0120konzept": 7902, "\u0120emb": 7903, "\u0120mehrfach": 7904, "\u0120beschleun": 7905, "\u0120basque": 7906, "\u0120etc": 7907, "\u0120considerations": 7908, "\u0120weiteres": 7909, "\u0120antis": 7910, "finanz": 7911, "\u0120mittelpunkt": 7912, "\u0120versicher": 7913, "\u0120beispiele": 7914, "\u0120verlangen": 7915, "\u0120built": 7916, "\u0120supposed": 7917, "\u0120tourismus": 7918, "\u0120recognition": 7919, "\u0120exclus": 7920, "\u0120subsidiarit\u00c3\u00a4t": 7921, "\u0120poorest": 7922, "\u0120fordere": 7923, "\u0120immediate": 7924, "\u0120northern": 7925, "vergenz": 7926, "\u0120d\u00c3\u00a4nem": 7927, "\u0120niedrig": 7928, "\u0120concentrate": 7929, "\u0120immigrants": 7930, "\u0120erwartungen": 7931, "\u0120vorsorgeprinzip": 7932, "bie": 7933, "econom": 7934, "wide": 7935, "\u0120tse": 7936, "\u0120tenden": 7937, "\u0120tief": 7938, "atom": 7939, "\u0120ey": 7940, "\u0120pie": 7941, "\u0120ost": 7942, "\u0120ansch": 7943, "\u0120ziff": 7944, "utung": 7945, "\u0120versammlung": 7946, "lichung": 7947, "ilater": 7948, "\u0120stunden": 7949, "\u0120forts": 7950, "\u0120prove": 7951, "\u0120erle": 7952, "vert": 7953, "\u0120mitte": 7954, "\u0120neun": 7955, "\u0120umge": 7956, "\u0120shared": 7957, "\u0120presence": 7958, "\u0120amounts": 7959, "ennungs": 7960, "\u0120konvergenz": 7961, "icks": 7962, "lined": 7963, "\u0120marit": 7964, "\u0120mehreren": 7965, "\u0120richten": 7966, "\u0120assume": 7967, "\u0120envis": 7968, "\u0120angek\u00c3\u00bcnd": 7969, "f\u00c3\u00a4ll": 7970, "\u0120numer": 7971, "\u0120meda": 7972, "\u0120followed": 7973, "standing": 7974, "\u0120offenbar": 7975, "\u0120schwierigen": 7976, "zwungen": 7977, "\u0120understanding": 7978, "\u0120entwicklungsl\u00c3\u00a4nder": 7979, "\u0120drafting": 7980, "\u0120exceed": 7981, "\u0120wait": 7982, "\u0120spielt": 7983, "\u0120fourth": 7984, "\u0120modernisierung": 7985, "\u0120respected": 7986, "\u0120geneva": 7987, "\u0120clarify": 7988, "\u0120legitimate": 7989, "\u0120grundlegenden": 7990, "\u0120improvements": 7991, "\u0120interoperabilit\u00c3\u00a4t": 7992, "\u0120territorial": 7993, "\u0120j\u00c3\u00a4hrlich": 7994, "\u0120changed": 7995, "\u0120versichern": 7996, "\u0120flax": 7997, "\u0120undertakings": 7998, "\u0120announced": 7999, "\u0120kriminalit\u00c3\u00a4t": 8000, "\u0120decisive": 8001, "\u0120souver\u00c3\u00a4n": 8002, "pay": 8003, "ym": 8004, "zb": 8005, "ernen": 8006, "\u0120dom": 8007, "onial": 8008, "este": 8009, "\u0120bran": 8010, "\u0120mug": 8011, "anf": 8012, "ley": 8013, "\u0120zentr": 8014, "igerung": 8015, "\u0120km": 8016, "ragt": 8017, "utor": 8018, "\u0120aust": 8019, "\u0120rich": 8020, "\u0120geber": 8021, "verletz": 8022, "\u0120mitentscheid": 8023, "\u0120sch\u00c3\u00a4den": 8024, "\u0120mak": 8025, "\u0120tagung": 8026, "\u0120disag": 8027, "\u01202010": 8028, "\u0120spending": 8029, "\u0120possibly": 8030, "ishing": 8031, "\u0120marine": 8032, "\u0120margin": 8033, "\u01201990": 8034, "\u0120round": 8035, "vorsitz": 8036, "\u0120organe": 8037, "\u0120gel\u00c3\u00b6st": 8038, "\u0120wirklichen": 8039, "terno": 8040, "\u0120500": 8041, "\u00c3\u00a4tzen": 8042, "\u0120secure": 8043, "\u0120equally": 8044, "\u0120wettbewerbspolitik": 8045, "\u0120gesetze": 8046, "\u0120fehlt": 8047, "\u0120release": 8048, "porn": 8049, "\u0120familiar": 8050, "\u0120potent": 8051, "\u0120veget": 8052, "\u0120prinzipien": 8053, "\u0120demonstrated": 8054, "\u0120serbien": 8055, "\u0120untersuchung": 8056, "\u0120extended": 8057, "\u0120franz\u00c3\u00b6sische": 8058, "\u0120tariff": 8059, "\u0120erkennt": 8060, "\u0120lokalen": 8061, "\u00c3\u00a4umt": 8062, "\u0120credibility": 8063, "\u0120unzul": 8064, "\u0120codecision": 8065, "\u0120emergency": 8066, "\u0120interoperability": 8067, "\u0120exploitation": 8068, "\u0120implications": 8069, "\u0120supplementary": 8070, "\u0120infrastructure": 8071, "\u0120hervorgehoben": 8072, "\u0120haupts": 8073, "\u0120vorredner": 8074, "\u0120betreffend": 8075, "\u0120er\u00c3\u00b6ff": 8076, "\u0120swedish": 8077, "\u0120antisemit": 8078, "25": 8079, "session": 8080, "\u0120diss": 8081, "\u0120tiere": 8082, "\u0120akte": 8083, "itel": 8084, "\u0120h\u00c3\u00a4l": 8085, "\u0120n\u00c3\u00bctz": 8086, "\u0120bege": 8087, "\u0120kandidaten": 8088, "\u0120einklang": 8089, "\u0120versto": 8090, "\u0120mitge": 8091, "acher": 8092, "\u0120vorhin": 8093, "\u0120abgesehen": 8094, "\u0120ausma\u00c3\u0141": 8095, "\u0120ausarbeitung": 8096, "theit": 8097, "lad": 8098, "\u0120\u00c3\u00bcberzeugen": 8099, "004": 8100, "\u0120herrscht": 8101, "\u0120nachdruck": 8102, "\u0120disziplin": 8103, "\u0120spezielle": 8104, "\u0120solve": 8105, "\u0120insel": 8106, "\u0120acts": 8107, "\u0120gebill": 8108, "\u0120sicherstellen": 8109, "\u0120assoz": 8110, "\u0120berecht": 8111, "\u0120considerably": 8112, "\u0120afford": 8113, "\u0120bestimmt": 8114, "zieht": 8115, "\u0120vorgehens": 8116, "itzer": 8117, "\u0120path": 8118, "\u0120collective": 8119, "\u0120mindestens": 8120, "stoffen": 8121, "\u0120kinderporn": 8122, "\u0120grem": 8123, "\u0120ethnischen": 8124, "\u0120koh\u00c3\u00a4s": 8125, "\u0120m\u00c3\u00a4rkte": 8126, "\u0120industries": 8127, "\u0120erarbeitet": 8128, "\u0120highlighted": 8129, "\u0120proceedings": 8130, "\u0120attemp": 8131, "stream": 8132, "\u0120competence": 8133, "\u0120yugoslavia": 8134, "\u0120inadequate": 8135, "\u0120freiz\u00c3\u00bcg": 8136, "\u0120waters": 8137, "\u0120average": 8138, "\u0120h\u00c3\u00a4lfte": 8139, "aff": 8140, "dire": 8141, "ground": 8142, "hre": 8143, "huber": 8144, "zul": 8145, "\u0120tr\u00c3\u00a4gt": 8146, "\u0120sides": 8147, "ichert": 8148, "\u0120phen": 8149, "\u0120fif": 8150, "\u0120card": 8151, "\u0120nether": 8152, "\u0120unf": 8153, "\u0120anlagen": 8154, "ash": 8155, "geordne": 8156, "\u0120aufrech": 8157, "\u0120ausgest": 8158, "\u0120alliance": 8159, "\u0120tai": 8160, "\u0120nachzu": 8161, "\u0120adjust": 8162, "\u0120genaus": 8163, "\u0120likely": 8164, "\u0120mu\u00c3\u0141ten": 8165, "\u0120verbot": 8166, "\u0120legally": 8167, "\u0120solches": 8168, "\u0120entwicklungen": 8169, "\u0120produktion": 8170, "\u0120vieler": 8171, "\u0120platz": 8172, "gebiet": 8173, "\u0120gro\u00c3\u0141es": 8174, "\u0120stands": 8175, "\u0120protected": 8176, "reift": 8177, "\u0120trust": 8178, "\u0120folglich": 8179, "serv": 8180, "\u0120berichterstatters": 8181, "\u0120equip": 8182, "\u0120verlangt": 8183, "going": 8184, "\u0120capable": 8185, "\u0120climate": 8186, "\u0120oppose": 8187, "ehrten": 8188, "\u0120flexibilit\u00c3\u00a4t": 8189, "\u00c3\u00a4umen": 8190, "2006": 8191, "\u0120extension": 8192, "regionen": 8193, "\u0120consistent": 8194, "\u0120unmittelbar": 8195, "\u0120sorgf\u00c3\u00a4lt": 8196, "\u0120generell": 8197, "\u0120autonom": 8198, "\u0120horizont": 8199, "\u0120zigaretten": 8200, "\u0120maritime": 8201, "\u0120kinderpornograph": 8202, "\u0120phenomen": 8203, "\u0120netherlands": 8204, "cer": 8205, "gere": 8206, "sv": 8207, "viel": 8208, "ws": 8209, "wind": 8210, "\u0120t\u00c3\u00a4": 8211, "\u0120taus": 8212, "\u0120bomb": 8213, "\u0120anmerk": 8214, "enty": 8215, "\u0120beachtung": 8216, "\u0120kenn": 8217, "uts": 8218, "\u0120abscha": 8219, "\u0120exec": 8220, "\u0120entfern": 8221, "stechn": 8222, "\u0120besuch": 8223, "\u0120statist": 8224, "\u0120spreche": 8225, "hlt": 8226, "\u0120mart": 8227, "\u00c3\u00bccken": 8228, "\u0120weitgehend": 8229, "werten": 8230, "\u0120debating": 8231, "l\u00c3\u00a4ufig": 8232, "\u0120basically": 8233, "\u0120stauner": 8234, "\u0120geboten": 8235, "gebracht": 8236, "\u0120relativ": 8237, "\u0120courage": 8238, "\u0120remo": 8239, "\u012042": 8240, "gangenen": 8241, "\u0120involvement": 8242, "\u0120vollbesch\u00c3\u00a4ftigung": 8243, "ength": 8244, "wirtschaftung": 8245, "\u0120zeichen": 8246, "\u0120f\u00c3\u00a4h": 8247, "bereiche": 8248, "\u0120stressed": 8249, "\u0120ecological": 8250, "\u0120undertaken": 8251, "\u0120belgium": 8252, "\u0120einheitlichen": 8253, "\u0120centre": 8254, "\u0120america": 8255, "\u0120mutual": 8256, "\u0120figure": 8257, "\u0120einwander": 8258, "\u0120inspection": 8259, "\u0120mandate": 8260, "\u0120bestandteil": 8261, "\u0120extensive": 8262, "\u0120eingebracht": 8263, "\u0120aussage": 8264, "\u0120jahrhunder": 8265, "areness": 8266, "\u0120middle": 8267, "\u0120beseitigung": 8268, "\u0120beinhal": 8269, "\u0120acknowled": 8270, "\u0120ferber": 8271, "\u0120disposal": 8272, "economic": 8273, "\u0120fifteen": 8274, "certain": 8275, "kre": 8276, "katastrop": 8277, "mil": 8278, "yr": 8279, "\u0120tank": 8280, "\u0120thir": 8281, "\u0120swo": 8282, "\u0120theato": 8283, "\u0120bann": 8284, "\u0120hom": 8285, "\u0120via": 8286, "ingu": 8287, "\u0120rund": 8288, "umed": 8289, "\u0120prohib": 8290, "\u0120conven": 8291, "\u0120europeans": 8292, "\u0120interested": 8293, "\u0120youth": 8294, "pres": 8295, "\u0120genutzt": 8296, "\u0120spread": 8297, "\u0120transe": 8298, "\u0120informiert": 8299, "\u012038": 8300, "\u0120politically": 8301, "\u0120remote": 8302, "\u0120remark": 8303, "regeln": 8304, "\u0120difficulty": 8305, "\u0120correspon": 8306, "\u0120awareness": 8307, "wirkung": 8308, "\u0120referring": 8309, "\u0120derzeitige": 8310, "\u0120additionality": 8311, "\u0120marktes": 8312, "ikanen": 8313, "\u0120applicant": 8314, "\u0120wachsen": 8315, "\u0120zus\u00c3\u00a4tzlichkeit": 8316, "\u0120prepare": 8317, "ixed": 8318, "\u0120diskriminierungen": 8319, "\u0120demonstrate": 8320, "\u0120pflanzen": 8321, "\u0120arguments": 8322, "\u0120katastrophen": 8323, "\u0120einwan": 8324, "\u0120wiederaufbau": 8325, "\u0120illust": 8326, "\u0120source": 8327, "\u0120netze": 8328, "\u0120b\u00c3\u00b6sch": 8329, "problem": 8330, "\u0120interpretation": 8331, "\u0120ver\u00c3\u00b6ffent": 8332, "\u0120calc": 8333, "\u0120hulten": 8334, "\u0120macedonia": 8335, "ble": 8336, "dac": 8337, "hner": 8338, "ses": 8339, "welt": 8340, "\u0120ahead": 8341, "\u0120wand": 8342, "\u0120wide": 8343, "\u0120mur": 8344, "\u0120oste": 8345, "\u0120unk": 8346, "tein": 8347, "teten": 8348, "\u0120touch": 8349, "\u0120zoll": 8350, "\u0120k\u00c3\u00bcr": 8351, "emann": 8352, "\u0120gefahren": 8353, "\u0120abuse": 8354, "endet": 8355, "\u0120umzusetzen": 8356, "\u0120chann": 8357, "\u0120presidents": 8358, "\u0120contact": 8359, "\u0120verbreitung": 8360, "\u0120gleichstellung": 8361, "\u0120millions": 8362, "\u0120effectiveness": 8363, "\u0120truth": 8364, "\u0120ausgehend": 8365, "\u0120afterno": 8366, "\u0120subjects": 8367, "016": 8368, "\u0120globalen": 8369, "berecht": 8370, "\u0120euratom": 8371, "\u0120payments": 8372, "\u0120endeavour": 8373, "\u0120vorausschau": 8374, "\u0120introducing": 8375, "\u0120innovative": 8376, "\u0120menschlichen": 8377, "\u0120heading": 8378, "\u0120behavi": 8379, "\u0120repeated": 8380, "boda": 8381, "\u0120sufficiently": 8382, "\u0120volkspartei": 8383, "stattung": 8384, "\u0120mittl": 8385, "\u0120verdient": 8386, "\u0120verringerung": 8387, "\u0120ereignisse": 8388, "\u0120urspr\u00c3\u00bcnglichen": 8389, "\u0120conservation": 8390, "\u0120purely": 8391, "\u0120lautet": 8392, "\u0120scrapie": 8393, "behandlung": 8394, "bewu\u00c3\u0141": 8395, "\u0120ru\u00c3\u0141land": 8396, "\u0120mugabe": 8397, "\u0120beinhaltet": 8398, "\u0120swoboda": 8399, "\u0120behaviour": 8400, "fers": 8401, "ound": 8402, "uable": 8403, "\u0120domin": 8404, "\u0120buch": 8405, "repr": 8406, "\u0120pan": 8407, "\u0120hip": 8408, "\u0120gas": 8409, "\u0120gang": 8410, "\u0120gone": 8411, "\u0120g\u00c3\u00bcter": 8412, "\u0120town": 8413, "\u0120zustand": 8414, "ischem": 8415, "\u0120prozent": 8416, "\u0120erhaltung": 8417, "\u0120alli": 8418, "\u0120entstanden": 8419, "\u0120atmos": 8420, "\u0120interpre": 8421, "\u0120preced": 8422, "\u0120intentions": 8423, "pflicht": 8424, "\u0120handlungs": 8425, "\u0120economies": 8426, "\u0120gebrauch": 8427, "\u0120sicherzustellen": 8428, "vollen": 8429, "\u0120gelder": 8430, "\u0120finanziert": 8431, "\u0120inclusion": 8432, "\u0120eingeleitet": 8433, "\u0120represented": 8434, "\u0120verantwortlichen": 8435, "\u0120langsam": 8436, "\u0120h\u00c3\u00b6her": 8437, "\u0120umfa\u00c3\u0141t": 8438, "\u0120operational": 8439, "\u0120aimed": 8440, "\u0120zust\u00c3\u00a4ndig": 8441, "hebung": 8442, "\u0120zus\u00c3\u00a4tzlichen": 8443, "\u0120praktiken": 8444, "\u0120failure": 8445, "\u0120choose": 8446, "\u0120best\u00c3\u00a4tigen": 8447, "\u0120verstehe": 8448, "\u0120jahrhundert": 8449, "\u0120hemp": 8450, "\u0120beabsichtigt": 8451, "\u0120fifth": 8452, "\u0120facilitate": 8453, "wachstum": 8454, "zusammenarbeit": 8455, "\u0120politicians": 8456, "\u0120rindfleisch": 8457, "\u0120ausbeutung": 8458, "\u0120beigetragen": 8459, "\u0120d\u00c3\u00a4nemark": 8460, "\u0120numerous": 8461, "\u0120assozi": 8462, "\u0120freiz\u00c3\u00bcgigkeit": 8463, "\u0120einwanderung": 8464, "\u0120hipc": 8465, "cal": 8466, "gipf": 8467, "kr": 8468, "mlich": 8469, "\u0120pse": 8470, "ane": 8471, "\u0120hy": 8472, "\u0120nine": 8473, "\u0120lose": 8474, "\u0120length": 8475, "tert": 8476, "\u0120ren": 8477, "ilen": 8478, "\u0120streit": 8479, "\u0120forum": 8480, "\u0120gezogen": 8481, "\u0120vorteile": 8482, "\u0120abw": 8483, "\u0120abziel": 8484, "endt": 8485, "\u0120beraten": 8486, "\u0120manch": 8487, "\u0120partly": 8488, "\u0120durchsch": 8489, "\u0120gegensatz": 8490, "\u0120facts": 8491, "\u0120offers": 8492, "\u0120treated": 8493, "\u0120consumption": 8494, "\u0120norm": 8495, "\u0120deliber": 8496, "\u0120zugleich": 8497, "\u0120verf\u00c3\u00bcg": 8498, "\u0120britain": 8499, "\u0120entscheidend": 8500, "\u0120eindeutige": 8501, "\u0120staatliche": 8502, "\u0120jedenfalls": 8503, "\u0120humanit\u00c3\u00a4ren": 8504, "\u0120w\u00c3\u00bcnsch": 8505, "\u0120expectations": 8506, "\u0120emphasis": 8507, "\u0120geltenden": 8508, "\u0120satisfactory": 8509, "\u0120distributed": 8510, "\u0120constitute": 8511, "\u0120jener": 8512, "\u0120granting": 8513, "zustimmen": 8514, "\u0120anpassung": 8515, "\u0120begr\u00c3\u00bcndung": 8516, "\u0120excessive": 8517, "\u0120welchem": 8518, "\u0120gegebenenfalls": 8519, "\u0120gro\u00c3\u0141britannien": 8520, "\u0120genauso": 8521, "\u0120afternoon": 8522, "da": 8523, "feld": 8524, "kap": 8525, "pet": 8526, "t\u00c3\u00a4us": 8527, "enhagen": 8528, "\u0120doss": 8529, "union": 8530, "rep": 8531, "icherung": 8532, "\u0120vul": 8533, "\u0120unne": 8534, "\u0120krie": 8535, "using": 8536, "iry": 8537, "\u0120reich": 8538, "\u0120l\u00c3\u00a4": 8539, "\u0120erh\u00c3\u00a4lt": 8540, "\u0120erlassen": 8541, "dep": 8542, "\u0120gehalten": 8543, "\u0120ausgeschlossen": 8544, "\u0120\u00c3\u00bcbertrag": 8545, "lieben": 8546, "\u0120europ\u00c3\u00a4isches": 8547, "\u0120arm": 8548, "\u0120chin": 8549, "\u00c3\u00a4nderungsant": 8550, "\u0120goals": 8551, "\u0120complic": 8552, "\u0120freie": 8553, "assungen": 8554, "ystemen": 8555, "\u0120gew\u00c3\u00a4hl": 8556, "\u0120news": 8557, "\u0120room": 8558, "\u0120perspekt": 8559, "handlungen": 8560, "\u0120relatively": 8561, "\u0120considering": 8562, "\u0120eurodac": 8563, "\u0120intelle": 8564, "\u0120unternehmens": 8565, "\u0120zur\u00c3\u00bcckzu": 8566, "\u0120verbesserungen": 8567, "\u0120barcel": 8568, "schefs": 8569, "\u0120innere": 8570, "kommun": 8571, "\u0120benef": 8572, "leitung": 8573, "\u0120vertrauens": 8574, "\u0120syr": 8575, "\u0120identity": 8576, "\u0120applying": 8577, "\u0120grunds\u00c3\u00a4tzlich": 8578, "\u0120wirksame": 8579, "\u0120break": 8580, "\u0120beantworten": 8581, "\u0120preparing": 8582, "\u0120erscheint": 8583, "\u0120evaluation": 8584, "\u0120verbrennung": 8585, "\u0120genehmigung": 8586, "\u0120black": 8587, "\u0120compensation": 8588, "\u0120penalty": 8589, "\u0120dublin": 8590, "\u0120referendum": 8591, "\u0120unnecess": 8592, "\u0120barcelona": 8593, "ou": 8594, "zone": 8595, "\u0120wall": 8596, "\u0120written": 8597, "reck": 8598, "\u0120osten": 8599, "\u0120centr": 8600, "\u0120n\u00c3\u00a4her": 8601, "\u0120unw": 8602, "\u0120bemer": 8603, "\u0120lien": 8604, "\u0120latter": 8605, "derly": 8606, "\u0120weap": 8607, "\u0120image": 8608, "ierend": 8609, "\u0120geehrte": 8610, "vertre": 8611, "\u0120vormittag": 8612, "\u0120ausnahmen": 8613, "\u0120entt\u00c3\u00a4us": 8614, "spie": 8615, "\u0120europ\u00c3\u00a4er": 8616, "ureich": 8617, "ordnungen": 8618, "otten": 8619, "\u00c3\u00bcss": 8620, "\u0120sp\u00c3\u00a4t": 8621, "staats": 8622, "\u0120impose": 8623, "\u0120nationals": 8624, "\u0120stake": 8625, "\u0120geb\u00c3\u00a4": 8626, "\u0120zeitplan": 8627, "\u0120relates": 8628, "\u0120termin": 8629, "\u0120gelingt": 8630, "\u0120liikanen": 8631, "\u0120resolved": 8632, "\u0120trial": 8633, "\u0120trib": 8634, "\u0120schafft": 8635, "\u0120ablehnung": 8636, "\u0120follows": 8637, "\u0120kompeten": 8638, "\u0120generaldire": 8639, "\u0120absurd": 8640, "\u0120hilf": 8641, "\u0120background": 8642, "\u0120interessiert": 8643, "soever": 8644, "\u0120kurzem": 8645, "\u0120wahrheit": 8646, "raums": 8647, "\u0120entscheidende": 8648, "\u0120double": 8649, "\u0120beh\u00c3\u00b6rde": 8650, "verbr": 8651, "\u0120maintaining": 8652, "\u0120krise": 8653, "\u0120easily": 8654, "\u0120fl\u00c3\u00bcchtlings": 8655, "\u0120nahrungsmittelhilfe": 8656, "\u0120schreyer": 8657, "\u0120bananas": 8658, "\u0120m\u00c3\u00a4nner": 8659, "\u0120savary": 8660, "gebiete": 8661, "m\u00c3\u00a4rkte": 8662, "\u0120jemand": 8663, "\u0120klima": 8664, "bs": 8665, "eten": 8666, "kr\u00c3\u00a4fte": 8667, "mi\u00c3\u0141": 8668, "rum": 8669, "ton": 8670, "wers": 8671, "\u0120breit": 8672, "\u0120nein": 8673, "\u0120gal": 8674, "\u0120relie": 8675, "\u0120reichen": 8676, "ulations": 8677, "\u0120rum": 8678, "\u0120parad": 8679, "\u0120absen": 8680, "\u0120abkommens": 8681, "\u0120schm": 8682, "ungsbereich": 8683, "\u0120arten": 8684, "\u0120mangel": 8685, "sekret": 8686, "ighten": 8687, "\u0120mu\u00c3\u0141te": 8688, "linary": 8689, "\u00c3\u00a4hrung": 8690, "utzen": 8691, "\u0120gro\u00c3\u0141em": 8692, "\u0120finanzierungs": 8693, "f\u00c3\u00a4llig": 8694, "\u0120politiker": 8695, "\u0120bedeutsam": 8696, "\u0120debatt": 8697, "iums": 8698, "modell": 8699, "\u0120elderly": 8700, "\u0120gr\u00c3\u00b6\u00c3\u0141t": 8701, "\u0120stattf": 8702, "\u0120helping": 8703, "\u0120starke": 8704, "\u0120taxes": 8705, "\u0120wohlstand": 8706, "leistungen": 8707, "\u0120opposite": 8708, "\u0120bem\u00c3\u00bcht": 8709, "\u0120southern": 8710, "\u0120oftmals": 8711, "\u0120menschliche": 8712, "\u0120purposes": 8713, "\u0120zivilgesellschaft": 8714, "\u0120beschr\u00c3\u00a4nkt": 8715, "\u0120susp": 8716, "\u0120holding": 8717, "\u0120inev": 8718, "\u0120genetically": 8719, "\u0120ausgezeichnete": 8720, "\u0120unzureich": 8721, "\u0120planned": 8722, "haushalt": 8723, "\u0120restrictions": 8724, "\u0120k\u00c3\u00bcrzlich": 8725, "\u0120embargo": 8726, "\u0120erl\u00c3\u00a4utern": 8727, "\u0120ozone": 8728, "\u0120bed\u00c3\u00bcrf": 8729, "\u0120published": 8730, "\u0120heavy": 8731, "president": 8732, "\u0120vulner": 8733, "24": 8734, "gl": 8735, "i\u00c3\u00b6": 8736, "krieg": 8737, "nach": 8738, "yed": 8739, "\u0120taten": 8740, "atische": 8741, "\u0120migration": 8742, "\u0120categor": 8743, "\u0120niveau": 8744, "\u0120vitor": 8745, "\u0120unm\u00c3\u00b6glich": 8746, "\u0120ansprechen": 8747, "\u0120anzunehmen": 8748, "\u0120beibe": 8749, "uren": 8750, "\u0120ernen": 8751, "\u0120ausgesetzt": 8752, "\u0120expected": 8753, "spiel": 8754, "ungsver": 8755, "\u0120reserv": 8756, "\u0120gesicht": 8757, "oto": 8758, "\u0120finland": 8759, "\u0120parlamente": 8760, "\u0120incent": 8761, "\u0120whatsoever": 8762, "\u0120wollten": 8763, "grad": 8764, "\u0120hierbei": 8765, "\u0120richtigen": 8766, "\u0120zusammenhalt": 8767, "\u0120perform": 8768, "l\u00c3\u00a4uft": 8769, "\u0120hands": 8770, "\u0120refers": 8771, "\u0120kooperation": 8772, "\u0120betr\u00c3\u00a4": 8773, "\u0120verschw": 8774, "\u0120sets": 8775, "\u0120processes": 8776, "\u0120deutschen": 8777, "\u0120kept": 8778, "\u0120verwiesen": 8779, "\u0120einzelne": 8780, "\u0120haushaltskontrolle": 8781, "\u0120vertretern": 8782, "\u0120harmful": 8783, "hold": 8784, "\u0120freiwill": 8785, "\u0120answers": 8786, "\u0120advis": 8787, "\u0120aviation": 8788, "\u0120entwicklungsl\u00c3\u00a4ndern": 8789, "\u0120requests": 8790, "\u0120slight": 8791, "\u0120bef\u00c3\u00bcrworten": 8792, "\u0120racist": 8793, "\u0120einheitliche": 8794, "\u0120verst\u00c3\u00a4rkt": 8795, "\u0120verst\u00c3\u00a4rken": 8796, "\u0120erhebliche": 8797, "\u0120umfassenden": 8798, "\u0120satisfied": 8799, "\u0120quota": 8800, "gestellten": 8801, "\u0120erneuerbaren": 8802, "\u0120appreciate": 8803, "\u0120feeding": 8804, "bruch": 8805, "\u0120secretary": 8806, "sprachen": 8807, "\u0120etikettierung": 8808, "\u0120airports": 8809, "\u0120ursachen": 8810, "\u0120n\u00c3\u00b6tig": 8811, "\u0120\u00c3\u00a4rzte": 8812, "\u0120lanka": 8813, "\u0120bosn": 8814, "\u0120haupts\u00c3\u00a4ch": 8815, "\u0120lienemann": 8816, "08": 8817, "ening": 8818, "christ": 8819, "\u0120wind": 8820, "itative": 8821, "itologie": 8822, "ather": 8823, "\u0120echte": 8824, "\u0120fried": 8825, "\u0120gor": 8826, "stens": 8827, "ulich": 8828, "\u0120weist": 8829, "\u0120erteilen": 8830, "\u0120erleben": 8831, "\u0120vorstellen": 8832, "kture": 8833, "\u0120ausweit": 8834, "\u0120ausnahm": 8835, "001": 8836, "\u0120manche": 8837, "\u00c3\u00a4sser": 8838, "\u0120nachmittag": 8839, "\u0120freund": 8840, "uba": 8841, "\u0120problematik": 8842, "\u0120hierzu": 8843, "rated": 8844, "ratic": 8845, "\u0120communications": 8846, "l\u00c3\u00a4chen": 8847, "\u0120ploo": 8848, "\u0120unterstreichen": 8849, "\u0120accomp": 8850, "\u012034": 8851, "\u012036": 8852, "\u0120boden": 8853, "ients": 8854, "\u0120governance": 8855, "\u0120betrieben": 8856, "\u0120trifft": 8857, "abling": 8858, "\u00c3\u00a4ngst": 8859, "\u0120competent": 8860, "\u0120irish": 8861, "\u0120komitologie": 8862, "\u0120eldr": 8863, "\u0120wesentlicher": 8864, "\u0120barr": 8865, "\u0120st\u00c3\u00a4rken": 8866, "\u0120essentially": 8867, "\u0120hervorragen": 8868, "\u0120peaceful": 8869, "\u0120identified": 8870, "leistung": 8871, "\u0120played": 8872, "\u0120obligator": 8873, "\u0120grunds\u00c3\u00a4tzen": 8874, "\u0120steuerzahl": 8875, "termine": 8876, "\u0120facilities": 8877, "\u0120kommunikation": 8878, "\u0120happens": 8879, "\u0120tempor": 8880, "\u0120parlamentarischen": 8881, "\u0120keineswegs": 8882, "\u0120associated": 8883, "\u0120described": 8884, "\u0120constantly": 8885, "\u0120ultimately": 8886, "\u0120glaubw\u00c3\u00bcrdigkeit": 8887, "\u0120laufe": 8888, "\u0120collabor": 8889, "\u0120philos": 8890, "\u0120couple": 8891, "\u0120bolkes": 8892, "\u0120jurisdict": 8893, "\u0120verleihen": 8894, "\u0120unverz\u00c3\u00bcglich": 8895, "behrendt": 8896, "\u0120equipment": 8897, "\u0120plooij": 8898, "\u0120accompan": 8899, "cro": 8900, "len": 8901, "isierungs": 8902, "\u0120bahn": 8903, "ie\u00c3\u0141en": 8904, "\u0120merk": 8905, "\u0120inspe": 8906, "\u0120h\u00c3\u00a4ngt": 8907, "ari": 8908, "\u0120none": 8909, "\u0120got": 8910, "\u0120unbe": 8911, "\u0120antr\u00c3\u00a4ge": 8912, "\u00c3\u00a4fen": 8913, "\u0120bewe": 8914, "\u0120bewegen": 8915, "\u0120bezeichnet": 8916, "omet": 8917, "\u0120einrichtungen": 8918, "rachten": 8919, "utin": 8920, "\u0120rh": 8921, "\u0120daily": 8922, "\u0120jungen": 8923, "\u0120determine": 8924, "\u0120enth": 8925, "\u0120\u00c3\u00bcberlassen": 8926, "ersund": 8927, "ausgaben": 8928, "grenze": 8929, "uchner": 8930, "\u0120butter": 8931, "\u0120worry": 8932, "herr": 8933, "\u0120spend": 8934, "\u0120spect": 8935, "wohner": 8936, "\u0120imper": 8937, "akes": 8938, "akzept": 8939, "\u0120gerichtet": 8940, "\u0120kouchner": 8941, "fragt": 8942, "\u0120angewand": 8943, "\u0120presentation": 8944, "\u0120realistic": 8945, "\u0120continues": 8946, "\u0120vallel": 8947, "\u0120restru": 8948, "\u0120taxpay": 8949, "\u0120widerspr\u00c3\u00bc": 8950, "\u0120schlie\u00c3\u0141en": 8951, "\u0120erw\u00c3\u00a4hnen": 8952, "\u0120foremost": 8953, "\u0120\u00c3\u00b6sterreichischen": 8954, "\u0120arbeitspl": 8955, "\u0120verteidigen": 8956, "\u0120elemente": 8957, "\u0120excluded": 8958, "\u0120beitrittsk": 8959, "\u0120correctly": 8960, "\u0120erfahrung": 8961, "\u0120zul\u00c3\u00a4ss": 8962, "\u0120fr\u00c3\u00bcheren": 8963, "\u0120nearly": 8964, "\u0120aktionsplan": 8965, "bald": 8966, "\u0120luxembourg": 8967, "\u0120rigor": 8968, "\u0120threatened": 8969, "\u0120todesstrafe": 8970, "\u0120bundes": 8971, "\u0120mexico": 8972, "\u0120bolkestein": 8973, "\u0120vallelersund": 8974, "ba": 8975, "gers": 8976, "lit": 8977, "machen": 8978, "uhr": 8979, "erkennen": 8980, "isted": 8981, "\u0120eight": 8982, "\u0120fats": 8983, "\u0120glad": 8984, "\u0120unsch": 8985, "\u0120uncertain": 8986, "\u0120verwir": 8987, "\u0120renten": 8988, "\u0120stol": 8989, "\u0120noted": 8990, "ischung": 8991, "\u0120core": 8992, "achsen": 8993, "\u0120ausl": 8994, "\u0120schro": 8995, "\u0120macc": 8996, "ques": 8997, "ivation": 8998, "\u0120gesellschaften": 8999, "\u0120m\u00c3\u00b6gliche": 9000, "\u0120besorgt": 9001, "agung": 9002, "\u0120team": 9003, "\u0120betreiben": 9004, "\u0120compared": 9005, "\u0120gemeinschaften": 9006, "\u0120issued": 9007, "\u0120programmen": 9008, "\u0120acting": 9009, "\u0120wirtschaftlicher": 9010, "\u0120differenz": 9011, "\u0120welches": 9012, "\u0120overcome": 9013, "\u0120teilnehmen": 9014, "\u0120positionen": 9015, "kl\u00c3\u00a4rung": 9016, "\u0120transnational": 9017, "\u0120irreg": 9018, "\u0120zusammenarbeiten": 9019, "\u0120turning": 9020, "\u0120akin": 9021, "\u0120volunt": 9022, "\u0120articles": 9023, "\u0120talks": 9024, "\u0120organismen": 9025, "\u0120gew\u00c3\u00a4hrt": 9026, "\u0120understood": 9027, "comings": 9028, "\u0120shortcomings": 9029, "wertung": 9030, "\u0120waiting": 9031, "ormick": 9032, "\u0120telekommun": 9033, "\u0120unabh\u00c3\u00a4ngigen": 9034, "\u0120careful": 9035, "\u0120bef\u00c3\u00bcrcht": 9036, "\u0120k\u00c3\u00bcnftige": 9037, "\u0120railways": 9038, "\u0120schl\u00c3\u00bcssel": 9039, "\u0120belgien": 9040, "\u0120burma": 9041, "kontroll": 9042, "\u0120easier": 9043, "\u0120refugee": 9044, "\u0120verabschieden": 9045, "\u0120continued": 9046, "\u0120zentralbank": 9047, "\u0120affects": 9048, "\u0120historic": 9049, "\u0120ineff": 9050, "\u0120konsequenzen": 9051, "\u0120schreck": 9052, "\u0120k\u00c3\u00bcsten": 9053, "\u0120herkunfts": 9054, "\u0120explanation": 9055, "\u0120ozon": 9056, "\u0120changing": 9057, "\u0120accidents": 9058, "\u0120pr\u00c3\u00a4sid": 9059, "\u0120reduzierung": 9060, "\u0120ehemaligen": 9061, "itzerland": 9062, "\u0120taiwan": 9063, "\u0120kinderpornographie": 9064, "\u0120transeurop\u00c3\u00a4ischen": 9065, "\u0120vallelersundi": 9066, "\u0120maccormick": 9067, "fter": 9068, "pir": 9069, "van": 9070, "\u0120dingen": 9071, "\u0120size": 9072, "\u0120bab": 9073, "ania": 9074, "\u0120volle": 9075, "\u0120anstre": 9076, "leb": 9077, "\u0120derog": 9078, "urt": 9079, "ulate": 9080, "\u0120erlau": 9081, "erei": 9082, "\u0120alte": 9083, "\u0120parit\u00c3\u00a4t": 9084, "\u0120vorlage": 9085, "ills": 9086, "\u0120ausrichtung": 9087, "\u00c3\u00a4nen": 9088, "\u0120schlagen": 9089, "\u0120count": 9090, "sebene": 9091, "\u0120hoher": 9092, "\u0120fine": 9093, "\u0120durchf\u00c3\u00bchren": 9094, "\u00c3\u00b6rderung": 9095, "leichheit": 9096, "i\u00c3\u0141en": 9097, "\u0120wirtschaftlich": 9098, "\u0120courts": 9099, "\u0120geschle": 9100, "\u0120flow": 9101, "\u0120financed": 9102, "beihilfen": 9103, "\u00c3\u00a4tzung": 9104, "\u0120\u00c3\u00b6ffentlich": 9105, "\u0120regierungschefs": 9106, "\u0120h\u00c3\u00b6here": 9107, "\u0120stehende": 9108, "\u0120definit": 9109, "\u0120befindet": 9110, "\u0120evident": 9111, "vorschl\u00c3\u00a4ge": 9112, "\u0120motions": 9113, "\u0120folgenden": 9114, "gede": 9115, "\u0120ergibt": 9116, "\u0120switzerland": 9117, "\u0120entscheidenden": 9118, "\u0120gegenw\u00c3\u00a4rtige": 9119, "\u0120violation": 9120, "\u0120au\u00c3\u0141enpolitik": 9121, "\u0120surv": 9122, "\u0120verhindert": 9123, "\u0120mechanismen": 9124, "\u0120encouraging": 9125, "\u0120untersuchungen": 9126, "\u0120unterbrochen": 9127, "\u0120strengthening": 9128, "\u0120topical": 9129, "\u0120verurteilen": 9130, "\u0120senkung": 9131, "\u0120indicated": 9132, "\u0120explained": 9133, "\u0120donnerst": 9134, "\u0120investigation": 9135, "\u0120confirmed": 9136, "\u0120langfristig": 9137, "\u0120pr\u00c3\u00a4sent": 9138, "\u0120neighbouring": 9139, "\u0120mistake": 9140, "\u0120prosecutor": 9141, "\u0120strenge": 9142, "\u0120kyoto": 9143, "\u0120wonach": 9144, "verletzungen": 9145, "\u0120allianz": 9146, "\u0120unnecessary": 9147, "\u0120philosoph": 9148, "\u0120donnerstag": 9149, "efe": 9150, "fare": 9151, "hme": 9152, "uous": 9153, "ery": 9154, "\u0120trop": 9155, "ini": 9156, "inted": 9157, "atal": 9158, "\u0120ezb": 9159, "\u0120pict": 9160, "\u0120na": 9161, "\u0120vac": 9162, "\u0120gelt": 9163, "\u0120zone": 9164, "\u0120k\u00c3\u00a4mpfen": 9165, "\u0120kr\u00c3\u00a4fte": 9166, "\u0120einstellung": 9167, "\u0120wechsel": 9168, "idung": 9169, "\u0120sobald": 9170, "\u0120constitution": 9171, "\u0120gezwungen": 9172, "\u0120aufnehmen": 9173, "\u0120auftrag": 9174, "cke": 9175, "006": 9176, "\u0120dary": 9177, "\u0120heik": 9178, "\u0120race": 9179, "udes": 9180, "\u0120objekt": 9181, "\u0120hinweg": 9182, "gerufen": 9183, "\u0120verbrechen": 9184, "\u0120menge": 9185, "\u0120bereitstellung": 9186, "getragen": 9187, "\u0120kooper": 9188, "\u0120regulatory": 9189, "\u0120getr": 9190, "\u0120scot": 9191, "\u0120lieber": 9192, "\u0120yourself": 9193, "\u0120futter": 9194, "\u0120kommer": 9195, "\u0120finding": 9196, "\u0120debatten": 9197, "\u0120vertret": 9198, "015": 9199, "\u0120concluded": 9200, "\u0120baringd": 9201, "\u0120kurzfrist": 9202, "\u0120payment": 9203, "\u0120preventing": 9204, "\u0120grav": 9205, "\u0120graefe": 9206, "\u0120modified": 9207, "\u0120beantwortet": 9208, "\u0120h\u00c3\u00a4fen": 9209, "weilen": 9210, "\u0120heutige": 9211, "\u0120bearing": 9212, "\u0120suffered": 9213, "\u0120konsequent": 9214, "\u0120supervision": 9215, "\u0120jenen": 9216, "\u0120kontinent": 9217, "\u0120twenty": 9218, "verschmutzung": 9219, "\u0120bewerber": 9220, "\u0120ecofin": 9221, "\u0120intervene": 9222, "\u0120vulnerable": 9223, "\u0120irregular": 9224, ".,": 9225, "ceng": 9226, "greifen": 9227, "pendence": 9228, "\u0120thurs": 9229, "\u0120wild": 9230, "\u0120sier": 9231, "\u0120pil": 9232, "\u0120pet": 9233, "\u0120fach": 9234, "\u0120fu\u00c3\u0141": 9235, "\u0120inqu": 9236, "\u0120inkraft": 9237, "\u0120hit": 9238, "irk": 9239, "gelegt": 9240, "\u0120immen": 9241, "\u0120geleis": 9242, "\u0120jung": 9243, "estic": 9244, "\u0120paris": 9245, "\u0120ausgang": 9246, "quality": 9247, "\u0120herange": 9248, "\u0120regre": 9249, "\u0120arms": 9250, "\u0120propag": 9251, "\u0120sp\u00c3\u00bcr": 9252, "\u0120zumal": 9253, "\u0120works": 9254, "r\u00c3\u00a4ften": 9255, "\u0120laut": 9256, "\u0120sozialpolitik": 9257, "\u0120erwiesen": 9258, "proze\u00c3\u0141": 9259, "\u0120gelingen": 9260, "\u0120governing": 9261, "\u0120rechtliche": 9262, "\u0120getre": 9263, "\u012045": 9264, "\u0120ports": 9265, "\u0120numbers": 9266, "antwortung": 9267, "\u0120independence": 9268, "\u0120energies": 9269, "standards": 9270, "\u0120verlassen": 9271, "\u0120feeling": 9272, "\u0120entwicklungshilfe": 9273, "\u0120applications": 9274, "\u0120chanceng": 9275, "\u0120ver\u00c3\u00a4ndert": 9276, "\u0120f\u00c3\u00bcnfzehn": 9277, "\u0120unabh\u00c3\u00a4ngigkeit": 9278, "\u0120luftverkehrs": 9279, "\u0120dutch": 9280, "\u0120delays": 9281, "\u0120senior": 9282, "nehmern": 9283, "\u0120preparation": 9284, "\u0120kriegs": 9285, "\u0120dienstleistungs": 9286, "\u0120nachhaltigen": 9287, "\u0120beruht": 9288, "\u0120religion": 9289, "\u0120primary": 9290, "\u0120determined": 9291, "\u0120keinesfalls": 9292, "\u0120befugnisse": 9293, "\u0120prosperity": 9294, "\u0120sovereignty": 9295, "\u0120restricted": 9296, "\u0120vegetable": 9297, "\u0120phenomenon": 9298, "\u0120ver\u00c3\u00b6ffentlicht": 9299, "\u0120atmosph": 9300, "\u0120vitorino": 9301, "\u0120ausnahmeregel": 9302, "\u0120jurisdiction": 9303, "\u0120baringdorf": 9304, "\u0120thursday": 9305, "\u0120sierra": 9306, "\u0120chancengleichheit": 9307, "zwe": 9308, "\u0120w\u00c3\u00a4hl": 9309, "\u0120sab": 9310, "itre": 9311, "itology": 9312, "rel": 9313, "oral": 9314, "\u0120ehe": 9315, "\u0120fert": 9316, "\u0120hanf": 9317, "\u0120unann": 9318, "inger": 9319, "\u0120rin": 9320, "\u0120hafen": 9321, "\u0120forg": 9322, "\u0120erhoben": 9323, "\u0120jul": 9324, "\u0120vorliegt": 9325, "\u0120deserves": 9326, "\u0120auswirken": 9327, "\u0120exter": 9328, "\u0120entsteht": 9329, "spart": 9330, "\u0120shame": 9331, "\u0120shift": 9332, "\u0120meat": 9333, "mechan": 9334, "\u0120comitology": 9335, "advant": 9336, "agn": 9337, "\u0120rauchen": 9338, "\u0120disadvant": 9339, "\u0120admit": 9340, "\u0120percent": 9341, "\u0120bereitgestellt": 9342, "\u0120halb": 9343, "\u0120qualit\u00c3\u00a4ts": 9344, "\u0120morg": 9345, "\u0120verwenden": 9346, "\u0120bewahr": 9347, "\u0120blok": 9348, "\u0120valuable": 9349, "\u0120deals": 9350, "bedarf": 9351, "\u0120verlieren": 9352, "\u0120verl\u00c3\u00a4nger": 9353, "011": 9354, "\u0120bench": 9355, "\u0120smaller": 9356, "z\u00c3\u00bcge": 9357, "\u0120passiert": 9358, "\u0120schneller": 9359, "\u0120amerikanischen": 9360, "\u0120applicable": 9361, "\u0120phare": 9362, "\u0120phys": 9363, "\u0120beteiligen": 9364, "\u0120identit\u00c3\u00a4t": 9365, "\u0120binnenmarkts": 9366, "\u0120komplex": 9367, "\u0120ign": 9368, "\u0120erh\u00c3\u00b6ht": 9369, "\u0120minderheit": 9370, "\u0120produktions": 9371, "\u0120zulassen": 9372, "\u0120effektiv": 9373, "\u0120vorsitzenden": 9374, "\u0120mexiko": 9375, "\u0120randlage": 9376, "\u0120unanimously": 9377, "\u0120m\u00c3\u00a4nnern": 9378, "auftrag": 9379, "\u0120cooperate": 9380, "\u0120t\u00c3\u00bcrkischen": 9381, "\u0120gespr\u00c3\u00a4che": 9382, "\u0120texts": 9383, "\u0120bew\u00c3\u00a4ltigen": 9384, "\u0120professional": 9385, "\u0120counterfeiting": 9386, "kriterien": 9387, "\u0120centres": 9388, "sekret\u00c3\u00a4r": 9389, "\u0120beitrittskandidaten": 9390, "fa": 9391, "gh": 9392, "ufe": 9393, "\u0120dict": 9394, "charta": 9395, "\u0120s\u00c3\u00b6ren": 9396, "\u0120echten": 9397, "\u0120fassen": 9398, "\u0120categ": 9399, "\u0120g\u00c3\u00bcnst": 9400, "\u0120anne": 9401, "\u0120z\u00c3\u00bcg": 9402, "\u0120undo": 9403, "\u0120lists": 9404, "\u0120erad": 9405, "\u0120eritre": 9406, "\u0120vorzunehmen": 9407, "\u0120aband": 9408, "\u0120sud": 9409, "ckx": 9410, "tzeit": 9411, "\u0120manag": 9412, "\u0120hoff": 9413, "\u0120faktoren": 9414, "\u0120durchf\u00c3\u00bchrungs": 9415, "\u0120betracht": 9416, "\u0120compon": 9417, "\u0120spite": 9418, "\u0120entsch\u00c3\u00a4d": 9419, "\u0120justify": 9420, "\u0120proved": 9421, "\u0120strukture": 9422, "reiber": 9423, "\u0120zweiter": 9424, "parte": 9425, "\u0120ziemlich": 9426, "\u0120fortun": 9427, "\u0120brok": 9428, "\u0120aktuellen": 9429, "\u0120evp": 9430, "\u0120mainstream": 9431, "\u0120pays": 9432, "\u0120bestehende": 9433, "\u0120projekten": 9434, "\u0120st\u00c3\u00a4rkere": 9435, "\u0120dankbar": 9436, "atoren": 9437, "\u0120farming": 9438, "\u0120h\u00c3\u00b6chste": 9439, "\u0120breach": 9440, "\u0120undertake": 9441, "\u0120heads": 9442, "\u0120russischen": 9443, "\u0120electric": 9444, "\u0120garantieren": 9445, "\u0120vorbereitet": 9446, "\u0120rapidly": 9447, "\u0120nachhaltige": 9448, "\u0120beruhen": 9449, "\u0120schlecht": 9450, "\u0120spoke": 9451, "\u0120observations": 9452, "\u0120ships": 9453, "\u0120sterckx": 9454, "\u0120bedroht": 9455, "\u0120kakaob": 9456, "sprogramme": 9457, "board": 9458, "\u0120pursuant": 9459, "\u0120jugoslawien": 9460, "\u0120lobby": 9461, "\u0120obstacles": 9462, "gipfel": 9463,
[...]
