e n
e r
i n
Ġ a
Ġ d
Ġ t
c h
Ġ s
o n
e s
Ġt h
u n
Ġ w
i t
i s
Ġ b
a t
Ġth e
r e
i e
a n
Ġ m
o r
Ġ f
Ġ e
Ġ p
Ġ in
Ġ o
Ġ c
a l
i on
a r
Ġ h
Ġa n
i ch
t e
r o
Ġ g
Ġ un
Ġ v
l e
a s
Ġ n
en t
u s
Ã ¼
Ġo f
Ġd ie
u r
un g
Ã ¤
in g
Ġd er
Ġb e
Ġt o
Ġan d
l l
Ġ z
o m
Ġ k
i g
Ġun d
e d
Ġ i
i c
s t
Ġ l
Ġe in
e m
e l
Ġ re
r a
Ġ is
t er
i r
e t
u t
at ion
i l
t en
e it
d er
o l
u m
Ġs t
Ġv er
d en
g e
s ch
Ġ r
a m
c t
Ġa u
i es
h r
Ġf or
b er
Ġp ro
i v
Ã ¶
u l
d e
l ich
Ġe u
Ġd as
is ch
Ã¼ r
Ġz u
Ġ er
a b
om m
Ġ on
g en
i er
Ġd en
i m
ich t
o t
es s
Ġi m
es t
Ġa l
an d
p e
Ġs e
Ġw ir
Ġ j
Ġm it
Ġw e
o s
Ġs o
c e
l y
Ġth at
i d
Ġau f
Ġv on
er e
Ġc on
Ġw h
a ch
Ġeu ro
Ã Ł
Ġd e
Ġ it
or t
Ġg e
v er
Ġf Ã¼r
f f
k t
is s
Ġ y
Ġd es
f t
Ġa s
it h
Ġn e
Ġc o
Ġd ies
Ġw ith
o w
Ġis t
i ll
Ġa us
m en
Ġs ch
Ġp r
Ġh a
Ġ (
Ġs ie
er s
Ġ le
Ġa re
Ġ 1
e in
a y
Ġ 2
q u
v e
ung en
in d
at e
c k
Ġth is
Ġp ar
0 0
is t
m ent
Ã¼ ber
u p
isch en
i k
Ġy o
Ġe x
Ġ en
o p
i en
a d
Ġw er
Ġa b
Ġein e
t h
Ġd em
Ã¤ n
a g
an t
Ġv or
i b
Ġal s
iss ion
s te
Ġc omm
it y
Ġ or
Ġm o
iv e
i al
a h
Ġ ent
us t
a k
Ġ es
n en
Ġs ich
Ġa ll
Ġ Ã¼ber
un d
Ġ ch
Ġ um
a u
s p
n e
Ġwer den
Ġm e
Ġb y
Ġn ot
f or
Ġn icht
h t
Ġa t
en d
Ġc om
i f
w e
an n
ro m
Ġw ill
ig en
u ch
Ġh o
Ġa r
a in
p ort
u g
Ġs h
b en
Ġ -
Ġun ter
te l
Ġdas s
Ġeuro p
Ġre g
Ġin ter
t r
as s
Ġeuro pe
ung s
er n
ion s
Ġha ve
al l
p l
u b
u re
ul d
Ġ us
sch a
te d
ie l
z e
Ġ ich
r an
l ie
d u
Ġyo u
a hr
Ġt e
Ġun s
Ġw as
t s
Ġau ch
h al
Ġd a
Ġf rom
h en
Ġg es
Ġr es
an g
Ġwh ich
g r
Ġk omm
Ġb es
Ġh e
Ġs p
Ġw o
Ġwir d
ar d
l a
Ġw or
us s
Ġs ind
Ġd o
scha ft
Ġh er
i p
Ġa m
Ġb er
Ġp ol
isch e
m e
in e
Ġw ie
Ġn o
Ġa d
a p
Ġg r
Ġh as
for m
i z
o g
Ġeurope an
b e
u e
Ġn ach
Ġz ur
Ġm an
s e
Ã¤ t
Ġcom p
ll en
Ġbe i
. .
Ġd ur
Ġco un
ic k
Ġeurop Ã¤
a us
o d
Ġd i
Ġ ro
et z
Ġh ab
ation s
Ã¶ n
k eit
Ġi h
Ġh at
Ġm a
ation al
h er
b eit
c c
Ġf in
Ġa p
Ġpar t
Ġm ar
Ġo p
a ge
ig e
g es
is e
en s
u d
id ent
Ġc an
ab le
er t
i a
lich en
Ġ qu
Ġcomm ission
Ġs te
as t
ul t
ig ht
h eit
at en
ct ion
s s
Ġ2 00
er en
r it
Ġo ur
en n
it ion
p r
Ġst r
Ġk on
Ġals o
Ġg ro
Ġo der
Ġdur ch
o k
f Ã¼
Ã¤ r
at es
Ġk Ã¶n
m er
t z
o c
Ġein er
p ro
Ġit s
ic al
Ġa g
h men
der n
v el
ic e
am ent
at ed
i o
Ġp l
e ct
Ġg en
Ġhab en
Ġ ra
Ġf ra
Ġt ra
em ent
em ber
Ġth ere
a re
h l
Ġg o
or d
el t
Ġs er
Ġkomm ission
Ġf a
Ġd ar
Ġbe t
o re
f en
Ġdies e
Ġun ion
Ã¼ n
Ġinter n
c ial
c on
ig n
Ã¶ r
ar t
is h
st en
Ġcon t
Ġi hr
Ġein en
om e
o ur
Ġpro du
Ġse in
ier en
Ġpr es
an ce
Ġb ut
lich e
c l
Ġpar l
an z
m s
Ġin d
Ġs pe
h e
g er
Ġho tel
te t
Ġf re
Ġm Ã¶
y ste
g ra
Ġw ar
th er
ar y
o ut
ier t
Ġw ur
ch t
ch en
Ġp re
an k
ak e
Ġd is
Ġmo re
Ġne w
Ġ1 9
g t
e ar
Ġin form
p os
Ġg em
Ġa cc
Ġ 3
it e
l o
i de
ĠkÃ¶n nen
z u
Ġm ember
Ġthe ir
Ġo b
Ġyo ur
ch n
Ġz um
r u
w er
Ġm r
Ġs up
Ġm in
Ġp er
ĠeuropÃ¤ ischen
Ġc l
Ġs a
i an
es e
Ġt ran
Ġih re
ut z
gra m
Ġp o
Ġe m
Ġz w
Ġal le
as e
Ã¤ s
i le
ch e
Ġp os
g lie
Ġz us
Ġin st
Ġw eit
st a
Ġver b
Ġw enn
Ġf r
Ġwo uld
ier ung
Ġein em
im e
Ġof f
g lich
im m
Ġbe en
c il
g an
l and
Ġher r
re at
Ġpol it
w o
il d
u te
m it
Ġdies er
k s
Ġl a
ie d
t ra
n ah
t o
Ġsh o
Ġ up
it ies
Ġon e
f e
Ã¼ ck
Ġf e
Ġk ann
Ġcon s
k e
o ll
Ġm on
Ġi f
n er
Ġcoun tr
Ġg er
ig keit
ah l
Ã¤ hr
Ġn ur
Ġj ahr
on g
Ġthe y
am e
Ġin v
Ġh in
p t
Ġme hr
Ġsho uld
b ar
b le
Ġb r
os e
w ick
ut ion
Ġmit glie
Ġj ed
Ġp e
ch te
omm en
te il
re ich
ug h
Ġar beit
Ã¼ ss
Ġo ut
Ġdi re
c es
Ġe ff
i re
el y
Ġe v
Ġpro v
u al
ge b
Ġser v
Ġt r
f r
p le
Ġso ll
Ġs yste
Ġwor k
or s
vel op
t schaft
Ġp ers
Ġth ese
ub l
kt ion
Ġde velop
Ġo ther
Ġinform ation
Ã¤n der
Ġs ol
Ġb est
Ġr at
a il
Ġge gen
sch l
Ġin s
a c
Ġst ates
Ġ .
ing s
am men
) .
Ġa ber
Ġge w
Ġgem ein
fÃ¼ hr
Ġintern ational
Ġne ed
Ġmar k
Ġ2 0
a ck
Ġy ear
Ġa ut
at er
Ġno ch
ff en
Ġm en
Ġh and
Ġre c
is ter
c ed
j ect
Ġpro gram
ar beit
Ġf ir
Ġmitglie d
ment s
p er
Ġm ein
b s
Ã¤s ident
Ġk ein
Ġzus ammen
l d
Ġent wick
ol og
Ġm ust
Ġwur de
it Ã¤t
ik e
f ahr
ter n
Ġcoun cil
l in
Ġda ÃŁ
Ġt er
Ġpro ble
Ġ 4
Ã¼ tz
Ġf l
ent s
Ġh ow
le ich
ÃŁ en
at ive
ent r
ur es
Ġ ,
p f
p h
Ġwh o
al t
Ġon ly
on e
Ġ 5
Ġb o
Ġde c
Ġb is
s ib
Ġver y
ne hmen
Ġl o
Ġbe f
sch en
Ġs ub
Ġa ct
c ess
u en
h n
au f
ass en
on der
Ġas s
Ã¼ss en
Ã¤n d
Ġs it
Ġreg ion
Ġs uch
an s
f l
g et
Ġte chn
Ġv ie
Ġr ight
Ġn ational
con om
ate g
er g
sta aten
f ol
ig t
Ġbe c
Ġm Ã¼ssen
.. .
Ġan y
Ġt ime
Ġl and
h o
Ġbes ch
te ll
l ung
il ity
x t
Ġab out
ul ar
Ġd am
Ġe le
Ġe conom
Ġpres ident
Ġuns er
k en
Ġim port
Ġb as
io us
v or
d s
Ġg u
Ã¤ l
Ġmark et
Ġges ch
ig h
Ġo ver
sch e
Ġre l
if ic
w end
at z
Ġar t
c y
k te
Ġl ike
w or
iv en
al s
Ġund er
o v
Ġpol ic
i ent
al ly
Ġse hr
ic es
i der
an ge
s en
le gen
w ie
ig er
Ġv iel
c re
Ġh ier
Ġdies em
le d
hal ten
Ġwh at
a ct
Ġthe m
Ġn at
f er
Ġre port
Ġpr Ã¤sident
z en
Ġz eit
Ġe ing
Ġ Ã¶
m an
Ġwe ll
Ġl ie
ay s
m in
Ġcountr ies
Ġj ust
Ġwh en
Ġparl ament
al e
Ġge b
w ir
Ġpro pos
i ament
Ġag re
Ġk o
Ġpers on
Ġb en
o y
Ġm y
ĠeuropÃ¤ ische
Ġh el
Ġst a
r y
et t
Ġunter st
Ġst and
Ġwir tschaft
i den
Ġparl iament
Ġpe op
is m
Ġcomm un
us e
Ġfir st
Ġad d
Ġs eit
Ġpart ic
ib t
Ġle g
Ġein es
Ġmitglied staaten
Ġe t
Ġw el
r at
Ġin to
hal t
etz t
Ġs ome
Ġdies es
Ġsup port
Ġp ubl
Ġsyste m
Ġp h
Ġdire ct
Ġf o
Ġs u
) ,
ow n
Ġin cl
in t
Ġor gan
w n
u ÃŁ
s icht
k l
z eit
er ation
Ġzw ischen
Ġver s
Ġw icht
Ġen erg
Ġgr und
Ġk l
Ġw ere
Ġm ed
un den
nah men
Ġus e
Ġso wie
is ten
ig ung
Ġfor m
Ġsich er
el n
Ġk n
le g
ard s
Ġs c
Ġwor ld
Ġinv est
h and
Ġr est
Ġdi ff
Ġpeop le
Ġqu al
Ġl oc
p on
Ġber eit
Ġ19 9
we en
h a
el s
Ġbet ween
Ġa f
o us
Ġm ach
en den
u ll
Ġv om
Ġn ow
Ġunterst Ã¼tz
Ġmo st
Ġre qu
iv es
Ġbe d
un t
Ġa v
pe ct
ent ion
ess en
t re
Ġb ere
or y
Ġfin anz
Ġth an
ĠmÃ¶ glich
Ġein z
k ommen
e ll
ie den
h Ã¶r
Ġst at
Ġz we
r ie
ur al
d it
Ġc ar
aus e
Ġs on
Ġs el
Ġtran s
ie t
Ġweit er
Ġcon c
in k
Ġg el
Ġf est
Ġpolic y
Ġb us
m ar
Ġtran sp
at ing
Ġj o
Ġc re
Ġd r
Ġe ver
Ġco ur
Ġw elt
Ġih nen
Ġma ÃŁ
p or
Ġcomm it
d em
j e
Ġag ain
Ġmen schen
u es
Ġa c
Ġ 6
ol it
Ġte il
er ung
z ial
Ġr icht
Ġm ay
ic t
z ie
m o
Ġ u
Ġb ar
at s
Ã¼ hr
Ġuns ere
Ã¤ ch
Ġp la
for der
ab e
Ġdevelop ment
Ġh is
Ġk om
Ġman y
Ġind ust
Ġse e
is ion
Ġh igh
Ġm ake
Ġro om
ag es
Ġsit u
Ġimport ant
sib le
i ff
iss en
ĠmÃ¶ chte
ver n
Ġt ake
Ġg et
Ġeurop a
Ġber icht
Ġth ro
Ġen d
hal b
Ġs in
Ġf und
Ã¤ ft
Ġde b
ff ent
Ġp ra
Ġan ge
c ted
l os
l au
t ro
Ġeconom ic
ste ll
Ġt wo
Ġihr er
Ġh um
st er
ch ts
Ġprodu ct
n is
a ce
ra uch
Ġstr ateg
Ġpubl ic
Ġ ur
Ġc le
lie ÃŁ
Ġ20 1
y s
it al
i um
Ġer w
is ation
am en
Ġunter nehmen
er v
b es
Ġbere ich
Ġk e
Ġdam it
Ġap pro
Ġgro up
c om
Ġwh ere
ot h
Ġf ol
00 0
o ch
Ġthro ugh
Ġg ibt
en z
re e
Ġf un
ab l
Ġwie der
Ġm ill
Ġgo od
Ġyear s
Ġm uss
Ġre al
ist r
Ġde ut
f in
Ġb u
Ġgro ÃŁ
Ġkein e
ur r
Ġbe g
tra g
Ġgen er
ter s
Ġma de
i or
Ġc ol
isch er
Ġbes te
b al
Ġg leich
st r
Ġver sch
Ġc ent
Ġinst it
Ġis s
u er
Ġand eren
n ung
e ver
Ġsch w
Ġ est
Ġmin ister
Ġen g
Ġaf ter
st and
Ġf ind
c o
Ġbec ause
Ġt ak
d ay
Ġn um
m a
Ġb l
Ġg reat
mit tel
Ġ 7
Ġf ran
s etz
Ġpartic ular
Ã¤ m
Ġever y
ur s
Ġf am
Ġver ein
Ġfin an
Ġpr iv
l le
Ġhum an
a v
Ã¤l t
r icht
Ġth ose
Ġch ar
re i
Ġgemein s
n et
Ġf ur
in nen
Ġ 8
p ar
Ġpro cess
Ġgo vern
Ġa ir
Ġf ar
ess ion
Ġpro te
Ġcomp an
Ġor der
iss e
Ġev en
Ġwur den
f eren
b st
Ġs m
Ġb ie
Ġa kt
Ġincl ud
Ġm ain
w are
Ġconc ern
um ent
Ġentwick lung
v ed
te gr
Ġe ben
Ġver fÃ¼
Ġres pon
Ã¤n dern
Ġagre ement
m al
we ise
it ed
Ġvie w
un kt
Ġso cial
ge ben
Ġha d
gen d
Ġle ben
g em
all s
Ġst ate
Ġme as
Ġ1 0
Ġv al
u f
Ġd el
b r
Ġb re
ke hr
Ġm et
Ġhow ever
Ġen v
ten s
Ġg lo
Ġf Ã¼hr
at h
Ġi de
Ġs im
it i
iv ers
is en
Ġin tegr
Ġw ay
p en
Ġc ap
Ġserv ices
it Ã¤
Ġc r
Ġin cre
in a
Ġpro f
Ġs ign
Ġsch l
Ġbe de
Ġdies en
on t
Ġha us
Ġap pl
te e
Ġ 9
h in
ow s
Ġare a
Ġproble m
ges ch
Ã¶ s
Ġd ann
Ġhe ute
in ess
Ġz e
Ġl u
Ġne ue
g est
ce pt
olit ik
Ġmit tel
Ġst ar
Ġcomp et
Ġbe l
Ġreg ul
Ġan t
Ġtechn olog
Ġle vel
ir on
Ġserv ice
Ġcont in
Ġim mer
Ġbe k
ze ich
Ġso zial
ĠmaÃŁ nahmen
ÃŁ er
Ġvor schl
f ul
Ġre m
g el
Ġin n
in n
fahr en
ra ft
Ġse c
ow er
Ġra hmen
Ġd at
Ġc urr
Ġeff ect
Ġl ang
Ġv is
f ore
f ort
f ten
ing en
Ġst ud
h ne
Ġe l
nah me
Ġihr en
Ġse ine
ra g
wor k
Ġg anz
Ġenv iron
en g
Ġright s
Ġbe ing
Ġw Ã¼r
Ġsel bst
sp r
Ġt a
Ġc or
pl oy
Ġthere fore
Ġjed och
Ġman ag
Ġen s
Ġf oll
Ġfa ct
Ġh ere
Ġaut h
ant s
Ġqu est
Ġb ank
Ġsitu ation
d ition
la gen
Ġb Ã¼r
Ġenviron ment
Ġwith in
g ang
h ol
Ġw Ã¤hr
p ly
Ġbus iness
Ġkn ow
Ġcommun ity
re ad
es ent
il y
Ã¤ ge
Ġop t
Ġv o
Ġo wn
Ġpolit ical
k on
in es
Ġim ple
Ġbe tr
Ġnum ber
Ġne uen
Ġent sche
Ġl ar
m Ã¶
Ġre v
i x
Ġb oth
Ġb ro
f ach
la ge
Ġcomp le
ic ult
Ġf ull
Ġre chts
Ġstr u
Ġpl ay
b l
s atz
ent ly
w ort
Ġg ar
Ġm ich
Ġs k
onder e
Ġm us
ur n
Ġbe lie
h ip
Ġk le
Ġs et
Ġprov id
v ing
l er
im mer
ch ten
Ġav ail
re chen
Ġz ahl
Ġintern et
Ġbereit s
op eration
lich er
el le
ier te
it t
Ġdis c
Ġex per
ĠÃ¶ ffent
Ġn or
Ġprogram m
al en
Ġg ra
Ġe qu
Ġpro ject
Ġco uld
Ġcle ar
f ra
Ġbe it
Ġz iel
Ġ %
Ġpla ce
Ġgemein schaft
Ġglo bal
Ġfur ther
ier ten
Ġp ort
p s
Ġa ff
is ed
Ġe igen
w ert
ach t
Ġl ast
Ġwe bs
Ġdes ign
g ar
Ġagain st
Ã¤ h
Ġfinan cial
kt ur
Ġpos sible
Ġsoll te
rit t
Ġv ar
Ġet w
w elt
Ġex am
Ġwicht ig
Ġpr in
Ġs ur
ad t
Ġj e
a ut
Ġmill ion
ert ain
g ung
Ġsicher heit
Ġn et
Ġcon st
sch lieÃŁ
at ter
o ugh
Ġt reat
Ġacc ess
Ġw en
a z
Ġfoll ow
Ġf ut
ut ions
Ġda zu
Ġre du
Ġdo es
Ġprogram me
Ġb ud
Ġbest imm
ro und
Ġad op
Ġcons ider
te m
Ġim pro
sch r
i ft
Ġd ien
2 0
Ġzwe i
Ġaus ge
Ġg ut
Ġin iti
Ġunser er
ab en
Ġop er
Ġfre e
Ġmo d
at t
Ġre cht
Ġop en
Ġauth or
Ġer fol
Ġfra u
Ã¤ ÃŁ
Ġh ol
Ġs ame
Ġste ll
a ir
est s
Ã¤n g
Ġre pr
ze ug
Ġver w
Ġo hne
Ġau ÃŁer
Ġger man
Ġv ol
Ġent sp
Ġh al
iv er
Ġden n
Ġgr Ã¶
Ġ [
Ġn utz
Ġr is
Ġall er
Ġd own
o unt
ic s
Ġth en
Ġt re
Ġmeas ures
Ġk ol
Ġ ...
Ġle tz
l ine
u de
is p
c ing
it z
Ġrequ ire
Ġ1 5
Ġad v
Ã¼ h
w eit
reich en
al th
Ġp le
be wer
Ġs w
f Ã¼r
ab ility
Ġla w
ru ck
on s
ver s
Ġden en
Ġi r
Ġsoll ten
Ġson dern
Ġand ere
Ġjahr en
Ġavail able
Ġh Ã¶
Ġspe c
it s
Ġsch a
Ġb al
Ġoff er
Ġbe z
Ġ Ã¤nder
entr al
Ġm il
Ġum f
l es
up t
Ġzusammen arbeit
st Ã¤nd
tell t
Ġg est
Ġdiff er
z us
Ġverb ess
ic ation
Ġsin ce
a ur
Ġhab e
Ġme et
kt or
Ġhel p
Ġbe gr
Ġl ong
i ze
a de
n isse
Ġm ak
Ġto day
Ġst ill
Ġver l
Ġus ed
ett bewer
ro l
Ġpr ior
Ġre form
Ġv oll
Ġse ct
Ġf all
Ġf il
Ġproduct s
Ã¤ hl
Ġfut ure
lin ie
Ġsec ur
ĠbÃ¼r ger
an der
Ġwith out
k ten
Ġf Ã¶r
Ġh ar
Ġspe cial
Ġl in
kl Ã¤r
r ess
Ġw issen
Ġge f
Ġit al
Ġh ist
s o
il fe
im in
k un
Ġsp iel
Ġw ant
Ġfor t
Ġenerg y
Ġne g
Ġcountr y
Ġs y
Ġimple ment
Ġr uss
un ter
ur ch
Ġinn ov
wo hl
ich te
Ġc ust
bes ondere
is l
iv id
Ġe as
Ġvie le
Ġd ah
Ġinformation en
Ġbef ore
Ġversch ieden
Ġeing e
Ġat t
Ġcommit tee
lich keit
Ġpre v
Ġt y
ĠkÃ¶n n
Ġum welt
Ġb ack
Ġfin den
Ġgener al
Ġbede ut
Ġa men
Ġm uch
Ġdur ing
am p
Ġact iv
Ġcust om
le ist
Ġc it
Ġw ettbewer
Ġd aten
Ġins besondere
Ġs om
Ġcon tr
Ġdiffer ent
Ġdat a
Ã¤ re
der s
in s
Ġfra ge
Ġges am
f ern
Ġp at
Ġgro w
Ġall en
Ġmember s
ical ly
Ġcomm on
b o
read y
Ġam er
e f
Ġbe isp
Ġr u
en de
Ġl i
Ġto ur
Ġa ch
ab il
w ay
ent ial
Ġbud get
Ġtransp ort
un e
v es
Ġs ay
Ġal ready
w ard
Ġb it
Ġpl an
sp ro
heit en
Ġpos ition
Ġk r
Ġsm all
o ff
Ġrest aur
Ġcommission er
Ġa id
Ġab le
Ġso ft
at or
Ġdar auf
ul es
qu e
ro p
ĠwÃ¤hr end
Ġob ject
Ġein ige
if ied
Ġn un
gr ess
lich t
Ġma j
Ġc as
en ce
Ġem ploy
Ġdo ch
ne h
Ġc ase
Ġsecur ity
Ġdirect ive
ib le
is ierung
abl ish
Ġmar kt
f te
Ġp ut
Ġj etzt
Ġz ust
p re
Ġse con
Ġc ity
Ġarbeit s
Ġbes onder
Ġamen d
Ġco operation
kun ft
Ġre p
if e
el f
Ġhe alth
Ġpropos al
Ġleg isl
Ġa ction
Ġc ertain
ist s
ah re
Ġa gr
Ġer st
ation en
ber e
h Ã¤lt
Ġp al
Ġpo int
Ġwar en
Ġsein er
Ã¤t z
if ten
ien ce
Ġe ach
Ġcit iz
Ġco st
un der
Ġlo ok
Ġd u
Ġens ure
c r
en e
wir tschaft
Ġmo dern
Ġest ablish
Ġdah er
pr ess
Ġ1 8
Ġda fÃ¼r
Ġ1 2
as ed
Ġ Ã¤
Ġd et
Ġ 0
ĠmÃ¶glich keit
Ġreg ard
Ġst ra
Ġare as
Ġb ild
Ġmach en
Ã¼n d
gr und
Ġtra de
mar kt
h ing
ten d
Ġex p
Ġk ur
Ġre f
Ġmaj or
Ġc al
Ġsecon d
re it
n ess
Ġind ivid
setz ung
Ġach ie
re g
Ġin de
Ġ rom
Ġpos it
Ġinclud ing
Ġi d
ism us
Ġbie tet
Ã¶ l
k r
Ġl age
b ed
Ġmo b
Ġein fach
Ġprote ction
Ġinst r
schr iften
Ġm or
Ġcont rol
a kt
ut h
e p
Ġdem oc
ord in
Ġqual ity
iss ar
z iel
Ġth ink
Ġlie gt
ĠgrÃ¶ ÃŁ
i ÃŁ
Ġbeisp iel
icht s
Ġp ass
Ġs l
Ġte xt
2 00
ich ten
Ġc ann
Ġko sten
Ġpro je
ann t
um s
Ġwe il
p unkt
Ġm ot
Ġm ult
ig ten
Ġte le
abe i
Ġfo und
Ġzur Ã¼ck
fÃ¼hr t
Ġd abei
ra gen
ord nung
c ome
gen ommen
ear ch
Ġn ie
Ġsa id
Ġre t
Ġfol gen
ass ung
r on
k re
Ġne cess
Ġcons um
Ġj ahre
al k
sp l
Ġbas is
Ġch e
Ġcon f
ur g
or g
ain s
Ġaus sch
Ġres earch
le ct
Ġmanag ement
Ġele ct
Ġcitiz ens
Ġr ules
Ġadd ition
Ġeinz el
Ġwh ile
Ġvorschl ag
k omm
p o
Ġp ay
Ġho use
der ung
Ġcon v
Ġho ch
Ġan n
l ungs
Ġgovern ment
il t
Ġweit ere
ic a
ie w
scha ften
ier ungs
ok rat
Ġr ates
Ġter r
Ġl Ã¤nder
Ġsoft ware
Ġd ank
Ġth ree
b au
Ġquest ion
m ed
g leich
Ġf le
Ġp ower
Ġwir k
Ġer klÃ¤r
Ġke y
ĠunterstÃ¼tz ung
Ġregion al
Ġd ay
ater ial
Ġ200 9
ĠwÃ¼r de
in ing
Ġwebs ite
ste llen
Ġm al
Ġge ht
Ġprov ide
Ġc ult
Ġmein e
Ġe ar
Ġall ow
Ġbe im
Ġsch on
iv ing
Ġg l
z ess
Ġpres ent
Ġre as
e h
imm t
le gt
Ġnot wend
ell schaft
Ġcour se
Ġzw eit
Ġde p
ir d
fÃ¼hr ung
Ġto o
h an
Ġdar Ã¼ber
on d
at ely
Ġsyste ms
Ġpr ess
r es
Ġdisc uss
Ġn on
Ġenerg ie
in en
Ġd ial
Ġ x
Ġs ing
Ġb in
Ġpolit ik
Ġcann ot
ich er
Ġta x
l ungen
Ġz ie
Ġpart ner
z ahl
Ġgew Ã¤hr
Ġfra gen
Ġp op
Ġaut om
am er
Ġres pect
Ġst art
o b
Ġt un
gem ein
ro ss
Ġm ir
Ġex pl
Ġinstit ution
Ġres ol
itÃ¤ ten
Ġch ild
g ed
Ġroom s
Ġbelie ve
Ġne xt
Ġd rei
Ġth ank
Ġst Ã¤r
Ġfra me
Ġprin c
ib en
uch t
Ġleben s
Ġme ans
dit ions
m b
v ement
Ġl assen
Ġb ess
og ra
s yste
Ġf ore
stell ung
Ġcontr ib
it er
Ġt ro
Ġres ult
Ġl ab
Ġtak en
es en
Ġra p
Ġpart n
ah n
gan gen
Ġste hen
Ġfam il
Ġalle m
Ġnat Ã¼r
igkeit en
Ġpro ced
ktion en
ual ly
im es
Ġentsche id
Ġdien st
re d
Ġan al
Ġe ur
Ġbu ild
el d
i ate
Ġoff ers
cc ess
ant wort
ut es
Ġinter ess
om en
Ġre le
Ġs an
Ġacc ount
wend ung
bere ich
Ġexam ple
Ġdec ision
Ġin ner
Ġl im
Ġbo ok
b t
k o
Ġpra ct
Ġpar k
Ġk in
iv il
as tr
Ġtra dition
Ġerfol g
Ġiss ue
Ġd ra
Ġleg al
etz en
Ġdem okrat
Ġacc ord
g aben
r en
k ungen
Ġent er
Ġst adt
zie h
Ġas k
und heit
Ġnecess ary
Ġ1 1
Ġt ag
Ġde f
Ġg iven
Ġk ult
Ġa im
Ġre ce
e c
ho f
Ġl is
f alls
Ġproble ms
Ġun ivers
Ġle t
Ġbesch Ã¤ft
Ġ &
cl us
Ġg re
Ġde fin
g lichen
iz ed
i od
ass er
ot her
Ġver trag
port un
m on
Ġricht linie
Ã¤ d
Ġdial og
Ġch ange
Ġkomm issar
Ġs um
et s
Ġsect or
Ġbe w
Ġ3 0
Ġs al
ich ter
Ġop portun
Ġcompan y
et en
um en
Ġre ad
w ards
all en
Ġlar ge
Ġperson al
is es
Ġsu ccess
Ġsch ne
Ġda v
Ġwo llen
Ġbas ed
Ġdes halb
i ation
Ġer halten
Ġherr n
an gen
Ġer sten
Ġinv ol
Ġste llen
w ays
Ġab ge
Ġreg el
Ġb il
Ġsp an
ck en
Ġw ind
Ġand er
Ġon line
mÃ¶ glich
Ġwh y
sch ied
ge hen
Ġher aus
ort h
Ġsch utz
los sen
Ġz immer
Ġun ited
t y
Ġw ach
Ġ2 5
Ġse hen
alt ung
Ġver tre
f Ã¤h
z w
Ġframe work
ra um
Ġl ife
d ing
sch utz
is ions
le it
Ġbet ter
Ġ201 0
Ġfollow ing
Ġg ive
Ġer geb
Ã¤ ss
Ġl Ã¤ndern
are d
iet y
Ġfo od
Ġf iel
Ġuns eren
Ġin fr
ze pt
ar en
Ġk m
Ġben ef
Ġst re
Ġcent re
Ġl Ã¶s
Ġrepr esent
Ġpro gress
Ġverb rauch
Ġab s
t ing
te xt
rit te
Ġle ad
1 0
hal ts
Ġh ome
Ġer forder
Ġm aterial
Ġinternational en
am m
f re
iv ely
ing ungen
Ġcompan ies
Ġt ar
Ġgrow th
feren ce
Ġcurr ent
Ġm er
Ġhist or
Ġpriv ate
Ġf ahr
Ġcom b
Ġparlament s
o ck
et her
ges tellt
Ġpartn ers
Ġver antwort
] ]
Ġn ah
h Ã¤ng
ungs ant
Ġs port
Ġrep ubl
Ġhotel s
Ġkon tro
Ġid ent
as ch
Ã¤t ze
Ġre ach
Ġstru ct
c a
Ġbr ing
Ġneed s
b urg
Ġreg ierung
Ġeff ort
Ġth ird
ach e
u ge
Ġindust ry
Ġb or
Ġcon ditions
k er
Ġwirtschaft s
if y
Ġp a
p olitik
ff e
uch en
Ġstat t
Ġfa cil
Ġst ay
Ġp ack
Ġ200 7
Ġfor sch
Ġihre m
Ġch ina
t ain
Ġpro m
Ġ200 8
eng th
Ġim p
Ġg lau
o gen
Ġt ats
Ġloc al
d r
Ġdeb ate
Ġwel che
Ġor ig
Ġbedeut ung
Ġso c
Ġe c
b ild
Ġcour t
Ġ[ [
Ġorgan is
Ġinter est
Ġwork ing
ed er
Ġdeut sch
Ġa k
Ġges undheit
Ġw ater
Ġan other
Ġver st
Ġfe w
te llen
Ġetw as
f on
Ġadop ted
Ġle a
Ġbeste ht
u ter
Ġap art
sib ility
h ang
Ġloc ated
Ġiss ues
Ġcom e
Ġs or
g abe
Ġpo st
Ġk unden
Ġge ben
Ġadd ress
Ġb le
un de
Ġneg ot
enn t
bl ick
Ġex ist
ge w
Ġen de
Ġprodu ction
Ġper iod
ch s
Ġt ur
Ġsa f
ik an
d ruck
Ġwh ether
Ġver pf
Ġwe b
Ġg ol
Ġv i
n ing
Ġto get
Ġa fr
ug ht
Ġtoget her
teil ung
Ġd istr
Ġar ch
Ġall gemein
imm ung
Ġsing le
Ġan geb
du c
Ġc entral
Ġ200 0
Ġan ges
Ġder en
Ġro le
Ġtreat y
Ġ /
Ġjed er
Ġd id
is ing
ch an
g o
Ġkon t
Ġgesch Ã¤ft
Ġagr icult
Ġwor den
Ġste ht
Ġsein en
Ġein mal
Ġge hÃ¶r
o ver
ag t
ind et
Ġinst all
Ġspec ific
Ġto t
Ġletz ten
Ġ1 6
Ġra d
v en
ing e
sp ra
ar an
Ġvis it
Ġprodu kt
ent en
Ġch o
Ġ1 4
â Ĥ
âĤ ¬
ul ation
Ġfre i
ig es
Ġorig in
Ġvers ion
op p
Ġl ess
Ġk ar
Ġm ag
um ents
Ġwe g
Ġsh ort
Ã¶ t
ist ance
Ġbet re
Ġsa gen
ut en
Ġr Ã¼ck
ik el
sp olitik
Ġintegr ation
Ġter ms
ik a
Ġm ad
se qu
Ġterr or
Ġs ite
Ġex ce
re chte
Ġm at
j oy
e hen
Ġd om
land s
Ġch ang
Ġple ase
ie f
Ġbe ach
Ġt em
Ġe duc
Ġinner halb
Ġso wohl
Ġen joy
Ġindivid ual
Ġver k
3 0
Ġpartic ip
Ġsom et
r Ã¤n
i ar
er st
i ations
air s
Ġdis k
s er
Ġstand ard
Ġc rit
Ġap pe
Ġbre ak
Ġstrateg y
Ġ5 0
Ġto p
y n
Ġus ing
Ġm ind
Ġa round
Ġregul ation
Ġte am
Ġw ahr
ĠnatÃ¼r lich
Ġus a
Ġsh all
e k
sch ein
Ġcon ne
Ġsh ow
h Ã¶
Ġad min
Ġzu kunft
Ġpolit ischen
ĠgroÃŁ e
Ġbit te
et y
Ġcomple te
Ġgro ÃŁen
Ġw Ã¤re
Ġappro ach
ĠauÃŁer dem
ot t
Ġmon th
Ġben utz
Ã¼n ft
Ġcontin ue
Ġf ern
ct ions
Ġiniti ative
Ġres our
sta at
Ġparticular ly
Ġindust r
Ġan s
ar s
Ġsub ject
re ch
im ate
Ġse ver
Ġinvest ment
Ġli ber
Ġauthor ities
k ung
Ġho pe
por te
ur y
Ġwettbewer bs
at ives
ĠkÃ¶nn te
Ġrel ations
ch es
Ġ1 7
up pe
Ġp ot
Ġn Ã¤ch
Ġgemeins amen
Ġdo c
ic ient
ic ations
r ing
ste hen
ll er
Ġgegen Ã¼ber
Ġrestaur ant
d ien
Ġl og
ish ed
Ġs Ã¼
Ã¼ f
ĠverfÃ¼ gung
Ġof fen
Ġf isch
Ġpro t
der t
Ġsh e
Ġlu x
Ġprof ession
Ġbesonder s
ver kehr
Ġactiv ities
Ġst abil
ur ing
Ġu k
Ġw a
ra cht
x im
st ru
Ġfun ktion
b y
leist ungen
Ġw rit
Ġne u
Ġex tre
au er
Ġfore ign
ic le
Ġher vor
Ġr en
p p
Ġproject s
Ã¼n st
Ġd Ã¼r
be i
ass e
Ġfle x
w Ã¤r
Ġorgan isation
z entr
Ġdav on
Ġin c
.. ..
Ġab st
astr u
Ġd ig
Ġal ways
Ġc are
Ġstand ards
Ġn amen
if iz
b et
and s
Ġst im
Ġsaf ety
Ġbec ome
Ġd ort
o ten
ens ion
Ġdiff icult
Ġder zeit
Ġam ong
Ġmil it
Ġv ill
ig r
e y
Ġro lle
Ġh ilfe
st an
Ġop in
Ġcompet ition
Ġne ar
Ġs en
f s
Ġc all
neh mer
Ġm uÃŁ
ĠunterstÃ¼tz en
Ġschl uss
Ġ1 00
Ġh ig
c le
Ġgu aran
re if
is is
Ġer reichen
Ġsp ra
Ġreas on
Ġsta ff
Ġl at
Ġfort sch
Ġw ahl
Ġo ld
ust ain
Ġd ate
Ġper form
Ġimplement ation
Ġlegisl ation
Ġw ish
re cht
Ġb ill
as ing
o un
ol s
Ġfr ien
Ġakt iv
hÃ¶r den
Ġwe ise
y l
Ġcommission s
cial ly
Ġbeste hen
at iven
Ġ1 3
Ġon ce
Ġty p
Ġexper ience
Ġrev iew
Ġver kehr
i que
Ġl ist
Ġdire kt
Ġ âĤ¬
Ġm ess
Ġerw eit
Ġin tro
ich tet
o ber
Ġcol le
Ġi l
ic ial
Ġgr Ã¼n
Ġso uth
d ings
Ġcl ose
Ġer g
Ġt urn
l ess
ific ation
Ġc a
Ġkin der
Ġinstit utions
w ach
Ġt as
Ġmach t
pro gram
Ġhat te
Ġver hand
Ġem p
Ġcr isis
Ġzusammen hang
Ġsever al
Ã¤ u
Ġ2 4
Ġnat ur
Ġvar ious
Ġk ind
Ġr un
Ġcl os
Ġzw ar
Ġemploy ment
Ġall es
Ġintro du
Ġperson en
Ġex press
5 0
Ġkomm en
Ġfra uen
Ġproble me
Ġstr ength
Ġsta aten
ig ent
Ġ ess
t ion
Ġhin aus
Ġto wards
Ġj an
Ġs ustain
ichter st
Ġbe teil
Ġp ap
Ġd an
Ġun t
Ġfran k
Ġmein er
i pl
ÃŁ e
Ġl ine
ĠÃ¤nder ungsant
fe hl
Ġequ ip
Ġk am
Ã¼ t
in ation
Ġaff airs
Ġpe ace
w a
Ġbegr Ã¼
ul ts
Ġverschieden en
it es
Ġent fern
Ġeconom y
Ġkon s
Ġwho le
Ġvo te
Ġcre ate
Ġum setzung
Ġde al
Ġer n
pe cially
b an
Ġbie ten
Ġf our
im a
Ġincre ase
ic an
Ġthem a
Ġass oc
Ġev ent
Ġfe hl
Ġz entr
Ġw in
Ġnational en
feren z
Ġk re
Ġsign ific
isch es
Ġse a
Ġbeg inn
ip le
Ġh os
forder ungen
e u
pro du
Ġaussch uss
ab ly
Ġbez ug
Ġb rit
Ġviel en
Ġkur z
m Ã¤ÃŁ
Ġm ass
Ġha upt
Ġer ste
Ġk Ã¼
Ġp age
Ġo cc
Ġw esent
Ġv ier
Ġk ap
ik en
Ġsol id
b ank
Ġv ide
Ġs ett
f assung
Ġart ikel
Ġlang u
Ġg ent
ks am
Ġes pecially
Ġf oc
Ġw es
v our
Ġgerman y
Ġ200 6
Ġso llen
Ġre d
ĠfÃ¼hr en
Ġj a
Ġseit e
Ġt Ã¤t
ier ungen
Ġf is
ro ffen
Ġcompet it
Ġkl ar
Ġn ame
Ġb rauch
Ġ :
iv ed
ers tell
Ġcont act
h aus
Ġpres iden
Ġtechnolog y
Ġkom p
el ves
Ġbe hand
Ġchild ren
Ġ Ã¼
Ã¼ s
1 9
lie gen
ma ÃŁ
Ġpolic ies
Ġbei den
Ġfe at
Ġentsp rechen
Ġzu gang
fÃ¼hr en
or en
ran g
Ġaccord ing
Ġkol legen
Ġw omen
ateg or
Ġverbrauch er
Ġresour ces
Ġweiter hin
Ġrec og
c kt
Ġdemoc rat
Ġtra ining
ch er
Ġche ck
Ġwo hl
Ġautom at
Ġfor ward
une hmen
Ġl ad
Ã¤n de
id es
Ġprovid ed
m et
omm end
Ġeigen en
Ġetw a
lo ad
Ġopt im
Ġwelt weit
Ġpo in
Ġenvironment al
Ġ 000
ber eit
Ġresol ution
Ġre fer
Ġmak ing
Ġd ue
Ġzust Ã¤nd
Ġrec ommend
Ġstell t
vor schriften
Ġstr ong
Ġaller dings
Ġph ot
Ġges etz
it ution
Ġl au
Ġseit en
s k
Ġy et
Ġm om
Ġpr ice
Ġwach st
t t
min ister
Ġgen au
en zen
m os
Ġmeet ing
Ġinfr astru
Ġpre is
Ġg Ã¤
Ã¤ gt
ind ung
up pen
pf ung
Ġh ard
tem ber
Ġm atter
od y
at te
Ġpropos als
b our
v o
Ġf ast
os s
Ġk rit
Ġnutz en
ogra ph
Ġaus wir
as st
Ġbe aut
ĠÃ¶ffent lichen
Ġeduc ation
we isen
Ġh im
Ġloc ation
Ġpropos ed
m at
c el
Ġfa ir
ro om
Ġto wn
he b
Ġauf ge
Ġunter schied
Ġentwick lungs
Ġmr s
am es
Ġal tern
Ġco ver
Ġcom fort
ie ten
th e
Ġschw ier
Ġpresiden cy
Ġcont ra
Ġsoc iety
Ġg as
Ã¤ um
Ġber ichterst
Ġsta at
Ġt est
wer k
Ġt Ã¼r
Ġl ight
iff t
iz ation
Ġges ellschaft
Ġfr Ã¼h
in den
Ġauf grund
Ġrap porte
Ġintern al
w and
le tz
Ġdo ub
Ġdet ail
Ġtot al
Ġ200 5
Ġ19 8
Ġwer t
zeich net
Ġen c
Ġfiel d
Ġfoc us
lie ÃŁen
ot s
Ã¼ck sicht
Ġwel come
at ors
Ġeffect ive
Ġzus Ã¤tz
Ġnet work
Ġm id
wÃ¤r t
Ġfull y
Ġser ious
Ġindust rie
Ġhaus halts
Ġhin ter
m ail
Ġat tra
Ġaus tr
Ġfund ament
ver b
Ġd one
Ġw est
st off
Ġhe ad
as ter
Ġb i
d es
Ġfa vour
Ġin fl
it or
Ġspe ak
Ġbef indet
Ġreg ions
Ġs at
we is
as h
Ġar g
Ġis ra
Ġjahr es
iden ce
Ġverein bar
Ġn orth
Ġsch wer
Ġsub s
ro w
Ġsignific ant
z ogen
Ġ200 4
Ġber Ã¼cksicht
Ġge legen
Ġme chan
Ġe g
Ġw ider
Ġc ivil
ar ten
Ġch r
Ġp an
Ġh y
Ġfam ily
Ġb lo
b on
Ġle ast
iv al
h il
Ġb innen
Ġital ien
Ġentsche iden
Ġne ver
Ġd est
s eit
ver fahren
Ġconcern ed
fr ist
Ġse p
Ġrem ain
lich es
Ġkon n
Ġschne ll
ll ent
Ġbe m
ge legt
Ġj ap
Ġfun ction
Ġhin sicht
v Ã¶l
Ġris k
er ien
Ġunt il
Ġno v
Ġarbeit en
Ġcl ass
Ġmarket s
i as
Ġro ad
Ġadmin istr
Ġopin ion
schl uss
ĠgeschÃ¤ft s
Ġcom pl
z ug
Ġp ur
ter m
Ġbetr ie
Ġincl ude
Ġb ra
am t
Ġver fahren
f a
Ġjo int
ition en
Ġj ul
f ast
l ig
Ġnach halt
v ention
w h
Ġne ben
Ġport ug
Ġappl ication
Ġmon ey
Ġland wirtschaft
Ġits elf
Ã¤r en
Ġkult ur
Ġfund s
Ġw asser
o ve
ian s
Ġeing es
ĠmÃ¶ chten
Ġinnov ation
Ġeffort s
mo st
Ġ ort
end ing
Ġkomm t
Ġproje kt
Ġl ink
ab hÃ¤ng
Ġof ten
Ġre ally
ĠunterstÃ¼tz t
er k
we il
ies en
Ġcustom ers
Ġhar mon
Ġcost s
Ġm Ã¤r
Ġr ange
Ã¤ cht
g s
Ġdeutsch land
in o
Ġb ig
Ġam b
s weise
Ġle ist
lin ien
Ġposit ive
Ġind em
al ity
ich en
Ġwen iger
Ġwirk lich
ar ch
h ilfe
Ġk or
th ing
Ġimport ance
it ions
Ġi i
Ġres erv
Ġstru ktur
Ġeben e
zieh ungen
Ġcap ital
in ed
ann ten
Ġsu ff
Ġeng l
Ġc e
Ġd ays
Ġproced ure
b a
Ġver tra
Ġappro pr
Ġunder stand
Ġval ue
in er
le men
Ġpolit ische
gend a
Ġjust ice
ĠfÃ¶r derung
schlieÃŁ lich
Ġexce llent
Ġer ziel
Ġentfern t
Ġmillion en
Ġlu ft
Ġne hmen
Ġess ential
Ġer ne
Ġextre m
Ġgemeins ame
Ġpart ies
Ġch allen
Ġh Ã¤t
Ġtak ing
Ġha ving
Ġvor gesch
Ġtechn ical
Ġg ed
Ġb au
fra ge
Ġmom ent
Ġgrund lage
Ġn Ã¤
Ġau ÃŁen
Ġle d
Ġdel iver
Ġ200 3
Ġgel d
v oll
Ġtransp ar
Ġcons ult
le t
Ġres ults
Ġc reat
Ġex ch
Ġn u
Ġange legen
Ġac cept
ier s
ier e
Ġj u
itÃ¤ ts
Ġc amp
Ġber lin
r Ã¤ge
Ġg ilt
Ġcontin u
Ġprovid es
Ġinstr ument
ĠgewÃ¤hr le
Ġs ens
ĠÃ¤ uÃŁ
- -
l Ã¤ndern
zeit ig
id ed
Ġkomm un
aus sch
Ġs ug
Ġpers Ã¶n
t ag
Ġfre ed
Ġsta ats
re icht
Ġcon text
ap s
o te
Ġass ess
Ġeurop as
Ġsch lieÃŁ
Ġde leg
Ġentscheid ung
Ġbr ingen
Ġunter s
Ġbess er
ure d
Ġl itt
th ers
Ġre i
pe kt
Ġprogramm es
Ġme an
Ġcommun ication
Ġkom ple
th ough
Ġele kt
Ġcont ent
Ġeben falls
Ġnie der
Ġzie le
Ġz un
z ip
Ġabs ol
Ġem pf
n a
Ġer hÃ¶
Ġer fÃ¼
Ã¤ uf
Ġdar in
Ġwissen schaft
ff ung
Ġg ute
c en
bar en
Ġgroup s
at ory
Ġimpro ve
halt ung
z Ã¼
u gen
l ing
Ġopportun ity
pl an
Ġu hr
Ġdig ital
Ġdistr ib
ement s
Ġjap an
zus tellen
Ġisra el
ĠlÃ¶s ung
c al
u x
Ġart icle
Ġdar an
Ġme isten
Ġsomet hing
Ġer fahr
Ġlitt le
Ġyo ung
h od
Ġab ove
Ġvor s
Ġk a
Ġste p
un ch
Ġal though
Ġstrength en
Ġsh are
m ut
on ger
Ġsolid ar
Ġw alk
o f
Ġzu g
Ġfreed om
Ġmob il
Ã¶ ffent
Ġsep tember
Ġe igent
reich e
Ġ2 1
Ġdo k
Ġamend ments
Ġf Ã¼n
Ġmin utes
Ġh or
r ic
Ġd ist
Ġdar f
Ġ2 2
mit glie
Ġt imes
Ġfor ce
ges etzt
Ġrec ent
r i
Ġcon ference
Ġan im
Ġconst ru
Ã¤ch lich
Ġrat her
Ġide al
Ġg ere
ar ian
Ã¤m pfung
Ġa way
Ġre chte
l Ã¤nder
Ġ +
ig ungs
es ted
ĠsÃ¼ d
hn t
Ġgre en
Ġb zw
Ġbuild ing
s h
an st
mar k
Ã¤n ger
Ġan f
Ġcon clus
Ġth us
Ġgo ing
ig te
Ġret urn
Ġfe el
Ġan wendung
Ġde v
Ġv ir
Ġp ast
Ġso ur
Ġnegot iations
ull y
Ġincre asing
Ã¤ch st
Ġmonth s
Ġpro p
Ġhand el
Ġver gangen
Ġc ir
Ġ4 0
Ġvi ol
Ġ200 2
s ide
Ġcomp uter
ue llen
Ġsub st
Ġun abhÃ¤ng
Ġcurr ently
Ġrespon sibility
Ġm ut
Ġv ia
wend et
ein ander
Ġprodu kte
ile d
Ġbek annt
Ġlad ies
ra cy
st Ã¼ck
Ġem ission
Ġenter pr
Ġimp act
Ġscha ffen
Ġpot ential
Ġwe ek
richt ung
Ġger ade
Ġsch ul
Ġl ive
Ġop pos
Ġjed en
Ġet c
ot ing
it en
Ġke ep
Ġgleich zeitig
ist ic
Ġfundament al
w ahl
Ġrequire ments
b are
Ġfl ug
al le
is on
Ġstrateg ie
Ġbreak fast
Ġwor ks
Ġob lig
Ġmein ung
b el
Ġa genda
Ġal ong
Ġair port
Ġste uer
f ect
Ġf lo
ll t
at iv
Ġfin ally
Ġinde p
Ġc y
te chn
Ġth ings
y ing
Ġjan u
z immer
Ġgent lemen
Ġsol ution
Ġno te
uf act
un kte
ish ing
Ġin t
Ġver Ã¶ffent
Ġsch o
le i
Ġm ight
Ġbereich en
Ġeas y
Ġnat ural
Ġr und
Ġopt ion
Ġex tra
Ġd essen
Ġso gar
Ġqual itÃ¤t
Ġsch r
Ġmed ia
Ġm use
Ġverb unden
Ġauswir kungen
Ġse em
Ġst ock
Ġm ention
Ġsol che
Ġbe vÃ¶l
Ġap ply
Ġman ufact
fÃ¤h igkeit
Ġo thers
in st
Ġe d
Ġrespon sible
Ġpoin ts
cept ion
Ġpart y
Ġj un
Ġn ight
Ġrequire d
e ign
Ġmet hod
en ted
Ġagre e
te ile
Ġgem acht
Ġle ar
spra che
mo te
Ġun ver
Ġvorgesch lagen
f all
Ġhand els
Ġim m
Ġprinc iple
Ġberichterst atter
Ġmo der
Ġunser em
Ġc ross
Ġgreat er
ar te
p ed
Ġrele v
led ge
1 2
Ġwicht ige
Ġc la
Ġemp fehl
por ted
Ġsup er
Ġup d
Ġc at
Ġbe hÃ¶rden
Ġst ation
gen cy
Ġpra kt
Ġso und
ist an
Ġmo unt
Ġfin al
Ã¤ gen
Ġmon itor
Ġbesch l
Ġer k
Ġre chn
Ġoff ice
Ġmin im
Ġquest ions
Ġle ft
Ã¤hl en
Ġwirtschaft lichen
Ġ200 1
Ġbel g
ad a
Ġ )
u tet
Ġdown load
Ġex port
is iert
Ġcl imate
Ġrapporte ur
and id
ĠgÃ¤ ste
Ġdevelop ing
Ġenc our
Ġn ord
Ġsp a
w Ã¼r
ne te
eh m
Ġsa fe
r il
Ġ |
Ã¼ss el
Ġger ichts
Ġb ul
Ġverbess erung
Ġk os
st adt
Ġqu ite
Ġeff iz
t on
b ahn
Ġge hen
en nen
e llen
le ben
Ġl ow
Ġbetr ifft
mit ted
Ġinternational e
Ġcontra ct
Ġsch ritt
Ġcas es
ĠnÃ¤ch sten
Ġcar r
Ġge geben
Ġregion en
ge gen
Ġtro tz
ick en
se hen
Ã¼f ung
Ġl es
s a
ach en
Ġein igen
sch n
Ġre la
Ġhol id
Ġcal led
Ġkl ima
ĠhÃ¶ ch
k a
Ġexist ing
Ġb ad
Ġchr ist
ur en
Ġfar m
ges ehen
Ġhand elt
le icht
Ġwe gen
ag ement
Ġfran ce
or gan
umen te
Ġb ath
Ġil leg
Ġm em
Ġprote ct
re chts
Ġgar ant
Ġi ra
Ġumf assen
Ġent schlieÃŁ
Ġpr ices
Ġnov ember
Ġatt ention
Ġpur pos
Ġan genommen
on a
Ġj ud
ĠfÃ¼n f
Ġat mos
Ġsustain able
ĠwÃ¼r den
Ġsozial en
z a
Ġma xim
op er
Ġmak es
Ġmus ic
Ġliber al
ĠÃ¼ber ein
f ully
Ġsein em
Ã¤m lich
an a
e x
Ġf ight
Ġb uch
h es
op s
Ġc ard
reif en
Ġverst Ã¤r
Ġarbeit spl
Ġachie ve
ĠdÃ¼r fen
Ġconcern ing
Ġn Ã¤mlich
Ġbinnen markt
Ġin tens
Ġvoll stÃ¤nd
al ten
Ġse i
Ġs ure
icher heit
Ġsch we
Ġforsch ung
Ġmad am
Ġvorschl Ã¤ge
Ġpar te
Ġstell ung
k erung
Ġih m
Ġor d
Ġme er
b est
Ġaddition al
Ġus er
hal f
a uss
Ġcult ural
Ġrei he
Ġr ate
Ġabge ord
Ġverpf licht
l t
Ġfil m
Ġchar ac
Ġver ordnung
Ġent ire
at ten
Ġre in
Ġhin blick
ck s
Ġprev ent
Ġneed ed
Ġl ok
Ġweit eren
rie ben
Ġl ater
Ġt able
Ġeinzel nen
we g
Ġbeaut if
Ġsicherheit s
u elle
Ġcle an
Ġdem and
as es
Ġlin ks
Ġer zeug
maÃŁ nahmen
Ġd im
ÃŁ t
on es
Ġanal ys
Ġoff icial
bild ung
Ġsol utions
e g
st ra
Ġappropr iate
Ġdeut lich
Ġobject ive
Ġbed ingungen
Ġnew s
Ġass istance
Ġview s
l ar
im s
Ġpro zess
Ġdem on
Ġt v
ĠÃ¼ber n
Ġnicht s
Ġbes uch
Ġop eration
Ġflex ib
Ġnat ure
Ġas pect
Ġk raft
syste m
setz en
Ġm iss
cl ud
Ġwind ows
Ã¶ ff
Ġbe vor
Ġs il
Ġco p
Ġwachst um
se e
Ġcent er
i ents
Ġp unkt
Ġbe half
Ġinteress e
Ġco ordin
Ġth er
Ġm ic
mittel n
n t
Ġfrien d
j ahr
Ġclear ly
Ġverhand lungen
Ġfran z
al itÃ¤t
Ġco de
Ġobject ives
ĠprÃ¤sident in
Ġe th
Ġt w
zie hen
Ġtar get
Ġbis her
c ent
Ġt en
Ġver tr
Ġeben so
ĠkÃ¶nn ten
Ġfisch ere
iven ess
Ġje weil
Ġgemeins am
Ġerforder lich
z er
f il
fon ds
cr ip
Ġgr enz
Ġcont ain
i j
Ġih n
Ġsit z
h under
i ra
au ft
is tet
Ġsim ply
v ere
Ġb a
arbeit ung
Ġev ents
Ġbeispiel sweise
Ġp f
Ġac ross
al u
ĠÃ¼ber pr
1 1
Ġges agt
Ġbes ten
h em
Ġrequ est
Ġqu ick
Ġkein en
Ġo ber
Ġexch ange
Ġatmos ph
Ġsubs id
Ġse le
Ġconv ention
tel le
c ies
Ġg ree
spr uch
Ġfacil ities
Ġer l
qu is
Ġdienst leistungen
Ġan sicht
Ġim pos
Ġinde ed
Ġrecog n
Ġar r
Ã¼s se
Ġpre p
Ġn am
Ġhe art
Ġcl ub
Ġwe iÃŁ
ch ter
Ġst or
Ġbro ad
Ġgr ie
Ġagreement s
Ġfr ieden
Ġviel leicht
Ġgeb iet
Ġap ril
Ġko ordin
Ġbeit rag
o st
for men
Ġn etz
ĠbeschÃ¤ft igung
Ġer heb
Ġle it
Ġf ot
Ġ2 3
Ġuk ra
Ġan gem
Ġamend ment
Ġdec isions
Ġm and
end s
p art
Ġihr es
Ġz entral
Ġbede utet
h ib
Ġer reicht
ach ten
Ġver g
Ġd rit
Ġconcern s
Ġchang es
igr ation
Ġfortsch ritte
Ġben Ã¶t
Ġh il
Ġre a
Ġab kommen
tend ed
teil en
en ch
ent wick
Ġkon kre
Ġwettbewer b
Ġpriv at
Ã¤ ter
k an
Ġbrauch en
Ġgemeinschaft s
et te
stell t
Ġbe ziehungen
Ġb ur
Ġguaran tee
Ġwork ers
Ġgu est
Ġfr ont
Ġvide o
Ġdevelop ed
Ġindustr ial
teil t
iel le
arbeit en
Ġd re
Ġup on
w ord
geb ung
Ġinvol ved
on en
Ġper fect
unter nehmen
Ġk at
s erv
Ġcon sequ
Ġinform ations
Ġdemocrat ic
Ġgu ests
Ġk Ã¼nft
Ġun ions
Ġwo hn
Ġex tern
Ġdis co
Ġd on
Ġagre ed
Ġgel ten
Ġein satz
Ġprev ious
eit s
hil fen
pro chen
ĠverfÃ¼ g
Ġter rit
Ġal t
Ġjo bs
Ġdemoc racy
Ġrec ord
Ġmain tain
Ġk un
Ġan erk
Ġch em
s elf
Ġg ran
Ġof t
Ã¤t zen
Ġl onger
ik ation
Ġschr ift
Ġzun Ã¤chst
Ġob wohl
it zen
Ġbeautif ul
ber g
hl en
Ġd ut
Ġinter ests
Ġt it
neh m
g liche
Ġgesam ten
Ġf Ã¤
Ġrela x
Ġtra vel
Ġmenschen rechte
Ġkn own
Ġer mÃ¶glich
pe cted
Ġso on
Ġrel ig
Ġi ran
dr Ã¼ck
ip s
Ġcor re
Ġd ivers
Ġpre c
Ġland es
al d
Ġnor mal
an den
Ġsl ow
ce ed
Ġwen ig
Ġau d
Ġmic ro
Ã¤ che
ĠmÃ¶glichkeit en
Ġfa il
Ġdirect ly
Ġgu id
b il
Ġlangu age
Ġdemokrat ie
Ġdoc ument
Ġde cl
Ġconsum er
ges amt
Ã¤ us
Ġent halten
Ġb Ã¼
Ġf ive
Ġhel d
Ġverein igten
Ġdialog ue
Ġthe ms
de ut
Ġcap ac
yn am
Ġthems elves
Ġver Ã¤nder
Ġconsum ers
Ġ199 9
Ġw Ã¼n
fra gen
Ġver fol
ck e
spro gram
Ġhist ory
m als
Ġs ide
Ġvertrag s
Ġlie gen
1 3
f el
Ġear ly
Ġjahr hunder
Ġ2 7
ges ellschaft
abl es
Ġfis her
re ib
Ġgro und
ac y
es ten
g ern
Ġst ability
im men
Ġstat us
komm ens
ie llen
Ġen lar
is te
ie g
h end
Ġjed es
j en
Ġhin zu
Ġglau be
schl ag
Ġbenef it
Ġse par
Ġl ib
Ġcl ick
Ġj our
richt ungen
6 0
Ġber uf
er ous
end ent
Ġfr ench
Ġrestaur ants
ar f
Ġins gesamt
Ġergeb nis
Ġpartners hip
Ã¤ fte
Ġcomm er
Ġ6 0
Ã¼ fen
Ġknow ledge
Ġsp ace
u le
Ġanges ichts
lau b
Ġo l
Ġhos tel
Ġagricult ural
Ġsitu ated
Ġfind et
ing t
Ġprofession al
Ġse cre
Ġex pect
Ġd raft
Ġd ad
Ġbo ard
Ġl ot
Ġextern al
Ġestablish ed
Ġrepubl ic
ĠschlieÃŁ lich
z if
Ġt alk
v ol
Ġe mer
Ã¤s ent
Ġnotwend ig
Ġverantwort ung
g u
ion en
Ġgovern ments
Ġmit arbeit
Ġind ic
Ġcult ure
Ġver wendet
y m
Ġsc ient
an ze
ll ing
Ġne ues
Ġpar is
Ġw at
Ġs n
Ġtrans fer
Ġsor gen
Ġp ak
Ġorigin al
ag er
Ġpo ol
mÃ¶ glichen
- ,
i ance
ph as
Ġdar um
i ffen
Ġter m
n issen
Ġvor schriften
Ġwer de
Ġser ver
we gen
Ġjed e
Ġh erstell
ore d
Ġumf ang
j Ã¤hr
Ġlab our
p pen
Ġch in
Ġe ast
Ġm ann
Ġd ruck
Ġra il
Ġcir c
Ġc aus
Ġal most
Ġfra ktion
Ġpr im
Ġent w
Ġbet ra
Ġd iv
Ġk ennt
mb h
Ġricht ung
Ġcharac ter
Ġkun st
Ġthrough out
Ġhal ten
Ġverschieden e
Ġbet roffen
Ġhuman it
f ert
d am
Ġa ktion
Ġfrank reich
ĠkÃ¶n ig
Ġtre ffen
Ġl as
pl ay
Ġscha ffung
Ġzu dem
v a
Ġverbess ern
Ġs end
Ġs em
ver stÃ¤nd
f o
Ġbetre ffen
ith er
ĠermÃ¶glich t
Ġw ide
net en
ct ive
Ġse en
Ġfr Ã¼
Ġto ok
bed ingungen
Ġmus ik
Ġdiff eren
b u
Ġact ive
Ġc ut
Ġauf mer
Ġph il
Ġb la
ĠfÃ¶r dern
Ġpre m
Ġbul gar
i os
y le
ke y
Ġl iving
Ġcre dit
Ġf Ã¼
Ġ19 7
hr en
Ġwor ds
ĠgehÃ¶r t
Ġe us
Ġdec ided
Ġhinsicht lich
Ġen ough
s c
Ġs am
Ġim med
Ġvor auss
ha ft
Ġperform ance
Ġv an
Ġkol leg
Ġabst immung
Ġde ter
Ġdurch ge
pl atz
l Ã¤ss
Ġmo vement
Ġg mbh
Ġdad urch
ire d
ar ing
at ul
Ġi p
Ġagricult ure
an ced
Ġus ers
ak ing
m p
Ġgew alt
Ġergeb nisse
b or
Ġanal y
Ġbek Ã¤mpfung
il ar
Ġc ru
k om
Ġeff e
3 2
Ġs un
Ġho hen
Ġkle inen
Ġpack age
Ġe ither
Ġb an
Ġcre ated
Ġble iben
Ġdok ument
Ġtak es
Ġrom an
ir m
Ġact ions
Ġdemon str
ir es
Ġi ll
Ġra um
Ġqu e
Ġch ance
Ġrel ated
ist ischen
d om
Ġgood s
Ġen able
at ic
Ġprior ity
Ġd ynam
Ġto d
Ġpro mote
h ung
Ġdra w
g ing
Ġgerichts hof
Ġit em
Ġregard ing
Ġmob ile
Ġp ages
Ġ *
Ġdesign ed
Ġinvest itionen
ver t
Ġw to
Ġt al
Ġsch Ã¶n
ran k
Ġout side
Ġem phas
Ġdetail s
Ġtrans l
Ġp ict
re iben
Ã¼r z
und es
ĠbevÃ¶l kerung
Ġmitglie der
Ã¼ lt
Ġprop ert
am a
o id
Ġwel com
us es
Ġmo de
Ġlevel s
ĠnÃ¤ he
Ġk ern
Ã¤l le
s pe
Ġth ough
it ing
Ġreg istr
Ġwichtig sten
Ġam ount
Ġreg ister
Ġaufmer ksam
Ġsup ply
Ġinclud ed
p ing
Ġein heit
Ġruss ia
Ġbas ic
Ġevery thing
m m
Ġf ig
Ġpl ann
Ġs ix
Ġcommit ment
ur f
Ġer r
Ġmot or
Ġgen ehm
Ġv ict
Ġkontro lle
he im
Ġvor bereit
Ġl ange
Ġw ort
Ġv e
Ġfern er
Ġvor gesehen
Ġze igt
Ġinstitution en
Ġpop ulation
Ġprof it
Ġgem Ã¤ÃŁ
Ġdisk uss
au en
spro zess
v ent
ĠfÃ¼hr t
Ġt ages
ar m
Ġcent ury
Ġh on
ipl es
Ġp en
ll ig
Ġfamil ien
Ġau g
Ġmajor ity
ag ing
Ġt on
ze igt
Ġmen sch
ar k
Ġ Ġ
Ġla ck
Ġver gleich
Ġan g
Ġk rie
Ġpract ice
Ġf ile
Ġaus gest
Ġb on
Ġex clus
Ġaus druck
Ġhig her
Ġgegen wÃ¤rt
Ġsp Ã¤ter
aus ch
Ġhaus halt
Ġkont akt
Ġur spr
Ġver anst
Ġrepubl ik
Ġsch ein
bar keit
Ġak zept
Ġpl atz
at her
Ġrece ive
Ġincre ased
Ġant i
ied r
h nen
Ġangelegen heiten
Ġsecre t
Ġcon fl
e an
Ġgrund s
Ġfund ing
Ġan b
Ġrelev ant
st re
b ru
i ated
a gen
Ġn ice
Ġmehr ere
Ġpre par
Ġeng ine
kt iv
Ġe ib
Ġtats Ã¤chlich
ater al
Ġty pe
Ġag o
Ġg ab
Ġangem essen
Ġentwick elt
Ġbe ha
bes ch
Ġjo b
Ġstruct ural
Ġde z
Ġcom es
wÃ¼r d
Ġthe men
Ġne uer
Ġdeb atte
dien st
Ġk ing
Ġerweit erung
omm er
ke i
g ement
cr ib
er ing
Ġsim ilar
Ġf alls
Ġ ut
Ġver hin
Ġinter essen
ster reich
is ieren
Ġhal f
f u
Ġopportun ities
Ġbl ick
Ġstr ess
gesch lossen
program m
Ġh am
Ġev alu
cle ar
ktor en
Ġf ach
Ġgar den
Ġla unch
ers eits
Ġcapac ity
Ġgef Ã¤hr
Ġextrem ely
Ġho ffe
Ã¤n den
Ġnutz ung
Ġfeat ures
Ġk op
Ġprinc iples
Ġsp rechen
Ġg al
Ġan w
o u
Ġreport s
Ġinstr uments
ĠverfÃ¼ gt
Ġko h
ic ien
Ġinfrastru ct
Ġl ond
Ġhat ten
Ġl os
Ġsup pl
le y
Ġkle in
1 5
ung e
omm od
Ġbe ein
ight s
Ġlim ited
en ces
wert ung
Ã¤hl t
Ġbe h
Ġequip ment
Ġmod el
Ġsom it
Ġprov isions
Ġis land
m ann
Ġgr uppe
Ġver ab
Ġha ppen
Ġspiel en
Ġd ro
fol ger
ind ust
Ġre pl
Ġtr ue
Ġfa ce
Ġwirtschaft liche
Ġthank s
Ġex tens
at tet
ent al
Ġ8 0
Ġgol f
Ġwicht igen
Ġcomfort able
ro at
Ġacc ommod
Ġver ring
ue ll
Ġm io
Ġwo bei
olog ie
an ten
Ġeff icient
alt ungs
Ġallgemein en
Ġs ag
Ġproced ures
Ġfriend ly
Ġbel ow
jen igen
Ġv eh
Ġl Ã¶
Ġpro per
hen s
Ġco ll
d i
Ġro t
Ġbook ing
Ġbestimm ungen
Ġt im
Ġju gend
ag ed
Ġsug gest
d le
Ġsur round
Ġru le
Ġgesch ichte
r upt
ik o
Ġhel fen
ĠtÃ¼r kei
Ġh ung
ĠÃ¼ br
tre ten
Ġredu ce
ie le
Ġun ique
ol d
Ġholid ay
Ġo il
ic les
el ess
gr iff
Ġherr en
Ġa ra
Ġsat is
Ġtreat ment
u fen
Ġver f
Ġinvest ig
Ġinclud es
Ġlead ing
Ġst Ã¤nd
Ġvo ted
Ġent hÃ¤lt
Ġer mÃ¶glichen
fol ge
ien s
iter ran
Ġlook ing
Ġpar ts
Ġbest Ã¤t
our cen
enn ung
j ust
w w
Ġgesundheit s
Ġaus sprache
Ġlis te
ĠgewÃ¤hrle isten
mitglie d
leg ung
u rop
Ġs icht
Ġ2 8
Ġse arch
Ġdes p
Ġan z
Ġlea ders
Ġf it
Ġtra gen
Ġportug al
Ġgen eration
Ġz ivil
str ateg
Ġvol ks
te id
Ġst op
ĠÃ¶ffent liche
Ã¤s st
Ġpr Ã¤
os sen
Ġpap er
Ġfranz Ã¶s
hal te
Ġex ec
Ġsozial e
t es
Ġemission s
Ġver wendung
Ġp et
Ġverkehr s
Ġfe bru
m ission
g l
Ġkon zentr
c er
men ted
at ur
w ide
Ġaltern ative
Ġnieder l
m ore
Ġf u
il ities
k raft
d o
Ġmilit ary
Ġst age
Ġital y
Ġsp ain
arbeit et
Ġant wort
Ġst Ã¤d
Ġs etzen
schn itt
Ġgen ie
pt ion
Ġkonn te
ab on
Ġauf gabe
es ter
ed en
Ġbild ung
v al
Ġg ame
Ġukra ine
Ġha pp
ar tet
y p
Ġcustom er
Ġkle ine
Ġas yl
Ġjed em
Ġa ge
Ġassoc iation
ĠhÃ¤t te
Ġb ody
Ġto ol
Ġappl ications
Ġmit t
Ġan zu
Ġver n
Ġzweit en
ck er
Ġinnov ative
Ġcre ation
Ġj une
Ġtradition al
Ġwin ter
b uch
Ġact ually
Ġsch le
Ġfl ugh
u ted
l ant
Ġhe iÃŁ
Ġtra ff
Ġparliament s
us st
l ang
Ġkon ferenz
Ġv Ã¶
gr uppe
Ġlis bon
Ġrechts vorschriften
Ġwes tern
Ġrec ently
Ġle ider
Ġadv ant
Ġachie ved
ho tel
Ġorganis ations
ab kommen
ĠÃ¶ sterreich
keit en
Ġpres ented
sp iel
Ġl iss
Ġscho ol
Ġp assen
Ġein fÃ¼hrung
Ġcomple x
Ġprovid ing
Ġlond on
Ġent sch
Ġrespon se
Ã¼h ungen
Ġapart ments
Ġher z
Ġk il
Ġfor mer
Ġproje kte
Ġges tellt
Ġp urch
Ġkr ise
Ġein schlieÃŁlich
Ġide a
Ġrece ived
Ġamer ican
ce p
Ġlang frist
Ġunters uch
Ġerw Ã¤
Ġtats ache
ĠÃ¼ber wach
stan ces
y a
a ffen
Ġund ert
fahr t
Ġim age
Ġhe ut
Ġaug ust
Ġkontro ll
Ġbestimm te
ab el
Ġnah e
ub e
Ã¤uf ig
Ġser ies
4 0
es h
Ġcontrib ution
Ġble ibt
Ġmed ium
etz ung
Ġsch em
Ġconst itution
Ġbeit ragen
Ġstar k
Ġse x
Ġliss abon
Ġall ows
Ġcarr ied
ĠerklÃ¤r ung
Ġad ap
Ġstat ist
Ġd ritt
rech end
Ġho he
fl uss
Ġr ural
forder t
sch w
ĠhÃ¶ he
ze ugen
Ġne igh
Ġk ir
ol ution
Ġeing er
rit ts
b ung
Ġcor por
ho ben
ikan ischen
Ġc ast
spr Ã¤sident
Ġwar um
ur t
ill s
p fen
Ġste u
Ġverpf lich
Ġte x
Ġdo ing
f rei
Ġfre und
Ġdet a
Ġter min
Ġmin uten
an o
ov o
Ġho urs
Ġver teid
Ġeffect s
ĠfrÃ¼h stÃ¼ck
on om
an de
Ġanf ang
Ġele ment
Ġcho ice
an ces
Ġsum mit
h aben
Ġlux em
ste ad
Ġr ich
mit t
Ġdoub le
3 5
Ġmonitor ing
Ġhig hl
Ġunternehmen s
x is
Ġgesam t
Ġtur key
Ġzwe if
Ġjun i
ĠgrÃ¼n den
ate ll
ie te
Ġent de
Ġmo ve
Ġs au
Ġsh ip
Ġbar cel
Ġbef inden
Ġbesch rÃ¤n
Ġ199 8
b re
ok ing
ot ion
Ġc am
em ploy
Ġenlar gement
Ġha up
pr Ã¤sident
Ġspe ed
Ġconne ction
Ġdam en
e ff
Ġbill ion
Ġr ess
Ġimpro vement
Ġcrit er
Ġwor d
Ġans wer
Ġcommer cial
Ġcertain ly
wor ks
Ġauf fassung
Ġm ission
Ġval ues
Ġreg ierungen
Ġreas ons
den ken
w s
Ġl ay
Ġnu clear
us ion
Ġbu ilt
Ġdim ension
Ġspe zie
Ġs ent
Ġe p
so ft
Ġwas te
Ġm s
aussch uss
Ġelect ron
Ġconsider ed
au fen
Ġem ail
d a
Ġbal ance
Ġpo or
h aps
Ġj Ã¼n
indust rie
Ġma c
ic o
Ġsuccess ful
Ġmit teilung
organ isation
ann te
Ġho st
Ġlie fer
Ġstre et
me hr
st o
Ġav oid
Ġern st
Ġgrund legen
Ġengl ish
olog ical
Ġverb indung
Ġtransp aren
wor ten
Ġcon du
Ġin stead
Ġmor gen
al ter
Ġcomp re
Ġapart ment
Ġsett ing
s icherheit
Ġl ic
Ġcar ry
Ġtr y
Ġw under
Ġa cht
Ġaspect s
Ġsel f
Ġsp ir
Ġelekt ron
Ġb undes
Ġen or
Ġver d
Ġdep art
Ġwer k
ier ter
Ġzentr um
Ġreg eln
Ġr ene
be k
Ġph ys
m or
Ġganz en
icien cy
Ġchallen ges
y r
Ġsin n
Ġper haps
Ġm Ã¤n
Ġadd ed
Ġbestimm ten
Ġl ik
Ġdec ember
Ġnot hing
pr ession
il le
Ã¼tz en
f un
in ner
Ġeurop es
olog y
b us
Ġann ual
Ġreach ed
Ġb ran
Ġcol lect
Ġth ing
Ġ2 9
Ġviel f
Ġsh ows
ĠÃ¶ffent lichkeit
Ġmar ch
Ġfin ance
Ġsub mitted
Ġfam ous
Ġan p
Ġkam pf
it ation
Ġn ations
ro s
or gung
Ġdesp ite
er weise
b all
Ġdr ing
Ġgelegen heit
Ġsect ors
w ander
Ġp c
Ġbem Ã¼hungen
Ġrem ains
Ġer inn
Ġ5 00
Ġdank en
ĠÃ¤ hn
Ġover all
Ġsee k
Ġmid dle
Ġre ich
zu fÃ¼hren
Ġdisco ver
Ã¤n gen
f ace
Ġk an
Ġreg ular
i kt
Ġf uÃŁ
ar i
Ġwar m
Ġsim ple
Ġkult ure
er nen
or f
han den
el ines
Ġz ul
ĠÃ¤nderungsant rag
Ġconclus ions
Ġs lo
Ġkom fort
Ġlebens mittel
ĠgehÃ¶r en
Ġso fort
Ġtechnolog ies
Ġo ct
Ġun e
ĠÃ¤nder ungen
Ġaus wahl
Ġinfrastruct ure
Ġbenef its
er ve
Ġlat est
Ġv en
Ġindep endent
Ġausschuss es
Ġatt ack
Ġsy n
Ġruss land
Ġdistrib ution
ain t
je kt
Ġmaterial s
Ġs and
Ġf ix
ang t
Ġmehr heit
ar a
Ġter ra
Ġspe zial
st att
Ġf eder
Ġmilit Ã¤r
Ġer ster
Ġminister s
Ġnotwend igkeit
Ġcolle ag
Ġabsol ute
Ġbec om
fin den
Ġmed ien
Ã¶r per
Ġs ter
it ure
d ie
z one
ĠÃ¼ber zeug
ver trag
Ã¤n ge
Ġmuse um
Ġp urs
Ġas pe
Ã¶ hn
Ġze igen
Ġmention ed
Ġwh ite
Ġask ed
Ã¤ chen
Ġdez ember
ĠjÃ¼n g
j a
Ġfehl er
Ġfisher ies
ĠeuropÃ¤ ischer
n al
Ġs us
Ġkon fl
Ġvor handen
Ġs telle
Ġf ert
Ġg anze
Ġger ne
p an
Ġzeit punkt
Ġru h
ĠÃ¼br igen
Ġbe mer
spl an
Ġa ware
Ġden ke
Ġp s
Ġcho ose
Ġmeas ure
Ġde fen
Ġlegisl ative
in i
Ġl Ã¤nd
Ġdeut schen
Ġvertre ter
Ġver z
Ġk la
Ġau gen
es tens
d aten
Ġunser es
Ġmed iterran
Ġtra in
m us
ol id
Ġre ise
Ġfinanz ierung
Ġpop ular
Ġmat ters
Ġkolleg innen
Ġt at
Ġ199 7
Ġfl Ã¼
v is
Ġwo chen
Ġdurch fÃ¼hrung
Ġf al
Ġgesam te
Ġer lau
Ġquick ly
Ġauf ent
Ġa ward
Ġcomplete ly
Ġan wend
i i
Ġgere cht
Ġsch Ã¶
Ġro und
Ġbank s
Ġcont ains
Ġer schein
f Ã¤
ge ber
Ġnach dem
ing er
2 5
schlieÃŁ end
u ed
Ġexper ien
Ġstand punkt
Ġalle in
Ġt ick
en cy
mÃ¤ÃŁ ig
Ġann oun
leit et
Ġ $
Ġbla ck
Ġper man
Ġg d
ko sten
Ġentwick eln
Ġabgeord neten
Ġs qu
Ġtas k
Ġinstall ation
Ġunivers ity
Ġres ort
Ġintegr ated
Ġd opp
Ġvertre ten
fr ieden
Ġcompre hens
Ġhigh ly
l am
Ġmitglied staat
pr es
ok oll
Ġbe wer
Ġbeginn ing
Ġvir t
ĠheiÃŁ t
Ġph ase
Ġdeleg ation
anz en
Ġmarket ing
Ġt or
Ġfolgen den
Ġge fÃ¼hrt
Ġma i
Ġan str
um e
Ġperson s
Ġaud io
z ent
te es
Ġrene w
g han
r ict
Ã¤ st
Ġsubst ant
Ġn iedr
stell ungen
Ġbei hilfen
Ġan zahl
or k
ĠverfÃ¼ gen
Ġle icht
Ġf er
w ill
Ġl Ã¤sst
p ut
un ately
Ġer s
ien z
op h
ast rop
gr iffen
for dern
ĠÃ¤nderungsant rÃ¤ge
s es
Ġstr and
Ġste ps
ug s
Ġfil es
a den
Ġcorre ct
kon tro
Ġbed Ã¼r
un a
Ġle isten
Ġminim um
Ġmein en
l Ã¶s
Ġkommission s
Ġstud y
p ers
ieren den
ĠgrÃ¶ÃŁ ten
Ġf ishing
Ġob tain
Ġrest rict
stru ktur
Ġsour ce
Ġf ire
Ġbarcel ona
Ġverw enden
Ġgr and
Ġsch iff
Ġzahl reiche
Ġblo ck
Ġr um
Ġmitarbeit er
Ġex c
ken nen
Ġdurchge fÃ¼hrt
z i
Ġpos sibility
Ġzweit e
zieh ung
Ġun fort
Ġcontrib ute
Ġschluss el
Ġt ier
Ġagr ar
Ġma il
Ġ7 0
Ġregul ations
ig ur
Ġcom ing
Ġto ols
Ġfurther more
ze uge
Ġbei de
h ab
Ġber at
Ġb io
Ġcon gr
Ġpropert y
Ġafr ica
ĠlÃ¶s ungen
Ġs atell
ra hmen
Ġbe kommen
Ġlear n
k i
Ġsie ht
Ġwrit ing
k n
Ġangeb ot
Ġ9 0
Ġital ian
Ġm is
Ġprodu ktion
ste in
Ġc andid
Ġbusiness es
Ġreg ards
Ġaf ghan
Ġforsch ungs
Ġ201 1
Ġco hes
Ġt el
us h
Ġdeter min
Ġscient ific
ic it
Ġconstru ction
Ã¼ ft
ge f
Ġdiscuss ion
Ġassess ment
. ,
Ġam ster
Ġl ag
ĠgroÃŁ er
Ġcon dition
Ġform ul
Ġw onder
Ġrap id
he ben
Ġfor der
Ġd ang
lin es
gen er
Ġcriter ia
be zogen
Ġarbeit nehmer
Ġreg ime
Ġbesch lossen
Ġspan ien
Ġp ie
Ġander er
Ġpl at
an e
Ġsit es
Ġkap ital
Ġpurpos e
Ġevery one
d f
it ive
1 8
r id
Ġacc ession
amer a
i ber
ĠentschlieÃŁ ung
Ġl ower
Ġvor liegen
z unehmen
Ġmon et
Ġredu ction
Ġg a
folger ungen
Ġgut en
Ġbereich e
Ġkey word
v iew
Ġinfl uen
sch reit
u ff
Ġerg Ã¤n
Ġa gency
Ġfo ot
Ġsup ported
Ġf Ã¤h
Ġbes itz
Ġequ al
Ġo s
Ġw ww
le x
Ġse as
Ġs ant
Ġd ont
ur ance
Ġm ang
Ġmon aten
Ġprior ities
Ġtransparen cy
i able
yste m
Ġsy mb
g a
Ġ ult
Ġeinz ig
Ã¼tz t
os en
Ġactiv ity
strateg ie
Ġgenie ÃŁen
Ġenterpr ise
ig lich
fahr ens
es te
Ġd ise
ow ers
Ġpartner schaft
Ġgleich en
Ġpro ceed
Ġun employ
Ġprep ared
Ġh om
Ġmore over
Ġo kt
Ġ2 6
ib ility
Ġguid elines
Ġinter pre
Ġentscheid ungen
Ġled iglich
Ġse lect
Ġcomprehens ive
Ġan spruch
ag n
Ġleg it
Ġkennt nis
Ġspe zif
Ġsum mer
u z
Ġkos ovo
Ġple as
Ġan satz
u is
Ġhand eln
Ġricht ig
it able
Ġpl ans
1 7
qu es
kre t
mÃ¶glich keiten
Ġcomp rom
Ġj Ã¤hr
Ġwh ose
Ġpre ise
Ġlau fen
Ġex hib
verkehr s
Ġsk i
Ġer Ã¶ff
s v
sib ilities
Ġcreat ing
art ige
Ġeff iciency
Ġsen se
Ġbest and
Ġilleg al
Ġbro ught
Ġdenn och
re ten
Ġstim me
Ġein deut
Ġs cre
Ġdo ll
Ġber g
Ġverpflicht ungen
Ġmein es
Ġconst it
Ġwo che
ph one
Ġz unehmen
a i
1 4
Ġstabil itÃ¤t
Ġvol k
Ġ q
Ġau dit
Ġcohes ion
Ġsim pl
Ġde ath
ver age
Ġer hÃ¤lt
Ġsch en
forder ung
Ġrec over
Ġacc om
im ent
ig ungen
Ġze hn
oun ts
Ġredu z
Ġrepresent atives
Ġanalys is
Ġc alls
Ġfor um
zeich nung
Ġs ize
Ġdi pl
Ġiniti atives
Ġfre qu
Ġ20 20
Ġtranspar enz
ll a
Ġappl ied
Ġadministr ative
Ġan forderungen
Ġseem s
Ġgesch affen
Ġgr uppen
Ġgrie chen
Ġd auer
ber icht
clud ed
Ġanstr eng
Ġt age
Ġreform s
Ġimple mented
Ġrad io
Ġeigen e
Ġhumanit arian
ar ily
Ġwettbewerbs fÃ¤higkeit
Ġchar ge
Ġe dit
Ġsh own
po int
Ġcompetit iveness
er y
Ġw id
Ġvergangen en
Ġheraus forderungen
Ġpl ant
Ġer leich
wert ungen
Ġo st
en der
kr imin
Ġg ives
Ġerfolg reich
Ġgeb racht
Ġh uge
Ġ199 6
Ġbeh ind
kl us
Ġzahl en
Ġoct ober
Ġbe y
zus ch
Ġer reich
Ġgest immt
w ise
Ġcongr atul
Ġk Ã¼nst
ous ly
asch inen
Ġpubl ished
ain ed
Ġemploy e
Ġin it
Ġbef Ã¼r
Ġver m
Ġb ase
o x
Ġmount ain
or ial
Ã¶ st
o pe
Ġflo or
Ġwicht iger
Ġfor ms
it ect
Ġreview s
Ġflugh a
m Ã¤r
Ġstat ement
Ġn ationen
Ġprov ision
Ġauthor ity
Ġsag te
Ġb ot
Ġdire ction
Ġkont in
se ktor
Ġentsp rechend
Ġmon t
Ġneigh bour
Ġp il
Ġpay ment
Ġse chs
Ġex pected
Ġj av
Ġequip ped
ad em
Ġ3 00
Ġauf trag
Ġst ad
Ġdis play
ank en
er c
ĠvÃ¶ llig
sch t
leist ung
Ġdecl ar
Ġim pl
ut t
Ġimpro ving
ĠfÃ¤ llen
Ã¤ te
Ġk it
ver ty
Ġjour nal
Ġe hem
Ġn av
Ġpress ure
Ġfinan cing
opp ing
Ġfe ed
Ġress ourcen
Ġw ays
s m
Ġerne ut
Ġdom in
Ġgr enzen
Ġcomp on
Ġfur n
Ġverw altung
ĠmÃ¤r z
Ġg ot
Ġbudget ary
Ġins el
f eld
ĠÃ¶ ff
sp rechen
Ġsatis f
la f
Ġcons ist
Ġlar gest
Ġpo verty
Ġt ab
d is
ol a
Ġplay er
Ġamster dam
Ã¤n gt
Ġb ir
Ġamer ica
Ġnach bar
ĠÃ¤nder ung
ell schaften
l auf
Ġstrateg ic
Ġappro ved
Ġm el
h ere
Ġconfl ict
Ġsolidar ity
Ġokt ober
Ġur ban
Ġdisk ut
Ġpr Ã¤sent
Ġschwe iz
ff t
Ġbe ob
Ġele ments
Ġparte ien
kr ise
ber t
Ġpro b
Ġat tem
Ġdeut sche
Ġar rang
Ġg ames
Ġvill a
Ġlea ve
Ġeinges etzt
p a
d ra
ĠhÃ¶ her
v ious
Ġbe in
Ġse ction
Ġrelations hip
ra d
es ch
Ġh Ã¤ufig
Ġstellung nahme
Ġ3 5
c ement
Ã¤m t
e hr
Ġlim it
leg ten
Ġkomp rom
Ġaktiv itÃ¤ten
Ġbess ere
Ġbe hin
wo hn
Ġtele fon
Ġ199 5
eit e
Ġf erien
Ġbey ond
at ure
Ġre de
Ġte ll
Ġauf genommen
ist ische
Ġpeop les
ben e
Ġjanu ary
Ġi re
Ġun mittel
Ġge fahr
Ġerfahr ung
Ġis lam
Ġsuff icient
sche id
Ġmonet ary
Ġcon cept
Ġsol chen
Ġarch itect
Ġbath room
Ġbes ondere
Ġ !
Ġbor der
Ġdipl om
Ã¼nd et
el ten
Ġbrit ish
Ġnational e
stan den
Ġf on
Ġkl icken
ic ated
Ġdoc uments
Ġrequ ires
Ġg ip
Ġsch n
g n
Ġin nen
d ate
Ġal ten
Ġleist ungs
wh ere
.... ....
Ġfrei heit
Ġinit ial
an te
Ġbenutz er
Ġinfrastru ktur
Ġunter b
Ġaus fÃ¼hr
Ġbeschl uss
Ġeas tern
Ġs ach
Ġjul i
Ġaccommod ation
Ġy ork
ak ter
Ġstim men
Ġc ame
r Ã¼
Ġaff ect
Ġfin n
me er
ad s
ĠÃ¤uÃŁ erst
Ġara b
in ter
Ġspir it
g ment
Ġvertra uen
al tet
Ġverw altungs
Ġco ast
ĠkÃ¶nig reich
Ġpat ent
Ġvor her
o o
Ġm os
Ġeas ily
Ġap par
Ġc d
est ic
Ġsal es
Ġspan ish
Ġbo x
Ġc ert
Ġelect ric
ot es
Ġander em
iv ity
c s
Ġar mut
Ġson st
Ġob vious
Ġer ach
Ġtem per
Ġbez Ã¼
Ġaccord ance
Ġentsprechen den
gr uppen
Ġren ov
Ġre ference
Ġbed arf
Ġs Ã¤mt
Ġre con
Ġgrenz Ã¼ber
b ased
i ately
i ot
Ġunfort unately
Ġmult il
leist ungs
reib ung
Ġver stehen
Ġjul y
Ġdeb ian
Ġge org
Ġp or
Ġl oss
Ġw all
Ġbr and
Ġzeit raum
Ġcr imin
Ġselbst verstÃ¤nd
er o
Ġhostel s
st ar
Ġurspr Ã¼n
Ġauf bau
Ġbetrie b
Ġkre dit
Ã¤ ger
Ġbu y
Ã¤um e
Ġfir m
Ġanstreng ungen
re gel
Ġerziel t
Ġparticip ation
Ġverb ind
Ġber u
ar es
Ġgree ce
richt linie
Ġadop tion
ha upt
Ġbeit ritts
Ã¤ ude
Ġag ent
Ġm un
u k
Ġens uring
Ġdefin ition
Ġmaxim um
Ġorganisation en
b it
Ġge pr
iel t
t ent
chs el
Ġc ause
Ġin halt
Ġth reat
Ġw eder
n ungs
zu legen
ĠprÃ¤sident en
Ġrele ase
Ġadministr ation
vol le
Ġstruct ure
Ġfacil it
Ġeffiz ient
Ġn immt
Ġver stÃ¤nd
Ġgro ss
Ġw Ã¤hlen
Ġ19 6
Ġ Ã¤ndern
Ġbe ge
Ġwir ksam
Ġspra che
Ġkommissar in
g ere
un sch
Ġun er
Ġprin zip
Ġappl ic
Ġand ers
por ary
ive au
Ġeinz ige
Ġin tell
Ġverpflich tet
Ġfl or
Ġfest gelegt
pres ident
Ġver me
Ġmediterran ean
Ġser b
Ġref lect
Ġprodu ced
Ġst yle
Ġar m
Ġvill age
Ġcoun ter
st ag
Ġch am
Ġstra ÃŁen
ategor ies
Ġs onder
Ġallow ed
Ġf ul
Ġaustr ia
ff et
Ġpla ces
Ġrel ation
Ġver halten
imm ing
Ġzwe ck
Ġhe im
Ġw an
Ġgen ommen
b as
Ġan nahme
Ġmin or
Ġsign al
Ġjust iz
ast ic
Ġelect ions
Ġviol ence
Ġac quis
Ġor ient
Ġsubstant ial
ieren de
d urch
Ġbal d
w ind
Ġge le
p age
Ġfrien ds
w iesen
Ġpr Ã¼fen
Ġfeder al
hand el
Ġpr ime
1 6
drÃ¼ck lich
fre und
Ġpa id
Ġfischere i
Ġn a
Ġgol d
z y
Ġv ision
Ġtranspar ent
kon om
Ġtechnolog ie
Ġvers uchen
Ġcl ar
Ġcompetit ive
ĠbezÃ¼ glich
Ġpo ll
Ġmein em
Ġstar ted
Ġec u
fr ont
Ġp ath
Ġpl us
Ġre pe
Ġtour ism
eu ro
Ġb and
it a
Ġvors itz
Ġadop t
Ġexp ert
Ġd v
Ġb od
Ġgew or
Ġgen annten
Ġver wir
Ġge ist
Ġoper ating
19 9
Ġaim s
Ġfamil ie
Ġaut o
Ġab end
k ap
ĠfrÃ¼ her
Ġehem al
Ġw ann
Ġdes crib
Ġw om
Ġse ktor
Ã¤ glich
Ġoff iz
on nen
Ġele g
Ġsport s
Ġh inge
rit ten
Ġauf gaben
Ġchallen ge
ĠstÃ¤r ker
Ġconc entr
Ġnet works
Ġwesent lichen
an geb
Ġte ach
Ġatmosph ere
Ġmess age
Ġsec ure
ĠberÃ¼cksicht igt
Ġkonn ten
Ġher zen
Ġfinanz iellen
geb iet
Ġpract ical
lich ung
os la
d ed
Ġcru cial
Ġausgest attet
Ġtra g
Ġch urch
Ġp un
Ġcon ver
or ation
ik ations
Ġire land
ress e
Ġtyp es
Ġs ommer
Ġdam age
entwick lung
Ġregel ung
n es
Ġ201 2
s ie
Ġbe ant
Ġr ent
Ġdr ive
bour g
Ġv ital
Ġl am
Ġrel ating
Ġrepresent ative
Ġvor gelegt
Ġschein t
Ġkom b
sp ort
Ġvers uch
Ġer d
Ġprodu ce
ad es
Ġkein er
Ġmar t
Ġer fahren
ang s
Ġaufmerksam keit
z t
y ch
Ġsuch en
m l
ho use
e ks
iz in
Ġfarm ers
Ġverbess er
b Ã¼r
Ġjanu ar
Ġbank en
end es
Ġbericht s
Ġwer te
Ġimpro ved
ffe e
Ġzu ge
k auf
Ġwrit ten
Ġaspe kte
n ungen
Ġdie jenigen
Ġtechn ischen
Ġwe ak
o ught
ne y
sch ie
Ġp unkte
w asser
amm lung
ĠbÃ¼r gern
Ġteil en
Ġglau ben
Ġh ot
ass ungs
Ġerfahr ungen
Ġum gebung
Ġpra xis
Ġvor gehen
Ġg iving
ict ion
z ub
Ġprov in
Ġple ased
Ġre formen
Ġk Ã¼rz
Ġ201 3
Ġfe ll
Ġbehand lung
schl ossen
Ġjeweil igen
Ġfolgen de
Ġvar iety
Ġm as
Ġe hr
Ġworld s
Ġsin ne
Ġget roffen
Ġoper ations
Ġdevelop ments
syste me
Ġein richtung
Ġdiskuss ion
he ad
Ġzu frieden
Ġzie hen
Ġgrow ing
Ġpr int
ategor ien
Ġerw arten
Ġst unden
ĠprÃ¤sident schaft
ste lle
Ġ- ,
Ġverab schied
Ġw ine
mo bil
Ġread ing
e cted
Ġl ate
Ġge eign
ak te
Ġaus l
Ġbestehen den
Ġsecret ary
Ġel se
Ġkon zept
Ġelectron ic
Ġer eign
a ign
Ġfor ces
or ge
ĠauÃŁer halb
ter t
Ġflugha fen
Ġsw imming
Ġconv en
Ġth ous
Ġda ily
Ġbew usst
Ġfol gt
Ġschrift lich
Ġking dom
Ġe y
Ġver hÃ¤lt
Ġon es
Ġmet ho
Ġpl en
Ã¤ umen
Ġth ought
Ġakt ual
Ġver letz
Ġverk auf
ĠerfÃ¼ llen
Ġr h
ug osla
s on
Ġopt ions
Ġarbeits los
2 4
ges etz
Ġira q
Ġread y
oc ol
et h
Ġsch ritte
Ã¼h m
Ġemploye es
le b
Ġf uer
Ġval id
) :
Ġaim ed
Ġoffer ed
Ġcamp aign
Ġ199 0
Ġgovern ance
ag ra
Ġex ception
ant ly
Ġour s
Ġdirect or
Ġac cep
Ġ ign
Ġhigh est
Ġob serv
ze ch
Ġg ast
Ġde g
Ġplay ers
Ġopen ing
ĠselbstverstÃ¤nd lich
Ġqu iet
k m
Ġconsequ ences
ien te
Ġqu ant
ogra f
stoff e
Ġm igration
Ġperman ent
Ġcommit ted
imin ation
Ġl ernen
ug g
alt ungen
acht ung
r ichten
Ġb ay
Ġsc ope
Ġv ice
Ġst il
Ġsh opping
Ġpat ient
Ġh Ã¶r
Ġzweit ens
Ġm ap
c omm
ĠbedÃ¼r f
Ġge Ã¤nder
Ġschluss folgerungen
Ġp as
Ġenterpr ises
Ġwahr schein
de te
Ġge k
Ġakt uellen
8 0
Ġfol ge
Ġinter vention
Ġf ine
Ġsc ience
Ġsymb ol
Ġcomprom ise
Ġstart ing
Ġverhin dern
Ġimmed iately
Ġadvant age
Ġsup erv
Ġd inge
Ġdopp el
il itÃ¤t
en te
Ġwen ige
ze hn
Ġcl ients
Ġbor ders
Ġencour age
Ġs ud
Ġpo ten
Ġestablish ment
Ġerfol gt
Ġf as
Ġcirc um
f i
Ġtra ck
Ġex erc
. )
e ch
Ġgriechen land
Ã¤n e
wer te
Ġbetroffen en
Ġass ist
g Ã¼lt
Ġj ur
Ġun gar
Ġwe eks
Ġpriv aten
Ġv ul
Ġappe ar
Ġ3 1
an lage
Ġcoordin ation
Ġbring t
utz t
Ġarbeitspl Ã¤tze
re l
se kret
Ġfre ien
Ġtechn ische
Ġver urs
Ġn r
Ġgewor den
Ġdeb t
crip t
Ġg Ã¼nst
Ġc ities
Ġeng agement
cc o
Ġworld wide
Ġunemploy ment
id s
Ġprov ider
am s
ĠzusÃ¤tz liche
Ġjahrhunder t
Ġan teil
id ge
Ġa verage
Ġlangu ages
Ġver t
Ġges pr
Ġlie be
gen de
Ġregion alen
kl ang
Ġsk y
Ġr iver
Ġ ).
Ġwo ll
Ġprocess es
Ġz oll
Ġverein fach
Ġform at
Ġp owers
zus etzen
il en
olit ischen
Ġc entr
Ġbec ame
n o
Ġverb reit
Ġc zech
Ġvor ge
Ġfre m
Ġs ort
Ġw r
Ġinfr ing
Ġall oc
Ã¤ g
Ġzu ver
ĠÃ¶ k
Ġlin ie
ie b
Ġprodu z
Ġeigent lich
Ġin tended
Ġinvest itions
Ġoffer ing
au ern
Ġref uge
Ġsomet imes
Ġbes tell
Ġexpress ed
Ġaus gaben
Ġcr ime
r al
ĠbenÃ¶t igen
Ġimplement ing
Ġtod ays
Ġheut igen
Ġeinge hen
Ġbr ief
Ġbehand elt
res pon
Ġh all
Ġpark ing
Ġerach tens
Ġd istance
Ġverbess ert
Ġmill iar
as ion
Ġw orth
rei ber
Ġaff ected
Ġsy r
Ġb os
Ġum gesetzt
Ġrat sprÃ¤sident
ĠgrÃ¶ÃŁ te
Ġinterest ing
Ġsqu are
isch em
Ġdiscuss ions
Ġjo in
ĠtÃ¤t igkeit
Ġgl Ã¼ck
be wertungen
Ġwe in
Ġex act
Ġad vert
Ġbez ahl
ĠerklÃ¤r t
on y
Ġk ore
Ġmechan is
Ġbem Ã¼
Ġide as
Ġnum erous
Ġunter k
Ġb ahn
Ġvereinbar ung
en ze
ich erung
uss els
Ġbegr enz
Ġinter ested
Ġein zu
lichkeit en
Ġangeb oten
Ġgr Ã¼nd
Ġpal est
g as
pre c
Ġaus zu
Ġsur ve
Ġam t
ĠvollstÃ¤nd ig
Ġfinanz ielle
Ġhistor ical
Ġoppos ition
Ġsubsid iar
rupt ion
Ġtraff ic
Ġdec ide
Ġwir ks
Ġpal Ã¤st
Ġun bed
Ġrem ov
Ġrechn ung
Ġl ake
Ġper fe
ĠstÃ¤r kung
Ġnor m
Ġuse ful
Ġdefen ce
Ġfiel ds
Ġab schluss
pect ive
Ġredu ced
Ġprom oting
Ġterror ism
Ġverg essen
Ġtour ist
n ern
Ġmanufact ur
Ġkomple x
p ack
Ġgra ph
Ġun z
Ġterror ismus
Ġpro zent
i ro
Ġmind estens
Ġris ks
ifiz ierung
Ġein igung
ik er
Ġgegen seit
Ġprodukt ions
Ġv Ã¶l
Ġplann ing
r ingen
Ġhe av
Ġsicher zustellen
Ġbed ro
Ġreal ity
Ġrev olution
Ġmin der
Ġanim al
ĠÃ¼ber gang
Ġal ter
Ġad just
Ġpr Ã¼fung
ĠstÃ¤r ken
Ġen han
Ġbr ussels
Ġl ines
ĠÃ¼ber w
itz er
4 5
Ġcomp os
ul s
Ġdemokrat ischen
Ġein st
Ġent gegen
Ġprom otion
ĠhÃ¤t ten
ziel le
Ġd ed
Ġdisc r
um b
Ġte ile
hÃ¶r de
Ġgef unden
r is
f Ã¤lle
Ġkrit erien
it ude
Ġinstitution al
pl es
Ġs ache
b and
Ġkon stru
bal d
Ġa de
Ġiniti ativen
Ġbes eit
Ġhel pf
Ġkons ult
Ġre ag
Ġer sch
Ġprior itÃ¤ten
Ġfre iz
Ġmain ly
Ġmed ical
Ġk rank
Ġk Ã¶rper
c raft
Ġstud ents
em b
Ġex tent
c ia
Ġprot okoll
bar er
Ġira k
kt ions
Ġme x
-- --
Ġmult i
Ġrum Ã¤n
qu ate
Ġtages ordnung
Ġgen ug
Ġschwier igkeiten
ru ct
br ingen
Ġplat form
Ġerw artet
Ã¤n glich
Ġgeb ieten
ify ing
le ge
Ġdeta iled
Ġl isten
Ġp ension
b ack
Ġnah m
Ġe her
Ġl ives
Ġcurr ency
Ġph one
bo ard
st at
Ġsch Ã¼tzen
m el
al er
Ġpol and
Ġkommun ikation
t a
Ġpract ices
Ġg n
Ġallgemein e
g round
le ment
st Ã¤t
Ġgesch lossen
Ġsecond ly
Ġj en
Ġanerk ennung
Ġen for
Ġvor teile
Ġspra ch
Ġin sp
Ġmethod s
Ġum st
Ġconf idence
Ġupd ate
Ġf ant
Ġbeit ritt
Ġsc r
Ġreg ierungs
Ġverein ten
Ġpa ar
Ġcrimin al
Ġmod ified
Ġneg ative
sch ul
Ġk y
Ġk ennen
Ġbil der
Ġear l
Ġbeg innen
Ġab hÃ¤ng
ha fte
Ġruss ian
Ġch air
ĠgÃ¤ste bewertungen
p unkte
Ġein klang
Ġdis krimin
Ġch ann
Ġm ix
Ã¤m pfen
m od
Ġhapp y
Ġcaus ed
Ġgo al
ib e
Ġgen u
ĠstÃ¤r k
Ġlik ely
p et
Ġricht linien
n s
Ġer wer
or ies
sprogram m
ĠbÃ¼rger innen
Ġur g
Ġsupport ing
ĠkÃ¼ che
Ġaufent halt
Ġw ild
f ter
Ġschw ar
ho od
Ġent stehen
Ġt sche
Ġger ing
c ul
ĠgrÃ¶ ÃŁer
ok er
Ġsein es
Ġglobal en
Ġtrans ition
Ġinc or
w esen
mor row
ĠflÃ¼ cht
Ġer hol
Ġso bald
kt ors
Ġdring end
Ġta gen
Ġcolle ction
Ġto morrow
Ġcover ed
Ġaus wÃ¤rt
Ġlo b
Ġcorpor ate
Ġlin ux
ĠbeschÃ¤ft igungs
Ġbl og
Ġs etzt
Ġanaly se
ĠverÃ¶ffent licht
Ã¼ g
Ġer f
Ġwell ness
Ġan trag
Ġkosten los
ĠzusÃ¤tz lich
el ben
Ġt ack
ungs verfahren
Ġst rom
Ġbr Ã¼ssel
Ġpra g
Ġgd p
ĠgrÃ¶ÃŁ ere
Ġdeclar ation
Ġn ahr
Ġbesonder en
Ġ199 4
Ġc ell
Ġber Ã¼hm
Ġgo es
ach sen
crip tion
Ġconclus ion
Ġafghan istan
a ust
Ġm Ã¼
Ġcl ient
stand ing
al og
Ġvor be
Ġsele ction
Ġdeliver y
icht lich
Ġeffect ively
Ġqu ar
Ġmed ic
Ġerforder lichen
Ġein richtungen
Ġbe we
zeit en
Ġnachhalt ige
Ġc os
Ġpol ice
Ġop fer
Ġfir ma
Ġcommit ments
Ġerst ens
Ġro b
Ġwieder hol
zeich nen
Ġentsp richt
in str
Ġflex ible
ut ive
Ġprocess ing
Ġaus bildung
p al
b ra
fra ktion
Ġmach ine
c ers
us ed
Ġ essen
Ġan frage
Ġfon ds
Ġl iter
Ġfirst ly
fin anz
Ġsupport s
Ġfa x
Ġw unsch
Ġsour ces
Ġg all
Ġex tend
Ġab satz
Ġass o
ge hend
Ġear th
Ġscha den
an ia
Ġr ise
Ġexper ts
Ġours elves
ĠÃ¶ l
s am
Ġmed izin
Ġhal b
Ġent ry
ĠtÃ¤t ig
sekret Ã¤r
Ġmean ing
Ġ4 5
n etz
iz es
ind est
Ġsepar ate
Ġtra ding
Ġother wise
Ġbeg in
Ġpol en
Ġeu ch
cre te
be hÃ¶rden
Ġnet her
Ġhelpf ul
Ġal b
Ġf ish
Ġconv in
Ġhistor ic
ĠhÃ¶ch st
l assen
at o
Ġtsche ch
kon ferenz
Ġch ines
tr Ã¤ge
Ġmar g
Ã¤u ft
n el
Ġein wander
Ġcountr ys
Ġein fluss
Ġricht ige
Ġco up
Ġgr ant
Ġmicro soft
tell ten
Ġdis p
Ġb ip
Ġget an
Ġconsult ation
Ġc ur
Ġyo uth
Ġbod ies
Ã¼ck en
Ġtechnolog ien
Ġfor est
Ġform al
Ġverwir k
Ġkann st
tra gen
on ia
ie ll
Ġbe wertung
Ġcondu ct
k arte
la den
Ġoff ens
ĠÃ¼ber nehmen
Ġbetreffen den
Ġf ein
Ġ19 5
Ġ3 2
Ġentsprechen de
Ġintrodu ction
Ġprogram ms
ich ert
i us
bo ok
Ġletz te
Ġclos ely
Ġaus t
com ing
Ġm aster
Ġchin ese
th eless
inst itution
Ġra ised
Ġdiscuss ed
Ġsh op
Ġlaw s
Ġmeet ings
Ġnever theless
kt ive
Ġtrans a
Ġcomp ens
Ġris iko
Ġspra chen
Ġfor dert
ĠbegrÃ¼ ÃŁe
Ġer Ã¶r
o der
Ġverantwort lich
Ġfound ation
Ġw and
Ġsolidar itÃ¤t
Ġexp end
Ġhol d
Ġhome page
Ġpict ures
zÃ¼ glich
Ġcolleag ues
ium s
Ġmoder ne
Ġhe ar
Ġm alt
Ġa w
Ġintrodu ced
port ion
Ġdom estic
Ġkat astrop
ĠgewÃ¤hrle istet
q l
Ġgo og
Ġhaup ts
Ġj em
un ion
Ġspec if
Ġl it
cl es
ĠÃ¼berwach ung
Ġmon ate
Ġoblig ations
Ġwe ge
Ġt au
Ġcircum stances
Ġphot o
Ġdis pos
Ġf ru
Ġincreasing ly
enden ce
l ose
Ġleit linien
Ġbil den
Ġps ych
Ġto uch
Ġvergangen heit
Ġl ies
Ã¶r t
Ġlo st
Ġakt uelle
ie ter
Ġanim als
Ġus w
Ġzahl reichen
3 7
Ġschem e
Ġnether lands
Ġsitz ung
wor tern
ett ing
ĠmÃ¶glich erweise
Ġwel ches
ĠerklÃ¤r te
Ã¤l ter
Ġrecog nis
l s
wach st
Ġgran ted
Ġhal te
ers tellen
ver letz
Ġwahl en
Ġab ility
Ġtr ust
Ġp ain
Ġur laub
Ġsw iss
Ġinterpre t
ist ry
Ġstrengthen ing
Ġchar akter
Ġempfehl ungen
Ġkon text
in form
Ġins urance
ha gen
! !
Ġmilliar den
Ġf alle
auft rag
Ã¶ m
Ġf ab
Ġvis a
Ġkor re
igh ted
Ġe ch
vers ion
Ġun l
fÃ¼ hl
Ġdat ab
Ġpar alle
Ġent schlossen
euro pe
off ice
k le
ĠbÃ¼ ro
Ġco ok
Ġk al
Ġbar r
Ġbes uchen
Ġde ad
Ġim ages
Ġjo hn
Ġla ut
Ġlo ve
ator en
iz ing
Ġgeb Ã¤ude
Ġundert ak
Ġar ten
Ġk auf
Ġdoll ar
Ġveh icles
Ġ Ã¤r
Ġlab or
Ġschl Ã¼ssel
Ġk enn
Ġrecommend ations
Ġkomm enden
Ġmehr eren
Ġgrund satz
Ġbl ue
Ġgen utzt
ĠbegrÃ¼ ÃŁt
in ary
Ġv ent
Ġim mobil
Ġde ine
bor der
wo gen
Ġbed room
Ġpre fer
hand els
vere in
Ġz erst
Ġdar stellt
Ġbro w
Ġadv anced
Ġl esen
Ġcon crete
Ġgew esen
Ġfir men
Ġwalk ing
Ġvict ims
Ġeth n
in ens
kr Ã¤fte
Ġpop ul
Ġaccep ted
a cc
ca pe
Ġassoc iated
Ġhor iz
Ġmode ll
Ġaus schlieÃŁlich
Ġcla im
Ġch an
Ġgeb rauch
n ach
g ers
ĠberÃ¼cksicht igen
zeich en
Ġrom a
Ġschlussel wortern
Ġd ir
Ġs org
spr Ã¼
Ġlok alen
Ġwebs ites
Ġentsch ieden
w an
Ġaus ger
Ġpro s
Ġdrit ten
Ġle hr
Ġex isten
Ġconne ct
Ġocc up
Ġprob ably
Ġzum indest
b ody
Ġvisit ors
Ġcomp ly
Ġkonfl ikt
sp art
ste uer
c as
etz ungen
ch tet
ĠwÃ¼n schen
Ġha ft
Ġdien en
Ġe w
ĠlÃ¤nd lichen
Ġvielf alt
Ġinstr umente
re ise
syste ms
h ow
Ġin come
Ġauf nahme
Ġfr esh
Ġbel ar
Ġpay ments
Ġphil os
ion e
Ġfit ness
Ġin f
Ġv oting
man agement
qu alitÃ¤t
Ġbo den
Ġan gaben
z we
Ġhinter grund
vers orgung
ib l
Ġde ep
je kte
Ġfor dern
Ġfall en
Ġgener ally
Ġdoub t
ot o
Ġklima wand
a pe
men te
Ġsay ing
Ġs ong
Ġvers ucht
it ch
Ġvor rang
ic ip
Ġarg ument
Ġap prec
ĠerfÃ¼ llt
Ġbe denken
b Ã¼
lau fen
Ġspe ct
Ġentwick lungen
hol d
Ġwo od
Ġcomp ar
ill a
Ġerg reifen
Ġp fl
) ;
Ġhos p
Ġwat ch
Ġge ograph
Ġbe gan
Ġg ott
Ġarch ite
3 9
al es
Ġinfluen ce
Ġsa ve
Ġbar ro
Ġro ck
Ġrem ember
% .
ĠÃ¼ber haupt
Ġkl ass
olog ischen
ĠerhÃ¶ hen
Ġste ts
Ġtr end
in ian
Ġnach fol
Ġwesent lich
Ġtrans form
v ision
Ġbeteil igung
Ġb ab
Ġcont ro
Ġscre en
Ġdien ste
Ġka um
0 2
h am
il s
Ġgra du
Ġkomple tt
Ġrecover y
Ġmenschen rechts
w el
Ġdar unter
Ġex em
fl Ã¤che
Ġstud ies
Ġh und
ie ht
Ġkoordin ierung
Ġgoog le
Ġe isen
Ġfre uen
Ġmar it
Ġvor aus
Ġatmosph Ã¤re
amp ag
Ġenor m
ind ing
Ġnat o
at a
Ġsk ills
Ġcommun ities
ens ions
Ġs pl
Ġterra ce
Ġo ben
bÃ¼r ger
Ġredu cing
Ġsign ed
s et
Ġun ten
Ġw on
Ġfollow ed
Ġfis cal
Ġregion ale
Ġa gen
Ġm Ã¼n
Ġdut y
Ġcandid ate
Ġzust immung
Ġany thing
Ġeinger ichtet
Ġho ff
zentr um
Ġber ichte
Ġl iz
Ġpla ced
Ġr asch
Ġmit te
Ġcomm ents
Ġmoder nen
an lagen
Ġd ol
Ġwa ffen
Ġdan ach
Ġpurpos es
or a
Ġcomp ared
Ġrepr es
Ġeindeut ig
Ġspiel er
g h
Ġun be
Ġal one
Ġcongratul ate
Ġkm u
Ġumf asst
e v
Ġinfl ation
Ġunderstand ing
schr ift
ĠflÃ¼cht l
Ġcontinu ed
vo llen
ut ing
Ġmechan ism
Ġver ur
ib r
Ġrein for
h erstell
Ġrepres ents
Ġzu k
Ġimm igration
Ġco re
Ġerlau bt
Ġcol our
Ġn Ã¶t
Ġkl im
Ġnach t
k rie
Ġso le
Ġaus gang
Ġeinz us
ĠverfÃ¼g bar
Ġcas ino
leit ung
Ġseas on
Ġoper ators
Ġge h
Ġein haltung
ste ht
Ġtag ung
Ġcrit ic
Ġfeat ure
Ġbegr iff
Ġ15 0
Ġmen u
Ġregul atory
Ġhistor ischen
Ġunterschied lichen
Ġsele cted
Ġopen ed
Ġmor ning
Ġg od
Ġconsider able
Ġlis ted
Ġgr Ã¼
Ġgleich e
Ġkon sequ
Ġ7 5
Ġglo b
Ġvor sch
Ġangelegen heit
Ġmittel meer
Ġt ief
Ġmanag er
Ġab schlieÃŁend
Ġfrank f
Ġpan or
Ġfix ed
pre is
r ich
r aten
l ast
se c
Ġnam ely
Ġexp and
Ġer kennen
ar ies
i ant
and a
Ġbeteil igten
Ġinvestig ation
Ġpar ad
Ġwach sen
sch lieÃŁen
Ġge gr
at ively
ste chn
ad o
Ġestablish ing
Ġbestimm t
Ġv at
Ġlear ning
c ast
Ġsp ring
Ġnorth ern
sch ung
m and
Ġcrit ical
po ol
m as
Ġcon cluded
Ġadap t
Ġac qu
m ing
Ġcomp at
Ġeinge fÃ¼hrt
Ġfamil ies
Ġk reat
Ġhe il
Ġh it
is ierten
p ft
Ġus ually
Ġoper ational
Ã¤ den
Ġend gÃ¼lt
Ġnotwend igen
Ġo sten
u erung
re t
Ġzuk Ã¼nft
Ġhon our
Ġconf irm
Ġir land
Ġconf ir
Ġrun ning
Ġsol ar
ome ter
Ġal ban
Ġsur pr
Ġkonkre te
Ġcol or
ĠpalÃ¤st inens
Ġsafe gu
Ġmanag ed
Ġindustr ies
Ġdem ands
Ġfest ival
ĠpersÃ¶n lichen
Ġspecif ically
Ġab geschlossen
Ġprote cted
Ġamer ikan
Ã¼ ter
ul y
Ġaussch uÃŁ
Ġsch m
ĠgrenzÃ¼ber schreit
Ġmann er
ĠgeÃ¤nder t
Ġco oper
gr Ã¶
Ġhoch wert
Ġlea der
s l
Ġv ac
m aking
in iti
Ġf ear
Ġparliament ary
Ġexpend iture
Ġher unter
Ġr ub
Ġwork ed
Ġstor age
Ã¼hr en
Ġkomprom iss
Ġst ated
Ġgef Ã¶r
in al
w Ã¼n
Ġge zeigt
Ġlegit im
Ġaustr al
Ġan c
itÃ¤ re
Ã¶ sen
Ġaus reich
Ġerziel en
cal led
Ġinvest ments
Ġnahr ungs
b rit
r um
7 0
po in
Ġstaat liche
Ġst able
Ġges etzt
Ġlink ed
ĠÃ¼berzeug t
Ġl icht
Ġres pekt
Ġgo als
wa gen
Ġkrie g
Ġkit chen
Ġd Ã¤n
if ik
Ġ199 2
Ġnot es
Ġspezie ll
c d
am ing
Ġwan ted
Ġis ol
Ġab zu
ĠkÃ¼nst ler
ĠfÃ¶r der
Ġqual itÃ¤ts
Ġwahrschein lich
Ġchang ed
Ġfebru ary
akt iv
dien ste
vor schlag
Ġverme iden
Ġderzeit igen
Ġextens ive
Ġunbed ingt
Ġant worten
Ġbar s
u ert
Ġn om
Ġf ed
Ġfig ures
Ġex cess
Ġentw urf
f Ã¶r
Ġper cent
Ġprot ocol
Ġprodu cers
Ġv ize
Ġchin as
Ġcomb at
Ġver fassung
Ġparticip ate
ich ern
Ġbelie b
r ate
Ġzuver lÃ¤ss
feren ces
in zip
Ġle iden
or es
Ġst ake
Ġconsum ption
ĠbegrÃ¼ ÃŁen
y al
Ġchem ical
o le
Ġc roat
Ġben ach
Ġdis ap
Ġbos n
Ġrecogn ition
it ter
Ġpar ame
ha ften
Ġdistr ict
Ġnational er
Ġautomat isch
part ner
Ġtr ip
Ġt ests
mittel t
Ġuntersuch ung
ok e
Ġas ia
Ġschen gen
sp er
n ow
Ġha use
il es
fl Ã¼
komm un
Ġin tel
Ġde pos
Ġrechn ungs
Ġtarget s
Ġcompon ents
Ġre ception
Ġden ken
wer ke
Ġsol d
Ġcustom s
Ġ201 4
urop Ã¤
ent y
2 2
Ã¤ ften
Ġorgan ised
Ġges ehen
Ġrespon d
Ġaccom pan
Ġaus s
Ġarrang ements
att le
Ġearl ier
Ġo ly
go vern
Ġh op
Ġerfol gen
Ġautomat ically
Ġsu itable
Ġhe ard
fÃ¼hr ten
Ġgar ten
Ġun ge
Ġre ch
Ġexpl o
Ġste el
Ġvor haben
Ġw ol
Ġsyste me
Ġend lich
Ġex ter
Ġa qu
ungs ver
Ġfail ure
Ġpak istan
ĠvÃ¶l ker
Ġtr ying
Ġinform ed
ĠsÃ¤mt liche
Ġb ade
Ġerinn ern
Ġhervor ragen
c an
fÃ¼hr er
al led
Ġgeb iete
ak es
Ġs ad
Ġwr ong
Ġp df
Ġtr Ã¤gt
Ġser ve
Ġparalle l
u el
Ġmembers hip
Ġex pos
Ġpol ize
Ġgeeign et
a fr
l ad
Ġsp read
br uch
Ġgen annt
Ġausge zeichnet
Ġrefer red
Ġt ip
Ġz one
Ġhol z
lo ck
Ġlaunch ed
Ġauf zu
Ġmon at
Ġfunktion ieren
Ġoly mp
Ġstud io
Ġsu ite
Ġ199 3
gr enz
gra ms
Ġsouth ern
Ġerne uer
Ġan gen
ĠwÃ¤hr ung
Ġcons erv
komm issar
Ġis lands
Ġ 00
Ġjeweil s
ig em
Ġbei hilfe
Ġle av
Ġentw eder
Ġw Ã¤ren
ip t
Ġphilos oph
an nen
Ġvor teil
Ġgu ide
Ġful fil
Ġein ver
Ġein be
Ġbur den
Ġange geben
Ġcompl iance
it ten
bet rie
qu em
Ġins ide
Ġzentr ale
Ġstatt finden
ist ics
Ġdifficult ies
itzer land
Ġstr ict
Ġlar ger
Ġbil ateral
Ġwachst ums
Ġcomm ent
om et
Ġeconom ies
om b
Ġdirect ives
Ġumfassen de
i at
Ġd un
Ġze ichen
Ġev idence
Ġasyl um
Ġg ap
Ġer stellen
Ġchar ter
los s
Ġsus p
Ġt u
Ġvol le
ĠauswÃ¤rt ige
Ġb ott
Ġsp ac
reg ion
Ġunivers al
Ġme ter
p at
Ġfun ctions
Ġmad rid
Ġcor respon
ĠmÃ¤r kte
r as
Ġabsolute ly
y ear
end et
art igen
go ing
Ġm ur
k ur
Ġinst ance
bo x
is er
Ġatt ach
Ġc ro
Ġdar stellen
Ġherstell ung
Ġwieder auf
Ġda gegen
Ġle gen
Ġstruct ures
ĠmÃ¶glich st
Ġrail way
Ġunter n
Ġausge w
Ġg etting
Ġpower ful
Ġbuild ings
Ġt aus
Ġfa cing
Ġbelar us
Ġf el
Ġander erseits
Ġbit ten
Ġbew Ã¤lt
Ġer m
ĠwÃ¤hr ungs
Ġdeg ree
Ġr ig
Ġh Ã¤lt
Ġsem in
Ġsa v
brit ann
Ġmind est
Ġcy pr
Ġpict ure
Ġk roat
Ġl Ã¤nger
ran ken
fu hr
m eld
Ġ4 00
Ġevalu ation
Ġpl ants
p ak
Ġmob ility
h ner
i h
ent scheid
Ġdel ay
par k
Ġwelcom es
Ġco sta
Ġprev ention
Ġsch re
et ten
Ġan ne
ĠjÃ¼ng sten
9 8
il ien
sch Ã¤tz
Ġclos ed
Ġprofit ieren
Ġl en
Ġberichterstatter in
Ġir gend
Ġinternational er
Ġt ie
Ġset s
Ġpro grams
Ġr and
Ġmut ual
Ġafr ika
Ġfebru ar
Ġarbeits markt
gew Ã¶hn
Ġl auf
leit en
Ġpres ence
Ġp oker
Ġwe ap
Ġvorauss etzungen
ident s
Ġa kte
Ġf la
ber n
Ġcar s
l ass
Ġse ven
Ġleist ungen
Ġzu vor
ĠunabhÃ¤ng ig
ic ate
pre ise
Ġteil weise
geb aut
v est
Ġdank e
Ġfahr en
Ġbek r
Ġbenutz en
hol ders
ar ia
a e
Ġra ise
Ġup gra
imm ern
Ġafr ican
Ġfortsch ritt
d ire
yste me
kt iven
Ġagen cies
Ġr as
Ġent it
0 1
zie ht
Ġsh ared
letz t
n am
Ġcons olid
Ġphot os
ĠgegenwÃ¤rt ig
Ġm m
Ġcontrol s
is ely
ĠÃ¼berpr Ã¼fung
Ġsa una
Ġmitt l
Ġdefin ed
Ġsal z
Ġbrow ser
Ġr ies
ĠfranzÃ¶s ischen
p ass
Ġmot iv
Ġannoun ced
Ġyour self
Ġmarit ime
Ġflexib ility
Ġmot ion
Ġkonzentr ieren
Ġinform ieren
Ġpl ug
Ġpurch ase
Ġterrit ory
Ġschwer punkt
Ġd ritte
Ġsm es
Ġroman ia
Ġplay ed
ent ions
um p
p ap
Ġbekr Ã¤ft
Ġrepl ac
Ġproper ly
Ġeleg ant
Ġzu letzt
Ġeven ing
Ġgen et
uch e
Ġl if
Ġbenutz t
ing u
comm un
er zeug
Ġtalk ing
Ġverfol gen
jÃ¤hr igen
ic ts
ĠverÃ¤nder ungen
Ġexclus ive
Ġsy m
Ġgenehm igt
Ġbe ur
v ak
ver w
al y
Ġact ual
Ġres erve
Ġres idence
c ar
Ġland wir
fÃ¼ gen
Ġpropos e
Ġa head
Ġtra ve
ĠÃ¼ b
ien en
ru f
j o
3 3
ges ellschaften
Ġwill kommen
Ġind ia
Ġbel ong
a ult
Ġcommun ications
Ġw ik
Ġb ag
Ġkin dern
ĠzustÃ¤nd igen
Ġbecom ing
Ġnav ig
Ġincor por
Ġs ale
ar ge
us ing
Ġwill ing
Ġide e
g elt
Ġf ly
Ġun less
ze igen
Ġwat ers
Ġvorbereit ung
Ġle ute
Ġverpflicht ung
Ġlib r
Ġbe quem
is ierte
Ġfest ge
sv ors
t ime
ent lich
Ġteil nehmen
Ġ ;
Ġer leben
govern ment
Ġs ays
Ġsie he
Ġprodu kten
Ġstim ul
sp unkt
Ġsub mit
a el
o on
Ġer stellt
Ġdv d
ick s
Ġherstell er
Ġd iss
her r
Ġbrauch t
Ġcomb ined
il ing
Ġausge wogen
Ġkoh Ã¤s
l ern
mo de
ĠlÃ¶ sen
an b
Ġland s
Ġcon tem
cl ude
Ġkom pon
Ġind ire
Ġat lant
it ious
ĠgroÃŁ britann
Ġintens iv
utz ung
Ġt ut
Ġw ants
le un
let ter
k y
Ġsc en
Ġthous ands
Ġqu ot
Ġcontin ues
ct or
Ġche ap
Ġsw itzerland
asch ine
Ġtransl ation
n Ã¼
Ġelectric ity
Ġparte i
Ġitem s
te te
Ġer geben
Ġtrotz dem
Ġdro gen
Ġsp end
Ġsignificant ly
Ġam ts
eff iz
Ġdra mat
Ġg ing
n y
Ġ201 5
et ze
Ġout come
Ġg ain
Ġattem pt
am b
mÃ¶ gen
f ree
Ġtur k
Ġmor al
Ġdienst leistungs
Ġschwier ig
Ġplay ing
Ġfr ied
Ġposit ions
Ġdiscr imination
Ġzu gleich
Ġges che
Ġrest ruct
Ġeas ier
Ġal te
Ġerk ennt
Ġgel angen
Ġweiter er
Ġcoll ab
Ġconsider ation
Ġnot ice
Ġappl ies
Ġluxem bourg
Ġbe ziehen
Ġimmed iate
it el
zw ischen
Ġge plan
Ġde e
agra ph
Ġeuropean s
Ġposit iv
Ġheraus forderung
Ġent ertain
gew icht
{ {
cl ub
n um
Ã¤ uÃŁ
Ã¤nd ischen
sch Ã¶
Ġin halte
Ġb ol
Ġerheb lich
Ġclos er
Ġun it
Ġman ch
Ġus es
ov a
Ġan gel
Ġfound ed
Ġdepart ment
Ġsicher lich
Ġbeteil igt
Ġmin ute
Ġpers pective
Ġn ar
Ġvorgeschlagen en
4 4
or ient
v ia
Ġph p
Ġdifferen ces
Ġexec utive
Ġar men
c i
Ġsorg f
2 000
Ġim per
Ġwh om
Ġspe ech
Ġappro xim
im b
Ġim press
Ġexp ens
ĠbestÃ¤t igt
hand lung
Ġfacilit ate
Ġi v
re pr
Ġli qu
ĠgefÃ¶r dert
or gt
Ġanp assung
schl Ã¤ge
Ġve get
Ġregel ungen
Ġs ession
st immung
Ġback ground
Ġtele phone
Ġgree k
Ġm ik
ĠstÃ¤d te
Ġhin weisen
Ġsuch e
mÃ¤r kte
Ġvo ice
Ġver h
pro zess
Ã¤ fen
h re
Ġsh ops
mitglied staaten
Ġc amera
Ġserv ed
lÃ¶s ung
Ġa ck
Ġc ards
Ġphot ograph
art a
Ġj ac
7 5
Ġaut onom
3 6
Ġcouncil s
Ã¤us er
Ġspac ious
Ġger icht
Ġkon k
Ġsw eden
Ġindividual s
Ġw ander
9 9
Ġste igen
Ġown ers
p ol
id ing
ĠÃ¼ber sch
Ġwith dra
Ġexhib ition
Ġpa ul
Ġv otes
Ġkla re
b ad
ĠÃ¼berpr Ã¼fen
Ġzweif el
be w
ĠkÃ¼nft igen
i ary
Ġso fern
Ġprior itÃ¤t
gr enzen
Ġdec or
Ġh Ã¼
wir ken
Ġdurch schnitt
Ġexact ly
Ġab sicht
Ġho ffen
al a
sie he
Ġsteu ern
Ġmeer es
z o
Ġmin i
Ġgrunds Ã¤tz
Ġinfring ement
Ġ ?
imm ungen
Ġtele vision
Ġo w
Ġlux ur
Ġfell ow
Ġle b
Ġ3 6
k or
Ġsatell ite
stand s
Ġallow ing
Ġteil nehmer
Ġwonder ful
Ġfor men
Ġbesch leun
Ġexerc ise
Ġpeace ful
Ġinstit ute
Ġc ab
ach tet
olog ische
Ġerweit er
Ġhin dern
Ġdr ink
ĠnÃ¤ch ste
Ġakzept ieren
Ġunterschied liche
Ġpro portion
Ġsuff er
wo hner
Ġbesuch er
ze p
el te
ch em
ĠÃ¼ber tragen
Ġdeal ing
nehm ern
z ed
Ġnumber s
it tel
Ġge kommen
Ġro ute
Ġbetra chtet
k Ã¼nd
Ġverfol gt
Ġbetrie bs
Ġachie ving
Ġj ene
Ġest ate
ian o
Ġgem Ã¼t
Ġdatab ase
Ġprec isely
um in
Ġst reit
Ġanges prochen
Ġris iken
Ġrefer end
Ġbarro so
s ized
Ġgesch m
Ġfrankf urt
ĠmaÃŁ nahme
l as
Ġglau b
Ġander es
Ġeinges ch
andid aten
3 8
Ġfre ue
Ġkar te
Ġbild ungs
Ġein druck
rÃ¼ st
Ġbess eren
ausschuss es
Ġengine ering
amen te
Ġconven ient
Ġorgan ization
Ġorgan iz
Ġproceed ings
is ierungs
Ġack now
Ġange hÃ¶r
Ġver we
emb ly
ap p
eit her
ĠberÃ¼cksicht igung
frei heit
Ġab we
Ġtable d
Ġii i
Ġdef iz
Ġga ve
Ġex cept
Ġest im
Ġh altung
me chan
g reif
Ġarbeitslos igkeit
Ġla id
Ġtr ib
* *
Ġlob by
ic kt
Ġj ung
Ġmit einander
Ġref le
Ġeffiz ienz
Ġs le
Ġtas ks
Ġappe al
organisation en
Ġrel ativ
wachst um
f igur
Ġmen ge
u ft
Ġze ich
Ġs ides
Ġb all
Ġterrit orial
hn ung
Ġparticip ants
Ġcop yr
Ġfor get
Ġim ag
a der
Ġgip fel
Ġp act
Ġpar agraph
Ġein iger
Ġcre d
Ã¤l fte
Ġ( +
Ġfest gestellt
Ġbeha v
0 9
Ġsp ending
Ġspiel t
Ġbu ffet
Ġluxem burg
Ġgrie ch
Ġun an
Ġconsider s
Ġrem ind
Ġfoll ows
ĠverstÃ¤r kt
Ġir ish
Ġbet ont
Ġhier zu
Ġint ention
Ġbus h
Ġequ ality
Ġsehen s
Ġadv ice
Ġsor ge
Ġmod els
Ġtechnolog ical
Ġcomple ted
Ġprem ier
Ġsch reiben
ific ations
il er
Ġact s
Ġpak et
Ġsch lieÃŁen
Ġfre ie
lei hen
ro ad
Ġdo or
Ġspeak ing
Ġdang erous
Ġfunction ing
k arten
ifiz iert
Ã¼ ste
Ġfun ktionen
Ġkon z
Ġb alt
Ġj ungen
Ġgele istet
} }
Ġan griff
ure au
Ġex tended
Ġdar aus
Ġdaten schutz
Ġre isen
a x
Ġumwelt schutz
Ġacht ung
Ġho uses
Ġhard ware
Ã¤ ten
Ġsn ow
Ġany one
Ġdies be
sp ar
qu ality
schie de
ich e
ident ial
Ġer fordern
gem Ã¤ÃŁ
Ġan lagen
Ġkr isen
k at
Ġw ien
Ġgew inn
Ġindep endence
ĠerwÃ¤ hnt
Ġmo v
Ġbe ar
Ġaus drÃ¼cklich
Ġfrei will
erv ice
ĠeuropÃ¤ er
ver tre
Ġjeder zeit
Ġmalt a
Ġv ien
Ġ Ã¤lter
4 6
Ġguaran tees
Ġm aschinen
Ġwel cher
ie gen
Ġbelg ium
Ġbre it
Ġhil fs
t v
Ġfra ud
Ġpolit ischer
Ġw ire
Ġ ..
Ġac adem
Ġvize prÃ¤sident
Ġadv ance
Ġverl assen
Ġc ra
Ġwe chsel
hand lungen
Ġy es
Ġcontinu ing
Ġman age
Ġregister ed
ur a
Ġw il
Ġfinanz en
Ġges prochen
Ġc uis
ut s
Ġmach ines
Ġamb itious
ĠbenÃ¶t igt
Ġdise ase
Ġb ern
Ġhand s
poin ted
un sten
et ragen
seit e
Ġwichtig ste
Ġimmobil ien
Ġno ted
Ġse ll
esen ted
Ġtour ismus
gen ce
hl t
2 8
Ġl t
w issen
em a
act ions
Ġintrodu ce
Ġw ent
Ġfunktion iert
icher ungs
Ġgrunds Ã¤tze
Ġn either
h or
Ġstra ÃŁe
Ġlet ter
sicht s
o und
sta ats
Ġdest ro
Ġfl ag
Ġade quate
Ġj unge
Ġumfassen den
a f
Ġdes cription
abil ities
Ġbe ds
Ġto ler
ish es
ick ing
Ġprof ess
k el
Ġfact ors
Ġfu el
Ġge fordert
Ġworks h
Ġpos sibilities
Ġbehin der
Ġs amm
Ġfin de
Ġass embly
Ġun gleich
Ġmet res
Ġrev ision
techn ik
Ġberuf s
Ġsie ben
Ġgut es
Ġmat ch
Ġadvert ising
Ġrel ate
Ġobvious ly
Ġch ap
Ġs i
Ġh under
Ġrefuge es
serv ice
e ig
id a
Ġaust ausch
ĠstÃ¤nd ig
Ġgen der
it u
Ġamer ic
Ġvul ner
c ategories
Ġschul den
4 9
Ã¼ck e
Ġaut or
Ġaus z
Ġdifferen ce
Ġstud ien
Ġpros pect
Ġstra f
Ġr ang
pro ble
Ġsc ale
te le
Ġkap az
Ġco ffee
Ġde te
Ġnetz werk
Ġent h
Ġfl ash
Ġbeaut y
Ġleist ung
ie ts
c in
Ġfinanz ierungs
Ġre icht
Ġver fahrens
Ġ- -
Ġspec ies
le br
Ġel imin
ĠerhÃ¶ ht
id ung
Ġacc ounts
Ġhol ding
en a
Ġg ern
Ġha fen
Ġbulgar ia
europe an
Ġl ift
Ġdev ices
Ġunterk ategorien
r Ã¤gen
bereich e
Ġtit el
Ġavail ability
Ġb ureau
tz eit
Ġp ed
200 6
Ġpro c
Ġf ill
Ġrenew able
Ġappro val
Ġasso zi
ie ben
Ġval ley
Ġpleas ant
Ġcontr ary
Ġausreich end
Ġplann ed
u it
ĠgrÃ¶ÃŁ eren
Ġhuman itÃ¤re
Ġtas te
Ġles ung
Ġbeach ten
ust r
Ġgew innen
Ġdef icit
Ġf ro
20 10
Ġocc ur
Ġerw art
m ess
ĠÃ¼ber all
Ġfor th
zeich nete
ens us
Ġstrong ly
gest immt
Ġdate i
Ġentire ly
Ġsu c
Ġtax ation
Ġvide os
Ġern Ã¤hr
em ission
Ġ8 00
ff end
Ġprepar ation
ĠrumÃ¤n ien
Ġautom ob
Ġgenu ine
Ġzeit en
Ġmittel n
Ġso u
Ġnachhalt igen
Ġvors itzen
Ġsub sequ
Ġglobal isierung
Ġmem ory
Ġarbeit et
ĠÃ¼ber nahme
Ġfa iled
Ġtyp ical
Ġmechanis ms
Ġgen Ã¼
ĠbedÃ¼rf nisse
Ġson nen
Ġbal anced
Ġattra ctive
Ġcuis ine
ĠgroÃŁbritann ien
Ġverbunden en
Ġregistr ation
w urf
Ġm igr
Ġinform iert
Ġdate ien
ag o
Ġkulture llen
statt ung
Ã¶ der
Ġind ien
Ġ199 1
9 5
Ġange zeigt
Ġstar ke
h le
abil itÃ¤t
Ġrequ ested
d own
iger ung
act ive
Ġschw eden
ten ance
Ġgegr Ã¼ndet
Ġg Ã¼lt
Ġsp ent
ĠerklÃ¤r en
Ġre produ
0 5
Ġpolit ics
on ym
Ġp in
Ġein setzen
Ġinter face
Ġgew Ã¼n
ma ÃŁen
or ing
Ġmount ains
Ġide en
l en
lich ten
Ġa ktionen
Ġsol cher
Ġmus l
Ġsh ower
Ġqual it
st ieg
Ġwirk ung
Ġra m
Ġliz enz
Ġst off
Ġsit ting
iel d
Ġempfehl ung
Ġverteid igung
l an
Ġm old
Ġbrit ischen
at lant
Ġen ables
se h
Ġfru it
Ġcomb ination
Ġst o
Ġpol y
ĠmaÃŁ e
op ol
Ġzug Ã¤nglich
Ġrecommend ation
Ġpriv acy
Ġtick et
Ġdes wegen
Ġverring erung
Ġsau ber
Ġzahl ungs
spart ner
Ġfor derung
ĠfÃ¼hr ung
Ġ ue
Ġb inding
Ġf em
Ġhaupts Ã¤chlich
Ġm Ã¼s
Ġbor n
Ġcla ims
Ġpr Ã¼f
igkeit s
Ġpriv ile
Ġerleich tern
Ġdurch aus
Ġteil nahme
4 8
Ġn ation
lie gt
Ġc ub
qu al
Ġaddress ed
Ġcham ber
Ġlim its
ĠnÃ¤ her
ĠÃ¼bern achten
Ġgl ass
b rauch
Ġwebs eite
Ġd or
Ġnie mand
Ġmehr wert
om s
iz iert
Ġf en
Ġpil ot
Ġrom ant
Ġpal ace
Ġdec la
Ġsch ed
olit ische
Ġin com
Ġaustr ian
Ġo d
Ġarchitect ure
Ġre mo
Ġapplic able
ĠentschlieÃŁ ungsant
Ġgest alten
k am
ip p
Ġis o
um ping
f le
Ġt enn
ik al
Ġbut ton
Ġsuc ceed
ĠgewÃ¤hr t
Ġse ien
Ġocc asion
2 6
Ġthink ing
Ġteam s
Ġmin istry
Ġnews letter
Ġky oto
Ġall iance
Ġhoriz ont
mitt lung
Ġexperien ced
Ġdi ent
Ġt Ã¤glich
ad or
ĠdÃ¼r fte
Ġamer ikanischen
Ġber aten
Ġbo ot
Ġsup ple
te x
ere i
program me
Ġpatient en
ll ung
Ġce lebr
Ġaus ges
Ġziel en
is ory
Ġappe ars
g ien
y pt
Ġland schaft
Ġeuro s
Ġbe zeichnet
Ġbes org
Ġs ar
Ġz ut
Ġein kauf
Ġan re
Ġtre ten
Ġhighl ight
Ġserious ly
Ġmanch mal
Ġw enden
Ġn iveau
Ġje an
Ġzivil gesellschaft
Ġglob ale
Ġcast le
Ġs ah
Ġacc ur
Ġla den
Ġbecom es
er a
r ies
Ġaufge fordert
k op
Ġarr ival
Ġconne cted
Ġso gen
Ġprep are
Ġg az
Ġvorliegen den
Ġsch laf
att form
Ġrequ ests
ing esch
je cted
yp ern
w al
Ġparlament ar
ĠgegenwÃ¤rt igen
Ã¤u fer
st ation
de x
ĠjÃ¤hr lich
Ġl angen
Ġcomm and
Ġwen igen
Ġa lex
Ġmr d
Ġcontract s
u a
Ġi b
de p
Ġurg ent
Ġfrieden s
w enden
Ġgew iss
Ġv oc
Ġhung ary
Ġmich ael
Ġhinge wiesen
Ġste in
Ġrepr esented
Ġcour ses
Ġhosp ital
Ġexper ten
Ġir on
Ġin zwischen
Ġe dition
Ġproble men
Ġges p
Ġident ified
ĠunabhÃ¤ng igkeit
Ġbank ing
Ġuntern ommen
tr Ã¤cht
Ġcypr us
9 0
Ġbet onen
Ġlo unge
Ġterr asse
Ġas pekt
Ġconstitution al
Ġcare fully
pl Ã¤tze
Ġanwend ungen
c ard
Ġverl oren
Ġl ength
Ġele ction
Ġmain tenance
Ġveh icle
Ġstat ements
ateg ory
Ġho ur
Ġviel zahl
Ġn ames
Ġemer gency
Ġaus land
Ġnear ly
Ġpre d
Ġair lines
Ġstrateg ien
Ġstrateg ies
Ġbring ing
ĠzustÃ¤nd ige
Ġimprovement s
2 1
Ġdaten bank
ra ums
b ur
ĠtÃ¤t igkeiten
ic ians
Ġspe zielle
ĠÃ¤uÃŁ er
Ġentit led
Ġdes k
schr Ã¤n
Ġslo vak
Ġst ore
Ġart icles
Ġout standing
Ġco vers
n or
Ġkonk urr
Ġn ennen
Ġmo ving
i ques
Ġin ten
w est
im ed
Ġwoll te
Ġmanufact uring
Ġun f
Ġaus bau
Ġo ste
Ġcour ts
Ġh Ã¤lfte
Ġn Ã¼tz
Ġcon dem
be hÃ¶rde
Ġwelcom ed
Ġsafegu ard
Ġc er
e conom
schl uÃŁ
Ġbestand teil
Ġs aint
Ġp ill
Ġliberal isierung
Ġy ester
t te
sp h
Ġalb um
Ġnachfol gend
fl ug
du le
Ġg ir
Ġmag az
Ġto des
Ġro h
Ġdritt lÃ¤ndern
Ġdra wn
Ġwas hing
Ġtest ing
Ġmanufactur ers
Ġrestruct uring
Ġm p
Ġeuro zone
Ġair craft
Ġexce ed
Ġoffens ichtlich
Ġpen alt
s ein
Ġviel mehr
Ã¼t ze
ig ern
Ġer griffen
Ġachie vement
Ġregel mÃ¤ÃŁig
Ġs agt
Ġp ure
Ġforder ungen
Ġwind ow
Ġrel iable
Ġmut ter
it age
Ġa th
Ġcomp r
j et
Ġrele ased
Ġso weit
Ġreason able
Ġdivers ity
Ġgesche hen
d et
k unden
at ik
Ġfest legung
Ġgra f
ol o
Ġur s
Ġcas h
am in
Ġbe iz
ĠpersÃ¶n lich
Ġgesch Ã¼tzt
Ġpro hib
Ġmand ate
ab sicht
Ġbere chn
Ġur teil
Ġinc ent
Ġein s
f ers
pf licht
Ġabsol ut
Ġfir ms
2 7
Ġmet ro
Ġoper ate
ul a
Ġdi agn
met ho
Ġsub stances
Ġdynam ic
Ġpack ages
Ġyou ll
Ġgesch le
Ġstand s
Ġund erg
Ġbelg ien
heb ung
Ġmich el
Ġst ory
il st
fÃ¤h ig
Ġson n
Ġrom e
Ġagent ur
um n
Ã¤um t
sp ap
en se
Ġmitglie dern
Ġrev en
Ġgepr Ã¼ft
ĠzustÃ¤nd ig
ra y
Ġded icated
Ġexp ans
Ġsich erstellen
qu ir
Ġch amp
ĠwÃ¼n sche
Ġbig gest
Ġschl Ã¤gt
Ġan lage
Ġele mente
Ġf an
Ġrat svors
Ġaus nahme
nah m
ĠÃ¼berein kommen
Ġlat in
r ig
ver hÃ¤lt
Ġeng ag
sto ffen
Ġfra g
Ġgol den
Ġzentral bank
Ġanc ient
Ġscho ols
Ġricht igen
Ġrea ktion
Ġprim ary
z ne
Ġheim at
Ġv ess
Ġstruktur fonds
Ġcall ing
Ġerforder t
Ġm ig
Ġaus Ã¼
Ġun i
ĠmÃ¶ glichen
Ġeffe ktiv
3 4
aust ausch
Ġerschein t
Ġzu folge
ik ing
Ġc ategory
Ġhin weis
Ġnutz er
Ã¤ ck
Ġniedr ig
Ġbr as
Ġcroat ia
r ik
Ġer h
Ġwh ilst
Ġaus einander
ĠerhÃ¶ hung
government al
Ġune ingesch
Ġcentr es
Ġkrit ik
Ġ4 8
Ġexam ples
is ted
Ġz ypern
Ġcopyr ight
Ġher itage
Ġimpos sible
Ġged anken
Ġlux ury
Ġbeha up
Ġco her
Ġpe ter
Ġkr imin
reg eln
ha ber
Ġgarant iert
p ubl
Ġdut ch
Ġexpert ise
st ud
Ġco ol
Ġchrist ian
Ġwish es
ash ion
Ġzug unsten
ĠkÃ¼rz lich
Ġbudget s
Ġklimawand el
wor tet
Ġham burg
Ġsitu ations
Ġfor ts
Ġdam als
Ġwesent liche
co de
Ġm ist
Ġpropos es
Ġdiskut ieren
Ġapproxim ately
Ġextens ion
ze ÃŁ
ib et
con dition
Ġem b
licher weise
e w
Ġdr ugs
Ġweap ons
h ar
Ġkontin u
Ġun a
eit en
Ġschw ed
Ġcompens ation
Ġuneingesch rÃ¤n
Ġjahr zehn
Ġth or
Ġverabschied et
Ġfrem den
Ġherz lich
cl ing
Ġresult ing
hal tet
leg te
if en
Ġflexib ilitÃ¤t
Ġnear by
sp arte
ĠprÃ¤ z
Ġbetr Ã¤cht
Ġal p
Ġexport s
Ġpalest inian
Ġko oper
Ġlau fe
Ġrestrict ions
Ġpfl anzen
Ġtechn ik
hr ase
Ġehr ge
ĠzurÃ¼ck ge
Ġtit le
fÃ¤ llen
Ġchar ged
Ġhelp ing
kn own
Ġe ads
Ġat om
Ġst ahl
Ġtr uly
spra ch
m iss
Ġinst ru
Ġmobil itÃ¤t
Ġoblig ation
Ġge Ã¶ff
bek Ã¤mpfung
Ġtick ets
Ġp our
Ġf Ã¤lle
Ġmar ia
Ġent standen
Ġgelten den
Ġtex te
Ġto ld
Ġbetra chten
0 8
re m
Ġgreat est
0 6
Ġbo ost
Ġsw ed
Ġdescrib ed
Ġum struktur
Ġmag n
Ġst ol
Ġhar m
ĠkÃ¼nft ig
Ġehrge iz
Ġro yal
Ġphys ical
Ġsch uld
Ġko operation
Ġexpl ain
ÃŁ te
Ġerzeug nisse
Ġe ight
Ġconsist ent
v iel
f are
Ġd ry
at is
Ġaus sicht
Ġm u
Ġbr ut
Ġsu ites
Ġf ischer
be ziehungen
Ġinde x
Ġz ert
Ġra ce
Ġvor legen
be auftrag
ĠhÃ¶r en
Ġbere cht
ĠgroÃŁ es
Ġident ify
Ġcop y
g ro
and o
sp rech
Ġpresent ation
Ġsm art
z in
Ġentsp annen
Ġme ant
Ġord nungs
e bene
Ġsur face
Ġ ),
Ġchang ing
ist a
Ġrespon sibilities
Ġtem porary
Ġfl ight
Ġli ability
Ġn ic
Ġpat ients
rauch er
Ġw ald
ing ung
clud ing
Ġgrund rechte
Ġunterb reit
Ġerw achsen
Ġabgeord nete
Ġsehens wÃ¼rd
. :
zub auen
0 3
Ġgra m
Ġtr ial
Ġkle iner
Ġaff ord
Ġpoll ution
kontro lle
Ġfest stellen
Ġmult iple
Ġbo und
it ar
ĠgrÃ¼n de
Ġbulgar ien
Ġver ste
Ġdr iving
Ġst amm
Ġkomp et
Ġcap t
Ġremo ve
Ġcol d
vere ign
Ġsp Ã¤t
Ġconfir med
Ġeinfach e
Ġdiskrimin ierung
u ung
Ġz Ã¤hlen
Ġso vereign
ag ent
regel ung
mar ks
ĠfÃ¼hr te
Ġunivers itÃ¤t
Ġbef ug
Ġstaat lichen
Ġeinz igen
Ġpres erv
Ġnor men
Ġqual ified
Ġground s
Ġthe at
Ġma x
Ġd ach
Ġcreat ive
v ier
Ġst u
Ġeisen bahn
Ġb se
Ġmark en
Ġmer c
Ġord nung
Ġbeein trÃ¤cht
Ġdepos it
Ġk urs
wir t
ud s
te ten
el be
Ġreserv ation
Ġsant a
Ġnach frage
Ġcons ensus
Ġdom ain
Ġpar a
Ġkom pl
Ġob sta
Ġtransa ction
Ġvar i
Ġkomm ent
Ġex pression
Ġad r
Ġru he
Ġw et
Ġarg ent
Ġthere by
Ġtenn is
Ġdetermin ed
Ġd al
Ġungar n
Ġmart in
Ġd rop
Ġon going
Ġeinzel ne
Ġhim self
Ġc ant
ro chen
m lich
Ġcontrib utions
Ġw iss
ĠschÃ¶ ne
Ġsh ar
Ġtr ends
setz ungen
Ġen h
ĠfÃ¤h igkeit
Ġgeschm ack
f est
ĠhÃ¶ch ste
Ġn ik
Ġinvol ving
Ġunmittel bar
e a
Ġitalien ischen
Ġart ists
Ġfact or
Ġsan ktionen
aren ess
i ÃŁen
Ġrelig ious
% ,
Ġwor te
Ġsystem at
ar io
ac cept
Ġconvin ced
Ġanne x
Ġhaus es
Ġsel ten
Ġlaufen den
5 00
z ig
Ġsan ctions
w ers
ĠtÃ¼r k
Ġentde ck
iert es
Ġenh ance
up p
Ġmittel s
Ġcal cul
Ġjahrhunder ts
Ġmass ive
Ġbeach es
le hen
Ġver he
Ġmy self
Ġwissenschaft lichen
Ġimport s
Ġauth ent
Ġbeginn t
Ã¼n fte
Ġweiter es
Ġtal ks
Ġturk ish
Ġinvest ors
200 1
erg ie
stehen den
Ġc ry
Ġro ll
initi ative
Ġs we
techn ologie
mode ll
Ġzu griff
ĠÃ¼ber trag
Ġdispos al
r Ã¤ume
Ġletz t
Ġholid ays
Ġch osen
Ġmultil ateral
el er
Ġre chten
Ġkore a
Ġbesitz t
Ġer fre
Ġke pt
as cript
Ġbesch wer
Ġiss ued
Ġstr en
Ġult im
zie le
ĠschÃ¶ nen
Ġintel lect
z il
Ġm i
z ust
Ġbein haltet
Ġvorauss etzung
Ġfil ter
Ġwel chen
Ġvern Ã¼nft
Ġkeiner lei
Ġcoun t
dienst leistungen
Ġunter kunft
Ġletz ter
Ġliqu id
Ġy ang
n ed
Ġho her
ĠgrÃ¶ÃŁ e
Ġumf ass
gener al
Ġger ichte
ein richtungen
Ġw al
Ġbre ite
Ġrelig ion
Ġmess e
Ġsens itive
Ġb ang
produ kte
econom ic
h y
Ġeng land
Ġweltweit en
Ġsmall er
Ġunter schiede
Ġtra um
klÃ¤r ung
Ġaw areness
Ġvien na
Ġadv oc
Ġeinge b
Ġquar ter
Ġdes ire
Ġdev ice
Ġent repr
Ġo k
Ġbesch reibung
do or
Ġper mit
Ġposit iven
Ġcar bon
gel assen
Ġput ting
Ġex klus
Ġengl isch
Ġseek ing
Ġinsp ir
Ġre ve
9 6
Ġlo ad
Ġaccess ible
urop a
wor fen
que llen
Ġvor genommen
Ġjav ascript
Ġl Ã¤ng
Ġprevious ly
0 4
Ġein schl
Ġstud ie
ran ce
ĠverstÃ¤nd nis
Ġsuccess fully
y er
Ġass um
Ġdemokrat ische
Ġj ack
Ġwe alth
uropÃ¤ ischen
Ġo mb
Ġret ail
Ġun accept
Ġzu ges
Ġunter zeichnet
ampag ne
Ġclass ic
Ġver ehr
Ġp ic
Ġch a
Ġwill en
Ġbr ings
Ġheav y
verb ind
Ã¤hl ten
Ġdeliver ed
Ġaktion splan
Ġwe ight
Ġmittel punkt
Ġwar ten
spl ans
Ġcompat ible
h ann
Ġan liegen
Ġcomb ating
Ġkomb in
Ġfot o
Ġr ational
Ġehemal igen
b ran
w ar
Ġr Ã¼
i ating
Ġleaders hip
ugosla w
Ġfot os
Ġre ply
Ġopin ions
ell er
Ġbesorg nis
Ã¤nd ische
Ġnatur ally
ul ted
Ġdemocrat s
Ġcontain ed
Ġentde cken
g os
Ġerheb liche
Ġreag ieren
stand ards
Ġsurround ing
Ġein schrÃ¤n
Ġeurop ol
Ġnahrungs mittel
Ġar ms
ĠsehenswÃ¼rd igkeiten
Ġge halten
b i
Ġanb ieten
in y
Ġfor ced
ist rat
cil iation
k ar
Ġe co
Ġoff ic
20 13
Ġschne ller
Ġpolitik er
Ġun able
Ġi ce
schaft s
Ġbef assen
t ung
ater alen
Ġmy s
Ġqual ifiz
grund lage
Ġzus ch
Ġpress e
Ġa er
Ġsorgf Ã¤lt
Ġgarant ieren
Ġenorm ous
Ġremain ing
Ġrelax ing
Ġk ranken
ist isch
w ald
Ġentertain ment
Ġlangfrist ige
te ed
Ġk aufen
Ġout put
Ġam ounts
Ġglaub wÃ¼rd
Ġeing ere
s elben
Ġho ll
Ġwor ten
Ġinvol vement
Ġhappen ed
end ed
Ġrec y
Ġ ul
Ġenfor cement
Ġlic ense
u ters
Ġval u
Ġ25 0
Ġappar te
Ġf at
Ġf ashion
Ġrapporte urs
lo ok
Ġgl as
Ġratsvors itz
z ul
Ġvis ual
Ġemphas is
i pe
Ġd ubl
Ġwo durch
Ġum zusetzen
Ġcommit tees
ĠvollstÃ¤nd ige
Ġd us
ĠhÃ¶ here
Ġpassen gers
Ġfl ow
zne im
Ġfour th
Ġd orf
ver se
Ġrel atively
Ġdist in
Ġlibr ary
Ã¶ se
Ġch ain
Ġeffect iveness
Ġspezie llen
Ġextre me
Ġvereinbar ungen
ĠbemÃ¼ hen
ad resse
Ġsich ern
ze g
Ġcons ists
Ġha ut
in ks
Ġbook s
Ġguaran teed
Ġentwicklungs lÃ¤ndern
j an
Ġsa w
Ġverring ern
Ġab kommens
Ġder artige
35 2
zneim ittel
Ġdise ases
Ġpr est
Ġkir che
for schung
term ine
gef Ã¤hr
tz entr
inn ing
Ġvol unt
Ġentrepr ene
Ġanerk annt
Ġstar ken
Ġfacil ity
Ġw ed
Ġadv ent
Ġereign isse
Ġcompet ence
Ġinnov ations
Ġspan ischen
Ġkurz em
Ġkroat ien
d as
Ġ198 9
Ġbe absicht
Ġident ity
Ġsl ight
Ġzunehmen d
9 7
z b
iv itÃ¤t
es c
Ġber ichten
Ġstatist ics
Ġtele kommun
Ġav iation
Ã¶ konom
Ġ3 4
Ġprim arily
bild ungs
Ġass ets
Ġunter nehmer
Ġgen e
los en
200 9
Ġverantwort ungs
ĠkÃ¼nft ige
Ġc m
ate ver
Ġunterschied lich
Ġre ichen
Ġintell igen
f allen
Ġbe am
Ġempfehl en
Ġstell te
Ġjud icial
staat lichen
Ġk g
Ġt iere
Ġj ugoslaw
l Ã¼ck
Ġdec ades
Ġd ich
Ġe chte
Ġab sen
Ġnah en
Ġfar ben
Ġverbesser ungen
Ã¤ uter
Ġdav id
v ant
Ġgu ter
Ġwh atever
Ġeinbe ziehung
Ġpr ison
Ġrespect ive
ic ed
Ġde le
Ġpass ed
emission en
Ġtre k
Ġdestro y
Ġunaccept able
Ġbetre ffend
w ith
Ġgegeben en
Ġsurround ed
Ġt isch
ĠzusÃ¤tz lichen
Ġh ill
Ġvorsch lagen
l ag
Ġlab el
Ġofficial s
u ing
Ġbeg onnen
Ġhil f
Ġdefin it
r ant
Ġb ug
Ġnor den
Ġme ters
Ġhe ating
Ġspe kt
Ġattra ctions
Ġl ith
Ġinst alled
ĠverhÃ¤lt nis
Ġob ser
Ġminder heiten
Ġus b
ĠfÃ¤ llt
n d
n ational
Ġne ut
Ġoffen en
c are
Ġversch le
Ġrecognis ed
Ġhoff nung
Ġge heim
Ġele cted
Ġcon clude
zept ion
Ġ3 8
Ġvoll kommen
ut y
Ġbereit gestellt
Ġprakt isch
Ġmitt ler
Ġtot ally
Ġ5 5
Ġbild et
Ġverl angen
Ġ3 7
Ġyester day
3 1
Ġpro di
Ġfinanz iert
Ġhervor ge
e ben
Ġse ktoren
sch ieden
Ġind ones
Ġges tern
ĠÃ¼bern ommen
Ġamong st
verein bar
r or
Ġk er
ik as
Ġoptim al
Ġmetho den
Ġtax es
Ġchann el
Ġintellect ual
Ġsur v
produ ktion
ĠmÃ¶ gliche
Ġgegen satz
Ġide ale
Ġbon us
lin ed
Ġhier bei
heit s
inst it
Ġinter ior
Ġkar ten
Ġb ann
ies t
Ġpers pekt
on ien
Ġmet al
Ġsw itch
Ġcontem porary
Ġam az
Ġzu erst
Ġmar ine
Ġfert ig
iet ies
Ġexpans ion
Ġwiss ens
Ġdiv ision
Ġpr ize
komm t
Ġsp ot
k ult
Ġcaus es
Ġprot est
Ġumst Ã¤nden
d ro
m ill
Ġnun mehr
ĠÃ¤ g
Ġcon gress
Ġge eig
r est
Ġhead s
Ġbis lang
Ġver sehen
ategor ie
con s
ĠverstÃ¤r ken
1 00
or ten
Ġh ans
Ġst yl
Ġmitglied s
Ġgen aus
Ġvertr Ã¤ge
ic ious
ĠpersÃ¶n liche
Ġauf treten
Ġer mut
ĠÃ¶ff nen
or te
Ġfin land
org ungs
le vel
Ġle gt
Ġliberal isation
ster ne
Ġno ise
Ġth om
Ġacquis ition
Ġask ing
mit tag
Ġattack s
Ġdis able
Ġeinwander ung
d ok
ĠÃ¶ffent lich
Ġkonkre ten
Ġher gestellt
program ms
Ġein erseits
mÃ¤ÃŁ igen
sch er
ok raten
Ġ6 00
Ġwichtig es
Ġunan im
Ġgl ad
c or
m aterial
ĠmÃ¤n ner
jÃ¤hr ige
Ġlead s
Ġs ap
Ġalt stadt
Ġconst ant
Ġand re
Ġpoin ted
Ġverf assungs
Ġan hand
Ġunterst Ã¼tze
Ġbot schaft
Ġre lie
Ġinv ited
ass ungen
rel ated
Ġre den
iot he
yste ms
Ġcor ner
stra ÃŁe
Ġconsequ ently
Ġslo ven
Ġgenehm igung
Ġver mÃ¶gen
sch iff
Ġreferend um
Ġgegen teil
Ġ ig
Ġsp r
gend es
Ġgr unde
Ġa st
Ġdep ending
ĠgeÃ¶ff net
Ġswed ish
Ġarbeitspl atz
wer ten
Ġglobal isation
Ġorder s
Ġsud an
me ister
Ġgr atul
ĠgeschÃ¤fts ordnung
Ġeinheit lichen
Ġport fol
Ġfl at
ĠgrÃ¼ nen
Ġn i
Ġad resse
Ġslow en
Ġcomple ment
ibl iothe
k rat
ign ed
bu ild
t ten
Ġbereit stellung
Ġjo hann
Ġverz Ã¶
Ġbe ig
Ġz er
Ġarbeitspl Ã¤tzen
Ġb atter
Ġl ord
Ġvers ions
Ġentscheiden d
Ġgel ungen
amer ika
Ġbe wegen
Ġge fÃ¼hl
gra d
Ġverst o
Ġseit ens
Ġstad tzentr
Ġto ba
ĠerÃ¶ff net
Ġ6 5
Ġclub s
Ġtr ied
Ġmin er
Ġupd ates
Ġfa vor
Ġin g
Ġsh ift
el a
Ġinter view
sch m
Ġw are
pro jekt
ĠbevÃ¶l ker
Ġmetho de
Ġdig it
Ġsp richt
Ġangemessen e
Ġfr ist
Ġb Ã¶r
Ġlandwir te
Ġwe ist
ĠabhÃ¤ng ig
Ġn ine
ak ten
Ġlands cape
Ġun its
Ġkop f
k la
et o
Ã¤nd ler
zus ammen
Ġupd ated
Ġberat ung
Ġstock s
k rit
abl ing
Ġgenaus o
Ġenerg ies
ĠstÃ¤nd igen
Ġbl ut
ĠauÃŁer ord
Ġwh e
Ġpol ish
Ġpass word
cent er
Ġpf licht
Ġtack le
g ely
Ġher kunft
Ġbe ll
Ġtradition ellen
Ã¤r m
Ġrecommend ed
Ġp ick
Ġv it
Ġun to
Ġelekt r
Ġenerg ien
Ġtrans atlant
Ġvielf Ã¤lt
in vest
tr itt
Ġconst antly
Ġbestimm ter
Ġvol ume
Ġhonour able
Ġwieder um
Ġges te
ik te
Ġdeta ill
Ġab fall
Ġvorschl Ã¤gen
Ġperfect ly
Ġconf igur
Ġph arm
Ġat tend
Ġblo od
Ġzus atz
Ġexam ine
Ġgra d
Ġruss ischen
Ġver an
Ġpartn ern
u c
a ktion
pl ace
Ġexpect ations
Ġthe ater
Ġmon ten
Ġbal kan
Ġveranst altungen
Ġde termine
Ġdr ug
Ġfind ing
Ġwire less
Ġsol ange
Ġab road
Ġaut ob
Ġbeg lÃ¼ck
effiz ienz
fÃ¼ gt
Ġre ject
Ġcamp ing
Ġprovider s
Ġw it
]] ,
Ġtoba cco
Ġrepr Ã¤sent
Ġtre ib
Ġh art
Ġcap able
Ġzerst Ã¶r
ip ul
Ġviel er
Ġe b
........ ........
zahl t
Ġwunder schÃ¶
Ġd isch
geb iete
Ġbal con
ent wurf
c ertain
Ġsett lement
ĠbeglÃ¼ck wÃ¼n
Ġbetr Ã¤gt
Ġsh ares
Ġbed ien
Ġgleich er
Ġrequire ment
Ġer inner
Ġinterpret ation
meld ung
Ġcont ents
ĠfÃ¼hr enden
lie ben
Ġauf rech
Ġther ap
Ġle is
tr ib
ĠerklÃ¤r ungen
Ġentwicklungs lÃ¤nder
Ġtex ts
m es
tr ans
Ġf and
c ap
Ġwel fare
bere cht
Ġdiskuss ionen
Ġc ath
Ġeinge gangen
Ġbra zil
h el
re isen
Ġho f
Ġfahr zeug
p iel
z z
Ġincre ases
b art
Ġc in
Ġcompet ent
Ġwrit e
Ġra w
Ġvirt ual
Ġan schlieÃŁend
bereich en
ĠkohÃ¤s ion
ur b
ĠbeschÃ¤ft igt
Ġl an
Ġplan et
mitglie der
Ġvor zulegen
Ġt ap
Ġkomm er
Ġco al
Ġob jekt
schÃ¤tz ung
ent er
ru fen
Ġproje kten
Ġautomat ic
Ġagrar politik
Ã¼n den
Ġech o
Ġfa ced
Ġaccept able
Ġhand ling
Ġgesetz gebung
Ġan schluss
rÃ¼st ung
ĠgrÃ¼nd ung
ĠentschlieÃŁungsant rag
Ġchar ges
b ett
Ġre gen
Ġbew Ã¤hr
k ing
Ġk andidaten
ges undheit
g Ã¼nst
Ġer b
Ġgesch ieht
ĠgrundsÃ¤tz lich
2 3
Ġexisten ce
Ġvertrags verletz
Ġarchite ktur
Ġc up
Ġequ ally
e te
Ġlar gely
Ġrecon stru
Ġins pe
ĠsÃ¼ den
Ġprotect ing
Ġreal itÃ¤t
l iste
v i
Ġmun icip
id o
0 7
Ġhaupt stadt
ĠÃ¼bergang s
Ġw Ã¤hl
Ġkurz frist
ĠmÃ¤r kten
Ġd ivid
Ġanb ieter
tr an
Ġenter ed
ien d
Ġlat ein
Ġchair man
ce ll
Ġel tern
Ġappe ll
Ġschle cht
ange hÃ¶r
Ġbr idge
Ġdire kte
f ar
fu hren
Ġer leb
Ġharmon isierung
on ial
Ġap p
Ġanwend ungs
Ġcollect ive
Ġt ank
Ġdep uty
Ġcompl ain
Ġgrundlegen den
Ġme ist
Ġre iter
ger ufen
Ġauf zunehmen
Ġar zneimittel
ot ten
Ġbehand eln
Ġinvol ve
Ġsome one
Ġprocess ed
ĠfÃ¤h igkeiten
Ġv ast
Ġin put
ore t
Ġkeep ing
r t
Ġh ong
Ġlok ale
ĠverfÃ¼g barkeit
ail s
Ġright ly
Ġgarant ie
e ib
Ġsustain ability
sprÃ¼ che
Ġincl usion
ĠÃ¶ konom
. -
Ġs enden
Ġj ose
Ġap point
end ung
k ans
Ġs d
Ġr ank
ell os
Ġfar b
Ġbarr iers
200 3
Ġout door
2 9
pak et
st Ã¤nde
Ġwa iting
au g
Ġleis ure
Ġbahn hof
8 6
Ġne un
Ġmer ely
a ff
Ġth re
Ġdest ination
Ġmac ro
ĠnÃ¶t ig
Ġin hab
Ġmark ed
Ġ198 0
Ġdis aster
Ġbeit rÃ¤ge
Ġlook s
Ġzentr alen
we gs
Ġrechts staat
Ġt ac
re chn
Ġm assen
weit e
Ġsinn voll
Ġto urs
Ġpol n
f ir
pl ant
re ffen
lie fer
Ġnach zu
Ġol der
weis ung
Ġgall ery
Ġ1 000
Ġba um
m ak
sp olitischen
Ġveranst altung
num mer
k urs
ik ationen
in ations
Ġ1 20
Ġt enden
au ert
Ġpos s
ichte te
Ġverw and
Ġbestehen de
Ġeinver standen
scha ffen
Ġimpos ed
Ġverwirk lichung
Ġbe le
Ġd inner
ĠauÃŁer gewÃ¶hn
Ġmang el
Ġbe weis
ak s
Ġan statt
Ġverb ot
Ġr ul
ah nen
Ġdef ault
Ġmys ql
Ġkon figur
200 2
Ġpap ier
Ġmo dule
Ġobtain ed
u h
Ġn os
Ġsp ann
Ġgew Ã¤hlt
p ay
Ġmodern isierung
m t
Ġfocus ed
Ġexperien ces
Ġange wand
Ġprem ium
Ġschem es
Ġexch ang
Ġgram mat
Ġso d
Ġexcess ive
Ġ9 5
Ġadvant ages
Ġsex ual
Ġbesch rieben
Ġnew spap
Ġkulture lle
Ġb attle
Ġab ol
Ġgr enze
Ġpoten zial
Ġfl u
Ġt rop
Ġtr uth
Ġsch e
Ġdubl in
Ġre mote
sch ule
Ġsh ape
Ġfight ing
Ġdivers e
Ġexpens ive
Ġzust and
Ġh ence
Ġsp iele
Ġverbreit ung
Ġer de
ab we
ges tellten
Ġrot ary
Ġj os
Ġspa ces
Ġfurn ished
4 7
Ġde alt
Ġpolit isch
Ġme at
Ġadmin istrat
best immungen
Ġeinge leitet
Ġpr Ã¤s
Ġrapid ly
Ġkomb ination
Ġey e
Ġge fahren
Ġange ht
Ġstruktur en
Ġpassen ger
Ġdest ru
in os
Ġwes halb
Ġdi am
Ġlie fern
ĠerhÃ¤lt lich
Ġange p
abl en
kap az
Ġse g
tr y
Ġbeg ann
Ġsurve y
Ġkontro llen
Ġz in
Ã¤ss er
Ġindic ated
Ġf eld
Ġso w
Ġdurch zufÃ¼hren
Ġrec ip
Ġpro sper
is o
Ġst imm
for d
Ġtele commun
Ġdok umente
Ġspezif ischen
Ġf ift
Ġbeschl Ã¼sse
Ġrepe ated
ĠgewÃ¼n sch
Ġconstru ctive
Ġverl ieren
Ġkrank heiten
Ġf ans
Ġin fo
Ġo m
Ġstrateg ischen
Ġins eln
p m
Ġbe fr
Ġtre ated
Ġl atter
Ġmem o
u ens
Ġsh utt
Ġoff ices
Ġexception al
k as
zw ungen
Ġerr or
Ġgew isse
Ġmein ungs
Ġir re
b od
be handlung
Ġsk in
Ġvorschlag s
Ġeg ypt
m aschinen
ĠÃ¼ber zeugen
Ġgrundlegen de
Ġde ploy
gen den
Ġorganiz ations
Ġmanag ing
Ġo x
Ġport al
Ġbalt ic
Ġde iner
Ġt ibet
Ġfa ktoren
Ġresol ve
ab kommens
Ġdiskut iert
Ġb at
Ġ3 3
p fe
Ġs mo
Ġk ill
ran ge
Ġrecht lichen
Ġfil ms
Ġsch Ã¤den
Ġmit ge
Ġplan ung
Ġmill enn
Ġamer ika
Ġenhan ced
Ġvulner able
he ber
Ġlist ings
Ġencour aging
Ġprinc ip
Ġtreat ies
Ġtour isten
Ġent s
Ġy ugosla
c ol
el ine
own ed
angeb ot
sp f
es co
Ġterror ist
Ġsch Ã¤d
Ġstr eng
ĠbeschrÃ¤n kt
Ġrecogn ise
Ġtrans it
Ġemer ging
Ġpleas ure
Ġra re
ĠnatÃ¼r lichen
Ġr ichten
Ġultim ately
Ġv in
Ġst ations
Ġbef Ã¶r
Ġs ight
Ġkl aren
Ġberat ungen
Ġhelp ed
g ip
Ġerwart ungen
is a
Ġvorgesehen en
Ġs age
Ġkoh Ã¤r
Ġhel ps
Ġconsult ing
Ġakzept iert
Ġerlau ben
ne ter
ie gel
Ġbeteil igen
Ġaudio vis
Ġmonten eg
Ġperson ally
em ark
spra chen
Ġein stellung
Ġmill ions
Ġal arm
Ġexpl an
Ġum geben
Ġverbraucher schutz
Ġfig ure
ĠfrÃ¼hstÃ¼ck s
Ġg ift
Ġzweif ellos
ĠergÃ¤n zen
on ic
Ġk as
Ġlith u
Ġtown s
Ġcan ada
Ġdist ort
Ġgespr Ã¤che
Ġtrans actions
Ġvalu able
re b
Ġcontact s
Ġbe zieht
Ġfr on
Ġkein es
k ul
Ġmuse ums
Ġintens ive
Ġeinschl Ã¤g
Ġakt ien
Ġfun ktions
Ġcolleag ue
Ġr ental
ver fol
Ġbr enn
Ġpanor am
Ġg i
Ġre ported
Ġur ge
re chten
Ġomb uds
as en
Ġa chten
Ġman che
Ġtraff icking
Ġ #
Ġl Ã¤uft
Ġg ather
par te
Ġhealth y
Ġcondu cted
n l
u ese
Ġpolit icians
Ġk en
ĠkÃ¼ sten
Ġkommun ikations
Ġfreiz eit
Ġb uchen
Ġaus gleich
ie fer
Ġaid s
Ġsch Ã¼
Ġvie t
bahn hof
Ġerl assen
men s
Ġhab it
Ġbet rag
leg ungen
Ġdiscuss ing
Ġch ief
ake te
Ġdis pl
te ch
vel y
Ġal co
Ġge zogen
Ġthor ough
Ġn iger
ver handlungen
Ġnew ly
Ġturn ed
k und
Ġstar ten
Ġbeisp iele
as ts
Ġp ush
Ġhe at
Ġsp ons
Ġnahe zu
( )
Ġhy p
Ġmaintain ed
Ġp ad
Ġwest lichen
Ġbir th
Ġgip f
h Ã¤ngen
te en
feren zen
ger Ã¤te
Ġbas iert
Ġvier tel
Ġjem and
Ġr iv
fÃ¼hr ungs
ed s
Ġbab y
Ġtab ak
Ġfl uss
Ġstar ts
Ġerschein en
Ġcook ies
Ġversch w
Ġschl uÃŁ
Ġc able
Ġstr onger
Ġhoch schul
ĠgewÃ¤hr leistung
ir ing
inform ationen
Ġmass age
ival ent
gesch Ã¤ft
Ġerweit ert
Ġdes kt
fl Ã¤chen
Ġmaintain ing
sm oking
Ġkind s
Ġnicht raucher
Ġjav a
Ġstr ing
Ġsuff ering
Ġges etze
Ġex ists
Ġmik ro
Ġrun s
sprozess es
Ġzusammenarbeit en
it ts
Ġl ose
Ġp pe
Ġstra ight
Ġangeb ote
Ġinter institution
ver ordnung
Ġpan el
6 4
w ater
mÃ¤ÃŁ ige
h u
Ġsubsid ies
cl ass
]] .
lich em
Ġges pe
Ġkon front
Ġst one
Ġgew issen
Ġde ck
Ġnoch mals
Ġbew ahr
haus halt
g ut
hol m
Ġobject s
h et
er geb
Ġklima anlage
Ġsuppl iers
Ġpack aging
Ġele gan
act ory
Ġpat tern
gemein schaft
olog ien
Ġdrit tens
Ġent lang
Ġdef ine
p g
io de
Ġwashing ton
Ġum gang
krie g
Ġm essen
Ġden mark
Ġge p
Ġvor zu
Ġge wer
Ġcl oth
Ġerl Ã¤uter
Ġut il
Ġkontinu ier
Ġp ip
wend ungen
Ġin tend
ell ing
Ġar me
Ġschwier igen
Ġportug uese
Ġvorgeschlagen e
Ġelektron ischen
it als
Ġlo ck
Ġrechnungs hof
h i
Ġneues ten
Ġreg ret
lÃ¶s ungen
Ġaus reichen
Ġregular ly
Ġferien wohn
Ġf elt
Ġcor ruption
Ġdisable d
Ġa ve
at iver
ĠeuropÃ¤ isches
Ġfra ktionen
Ġattem p
Ġsupple ment
Ġvolunt ary
th eit
Ġproc ure
Ġdraw ing
Ġak p
Ġsch ule
Ġform ular
Ġdeleg ations
Ġbes ides
Ġsup pos
Ġbar n
instr ument
ir s
Ġgew icht
Ġue ber
Ġgemein schaften
us te
Ġto chter
Ġleav ing
Ġmo ved
Ġheut ige
ss ystem
lÃ¤ss lich
Ġfinn land
Ġc ategories
Ġgest altung
Ġfen ster
Ġresour ce
Ġge legt
Ġur lau
Ġan mer
m acht
Ġca f
Ġst Ã¼ck
sib ly
Ġo ce
Ġverl angt
Ġcert ific
Ġir gende
Ġnam ed
Ġthre aten
v on
wa ffen
Ġprof ile
w es
Ġe is
Ġz o
Ġchar ming
Ġlt d
Ã¼nd ung
Ġexpl ore
ĠfrÃ¼her en
Ġdec re
Ġstand ort
Ġzust immen
Ġur heber
200 8
Ġdec is
Ġr ing
isch ung
Ġta i
Ġoppos ite
Ġz immern
ĠursprÃ¼n glich
Ġerhol ung
Ġaus gel
Ġmon opol
r ates
Ġh alt
Ġer le
Ġwa it
ens wert
Ġmet all
Ġfurn iture
Ġm all
Ġchan cen
Ġenth us
Ġgemeinschaft lichen
Ġwes ten
Ġaus gesetzt
geb racht
Ġwirks ame
Ġmil ch
jahr es
Ġarm y
Ġcommission ers
Ġerinn ert
Ġaudit ors
ll es
Ġdurch fÃ¼hren
teil ungen
l og
Ġundertak en
us al
Ġcomp uters
Ġspeak ers
Ġjud gment
Ġge ziel
Ġhe iz
Ġther mal
it ze
Ġget r
Ġsil ver
Ġges ellschaften
Ġmun ich
g Ã¤nge
z ipl
Ġap pointed
Ġp od
Ġstud enten
komm ission
Ġco pen
Ġpurs ue
Ġon to
Ġbek Ã¤mpfen
Ġb out
Ġmar ina
Ġcollab oration
n iveau
Ġre act
Ġj er
Ġverk nÃ¼
Ġstadtzentr um
Ġder art
Ġfeel ing
Ġob ama
sprogram me
Ġcopen hagen
us ted
Ġdar k
Ġhistor ische
Ġl od
Ġnu kle
Ġuntersuch ungen
gen z
Ġweit gehend
Ġtats Ã¤ch
Ġconstit ute
Ġaus geschlossen
we chsel
Ġdr ivers
Ġw i
Ġg Ã¼ter
Ġstar s
ĠverÃ¶ffent lichung
Ġk ne
Ġletzt lich
ur ies
fÃ¼hr te
zentr en
Ġdut ies
Ġmittl eren
Ġp ia
Ġanges ehen
Ġant on
Ġwom ens
Ġdep ends
ĠhÃ¶ch sten
Ġjapan ese
ag ue
an cy
Ġgew onnen
Ġsug ar
Ġbege g
Ġverbind ungen
Ġyo ure
Ġkons ens
Ġv ene
Ġmil k
y an
reg ierung
ord an
afr ika
Ġd ans
Ġh en
ge geben
Ġprogram men
Ġverschieden er
Ġimm igr
Ġkatastrop hen
Ġwe ather
Ġl ap
ll ers
Ġbet on
iff er
Ġbek annten
Ġgarden s
con tro
fre ie
Ġsyn th
Ġun o
Ġdialog s
Ġschn elle
n ot
hr t
i for
Ġg am
Ġbet reiber
Ġexclus ively
ft a
Ġne in
ĠhÃ¶her en
Ġimm un
Ġeffe kt
Ġprepar ing
ze llen
Ġto ile
qu ote
wo od
Ġt ail
Ġgal ile
Ġsuppl ies
Ġz Ã¤hlt
Ġsol ve
Ġaus ged
Ġconfl icts
Ġtransport ation
wind igkeit
Ġdep end
Ġwirtschafts wachstum
ĠgÃ¤ sten
mark et
Ġle on
Ġfal sch
Ġk ub
Ġpro ud
Ġeduc ational
ter ung
Ġattra ct
ĠbevÃ¶lker ungs
ier n
Ġausger ichtet
Ġbetrie ben
zie llen
Ġfant astic
vertre ter
Ġwissenschaft liche
Ġbedroom s
amer as
Ġ8 5
Ġk ra
sp akt
ĠĠ ĠĠ
Ġsav ings
Ġneighbour hood
Ġmensch lichen
k ter
Ġg ang
Ġkonsult ation
Ġv ig
um m
Ġst unde
Ġbre ach
on al
Ġm ath
ier end
Ġpla za
Ġbal kans
Ġnotwend ige
Ġentscheiden de
ĠmÃ¼n chen
ra in
au d
hil f
Ġden k
Ġconver gence
Ġb urn
Ġin quir
Ġan hÃ¶r
Ġelektron ische
flÃ¼ ge
Ġentscheiden der
Ġeigen schaften
Ġbedeut en
Ġris ik
Ġactiv ely
Ġbege ister
Ġh t
Ġf aster
ot te
betrie b
Ġer as
Ġsicher gestellt
p hrase
Ġtrans mission
Ġwohl stand
Ġscha fft
ĠursprÃ¼n glichen
in ational
Ġsch loss
Ġprogramm ing
Ġberu ht
Ġfo ster
---- ----
Ġnot ified
Ġapply ing
Ġcover ing
Ġst ick
Ġbehav io
j u
ĠbÃ¼ro krat
sche fs
Ġdre am
Ġcre ates
fert igt
Ġsett ings
Ġhil ft
Ġma astr
co un
Ġfre unde
Ġfe e
Ġerst mals
Ġstre ets
Ġrelig i
Ġprocure ment
Ġauf nehmen
Ġa z
Ġan gest
Ġatt itude
Ġfestge legten
Ġun gefÃ¤hr
Ġverb rechen
Ġbinnenmarkt es
Ġer z
Ġgu ard
Ġre jected
Ġsuper ior
Ġschweiz er
Ġschul en
Ġt Ã¶
Ġumf eld
Ġk Ã¼r
or ien
date i
Ġcharacter istics
Ġpolize i
Ġget rÃ¤n
Ġpie ce
Ġbewe gung
Ġan onym
o hlen
ly ing
Ġentwick elten
an en
Ġver pack
Ġmonteneg ro
Ġvoll er
Ġger Ã¤te
Ġas p
sch uld
Ġaus ser
Ġk ategorie
Ġerfolg reiche
Ġtemper ature
Ã¤ss ig
Ġfran c
Ġdef end
Ġabge le
Ġjour ney
Ġwid ely
as i
pr inzip
Ġzahl ungen
Ġorganis iert
Ġtr ifft
Ġreserv es
Ġinteress ant
Ġup per
Ġresol utions
Ġverhand lungs
Ġsmo oth
Ġwirtschaft spolitik
Ġpolitik en
Ġs zen
Ġel ig
Ġstatt f
Ġunver zÃ¼glich
Ġan stieg
Ġsp ok
Ġair bus
Ġsh ips
Ġstake holders
ast ung
Ġprofess or
Ã¤r kt
fr iend
Ġv el
Ġver Ã¤ndern
ĠbemÃ¼ ht
Ġp hen
Ġk unde
Ġan nehmen
m ot
p olitischen
Ġprakt iken
Ġportfol io
kontro ll
Ġfrequ ently
f am
Ġem bar
Ġs und
Ġvess els
ĠverÃ¤nder t
Ġac p
Ġgef angen
Ġstoff e
Ġreve al
Ġfre ude
Ġjo ined
zÃ¼ g
Ġstr ugg
Ġship ping
ĠberÃ¼hm ten
verw altung
ra gt
ro ll
Ġab ziel
Ġro bert
Ġal umin
Ġdeb ates
l ife
Ġinvol ves
6 5
Ġverurs acht
Ġremov ed
d essen
Ġspezif ische
Ġsh ad
Ġlo vely
Ġcat alog
ver tr
Ġdar lehen
Ġcy cle
Ġkern el
Ġk ab
Ġme ister
Ġconsider ing
Ġkn ows
Ġges icht
Ġnach richten
Ġmarkt es
Ġverhalten s
Ġpro ve
Ġl ager
in der
fa ction
Ġacknow led
Ġtre es
Ġcontrol led
Ġparame ter
soft ware
Ġforth coming
Ġaccompan ied
Ġsky pe
wer ks
h ard
re ds
Ġbes itzen
Ġverl ust
Ġn ut
Ġsle ep
Ġautomob il
in tern
Ġc ad
zahl ungen
ĠÃ¼berein stimmung
Ġh Ã¤ngt
Ġbo at
Ġas ien
Ġmult inational
Ġdang er
Ġv ous
Ġstaats sekretÃ¤r
Ġpun kten
Ġvereinfach ung
gr enze
Ġobsta cles
Ġar ts
Ġrepl ace
Ġkons olid
ĠzustÃ¤nd igkeit
Ġmar ke
Ġlic ens
u ern
Ġpar ents
Ġadop ting
Ġauf sichts
Ġd ict
Ġvers and
Ġge orge
Ġcomp act
Ġsp az
Ġdiplom at
Ġbest immen
Ġsor gt
Ġans wers
Ġh em
ies sen
Ġbe ibe
iss es
Ġhe ll
Ġintell igent
Ġign or
Ġimpos e
Ġve ter
Ġabsen ce
Ġad j
Ġanw es
Ġcare er
zÃ¼ ge
Ġpremier minister
Ġre mark
Ġkur ze
Ġun certain
Ġsubsidiar ity
Ġchines ischen
Ġgeb oten
Ġversch Ã¤r
ĠkÃ¼ ste
Ġmess ages
Ġpres ents
Ġmon te
Ġdeskt op
in fr
ge ted
Ġuni form
Ġent t
Ġnach drÃ¼cklich
Ġb urg
mÃ¤r kten
Ġsh aring
Ġmaterial ien
Ġinhab it
Ġproduct ivity
- /
Ġst Ã¶r
Ġers ucht
ĠÃ¼berzeug ung
Ġben ch
Ġzie mlich
Ġaward ed
Ġstol z
Ġakt uell
Ġcontin ent
Ġl iv
Ġwor se
Ġperson nel
Ġprec ise
Ġp ensions
Ġport s
an ischen
Ġpre isen
scha ffung
Ġhier fÃ¼r
ĠflÃ¼chtl inge
Ġacc eler
Ġlo ans
Ġus d
ig sten
Ġge ehr
Ġeigen es
Ġbeseit igung
Ġrech tzeit
Ġwirk lichkeit
Ġportug ies
Ġextra ordin
Ġkol le
re form
Ġver ord
str Ã¶m
Ġanspruch s
Ġtar if
Ġdemonstr ate
Ġwe chs
Ġthe me
Ġbet racht
Ġserv es
ĠfÃ¼hr ungs
Ġtra ditions
Ġwirtschaft licher
ĠerfÃ¼ llung
Ġgen ere
Ġf ang
Ġcontr ast
Ġtar iff
Ġfern seh
Ġmusl im
ake i
Ġan schlieÃŁen
Ġz it
Ġverhin dert
Ġeinkauf s
Ġgesch rieben
Ġb iod
Ġtschech ischen
Ġd ishes
Ġzwe cke
Ġflo od
Ġalloc ated
Ġhervorragen de
ĠfÃ¼ hlen
Ġb reat
Ġp uert
if ies
Ġsozial er
Ġaus arbeitung
en kt
Ġch ef
ĠausfÃ¼hr ungen
Ġinteress iert
Ġgegen stand
Ġe chten
Ġdire kten
Ġausges prochen
Ġhund reds
Ġdisch arge
Ġstrateg ische
Ġ9 00
Ġapprec iate
Ġs la
Ã¼ d
Ġmus ste
ĠstÃ¤d ten
Ġoppos ed
Ġeinge halten
Ġlet t
Ġbenach teil
ik es
Ġnot ably
Ġreport ing
ec d
Ġan fragen
Ġsen ior
ĠfranzÃ¶s ische
Ġvor aussch
Ġend ors
c at
fun ktion
or al
Ġimpress ive
Ġkon vention
Ġun mÃ¶glich
Ġlangfrist ig
Ġst immt
Ġexper im
Ġey es
Ġget ragen
Ġfreedom s
ĠlÃ¤nd liche
Ġeinst imm
ĠbekrÃ¤ft igt
Ġein bezogen
Ġj es
Ġt Ã¤
Ġresol ved
os is
Ġap ple
Ġgleich gewicht
Ġcat ch
Ġde als
Ġwhere as
Ġemphas ise
Ġt ritt
Ã¤n en
Ã¼r en
Ġadjust ment
Ġschwar z
Ġim pression
Ġkop en
e e
Ġaus weit
Ġfle isch
Ġer hoben
Ġc lo
Ġer haltung
Ġein kommen
Ġamb iente
Ġmit ten
Ġconne ctions
Ġbud ap
Ġer satz
Ġsch Ã¤tz
Ġerst re
Ġhighl ights
Ġthom as
pl us
Ġchann els
200 5
Ġs Ã¤
Ġilleg alen
Ġnum mer
ang er
Ġausge zeichnete
Ġehemal ige
j unkt
Ġha ir
Ġres pected
kt ure
Ġl unch
Ġum ge
n g
Ġk u
Ġinstall ations
Ġnavig ation
g Ã¤
Ġnie mals
aussch uÃŁ
Ġal ko
Ġhapp ens
Ġvent ure
Ġa str
ch r
ach er
att ung
Ġminor ity
e ing
Ġenergie effizienz
r d
Ġf Ã¶der
Ġbre iten
Ġunf air
Ġcitiz en
Ġth r
Ġb m
Ġk Ã¤mpfen
fin ed
Ġver sp
Ġstre am
Ġfa ith
ol le
ĠdÃ¤n emark
Ġbeig etragen
Ġd ates
Ġunters ucht
ur d
Ġfl ights
Ġal ters
Ġhumanit Ã¤ren
ig end
st unden
Ġshutt le
Ġmot her
ub s
Ġfamil iar
Ġd rag
ed e
Ġnegot iating
qu ar
ch ron
Ġbe weg
Ġtechn iques
Ġgel Ã¶st
Ġbelg ian
Ġnight s
an cing
Ġbau ern
us ive
Ġex it
Ġverst Ã¶
Ġang st
Ġs is
Ġth ail
igh ten
Ġestim ated
ĠbestÃ¤t igen
Ġspe icher
Ġwar ning
Ġverein bart
Ġbrit ische
Ġcontain ing
Ġzugang s
Ġfoot ball
we ll
Ġverl ag
Ġso v
Ġbemer kungen
Ġcorrespon ding
d auer
Ġher zeg
Ġoption en
Ġle ichter
az z
Ġlab elling
Ġp ac
Ġprodu cing
setz ungs
Ġkol lege
Ġbureau c
le m
Ġgegebenen falls
Ġbehavio ur
zeich nis
kon s
Ġje gliche
Ġo laf
Ġfr id
Ġover come
Ġtar geted
Ġprofession als
ĠÃ¼bern immt
wh at
w ing
Ġb lau
Ġro s
ic ing
Ġarbeit geber
Ġakt ive
Ġmak ro
Ġordnungs gemÃ¤ÃŁ
Ġgalile o
Ġwahr heit
Ġethn ic
ĠrÃ¼ck kehr
syste men
Ġer a
Ġerfolg reichen
Ġvorhanden en
Ġm ol
besch l
Ġver leihen
Ġh iv
Ġso ph
Ġdecla red
Ġw ro
Ġk abel
Ġdefin iert
Ġd up
Ġgesetz es
ĠzurÃ¼ck zu
Ġpropert ies
Ġkil ometer
Ġkon ver
Ġaus maÃŁ
Ġwer bung
Ġat trib
Ġle id
ĠÃ¼ber setzung
Ġbott om
Ġra ums
Ġfact s
Ġtelecommun ications
f ang
ĠmÃ¤n nern
infr astru
Ġd ub
Ġsp ar
Ġrepe at
r s
Ġvor anz
Ġt ast
au ber
Ġin folge
k Ã¶
an aly
Ġverb oten
Ġeinheit liche
Ġinter governmental
Ġtop ic
Ġan halten
Ġreconstru ction
ĠfÃ¼hr er
Ġminer al
ul ich
Ġab schnitt
Ġmost ly
Ġprosper ity
Ġro utes
Ġniederl ande
Ġfed eration
Ġkrimin alitÃ¤t
Ġt s
Ġharmon isation
ver l
Ġein wohner
Ġeinfach en
8 5
o ul
Ġen abling
Ġcoordin ated
Ġers etzt
Ġdiscover ed
Ġdo ha
y th
Ġal ger
Ġill ustr
Ġj etz
Ġpart ial
Ġentreprene urs
ift ung
Ġeras mus
ic y
Ġacc ident
Ġgeb Ã¼hr
Ã¤u fe
Ġmult imed
Ġvertre tern
Ġverb ringen
Ġfunction al
Ġsuperv ision
Ġcut ting
ot ive
Ġcan cel
Ġinvest ieren
t ies
ĠergÃ¤n z
Ġsy ner
Ġdigital en
Ġse at
id em
z za
gere cht
h ungen
Ġmil es
Ġvor der
Ġho using
ip pe
Ġr i
Ġthat s
Ġspect ac
Ġvor an
je ction
Ġin j
Ġr io
Ġinv ite
Ġstud ent
sche iden
de f
k w
Ġbed auer
ichte ten
Ġclean ing
Ġde vo
Ġinten ds
Ġc s
Ġunz ure
herstell ung
a is
an forderungen
id den
Ġgeeig nete
Ġf ather
Ġzu gelassen
Ġintegr ierten
Ġdocument ation
Ġalco hol
Ġaus fÃ¼hrung
Ġlangfrist igen
k ette
Ġschiff e
Ġaus stattung
ein e
Ġpropos ing
vertrag s
am i
Ġch ron
h m
Ġris ing
ed ing
Ġart ik
Ġsong s
Ġmaastr icht
z ard
Ġaddress es
d iction
er ts
Ġb ord
Ġparticip ating
Ġver mitt
Ġger Ã¤t
Ġ7 00
ĠverfÃ¼g baren
w art
Ġs ending
Ġpro of
Ġcompon ent
Ġkooper ations
Ġd ining
Ġgn u
v in
Ġad m
Ġausgang spunkt
con ne
ĠprÃ¤sent iert
Ġunivers ities
verb rauch
Ġto m
ĠÃ¼berpr Ã¼ft
Ġtax i
t i
Ġun ent
Ġsign s
Ġviet nam
Ġdesign er
Ġregierungs konferenz
ief ert
Ġkap itel
de ck
Ġges chen
iz za
ud es
Ġverein igte
Ġbisher igen
Ġkommissions mitglied
Ġumstruktur ierung
Ġpublic ation
l Ã¤uf
Ġn one
Ġgest atten
Ġaccording ly
ĠergÃ¤n zt
Ġstrengthen ed
Ġor al
Ġlay out
Ġhaft ung
Ġrechtsstaat lichkeit
Ġver wend
Ġab sch
Ġbade zimmer
Ġinstitution ellen
Ġcritic ism
g io
Ġdr iver
Ġminister prÃ¤sident
Ġaus stellung
Ġdemonstr ated
ĠsorgfÃ¤lt ig
Ġcoup le
Ġv ary
Ġkon zep
pro f
Ġorgan ized
Ġab use
Ġch arta
Ġprov ed
Ġdoes nt
k ern
Ġk amen
Ġoper ator
Ġwit ness
ist ik
w id
and on
Ġreduz ierung
Ġein sch
Ġinstall iert
Ġproduz iert
Ġakte ure
Ġphen omen
Ġfe uer
ck et
Ġstress ed
Ġalko hol
Ġsens ib
Ġ4 2
Ġele v
Ġb ucht
Ġfol glich
Ġexclus ion
Ġfor tz
Ġh es
Ġg one
gr unde
ĠunabhÃ¤ng igen
lo oking
200 4
Ġentt Ã¤us
ra m
Ġbelie ves
fÃ¤h igen
ur m
Ġverur teilt
Ġan bel
Ġunter liegen
des ign
l ers
r iff
Ġcolle ge
Ġstock holm
geb ieten
spro ble
Ġperfe kt
Ġabgele hnt
o be
p el
Ġsp itzen
Ã¶r d
vor schlÃ¤ge
Ġsubsidiar itÃ¤t
Ġt sch
ĠschÃ¶n sten
Ġequ ivalent
Ġminor ities
Ġbe herr
Ġind ian
uch ten
Ġher bst
infrastru ktur
Ġkomp eten
Ġge Ã¤uÃŁ
Ġfest zulegen
Ġhy dro
Ġres istance
Ġvorsitz es
Ġjur is
Ġse ktors
aus gaben
Ġm Ã¼nd
Ġw art
Ġprov en
ĠÃ¶ st
Ġverk aufen
Ġbewer ber
Ġan lass
Ġausgezeichnet en
pro t
Ġkre uz
Ġdivid ed
Ġanbel angt
Ġer stellung
Ġdesign s
Ġshow ing
Ġse qu
ĠfrÃ¼h jahr
ĠverÃ¶ffent lich
Ġserb ia
Ġkon junkt
Ġnor way
Ġmex ico
Ġreturn ed
Ġsou ver
Ġbegrenz t
wirt schaften
tell te
Ġsuppl ier
Ġgeb aut
Ġprakt ische
vent ions
Ġprinzip ien
Ġto wer
Ġorgan ic
Ġ9 9
Ġfisch ler
Ġkompet enz
Ġget s
Ġexam ination
Ġplen ary
last ung
Ġgriech ischen
Ġin fe
Ġzu grunde
Ġrenov ated
Ġeben en
Ġgeneral dire
h our
ted ly
Ġens ures
we ile
Ġover view
Ġverw ende
Ġregierung schefs
stra fe
Ġeinfach er
Ġinhabit ants
Ġupgra de
Ġaus gabe
Ġlau tet
ĠgewÃ¤hr en
Ġcheck s
Ġregul ierungs
Ġput in
g i
st al
ol es
Ġbedro hung
Ġra b
Ġtop ics
Ġgent oo
Ġbrit ain
Ġfreiz Ã¼g
r Ã¼ck
Ġsatis faction
Ġwirksam keit
Ġhung arian
Ġhappen ing
Ã¤hl te
s itz
Ġb ike
Ġpart ly
Ġlo an
Ġconfigur ation
Ġal ph
Ġletz tend
Ġniederl anden
r ical
at uren
Ġbalcon y
er kennen
Ġaccount ing
Ġeu re
Ġvac ation
Ġreduz ieren
Ġqu art
Ġqu ellen
Ġfer r
Ġart ist
Ġcooper ate
Ġkont akte
ifiz ieren
Ġab bau
Ġpl Ã¤ne
Ġass et
Ġindivid uelle
Ġminister in
ĠÃ¼brigen s
a w
f ill
Ġs ul
Ġab gestimmt
Ġbesonder er
Ġbezahl en
Ġn Ã¶rd
Ġleg ally
ber ge
Ġdecl ine
Ġrel i
ard o
Ġ3 9
em it
Ġnachbar schaft
Ġprint ing
Ġwor ry
r ens
Ġre fr
t able
Ġrem ed
Ġact ing
Ġkur zen
Ġstand ing
Ġperform ed
Ġp ul
Ġbe ziehung
Ġruh igen
Ġmin ib
bur ger
Ġreach ing
wahl en
ct ors
form at
Ġgesch Ã¤fte
wir kung
Ġexpl icit
sto od
Ġperiod s
Ġw alls
ie bs
Ġre is
Ġent steht
Ġemission en
instr umente
Ġgest Ã¤rkt
Ġab andon
ĠfÃ¶r dert
astr onom
Ġhinzu fÃ¼gen
ut ragen
b ach
Ġtransp os
e le
Ġloc ations
Ġ6 4
Ġhindern isse
Ġ {{
Ġgaz a
Ġm iÃŁ
Ġkan ada
ot he
Ġ @
Ġpl ays
Ġb Ã¶
au x
rat s
k al
and al
ĠfÃ¼hr ende
Ġeigent um
Ġforder e
Ġbudap est
pf l
Ġg ate
Ġvis ible
m aschine
Ġm erg
w Ã¤hr
Ġaf tern
ĠÃ¶ffent licher
Ġwol f
m ans
ĠstÃ¤rk ere
c ommer
se ktors
fÃ¶r derung
w f
Ġjust ified
est r
Ġnachhalt igkeit
Ġsicher ung
Ġcandid ates
Ġtai wan
Ġh imm
Ġhostels club
Ġderzeit ige
sch irm
Ġexam ined
Ġnor wegen
Ġrece iving
Ġkompon enten
g te
Ġp se
Ġman ual
Ġsoc ieties
Ġro ot
Ġsim ult
6 7
Ġtradition elle
Ġet abl
Ġwel chem
Ġprevent ing
Ġcorrect ly
re tt
Ġe he
Ġgeb iets
Ġstehen den
Ġeinzig artige
Ġdefiz it
Ġinter nen
Ġbeob achten
Ġge plant
Ġberichterst at
Ġwiederauf bau
Ġmitglied schaft
Ġeg al
Ġv iv
Ġn gos
Ġindire ct
Ġkr Ã¤fte
ik um
Ġpenalt y
Ġrecy cling
Ġwand el
Ġcr imes
Ġdecor ated
Ġtermin al
Ġries igen
Ġgeplan ten
ges ted
Ġmor o
Ġdigit ale
ĠÃ¼ber blick
Ġins pect
Ġsome what
Ġfre it
utz er
Ġrecord ed
Ġw ines
6 8
ig ert
Ġ4 3
Ġslight ly
is men
kre is
ang el
Ġsurround ings
Ġge g
ikan ische
Ġmiss brauch
Ġow ner
Ġwo hnen
h Ã¤user
ĠstÃ¤d t
ĠÃ¤hn liche
ĠverzÃ¶ ger
_ _
Ġbestell ung
Ġte a
Ġcons c
Ġident itÃ¤t
Ġcarry ing
Ġgeb oren
Ġmed ik
Ġgest altet
Ġkor ruption
Ġfor ese
Ġdel ighted
Ġme ps
Ġh d
ran ten
Ġstru kture
Ġall i
Ġoper a
beauftrag ten
Ġcour age
Ġkrie gs
Ġdecis ive
Ġshow ed
Ġzw angs
lin k
finanz ierung
Ġvisit ing
Ġarr ive
Ġintrodu cing
Ġtr ips
Ġfarm ing
Ġzu cker
Ġange kÃ¼nd
Ġpar ks
Ġdisc ipl
Ġminister ium
Ġhervor heben
seit en
Ġc u
Ġkon gress
Ġfa c
rei ft
bl att
Ġgek enn
grenz ung
Ġconserv ation
Ġw lan
itt ing
Ġsee ing
Ġmus ical
reg ionen
Ġless ons
Ġsuppos ed
min uten
Ġslow akei
Ġp ier
on n
stell ungs
zipl in
Ġma zed
Ġcons ent
Ġtrans fers
Ġver schl
Ġindivid uell
Ġdistrib uted
Ġauftrag s
f angen
Ġa wa
ĠÃ¤uÃŁ ern
Ġthe oret
Ġlegit imate
Ġein ig
Ġfot ograf
Ġbr ight
chn itten
Ġdis cre
Ġst ammen
Ġfehl en
Ġprovin z
Ġdestru ction
je kten
Ġoffen e
Ġz Ã¶
Ġdist ingu
Ġausgest atte
Ġm cc
Ġrev ised
Ġcare ful
Ġevent ually
Ġsta ates
ĠgroÃŁ zÃ¼g
Ġtour ists
Ã¼t ung
Ġkonkre t
Ġstyl ish
ad vant
Ġrecht liche
Ġairport s
fun k
Ġsch atten
Ġreserv ations
date ien
Ġse he
Ġbek omm
Ġoblig ed
stre am
Ġo u
Ġun for
Ġwon ach
ay a
Ġgratul ieren
Ġch at
Ġaddress ing
Ġwar rant
Ġmr president
Ġbeg Ã¼nst
Ġenv is
Ġfahr zeuge
ill ance
Ġreg imes
Ġturn ing
ie ller
200 7
Ġfle et
Ġnormal erweise
Ġbeein druck
Ġelse where
Ġab gesch
Ġop ens
Ġsatisf ied
er ie
Ġkonzentr iert
Ġbiod ivers
Ġ4 7
Ġthird ly
Ġgro s
Ġpersonen bezogen
er ies
Ġherunter laden
Ġvers icherungs
de b
Ġdr inks
Ġ197 0
Ġcl in
Ġvertra uens
Ġge zwungen
Ġpl attform
Ġverk auft
Ġschn itt
Ġimper ial
ĠfreizÃ¼g igkeit
Ġsound s
ol i
ver treten
ĠÃ¼ber legungen
Ġunzure ich
Ġstra ÃŁ
Ġwider sp
ate ful
Ġroad s
Ġdrit tel
Ġdiesbe zÃ¼glich
Ġver arbeitung
Ġausge fÃ¼hrt
ur ity
Ġchamp ions
Ġinstall ieren
Ġtw enty
wh ile
ss en
ĠerwÃ¤ hn
Ġt ang
te am
Ġdurch setzung
Ġcre w
Ġbereit schaft
Ġanzu wenden
Ġb ru
Ġk ath
if i
Ġin e
Ġinteress ante
Ġdis advant
Ġspec ified
Ġor ch
ĠzurÃ¼ck zufÃ¼hren
res erv
Ġsum m
Ġfar be
Ġdemand ing
Ġbe halten
Ġlang sam
Ġregional er
sc ale
Ġdisplay ed
Ġverb inden
hÃ¶r en
wie gend
use hen
bu ffet
zusch lieÃŁen
Ġsemin ar
Ġsa ison
Ġconc ert
Ġmer ger
ste igen
Ġ4 4
Ġreplac ed
Ġf inger
Ġzusammen halt
Ġs atz
Ġv ort
Ġsov iet
Ġentscheid ungs
Ġkons erv
Ġsubst ance
Ã¤ÃŁ t
Ġaltern ativen
Ġer setzen
zusammen arbeit
kl ass
Ġrecord s
ĠeinschlÃ¤g igen
Ġombuds man
bed arf
we ge
Ġger inger
or ia
Ġbran chen
Ġmittler weile
on i
Ġatlant ic
Ġh u
Ġl ots
Ġbedeut ende
Ġear n
Ġn az
ĠÃ¤hn lich
Ġult ra
Ġs ir
Ġson y
Ġhar bour
Ġsloven ia
Ã¤ der
Ġmanufactur er
Ġg b
Ġeinzus etzen
5 5
Ġc ott
Ġbl u
Ġbetr ug
Ġorganis ieren
Ġpie ces
Ġsod ass
m achen
Ġst ored
Ġcom pe
Ġumfass end
Ġd os
Ġbet t
ĠgrenzÃ¼berschreit enden
Ġrechts grundlage
Ġan hang
Ġass ume
spr inzip
Ġisrael i
Ġlas er
Ġmagn ific
Ġwirtschaft lich
Ġvir us
ieg elt
Ġent rance
ass ers
Ġsy mp
Ġsurve illance
Ġorgan e
Ġprovin ce
Ġchap ter
p u
Ġc art
Ġr ue
Ġerreich ung
Ġprospect s
Ġave c
Ġpubl ish
un kten
Ġe ign
Ġsuperv isory
Ġw ies
Ġrel ative
Ġhel s
Ġsw ift
Ġangep asst
Ġact ors
fÃ¤h ige
Ġslovak ia
Ġbras ilien
Ġpos sibly
teil s
Ġabs or
Ġpro sec
Ġmo z
mit ten
Ġin klus
Ġsich ere
ĠÃ¤g yp
Ġgemein de
i op
as ions
lie b
rat ic
stell er
Ġsocial ist
Ġdisap pe
Ġalumin ium
Ġkonver genz
Ã¼ ckt
Ġbuch ung
Ġer richtung
Ġhinge gen
etz ten
wer ken
Ġdisp ute
Ġbroad cast
Ġhervorge hoben
Ġpro mo
9 3
f tet
Ġre h
Ġhand lungs
Ġliefer ung
Ġm b
Ġb ibliothe
ite te
Ġcan cer
Ġzug ute
bran che
ru h
as ters
Ġeinzig art
Ġ% .
Ġ0 1
c n
Ġl ists
Ġorigin ally
Ġton nen
Ġkonfront iert
Ġerh ielt
Ġaufrech ter
m ung
Ġ Ã¶rt
Ġl ern
Ġma ced
Ġinvest oren
Ġfinanz krise
Ġrepresent ation
ĠauÃŁen politik
Ġindic ators
ĠkohÃ¤sion spolitik
Ġger Ã¤um
Ġkontin ent
gew iesen
Ġmar ks
Ġverehr te
an w
Ġfin ished
Ġgegen d
Ġman if
gh ter
v ar
stand ard
Ġsn ack
Ġundertak ings
Ġko st
Ġcorpor ation
Ġle ts
Ġcontrib uted
Ġrelax ation
f isch
Ġamend ed
Ġhy gien
Ġcred ibility
k ore
Ġvorbereit et
ac in
Ġletztend lich
u ite
Ġv ater
Ġra c
Ġrad ical
Ġgraph ics
ag a
Ġprodu cer
Ġassoc iations
Ġcontinu ous
Ġeffiz iente
Ġp aint
Ġl or
il a
at i
Ġempf ohlen
Ġwe i
Ġdo g
Ġlie fert
Ġsure ly
uss e
Ġremain ed
Ġvoraussch au
st es
Ġal m
Ġdan ish
as te
co unter
ann ung
Ġsh ap
Ġbal kon
Ġdetermin ation
Ġcompar ison
Ġan bet
ain e
Ġvis ited
ĠschÃ¼ ler
ig are
cl os
Ġqu ad
ac ion
Ġameric as
Ġsozial dem
c od
j ud
Ġluft fahrt
Ġfor g
Ġquot as
Ġimmigr ants
kl asse
Ġerreich bar
Ġpercent age
Ġin kraft
Ġm ah
Ġgen annte
Ġtw itter
Ġumfang reiche
Ġgovern ing
Ġverd ient
Ġchild rens
199 9
Ġmit tag
Ġverst anden
is co
Ġz y
Ġson ne
rat ing
Ġgleich stellung
Ġangewand t
Ġt ort
ĠÃ¼ber ras
Ġind ik
ian a
Ġamerikan ische
build ing
Ġde in
Ġgeb Ã¼hren
ik i
ue ller
Ġf assung
Ġlo uis
Ã¤m pf
Ġcompetit ors
Ġoffiz iellen
us ions
Ġen ger
Ġbl ind
Ġgeograph ical
Ġind o
Ġmensch liche
fre ien
a fft
Ġvor stellung
Ġextraordin ary
Ġneighbour ing
Ġbes orgt
Ġpre l
Ġdel iber
kehr en
Ġfut ter
Ġloss es
Ġworksh ops
Ġlithu ania
st ock
l i
Ã¤nder ungen
Ġus ual
Ġo ught
Ġcoher ent
Ġautob ahn
friend ly
Ġo ecd
Ġsen ken
spe zif
Ġdus che
Ġkon g
Ġdec ade
Ġenthalten en
Ġfor ests
Ġste igerung
Ġsol ches
Ġinvest ition
Ġtim et
Ġlay er
Ġexc iting
Ġav en
im p
Ġvers orgung
Ġth ir
ver anst
Ġwoll ten
Ġcos y
j i
Ġred ner
Ġalex ander
Ġfift h
Ġfrid ay
be vÃ¶l
Ġaff il
Ġg astronom
Ġad ults
Ġsug gested
Ġconsider ably
Ġregard ed
Ġangemessen en
w Ã¤
Ġver ank
Ġunderg round
Ġpl enty
ink i
ĠunabhÃ¤ng ige
zer r
Ġle iter
up s
Ġschlaf zimmer
Ġd oss
Ġgener ated
Ġy e
Ġc av
Ġfehl t
Ġste igern
Ġcon cep
Ġvor stellen
pro jekte
Ġmovement s
Ġmagaz ine
4 1
Ġserv iert
Ġoce an
Ġbeabsicht igt
ier a
inst all
Ġnational s
Ġsatell iten
Ġab gesehen
Ġverl Ã¤nger
Ġsubject s
ĠbeglÃ¼ckwÃ¼n schen
Ġgr ateful
ĠkÃ¼ hl
Ġf if
Ġan kunft
at ures
Ġspe ichern
Ġsatisf actory
Ġbetre iben
weis ungen
it o
Ġbe hÃ¶rde
Ġco ckt
Ġle gend
Ġjohann es
Ġgemeins amer
Ġernst haft
n i
w in
Ġpay ing
Ġprag ue
Ġge we
Ġinter oper
Ġbosn ien
Ġkos tet
s etzt
Ġsen kung
Ġdeleg ationen
Ġreflect s
ĠgenÃ¼ gend
h op
k ir
Ġgre m
Ġbeschl uÃŁ
Ġcan on
Ġspectac ular
ĠratsprÃ¤sident schaft
Ġsalz burg
ie tet
Ġfe es
ser ver
ĠverstÃ¤r kte
um ul
Ġaus richtung
Ġreven ue
Ġgespe ichert
Ġfinan ced
o ub
Ġum satz
nor men
ew g
Ġau ge
ul en
Ġhe aring
Ġr ass
hip s
Ġab schaffung
con f
Ġviel es
Ġe zb
Ġunder stood
te in
Ġwe isen
Ġlog o
Ġincent ives
min ute
ĠbewÃ¤lt igen
Ġtheat re
Ġencour aged
us el
Ġregard less
Ġb ah
Ġkrank heit
g reifen
z onen
Ġan sehen
art ikel
reg ul
spe ed
k Ã¼
th and
ĠbeschÃ¤ft igen
Ġeingere icht
Ġrat s
Ġgekenn zeichnet
Ġl y
Ġwet ter
eth eless
Ġfreit ag
ro lle
Ġw c
fra gt
ĠÃ¤nderungsant rÃ¤gen
Ġa wards
or ie
Ġse gment
Ġnon etheless
Ġpass iert
Ġelekt ro
b ro
Ġum setzen
ĠgroÃŁ em
Ġserb ien
Ġaftern oon
Ġcon form
Ġspeak er
Ġht ml
ul f
Ġrat ing
Ġmen Ã¼
ĠÃ¤r m
Ġwer ke
Ġref ers
p ra
ah me
Ġindivid uellen
Ġmon tag
Ġrest ore
Ġscr ipt
Ġfrei heiten
Ġd j
Ġver mitteln
Ġgesp ielt
Ġvor ange
Ġplen um
Ġver teilung
Ġcas a
le iter
Ġag gress
Ġconstit utes
def iz
Ġdi kt
Ġa x
Ġp ir
mechan ismus
Ġre par
wirtschaft ung
Ġst ages
Ġsow jet
Ġed ge
b em
Ġdefinit ely
Ġal g
Ġverb le
Ġtaus ende
8 8
Ġpre ced
Ġsom al
Ġverbrauch ern
Ġv og
itu ation
r Ã¤umen
Ġin mitten
Ã¼ber ein
Ġerg ibt
ifor n
Ġsuggest ions
d h
Ġguid ance
u ous
Ġg ained
Ġgreat ly
Ġlux us
Ġvertr ieb
Ġdon ner
Ġvertragsverletz ungsverfahren
Ġdep endent
Ġinternational ly
bl ing
Ġshort ly
kap ital
ak en
bei hilfen
Ġbestimm ung
Ġeing el
Ġdifficult y
Ġverring ert
Ġd ign
Ġem otion
Ġb omb
Ġf oss
Ġconf idential
eu rop
Ġwiederhol t
Ġh an
Ġintegr iert
Ġspl it
Ġmov ie
b aus
us ch
aktiv itÃ¤ten
Ġkon zer
Ġgep Ã¤ck
Ġthe ory
ater ale
Ġc f
Ġse lling
Ġcla use
Ġsubsequ ent
re formen
Ġgener ate
Ġattach ed
ĠÃ¼ber leben
ĠkÃ¼ mm
Ġenjoy ed
Ġdirect ory
d orf
g Ã¤nger
Ġg ay
Ġschw ere
ĠpalÃ¤stinens ischen
Ġconcentr ation
Ġk amera
Ġweek end
Ġeigent ums
e ec
Ġn an
Ġgra v
Ġverteid igungs
pap ier
Ġg la
Ġser ie
Ġreduz iert
p c
im al
Ġsch mer
Ġberecht igt
Ġmar ok
Ġsu it
Ġjoint ly
ĠÃ¶ff nung
Ġbosn ia
Ġgrund lagen
Ġreason ed
Ġr enten
ess ions
Ġhor se
Ġc ater
Ġso ught
ins el
Ġscient ists
gip fel
st u
Ġtransition al
k Ã¶rper
hand elt
Ġmag net
Ġmazed onien
Ġhels inki
Ġhin weg
vor haben
Ġbelie bt
Ġmechanis men
4 2
Ġd ual
o tel
le ute
ĠmilitÃ¤r ischen
Ġj azz
ari at
v ille
Ġsub vention
Ġocc asions
Ġnar row
ct s
Ġgef allen
stÃ¤t igkeit
Ġf ont
Ġr Ã¶m
ut ical
Ġwebs eiten
Ġgest attet
Ġjen en
bevÃ¶l kerung
Ġberu hen
g y
Ġm ort
Ġfl ows
Ġfavour able
ĠvermÃ¶gen s
Ġad obe
ograph ic
weit en
Ġhom es
o ft
ĠÃ¼ber mittelt
Ġbenef ic
ĠgrÃ¼n buch
Ġal pen
Ġex cluded
ĠÃ¼ber sicht
c ision
n b
Ġlo hn
re publ
ver fahrens
Ġausge hen
Ġpass ion
Ġexpl os
Ġsogen annten
Ġvoc ational
em ble
d ies
Ġstabil itÃ¤ts
Ġrefle cted
recht lichen
Ġwom an
Ġtr ig
Ġoffen bar
Ġhaushalt splan
Ġc ul
rei ze
Ġautom otive
metho den
Ġth res
Ġor te
Ġb Ã¼nd
re al
u um
Ġkon st
Ġsole ly
Ġflug zeug
Ġmon it
Ġdid nt
verhÃ¤lt nis
Ġsc ann
Ġsch eit
Ġev olution
Ġvereinbar ten
Ġret ain
Ġerheb lichen
Ġanz ub
Ġv ic
Ġintegr ierte
Ġruh ig
ĠrÃ¼ck gang
or ca
Ġun w
Ġwir ken
Ġcut s
r unde
ĠvollstÃ¤nd igen
% )
Ġw Ã¤l
Ġmus sten
Ġ ll
ak a
Ġmitarbeit ern
Ġelig ible
it ra
Ġlin ken
Ġnorm ally
ve y
ur laub
Ġsimult ane
Ġaus bildungs
Ġaktiv ieren
ĠerÃ¶r tert
Ġar c
Ġmehr fach
Ġarr ived
Ġunter scheid
Ġb org
Ġgeorg ia
Ġdepart ure
Ġse vere
Ġcomple tion
Ġaus geb
Ġrahmen bedingungen
Ġfol gendes
Ġrep air
Ã¼n de
Ġsyn chron
Ġchemical s
or ate
Ġlandwirtschaft lichen
Ġp m
Ġun n
Ġalloc ation
ĠbeschrÃ¤n kungen
Ġoptim ale
Ġt ill
Ġreal istic
Ġumfassen der
Ġluxur ious
Ġrelie f
Ġevery day
dep th
Ġprel imin
Ġlast ing
Ġvolle m
ric ted
Ġimpl ications
Ġstatt dessen
k Ã¼nfte
Ġs v
al ing
Ġch ile
Ġcompan ys
Ġregul ierung
Ġkontakt ieren
Ġh et
ild et
Ġwerk zeug
Ġslowen ien
Ġspok en
ge ht
Ġstell vertreten
Ġtrave lling
ab et
Ġmach te
Ġkorre kt
ĠmÃ¤n gel
Ġmal er
Ġe at
ĠfuÃŁ ball
chr ist
Ġ4 9
Ġno vel
Ġsens ible
institution en
Ġkopen hagen
Ġgenere ll
Ġhand y
Ġform ed
Ġfinan ces
Ġrep ut
Ġcondition ing
Ġfeed back
Ġconcep ts
Ġdes ired
Ġafr ikanischen
Ġn ap
Ġempf angen
Ġrea ction
Ġver sprechen
Ġj ordan
Ġvor sicht
iz en
ace utical
Ġs ab
Ġfact ory
Ġho hem
Ġger ichtet
Ġlit auen
Ġexter nen
Ġpuert o
Ġmedic ines
Ġsat ur
Ġhighl ighted
Ġp av
Ġnach richt
Ġspaz ier
c op
Ġtra dem
iv als
Ġas ian
Ġfin ish
Ġtur b
ĠbeschrÃ¤n ken
Ġus s
Ġbran che
Ġerzeug t
Ġimag ine
Ġver lie
ĠuneingeschrÃ¤n kt
Ġra in
Ġser vers
eld et
Ġteach ers
Ġhochwert ige
w Ã¤hlen
ess e
Ġsch icken
Ġpat r
t op
er er
in tens
pr int
Ġinv ites
aut om
Ġwelcom ing
Ġge werk
b b
Ġsich eren
Ġverl auf
Ġnachbar n
Ġnom in
our s
Ġz Ã¼r
Ġgeb eten
por ters
Ġdistrib ut
Ġdis asters
Ġre ferenz
Ġauthor ised
Ġauswir ken
Ġpolitical ly
Ġmag ic
Ġinitial ly
Ġcent uries
zahl en
ĠauÃŁen minister
coun try
Ġunter scheiden
Ġhand le
Ġnet ze
Ġhund red
Ġpanor ama
Ġfa ktor
Ġthreat s
ach ing
Ġge he
Ġerr ichtet
Ġver teilt
ist ent
ffent lich
Ġherr scht
Ġwirtschafts krise
Ġ ]
Ġgener ations
Ġprelimin ary
ies s
ĠglaubwÃ¼rd igkeit
r un
Ġw Ã¤r
Ġsee ks
Ġergeb nissen
ĠwÃ¤hl er
Ġt ables
Ġtre as
Ġre zeption
Ġtelekommun ikations
ĠauÃŁerord entlich
Ġkonjunkt ur
c p
Ġper mitted
Ã¤h nen
agent ur
n isses
Ġschl ag
t im
Ġans ichten
Ġparame ters
ĠbewÃ¤lt igung
Ġkultur en
Ġde fe
Ġcon ciliation
i am
Ġarg uments
g b
us a
Ġbil ateralen
h ers
Ġcell s
Ġer teilt
d ar
Ġkle ines
Ġaut os
Ġprop ag
Ġaufent halts
Ġaus sprechen
m use
fle isch
ag on
ieren der
Ġwider spruch
Ġfern sehen
Ġadap ted
Ġquant it
Ġwel thand
Ġcomm od
Ġins o
Ġgradu ally
Ġphilosoph y
d el
Ġpl astic
Ġweek ly
Ġmagnific ent
we ist
Ġalong side
Ġspa ÃŁ
Ġz iffer
Ġteach ing
ĠwÃ¤hrungs union
Ġar ising
Ġra ising
Ġamb ition
Ġmultimed ia
Ġeinzel heiten
Ġkn app
Ġinso fern
Ġgeplan te
re in
Ġge arbeitet
Ġdown t
Ġsing ap
Ġmiss ing
Ġangegeben en
ĠernÃ¤hr ung
Ġd in
Ġvor lage
Ġch ic
Ġexpl or
Ġbefug nisse
w as
Ġluxur i
Ġein zufÃ¼hren
Ġinter v
Ġauthor isation
Ġstabil isation
Ġbuch st
Ġindic ate
Ġkommission sprÃ¤sident
Ġinformations gesellschaft
en k
Ġpro min
Ã¤hr t
arbeit ungs
Ġfest zustellen
Ġresearch ers
Ġvill ages
Ġsuffer ed
Ġthail and
Ġsymp ath
Ġpro l
grÃ¶ ÃŁ
a ÃŁt
Ġjen er
Ġcommunity s
Ġsteu erung
n ism
Ġth urs
ann ter
Ġinv ent
Ġart istic
Ġconf ig
Ġausgew Ã¤hlt
Ġausweit ung
Ġg elt
Ġver dien
Ġwahr ung
ot ic
Ġk ul
Ġmedic ine
h s
Ġsc ore
ĠnatÃ¼r liche
Ġwesent licher
ien ces
ub le
7 7
Ġzw Ã¶l
Ġall zu
iz ieren
wir kt
or gen
Ġverb indet
Ġsonn tag
Ġm w
Ġan nehm
la w
Ġentwicklungs hilfe
Ġcountrys ide
Ġperspekt ive
Ġmillenn ium
in ne
Ġminim al
Ġvo llen
Ġkonsequ enzen
Ġfem ale
Ġmunicip al
Ġme g
Ġb ow
Ġn it
ver schm
Ġar med
Ġwirks amen
Ġar bit
leich heit
Ġcap abilities
Ġpost s
Ġverletz ung
Ġj ames
ĠwÃ¼r d
Ġde lla
Ġfre unden
Ġwiederhol en
Ġing red
ĠmilitÃ¤r ische
Ġoffic er
le ger
Ġprag mat
4 3
iv a
Ġkon to
Ġmaced onia
or n
ck ing
Ġein stellungen
Ġaut umn
Ġru fen
Ġar ena
Ã¤r er
Ġleit ung
Ġeingesch rÃ¤n
Ġle ban
Ã¤us ern
Ġhon est
Ġpharm aceutical
Ġb our
Ġro ut
ach ter
Ġlie chten
Ġsund ay
et a
Ġumwelt freund
Ġbeseit igen
Ġdie d
Ġvor Ã¼ber
Ġass ure
Ġchar les
Ġvorge legten
Ġstu fe
Ġer heben
Ġemploy ers
Ġtax pay
Ġton nes
Ġkonkurr enz
Ġto ward
vier tel
Ġgir ls
Ġre z
Ġmand at
end ar
Ġgerichtshof s
Ġlook ed
em at
Ġschw eren
Ġthous and
Ġre chen
Ġeng age
gar ten
Ġverl Ã¤ng
Ġrechtzeit ig
Ġm ater
arbeit s
Ġbe ings
Ġzahl ung
Ġka ffee
Ġentwick elte
Ġerleb nis
Ġt ree
Ġre ib
mar quis
Ġaugen blick
Ġtschech ische
Ġvor gestellt
Ġgeb ill
Ġpresent ing
Ġec ological
m il
pe g
ff er
Ġattemp ts
Ġwohn ung
Ġexisten z
Ġkar l
str Ã¤ger
Ġinstru ctions
Ġ( {{
Ġdire cted
Ġcomb ine
Ġschwe llen
Ġconfirm ation
Ġpre t
Ġenvironment ally
ĠmaÃŁ geb
gel d
c m
Ġd ess
r ied
Ġvers ammlung
Ġexpl ained
Ġtele com
Ġnormal en
Ġcomplain ts
Ġident ification
Ġther es
Ġerr ors
re is
ge ord
Ġhas t
Ġqu elle
Ġir ischen
Ġerleich tert
c os
ver tra
Ġp fe
ph ase
Ġgel ingt
Ġregional politik
be teil
Ġbelie f
for ce
Ġun st
Ġbeant worten
1 60
Ġho ffentlich
Ġgerecht igkeit
Ġexplo itation
Ġbm w
Ġp ix
Ġres c
Ġord inary
Ġenable d
iel ten
ter min
invest itionen
Ġeinz ur
Ġgemeins ames
Ġrecht fert
Ġest onia
Ġeng ines
Ġkl asse
Ġeng aged
Ġflugh Ã¤fen
ip her
Ġtw in
Ġin ade
Ġdef ect
Ġinnov ationen
Ġbarn ier
Ġan tr
Ġdo ors
Ġtra cks
Ġ5 6
Ġlast ly
Ġm ira
Ġqu ote
Ġstra fre
ĠverÃ¤nder ung
u led
Ġgr ants
Ġrec ru
Ġange wendet
Ġapproach es
Ġbe er
ll i
Ġ4 6
Ã¼tz ung
Ġerzeug er
eff ect
Ġreh abil
Ġd ance
ib el
Ġinter im
Ġtrans national
Ġdol om
Ġweltweit e
Ġfirm ly
spf licht
Ġsicherheit spolitik
u v
Ġas ht
Ġspecial ist
Ġunver g
Ġs ier
end o
bl es
Ġitalien ische
d ict
Ġsect ions
Ġhealth care
Ġse ch
Ġhy per
Ġk lin
sch reiben
zahl ung
Ġkatastrop he
n immt
Ġro se
Ġwar s
Ġr ichtet
uff icient
m ach
s ite
Ġunter zeichnung
Ġprozess es
istr ib
r ichen
Ġevery body
Ġconcentr ate
Ġinklus ive
Ġc row
i qu
Ġall tag
Ġmechan ismus
Ġl ugg
Ġeing ang
ol f
Ġhol ds
Ġcam ps
Ġanbet racht
Ġant icip
Ġcolle cted
Ġinvestitions bank
uch s
ma de
Ġluft verkehrs
Ġaccur ate
b ut
Ġge fÃ¼
kr Ã¤ften
Ġen counter
Ġsa ving
Ġerst es
Ġamaz ing
en cies
Ġprogress ive
Ġger aten
Ġtext il
ĠÃ¼bertrag ung
m ap
Ġst utt
Ġnegot iation
3 00
p es
Ġe fta
kat astrop
Ġth y
Ġgesch Ã¤tz
Ġval en
br ingung
Ġeinges tellt
Ġv oy
Ġein fuhr
ers atz
Ġpl ural
Ġweiter entwicklung
Ġamend ing
Ġpark platz
Ġbesonder es
Ġkonfl ikte
Ġentschlossen heit
Ġauf gebaut
ho b
Ġmanag ers
Ġplay a
Ġaccept ance
Ġpartnership s
Ġchan c
Ġsp oke
wor ld
ĠweiÃŁ buch
uch er
Ġmen gen
Ġsc ene
Ġjugend lichen
ss on
Ġaustral ia
produ kten
Ġtransfer red
Ġsie d
ank e
Ġmay be
Ġprakt ischen
Ġc i
Ġsecur ities
bet rag
Ġunters uchen
Ġgeneration en
Ġmer k
ĠgrÃ¶ÃŁer es
Ġr uÃŁ
Ġpresident s
Ġfrei handels
Ġanw enden
Ġag ents
Ġchanc eng
Ġfolgen der
il led
Ġdel icious
Ġanz up
Ġbewer ten
v ors
Ġann ivers
Ġent lastung
Ġeinzig artigen
n ers
Ġleav es
Ġurlau bs
l ike
Ġgel angt
Ġsch auen
Ġbef asst
Ġsignific ance
Ġgleicher maÃŁen
Ġjetz igen
Ġn ull
us ter
Ġant ib
Ġster ne
Ġhead ing
Ġmanufact ure
Ġlib an
Ġunl ike
republ ik
Ġm ale
Ã¶ ss
ul pt
Ġ9 2
Ġkontroll ieren
Ġkompeten zen
ch ar
Ġs ammlung
Ġspe isen
Ġappe ared
Ġwissenschaft ler
Ġurs achen
Ġen ge
Ġqu ark
ac io
Ġc ot
Ġz ero
Ġbemer kung
Ġmang eln
Ġgros se
weil en
best Ã¤nde
Ġschein en
Ġst un
Ġsch lagen
Ġle v
Ġrul ing
Ġwahr en
Ġentsch Ã¤d
Ġbehaup ten
Ġprof its
Ġsuppl ied
Ġbiodivers ity
Ġnach mittag
ĠabhÃ¤ng igkeit
al on
fahr er
Ġgel der
Ġmur der
k ennt
mer k
Ġerziel ten
fil m
Ġinkraft treten
Ġliechten stein
Ġein heim
ĠmÃ¼s sten
Ġwar n
Ġgere gelt
j un
z io
or se
nism Ã¤ÃŁ
Ġo t
Ġr uf
Ġaus sehen
ĠÃ¼berwach en
Ġurg ently
Ġsituation en
Ġto x
etz te
Ġdokument en
Ġbeein fluss
Ġgene va
Ġchanceng leichheit
Ġol ive
Ġab ges
Ġbes icht
Ġsouver Ã¤n
id ad
Ġkon zip
Ġbeen den
Ġgreen house
Ġlugg age
Ġwor st
Ġak adem
Ġverabschied ung
Ġauf forderung
Ġsamm eln
Ġkomm e
Ġzusammen zu
Ã¤d t
Ġwind s
prot okoll
Ġlie ber
Ġerweit ern
Ġzur zeit
Ġun esco
Ġzie ht
Ġkor rig
gef unden
Ġviol ations
und ed
Ġfl Ã¤chen
Ġworksh op
Ġaus drÃ¼ck
Ġkil led
er ted
Ġk h
Ġr ide
ian ischen
kam pf
Ġanwes end
Ġstr as
Ġacc idents
Ġposition en
Ġrat ification
Ġverteid igen
ĠjÃ¤hr lichen
ĠgroÃŁ teil
Ġmod elle
Ġrea ff
n ight
Ġmem or
Ġp um
Ġextend ing
k au
Ġfest legen
Ġhospital ity
rom e
herstell er
Ġdee ply
Ġl Ã¤ÃŁt
fa ces
p ted
Ġmittel frist
Ġconv entions
Ġshad ow
ches ter
Ġprojekt s
Ġpubl ishing
Ġneg ativen
Ġeinzel staatlichen
Ġkontroll iert
Ġinspe ction
Ġcap tain
Ġromant ic
Ġunverg ess
Ġun g
Ġk Ã¤
Ġver geben
Ġer nen
Ġgepr Ã¤gt
Ġab lauf
Ġschritt weise
Ġauf s
Ġqu o
reich er
Ġexc urs
s our
Ġvolks wirtschaften
km ale
l ight
Ġb id
Ġz a
Ġprozess e
7 1
an i
Ġbeste llen
Ġorganis ierten
Ġessential ly
Ġprepar ations
hal le
Ġfahr t
Ġsubsequ ently
b c
Ġw ides
Ġerle bt
Ġcan cell
as er
ger Ã¤t
inn ers
Ġilleg ale
Ġnam ens
crib e
gehen de
Ġregistr ierung
Ġ1 30
Ġham as
Ġgespr Ã¤ch
t in
Ġwelt wirtschaft
zeich nungen
aut en
Ġi phone
Ġein kommens
im o
Ġabge geben
sparte i
Ġdestroy ed
Ġthurs day
Ġenter ing
Ġmehrwert steuer
mak ers
Ġkr ist
ĠzukÃ¼nft igen
an c
Ġf usion
Ġmoment an
at om
Ġvor nehmen
Ġlik ed
Ġlebensmittel sicherheit
Ġski ing
Ġcoast al
Ġcolour s
Ġincl usive
Ġund oub
gesch ichte
Ġislam ic
Ġeffizient er
Ġin ev
Ġintegr ate
ĠwunderschÃ¶ nen
Ġbefr ied
Ġb om
sp ace
Ġcomp uls
Ġmy th
Ġcult ures
Ġweak ness
kult ur
Ġarbeit nehmern
Ġhard ly
Ġkonz ern
Ġi wf
Ġanal og
Ġhervor ra
Ġcharac ters
ir l
Ġcr ises
burg h
t our
in cluding
ger man
wor ben
Ġmeet s
Ġh ub
Ġv acc
Ġmod ules
Ġ6 8
Ġkonz ert
Ġcompl icated
Ġreli ability
Ġasht on
Ġcy ber
Ġberuf lichen
Ġrecogn ized
Ġerw arte
ograph y
Ġwachsen den
Ġacadem y
ot y
Ġcon ferences
Ġbau en
Ġdiesbe zÃ¼
Ġmit entscheid
Ġso ul
ungs maÃŁnahmen
Ġunterst reichen
Ġcondem n
Ġwro te
it te
Ġp fer
Ġpo et
Ġapparte ment
ĠÃ¤gyp ten
Ġan meldung
Ġi cel
Ġtun is
Ġpet itions
Ġfest pl
ĠbedÃ¼rf nissen
Ġhop es
Ġtal ent
Ġhung er
Ġedit or
Ġsyr ien
ĠzukÃ¼nft ige
Ġdonner stag
Ġl ingu
Ġziel t
Ġstellung nahmen
ar ma
Ġdr es
spro du
Ġ22 9
bas is
ah e
Ġent f
Ġho hes
Ġinn eren
Ġtem por
Ġkil omet
Ġpill ar
c ity
Ġlat via
Ġminib ar
Ġco in
Ġsufficient ly
Ġmon day
Ġefficient ly
Ġequ ity
Ġ0 7
Ġan reize
ĠÃ¼berw inden
Ġpart ition
Ġstat ut
Ġs achen
Ġv ista
men ade
all eng
Ġins ist
Ġfound ations
Ġreinfor ce
Ġunfor get
Ġm ere
Ġdies el
op en
hol ds
Ġanonym ous
Ġverschle chter
Ġsur f
ĠgrenzÃ¼berschreit ende
Ġkapaz itÃ¤ten
pos ition
Ġdirect ors
Ġende av
Ġcontrib uting
Ġcert ification
viel f
Ġpl ast
Ġwhen ever
Ġpublic ations
Ġexec ution
Ġt anz
Ã¶ tz
Ġprincip al
Ġjahrzehn ten
Ġharm ful
s uch
Ġh ann
re ibt
ent h
Ġconsequ ence
Ġspl end
g art
Ġentscheiden den
Ġqualit ativ
Ġm t
Ġmit teilen
iz a
Ġrat ifizierung
Ġappropr iations
ic ul
if ikation
Ġun ne
st reit
Ġclass es
Ġstras bourg
Ġbe achtung
Ġunder lying
Ġzeit plan
Ġaffect ing
k ont
Ġar ise
Ġappro ve
Ġsie g
6 6
z ur
Ġfre ely
Ġfind ings
9 2
Ã¼ mer
Ġk ategorien
Ġlok al
Ġtran qu
Ġport o
Ġso il
Ġacqu ired
sph ase
Ġein nahmen
Ġerw Ã¤hnen
Ġerfre ut
Ġpost al
sk i
Ġkir k
l ist
Ġan sprechen
ein d
Ġtun es
Ġv ibr
fahr zeuge
Ã¤m pft
gÃ¤ ste
Ġanzub ieten
Ġes c
Ġgrant ing
Ġcath ed
Ġbe hoben
Ġhoch rang
ĠsÃ¼d lichen
w all
Ġt ieren
Ġinter med
Ġval le
Ġmod ul
ĠzwÃ¶l f
Ġbehinder ten
Ġco d
we bs
Ġlog istics
Ġemp ire
krit erien
u ck
Ġsp am
are l
Ġso f
Ġ( *
Ġown ed
Ġblo cks
Ġsier ra
Ġa rom
Ġan zeigen
Ġent fer
Ġsyr ia
tell ung
Ġtw ice
Ġ5 2
Ġvers orgungs
Ġprom pt
Ġwa ve
st il
ĠÃ¼ber schreit
Ġbeg leitet
Ġameric ans
Ġbetrie be
}} )
Ġbeiz utragen
Ġge pf
ĠgÃ¼nst ig
ĠÃ¼ber mitteln
Ġmittl ere
Ġt ested
Ġakt iven
Ġarab ischen
Ġbewer tet
Ġbekomm t
contro l
Ġs me
Ġz auber
Ġevery where
kehr t
Ġm und
sch icht
ak er
Ġres iden
Ġfr ucht
Ġtem pl
Ġurspr ungs
es a
Ġinform al
Ġanw ender
los igkeit
ĠgefÃ¤hr det
Ġinstit ut
struktur en
l Ã¤ufig
Ġwider stand
ĠhÃ¼ b
quis ite
Ġgipf elt
Ġannivers ary
Ġt end
rie b
Ġsecond ary
angeb ote
Ã¼rz t
Ġauss age
in ar
Ġdo ctor
Ġgew Ã¶hn
verb indung
and t
Ġres ulted
Ġreserv ed
Ġsovereign ty
Ġschw ach
Ġmittel alter
9 4
Ġher be
Ġunne cess
ĠÃ¼bern achtung
Ġew sa
Ġso hn
Ġmex iko
Ġtodes strafe
Ġtreib haus
Ġp ull
em en
Ġhinzu ge
Ġberlin er
an teil
Ġpass ag
Ġaus fuhr
Ġqual ifications
Ġabst immen
f an
an spruch
ro b
Ġbe un
Ġre marks
vers ammlung
Ġren owned
Ġjeden falls
rahmen s
m ern
el and
Ġrich ard
Ġoffiz ielle
kon zept
t est
Ġal ign
iz er
Ġstat ute
kontro llen
Ġn ative
m ine
an ne
Ġdead line
p olitische
v an
is k
Ġein b
ĠschÃ¶n heit
Ġerwer b
Ġcon vert
Ġpass wort
Ã¤d chen
Ġvertr itt
Ġsatisf y
Ġbeun ruh
o oms
Ġand ern
Ġend orse
Ġin land
Ġv ip
Ġmarkt wirtschaft
Ġneut ral
Ġh Ã¤uf
Ġins ufficient
Ġdr ast
Ġvorliegen de
Ġclar ify
Ġh ills
Ġdur ation
Ġalli anz
Ġgeh minuten
ere gel
bet reiber
Ġfreund lich
Ġdiplom atic
hl ung
Ġerforder liche
Ġimp ul
Ġmaxim al
Ġgegenseit igen
Ġkein em
Ġfisher men
Ġconsolid ation
Ġher um
Ġreal ise
all ing
Ġconvention al
Ġverkauf s
Ġtransform ation
tele fon
Ġenthus ias
r ent
wer fen
Ġle ague
Ġbedeut end
ĠanhÃ¶r ung
p read
Ġer sta
ine a
Ġvers ichern
net ze
Ġsched uled
Ġde cken
Ġmet rop
d at
o den
Ġdam ages
Ġexper iment
Ġstre t
Ġrepresent ing
Ġflo ors
Ġol iven
ĠendgÃ¼lt ige
Ġalp ine
Ġplan eten
Ġpal ette
7 8
be ing
acht ungs
Ġvar iable
Ġowners hip
Ġto urn
sen den
Ġcompos ition
Ġwides pread
Ġoffiz iell
k ol
ig s
Ġwirk ungs
Ġoper ates
ch ed
Ġ9 8
Ġreib ungs
Ġno k
Ġro ugh
Ġdifferen z
Ġappear ance
ist ischer
Ġbemer k
Ġdomin ant
Ġrob ust
ĠÃ¼ber arbeitung
Ġrel ates
Ġtimet able
t p
Ġdar gestellt
Ġgel ang
Ġneighbour s
wÃ¤r ts
Ġsimilar ly
Ġph Ã¤n
ĠstÃ¤rk sten
x x
Ġany where
Ġincorpor ated
mechan ismen
Ġhunder t
p ower
Ġcat al
Ġstrict ly
Ġk ampagne
ĠstÃ¤r ke
Ġsuggest s
Ġexchang es
Ġh ang
Ã¼hr t
Ġbedeut enden
Ġsie mens
Ġult imate
Ġhorizont al
Ġbeschleun igen
wick lung
gesch rieben
Ġp ace
Ġsch ott
Ġfre ight
Ġlehr er
Ġdign ity
Ġab schlieÃŁen
Ġbr un
Ġm Ã¤cht
Ġun il
Ġvis um
Ġverdien en
Ġundoub tedly
Ġkons um
es is
Ġenor me
Ġunn Ã¶t
Ġamen ities
Ġable hnung
Ġundert aking
Ġkommissions vorschlag
pers onen
Ġreput ation
f ield
Ġd g
Ġlater ooms
Ġsicht bar
Ġausl Ã¤ndische
Ġcon ce
Ġnach teil
rest aur
Ġfinanz ieren
Ġrat io
Ġpres erve
e ps
Ġbe arbeitung
ut reten
it is
Ġch alleng
ĠtÃ¼rk ischen
Ġunforget table
Ġb un
is c
Ġden jenigen
Ġge ograf
out h
Ġhead quar
Ġlok aler
Ġst raft
Ġec b
ĠerhÃ¶ h
Ġrecord ing
ĠprÃ¤sent ieren
Ġmos c
w ettbewer
Ġer zeugen
Ġsyste men
Ġ198 8
Ġgeorg ien
c f
Ġbe at
Ġre ly
ger ichts
Ġl ank
Ã¤t igkeit
Ġsa ved
Ġs r
ie hlt
Ġeuro stat
ĠgeÃ¤uÃŁ ert
com p
Ġlearn ed
Ġman uel
Ġzusammen schluss
Ġsuper b
ĠendgÃ¼lt igen
Ġpred ict
ĠverlÃ¤nger ung
g ue
w aren
iar ies
sprogram ms
re che
Ġpolit isches
Ġberuf liche
Ġgross en
e hmen
u ro
ik ten
Ġdoub ts
ger icht
Ġ9 6
Ġicel and
Ġprodu ces
auf nahme
Ġjournal isten
o is
ĠfrÃ¼ hen
ĠkÃ¼r ze
Ġro of
Ġbet ten
Ġbeste uerung
Ġgest iegen
Ġfocus es
Ġangen ehm
us etzen
Ġwer ten
Ġpo ols
Ġschw imm
Ġstud ios
Ġsonst ige
Ġauf zubauen
klÃ¤r t
spl Ã¤ne
bet ten
Ġintelligen ce
Ġp i
Ġsch ien
ap pro
Ġgeb urt
Ġbeur teilung
Ġmakro Ã¶konom
Ġindo or
qu er
ann ual
wissen schaft
ĠzÃ¼r ich
Ġschl imm
Ġ0 8
besch reibung
Ġerwer ben
Ġas ide
Ġob st
plan ung
ĠÃ¼berein kommens
ĠÃ¶k ologischen
Ġpret ty
r ia
get ragen
Ġbek annte
Ġchrist mas
Ġschwed ischen
zeit raum
Ġsatur day
Ġstatist iken
Ġelimin ate
Ġpia zza
Ġchar m
Ġnecess arily
Ġren der
Ġcivil ian
Ġerzeug ung
amer ikanischen
Ġeffe ktive
Ġbas k
Ġcult iv
Ġaspe kten
Ġapplic ant
bor n
Ġrest ricted
Ġers uchen
l or
sp olitische
Ġfocus ing
Ġgrunds Ã¤tzen
reit en
Ġelect rical
t ar
Ġ Ã¤lt
st ate
Ġrenew ed
greif ende
Ġadvent ure
a ction
Ġre ding
Ġstatist ical
Ġstattf indet
st Ã¤r
Ġev ol
ĠausÃ¼ ben
verschm utzung
Ġ3 50
Ġper mission
hol en
Ġli able
best and
Ġinter ne
Ġdar gelegt
Ġvermitt lungs
Ġarbit r
Ġl ending
Ġvor bei
br idge
ĠverÃ¶ffent lichen
r uss
Ġanz unehmen
Ġspect rum
ĠmÃ¼s ste
Ã¤ le
Ġindivid ually
Ġrefer ring
Ġfind s
d p
sp iele
Ġest land
Ġdre h
Ġvolk es
Ġinter ventions
Ġeconom ically
Ġfunction ality
Ġaccom pl
Ġverletz t
Ġpopul ations
est ra
ber ichterst
st ens
Ġbewusst sein
Ġnewspap ers
orien ted
ĠschlieÃŁ t
Ġkolleg in
ĠnÃ¼tz lich
Ġher ange
Ã¤r ten
Ġdemonstr ation
Ġcompe te
Ġh iking
pr iv
el ung
Ġwirtschafts raum
Ġrei hen
Ġmus ter
Ġfort gesetzt
Ġarrang ement
Ġin gen
lie derung
imm ers
ĠgegenwÃ¤rt ige
Ġarme e
r up
Ġincre d
ĠÃ¶sterreich ischen
Ġkompl iz
Ġcho ices
ĠzuverlÃ¤ss igkeit
ie val
Ġhaup tz
Ġcompuls ory
Ġim bal
Ġcathed ral
Ġdes erv
Ġ0 9
Ġdeter ior
Ġjuris diction
Ġim f
Ġbas el
Ġbevor zug
Ġvor zunehmen
Ġ4 1
Ġorgan ise
ĠspÃ¤t estens
Ġmanif est
a fe
Ġc raft
ĠbÃ¶r se
Ġfund ed
Ġelect oral
Ġwer be
usal em
Ġt aten
Ġerst klass
Ġisra els
Ġpat ten
Ġgesetz lichen
Ġperfe kte
Ġerw iesen
Ġausge geben
ĠerÃ¶r tern
Ġsel ben
Ã¤ss ern
Ġwechs eln
g in
Ġgr ass
Ġbro ader
Ġtreat ments
Ġangenommen en
Ġintegr ity
Ġinc ident
Ġterrit ories
Ġl akes
Ġunterbreit en
Ġerinner ung
Ġpro xim
Ġvar ied
Ġp ent
den s
sch au
ac ed
Ġfinn ish
Ġgesch windigkeit
Ġwilling ness
Ġemb ry
Ġover looking
Ġfair ly
ĠÃ¤lter en
ĠfrÃ¼hstÃ¼cks buffet
Ġsam ple
Ġaus flÃ¼ge
Ġverhand lung
Ġdi ox
ss ysteme
Ġsam stag
o ben
Ġth umb
or ous
je ktiv
Ġinnov ativen
Ġka iser
Ġargent in
Ġappoint ment
Ġh Ã¤user
Ġab ente
Ġsud den
Ġbe endet
Ġver weisen
Ġver zeichnen
pen se
Ġobserv ed
Ġvert ie
Ġein her
und s
Ġadd ing
Ġschne llen
Ġp v
Ġr id
Ġr ichter
ach ts
ĠÃ¼ber aus
Ġgew id
ĠkÃ¶nn t
Ġin her
Ġver mut
Ġpro gn
Ġar ray
ĠbefÃ¼r wor
Ġgemein den
Ã¶ ch
Ġgef Ã¤ng
Ġlett land
ne ws
ad ing
Ġout look
Ġb ien
Ġgen iessen
Ġsc ot
Ġbra chte
ut age
gra ben
Ġmot to
scha fter
Ġrec re
Ġph are
Ġput s
Ġvirt ually
c am
g reg
Ġle istet
Ġdynam ik
Ġstutt gart
ur z
Ã¤ ub
Ġdeb atten
Ġpresident ial
Ġet ik
Ġzweit er
Ġspan ische
Ġanzu zeigen
verbind ungen
c z
ahr t
utz utage
Ġcal m
Ġanzup assen
Ġen em
Ġrest ored
Ġtext ile
Ġbein halten
Ġentfer nen
Ġs ke
Ġst uff
ieg eln
Ġsau di
Ġleb end
Ġkre bs
Ġm aschine
Ġfil led
Ġmall orca
Ġunent gelt
Ġgar age
Ġbeeinfluss en
Ġg ard
Ġk Ã¶l
Ġus age
schl Ã¼sse
Ġ19 60
Ġpat ents
Ġausl Ã¤ndischen
Ġfas cin
Ġv ot
Ġver lei
Ġbes ucht
Ġhe utzutage
Ġform ats
Ġel ite
Ġbew uÃŁ
Ġsch ad
Ġher o
Ġoccur red
ĠgewÃ¼nsch ten
ber gen
Ġvor ab
Ġad ds
Ġtran se
Ġinner es
Ġst Ã¼tzen
Ġdar stellung
Ġwieder herstellung
Ġliber alen
Ġforts etzen
it ate
Ġbe ef
ic ted
ira ble
Ġorder ed
Ġherkunft s
Ġcert ified
Ġi z
Ġfre il
Ġut most
re bt
arbeit er
Ġsign ing
Ã¼h le
Ġep idem
Ġg ps
Ġsett le
Ġwithdra w
gehen den
Ġl ud
Ġaus grenzung
Ġkomfort able
Ġkorre ktur
Ġjose ph
g ast
as ien
Ġabend essen
Ġr unde
Ġbil anz
um es
m ont
Ġmo use
Ġ5 8
Ġtrig ger
Ġan h
fl ow
Ġjan e
o ire
Ġk ro
Ġsp er
Ġkosten lose
Ġsubsid iary
Ġberechn et
Ġeign et
Ġje w
Ġentsp annung
Ġlin ien
Ġx p
spiel en
Ġfrem d
Ġ ug
Ġbe aring
Ġ4 30
Ġsu iten
Ã¤ch er
Ġhervorragen den
ĠÃ¼ber lassen
Ġsa cr
Ġide ally
Ġauf zug
Ġexce llen
Ġhy br
r ale
Ġg vo
Ġr Ã¤um
Ġbran ch
Ġbetr ugs
n amen
Ġp y
Ġge fragt
Ġgegenseit ige
Ġkomple tte
ol ic
ĠkÃ¶n ne
ha fter
ator ium
fun ktionen
Ġsie b
Ġdank bar
l oc
n ame
Ġa y
ri age
Ġed in
Ġzeit ung
Ġgarant ien
Ġf uss
Ġconsider ations
Ġpac ific
a al
Ġs ri
Ġb ist
Ġun ity
Ġi con
Ġab schluÃŁ
Ġqu oten
Ġarbeits krÃ¤fte
Ġerneuer bare
Ġent r
Ġget re
Ġdan iel
ach te
sp ers
Ġz Ã¼
Ġfahr rad
Ġa ro
Ġme al
Ġma ur
Ġjournal ists
bÃ¼ ro
i ates
Ġf esten
ol er
Ġdevelop ers
Ġ201 6
Ġrele ases
Ġven ice
Ġha ar
be we
anz ig
Ġru ft
ec kt
Ġtourn ament
Ġinter active
Ġgenau e
Ġaufbau en
Ġlu ck
Ġgeeign eten
Ġko hlen
Ġangeb racht
regel ungen
Ġenhan cing
Ġcab in
Ġversion en
iedr ich
Ġreag iert
n ik
Ġv ine
ic on
Ġce iling
Ġsteuer zahl
Ġfa ces
Ġjun ior
Ġzul assen
wh ich
s hip
Ġ ie
rit ion
ian e
metho de
Ġphenomen on
an wendungen
Ġh idden
ra p
Ġempf iehlt
Ġarbeitslos en
Ġwei hn
Ġbe arbeiten
Ġad ri
Ġsim ul
Ġsym pt
es telle
kl ar
ows ki
Ġachievement s
iz z
Ġph arma
Ġadv is
ĠrÃ¼ck en
Ġkomp at
Ġtemper atur
Ġexist iert
Ġparl amente
cre en
Ġemploy ed
qu elle
io v
Ġbo y
Ġprom ise
Ġcommer ce
Ġstamm t
Ġfor st
Ġcontin ental
ĠjÃ¼ng ste
Ġcampaign s
Ġtie fe
Ġbeschwer den
id el
Ġco des
br es
Ġf ok
ko dex
mus ik
Ġchines ische
rÃ¼ ckt
Ġer halt
Ġunivers itÃ¤ten
Ġlib y
Ġaffect s
g ten
Ġgro wn
Ġcitizens hip
Ġgerecht fertigt
Ġlo y
Ġaktual isiert
Ġrh ein
ĠprÃ¤s enz
Ġn ick
sch te
Ġpl ate
Ġanaly t
d oll
ell es
Ġsozial es
bank en
Ġanw esen
Ġg ym
Ġle ip
qu et
Ġinstitution elle
Ġsc ar
Ġklass ischen
Ġb und
Ġl ived
Ġauf fordern
gangen en
kommissar in
Ġcertific ate
Ġauf hebung
Ġfortz usetzen
Ġvor bild
we if
Ġsm oking
rech er
) )
Ġfahr er
reib ungen
7 6
Ġcon version
Ġdass elbe
Ġgu ided
Ġhaupt bahnhof
Ġconsult ations
Ġbathroom s
Ġpro zeÃŁ
Ġtra ce
Ġind igen
Ġprom ised
Ġh Ã¤fen
Ġein fl
Ġein treten
Ġkir chen
nb sp
Ġger ingen
Ġr s
Ġdis ag
ĠbeschÃ¤ft igten
Ġbenutz ung
Ġspezial isiert
Ġpoln ischen
bar es
Ġgen auer
Ġs ights
Ġwir kt
Ġje glich
kre dit
Ġdoll ars
ifik ationen
Ġhin weise
Ġtechn ischer
Ġzun ahme
istic ated
ĠerÃ¶ff nen
Ġmix ed
Ġver markt
Ġzust ande
Ġdisco unt
Ġtim ely
Ġsimpl ification
Ġunz ul
Ġb uen
geb Ã¼hren
Ġnutz t
Ġan kÃ¼nd
ro ck
if ahr
Ġunder min
iss ance
Ġeigen er
Ġl ip
Ġlet ters
Ġinnen stadt
Ġempf Ã¤nger
le ts
Ġass ign
Ġoft mals
b org
Ġbed au
Ġdeutsch lands
Ġpanoram ic
Ġein tritt
Ġem bed
iet ung
ink el
Ġentde ckt
al us
eld orf
Ġb ond
Ġg ig
op es
aus chen
Ġpoor est
Ġcaus ing
Ġjac ques
Ã¤ gern
Ġform ally
g g
Ġex tr
Ġbeibe halten
Ġd c
Ġbeam ten
Ġhe kt
Ġlie ÃŁ
minister ium
Ġmedizin ische
st ers
Ġinn ere
dien sten
Ġbir ds
Ġbrief ly
Ġerfol ge
Ġvors ieht
Ġlas ten
Ġverpflich ten
Ġdisp utes
et ic
Ġfor ums
stre ben
Ġk Ã¤ufer
Ġk Ã¼nd
Ġevent uell
Ġpf lege
Ġair line
Ġkenn zeichnung
Ġsumm ary
j pg
Ġno body
Ġzusammen ge
Ġcommun icate
Ġzentral er
fahr ts
Ġend ed
Ġfall ing
r asch
Ġw age
Ġsign ature
ĠernÃ¤hr ungs
Ġlatein amerika
muse um
g al
Ġt us
Ġcomb ines
Ġl ig
Ġj oy
vers icherung
Ġfl Ã¤che
bes te
Ġsurpr ise
Ġminister ial
Ġprin ted
Ġcontain er
ĠfranzÃ¶s isch
sp rechend
Ġful fill
Ġsh ell
Ġad ult
Ġinade quate
au ff
Ġper ipher
Ġspecial ists
Ġans on
Ġvolks gesundheit
Ġasso z
ber s
Ġse ats
Ġpat ch
Ġcertain ty
Ġsoph isticated
Ġstun ning
Ġscheit ern
Ġbeg ins
Ġde i
iber al
Ġstrugg le
Ġh i
mÃ¶ gliche
Ġstay ing
Ġmuse en
Ġmittelmeer raum
em ed
form ular
lemen te
Ġniger ia
Ġstrafre cht
enn ess
Ġganz es
Ã¤ her
Ġhe ct
Ġfail s
wÃ¤ sche
Ġb ass
Ġ0 2
Ġaus be
spro zeÃŁ
Ġvertr iebs
Ġwochen ende
Ġle bt
Ġredu ctions
Ġdep th
ĠverstÃ¤r kung
Ġfas zin
Ġzerst Ã¶rt
Ġacknow ledge
b eln
alen der
Ġfischere ip
Ġvict ory
Ġun pre
Ġsch aus
Ġle ct
Ġnachhalt ig
Ġexem pl
Ġschre ck
Ġheiz ung
Ġmoro cco
Ġh ed
Ġn izza
Ġbr ill
Ġsubstantial ly
ir t
Ġzu gestimmt
Ġaus nahmen
ha i
Ġer worben
ov ina
Ġregul ated
ress ourcen
Ġproduz ieren
Ġserv ing
Ġdel ays
Ġbi om
st ab
Ġse es
Ġschwer wie
Ġanton io
Ġj ar
Ġauth ors
Ġplug in
Ġverhe ugen
Ġingred ients
Ġan k
Ġl Ã¤nge
Ġaus blick
Ġhaus halte
Ġundert ake
ĠangekÃ¼nd igt
y ll
Ġexplor er
Ġsch Ã¤tzen
Ġgr at
Ã¶r ter
Ġwhe el
lin ux
ĠdÃ¼r ften
Ġgott es
Ġstre cke
Ġklimawand els
Ġanson sten
Ġj ens
Ġ8 8
Ġlie b
Ġj am
Ġpl Ã¶tz
Ġkat alog
Ġremov al
Ġbeschwer de
Ġmult ipl
Ġschrift liche
Ġcontro vers
Ġquot a
. ).
Ġ {
Ġhe iÃŁen
ver halten
Ġev ident
Ġversch m
Ġmit zu
Ġsp here
Ġbinnenmarkt s
st one
ir y
Ġgr atis
Ġbed anken
h Ã¤ndler
ir k
Ġgel tend
Ġhygien e
ic ity
Ġpre jud
Ġt ruck
Ġf ib
Ġsuch t
Ġeconomic s
Ġverantwort lichen
Ġcover age
Ġmand atory
Ġkredit karte
sch we
de cken
Ġpos e
Ġfe wer
Ġstor ies
Ġphil ipp
u ay
Ġpro ph
Ġcommun ist
str asse
Ġan geschlossen
Ġsch icks
Ġjo ining
hab t
Ġnegot iated
Ġm c
Ġst opp
chn et
Ġmal ays
Ġautom ation
zug ang
voll stÃ¤nd
Ġstad ium
Ġbout ique
z ern
Ġs ql
Ġc ds
Ġtra ged
Ġvertre tung
Ġdup l
analy se
Ġin tr
Ġbed auern
s Ã¤tze
Ġste ad
Ġprodukt ivitÃ¤t
Ġso eben
Ġres ist
Ġstehen de
Ġschre ibt
Ġein seit
Ġp akete
Ġbesch lieÃŁen
Ġf assen
Ġpro z
bil anz
Ġparlamentar ischen
Ġhon or
Ġunmittel barer
Ġde ll
Ġsol ide
Ã¤u den
Ġiniti ated
stehen de
a o
Ġn erv
Ġch f
Ġwik itra
Ġgeg ner
Ġp az
la ut
Ġeur ora
Ġversuch e
Ġalban ia
Ġbegeg nen
Ġs ed
ip ped
Ġentwicklungs zusammenarbeit
Ġschwier ige
fo x
s b
or ted
iner y
Ġn ero
Ġdrit ter
Ġbetre uung
ument en
Ġflor enz
Ġversto ÃŁ
ĠÃ¤rm sten
ic its
Ġtra m
Ġann a
Ġeco fin
Ġm Ã¤dchen
Ã¼nd eten
Ġw ifi
Ġweak en
Ġhimm el
Ġan th
Ġwhere by
Ġvertra ges
Ġkat al
Ġunterst reicht
Ġsel ber
Ġstor es
Ġfant ast
g ie
Ġtem po
Ġniederl Ã¤ndischen
Ġg on
Ġsit zen
ĠtatsÃ¤ch lichen
Ġadv isory
Ġp ays
Ġan sprÃ¼che
Ġl ust
Ġprofession elle
Ġstor n
Ġzul assung
Ġkre is
Ġpictures que
Ġgeschle chter
Ġverm ieden
Ġyugosla v
Ġumwelt fragen
Ġinvestig ations
Ġcompos ed
Ġj ury
ow ina
etz ug
Ġw av
ĠmÃ¶ gen
Ġantib iot
Ġarbeit er
Ġwikitra vel
re ck
Ġtrave llers
Ġcity s
Ġvorauss ichtlich
s up
u ben
Ġrech nen
Ġh ind
Ġbereit et
Ġcal endar
Ġv n
st yle
ran kungen
Ġged acht
Ġn ro
ant o
Ġbes che
Ġsonst igen
antwort ung
Ġgesellschaft lichen
Ġbro ws
Ġcal c
Ġverwend eten
Ġe ase
Ġass urance
Ġbroad band
Ġall m
Ġshe et
ĠruÃŁ land
Ġm d
Ġgleich berecht
produ kt
Ġrecogn ize
Ġgewid met
p ot
Ġtaxpay ers
in ians
4 00
ĠÃ¼ber rasch
au ch
Ġereign is
ĠgrÃ¼ ne
Ġarch iv
sparte ien
Ġ ub
Ġv a
ish ment
Ġdr ess
Ġbro ken
Ġmodern isation
Ġsens or
sph Ã¤re
uch te
Ġdiagn ost
Ġw assers
st Ã¤d
im ension
Ġman chen
Ġdemon st
Ġes te
Ġrelationship s
Ġerstre ckt
ar th
Ġerneuer baren
one y
reg ular
Ġschwar zen
Ġem pt
Ġverord nungen
Ġm aps
Ġand alus
Ġro th
ĠkohÃ¤r enz
Ġes p
Ġ198 7
fÃ¤ llig
stÃ¤t ten
Ġruss ische
Ġdef icits
Ġsor ry
Ġsam s
5 6
Ġk art
Ġaus rÃ¼stung
Ġschaus piel
Ġan mel
Ġmed ieval
Ġcar l
Ġprof il
Ġgesam m
Ġmont i
Ġpartner schaften
ĠsÃ¼d afrika
Ġausreichen de
Ġder og
Ġstaats angehÃ¶r
ĠspÃ¤ter en
Ġexplan ation
Ġin wie
Ġim ported
Ġpurs ued
Ġisol ation
Ġclass ical
Ġj ag
utz en
Ġbe zeichnung
Ġgew Ã¤hlten
Ġexcellen ce
5 8
Ġen ds
Ġho b
Ġs alt
ter e
ir us
Ġvor stellungen
Ġur gency
Ġklein ere
Ġd iving
Ġme als
Ġrea der
beschl uss
ĠstraÃŁ burg
a ktionen
pr Ã¼fung
str Ã¶
Ġdarf ur
schl Ã¤gen
Ġenlar ged
Ġpurs u
Ġzuge hÃ¶r
Ġver zeichnis
gest altung
Ġpal acio
Ġverbesser te
Ġadvoc ate
l u
c ase
f eind
p rechen
le ister
Ġge op
Ġ5 1
Ġreturn s
verletz ungen
kur se
Ġschmer z
Ġspecial ized
Ġstatt gefunden
Ġarch ive
ut ung
Ġwar craft
Ġfr iedrich
Ġproduct ive
ol is
Ġsol o
Ġcho os
Ġindustrie llen
Ġdritt staaten
Ġtransatlant ic
commer ce
our se
kore a
al itÃ¤ten
Ġcol ors
Ġaddition ally
Ġobserv ation
Ġf ue
Ġab b
ast ro
Ġamerikan er
Ġan trÃ¤ge
Ġ% ,
Ġkonsequ ent
at ischen
ak zept
sto ÃŁ
Ġkla us
Ġun us
Ġn Ã¤h
Ġed el
ing ual
Ġor ange
Ġdire ktor
ungsver fahrens
Ġsol ana
Ġnot ification
Ġpark plÃ¤tze
ĠtÃ¤t igen
Ġbeein fl
Ġcon vers
Ġgebill igt
Ġkilomet res
Ġnach druck
Ġk arel
Ġmotor way
Ġverab schieden
Ġferienwohn ung
Ġung laub
Ġver schaffen
est yle
Ġbr ands
kapaz itÃ¤t
Ġw inning
Ġz Ã¼g
betrie be
ĠerÃ¶ff nung
Ġinsp ired
Ġm ental
Ġb icy
Ġbezahl t
in ely
ar n
Ġmist ake
Ġattra ktiv
Ġadministr ations
Ġprison ers
Ã¼ se
Ġsp aren
Ġforts etzung
ĠtÃ¤ glichen
Ġedin burgh
d re
Ġs ake
Ġe en
Ġtr in
Ġmach inery
bo den
Ġsucceed ed
Ġhinzuge fÃ¼gt
ific ial
Ġvorsitzen den
Ġpure ly
ot a
Ġmeasure ment
Ġb av
Ġm eld
Ġe hren
Ġunter drÃ¼ck
Ġbio techn
Ġfre ut
Ġverbreit et
Ġexem pt
Ġacadem ic
Ġm ine
Ġerk unden
Ġkennt nisse
Ġip od
Ġreich halt
Ġbedro ht
Ġfro h
Ġber gen
Ġkon vent
Ġniedr igen
Ġm aus
op ard
Ġmean while
Ġoption al
Ġunnecess ary
ber ichte
Ġpurch asing
be g
Ġbegr Ã¼ndung
be f
Ġdat um
Ġinquir y
a ÃŁ
er ten
Ġvor liegt
Ġpf lichten
gl Ã¼ck
Ġr Ã¤ume
Ġop enness
Ġbr id
Ġerweiter ten
Ġro ss
unt a
pp ing
Ġbel as
y e
Ġsp ite
Ġman ipul
Ġtra il
sta ates
Ġstre ben
Ġausge hend
Ġmw st
Ġwe ar
Ġcon front
Ġt amp
Ġke ys
ep ing
Ġfab r
v ard
Ġseit dem
ĠbÃ¼ cher
Ġnach weis
geb Ã¤ude
Ġdr iven
Ġerk annt
wohn ern
bewe gung
Ġk de
Ġ198 5
Ġveranst altungs
Ġvorder grund
ar fs
Ġab onn
ben utzer
program men
Ġoppos e
Ġun ab
Ġstress es
Ġscr ut
Ġangen eh
Ġapparte ments
ver teilung
ac o
Ġass igned
hotel s
Ġfrequ ent
ĠÃ¼berw acht
Ġmit hilfe
Ġjer usalem
Ġthres hold
ste il
Ġlog ic
Ġren a
Ġabwe ich
Ġsp itze
as a
Ġplan en
Ġlebens mitteln
Ġprom ises
r iere
Ġstabil isierungs
Ġf ass
Ġcent ers
Ġentfern ung
Ġan lÃ¤sslich
Ġexpand ed
Ġnok ia
Ġbeg un
Ġvi able
Ġexpos ed
Ġcer em
f ung
he iz
Ġres idents
Ġbas ically
Ġbi ological
Ġarr est
Ġtack ling
Ġuncertain ty
Ġver gabe
op tion
Ġpass ing
Ġd auern
Ġbe zeichnen
be ll
ke ys
g Ã¤ng
be wertung
Ã¼tz ten
ape ut
Ġlegitim acy
Ġdevo ted
Ġthumb n
ag og
Ġmar co
Ġer arbeitet
Ġba den
Ġsad dam
Ġk Ã¶st
ru ckt
Ġguarantee ing
Ġfly ing
Ġcred ible
or der
um er
am an
Ġvis its
Ġir regular
Ġneg ativ
Ġold est
Ġaustral ien
Ġb ier
Ġliefer anten
ampag nen
Ġfe et
Ġlang em
Ġunterschied licher
Ġentsch uld
Ã¼ bt
Ġha iti
out s
Ġviol ation
Ġpotential ly
Ġfrequ ency
Ġcompar able
tr ess
Ġrelev anten
ĠkÃ¼mm ern
Ġun gerecht
Ġder iv
Ġbe lo
Ġi x
Ġbu ying
clud es
Ġincent ive
7 2
Ġer mitteln
Ġas iat
Ġvor lÃ¤uf
Ġdeut liche
Ġ198 6
Ġdiscr imin
ĠverÃ¶ffentlich te
Ġst iftung
Ġen gen
Ġras che
Ġunentgelt lich
Ġd Ã¶r
Ġle iten
Ġverurs achen
Ġd Ã¼ss
ap se
Ġbereit en
reg ister
Ġelev ator
h um
en ken
Ġz ones
Ġger inge
an schluss
Ġbe hÃ¤lt
Ġtro ops
Ġkapaz itÃ¤t
ĠbeeintrÃ¤cht igen
Ġb ak
Ġo uter
Ġte e
Ġfinanz mittel
Ġro ten
besch rÃ¤n
Ġunemploy ed
Ġschutz es
Ġan ze
Ġk ids
Ġher zustellen
Ġup load
Ġ6 6
Ġgewiss er
ie ur
Ġruss ias
akt ions
Ġagent uren
Ġdies elben
Ġoblig ator
Ġeinger Ã¤umt
ind ungen
Ġd auert
Ġzeich net
et or
Ġum so
Ġ18 0
Ġcoordin ate
Ġexter ne
ĠgÃ¼nst igen
Ġcancell ation
Ġherr lichen
ĠausÃ¼ bung
Ġleip zig
Ġder er
Ġes cape
Ã¼n dete
Ġspekt rum
Ġoper ated
Ġafford able
Ġmacro economic
b in
Ġ5 4
Ġruss lands
Ġconf ident
Ġbelg ischen
Ġscre ens
ir n
spe c
Ġcont est
ĠgefÃ¤hr lich
Ġheil igen
Ġbench mark
Ġmarok ko
y les
ne w
Ġwelthand els
g age
m ass
Ġall ah
tel s
Ġsozial partner
Ġsurpr ising
Ġc ord
Ġunter r
Ġsimultane ously
e ffe
aus stattung
Ġtechnolog ische
Ġdah in
staat liche
Ġlandwirtschaft liche
Ġimpul se
Ġauf gestellt
Ġar ran
richt linien
r asse
Ġarg umente
Ġtransl ated
Ġg un
Ã¼ b
Ġenergie quellen
Ġenjoy ing
on ie
Ġtr uppen
Ġabwe chs
Ġgeb unden
Ġbus es
ber ger
Ġent halt
olog isch
Ġweiter entwick
Ġgewer b
v s
Ġvog el
Ġha zard
halt ungs
rit z
Ġwhere ver
ĠflÃ¼chtl ings
gel aden
Ġ11 0
fo od
vereinbar ung
g f
Ġer ad
and em
Ġrefuge e
d ays
Ġs es
Ġfe ier
Ġ5 3
Ġnegot iate
Ġfu els
j ing
v ide
ges pr
Ġelectron ics
Ġtau ch
Ġtro cken
ĠgetrÃ¤n ke
Ġpromo ted
p her
Ġres idential
x i
Ġabst ra
Ġp el
Ġaltern atives
Ġanp assen
Ġrestrict ive
Ġart ificial
Ġdefin ieren
j or
ib an
Ġpap ers
Ġkoh le
Ġerf asst
v illa
Ġd ingen
Ġber ge
Ġfar ms
Ġbel astung
Ġclar ity
Ġdoss ier
Ġlog istik
Ġsun ny
Ġfire fox
v ic
Ġstud ied
Ġexem ption
Ġsogen annte
5 9
Ġre ass
Ġst ich
Ġeing etragen
ĠÃ¼berein st
Ġre ferences
Ã¶ hnen
igh ter
Ġfail ing
Ġcheck ed
Ġg ulf
Ġk od
Ġum gehend
ub ringen
Ġsystem atic
Ġ9 3
po st
Ġred und
Ġpro st
ĠgrÃ¶ ÃŁen
Ġmitge teilt
ro t
Ġto ll
em ann
Ġsoc io
Ġgran de
ĠbefÃ¼r wortet
Ġumst Ã¤nde
Ġp ow
Ġsp Ã¼r
Ġinvest or
Ġ6 3
Ġhochwert igen
Ġversto ÃŁen
p unkten
un ted
an y
Ġl om
be an
Ġlic ence
Ġfest ivals
Ġdim ensions
Ġunge achtet
a a
Ġn ad
Ġlog in
Ġfischereip olitik
f ted
s d
Ġh Ã¤ndler
Ã¤nder ung
Ġrespect s
ĠÃ¼berwach ungs
Ġer led
Ġwo oden
Ġrespect ively
ib ly
Ġent ity
Ġstruct ured
zug s
Ġverf asser
Ġer teilen
Ġj et
Ġwirk liche
Ġexpos ure
Ġbe ige
entwick lungs
Ġch ip
por ter
ad ays
yste men
Ġgeb lieben
Ġb ull
Ġh unt
Ġgu inea
Ġbur ma
Ġw ont
Ġfil me
Ġaufge fÃ¼hrt
Ġst ab
Ġex pense
Ġstr ike
Ġbo ught
Ġvorgehen sweise
Ġrh yth
Ġ orth
em pf
Ã¼ber trag
Ġmil an
Ġstay ed
Ġg f
Ġhand lungen
Ġindik atoren
Ġm ent
Ġfest stellung
Ġreal er
unter st
Ġbig ger
Ġniedr iger
il ation
Ġgeneral sekretÃ¤r
Ġdres den
Ġlegisl ativ
kom pon
Ġalban ien
an as
ro g
Ġgr iff
Ġfeat uring
ĠfÃ¼ llen
Ġsimpl ify
se her
Ġberichterstat ters
Ġamb ass
Ġinv o
Ġshare holders
Ġwohn ungen
wander ung
Ġor ten
Ġlang er
Ġformul a
Ġgeist igen
m ain
schw ung
Ġenor men
istrib ution
Ġge ber
Ġtechn ique
Ġremark able
s w
arbeit eten
Ġarbeits weise
Ġassess ed
Ġjugend liche
7 3
it arian
Ġ7 2
mail s
Ġencour ages
Ġgipfelt reffen
Ġme ilen
Ġbro wn
Ġcoll apse
Ġsp reche
Ġforest ry
ĠsouverÃ¤n itÃ¤t
Ġnow adays
s el
Ġp iano
Ġsur plus
Ġprefer red
cas ts
Ġsplend id
Ġgen uss
ho le
Ġwachsen de
ĠbetrÃ¤cht liche
Ġsupplement ary
ĠwÃ¤r me
Ġs hr
ar r
il ie
ĠbestÃ¤t igung
Ġmon ument
u ver
Ġin be
Ġchem ische
Ġven ed
Ġolymp ic
Ġad mit
Ġenjoy s
Ġausged e
Ġauf einander
Ġparad ox
Ġze ug
kam mer
Ġstren ge
o z
ab stimmung
Ġcl imb
Ġunder lined
etzug ang
Ġdurchge fÃ¼hrten
w Ã¤nde
Ġs essions
Ġg Ã¼
Ġbe wirken
Ġber ichtet
fen ster
ij k
Ġparad ise
Ġmold au
Ġrehabil itation
Ġtreibhaus gas
Ġh r
Ġsc ott
Ġvar ian
Ġn est
Ġste am
Ġnatur a
Ġerwachsen e
Ġrepeated ly
et ch
Ġgel iefert
Ġt am
Ġverw altet
leit ungen
st uff
Ġpr Ã¤m
for um
par l
un te
dr ing
Ġzukunft s
Ġbe weisen
Ġsp y
Ġchar me
Ġlank a
v d
Ġre ward
id as
Ġable hnen
Ġaus b
Ġrenov iert
Ġmarg in
Ġpenalt ies
ar ium
Ġgem isch
Ġumfang reich
Ġmission s
Ġz ahn
Ġab fÃ¤lle
Ġum gehen
Ġziel setzungen
Ġhilf reich
Ġpe ters
Ġsc iences
les en
Ġein schÃ¤tzung
isten cy
fÃ¤ ll
Ġerd gas
Ġdramat ic
igen de
ard in
Ġsustain ed
te c
and in
Ġx ml
ĠzustÃ¤nd igkeiten
Ġunterbreit et
Ġs tern
Ġspezial itÃ¤ten
Ġm es
Ġel der
h z
r ix
Ġrest ri
Ġcontext ual
Ġseem ed
Ġquant ity
o ured
Ġzusammenzu arbeiten
ier er
20 20
ĠlÃ¶ schen
Ġpursu ant
Ġsecon ds
Ġrespect ing
Ã¤ss igen
Ġsurpr ised
Ġreveal ed
kÃ¶ mm
Ġvalen cia
o sten
Ġfor d
Ġade qu
Ġanwendungs bereich
Ġste igt
pr Ã¤
ger Ã¤ten
Ġbelie ved
isten ce
Ġtyp ischen
ikal ien
Ġde pression
Ġster e
Ġberat ungs
Ġcub a
icht ung
Ġcir cle
Ġu v
Ġbild schirm
Ġpre ferences
Ġbeit r
ct ing
Ġdescrib e
or ter
ol as
Ġbo ats
Ġsach verstÃ¤nd
Ġvor n
Ġtun nel
Ġaudiovis ual
k ong
Ġder selben
Ġer arbeitung
se bene
Ġorganis ierte
Ġce o
Ġkostenlos en
Ġenvis aged
Ġk lage
Ġlebens qualitÃ¤t
Ġrelig ions
Ġaud ience
Ġbehav ior
a ces
Ġr ind
ĠgrÃ¶ÃŁ ter
Ġdest o
Ġmel den
Ġbein ahe
Ġal de
Ġeurop ar
Ġgemeinschafts recht
greif enden
Ġintegr al
beit rag
Ġbud dh
Ġref used
Ġmer ch
Ġprivat sphÃ¤re
stat us
men gen
ĠgÃ¼nst ige
Ġcloth ing
8 9
ne iden
Ġemphas ised
Ġrechen schaft
Ġhervorra gend
Ġmosc ow
Ġge fol
Ġagre es
bereit en
Ġprest ig
ergeb nisse
Ġsch ienen
Ġgew inne
schutz es
Ġdest inations
Ġmanufact ured
Ġober flÃ¤che
ĠbefÃ¼r worten
Ġtradition en
ĠschluÃŁ folgerungen
Ġendors ed
Ġder eg
Ġto ugh
Ġda vor
Ġexp ed
sa gen
Ġverg nÃ¼
Ġver steht
ber at
Ġdon ors
Ġmail ing
Ġallm Ã¤h
d ial
s z
Ġre iz
Ġcon cess
Ġho heits
Ġdiss em
Ġcompr ises
Ã¼ste t
Ġaus legung
Ġtechn isch
zieh ungs
d y
Ġk im
ĠstraÃŁen verkehr
Ġkonsult ationen
w rit
Ġein leitung
Ġbesch Ã¤d
Ġvertr ieben
Ġerd be
Ġstimul ate
Ġwid men
Ġoste uropa
Ġst al
Ã¼ber wach
Ġfra gment
Ġbenef icial
Ġflor ence
ig ter
Ġunter richt
Ġno bel
Ġtw el
Ġplatform s
Ġcha os
Ġvene zu
Ġd au
Ġtra ins
Ġsal v
Ġbra in
el ie
pro of
kun st
Ġt esten
Ġs ig
Ġr ss
Ġmigr ants
k in
Ġe esc
markt es
Ġnik on
f eit
voll er
Ġruh ige
b ag
Ġreg rett
ĠbeeintrÃ¤cht igt
re le
Ġrec ession
gar ant
Ġevalu ate
Ġs Ã¤u
Ġr enn
Ã¤l te
Ġage ing
Ġex cel
ord net
fel der
Ġvorbereit ungen
ĠprÃ¤ vention
Ġd ick
Ġem u
Ġsched ule
Ġan erkennen
Ġop pon
Ġep iso
Ġobser ve
andin av
ap ital
dra ul
Ġschle chte
Ġw ake
Ġvor feld
Ġwithdra wal
isten z
Ġs izes
Ġpe ak
Ġkl ing
Ġcar te
Ġumfang reichen
Ġkombin iert
ĠÃ¼ber tr
Ġcontro lling
Ġall erg
Ġsign als
Ġinfrastruktur en
Ġprest ige
Ġa h
Ġein stellen
Ġst ipul
Ġbo om
med iterran
pers on
Ġrub ber
Ġfremden verkehr
p olit
Ġvor gaben
wir kungen
Ġmold ova
Ġp on
Ġz imb
Ġwh oles
Ġcl im
Ġrespon ses
Ġgre ens
Ġeinstimm ig
Ġe ea
Ġaus wÃ¤hlen
Ġfood s
et reten
men ge
Ġthem es
Ġclick ing
Ġbewahr en
z te
k ov
z ia
Ġco ach
Ġbus y
Ġbeant wortet
Ġjugoslaw ien
Ġpattern s
op hob
Ġcro ps
Ġ14 0
Ġrefle ction
Ġbibliothe k
Ġb ung
Ġfe as
Ġsm ith
m ag
u ers
Ġsol ch
Ġins ert
Ġunterk Ã¼nfte
Ġverlie hen
Ġtr ink
ĠausfÃ¼hr lich
Ġkeines wegs
Ġ5 7
Ġrahmen s
Ġnecess ity
Ġmom ents
Ġgebrauch t
Ġdrink ing
Ġbar bar
Ġbenutz ern
Ġaktiv iert
Ġten der
Ġd Ã¼n
reich ung
Ġform ation
Ġpla cing
strateg ien
Ġp aten
Ġsp are
Ġpers pect
Ġklar heit
Ġdeath s
Ġdecla re
aug ht
Ġunst able
Ġer schw
Ġrat ified
dom in
Ġinfrastruct ures
Ġliter ature
get reten
ĠbÃ¼rger beauftragten
Ġcontinu ously
Ġriv iera
ĠfÃ¶der ation
Ġd il
Ġauf lÃ¶sung
ver arbeitung
Ġres um
Ġdownload s
Ġsomal ia
restaur ant
Ġein fÃ¼hren
Ġaus gebaut
ĠstÃ¤nd ige
Ġver mittelt
Ġsee le
Ġ% )
Ġdem o
ss icherheit
Ġzus agen
ho st
Ġpubl ikum
Ġ0 6
Ġleban on
el ter
ĠnÃ¤ch ster
Ġv end
Ġn ett
ad min
Ġcar go
ĠjÃ¤hr liche
a ids
z icht
Ġcl int
Ġwieder her
Ġmal aria
Ġfair en
Ġg au
Ġeuropa e
f rom
Ġh uss
Ġbo ards
Ġern annt
Ġpas sport
s i
Ġrel oc
Ġbon n
Ġab ruf
Ġorient ation
proble m
kop f
Ġver p
Ġdetaill ierte
Ġkl ang
Ġh p
Ġi ct
Ġaccess ories
Ġurspr ung
Ġdring lichkeit
uz zi
ĠergÃ¤nz ung
Ġand ro
Ġer arbeiten
Ġent stand
Ġjes us
Ġembed ded
re a
he bt
Ġrat schlag
Ġwohn zimmer
Ġdownt own
doll ar
Ġun ber
Ġma is
com ings
Ġnutz ungs
pp ed
Ġtyp ically
Ġver grÃ¶ÃŁ
den k
Ġch i
Ġum wel
Ġofficial ly
Ġpar am
ha ust
Ġverwirk lichen
Ġew r
erzeug ung
Ġvermut lich
un ivers
Ġerfolg s
Ġwh irl
is st
Ġstr ip
Ġresort s
Ġestim ates
ux e
Ġmarg inal
Ġadapt ation
Ġge be
Ġshort comings
Ġmechan ical
Ġcompat ibility
Ġreserv ierung
Ġzusammen setzung
Ġbegr Ã¼ndet
Ġwed nes
Ġconsc ious
Ġse kunden
bo ot
Ġcode cision
Ġzu kommen
Ġstr Ã¤nde
Ġwin ner
Ġrh etor
Ġbreit band
Ġresc ue
Ġpl ain
Ġleg te
Ġbor row
sc ap
Ġmer kmale
Ġbenach richt
ĠbÃ¼rokrat ie
Ġcatalog ue
im ited
Ġmod ify
Ġheraus ragen
Ġeingel aden
sch Ã¶n
kon to
Ġcoher ence
Ġcry stal
c u
Ġein trag
ver zerr
bed Ã¼r
Ġeg f
ĠgefÃ¤hr den
y ers
gra de
Ġverfol gung
dis cr
Ġsams ung
o e
t age
Ġp om
Ġtelefon isch
Ġaktual isierung
Ġdee pen
z ing
Ġcar ib
sprozess e
Ġz immers
Ġl ens
Ġdokument ation
Ġheadquar ters
Ġclos ing
Ġcontract ual
Ġimpos ing
Ġtrop ical
Ġmath emat
Ġnut rition
Ġempt y
Ġtamp ere
Ġge leitet
Ġassess ments
Ġset up
Ġtherap y
ĠÃ¶st lichen
st rom
Ġle hren
ak ult
be cken
che ck
Ġexpens es
au b
Ġtro uble
see ing
Ġappar ent
elt a
Ġsa al
Ġcreat ivity
Ġin akzept
Ġge klÃ¤rt
Ġhe ight
sch an
Ġabs urd
Ġedit ed
Ġcapt ure
u an
Ġer weisen
Ġentscheid et
Ġdefin ing
Ġdisap point
Ġliban on
p ie
Ġgr ill
wÃ¼r fe
Ġgir l
x y
Ġbut ter
Ġrequ iring
Ġausge glichen
Ġarbeits zeit
Ġmigr ations
ot ions
Ġtechnolog ischen
om an
Ġspan nen
Ġeinzu halten
sp ot
Ġph ones
Ġinvest ing
Ġcontro ller
ern t
Ġcan al
Ġtr i
Ġwur z
bar ometer
Ġperspect ives
e qu
Ġlie ben
Ġlisten ing
Ġtrib un
Ġan gabe
Ġ6 2
Ġrez ession
Ġschw Ã¤ch
zust immen
Ġzo om
ur fs
olog ischer
Ġverl uste
Ġrad ik
Ġsolar ium
Ġportugies ischen
Ġrena issance
Ġpos ted
Ġindic ates
wes ens
Ġsch ol
Ġfore most
Ġpalest inians
a genda
f ugen
Ġwelt bank
zus agen
Ġflug gesellschaften
Ġarmut s
Ġmeaning fully
Ġangen ehmen
Ġvorgesch rieben
Ġausgew Ã¤hlten
Ġgem Ã¼se
Ġglobal er
Ġdienst leistung
Ġdepart ments
Ġgetr ennt
Ġa ges
Ġbook ed
Ġ16 0
Ġerkennt nisse
l ager
Ġ7 6
Ġpal m
Ġflexib el
Ġsem i
Ġrecon ciliation
stechn ik
Ġein halten
Ġcompet ences
Ġdesign ated
Ġy acht
Ġca fe
Ġbon ds
Ġr iding
Ġeigen stÃ¤nd
Ġpress ing
Ġexhib itions
ĠkohÃ¤s ions
Ġf akten
Ġo v
hol t
Ġbeit reten
erzeug nisse
Ġsal on
Ġmedizin ischen
in tegr
at isch
Ġauf gerufen
Ġschw Ã¤chen
Ġziel s
Ġwert volle
Ġerl angen
Ġdoppel zimmer
Ġweit aus
ĠÃ¤hn lichen
Ġeingeb racht
v y
Ġh us
Ġberu h
l ab
Ġge ein
Ġover look
ient en
Ġgeb Ã¤uden
Ġ8 7
Ġengl ischen
deut sch
Ġv il
tr Ã¤ger
Ġ19 50
Ġper ce
Ġoffen heit
bet re
Ġpers u
Ġfol der
Ġacqu ire
Ġlos ing
ar ischen
ac ted
Ġrev ol
Ġfal se
Ġmont age
Ġinspir ation
Ġw inners
ar ks
Ġun bek
Ġl Ã¤dt
Ġbe fehl
Ġl cd
Ġgew inner
auf gaben
ĠverstÃ¤r kten
Ġzunehmen de
Ġspann ungen
s ub
Ġsch alt
Ġkurz er
Ġleiden schaft
anb ieter
Ġfranc isco
Ġc olog
Ġteil t
Ġdeutsch er
Ġeth ical
Ġmov ies
Ġrang ing
j er
un k
Ġan schein
Ġsho ck
Ġarbeits gruppe
Ġprofession ellen
Ġharmon ised
rain ts
or ith
Ġist anb
o de
Ġm iet
Ġnach kommen
Ġschl acht
Ġconven ience
spar ungen
s he
Ġauf er
ler nen
Ġvorbe halten
Ġbe wirtschaftung
Ġco pe
Ġfl Ã¼ss
Ġangeboten en
Ġexplicit ly
an ien
Ġr ic
Ġausge arbeitet
ro v
Ġcompl iment
Ġkonzentr ation
ĠdÃ¼ss eldorf
spec ific
Ġd Ã¼
Ġim men
Ġdies elbe
ĠÃ¼ber legen
Ġsh ut
Ġlike wise
Ġpal ma
Ġconsist ently
Ġtab elle
Ġgast freund
Ġbeseit igt
ĠerlÃ¤uter t
it ary
Ġk lo
Ġhe ft
la v
Ġerfolg te
Ġro llen
Ġce ase
Ġint entions
Ġzin ss
Ġimportant ly
Ġfore cast
eu v
Ġster ben
Ġw ett
Ġfr isch
Ġweiter zu
Ġlod ge
p in
v ents
Ġsteuerzahl er
at em
Ġab geben
Ġcompl aint
Ġentdeck st
an ter
Ġspekt ak
Ġyugosla via
Ġaus sagen
Ġent ities
if eration
Ġbr on
Ġ195 7
Ġabente uer
Ġav o
verb and
Ġlow est
Ġgelt ungs
ien st
Ġher kÃ¶mm
Ġbef ind
Ġjust ify
ander s
Ġref use
Ġeinzu leiten
Ġreplac ement
Ġper pet
Ġunz Ã¤hl
Ġannehm lichkeiten
Ġhybr id
b ahnen
Ġth ick
Ġp u
Ġkontext uellen
Ġthumbn ail
ent lichen
Ġein m
Ġquantit ative
Ġdeserv es
Ġim pr
Ġas ean
Ġsusp ended
, /
Ġp ag
Ġg Ã¶
Ġste t
Ġprof ound
Ġnord ic
Ġkomplex e
Ġgenu inely
Ġreinfor ced
Ġprohib ited
Ġb att
Ġc ameras
Ġgest artet
reg ierungs
Ã¤u tern
Ġst agn
Ġcy cl
Ġrein igung
Ġphilosoph ie
Ġnachbarschaft spolitik
at ch
ze ll
Ġspecial ly
ĠkÃ¶l n
n ie
tre ffen
Ġassoz iations
Ġbeur teilen
Ġeinzus ch
Ġfron tex
e ches
s amen
um welt
Ġr ivers
Ġcom o
Ġbei der
Ġgrammat ically
for me
Ġup s
Ġinvest iert
Ġcontext ually
Ġkontext uell
Ġjew ish
5 4
Ġfa ire
Ġautonom ie
ĠÃ¤lter e
Ġurs ache
Ġelegan te
Ġgu itar
Ġhinzu fugen
Ġfal sche
Ġgrammat isch
Ġal ps
Ġbil dern
Ġpurch ased
Ġbeschluss es
Ġvul kan
l ay
Ġch ocol
Ġel f
Ġhol y
Ġret ire
on as
Ġal ike
Ġfinanz iell
Ġ430 3
5 2
ÃŁ ten
Ġsa iling
Ġjud ge
Ġexcurs ions
Ġver deut
Ġselbst Ã¤nd
Ġschle chter
Ġschicks al
Ġro d
Ġcontrib utes
Ġreview ed
Ġaufge zahlt
Ġheav ily
men d
as chen
ĠgemÃ¼t liche
Ġdefen se
Ġs z
re es
Ġgel ingen
Ġverw iesen
Ġempf ang
Ġkrie ges
Ġdict ators
Ġh ein
th a
Ġvill as
Ġdemonstr ates
Ġschlussel wort
th aus
ĠÃ¼ber setz
Ġbet a
Ġunder lines
Ġschlussel phrase
Ġdele te
Ġintegr ieren
re ct
Ġdis par
Ġrec all
alt y
Ġdr ives
stÃ¼ck e
bil der
Ġposs ess
Ġkonzep te
r ight
Ġt ub
sicht lich
Ġadv ise
b ot
ut a
kapaz itÃ¤ten
Ġfascin ating
op oul
auf wand
Ġzwe ier
Ġklim asch
Ġin se
Ġn ag
de z
ĠeinschrÃ¤n kungen
Ġcon vey
Ġra ff
Ġvo ters
Ġkosten gÃ¼nst
Ġl un
Ġr ande
Ã¼tz te
Ġpot ent
Ġsozialdem okrat
z um
Ġste m
Ġkomplex en
et r
d t
Ġt ru
us er
Ġbas ieren
Ġur l
Ġforsch er
Ġle ichte
Ġra cing
Ġspe ll
sk y
n os
Ġst Ã¼tzt
ul der
Ġat tended
ple x
kon vention
Ġliegen den
Ġdispl ays
Ġin halts
Ġbei jing
Ġregul ators
Ġwachstum spakt
part y
Ġinterinstitution al
5 1
Ġin haber
au ben
Ġvertra ut
Ġrechn er
Ġverz ichten
Ġeindeut ige
Ġl ively
Ġfre ier
k u
Ġf anden
Ġtac is
verfol g
Ġa tember
Ġwicht igkeit
reit ung
Ġbetreffen de
Ġrac ism
k es
Ġpro pr
Ġmo le
Ġte uer
Ġbarr ier
er ver
Ġbo asts
Ġoccup ation
Ġirgend wel
Ġdistin ction
Ġp est
Ġein fuhren
os ph
Ġautonom ous
Ġkomment are
7 4
Ġcharacter istic
ĠÃ¼b lichen
effect ive
ac kt
Ġverble ib
Ġst ro
Ġcons ulted
Ġviol ent
Ġbung al
k ind
Ġmin ing
per form
ĠstÃ¤rk eren
Ġspazier gang
Ġbr Ã¼
Ġconfir ms
Ġd umping
Ġob jekte
Ġlabor atory
pat ible
Ġd s
Ġf este
Ġe hre
Ġun fall
Ġro ots
Ġschwer punkte
Ġtrain ings
Ġzimb abwe
el i
Ġherr schen
ider s
Ġcarib bean
Ġch al
Ġvol unte
Ġunanim ously
Ġm Ã¼sse
Ġf ung
ad i
sp unkte
Ġminister rat
icher ungen
Ġaktion splans
Ġkore an
Ġcin ema
ĠwÃ¤l der
Ġgel esen
par ks
Ġbre ad
Ġexist ieren
Ġbeitr Ã¤gt
z ert
Ġein ander
iste te
Ġvorsitzen der
Ġp us
Ġman s
Ġla und
Ġjahres bericht
Ġprotokoll s
Ġarran ged
Ġviel seit
kun de
Ġexpand ing
Ġshar p
ur er
Ġdam al
Ã¤l sch
Ġther m
Ġost see
Ġnach denken
ii i
Ġkonsolid ierung
p i
Ġt ips
or i
be c
Ġweiter bildung
Ġgerman ys
Ġeinver nehmen
Ġbe her
Ġmy ster
Ġanmer kungen
9 1
a ire
as sten
Ġhier arch
katastrop hen
Ġtwel ve
Ġcolog ne
Ġr ust
Ġge gangen
Ġsch all
land schaft
Ġlad y
liefer ung
Ġthreaten ed
Ġproxim ity
Ġein iges
ch ern
Ġg ains
Ġab w
od es
Ġentwick ler
Ġgrundlegen der
f al
Ġauf sicht
Ġvor zusch
Ġfamil i
Ġerreich te
ell ow
schn itts
Ġforg otten
Ġsch reib
Ġinbe griffen
Ġb ands
Ġverme idung
Ġrecru it
Ġk az
ort s
Ġwirk lichen
Ġsitz ungen
Ġkurzfrist ig
Ġersta un
Ġw Ã¤chst
Ġtra ined
Ġsol daten
ĠhÃ¶ch ster
Ġtrag ic
ĠvizeprÃ¤sident in
Ġmo ves
Ġunter lagen
Ġdurch fÃ¼hrungs
str and
ĠbegrÃ¼ ÃŁte
Ġflor a
Ġc n
ion ed
lad im
Ġs ms
sh op
Ġwirks amer
Ġein laden
be le
Ġland scap
Ġfreund liche
Ġauss ichten
Ġvened ig
nehm ung
ĠursprÃ¼n gliche
w ider
st abilitÃ¤t
erstell ung
Ġrespekt ieren
Ġre tro
kon stru
Ġspirit ual
Ġbewe gt
Ġwednes day
Ġa le
Ġb ach
Ġuns icherheit
Ġind isp
Ġenergie politik
Ġbew aff
Ġpartnerschaft s
Ġbehaup tet
ĠphÃ¤n omen
e ur
Ġc lock
Ġg aming
Ġgr Ã¶s
Ġinst antly
Ġarbeits bedingungen
ab teilung
Ġmeas uring
bezogen e
Ġkr im
Ġhost ing
Ġabziel en
Ġtraged y
Ġb lieb
Ġsch la
bre ite
Ġminder heit
Ġg ue
geb iets
Ġad mitted
Ġins ol
Ġzusammen hÃ¤ngen
zie ll
Ġreven ues
Ġer be
ein heit
Ġher an
Ġfinanz dienstleistungen
Ġexam ining
agent uren
Ġg mos
ra id
men Ã¼
ten ds
Ġlight ing
Ġinstrument en
ad os
Ġange wiesen
hol der
Ġbez ogen
y ards
as ste
Ġk Ã¶
Ġqu i
Ġhier mit
Ġbl an
Ġprev ented
Ġmodern er
Ġtyp isch
verb ot
m aster
Ġas ks
Ġerleich terung
Ġrecognis es
Ġbelong s
Ġermut igen
Ġt all
as y
Ġko hl
Ġformul iert
Ġsnack s
Ġvermarkt ung
part nern
un ate
Ġinter conne
Ġspe eches
Ġcarr iers
Ġslow ak
Ġverletz ungen
Ġverste he
Ġtus can
Ġc ere
Ġspecific ations
Ġs omm
Ġmar c
Ġklein eren
entscheid ungen
Ġreaff ir
fÃ¼ g
hol z
Ġbi ologischen
Ġcapac ities
p pe
un ters
Ġger ichten
gesch ritten
Ġsteu ers
Ġpurs uing
Ġer mittelt
abe llen
Ġpath s
un dern
st on
Ġre verse
Ġemer ged
Ġbask et
Ġde pr
bal gs
Ġindep end
Ġkunst stoff
Ġcot on
Ġst ufen
Ġid yll
Ġx en
Ġprem ises
Ġwe ine
Ġfl ach
Ġdel uxe
Ġtelekommun ikation
ĠÃ¼berras cht
k Ã¼ste
Ġder jenigen
Ġauf trÃ¤ge
Ġwer fen
Ġdem okraten
Ġop fern
Ġrass ismus
ie tern
Ġdem ographic
Ġzus tell
Ġappar ently
Ġsemin ars
proble me
Ġmonit ored
Ġistanb ul
f ab
ver gabe
Ġlu c
ĠÃ¶rt lichen
Ġdem ent
ant es
Ġsim b
Ġdeb ating
Ġterra in
stuff s
Ġby r
ap pe
bed ing
Ġterr ible
Ġauf lagen
Ġcons istency
Ġnichtraucher zimmer
st ern
Ġdo ctors
Ġmon uments
stre cken
Ġschiff s
r ien
Ġab teilung
Ġsand y
b lock
ed a
imm ungs
Ġunder mine
ter ungen
Ġbes atz
ap ie
Ġinst ant
Ġmitglied staats
Ġbuy er
Ġw ife
Ġverw alten
Ġexpress ly
Ġdeliver ing
Ġstopp ed
Ġl ind
Ġaus nahm
Ġmein ungen
Ġanalys es
Ġvorrang ig
on ing
Ġse vent
Ġint oler
Ġoffic ers
Ġsu ited
Ġdr Ã¼cken
Ġwa gen
Ġfacilit ating
Ġclo ud
Ġth read
re ben
Ġgel assen
Ġwelt krieg
Ġheraus zu
Ġec os
Ġan bau
Ġout lined
Ġenc ry
Ġerziel te
Ġelektron ik
Ġalph a
le id
Ġz iv
ann i
ĠwÃ¼n sch
Ġphil ippe
au bern
Ġgem essen
Ġverb r
Ġmult if
Ġunver zicht
Ġpie balgs
Ġuner lÃ¤sslich
Ġfort geschritten
Ġindustr ielle
sicherheit s
Ġzunehmen den
ct ic
ill on
op her
ĠkÃ¶nigreich s
Ġcos met
c ut
f ire
Ġin halten
mediterran ean
Ġein d
Ġab gest
Ġzeit gen
gro up
Ġerwachsen en
Ġ ud
Ã¼ re
Ġfa ult
Ġhor n
Ġkern kraft
Ġkil ome
Ġbeob achter
Ġaktual isieren
Ġverur teilen
ĠnÃ¶t igen
Ġfel der
Ġunzureich end
Ã¼berein kommen
Ġrece ives
wh el
ĠerwÃ¤ gung
Ġt i
ult ure
Ġrat ifiziert
Ġterror isten
h ot
Ġfr ustr
Ġret ten
Ġaccur acy
Ġjeglich er
ct u
Ġle ather
Ġvorbe halt
ion es
Ġteil s
Ġp akt
Ġmar io
Ġdurch zusetzen
Ġerk enn
Ġlen ken
Ġe cht
Ġg ingen
Ġprec ision
Ġpain ting
Ġw w
ul ate
Ġhy draul
Ġconver ter
ĠendgÃ¼lt ig
Ġtranspos ition
re me
ran s
Ġzw ingen
ĠgewÃ¤hr ung
Ġconstru cted
Ġschaden s
Ġe f
Ġmultil ateralen
Ġlaund ry
Ġg il
Ġwas ch
Ġhuman ity
Ġib m
Ġr an
pe z
Ġaus lands
Ġem bra
Ġrepr ession
Ġmitt wo
Ġh ass
Ġernst hafte
Ġtaus end
ĠsubsidiaritÃ¤t sprinzip
Ġinternational es
Ġlandwirtschaft s
ĠberÃ¼hm te
Ġzert ifik
u i
Ġsh ang
Ġdec entral
Ġspec ify
Ġensure d
Ġcarr ier
Ġbeant ragen
initi ativen
Ġpip eline
Ġworry ing
Ġw ille
re c
Ġpro menade
Ġges ichert
Ġproblem atik
Ġprec ious
Ġgal ax
kla usel
g ent
Ġ4 50
Ġnor weg
Ġatt ent
Ġneigh bor
Ġdeploy ment
Ġt id
as is
Ġcomp ound
Ġsozial politik
Ġmensch heit
Ġvereinfach en
n r
Ġgesetz geb
Ġteil zunehmen
ĠverÃ¶ffent lichten
Ġconnect ing
Ġgradu al
k rank
Ġw Ã¤
Ġh Ã¤nde
Ġder artigen
Ġent ste
ced es
m i
ere ien
Ġautomat ische
................ ................
ĠwunderschÃ¶ ne
Ġmo uth
Ġnah men
Ġcentr ally
Ġnewspap er
Ġd b
Ġse al
Ġbest Ã¤nde
stell te
Ġfinanz mÃ¤rkte
hol fen
Ġkur d
Ġcal iforn
Ġmerg ers
Ġas h
Ġcoun ty
Ġschwier iger
Ġunver Ã¤nder
ir ts
Ġdauer haft
Ġkontinuier lich
Ġbenefic iaries
ĠeingeschrÃ¤n kt
Ġum stellung
Ġbro ther
Ġw ages
Ġc ors
Ġh ers
Ġr t
Ġover whel
Ġsl opes
Ġtag ungen
Ġsix th
ĠgefÃ¤hr liche
Ġenfor ce
Ġscot land
un ken
ie ÃŁ
ak i
Ġgleich behandlung
Ġclaim ed
Ġkreat ivitÃ¤t
Ġun gewÃ¶hn
Ġtr at
Ġdel ight
Ġsch licht
fÃ¤h iger
room s
Ġrelax ed
land es
Ġjap ans
Ġgon z
ach ed
Ġtre ff
Ġabsol v
ĠzerstÃ¶r ung
g rem
ro du
ll o
Ġzur ich
Ġcr ist
besch Ã¤ft
freund liche
Ġentrepreneurs hip
Ġbereit zustellen
Ġpress emit
condition ing
Ġch ose
Ġbereit stellen
l us
Ġen rich
Ġreal isiert
k os
est ag
Ġmeant ime
Ġunterb rochen
Ġexplo it
Ġausgestatte te
Ġb ird
Ġde inen
Ġvor hers
ser ie
r igen
u ct
Ġlog ical
meld ungen
Â £
Ġm ischung
ab s
qu oten
Ã¤s se
Ġdarauf hin
Ġbesser es
Ġb ast
Ġn in
Ġel ab
Ġsold iers
b n
Ġp ione
ig l
Ġbla ir
bre ak
Ġeffizient en
5 7
Ġg m
Ġproblem los
este in
Ġungar ischen
Ġferienwohn ungen
Ġkl assen
Ġturn s
Ġausgewogen en
Ġaven ue
Ġernen nung
ĠbewuÃŁ t
s ession
Ġo tt
Ġthy ssen
Ġpr ere
Ġhouse hold
Ġaufge hoben
Ġchem ikalien
Ġgenie ÃŁt
Ġmultil ingual
Ġelektr iz
Ġal bert
pe zif
Ġ7 8
Ġstre cken
Ġpoten ziellen
Ġswe et
Ġsubvention en
z immern
Ġh ors
ic ian
Ġhand ic
Ġfran ces
Ġcomb ining
gerichts hof
Ġanwesen heit
Ġcr ash
ĠÃ¤nder t
Ġsimpl ified
al teten
Ġpublic ly
kon fl
Ġindustr iel
Ġanre iz
ch i
ill es
Ġdes erve
Ġbl ank
Ġklim at
Ġinten se
Ġnachzu kommen
ass o
Ġbevor stehenden
Ġill ness
ĠgefÃ¤hr d
Ġkub a
g Ã¼ter
Ġso fa
Ġsp iegel
Ġport ra
Ġex haust
Ġformul ierung
Ġrechtfert igen
Ġcomp are
ame ter
Ġassozi ierungs
Ġdiscipl ine
Ġinwie weit
6 00
ad as
Ġkar ib
Ġbeton te
Ġeinzur ichten
aus bildung
j our
u fÃ¼hren
Ġren omm
ube ziehen
Ġexperien cing
Ġannoun ce
Ġbestell ungen
ĠberÃ¼hm t
ĠÃ¼ber schw
Ġze igte
Ġprior it
Ġkos met
Ġcollab or
Ġin tra
ar ians
Ã¶hn ung
m ant
Ġar range
Ġgo ur
Ġcol on
Ġren nen
Ġnetz es
Ġmerc os
Ġverschw inden
Ġbil aterale
ĠgrÃ¶ÃŁer er
Ġfif teen
fahr zeugen
ĠÃ¶k ologische
Ġf i
fre qu
Ġquant ities
gang s
Ġmod es
Ġb are
Ġauf weisen
sp os
Ġdeclar ations
Ġverteidigung spolitik
Ġgr as
he il
Ġverein t
bereit ung
Ġinfl ations
Ġdiv iden
Ġfreiwill igen
Ġsou ven
Ġcater ing
Ġun glÃ¼ck
Ġpr on
Ġlab els
Ġforder te
Ġconcentr ated
Ġkar riere
Ġunions bÃ¼rger
Ġacknowled ged
Ġbe auft
Ġperform ing
Ġther apeut
Ġerwer bs
Ġgenet ic
ĠrÃ¶m ischen
ne ider
Ġign ore
ĠprÃ¤z ise
Ġunterscheid et
Ġklimasch utz
ed ia
Ġgespr Ã¤chen
Ġumfass endes
Ġsensib il
Ġnicht regierungs
Ġpl Ã¤tze
Ġwerk zeuge
Ġzul Ã¤ssig
zub ringen
g ibt
u he
Ġf liegen
ra k
Ġqu er
Ġsc ulpt
Ġwert papier
sh ore
Ġremov ing
Ġfulfil led
st Ã¤nden
Ġsp o
man ager
Ġtrag Ã¶
Ġexcept ions
Ġberechn ung
Ġv ierten
Ġvon einander
Ġbehin dern
Ġwan dern
wachst ums
Ġeingeb unden
Ġkl ick
gar a
Ġann Ã¤her
Ġbin den
Ġkonstru ktive
auf sicht
Ġpreserv ed
Ġandre as
Ġe ag
Ġwe ib
Ġauf tr
Ġange legt
Ġcol omb
co ver
Ġrechts rahmen
bas ierten
Ġdr ingen
fÃ¤ llt
Ġarchitect ural
Ġgenet ically
Ġlif estyle
Ġst ance
Ġver mittlung
Ġaf raid
Ġcirc ulation
Ġein nehmen
Ġwill iam
ip ulation
Ġsa fer
lieÃŁ t
Ġgef Ã¤
Ġprevent ive
Ġunter haltung
Ġber ater
Ġover la
Ġaussch Ã¼sse
Ġst ones
Ġj ak
Ġges onder
Ġma re
Ġup coming
Ġbesch reibt
Ġeinwander er
Ġelder ly
Ġs enten
et us
Ġne h
Ġbar on
Ġleben den
Ġvertre ters
t Ã¤t
Ġun known
Ġaccount ability
Ġandern falls
Ġausbe utung
g ert
Ġpre de
Ġ5 9
schlieÃŁ t
Ġempf ind
Ġerzeug nissen
st ad
Ġaus de
Ġfe iern
Ġur ges
Ġgetre ide
a j
Ġh Ã¤nden
Ġi c
ul iche
Ġent ries
Ġphotograph y
le in
Ġex porte
Ġno on
Ġro w
Ġaim ing
Ġamts zeit
Ġd m
Ġo h
Ġab zusch
Ġke en
Ġtem ple
Ġschul z
ĠhÃ¼ gel
Ġkne w
ip ts
Ġconc erts
Ġclear ing
Ġmod est
Ġpan els
Ġdauer hafte
Ġetik ett
Ġmon tre
Ġdet r
Ġehr lich
h ans
Ġmehr erer
Ġben e
Ġassess ing
Ġw ales
Ġweiter ge
Ġview ed
Ġdest abil
Ġobser vers
teil ten
Ġgleich wohl
Ġgre if
lad ung
Ġcomplement ary
Ġpromin ent
Ġkonzip iert
ose x
Ġvers amm
Ġspecial ised
Ġregel mÃ¤ÃŁigen
play er
Ġadvert is
Ġanze ige
er te
Ġgew Ã¤sser
Ġviel fach
Ġmaxim ale
ĠpalÃ¤stinens er
Ġoste uropÃ¤ischen
Ġbras il
Ġs s
kt iver
Ġveget ables
rechn ung
ĠerwÃ¤hn ten
Ġd op
Ġn iel
ber to
Ġge habt
Ġche ese
Ġsubs cribe
Ġeigent liche
Ġobserv ations
Ġgeschle chts
Ġchalleng ing
g ol
Ġd ating
Ġper u
Ġinv asion
Ġslow ly
Ġgewinn t
Ġwolf gang
h ause
Ġo ze
ial e
be ob
Ġje opard
Ġeigent Ã¼mer
ic i
Ġ19 30
Ġhoriz on
is ations
Ġc aught
av a
Ġdiscover y
Ġunus ual
ab schluss
Ġverd opp
inform ation
ro ugh
Ġbe wohner
Ġl ande
ik ely
Ġunter wegs
Ġgesetz geber
Ġgesellschaft s
Ġgeehr te
Ġtort ure
6 2
Ġh ip
ens ive
Ġorgan ize
Ġbestimm tes
Ġcalcul ated
Ġcancel led
Ġbroadcast ing
Ġrout ine
Ġhuss ein
Ġlo op
atz en
ator ies
Ġincor rect
Ġconvenient ly
Ġand or
ig ation
Ġde kor
Ġzimmer beschreibung
Ġsubst anz
Ġk em
fahr ten
d or
Ã¼ ben
Ġmenschenrechts verletzungen
Ġsafegu ards
Ġjac uzzi
Ġcoton ou
b is
Ġcon jun
Ġpo ul
urr ing
Ġanb indung
ent liche
ho ch
Ġp ending
Ġfact o
ing ly
gew Ã¤sser
Ġtal iban
w en
Ġw ahre
Ġant iv
so ever
Ġtag s
Ġconfidential ity
Ġzusammen f
organ e
Ġhochschul en
Ġt ight
bei hilfe
Ġfortsch ritts
Ġpier re
Ġpol ar
Ġ19 45
Ġstand punkte
Ġarg ue
Ġjapan ischen
Ġsch ock
Ġbei hilf
Ġgu ides
Ġir ische
Ġcirc uit
Ġabol ition
Ġbyr ne
Ġtransa ktionen
Ġsd l
Ġherzeg owina
Ġo g
Ġk oll
Ġeuro barometer
Ġaus fÃ¼hren
Ġunl ikely
Ġwhirl pool
5 3
Ġst ops
Ġqu ell
Ġprev ail
, -
il io
Ġkon ferenzen
Ġalle ged
Ġlauf zeit
s creen
Ġra ises
Ġdien sten
Ġref urb
Ġque en
pers onal
n utzung
Ġver arbeitet
Ã¤uÃŁ erung
ĠprÃ¤s id
io x
Ġgener ous
Ġkan al
Ġphotograph s
Ġunil ateral
Ġdie t
Ġmusik al
unterst Ã¼tzung
vol umen
Ġgrem ien
sch rank
Ġvolk spartei
k enn
Ġa zer
Ġp am
au de
Ġunl imited
Ġt iss
Ġp ear
Ġreal en
Ġconst raints
Ġjung er
Ġbeeinfl usst
Ġrest oration
Ġsan ter
stag ung
Ġfestpl atte
in nung
Ġkon go
Ġenergie versorgung
ĠauÃŁen grenzen
sprÃ¼ chen
Ġqualifiz ierte
Ġmittwo ch
Ġmercos ur
Ġder ived
Ġst anden
Ġbed ienen
Ġinterv ene
h Ã¤ngt
ch tern
Ġsh ot
wert ungs
Ġmod ular
Ġrail ways
Ġmig ranten
l inge
o ge
er in
ic as
Ġco oking
Ġhigh way
att formen
Ġumwelt vertr
Ġempf Ã¤ngt
frei heiten
stechn ologien
w ig
ic ars
Ġl anz
Ġr ud
Ġy ellow
Ġeing est
Ġdeb ated
Ġnorm ale
ĠgemÃ¼t lichen
Ġpermit s
ĠrÃ¼ ckt
il der
pl Ã¤ne
ath ers
Ġocc urs
Ġgriech ische
Ġab ends
Ġappro x
Ġsum me
Ġstabil isierung
bew usst
Ġvor stand
Ġerl Ã¤utern
Ġbundes republik
Ġrub rik
Ġprivile ged
v ens
Ġalle ine
Ġrechts sicherheit
Ġscen ario
Ġsin ken
ikan en
Ġengine ers
Ġgraf ik
Ġkommer ziellen
Ġadj usted
d est
Ġbef re
Ġcomplex ity
Ġwom it
Ġiraq i
Ġmotiv ation
dok ument
Ġdispl aced
Ġchoos ing
Ġl Ã¼
Ġpr icing
te enth
ck ten
Ġ6 7
Ġwettbewerbs fÃ¤hig
i ago
ver kauf
Ġoff set
Ġass ured
Ġherzeg ovina
ĠgefÃ¤ng nis
al and
Ġeinz ubeziehen
Ġdan eben
Ġkrit ischen
Ġinvestig ate
Ġlam y
Ġgraph ic
Ġindones ia
z on
Ġl h
Ġst an
ist or
th al
ĠfÃ¼hr ten
- )
Ġg or
Ġr it
Ġsicher er
Ġbro k
Ġir res
Ġkar tell
Ġklar er
Ġwik icars
bef ug
Ġge handelt
Ġbeg leit
Ġvergleich en
at on
Ġatlant ik
sproble me
Ġk Ã¶r
Ġdownload ed
Ġschen ken
Ġdete ction
Ġgef asst
Ġkr Ã¤ften
Ġlif el
y t
in ity
im age
fahr zeug
ij a
eff icient
Ġmist akes
Ġargent ina
Ġge ar
kt iken
Ġemer ge
fam ilie
Ġma ison
ĠgewÃ¼nsch te
b innen
l iz
em e
Ġbut t
Ġban anen
Ġgegenseit ig
Ġser ien
Ġwhat soever
Ġw is
Ġp asst
Ġan leger
Ġbe end
st ill
Ġdies mal
Ġdemokrat ischer
Ġmer cedes
Ã¼f ungen
Ġimpl ies
Ġtang ible
b ud
k amera
Ġl Ã¤rm
olit an
Ġsport ing
krie gs
Ġbeherr schen
Ġmalays ia
Ġer mitt
ĠÃ¼ber wiegend
Ġdirect ions
Ġqual ifikationen
sprogram men
Ġcontra dict
er klÃ¤rung
ak is
ann a
Ġfr isten
per iode
Ġdr Ã¤ngen
Ġeinzel ner
Ġperform ances
Ġmade ira
Ġbre ites
Ġconsult ative
Ġun best
Ġcap ability
Ġm ild
Ġmay or
Ġcounter feit
Ġbehinder ungen
Ġcott on
Ġrechts s
mod us
Ġreligi Ã¶sen
Ġleon ardo
Ġprestig ious
Ġepiso de
k k
Ġunder line
Ġreturn ing
Ġcross ing
Ġelegan ten
Ġhin ein
Ġu fer
vers icherungs
Ġamer ikas
Ġiran ian
Ġschle chten
Ġhost s
Ġdeg rees
Ġadministrat or
Ġdecre ase
ant rag
Ġfun k
Ġmonth ly
Ġshe ets
Ġauthent ic
Ġfavor ite
Ġadri atic
Ġbe gangen
ers e
vereinbar ungen
ac le
Ġtrans mit
Ã¤ng st
v as
al tete
Ġta pe
Ġident ifying
ĠverhÃ¤lt nismÃ¤ÃŁ
Ġimbal ances
Ġ ....
Ġth un
Ġsp iegelt
voll es
Ġju an
Ġcop ies
Ġinformations austausch
Ġeinzu gehen
ĠdÃ¤n ischen
et schen
Ã¤n z
Ġad am
Ġbef rag
ĠÃ¤nder ungs
Ġconver ted
Ġbedauer lich
it udes
Ġaus gesch
Ġ9 1
vers orgungs
Ġspektak ul
Ġinter action
Ġhum ans
Ġprote ktion
Ġein tr
Ġind ication
Ġinv itation
Ġlay ing
Ġdescrib es
ĠplÃ¶tz lich
und i
Ġeing liederung
Ġant id
Ġanalys ieren
ĠbÃ¼ hne
Ġdraft ing
strÃ¶ me
Ġbr Ã¼cke
Ġcommun ic
Ġanaly sen
Ġoccup ied
Ġautonom y
Ġperspekt iven
Ġcockt ail
Ġclint on
er b
Ġcomp ress
Ġap part
Ġdemokrat isierung
Ġparticip ated
Ġsens it
Ġwarm ly
Ġbeant ragt
ch ang
Ġget Ã¶
Ġmeas ured
Ġ0 4
Ġsil ence
p ace
Ġges tellten
Ġvol at
Ġun recht
pl Ã¤tzen
Ġroh stoff
Ġp ine
ive aus
Ġdemokrat isch
Ġk inn
Ġvor red
it as
Ġk red
Ġinter akt
Ġdam pf
37 9
ĠdiesbezÃ¼ glichen
as onic
Ġim pf
Ġdes c
Ġfinanz ieller
Ġmoder ate
se as
Ġmil ose
Ġsl ides
Ġerr ungen
Ġdes ert
Ġco ins
Ġmar s
Ġ3 60
Ġreal ize
sprech ung
Ġhes itate
Ġp up
Ġag greg
Ġkol umb
Ġassozi ierten
k it
m y
Ġ7 7
Ġvertr Ã¤gen
Ġfutter mittel
Ġhekt ar
Ġh erstellen
ist ans
br ingt
Ġcorre ction
Ġwall strÃ¶m
Ġk ok
Ġob gleich
Ġregistr ieren
Ġw esen
Ġum zu
Ġafter wards
Ġmir ror
Ġexpl ains
Ġterror ists
Ġ197 9
Ġtarif a
ver trÃ¤ge
-------- --------
Ġavo ided
Ġinteress anten
Ġinc ur
Ġbroad ly
ĠangehÃ¶r en
Ġbatter y
Ġzin sen
Ġab wicklung
Ġsusp ension
Ġwien er
Ġdec ent
haus en
Ġ198 4
Ġkomfort ablen
Ġchurch es
Ġkonflikt s
Ġgeschen k
er ium
Ġwe iÃŁen
Ġredu ces
Ġanalys iert
Ġmedik amente
d umping
Ġi ve
Ġger ufen
Ġisrael ischen
Ġeigent lichen
Ġkoordin iert
Ġconsist ing
Ġadjust ments
ĠgÃ¼lt ig
Ġquart al
Ġclin ical
Ġunpre ced
Ġeurora um
ĠÃ¼berschw em
Ġwo zu
hÃ¶ he
Ġsil ber
Ġvereinfach t
Ġthe orie
Ġmenschen rechten
Ġ8 2
Ġref lex
jahr en
kom pet
or ium
Ġanim ation
el led
Ġregistr iert
Ġvict im
Ġeindruck s
Ġbureauc racy
Ġunpreced ented
Ġm ahl
am as
fl ation
Ġlog ik
ĠbeschrÃ¤n kung
Ġgla c
Ġgour met
f ran
Ġj Ã¼d
Ġdes irable
Ġzw anzig
Ġ8 6
Ġsum mar
ĠlÃ¶s ungs
ĠkÃ¼ chen
Ġmedik ament
Ġlifel ong
Ġe ck
om er
Ġha y
Ġch ips
Ġcol umn
Ġdev ast
Ġanp assungen
Ġasp ir
m ord
Ġinter reg
ĠmÃ¶ bel
region al
Ġmit wirkung
ond a
Ġvertrag sparteien
ba um
techn ologien
instit ut
beteil igung
Ġp end
al i
Ġbe an
uss en
els on
Ġsocial ists
Ġliter atur
Ġer ober
Ġatt ain
8 3
p ad
Ġad verse
ged eckt
Ġfavour ite
Ġow ing
Ġartik els
Ġgebiets kÃ¶rper
8 2
us ste
end em
Ġdevelop s
Ġpass ieren
Ġerheb ung
Ġp it
Ġhand led
Ġregul ate
Ġl um
Ġre ct
Ġis nt
Ġne ol
fÃ¼ llen
Ġbor ne
ĠfrÃ¼h ere
Ġprepar atory
ok ed
Ġausser dem
Ġendeav our
ĠvergnÃ¼ gen
mittel meer
Ġha ird
fr Ã¼
Ġpost pon
Ġwenig sten
Ġaccommod ate
Ġleistungs fÃ¤higkeit
is i
is ms
n icht
s ens
un es
Ġsol ved
Ġholl and
Ġ6 1
Ġnetwork ing
Ġnichtraucher zonen
Ġrahmen programm
Ġletz tes
Ġdan ube
ĠtÃ¼r en
Ġfear s
Ġcor n
Ġspiel raum
bus iness
ĠÃ¶ff net
Ġtsch etschen
Ġn as
Ġpers ec
fin ancing
ĠprÃ¤sent ation
ĠsÃ¤mt lichen
Ġproduz enten
ĠnÃ¶rd lichen
Ġges orgt
Ġke eps
Ġster nen
d on
Ġb aus
Ġherr schaft
auf ent
ĠÃ¼ber dies
Ġsp ots
cc a
ian ces
Ġtur keys
Ġvir gin
Ġsubst it
stra ÃŁen
Ġbay er
ĠbefÃ¶r derung
Ġalg orith
Ġth in
Ã¤ use
Ġdat ens
Ġdauer haften
Ġteach er
Ġcro wn
Ġcheap er
un ts
Ġfe iert
Ġhunder te
Ġgeneraldire ktion
Ġde ar
Ġtr ick
Ġnet to
Ġvern ach
Ġzeitgen Ã¶ss
l uft
Ġde emed
Ġdis clos
Ġbi ok
Ġsight seeing
f ix
Ġum s
Ġbetr Ã¼
Ġrea ktionen
ch ung
Ġto sk
Ġr Ã¤umen
Ġcontinu ation
Ġlaunch ing
dis ziplin
Ġauf t
ver k
Ġex ek
Ġob jektiv
Ġabge halten
Ġpc s
Ġsp ur
Ġsett led
Ġober flÃ¤chen
ĠgefÃ¤hr lichen
schie dete
Ġscrut iny
en dern
de fin
Ġveter inary
st op
Ġunter liegt
Ġtunis ia
& #
re du
st art
Ġgra b
Ġohne hin
Ġverl Ã¤ss
ĠsÃ¼d lich
Ġchocol ate
Ġenviron ments
Ġwen de
Ġauftrag geber
Ġmedic inal
Ġam ate
Ġbef rei
Ġestablish es
Ġober en
Ġang ere
Ġverab schiedete
Ġfunktions weise
6 9
Ġm asse
ve z
iste ten
defiz it
Ġgewerk schaften
8 00
Ġc and
Ġn y
Ġr f
ĠverlÃ¤ng ert
webs ite
Ġc te
Ġintegr ating
ĠeinschrÃ¤n kung
a fter
Ġm ile
Ġab stand
Ġjournal ist
Ġerd Ã¶l
Ġtie fen
mess e
ĠverzÃ¶ger ungen
Ġabruf bar
f indung
Ġal ia
Ġaut oren
Ġbew iesen
Ġface book
Ġrind fleisch
Ġf ing
est ablish
Ġopt ical
Ġwarm ing
Ġsar ko
Ġcaliforn ia
Ġt ues
Ġfr att
lau ghter
Ġisol ated
Ġtail ored
Ġvernach lÃ¤ss
Ġsp enden
geb Ã¼hr
ph ones
kr Ã¤ft
e i
g ht
Ġgesch Ã¤ften
Ġkl Ã¤ren
Ġbl umen
reisen de
Ġburn ing
Ġausnahm eregel
+ +
k ord
ers te
Ġharmon y
Ġinquir ies
Ġz ag
Ġbath ing
Ġwood s
Ġtoile t
ĠstÃ¤dt ischen
Ġdis abilities
Ġko ch
Ġtransl ations
Ġbef ol
Ġlib ya
Ġbulgar ian
Ġausgang s
Ġrespekt iert
Ġaggress ive
Ġadequ ately
Ġerdbe ben
g au
qu in
gr Ã¼nden
Ġlight s
Ġkraft stoff
Ġcharacter ised
Ġfried lichen
Ġun regel
Ġmon ats
Ġschl immer
Ġmodern es
Ġut ility
ahr schein
Ġpen ins
Ġbran ches
Ġtrib ute
Ġferr ero
al te
ra ge
Ġac id
Ġclear er
Ġaccess ibility
Ġpor n
Ġv eg
Ġautom ated
wach sen
bezogen en
8 7
j ar
Ã¼r zen
Ġden selben
ag ten
Ġsk ip
Ġgemeinschaft sebene
Ġgelegen en
cript ions
Ġbelong ing
Ġentste hung
Ġsub t
Ġbl Ã¼
Ġfit ted
Ġconsolid ated
Ġcerem ony
Ġh ielt
Ġbe wertungen
Ġunter einander
be am
Ġpo cket
Ġend ing
Ġraum fahrt
Ġbehin dert
Ġhazard ous
Ġst yles
Ġmar x
Ġbeg leiten
Ġremed y
f ot
m Ã¤cht
ie v
Ġst ays
Ġau x
Ġvenezu ela
re zeption
Ġtrans mitted
Ġangeb lich
Ġsant iago
a id
a ffung
Ġkind es
ĠgebietskÃ¶rper schaften
k ok
Ġin forme
ĠÃ¼ber geben
Ġtu ber
Ġthorough ly
Ġh ut
Ġauf richt
Ġch rom
Ġpl as
ru he
Ġann ually
Ġpract ically
Ġregel mÃ¤ÃŁige
Ġverank ert
Ġbesche iden
Ġcl uster
Ġvertra ulich
ĠschÃ¤tz ungen
Ġrepar atur
Ġk id
Ġse b
Ġges enkt
Ġur ug
Ġt ies
Ġpay pal
Ġjud ges
e lect
Ġt ube
ap pen
Ġkl Ã¤r
ha fen
Ġfab ric
fir men
Ġchampions hip
ier bar
Ġh Ã¤r
Ġmas ters
Ġconjun ction
Ġre imb
laub nis
Ġbeha upt
Ġkomprom iÃŁ
Ġstellvertreten der
Ġp ig
Ġbis schen
Ġcelebr ate
ĠannÃ¤her ung
Ġm ug
fe hle
Ġprodukt iv
Ġkoordin ieren
Ġm l
ut reiben
az zo
Ġeinzus tellen
s ame
Ġp ausch
Ġein k
Ġange hen
sk a
Ġisrael is
h Ã¤usern
ber ichts
Ġbo ule
Ġdon or
Ġsepar ately
Ġtelecom s
so le
Ġeur atom
Ġbi ologische
arch ite
Ġearth qu
Ġhop ed
ĠgrÃ¶ÃŁ t
Ġstatist ik
Ġpropag anda
Ġk up
Ġorgan en
Ġzwischen zeit
Ġtemper atures
Ġincorpor ate
Ġstren gen
Ġdistin ct
s ituation
prozess es
Ġtoler ance
ill o
Ġes f
Ġange fangen
kon zep
ograph ie
Ġstark es
Ġvorge geben
Ġkonstru ktiven
grÃ¶ ÃŁe
Ġtunes ien
Ġph ant
br Ã¼
spr Ã¼fung
Ġmot ors
Ġern ste
Ġerm ord
Ġer bringen
est one
Ġnach ge
Ġcurr encies
Ġobject ions
Ġtyp ische
Ġobtain ing
Ġjem als
Ġglob ally
Ġd ive
Ġda iry
Ġ8 1
Ġtext iles
minister in
Ġvert ical
und et
igen ce
Ġ3 000
Ġinst ruct
Ġbetr Ã¤ge
Ġca fs
Ġword press
Ġvorher ige
de velop
Ġres ident
Ġ7 9
Ġcongratul ations
isch t
Ġap ache
Ġkop ieren
Ġannoun cement
Ġorch estra
Ġarbitr ary
an wal
Ġein blick
Ġpar ent
Ġthank ing
Ġavoid ing
Ġne o
ill ion
Ġla v
schl Ã¼ssel
Ġspiel te
Ġvorher igen
Ġapprec iated
Ġamts blatt
orient ierte
e ken
Ġan stelle
om a
Ġzu be
Ġdam aged
Ġgrund freiheiten
Ġwelt markt
Ġgute m
Ġgesundheits wesen
kn Ã¼
Ġkro es
Ġges unden
ap pl
Ġspan isch
Ġunterr ichtet
Ġb aut
at ische
Ġab u
ĠÃ¼ber fl
Ġcor rid
Ġislam ischen
Ġconvin ce
Ġdefiz ite
Ġsh er
Ġentwicklung spolitik
Ġanswer ed
Ġweakness es
os a
Ġkonstru ktion
book s
wald ner
ilt on
Ġproced ural
Ġh tel
ere in
ste uern
Ġhe ated
Ġgre ifen
Ġschne e
Ġpen al
Ġsuggest ion
Ġfert igung
Ġlingu istic
Ġr Ã¶
Ġfre ige
Ġ8 9
Ġpassen de
orient ierten
o hne
alt ar
Ġimmer hin
Ġlog os
Ġaufrechter halten
Ġh ide
Ġspe kul
Ġassozi ierung
Ġb iz
Ġarbeit sprogramm
Ġunt uk
Ġroman ian
Ġindisp ens
Ġhe bt
Ġgesch ickt
Ġvolks wirtschaft
Ġessen ce
Ġcoal ition
Ġs laughter
Ġver glichen
Ġstell vertreter
Ã¤ss ige
Ġprom otes
Ġimp etus
Ġcham bres
Ġdiscre tion
Ġcalc ulation
Ġin haft
Ġc um
Ġgeb ir
Ġjeweil ige
inter essen
Ġkred ite
ur ts
Ġz ins
Ġzusammen bruch
Ġdienst stellen
Ġcheck ing
Ġwort laut
Ġveget ation
Ġdisappe ar
rei he
Ġforese en
Ġer ic
Ġex zellen
Ġsepar ation
Ġsent ence
Ġakte uren
Ġnichtregierungs organisationen
Ġbl ame
fra u
Ġbesonder heiten
Ġverhaltens kodex
Ġstret ch
Ġkrit ische
Ġtit an
uz z
Ġ900 1
er re
Ġv r
Ġein wohnern
Ġgovern ed
Ġ9 7
gew alt
Ġz ap
fr on
Ġgegeben heiten
8 1
t ains
ult ural
Ġoptim ierung
Ġg Ã¼n
Ġmon aster
Ġkomfort abel
ĠausfÃ¼hr liche
Ġinspect ions
Ġsowjet union
Ġwork force
Ġuntersuch ungs
Ġtrack ing
Ġbann ed
Ġstr asse
oll y
mÃ¶glich keit
Ġchamp ion
Ġfound ing
leben s
ĠbÃ¼ ros
urop as
Ġconserv ative
Ġausgel Ã¶st
Ġar zt
od ox
Ġintegr itÃ¤t
Ġhaushalts jahr
Ġausgewogen e
Ġso zio
ne ys
Ġtr ies
Ġbill ig
Ġoptim um
entscheid ung
Ġschwed ische
Ġgetr enn
Ġwart ung
iox id
Ġversehen e
c ular
Ġs etzte
Ġunter graben
ĠfÃ¼nf zehn
Ġhom osex
Ġhong kong
m ir
et ra
Ġge omet
Ġgew achsen
Ġeigen schaft
Ġclos ure
Ġzeich nen
Ġtranse uropÃ¤ischen
Ġkinn ock
Ġne pal
Ġgeb ildet
Ġverein igung
Ġglobal ization
Ġre b
Ġwe llen
Ġsch iffen
Ġad mission
Ġlo vers
Ġkosten frei
Ġarchite kt
Ġcer am
Ġabziel t
r in
Ġs ien
Ġc igare
Ġr on
Ġle er
Ġ22 6
Ġvalid ity
Ġrand om
Ġshang hai
t ungs
Ġe fs
haus halts
Ġd ust
Ġr y
Ġres id
Ġbas es
Ġteil genommen
Ġgas es
Ġsurv ival
v it
Ġf usions
Ġbe arbeitet
Ġsk r
Ġinteress ieren
stechn ologie
ĠÃ¤uÃŁer ster
Ġh ire
fr ied
Ġfinanz minister
Ġbekannt lich
Ġschwe igen
ĠschÃ¶n es
Ġbelieb igen
Ġolymp us
Ġteilnehmen den
Ġdurchschnitt lich
Ġunderg o
Ġerb aut
Ġbro ch
Ġrecht lich
Ġmid i
Ġcard iff
u den
Ġeigen em
Ġback up
Ġwettbewerbs verzerr
oun ted
Ġungleich gew
Ġlap top
Ġumge kehrt
Ġpropr iet
h d
l im
Ġent worfen
Ġbel ast
Ġrecip ro
Ġliby en
Ġaus genommen
Ġtechn iken
Ġvorsitzen de
instit ute
Ġwohl be
Ġmos kau
Ġrough ly
Ġin fect
Ġ( )
Ġges unde
Ġlo ved
Ġdistr icts
at in
Ġon t
teil nehmer
tag ung
Ġmeisten s
Ġastr onom
Ġb ac
Ġprivat isierung
Ġped estr
Ġbed ingung
spro jekte
Ġt ens
Ġcon go
Ġvertreter in
t ter
le hnen
Ġsch Ã¤r
liegen den
acc ession
Ġm g
ĠauÃŁen beziehungen
Ġneh me
m und
am ment
Ġnot ify
Ġunter sch
Ġverwirk licht
Ġs id
Ġum wand
Ġcent ro
Ġcredit s
Ġsystemat isch
Ġzuges chnitten
kir che
p us
bes itz
Ġcondem ned
Ġausgleich s
ab a
Ġmehr sprach
Ġsag ten
Ġzufrieden heit
Ġhouse holds
iess lich
Ġsingap ore
Ġd iver
Ġbes tens
ok ol
Ġexpl oring
Ġconstru ct
daten bank
Ġgefol gt
Ġpr Ã¼ft
con tin
Ġdis miss
Ġnachhalt iges
christ ian
Ġkul inar
es tet
Ġm auer
ra chten
Ġle hre
vor gaben
Ġcam bridge
6 1
Ġto w
gen eration
Ġpr ix
pl atten
Ġdist anz
Ġmi xt
Ġhauptz iel
Ġgesamm elt
Ġl d
Ġzu zu
Ġab l
Ġeuropa weit
Ġwechsel kurs
Ġtariff s
Ã¤ chte
Ġhaushalt splans
Ġaccompan ying
Ġro y
Ġfre is
Ġg Ã¶t
den burg
Ġr d
ein heiten
reg ungen
Ġvisit or
Ġtau chen
Ġtut orial
Ġbol k
Ġ Â£
Ġk alten
ĠfÃ¶r m
Ġless on
z iger
Ġun ix
Ġch airs
Ġcr us
Ġvi i
Ġurheber recht
Ġretire ment
kompet enz
in ated
Ġl Ã¼cken
we b
Ġaut on
Ġstaat licher
Ġpartial ly
Ġbeend igung
is ons
Ġin i
Ġbe auftrag
acht ungen
Ġrepr ess
Ġaktiv itÃ¤t
Ġunmittel baren
gesetz ten
h ome
Ġh Ã¤ngen
st Ã¶
Ġangeneh me
Ġurug uay
ic op
Ġanzu gehen
Ġlanz ar
ak h
Ġfa una
teil te
lin ks
Ġeinger ichtete
Ġw ag
Ġf ett
Ġauf gel
Ġfa q
Ġstud ium
Ġcas tell
ĠvÃ¶ ll
Ġangriff e
mill ionen
i ard
Ġmed a
l ings
Ġre fra
port al
Ġrece ipt
Ġbeitritts verhandlungen
Ġs ick
Ġinv ested
Ġstring ent
Ġatember auben
Ġt act
Ġex tends
Ġgesch afft
Ġkn nen
Ġzahl reicher
Ġrand lage
Ġeinheim ischen
Ġbes ide
Ġph asen
Ġplan e
% ).
Ġad her
Ġass ert
als o
ut ter
pro portion
Ġcreat ure
Ġtransl ate
ĠÃ¶k os
Ġdisap pointed
arbeit ete
bÃ¼ ros
Ġerweiter te
j ack
Ġf ate
we iÃŁ
Ġair ways
Ġspecial ities
Ġdra fted
ober flÃ¤che
Ġerne uerung
Ġkoordin ation
gere chte
Ġfried liche
Ġan sch
Ġtre iben
ĠflÃ¼chtl ingen
Ġpix el
ifiz ierte
her ine
Ġintern etzugang
Ġcle ared
Ġruh iger
ch ild
ig o
gr ession
zu frieden
Ġbed ing
Ġscreen ing
parte i
Ġmo od
Ġfl owers
weit erung
Ġmulti annual
Ġqualit ative
Ġcontrovers ial
est het
Ġle uten
Ġro les
ĠgÃ¼lt igkeit
Ġun gen
Ġpl atten
Ġreal isierung
Ġsecur ing
Ġkrit isiert
Ġschwer er
Ġroad map
Ġrenew al
Ã¼berwach ung
Ġnot ion
Ġsub mission
Ġstruktur reformen
im en
Ġgr id
Ġvers etzt
Ġbegrenz ung
ak an
Ġchr is
Ġpet ition
Ġvorzu bereiten
veranst altungen
Ġr ip
Ġgu atem
Ġvis as
Ġtradition ell
Ġeffe ktiven
Ġd um
Ġfe els
ĠmÃ¼ ller
Ġech tzeit
ĠvernÃ¼nft ige
Ġsch Ã¼tzt
Ġgemeinschaft liche
Ġli ikanen
Ġliber ty
Ġgesellschaft liche
Ġos lo
ĠÃ¼ber mittlung
Ġmar y
Ġleit et
Ġersch ienen
Ġv ille
am o
ze hnt
gesch neider
best immung
Ġbeschleun igt
ĠrÃ¼ st
c uss
w ein
Ġstr iking
Ġide alen
Ġlack ing
Ġneut r
Ġtransatlant ischen
Ġgb p
if iable
be fehl
Ġpe er
Ġdurchschnitt liche
Ġgel Ã¤nde
Ġdetermin ing
Ġverbind ungs
Ġ0 3
Ġchr isten
Ġabgeord neter
ĠverstÃ¶ ÃŁt
ĠgetÃ¶ tet
Ġcar los
aut hor
Ġmig uel
Ġkompl iziert
Ġjohannes burg
d os
is ol
Ġin ex
me id
Ġsu cc
Ã¤lt igung
Ġinn oc
Ġwahr nehmung
Ġmoment um
Ġdez entral
Ġan gleich
Ġwenn gleich
lin ess
Ġschl Ã¼ss
ĠhÃ¶ hen
Ġcal a
Ġident ical
d istribution
Ġzus age
Ġlang zeit
Ġort s
Ġhann over
Ġair es
Ġback ed
Ġverhand eln
ĠstabilitÃ¤t spakt
o a
st ahl
Ġdirector ate
Ġethn ischen
flÃ¼ gel
o ted
Ġer mittlung
ub a
leit eten
nehm bar
Ġinfring ements
Ġg Ã¤rten
ver pflicht
Ġger Ã¤ten
Ġbesch reiben
kehr ungen
Ġeinge hend
Ġcann es
Ġvorgesehen e
is ierungen
Ġg t
us ten
sch ra
Ġaus zubauen
Ġak vis
Ġkeines falls
Ġbicy cle
Ġtr ium
ism o
Ġthro w
ĠverknÃ¼ pft
s uite
z usehen
Ġvor kommen
pre ises
Ġerm Ã¤cht
Ġnukle ar
Ġc es
al ys
Ġsil ent
Ġ197 8
Ġedit ing
Ġbolk estein
Ġvor hin
Ã¼n der
Ġdownload ing
Ġangel es
Ġeffekt iver
h att
is y
Ġauf re
Ġout set
Ġtr ennung
Ġfir es
Ġglo be
telle kt
Ġeinger ichteten
Ġindispens able
Ġver ification
Ġeinz iges
Ġinstall er
Ġcertific ates
it Ã¤r
Ġunter nehm
Ġfil ters
bereich s
Ġengag iert
Ġindigen ous
Ġunab ding
Ġeng ere
Ġdatab ases
p ert
Ġ20 50
Ġlaw yers
ordin ation
fehl er
mod elle
ĠvielfÃ¤lt igen
ul ous
Ġer fr
Ġsa il
Ġbest ra
Ġexpress ing
Ġrecommend s
Ġsearch ing
Ġan regungen
Ġpr Ã¼
ad el
Ġbo oth
Ġback ing
Ġangemessen er
Ġambass ador
ck ets
Ġaltern ativ
Ġbezahl ung
Ġbegrenz te
Ġburden s
Ġib iza
Ġhoheits gebiet
e ast
in fo
Ġw ise
Ġeng el
Ġwatch ing
ĠÃ¤uÃŁer ungen
kennt nisse
Ġvorzusch lagen
n as
Ġw Ã¶ch
Ġst range
la ÃŁ
Ġqu artet
Ġgefangen en
Ġbreat ht
Ġerr ichten
Ġausz ur
Ġpic ard
Ġverlei ht
ar o
Ġver ts
am ination
Ġgen f
Ġbar ack
Ġtour en
Ġine quality
ll or
Ġvor mittag
ht ml
tel n
Ġad idas
Ġreal isieren
gesch oss
Ġrecht sprechung
Ġcharacter ized
zy klus
Ġbreatht aking
sch uss
ges tellte
Ġeing abe
Ġsk ill
Ġverk Ã¤ufer
er be
re y
Ġre min
Ġsp ont
Ġdevelop er
ĠÃ¶sterreich ische
Ġerneuer barer
f ens
Ġzu wider
Ġdre ams
Ġincred ible
k andidaten
Ġd icht
Ġunter halten
Ġvereinbar en
) ).
r and
Ġc amer
Ġsa x
Ġcommon ly
Ġdefin itive
Ġhope fully
Ġm ieten
Ġbar o
Ġevalu ierung
tran sport
f it
Ġk ant
Ġi ber
Ġget reten
Ġconf usion
Ġadmin ister
Ġ197 5
crib ed
Ġstab ile
Ġan sprech
Ġrad iation
Ġpaint ings
Ġeinb indung
ĠankÃ¼nd igung
Ã¼ cht
Ġbe legen
Ġre ale
oc kt
Ġkonfl ikten
Ġbang lad
ĠlÃ¤ng ere
Ġintelligen te
in ischen
Ġden s
Ġmo on
Ġall ies
Ġprov ence
Ġgel ernt
ĠzurÃ¼ck kehren
Ġdev isen
fÃ¶r der
Ġassum ed
Ġpenins ula
Ġf Ã¤hrt
Ġo sc
Ġfin est
Ġkommer zielle
m ic
n gl
Ġb ub
Ġbe weise
hen den
Ġlim iting
Ġheimat land
Ġber ufen
Ġdefin itions
Ġoffen kund
Ġbeitritts lÃ¤nder
Ġbedien ung
Ġun ex
Ġr ice
ke eping
ucht ung
Ġwettbewerb spolitik
Ġfal schen
Ġsto od
Ġjugoslaw ische
Ġsudden ly
kompon enten
Ġtues day
al ts
ed y
Ġfin es
Ġben annt
com pl
Ġgre w
sec urity
ĠzuverlÃ¤ss ig
p op
Ġunter halb
Ġiniti ativ
Ġwohn sitz
Ġembar go
Ġindepend ently
Ġdo gs
Ġerreich ten
ĠuneingeschrÃ¤n kte
ĠenttÃ¤us cht
Ġcoin c
Ġtra ils
Ġauf ruf
ath on
Ġord ner
Ġemploye e
Ġbox es
Ġbrut al
ĠentschÃ¤d igung
in as
Ġd elta
un er
Ġg y
Ġg ibr
Ġ0 5
Ġvorher r
ĠvernÃ¼nft ig
ĠtatsÃ¤ch liche
Ġmemor and
Ġbuen os
Ġinakzept abel
Ġg iov
sch Ã¤den
Ġsurv ive
Ġan x
Ġbe legt
Ġsc an
Ġziel setzung
Ġfehl ende
Ġflug zeuge
Ġcy cling
Ġbad ly
Ġgal erie
an ische
Ġg ates
Ã¤m pfe
Ġfuer te
Ġdistort ions
Ġver ify
ab eth
Ġhin der
Ġsim ulation
Ġzivil en
ĠflÃ¼ ge
ro le
Ġauf wand
Ġcomm ander
Ġbro thers
Ġfort unately
spro chen
Ġturn over
Ġclass ification
jÃ¤hr iger
verstÃ¤nd nis
Ġvolks wagen
anspruch nahme
ak u
Ġsup reme
par ts
Ġexec uted
zust and
em s
ut or
Ġtr ennen
Ġakt ions
Ġgrundlegen d
Ġverwe ist
u ber
Ġpriv ater
s wert
Ġlo ud
Ġaccept ing
Ġhil fen
Ġaccep ts
europ a
Ġth ess
Ġh oney
ad r
Ġgeschlossen en
Ġincom patible
Ġtradem ark
w ich
Ġw m
Ġbe wirkt
oten zial
Ġress our
Ġwahrschein lichkeit
Ġapprec iation
Ġent nehmen
ick et
kom plex
Ġfer ry
Ġjahrzehn te
h eld
Ġro lling
Ġarg ued
bas ierte
Ġdead lines
Ġden ied
Ġse kret
oll ah
Ġeinmal ige
Ġsen der
cent ury
Ġfratt ini
Ġn ue
Ġverb ieten
Ġze ugen
Ġthought s
p akete
Ġeuro just
Ġfrankreich s
Ġconsolid ate
ck te
Ġbet ragen
Ġhand werk
Ġfunktion alitÃ¤t
zÃ¼ gen
Ġklass ische
Ġsafeguard ing
Ġt ong
Ġin tellekt
Ġein wÃ¤nde
Ġmo e
oth ers
Ġtext es
Ġfein d
Ġbrut to
Ġver min
Ġwor auf
Ġtr ump
fÃ¼hr ungen
Ġrestrict ion
Ġkompon ente
Ġkranken haus
oc ratic
Ġfol ter
Ġknow ing
Ġcub ase
ĠmÃ¼nd lichen
Ġthir ty
Ġra uch
Ġpass es
Ġwish ing
Ġintrodu ces
Ġign ored
le hr
Ġst ain
Ġhal le
Ġtradem arks
Ġre fined
mitglie dern
har mon
k anz
Ġge o
Ġ9 4
Ġmor atorium
Ġrad i
Ġfla vour
ĠbekrÃ¤ft igen
Ġbureauc ratic
Ġwohlbe finden
st Ã¤
Ġyour s
Ġla eken
Ġausge legt
Ġworth y
ris iko
ĠerwÃ¤hn te
Ġd h
sp ak
Ġad ress
Ġkrit isch
Ġaufrechter haltung
Ġt ension
ter a
Ġauf tritt
ad ian
Ġfre ig
Ġpan asonic
Ġvess el
Ġindones ien
Ġth ai
Ġc ube
Ġan ch
Ġan hÃ¤ng
Ġn ament
ter ing
Ġzu gest
Ġherr liche
eng l
Ġverw Ã¶hnen
Ġprom ising
Ġt um
Ġz ah
il i
ĠÃ¼ber setzungs
Ġsp Ã¼ren
Ġhel icop
Ġgenet isch
Ġacceler ate
Ġconform ity
Ġzube hÃ¶r
d n
Ġun h
Ġst ir
ap t
Ġzum al
Ġzwe imal
Ġmind s
Ġwahr nehmen
Ġwes te
othe ken
Ġoverwhel ming
olog ies
Ġkl uft
Ġstar tet
under ing
Ġkonserv ativen
8 4
Ġk ick
ĠÃ¼ber setzungen
ob yl
ca ution
vielf alt
arth otel
m ay
Ġv ierte
Ġk alk
Ġdes per
Ġgegen wart
Ġeing angs
Ġglau bt
Ġcriter ion
intern et
Ġvoy ager
Ġp es
Ġto y
iss are
ip end
Ġgelegen e
Ġs ister
Ġtra ur
Ġverb and
Ġinternet seite
Ġschm id
ky o
Ġholl y
Ġdistribut ors
Ġste fan
Ġmenschen handel
Ġsector al
Ġvors orge
Ġbeweg ungen
l isten
Ġein f
Ġpr ies
Ġle der
Ġev il
Ġzusammen fassung
Ġgra ve
Ġdopp elt
Ġfreiwill ige
f lex
Ġz igare
ess el
Ġfr ische
Ġeing reifen
Ġange ben
Ġtalk ed
Ġneues te
Ġabandon ed
Ġirres pective
f ile
Ġbest ands
Ġunterst richen
Ġversch ieben
Ġmobil telefon
Ġbesitz er
Ġnach folger
per ten
Ġtre mend
mÃ¤ÃŁ igkeit
Ġn ennt
Ġim aging
sp otenzial
Ġhoch zeit
Ġgl Ã¤ub
Ġvoranz utreiben
Ġg iant
Ġz ip
gen ehm
Ġab und
Ġ196 7
ĠÃ¤lt esten
Ġanmel den
e ktor
ar ios
Ġsin cer
Ġprof iles
ĠgrÃ¶ÃŁten teils
beauftrag te
Ġaer os
Ġtenden z
Ġvorzu gehen
Ġhunt ing
p rom
itz ung
sch alter
Ġdesign ers
Ġspezial isten
Ġbio fu
Ġscen ery
Ġlandscap es
Ġab zuschlieÃŁen
ĠmÃ¼ ÃŁte
Ġhect ares
ĠallmÃ¤h lich
ter ror
Ġdritt lÃ¤nder
wissen schaften
hel m
Ġo asis
Ġpl ot
ian ische
Ġbeg ab
Ġkol onial
Ġober ste
Ġath ens
Ġdiam ant
Ġf are
ort ium
ern obyl
Ġkommun al
Ġsam ples
Ġer mÃ¤ÃŁ
Ġens hr
Ġ12 5
spiel er
Ġd ish
Ġal c
Ġinter ven
Ġman ipulation
Ġac ted
gesch windigkeit
Ġauthor ized
Ġvorhanden e
Ġab gel
Ġzus amment
Ġadv ances
Ġluft verkehr
Ġcat herine
Ġpalest ine
__ __
w Ã¤l
Ġin kl
Ġunter zeichnen
Ġweit em
Ġzwe cken
Ġappro ves
Ġtele kom
Ġbewerber lÃ¤nder
Ġk all
Ġind ications
Ġsk illed
Ġdienst ag
ĠÃ¼berschreit en
Ġd ot
Ġbe hold
Ġaus kunft
Ġap pr
pro jekten
Ġarr iving
Ġtell s
Ġexklus ive
Ġunanim ous
Ġt in
sch es
Ġap arthotel
Ġjust ification
br ing
less ly
Ġsecret ariat
Ġverhin derung
g ab
n ov
Ġs q
ter y
Ġstr ive
Ġjahr zehnt
Ġclar ification
Ġparlamentar ische
ĠverzÃ¶ger ung
Ġv ass
Ġre ar
Ġau ction
Ġzu gewiesen
wick elt
Ġfest halten
Ġnatur katastrophen
Ġdol met
Ġratsvorsitz es
Ġwelthandels organisation
ĠsachverstÃ¤nd igen
betre uung
Ġsimb abwe
t urn
Ġm au
Ġin anspruchnahme
Ġh ug
be weg
Ġnational es
Ġgre y
Ġzu hause
Ġcl ip
Ġehrgeiz ige
Ġt an
Ġad s
Ġihr erseits
Ġoff shore
ry er
Ġbereit gestellten
b Ã¶
m nisse
w ed
Ġt l
Ġin con
be isp
Ġbegr enzen
folger ung
Ġeingehen de
d ig
ge hÃ¶r
Ġim porte
Ġauf nahmen
pl ans
leich en
tem per
Ġvict or
ĠnÃ¼tz liche
Ġquad rat
Ġbiotechn ology
Ġimmen se
Ġan zeichen
ra cies
Ġbuch ungs
Ġbedau ere
g on
un ia
re dit
Ġapplic ants
Ġt iny
Ġal f
ger y
Ġnord ir
bu ÃŁen
Ġul tr
ch ina
Ġge holfen
Ġman o
Ġur an
Ġ197 6
ĠÃ¤r zte
Ġstraft aten
Ġinst anz
Ġcol onial
ĠÃ¼b lich
mess er
Ġal ive
Ġnutz bar
Ġbol iv
ladim ir
b rechen
Ġein richten
Ġvers icherung
Ġlibr aries
er ed
it ably
Ġg aps
Ġk w
Ġl ido
ord nungen
Ġsec ured
Ġpresent ations
ief st
sa w
Ġkon tra
Ġvot re
6 3
Ġw Ã¼
Ġl ub
Ġre pos
Ġauf teilung
ste uerung
Ġwo fÃ¼r
Ġhand lung
Ġany way
Ġfinanz ierungen
Ġend et
Ġint u
Ġarchite kten
Ġlegitim itÃ¤t
Ġenthus i
Ġsh ame
iger weise
Ġ198 2
Ġattra ktionen
ĠgewÃ¼n scht
Ġbeauft ragt
Ġdis mant
intens ive
Ġeinfl uÃŁ
Ġk andid
ste p
Ġanh Ã¤nger
Ġarbeit ete
Ġober sten
Ġlimit ations
Ġautomob ile
Ġpreserv ation
un en
Ġre jection
wo hnt
Ġsol ving
Ġvoll endung
Ġwettbewer ber
Ġfair ness
Ġf lieÃŁen
Ġk ernen
Ã¤t igung
Ġamb itions
Ġexklus iven
ĠverschÃ¤r ft
ut ors
Ġauf z
tra de
Ġchem ie
Ġvict oria
Ġperman ently
Ġfill ing
Ġbef est
Ġdee per
Ġzut iefst
Ġbann er
un s
sp reis
pl attform
Ġcl iff
Ġgu ant
Ġhor r
a um
Ġr end
Ġpro be
Ġoper ative
Ġcooper ative
ĠverstÃ¶ ÃŁe
Ġverschlechter ung
Ġimpr ison
Ġpre caution
recht liche
Ġschwimm bad
n n
Ġt il
Ġrechts etzung
Ġbit ter
Ġlim itation
Ġten er
Ġunmittel bare
Ġmilose vic
Ġgegen stÃ¤nde
Ġgel Ã¶
com pass
Ġbl ow
Ġans Ã¤tze
Ġjahrhunder te
Ġfru its
Ġtempl ate
k Ã¼r
m ungen
Ġwor ding
fahr ung
Ġgleich zeit
Ġnum er
Ġnatur schutz
verhÃ¤lt nisse
n utzen
Ġi kt
Ġteil nehmern
Ġjun cker
Ġan reise
Ã¤nd ischer
mar ken
Ġdef ending
Ġrund funk
Ġwholes ale
aus wahl
Ġfo ught
Ġvers etzen
Ġdel icate
Ġ15 00
d in
Ġb og
Ġg umm
Ġab hÃ¤ngen
mach ung
Ġargentin ien
Ġk amer
ge ist
Ġcomple ting
Ġsl ip
Ġaugen merk
Ġrob ot
Ġpill ars
reb ungen
prof it
Ġchic ago
der ten
Ġcomm end
Ġme tern
Ġplen ars
Ġviv iane
if er
Ġint im
Ġwid th
Ġcorrespon d
Ġgeziel t
ĠgeschÃ¤tz t
Ġrecruit ment
Ġl ays
Ġwork er
Ġtermin als
Ġauszu Ã¼ben
Ġgather ed
ĠwÃ¼nsch enswert
m ember
in dex
Ġref und
Ġclass ified
Ġdiv ide
** **
Ġautomobil industrie
Ġfok us
Ġlanzar ote
Ġauf stellung
Ġne ug
Ġinteress ierten
Ġun real
berichterst atter
/ -
w c
Ġpar c
Ġdurch gesetzt
Ġvert ief
Ġsorgf alt
j ahre
Ġexpress es
ĠunterdrÃ¼ck ung
ĠsÃ¤u le
Ġdement sprechend
c ultural
Ġge leg
Ġno u
icher ten
ĠprÃ¤ vent
Ġgibr altar
Ġfor b
Ġlo hnt
fl otte
Ġtim or
Ġries ige
Ġignor iert
Ġstrukture llen
au chen
Ġunter en
Ġbesuch ern
Ġtransform ed
Ġwarrant y
deutsch land
Ġb ust
Ġg Ã¤ng
ubl es
Ġfl ower
ĠÃ¼br ig
netz es
Ġlandwir ten
Ġsystemat ically
Ġcockt ails
Ġw iden
Ġz ell
Ġyo ut
we ight
Ġbas il
Ġposit ives
Ġentscheidung strÃ¤ger
Ġsem ester
ĠbefÃ¼r cht
Ġtau ght
Ġfla ir
] .
g Ã¤ngen
j amin
w inkel
Ġd na
Ã¼n ften
Ġ20 30
Ġbo ots
Ġcivil ians
Ġanf Ã¤
Ġun ified
st age
Ġyou ve
Ġgen ossen
fÃ¼hr enden
Ġfu j
stÃ¤t te
es ischen
Ġaus bruch
Ġho le
hol ding
Ġbetre ibt
Ġweap on
Ġtrink wasser
Ġl amp
Ġverw altungen
Ġmu y
Ġmunicip ality
7 00
Ġwenig stens
Ġtier schutz
Ġexhib it
eto oth
l angen
t al
Ġg ib
Ġaus schlag
Ġta kt
Ġsteigen den
Ġreiter ate
Ġmangeln de
Ġxen ophob
, ...
Ġcon fort
Ġdeut licher
Ġverkehrs mittel
ver mÃ¶gen
Ġkon vert
Ġbeste hend
Ġdeal ers
Ġlink ing
Ġan rufen
ge legen
be lla
Ġdi abet
Ġgu ilt
Ġsozial fonds
zus prechen
Ġru led
Ġetwa ige
Ġos ze
Ġbeschluss fassung
Ġexklus iv
Ġinterview s
Ġlicens ing
ig u
Ġsau bere
verl ust
Ġmemorand um
Ġkon dition
Ġreal ized
Ġtradition ally
Ġemphas ises
!! !
Ġre ifen
ah a
Ġty rol
Ġveranst altet
Ġprivile g
ch nen
an er
Ġaus kÃ¼nfte
Ġacc used
pfl anzen
ĠgepÃ¤ck raum
Ġkohlen stoff
a q
Ġdo z
Ġel imination
Ġoperation en
ĠverstÃ¤nd lich
Ġvorange gangenen
% ),
Ġe ating
sch ir
Ġpr ide
Ġdem nach
Ġinst and
bl og
pre isen
Ġca pe
Ġre ine
gel te
Ġkons umenten
Ġindire kt
ĠlÃ¤ng st
Ġeinzigart ig
Ġro aming
Ġko ennen
Ġvol umen
Ġanb ietet
Ġbeob achtungs
ĠvielfÃ¤lt ige
d rop
Ġb ugs
Ġf f
Ġk alender
Ġein reise
he ar
Ġstaats bÃ¼rger
ĠbenÃ¶t igten
Ġdiv isions
Ġincom es
Ġfoss il
Ġthess alon
o use
Ġse ed
Ġyoung er
ĠfrÃ¼ hl
Ġreprodu ction
Ġcool ing
Ġdistingu ished
Ġdurch setzen
Ġact or
Ġ6 9
Ġshe ep
ĠbevÃ¶lkerungs gruppen
Ġcompliment ary
Ġwork place
Ġunivers e
Ġdelay ed
Ġbegeister t
Ġcul inary
Ġprol ong
Ġre tr
ill er
Ġsocial ly
Ġestablish ments
Ġref usal
ĠauÃŁergewÃ¶hn liche
Ġcloth es
Ġdefect s
Ġle ichten
ern et
Ġpre gn
Ġpress ures
Ġkonzept ion
ir at
ill ing
Ġsho es
Ġbre men
ĠprÃ¼f ungen
m d
r Ã¤
Ġdis ziplin
Ġvo ices
bl as
ĠunverÃ¤nder t
ĠtragÃ¶ die
Ġb oss
Ġg att
Ġv od
Ġk f
Ġwe igh
Ġab geb
Ġmessen ger
st het
de c
n Ã¤chst
Ġr unden
Ġstellen wert
Ġangeb ots
Ġregrett able
op f
Ġpos ed
Ġsc andal
Ġarch ae
Ã¼t ter
mus ter
Ġreimb urs
Ġar sen
Ã¤t ter
Ġwar tet
Ġmed i
ahrschein lich
Ġy or
ĠÃ¼ber setzt
ap el
Ġur ged
Ġnachhalt iger
Ġerinn ere
Ġverh Ã¼tung
condition ed
unters uch
v ie
re aching
Ġbe ars
ber ry
Ġimpact s
Ġtrial s
Ġpersonenbezogen en
c ore
an sprÃ¼che
Ġstru ck
bo ards
Ġfood stuffs
Ġ17 0
bet rieben
ĠgÃ¤ be
Ġdro ht
Ġfrequ enz
Ġload ing
Ġww u
h ein
Ġer re
Ġex clude
Ġsh ore
Ġinter faces
be y
Ġcol um
Ġdep endence
wa ve
Ġsevent h
Ġa esthet
Ġun schuld
uss y
Ġgr upp
be hr
ied lung
kl agt
ibl en
Ġveter in
w icht
Ġz oo
Ġr ut
ess ed
Ġzw ing
med ia
Ġdomin ated
Ġerf assen
Ġenem y
Ġp ub
Ġp estic
Ġin l
Ġk ings
Ġfor me
Ġgew ahrt
Ġdiffer ently
Ġcontinu ity
Ġswimming pool
Ġgeziel te
an cies
ans atz
Ġstabil en
Ġju den
Ġka ffe
Ġchem ischen
Ġun just
pf er
res ted
Ġwal ks
Ġirgendwel che
c ements
le ading
if ikations
ond o
Ġprivat isation
Ġereign issen
Ġqualifiz ierter
z Ã¶
ch ange
Ġto lle
Ġr ival
Ġha ust
ad ed
Ġiniti ate
ĠÃ¤ sthet
Ġpass ive
ifiz ierten
rechts vorschriften
Ġ196 8
Ġbegrenz ten
Ġdisadvant aged
is her
Ġun klar
Ġto kyo
lich sten
Ġwir t
Ġfa kt
Ġprote in
Ġsepar ated
vide o
c te
Ġb old
Ġer ika
im me
Ġaus stellungen
Ġeinz eln
Ġindic ator
Ġprim Ã¤r
y ard
Ġan streben
ol en
est a
Ġne ph
Ġdem nÃ¤chst
Ġch er
Ġser ial
Ġdang ers
Ġemotion al
Ġcommod ity
Ġse villa
Ġwe ve
Ġinst ability
Ġwed ding
Ġgu y
Ġfol k
Ġhotels afe
Ġallgemein er
Ġtim ing
ti rol
Ġcontin ually
Ġgenau en
Ġdon au
Ġinfluen ced
Ġkorre kte
angehÃ¶r igen
berat ung
Ġst amp
med ien
Ġsubst anzen
Ġtransparen te
Ġconcess ions
Ġc iv
kl ing
ĠgefÃ¤ llt
Ġinter act
Ġwhat s
Ġsaf ely
wind igkeits
Ġhalb insel
m ind
Ġl ichte
ver y
Ġab wasser
aus end
Ġhinter lassen
Ġjugend her
Ġanfang s
Ġreinfor cing
ĠzuverlÃ¤ss ige
k Ã¼rz
Ġpal azzo
Ġtro ck
ĠgrÃ¼n der
Ġfreund lichen
ĠtÃ¼rk ische
Ġangleich ung
l ong
Ġ ion
Ġst Ã¶
Ġte lling
Ġeing riff
Ġbed arfs
Ġhar te
Ġconv iction
fun ction
h ire
Ġt abellen
Ġman hatt
ac a
ac ent
Ġberichterst attung
Ġdist urb
Ġjud g
Ġped ro
Ġbenachteil igten
Ġabwechs lungs
Ġoppon ents
k ampagne
Ġs wo
Ġkomm issare
Ġind ischen
Ġmail and
Ġverabschied eten
Ġzwangs lÃ¤ufig
ĠnÃ¤h ere
Ġyout ube
n oten
Ġre vers
Ġch art
Ġtr iple
Ġdam aging
Ġverschieden sten
Ġfolgen ab
Ġfahr zeugen
Ġkap it
Ġitalien s
Ġcoordin ating
ĠsÃ¤mt licher
stock ung
ĠkohÃ¤sions fonds
Ġniel son
b row
Ġas c
Ġsch ie
Ġerst atten
Ġvereinbar keit
Ġideal er
ĠtÃ¤tigkeit s
Ġcelebr ated
Ġdele ted
ĠhÃ¤uf iger
l Ã¤ÃŁ
m Ã¤n
um mer
Ġwas h
zu folge
Ġbas ierend
ĠverhÃ¤lt nisse
Ġdatenbank en
Ġgam bling
Ġver mehr
Ġr al
Ġleg acy
Ġbal i
Ġpass age
Ġsus pect
Ġin du
Ġbo b
Ġfran co
Ġhoch schule
Ġrang es
ĠgÃ¶ te
ed rale
Ġarch Ã¤
Ġermut igt
Ã¶ pfen
Ġintens ity
Ġcollect ions
Ġven ue
ĠgeÃ¤nder ten
b ing
Ġal ert
Ġsch au
Ġsch rieb
Ġtechn ically
Ġmain tains
Ġschwar ze
schiff e
Ġverpack ung
Ġhors es
Ġse kund
Ġfra cht
Ġav ant
mar ke
Ġliber ties
Ġgesundheits versorgung
erzeug nissen
Ġenthusias m
d imension
ment ioned
Ġnational ity
Ġbew undern
Ġaus ter
Ġlie bl
Ġblu etooth
o chen
ar ning
im ents
Ġfl our
Ġover seas
Ġkomple tten
Ġunfort unate
Ġklo ster
er hÃ¶
Ġse gel
b ike
Ġc el
Ġte en
Ġniedr ige
Ġdire kter
Ġko al
Ġfur cht
Ġzivil isation
Ġanp assungs
binnen markt
Ġvorred ner
k inder
Ġte ch
og an
og ether
Ġmar riage
gem Ã¤
Ġmal m
Ġreach es
fil ter
ĠerwÃ¤ g
ĠpalÃ¤st ina
Ġfestge halten
Ġimper ative
itu ationen
Ġkrist all
Ġc attle
ap h
Ġrespon ding
Ġgra z
Ġtemper aturen
Ġanders wo
Ġbiok raft
as pe
Ġsich erstellung
pr in
ĠpalÃ¤stinens ische
commun ity
Ġom n
Ġabgesch afft
Ġtreibhausgas emissionen
Ġg oth
Ġun vor
os ion
igen en
oc o
ett a
Ã¤m mung
Ġwirtschafts zwe
Ġkonkre ter
Ġlic ences
Ġorient ierung
Ã¤glich keit
Ġd imin
ig nen
d oc
Ġt ighten
Ġb ib
il o
Ġar rested
Ġcan y
Ġgew Ã¤hlte
Ġfern seher
Ġeffe kte
Ġhosp itals
Ġc rop
Ġbre iter
Ġgemeinschafts rechts
miss ible
Ġmonopol y
anw alt
Ġp ont
ied elt
Ġreal istisch
Ġcla uses
Ġbio technologie
Ġlaufen de
Ġwav es
Ġzimmers ervice
Ġst roll
Ġch ances
Ġput ins
Ġsex uellen
h igh
ie th
Ġin te
Ġst ieg
Ġaus machen
Ġacc umul
gar ve
Ġtag ungs
Ġprot oty
Ġkommun istischen
Ġn Ã¤hr
am ed
Ġhilfs bereit
la im
Ġcour ty
Ġsee verkehr
Ġmiss ed
Ġobsta cle
Ġeingere ichten
as che
sch wer
Ġwill kÃ¼r
lin der
Ġged uld
ĠentschlieÃŁ ungen
Ġpreserv ing
on ik
Ġkur se
Ġengl ische
Ġinf os
Ġt ensions
Ġver sprochen
Ġabs ichten
ĠgeschÃ¤fts bedingungen
Ġexpect s
Ġkredit karten
ĠgrÃ¼nd lich
Ġvac uum
Ġr in
her z
ple te
Ġindustrie politik
Ġdemand ed
Ġkill ing
Ġgeein igt
Ġis ch
Ġfor en
ein schlieÃŁlich
enn a
he ast
Ġgesch eit
Ġdra ma
Ġhit ler
el en
ge fÃ¼hl
Ġgleich wert
Ġimplement ierung
Ġcas inos
Ġtats achen
Ġgelegen heiten
Ġill ust
ge halt
Ġkon vents
Ġmon d
let te
kan al
ĠwÃ¼n scht
ĠzukÃ¼nft ig
Ġbenach bar
Ġbug tra
Ġkonfigur ation
Ġignor ieren
Ġbedauer licherweise
perform ance
Ġc ens
Ġbes etzt
Ġins ight
verb Ã¤nde
ĠbÃ¶r sen
ste iger
Ġtr s
ĠauswÃ¤rt igen
Ġcook ie
beschÃ¤ft igung
Ġsarko zy
Ġx v
schn itte
ĠbedÃ¼r fen
Ġolymp ischen
Ġs ang
it ives
Ġden y
Ġmehr mals
Ġget estet
fra me
off icial
Ġoptim alen
Ġhom ogen
Ġzentralbank en
Ġt one
Ġsp ark
Ġret tungs
Ġdra ht
Ġmar ie
Ġmat ches
Ã¤u fen
Ġfurn ish
Ġtransparent er
Ġgetroffen en
Ġbound aries
Ġjack son
Ġindirect ly
Ġinev itably
Ġdau ghter
Ġs ic
Ġein ladung
Ġfore casts
Ġinstall ing
ĠschlieÃŁ e
Ġverbind lich
Ġf els
for sch
Ġschnell es
wÃ¼rd ig
Ġdv ds
Ġt ah
Ġh tt
Ġfran ch
stÃ¤r ke
en ergie
or ben
Ġj on
Ġvor ne
Ġbef reit
Ġform el
Ġdeb att
Ġfinn ischen
b ibliothe
f at
Ġc ass
Ġg reift
Ġy ield
Ġen ch
Ġmo dem
Ġos ce
Ġlisten ed
Ġtribun al
* ,
Ġj r
lo v
Ġchance llor
Ġm ud
Ã¤ he
Ġinstit utes
Ġ197 3
stre aming
ul icher
con i
fin der
Ġunters agt
Ġvorbereit en
Ġflood s
Ġan weisungen
Ã¶ glich
Ġgener ic
Ġ7 3
Ġrechts akte
Ġsk la
mon th
ifiz ierungs
Ġgering fÃ¼g
Ġdete ct
Ġeffektiv itÃ¤t
appro pr
ph ot
Ġweiter gegeben
Ġmethod ology
Ġqualifiz ierten
o ÃŁen
Ġb olog
ss ystems
Ġloc ally
Ġreal ised
Ġsm oke
fir st
Ġde k
qu est
Ġen compass
Ġadm ir
ĠmÃ¼nd liche
Ġro sen
igt es
Ġ198 3
Ġselect ing
Ġbot schafter
Ġgek auft
Ġaffil iate
Ġob l
ell a
Ġauszu arbeiten
Ġbegriff e
Ġkorrig ieren
Ġin k
Ġl on
Ġer bringung
ho uses
Ġprin ter
ĠsÃ¼ ÃŁ
Ġfortsch ritten
Ġklar es
Ġox ford
Ġinteroper ability
ar ab
Ġdel ivers
Ġport able
ĠhÃ¶chst ens
Ġvertie fen
th is
ious ly
Ġtro ika
Ġiran s
Ġverbesser ten
Ġersch ien
Ġbutt ons
Ã¶ ten
Ġy a
Ġnach voll
Ġro sa
ru fe
Ġlang jÃ¤hrige
Ġgesam theit
Ġbetrieb ssystem
Ġalm unia
Ġweihn achts
Ġg mo
Ġein bringen
ver zeichnis
rat ors
Ġ198 1
fa ktor
Ġmotiv ated
y ou
Ġl ese
ie gs
al p
Ġn er
Ġre un
Ġfl otte
isl auf
Ġdienst es
Ġapart ament
Ġschol ars
Ġkernen ergie
k g
Ġd une
Ġm n
Ġsp uren
ack en
Ġ7 1
Ġprin ce
Ġfair er
Ġamb ience
Ġvertief ung
Ġukra inian
uropÃ¤ ische
Ġsto ffen
Ġverpack ungs
Ġk und
um gebung
Ġab uses
Ġdis proportion
ĠwÃ¤hr ungen
Ġvol umes
Ġvic inity
Ġj ub
Ġconstit u
fÃ¶r m
Ġreihen folge
Ġw Ã¶rter
Ġand auern
ed ed
Ġweit erg
Ġstar ker
Ġactiv ated
Ġca ve
Ġaufge fÃ¼hrten
Ġpfl anz
Ġparad ies
Ġconfig ure
g row
s yn
Ġe po
Ġer fassung
Ġherstell ern
Ġeleg ance
Ġfel sen
garant ie
Ġe cke
Ġg ad
Ġcr es
Ġdynam ischen
spart nern
bÃ¼ cher
Ġfem in
Ġs ans
Ġg itar
Ġn h
Ġto ys
Ġge forder
Ġsh elter
discr imination
Ġm peg
ab geord
Ġent lassen
Ġra v
Ġdefin es
ĠÃ¼bersch ritten
Ġe ll
ion i
Ġzu bereit
iel ds
Ġinnov ativer
Ġdemonstr ations
Ġcount less
in haber
igen den
me ter
Ġtr Ã¤ger
Ġrad ikal
Ġhinzu weisen
us sten
Ġaus schlieÃŁ
man ag
Ġversch oben
Ġhen ry
Ġvorsicht ig
Ġherange hen
Ġs ak
Ġn t
Ġzu kommt
Ġher berge
Ġfinanz rahmen
Ġexception ally
g eln
s pekt
Ġ4 379
br Ã¤
Ġregul ator
Ġbank rupt
rol og
Ġschul ung
Ġanz usehen
Ġske pt
Ġne elie
Ġson t
Ġaccom od
Ġausgew Ã¤hlte
Ġrig orous
Ġn ich
der e
Ġzusammen halts
Ġoptim ieren
Ġerfahr ungs
Ġfire wall
Ġbedro hungen
Ġfrag ile
Ġangest reb
Ġsien a
Ġauf bew
ĠÃ¼ber arbeitet
Ġsup ran
Ġcompet ing
Ġkey board
Ġwohl er
ĠprÃ¤sidentschaft s
r ung
et ts
Ġfor tress
Ġwill ens
lin ing
Ġzahl t
Ġafr ikas
Ġkar ls
Ġmusic ians
f rank
Ġha gue
Ġzusammen gef
Ġbeach tet
Ġtex as
acion es
Ġverbleib enden
geb ir
Ġverl iert
Ġmer kel
Ġemp ower
Ġcompetit ions
Ġerwer bst
Ġstraf gerichtshof
stu fe
archite ktur
Ġfe ucht
Ġakzept abel
Ġath let
Ġengag ieren
Ġunanim ity
mot or
ul ichen
Ġmar ried
Ġalle v
Ġcarr ies
Ġschrift lichen
Ġpoln ische
beweg ungen
Ġthessalon iki
Ġver teilen
amer ikan
Ġarzneimittel n
Ġartik eln
Ġform ing
Ġstat istischen
Ġbekannt esten
l ow
Ġbe lle
Ġtr il
Ġfundament ally
Ġverbunden e
Ġverbreit en
beschrÃ¤n kungen
Ġex isted
Ġport ion
Ġentsprechen der
Ġker am
ĠÃ¼bereinst immen
Ġe ld
Ġc ran
Ġge achtet
ign ano
Ġpre ference
Ġaut over
Ġunbe grenz
Ġdiagn ose
ĠzerstÃ¶r en
Ã¤mpf er
ĠgewÃ¶hn lich
ĠgÃ¶te borg
Ġp t
Ġz en
Ġjud ic
Ġstreit krÃ¤fte
Ġangest rebt
Ġtrium ph
s ol
s id
Ġbe ver
ic ion
icht ungs
Ġum frage
Ġtra ders
Ġsta v
Ġwahr genommen
Ã¤cht igen
Ġcontract ing
Ġgriechen lands
Ġhochrang igen
[...]
