{
  "[PAD]": 0,
  "[BOS]": 1,
  "[EOS]": 2,
  "[UNK]": 3,
  "!": 4,
  "#": 5,
  "$": 6,
  "%": 7,
  "&": 8,
  "(": 9,
  ")": 10,
  "*": 11,
  "+": 12,
  ",": 13,
  "-": 14,
  ".": 15,
  "/": 16,
  "0": 17,
  "1": 18,
  "2": 19,
  "3": 20,
  "4": 21,
  "5": 22,
  "6": 23,
  "7": 24,
  "8": 25,
  "9": 26,
  ":": 27,
  ";": 28,
  "?": 29,
  "@": 30,
  "[": 31,
  "\\": 32,
  "]": 33,
  "_": 34,
  "a": 35,
  "b": 36,
  "c": 37,
  "d": 38,
  "e": 39,
  "f": 40,
  "g": 41,
  "h": 42,
  "i": 43,
  "j": 44,
  "k": 45,
  "l": 46,
  "m": 47,
  "n": 48,
  "o": 49,
  "p": 50,
  "q": 51,
  "r": 52,
  "s": 53,
  "t": 54,
  "u": 55,
  "v": 56,
  "w": 57,
  "x": 58,
  "y": 59,
  "z": 60,
  "{": 61,
  "|": 62,
  "}": 63,
  "\u00a3": 64,
  "\u00a4": 65,
  "\u00a5": 66,
  "\u00ac": 67,
  "\u00b6": 68,
  "\u00bc": 69,
  "\u00c2": 70,
  "\u00c3": 71,
  "\u00e2": 72,
  "\u0120": 73,
  "\u0124": 74,
  "\u0141": 75,
  "en": 76,
  "er": 77,
  "in": 78,
  "\u0120a": 79,
  "\u0120d": 80,
  "\u0120t": 81,
  "ch": 82,
  "\u0120s": 83,
  "on": 84,
  "es": 85,
  "\u0120th": 86,
  "un": 87,
  "\u0120w": 88,
  "it": 89,
  "is": 90,
  "\u0120b": 91,
  "at": 92,
  "\u0120the": 93,
  "re": 94,
  "ie": 95,
  "an": 96,
  "\u0120m": 97,
  "or": 98,
  "\u0120f": 99,
  "\u0120e": 100,
  "\u0120p": 101,
  "\u0120in": 102,
  "\u0120o": 103,
  "\u0120c": 104,
  "al": 105,
  "ion": 106,
  "ar": 107,
  "\u0120h": 108,
  "\u0120an": 109,
  "ich": 110,
  "te": 111,
  "ro": 112,
  "\u0120g": 113,
  "\u0120un": 114,
  "\u0120v": 115,
  "le": 116,
  "as": 117,
  "\u0120n": 118,
  "ent": 119,
  "us": 120,
  "\u00c3\u00bc": 121,
  "\u0120of": 122,
  "\u0120die": 123,
  "ur": 124,
  "ung": 125,
  "\u00c3\u00a4": 126,
  "ing": 127,
  "\u0120der": 128,
  "\u0120be": 129,
  "\u0120to": 130,
  "\u0120and": 131,
  "ll": 132,
  "\u0120z": 133,
  "om": 134,
  "\u0120k": 135,
  "ig": 136,
  "\u0120und": 137,
  "ed": 138,
  "\u0120i": 139,
  "ic": 140,
  "st": 141,
  "\u0120l": 142,
  "\u0120ein": 143,
  "em": 144,
  "el": 145,
  "\u0120re": 146,
  "ra": 147,
  "\u0120is": 148,
  "ter": 149,
  "ir": 150,
  "et": 151,
  "ut": 152,
  "ation": 153,
  "il": 154,
  "ten": 155,
  "eit": 156,
  "der": 157,
  "ol": 158,
  "um": 159,
  "\u0120st": 160,
  "\u0120ver": 161,
  "den": 162,
  "ge": 163,
  "sch": 164,
  "\u0120r": 165,
  "am": 166,
  "ct": 167,
  "\u0120au": 168,
  "ies": 169,
  "hr": 170,
  "\u0120for": 171,
  "ber": 172,
  "\u0120pro": 173,
  "iv": 174,
  "\u00c3\u00b6": 175,
  "ul": 176,
  "de": 177,
  "lich": 178,
  "\u0120eu": 179,
  "\u0120das": 180,
  "isch": 181,
  "\u00c3\u00bcr": 182,
  "\u0120zu": 183,
  "\u0120er": 184,
  "ab": 185,
  "omm": 186,
  "\u0120on": 187,
  "gen": 188,
  "ier": 189,
  "\u0120den": 190,
  "im": 191,
  "icht": 192,
  "ot": 193,
  "ess": 194,
  "\u0120im": 195,
  "est": 196,
  "\u0120al": 197,
  "and": 198,
  "pe": 199,
  "\u0120se": 200,
  "\u0120wir": 201,
  "\u0120j": 202,
  "\u0120mit": 203,
  "\u0120we": 204,
  "os": 205,
  "\u0120so": 206,
  "ce": 207,
  "ly": 208,
  "\u0120that": 209,
  "id": 210,
  "\u0120auf": 211,
  "\u0120von": 212,
  "ere": 213,
  "\u0120con": 214,
  "\u0120wh": 215,
  "ach": 216,
  "\u0120euro": 217,
  "\u00c3\u0141": 218,
  "\u0120de": 219,
  "\u0120it": 220,
  "ort": 221,
  "\u0120ge": 222,
  "ver": 223,
  "\u0120f\u00c3\u00bcr": 224,
  "ff": 225,
  "kt": 226,
  "iss": 227,
  "\u0120y": 228,
  "\u0120des": 229,
  "ft": 230,
  "\u0120as": 231,
  "ith": 232,
  "\u0120ne": 233,
  "\u0120co": 234,
  "\u0120dies": 235,
  "\u0120with": 236,
  "ow": 237,
  "\u0120ist": 238,
  "ill": 239,
  "\u0120aus": 240,
  "men": 241,
  "\u0120sch": 242,
  "\u0120pr": 243,
  "\u0120ha": 244,
  "\u0120(": 245,
  "\u0120sie": 246,
  "ers": 247,
  "\u0120le": 248,
  "\u0120are": 249,
  "\u01201": 250,
  "ein": 251,
  "ay": 252,
  "\u01202": 253,
  "qu": 254,
  "ve": 255,
  "ungen": 256,
  "ind": 257,
  "ate": 258,
  "ck": 259,
  "\u0120this": 260,
  "\u0120par": 261,
  "00": 262,
  "ist": 263,
  "ment": 264,
  "\u00c3\u00bcber": 265,
  "up": 266,
  "ischen": 267,
  "ik": 268,
  "\u0120yo": 269,
  "\u0120ex": 270,
  "\u0120en": 271,
  "op": 272,
  "ien": 273,
  "ad": 274,
  "\u0120wer": 275,
  "\u0120ab": 276,
  "\u0120eine": 277,
  "th": 278,
  "\u0120dem": 279,
  "\u00c3\u00a4n": 280,
  "ag": 281,
  "ant": 282,
  "\u0120vor": 283,
  "ib": 284,
  "\u0120als": 285,
  "ission": 286,
  "ste": 287,
  "\u0120comm": 288,
  "ity": 289,
  "\u0120or": 290,
  "\u0120mo": 291,
  "ive": 292,
  "ial": 293,
  "ah": 294,
  "\u0120ent": 295,
  "ust": 296,
  "ak": 297,
  "\u0120es": 298,
  "nen": 299,
  "\u0120sich": 300,
  "\u0120all": 301,
  "\u0120\u00c3\u00bcber": 302,
  "und": 303,
  "\u0120ch": 304,
  "\u0120um": 305,
  "au": 306,
  "sp": 307,
  "ne": 308,
  "\u0120werden": 309,
  "\u0120me": 310,
  "\u0120by": 311,
  "\u0120not": 312,
  "for": 313,
  "\u0120nicht": 314,
  "ht": 315,
  "\u0120at": 316,
  "end": 317,
  "\u0120com": 318,
  "if": 319,
  "we": 320,
  "ann": 321,
  "rom": 322,
  "\u0120will": 323,
  "igen": 324,
  "uch": 325,
  "\u0120ho": 326,
  "\u0120ar": 327,
  "ain": 328,
  "port": 329,
  "ug": 330,
  "\u0120sh": 331,
  "ben": 332,
  "\u0120-": 333,
  "\u0120unter": 334,
  "tel": 335,
  "\u0120dass": 336,
  "\u0120europ": 337,
  "\u0120reg": 338,
  "\u0120inter": 339,
  "tr": 340,
  "ass": 341,
  "\u0120europe": 342,
  "ungs": 343,
  "ern": 344,
  "ions": 345,
  "\u0120have": 346,
  "all": 347,
  "pl": 348,
  "ub": 349,
  "ure": 350,
  "uld": 351,
  "\u0120us": 352,
  "scha": 353,
  "ted": 354,
  "iel": 355,
  "ze": 356,
  "\u0120ich": 357,
  "ran": 358,
  "lie": 359,
  "du": 360,
  "\u0120you": 361,
  "ahr": 362,
  "\u0120te": 363,
  "\u0120uns": 364,
  "\u0120was": 365,
  "ts": 366,
  "\u0120auch": 367,
  "hal": 368,
  "\u0120da": 369,
  "\u0120from": 370,
  "hen": 371,
  "\u0120ges": 372,
  "\u0120res": 373,
  "ang": 374,
  "\u0120which": 375,
  "gr": 376,
  "\u0120komm": 377,
  "\u0120bes": 378,
  "\u0120he": 379,
  "\u0120sp": 380,
  "\u0120wo": 381,
  "\u0120wird": 382,
  "ard": 383,
  "la": 384,
  "\u0120wor": 385,
  "uss": 386,
  "\u0120sind": 387,
  "\u0120do": 388,
  "schaft": 389,
  "\u0120her": 390,
  "ip": 391,
  "\u0120am": 392,
  "\u0120ber": 393,
  "\u0120pol": 394,
  "ische": 395,
  "me": 396,
  "ine": 397,
  "\u0120wie": 398,
  "\u0120no": 399,
  "\u0120ad": 400,
  "ap": 401,
  "\u0120gr": 402,
  "\u0120has": 403,
  "form": 404,
  "iz": 405,
  "og": 406,
  "\u0120european": 407,
  "be": 408,
  "ue": 409,
  "\u0120nach": 410,
  "\u0120zur": 411,
  "\u0120man": 412,
  "se": 413,
  "\u00c3\u00a4t": 414,
  "\u0120comp": 415,
  "llen": 416,
  "\u0120bei": 417,
  "..": 418,
  "\u0120dur": 419,
  "\u0120coun": 420,
  "ick": 421,
  "\u0120europ\u00c3\u00a4": 422,
  "aus": 423,
  "od": 424,
  "\u0120di": 425,
  "\u0120ro": 426,
  "etz": 427,
  "\u0120hab": 428,
  "ations": 429,
  "\u00c3\u00b6n": 430,
  "keit": 431,
  "\u0120ih": 432,
  "\u0120hat": 433,
  "\u0120ma": 434,
  "ational": 435,
  "her": 436,
  "beit": 437,
  "cc": 438,
  "\u0120fin": 439,
  "\u0120ap": 440,
  "\u0120part": 441,
  "\u0120mar": 442,
  "\u0120op": 443,
  "age": 444,
  "ige": 445,
  "ges": 446,
  "ise": 447,
  "ens": 448,
  "ud": 449,
  "ident": 450,
  "\u0120can": 451,
  "able": 452,
  "ert": 453,
  "ia": 454,
  "lichen": 455,
  "\u0120qu": 456,
  "\u0120commission": 457,
  "\u0120ste": 458,
  "ast": 459,
  "ult": 460,
  "ight": 461,
  "heit": 462,
  "aten": 463,
  "ction": 464,
  "ss": 465,
  "\u0120200": 466,
  "eren": 467,
  "rit": 468,
  "\u0120our": 469,
  "enn": 470,
  "ition": 471,
  "pr": 472,
  "\u0120str": 473,
  "\u0120kon": 474,
  "\u0120also": 475,
  "\u0120gro": 476,
  "\u0120oder": 477,
  "\u0120durch": 478,
  "ok": 479,
  "f\u00c3\u00bc": 480,
  "\u00c3\u00a4r": 481,
  "ates": 482,
  "\u0120k\u00c3\u00b6n": 483,
  "mer": 484,
  "tz": 485,
  "oc": 486,
  "\u0120einer": 487,
  "pro": 488,
  "\u0120its": 489,
  "ical": 490,
  "\u0120ag": 491,
  "hmen": 492,
  "dern": 493,
  "vel": 494,
  "ice": 495,
  "ament": 496,
  "ated": 497,
  "io": 498,
  "\u0120pl": 499,
  "ect": 500,
  "\u0120gen": 501,
  "\u0120haben": 502,
  "\u0120ra": 503,
  "\u0120fra": 504,
  "\u0120tra": 505,
  "ement": 506,
  "ember": 507,
  "\u0120there": 508,
  "are": 509,
  "hl": 510,
  "\u0120go": 511,
  "ord": 512,
  "elt": 513,
  "\u0120ser": 514,
  "\u0120kommission": 515,
  "\u0120fa": 516,
  "\u0120dar": 517,
  "\u0120bet": 518,
  "ore": 519,
  "fen": 520,
  "\u0120diese": 521,
  "\u0120union": 522,
  "\u00c3\u00bcn": 523,
  "\u0120intern": 524,
  "cial": 525,
  "con": 526,
  "ign": 527,
  "\u00c3\u00b6r": 528,
  "art": 529,
  "ish": 530,
  "sten": 531,
  "\u0120cont": 532,
  "\u0120ihr": 533,
  "\u0120einen": 534,
  "ome": 535,
  "our": 536,
  "\u0120produ": 537,
  "\u0120sein": 538,
  "ieren": 539,
  "\u0120pres": 540,
  "ance": 541,
  "\u0120but": 542,
  "liche": 543,
  "cl": 544,
  "\u0120parl": 545,
  "anz": 546,
  "ms": 547,
  "\u0120ind": 548,
  "\u0120spe": 549,
  "he": 550,
  "ger": 551,
  "\u0120hotel": 552,
  "tet": 553,
  "\u0120fre": 554,
  "\u0120m\u00c3\u00b6": 555,
  "yste": 556,
  "gra": 557,
  "\u0120war": 558,
  "ther": 559,
  "ary": 560,
  "out": 561,
  "iert": 562,
  "\u0120wur": 563,
  "cht": 564,
  "chen": 565,
  "\u0120pre": 566,
  "ank": 567,
  "ake": 568,
  "\u0120dis": 569,
  "\u0120more": 570,
  "\u0120new": 571,
  "\u012019": 572,
  "gt": 573,
  "ear": 574,
  "\u0120inform": 575,
  "pos": 576,
  "\u0120gem": 577,
  "\u0120acc": 578,
  "\u01203": 579,
  "ite": 580,
  "lo": 581,
  "ide": 582,
  "\u0120k\u00c3\u00b6nnen": 583,
  "zu": 584,
  "\u0120member": 585,
  "\u0120their": 586,
  "\u0120ob": 587,
  "\u0120your": 588,
  "chn": 589,
  "\u0120zum": 590,
  "ru": 591,
  "wer": 592,
  "\u0120mr": 593,
  "\u0120sup": 594,
  "\u0120min": 595,
  "\u0120per": 596,
  "\u0120europ\u00c3\u00a4ischen": 597,
  "\u0120cl": 598,
  "\u0120sa": 599,
  "ian": 600,
  "ese": 601,
  "\u0120tran": 602,
  "\u0120ihre": 603,
  "utz": 604,
  "gram": 605,
  "\u0120po": 606,
  "\u0120em": 607,
  "\u0120zw": 608,
  "\u0120alle": 609,
  "ase": 610,
  "\u00c3\u00a4s": 611,
  "ile": 612,
  "che": 613,
  "\u0120pos": 614,
  "glie": 615,
  "\u0120zus": 616,
  "\u0120inst": 617,
  "\u0120weit": 618,
  "sta": 619,
  "\u0120verb": 620,
  "\u0120wenn": 621,
  "\u0120fr": 622,
  "\u0120would": 623,
  "ierung": 624,
  "\u0120einem": 625,
  "ime": 626,
  "\u0120off": 627,
  "glich": 628,
  "imm": 629,
  "\u0120been": 630,
  "cil": 631,
  "gan": 632,
  "land": 633,
  "\u0120herr": 634,
  "reat": 635,
  "\u0120polit": 636,
  "wo": 637,
  "ild": 638,
  "ute": 639,
  "mit": 640,
  "\u0120dieser": 641,
  "ks": 642,
  "\u0120la": 643,
  "ied": 644,
  "tra": 645,
  "nah": 646,
  "to": 647,
  "\u0120sho": 648,
  "\u0120up": 649,
  "ities": 650,
  "\u0120one": 651,
  "fe": 652,
  "\u00c3\u00bcck": 653,
  "\u0120fe": 654,
  "\u0120kann": 655,
  "\u0120cons": 656,
  "ke": 657,
  "oll": 658,
  "\u0120mon": 659,
  "\u0120if": 660,
  "ner": 661,
  "\u0120countr": 662,
  "\u0120ger": 663,
  "igkeit": 664,
  "ahl": 665,
  "\u00c3\u00a4hr": 666,
  "\u0120nur": 667,
  "\u0120jahr": 668,
  "ong": 669,
  "\u0120they": 670,
  "ame": 671,
  "\u0120inv": 672,
  "\u0120hin": 673,
  "pt": 674,
  "\u0120mehr": 675,
  "\u0120should": 676,
  "bar": 677,
  "ble": 678,
  "\u0120br": 679,
  "ose": 680,
  "wick": 681,
  "ution": 682,
  "\u0120mitglie": 683,
  "\u0120jed": 684,
  "\u0120pe": 685,
  "chte": 686,
  "ommen": 687,
  "teil": 688,
  "reich": 689,
  "ugh": 690,
  "\u0120arbeit": 691,
  "\u00c3\u00bcss": 692,
  "\u0120out": 693,
  "\u0120dire": 694,
  "ces": 695,
  "\u0120eff": 696,
  "ire": 697,
  "ely": 698,
  "\u0120ev": 699,
  "\u0120prov": 700,
  "ual": 701,
  "geb": 702,
  "\u0120serv": 703,
  "\u0120tr": 704,
  "fr": 705,
  "ple": 706,
  "\u0120soll": 707,
  "\u0120syste": 708,
  "\u0120work": 709,
  "ors": 710,
  "velop": 711,
  "tschaft": 712,
  "\u0120pers": 713,
  "\u0120these": 714,
  "ubl": 715,
  "ktion": 716,
  "\u0120develop": 717,
  "\u0120other": 718,
  "\u0120information": 719,
  "\u00c3\u00a4nder": 720,
  "\u0120sol": 721,
  "\u0120best": 722,
  "\u0120rat": 723,
  "ail": 724,
  "\u0120gegen": 725,
  "schl": 726,
  "\u0120ins": 727,
  "ac": 728,
  "\u0120states": 729,
  "\u0120.": 730,
  "ings": 731,
  "ammen": 732,
  ").": 733,
  "\u0120aber": 734,
  "\u0120gew": 735,
  "\u0120gemein": 736,
  "f\u00c3\u00bchr": 737,
  "\u0120international": 738,
  "\u0120need": 739,
  "\u0120mark": 740,
  "\u012020": 741,
  "ack": 742,
  "\u0120year": 743,
  "\u0120aut": 744,
  "ater": 745,
  "\u0120noch": 746,
  "ffen": 747,
  "\u0120men": 748,
  "\u0120hand": 749,
  "\u0120rec": 750,
  "ister": 751,
  "ced": 752,
  "ject": 753,
  "\u0120program": 754,
  "arbeit": 755,
  "\u0120fir": 756,
  "\u0120mitglied": 757,
  "ments": 758,
  "per": 759,
  "\u0120mein": 760,
  "bs": 761,
  "\u00c3\u00a4sident": 762,
  "\u0120kein": 763,
  "\u0120zusammen": 764,
  "ld": 765,
  "\u0120entwick": 766,
  "olog": 767,
  "\u0120must": 768,
  "\u0120wurde": 769,
  "it\u00c3\u00a4t": 770,
  "ike": 771,
  "fahr": 772,
  "tern": 773,
  "\u0120council": 774,
  "lin": 775,
  "\u0120da\u00c3\u0141": 776,
  "\u0120ter": 777,
  "\u0120proble": 778,
  "\u01204": 779,
  "\u00c3\u00bctz": 780,
  "\u0120fl": 781,
  "ents": 782,
  "\u0120how": 783,
  "leich": 784,
  "\u00c3\u0141en": 785,
  "ative": 786,
  "entr": 787,
  "ures": 788,
  "\u0120,": 789,
  "pf": 790,
  "ph": 791,
  "\u0120who": 792,
  "alt": 793,
  "\u0120only": 794,
  "one": 795,
  "\u01205": 796,
  "\u0120bo": 797,
  "\u0120dec": 798,
  "\u0120bis": 799,
  "sib": 800,
  "\u0120very": 801,
  "nehmen": 802,
  "\u0120lo": 803,
  "\u0120bef": 804,
  "schen": 805,
  "\u0120sub": 806,
  "\u0120act": 807,
  "cess": 808,
  "uen": 809,
  "hn": 810,
  "auf": 811,
  "assen": 812,
  "onder": 813,
  "\u0120ass": 814,
  "\u00c3\u00bcssen": 815,
  "\u00c3\u00a4nd": 816,
  "\u0120sit": 817,
  "\u0120region": 818,
  "\u0120such": 819,
  "ans": 820,
  "fl": 821,
  "get": 822,
  "\u0120techn": 823,
  "\u0120vie": 824,
  "\u0120right": 825,
  "\u0120national": 826,
  "conom": 827,
  "ateg": 828,
  "erg": 829,
  "staaten": 830,
  "fol": 831,
  "igt": 832,
  "\u0120bec": 833,
  "\u0120m\u00c3\u00bcssen": 834,
  "...": 835,
  "\u0120any": 836,
  "\u0120time": 837,
  "\u0120land": 838,
  "ho": 839,
  "\u0120besch": 840,
  "tell": 841,
  "lung": 842,
  "ility": 843,
  "xt": 844,
  "\u0120about": 845,
  "ular": 846,
  "\u0120dam": 847,
  "\u0120ele": 848,
  "\u0120econom": 849,
  "\u0120president": 850,
  "\u0120unser": 851,
  "ken": 852,
  "\u0120import": 853,
  "\u0120bas": 854,
  "ious": 855,
  "vor": 856,
  "ds": 857,
  "\u0120gu": 858,
  "\u00c3\u00a4l": 859,
  "\u0120market": 860,
  "\u0120gesch": 861,
  "igh": 862,
  "\u0120over": 863,
  "sche": 864,
  "\u0120rel": 865,
  "ific": 866,
  "wend": 867,
  "atz": 868,
  "\u0120art": 869,
  "cy": 870,
  "kte": 871,
  "\u0120like": 872,
  "wor": 873,
  "iven": 874,
  "als": 875,
  "\u0120under": 876,
  "ov": 877,
  "\u0120polic": 878,
  "ient": 879,
  "ally": 880,
  "\u0120sehr": 881,
  "ices": 882,
  "ider": 883,
  "ange": 884,
  "sen": 885,
  "legen": 886,
  "wie": 887,
  "iger": 888,
  "\u0120viel": 889,
  "cre": 890,
  "\u0120hier": 891,
  "\u0120diesem": 892,
  "led": 893,
  "halten": 894,
  "\u0120what": 895,
  "act": 896,
  "\u0120them": 897,
  "\u0120nat": 898,
  "fer": 899,
  "\u0120report": 900,
  "\u0120pr\u00c3\u00a4sident": 901,
  "zen": 902,
  "\u0120zeit": 903,
  "\u0120eing": 904,
  "\u0120\u00c3\u00b6": 905,
  "man": 906,
  "\u0120well": 907,
  "\u0120lie": 908,
  "ays": 909,
  "min": 910,
  "\u0120countries": 911,
  "\u0120just": 912,
  "\u0120when": 913,
  "\u0120parlament": 914,
  "ale": 915,
  "\u0120geb": 916,
  "wir": 917,
  "\u0120propos": 918,
  "iament": 919,
  "\u0120agre": 920,
  "\u0120ko": 921,
  "\u0120person": 922,
  "\u0120ben": 923,
  "oy": 924,
  "\u0120my": 925,
  "\u0120europ\u00c3\u00a4ische": 926,
  "\u0120hel": 927,
  "\u0120sta": 928,
  "ry": 929,
  "ett": 930,
  "\u0120unterst": 931,
  "\u0120stand": 932,
  "\u0120wirtschaft": 933,
  "iden": 934,
  "\u0120parliament": 935,
  "\u0120peop": 936,
  "ism": 937,
  "\u0120commun": 938,
  "use": 939,
  "\u0120first": 940,
  "\u0120add": 941,
  "\u0120seit": 942,
  "\u0120partic": 943,
  "ibt": 944,
  "\u0120leg": 945,
  "\u0120eines": 946,
  "\u0120mitgliedstaaten": 947,
  "\u0120et": 948,
  "\u0120wel": 949,
  "rat": 950,
  "\u0120into": 951,
  "halt": 952,
  "etzt": 953,
  "\u0120some": 954,
  "\u0120dieses": 955,
  "\u0120support": 956,
  "\u0120publ": 957,
  "\u0120system": 958,
  "\u0120ph": 959,
  "\u0120direct": 960,
  "\u0120fo": 961,
  "\u0120su": 962,
  "),": 963,
  "own": 964,
  "\u0120incl": 965,
  "int": 966,
  "\u0120organ": 967,
  "wn": 968,
  "u\u00c3\u0141": 969,
  "sicht": 970,
  "kl": 971,
  "zeit": 972,
  "eration": 973,
  "\u0120zwischen": 974,
  "\u0120vers": 975,
  "\u0120wicht": 976,
  "\u0120energ": 977,
  "\u0120grund": 978,
  "\u0120kl": 979,
  "\u0120were": 980,
  "\u0120med": 981,
  "unden": 982,
  "nahmen": 983,
  "\u0120use": 984,
  "\u0120sowie": 985,
  "isten": 986,
  "igung": 987,
  "\u0120form": 988,
  "\u0120sicher": 989,
  "eln": 990,
  "\u0120kn": 991,
  "leg": 992,
  "ards": 993,
  "\u0120sc": 994,
  "\u0120world": 995,
  "\u0120invest": 996,
  "hand": 997,
  "\u0120rest": 998,
  "\u0120diff": 999,
  "\u0120people": 1000,
  "\u0120qual": 1001,
  "\u0120loc": 1002,
  "pon": 1003,
  "\u0120bereit": 1004,
  "\u0120199": 1005,
  "ween": 1006,
  "ha": 1007,
  "els": 1008,
  "\u0120between": 1009,
  "\u0120af": 1010,
  "ous": 1011,
  "\u0120mach": 1012,
  "enden": 1013,
  "ull": 1014,
  "\u0120vom": 1015,
  "\u0120now": 1016,
  "\u0120unterst\u00c3\u00bctz": 1017,
  "\u0120most": 1018,
  "\u0120requ": 1019,
  "ives": 1020,
  "\u0120bed": 1021,
  "unt": 1022,
  "\u0120av": 1023,
  "pect": 1024,
  "ention": 1025,
  "essen": 1026,
  "tre": 1027,
  "\u0120bere": 1028,
  "ory": 1029,
  "\u0120finanz": 1030,
  "\u0120than": 1031,
  "\u0120m\u00c3\u00b6glich": 1032,
  "\u0120einz": 1033,
  "kommen": 1034,
  "ell": 1035,
  "ieden": 1036,
  "h\u00c3\u00b6r": 1037,
  "\u0120stat": 1038,
  "\u0120zwe": 1039,
  "rie": 1040,
  "ural": 1041,
  "dit": 1042,
  "\u0120car": 1043,
  "ause": 1044,
  "\u0120son": 1045,
  "\u0120sel": 1046,
  "\u0120trans": 1047,
  "iet": 1048,
  "\u0120weiter": 1049,
  "\u0120conc": 1050,
  "ink": 1051,
  "\u0120gel": 1052,
  "\u0120fest": 1053,
  "\u0120policy": 1054,
  "\u0120bus": 1055,
  "mar": 1056,
  "\u0120transp": 1057,
  "ating": 1058,
  "\u0120jo": 1059,
  "\u0120cre": 1060,
  "\u0120dr": 1061,
  "\u0120ever": 1062,
  "\u0120cour": 1063,
  "\u0120welt": 1064,
  "\u0120ihnen": 1065,
  "\u0120ma\u00c3\u0141": 1066,
  "por": 1067,
  "\u0120commit": 1068,
  "dem": 1069,
  "je": 1070,
  "\u0120again": 1071,
  "\u0120menschen": 1072,
  "ues": 1073,
  "\u0120ac": 1074,
  "\u01206": 1075,
  "olit": 1076,
  "\u0120teil": 1077,
  "erung": 1078,
  "zial": 1079,
  "\u0120richt": 1080,
  "\u0120may": 1081,
  "ict": 1082,
  "zie": 1083,
  "mo": 1084,
  "\u0120u": 1085,
  "\u0120bar": 1086,
  "ats": 1087,
  "\u00c3\u00bchr": 1088,
  "\u0120unsere": 1089,
  "\u00c3\u00a4ch": 1090,
  "\u0120pla": 1091,
  "forder": 1092,
  "abe": 1093,
  "\u0120development": 1094,
  "\u0120his": 1095,
  "\u0120kom": 1096,
  "\u0120many": 1097,
  "\u0120indust": 1098,
  "\u0120see": 1099,
  "ision": 1100,
  "\u0120high": 1101,
  "\u0120make": 1102,
  "\u0120room": 1103,
  "ages": 1104,
  "\u0120situ": 1105,
  "\u0120important": 1106,
  "sible": 1107,
  "iff": 1108,
  "issen": 1109,
  "\u0120m\u00c3\u00b6chte": 1110,
  "vern": 1111,
  "\u0120take": 1112,
  "\u0120get": 1113,
  "\u0120europa": 1114,
  "\u0120bericht": 1115,
  "\u0120thro": 1116,
  "\u0120end": 1117,
  "halb": 1118,
  "\u0120sin": 1119,
  "\u0120fund": 1120,
  "\u00c3\u00a4ft": 1121,
  "\u0120deb": 1122,
  "ffent": 1123,
  "\u0120pra": 1124,
  "\u0120ange": 1125,
  "cted": 1126,
  "los": 1127,
  "lau": 1128,
  "tro": 1129,
  "\u0120economic": 1130,
  "stell": 1131,
  "\u0120two": 1132,
  "\u0120ihrer": 1133,
  "\u0120hum": 1134,
  "ster": 1135,
  "chts": 1136,
  "\u0120product": 1137,
  "nis": 1138,
  "ace": 1139,
  "rauch": 1140,
  "\u0120strateg": 1141,
  "\u0120public": 1142,
  "\u0120ur": 1143,
  "\u0120cle": 1144,
  "lie\u00c3\u0141": 1145,
  "\u0120201": 1146,
  "ys": 1147,
  "ital": 1148,
  "ium": 1149,
  "\u0120erw": 1150,
  "isation": 1151,
  "amen": 1152,
  "\u0120unternehmen": 1153,
  "erv": 1154,
  "bes": 1155,
  "\u0120bereich": 1156,
  "\u0120ke": 1157,
  "\u0120damit": 1158,
  "\u0120appro": 1159,
  "\u0120group": 1160,
  "com": 1161,
  "\u0120where": 1162,
  "oth": 1163,
  "\u0120fol": 1164,
  "000": 1165,
  "och": 1166,
  "\u0120through": 1167,
  "\u0120gibt": 1168,
  "enz": 1169,
  "ree": 1170,
  "\u0120fun": 1171,
  "abl": 1172,
  "\u0120wieder": 1173,
  "\u0120mill": 1174,
  "\u0120good": 1175,
  "\u0120years": 1176,
  "\u0120muss": 1177,
  "\u0120real": 1178,
  "istr": 1179,
  "\u0120deut": 1180,
  "fin": 1181,
  "\u0120bu": 1182,
  "\u0120gro\u00c3\u0141": 1183,
  "\u0120keine": 1184,
  "urr": 1185,
  "\u0120beg": 1186,
  "trag": 1187,
  "\u0120gener": 1188,
  "ters": 1189,
  "\u0120made": 1190,
  "ior": 1191,
  "\u0120col": 1192,
  "ischer": 1193,
  "\u0120beste": 1194,
  "bal": 1195,
  "\u0120gleich": 1196,
  "str": 1197,
  "\u0120versch": 1198,
  "\u0120cent": 1199,
  "\u0120instit": 1200,
  "\u0120iss": 1201,
  "uer": 1202,
  "\u0120anderen": 1203,
  "nung": 1204,
  "ever": 1205,
  "\u0120schw": 1206,
  "\u0120est": 1207,
  "\u0120minister": 1208,
  "\u0120eng": 1209,
  "\u0120after": 1210,
  "stand": 1211,
  "\u0120find": 1212,
  "co": 1213,
  "\u0120because": 1214,
  "\u0120tak": 1215,
  "day": 1216,
  "\u0120num": 1217,
  "ma": 1218,
  "\u0120bl": 1219,
  "\u0120great": 1220,
  "mittel": 1221,
  "\u01207": 1222,
  "\u0120fran": 1223,
  "setz": 1224,
  "\u0120particular": 1225,
  "\u00c3\u00a4m": 1226,
  "\u0120every": 1227,
  "urs": 1228,
  "\u0120fam": 1229,
  "\u0120verein": 1230,
  "\u0120finan": 1231,
  "\u0120priv": 1232,
  "lle": 1233,
  "\u0120human": 1234,
  "av": 1235,
  "\u00c3\u00a4lt": 1236,
  "richt": 1237,
  "\u0120those": 1238,
  "\u0120char": 1239,
  "rei": 1240,
  "\u0120gemeins": 1241,
  "net": 1242,
  "\u0120fur": 1243,
  "innen": 1244,
  "\u01208": 1245,
  "par": 1246,
  "\u0120process": 1247,
  "\u0120govern": 1248,
  "\u0120air": 1249,
  "\u0120far": 1250,
  "ession": 1251,
  "\u0120prote": 1252,
  "\u0120compan": 1253,
  "\u0120order": 1254,
  "isse": 1255,
  "\u0120even": 1256,
  "\u0120wurden": 1257,
  "feren": 1258,
  "bst": 1259,
  "\u0120sm": 1260,
  "\u0120bie": 1261,
  "\u0120akt": 1262,
  "\u0120includ": 1263,
  "\u0120main": 1264,
  "ware": 1265,
  "\u0120concern": 1266,
  "ument": 1267,
  "\u0120entwicklung": 1268,
  "ved": 1269,
  "tegr": 1270,
  "\u0120eben": 1271,
  "\u0120verf\u00c3\u00bc": 1272,
  "\u0120respon": 1273,
  "\u00c3\u00a4ndern": 1274,
  "\u0120agreement": 1275,
  "mal": 1276,
  "weise": 1277,
  "ited": 1278,
  "\u0120view": 1279,
  "unkt": 1280,
  "\u0120social": 1281,
  "geben": 1282,
  "\u0120had": 1283,
  "gend": 1284,
  "\u0120leben": 1285,
  "gem": 1286,
  "alls": 1287,
  "\u0120state": 1288,
  "\u0120meas": 1289,
  "\u012010": 1290,
  "\u0120val": 1291,
  "uf": 1292,
  "\u0120del": 1293,
  "br": 1294,
  "\u0120bre": 1295,
  "kehr": 1296,
  "\u0120met": 1297,
  "\u0120however": 1298,
  "\u0120env": 1299,
  "tens": 1300,
  "\u0120glo": 1301,
  "\u0120f\u00c3\u00bchr": 1302,
  "ath": 1303,
  "\u0120ide": 1304,
  "\u0120sim": 1305,
  "iti": 1306,
  "ivers": 1307,
  "isen": 1308,
  "\u0120integr": 1309,
  "\u0120way": 1310,
  "pen": 1311,
  "\u0120cap": 1312,
  "\u0120services": 1313,
  "it\u00c3\u00a4": 1314,
  "\u0120cr": 1315,
  "\u0120incre": 1316,
  "ina": 1317,
  "\u0120prof": 1318,
  "\u0120sign": 1319,
  "\u0120schl": 1320,
  "\u0120bede": 1321,
  "\u0120diesen": 1322,
  "ont": 1323,
  "\u0120haus": 1324,
  "\u0120appl": 1325,
  "tee": 1326,
  "\u01209": 1327,
  "hin": 1328,
  "ows": 1329,
  "\u0120area": 1330,
  "\u0120problem": 1331,
  "gesch": 1332,
  "\u00c3\u00b6s": 1333,
  "\u0120dann": 1334,
  "\u0120heute": 1335,
  "iness": 1336,
  "\u0120ze": 1337,
  "\u0120lu": 1338,
  "\u0120neue": 1339,
  "gest": 1340,
  "cept": 1341,
  "olitik": 1342,
  "\u0120mittel": 1343,
  "\u0120star": 1344,
  "\u0120compet": 1345,
  "\u0120bel": 1346,
  "\u0120regul": 1347,
  "\u0120ant": 1348,
  "\u0120technolog": 1349,
  "\u0120level": 1350,
  "iron": 1351,
  "\u0120service": 1352,
  "\u0120contin": 1353,
  "\u0120immer": 1354,
  "\u0120bek": 1355,
  "zeich": 1356,
  "\u0120sozial": 1357,
  "\u0120ma\u00c3\u0141nahmen": 1358,
  "\u00c3\u0141er": 1359,
  "\u0120vorschl": 1360,
  "ful": 1361,
  "\u0120rem": 1362,
  "gel": 1363,
  "\u0120inn": 1364,
  "inn": 1365,
  "fahren": 1366,
  "raft": 1367,
  "\u0120sec": 1368,
  "ower": 1369,
  "\u0120rahmen": 1370,
  "\u0120dat": 1371,
  "\u0120curr": 1372,
  "\u0120effect": 1373,
  "\u0120lang": 1374,
  "\u0120vis": 1375,
  "fore": 1376,
  "fort": 1377,
  "ften": 1378,
  "ingen": 1379,
  "\u0120stud": 1380,
  "hne": 1381,
  "\u0120el": 1382,
  "nahme": 1383,
  "\u0120ihren": 1384,
  "\u0120seine": 1385,
  "rag": 1386,
  "work": 1387,
  "\u0120ganz": 1388,
  "\u0120environ": 1389,
  "eng": 1390,
  "\u0120rights": 1391,
  "\u0120being": 1392,
  "\u0120w\u00c3\u00bcr": 1393,
  "\u0120selbst": 1394,
  "spr": 1395,
  "\u0120ta": 1396,
  "\u0120cor": 1397,
  "ploy": 1398,
  "\u0120therefore": 1399,
  "\u0120jedoch": 1400,
  "\u0120manag": 1401,
  "\u0120ens": 1402,
  "\u0120foll": 1403,
  "\u0120fact": 1404,
  "\u0120here": 1405,
  "\u0120auth": 1406,
  "ants": 1407,
  "\u0120quest": 1408,
  "\u0120bank": 1409,
  "\u0120situation": 1410,
  "dition": 1411,
  "lagen": 1412,
  "\u0120b\u00c3\u00bcr": 1413,
  "\u0120environment": 1414,
  "\u0120within": 1415,
  "gang": 1416,
  "hol": 1417,
  "\u0120w\u00c3\u00a4hr": 1418,
  "ply": 1419,
  "\u0120business": 1420,
  "\u0120know": 1421,
  "\u0120community": 1422,
  "read": 1423,
  "esent": 1424,
  "ily": 1425,
  "\u00c3\u00a4ge": 1426,
  "\u0120opt": 1427,
  "\u0120vo": 1428,
  "\u0120own": 1429,
  "\u0120political": 1430,
  "kon": 1431,
  "ines": 1432,
  "\u0120imple": 1433,
  "\u0120betr": 1434,
  "\u0120number": 1435,
  "\u0120neuen": 1436,
  "\u0120entsche": 1437,
  "\u0120lar": 1438,
  "m\u00c3\u00b6": 1439,
  "\u0120rev": 1440,
  "ix": 1441,
  "\u0120both": 1442,
  "\u0120bro": 1443,
  "fach": 1444,
  "lage": 1445,
  "\u0120comple": 1446,
  "icult": 1447,
  "\u0120full": 1448,
  "\u0120rechts": 1449,
  "\u0120stru": 1450,
  "\u0120play": 1451,
  "bl": 1452,
  "satz": 1453,
  "ently": 1454,
  "wort": 1455,
  "\u0120gar": 1456,
  "\u0120mich": 1457,
  "\u0120sk": 1458,
  "ondere": 1459,
  "\u0120mus": 1460,
  "urn": 1461,
  "\u0120belie": 1462,
  "hip": 1463,
  "\u0120kle": 1464,
  "\u0120set": 1465,
  "\u0120provid": 1466,
  "ving": 1467,
  "ler": 1468,
  "immer": 1469,
  "chten": 1470,
  "\u0120avail": 1471,
  "rechen": 1472,
  "\u0120zahl": 1473,
  "\u0120internet": 1474,
  "\u0120bereits": 1475,
  "operation": 1476,
  "licher": 1477,
  "elle": 1478,
  "ierte": 1479,
  "itt": 1480,
  "\u0120disc": 1481,
  "\u0120exper": 1482,
  "\u0120\u00c3\u00b6ffent": 1483,
  "\u0120nor": 1484,
  "\u0120programm": 1485,
  "alen": 1486,
  "\u0120gra": 1487,
  "\u0120equ": 1488,
  "\u0120project": 1489,
  "\u0120could": 1490,
  "\u0120clear": 1491,
  "fra": 1492,
  "\u0120beit": 1493,
  "\u0120ziel": 1494,
  "\u0120%": 1495,
  "\u0120place": 1496,
  "\u0120gemeinschaft": 1497,
  "\u0120global": 1498,
  "\u0120further": 1499,
  "ierten": 1500,
  "\u0120port": 1501,
  "ps": 1502,
  "\u0120aff": 1503,
  "ised": 1504,
  "\u0120eigen": 1505,
  "wert": 1506,
  "acht": 1507,
  "\u0120last": 1508,
  "\u0120webs": 1509,
  "\u0120design": 1510,
  "gar": 1511,
  "\u0120against": 1512,
  "\u00c3\u00a4h": 1513,
  "\u0120financial": 1514,
  "ktur": 1515,
  "\u0120possible": 1516,
  "\u0120sollte": 1517,
  "ritt": 1518,
  "\u0120var": 1519,
  "\u0120etw": 1520,
  "welt": 1521,
  "\u0120exam": 1522,
  "\u0120wichtig": 1523,
  "\u0120prin": 1524,
  "\u0120sur": 1525,
  "adt": 1526,
  "\u0120je": 1527,
  "aut": 1528,
  "\u0120million": 1529,
  "ertain": 1530,
  "gung": 1531,
  "\u0120sicherheit": 1532,
  "\u0120net": 1533,
  "\u0120const": 1534,
  "schlie\u00c3\u0141": 1535,
  "atter": 1536,
  "ough": 1537,
  "\u0120treat": 1538,
  "\u0120access": 1539,
  "\u0120wen": 1540,
  "az": 1541,
  "\u0120follow": 1542,
  "\u0120fut": 1543,
  "utions": 1544,
  "\u0120dazu": 1545,
  "\u0120redu": 1546,
  "\u0120does": 1547,
  "\u0120programme": 1548,
  "\u0120bud": 1549,
  "\u0120bestimm": 1550,
  "round": 1551,
  "\u0120adop": 1552,
  "\u0120consider": 1553,
  "tem": 1554,
  "\u0120impro": 1555,
  "schr": 1556,
  "ift": 1557,
  "\u0120dien": 1558,
  "20": 1559,
  "\u0120zwei": 1560,
  "\u0120ausge": 1561,
  "\u0120gut": 1562,
  "\u0120initi": 1563,
  "\u0120unserer": 1564,
  "aben": 1565,
  "\u0120oper": 1566,
  "\u0120free": 1567,
  "\u0120mod": 1568,
  "att": 1569,
  "\u0120recht": 1570,
  "\u0120open": 1571,
  "\u0120author": 1572,
  "\u0120erfol": 1573,
  "\u0120frau": 1574,
  "\u00c3\u00a4\u00c3\u0141": 1575,
  "\u0120hol": 1576,
  "\u0120same": 1577,
  "\u0120stell": 1578,
  "air": 1579,
  "ests": 1580,
  "\u00c3\u00a4ng": 1581,
  "\u0120repr": 1582,
  "zeug": 1583,
  "\u0120verw": 1584,
  "\u0120ohne": 1585,
  "\u0120au\u00c3\u0141er": 1586,
  "\u0120german": 1587,
  "\u0120vol": 1588,
  "\u0120entsp": 1589,
  "\u0120hal": 1590,
  "iver": 1591,
  "\u0120denn": 1592,
  "\u0120gr\u00c3\u00b6": 1593,
  "\u0120[": 1594,
  "\u0120nutz": 1595,
  "\u0120ris": 1596,
  "\u0120aller": 1597,
  "\u0120down": 1598,
  "ount": 1599,
  "ics": 1600,
  "\u0120then": 1601,
  "\u0120tre": 1602,
  "\u0120measures": 1603,
  "\u0120kol": 1604,
  "\u0120...": 1605,
  "\u0120letz": 1606,
  "line": 1607,
  "ude": 1608,
  "isp": 1609,
  "cing": 1610,
  "itz": 1611,
  "\u0120require": 1612,
  "\u012015": 1613,
  "\u0120adv": 1614,
  "\u00c3\u00bch": 1615,
  "weit": 1616,
  "reichen": 1617,
  "alth": 1618,
  "\u0120ple": 1619,
  "bewer": 1620,
  "\u0120sw": 1621,
  "f\u00c3\u00bcr": 1622,
  "ability": 1623,
  "\u0120law": 1624,
  "ruck": 1625,
  "ons": 1626,
  "vers": 1627,
  "\u0120denen": 1628,
  "\u0120ir": 1629,
  "\u0120sollten": 1630,
  "\u0120sondern": 1631,
  "\u0120andere": 1632,
  "\u0120jahren": 1633,
  "\u0120available": 1634,
  "\u0120h\u00c3\u00b6": 1635,
  "\u0120spec": 1636,
  "its": 1637,
  "\u0120scha": 1638,
  "\u0120bal": 1639,
  "\u0120offer": 1640,
  "\u0120bez": 1641,
  "\u0120\u00c3\u00a4nder": 1642,
  "entral": 1643,
  "\u0120mil": 1644,
  "\u0120umf": 1645,
  "les": 1646,
  "upt": 1647,
  "\u0120zusammenarbeit": 1648,
  "st\u00c3\u00a4nd": 1649,
  "tellt": 1650,
  "\u0120gest": 1651,
  "\u0120differ": 1652,
  "zus": 1653,
  "\u0120verbess": 1654,
  "ication": 1655,
  "\u0120since": 1656,
  "aur": 1657,
  "\u0120habe": 1658,
  "\u0120meet": 1659,
  "ktor": 1660,
  "\u0120help": 1661,
  "\u0120begr": 1662,
  "\u0120long": 1663,
  "ize": 1664,
  "ade": 1665,
  "nisse": 1666,
  "\u0120mak": 1667,
  "\u0120today": 1668,
  "\u0120still": 1669,
  "\u0120verl": 1670,
  "\u0120used": 1671,
  "ettbewer": 1672,
  "rol": 1673,
  "\u0120prior": 1674,
  "\u0120reform": 1675,
  "\u0120voll": 1676,
  "\u0120sect": 1677,
  "\u0120fall": 1678,
  "\u0120fil": 1679,
  "\u0120products": 1680,
  "\u00c3\u00a4hl": 1681,
  "\u0120future": 1682,
  "linie": 1683,
  "\u0120secur": 1684,
  "\u0120b\u00c3\u00bcrger": 1685,
  "ander": 1686,
  "\u0120without": 1687,
  "kten": 1688,
  "\u0120f\u00c3\u00b6r": 1689,
  "\u0120har": 1690,
  "\u0120special": 1691,
  "\u0120lin": 1692,
  "kl\u00c3\u00a4r": 1693,
  "ress": 1694,
  "\u0120wissen": 1695,
  "\u0120gef": 1696,
  "\u0120ital": 1697,
  "\u0120hist": 1698,
  "so": 1699,
  "ilfe": 1700,
  "imin": 1701,
  "kun": 1702,
  "\u0120spiel": 1703,
  "\u0120want": 1704,
  "\u0120fort": 1705,
  "\u0120energy": 1706,
  "\u0120neg": 1707,
  "\u0120country": 1708,
  "\u0120sy": 1709,
  "\u0120implement": 1710,
  "\u0120russ": 1711,
  "unter": 1712,
  "urch": 1713,
  "\u0120innov": 1714,
  "wohl": 1715,
  "ichte": 1716,
  "\u0120cust": 1717,
  "besondere": 1718,
  "isl": 1719,
  "ivid": 1720,
  "\u0120eas": 1721,
  "\u0120viele": 1722,
  "\u0120dah": 1723,
  "\u0120informationen": 1724,
  "\u0120before": 1725,
  "\u0120verschieden": 1726,
  "\u0120einge": 1727,
  "\u0120att": 1728,
  "\u0120committee": 1729,
  "lichkeit": 1730,
  "\u0120prev": 1731,
  "\u0120ty": 1732,
  "\u0120k\u00c3\u00b6nn": 1733,
  "\u0120umwelt": 1734,
  "\u0120back": 1735,
  "\u0120finden": 1736,
  "\u0120general": 1737,
  "\u0120bedeut": 1738,
  "\u0120amen": 1739,
  "\u0120much": 1740,
  "\u0120during": 1741,
  "amp": 1742,
  "\u0120activ": 1743,
  "\u0120custom": 1744,
  "leist": 1745,
  "\u0120cit": 1746,
  "\u0120wettbewer": 1747,
  "\u0120daten": 1748,
  "\u0120insbesondere": 1749,
  "\u0120som": 1750,
  "\u0120contr": 1751,
  "\u0120different": 1752,
  "\u0120data": 1753,
  "\u00c3\u00a4re": 1754,
  "ders": 1755,
  "ins": 1756,
  "\u0120frage": 1757,
  "\u0120gesam": 1758,
  "fern": 1759,
  "\u0120pat": 1760,
  "\u0120grow": 1761,
  "\u0120allen": 1762,
  "\u0120members": 1763,
  "ically": 1764,
  "\u0120common": 1765,
  "bo": 1766,
  "ready": 1767,
  "\u0120amer": 1768,
  "ef": 1769,
  "\u0120beisp": 1770,
  "\u0120ru": 1771,
  "ende": 1772,
  "\u0120li": 1773,
  "\u0120tour": 1774,
  "\u0120ach": 1775,
  "abil": 1776,
  "way": 1777,
  "ential": 1778,
  "\u0120budget": 1779,
  "\u0120transport": 1780,
  "une": 1781,
  "ves": 1782,
  "\u0120say": 1783,
  "\u0120already": 1784,
  "ward": 1785,
  "\u0120bit": 1786,
  "\u0120plan": 1787,
  "spro": 1788,
  "heiten": 1789,
  "\u0120position": 1790,
  "\u0120kr": 1791,
  "\u0120small": 1792,
  "off": 1793,
  "\u0120restaur": 1794,
  "\u0120commissioner": 1795,
  "\u0120aid": 1796,
  "\u0120able": 1797,
  "\u0120soft": 1798,
  "ator": 1799,
  "\u0120darauf": 1800,
  "ules": 1801,
  "que": 1802,
  "rop": 1803,
  "\u0120w\u00c3\u00a4hrend": 1804,
  "\u0120object": 1805,
  "\u0120einige": 1806,
  "ified": 1807,
  "\u0120nun": 1808,
  "gress": 1809,
  "licht": 1810,
  "\u0120maj": 1811,
  "\u0120cas": 1812,
  "ence": 1813,
  "\u0120employ": 1814,
  "\u0120doch": 1815,
  "neh": 1816,
  "\u0120case": 1817,
  "\u0120security": 1818,
  "\u0120directive": 1819,
  "ible": 1820,
  "isierung": 1821,
  "ablish": 1822,
  "\u0120markt": 1823,
  "fte": 1824,
  "\u0120put": 1825,
  "\u0120jetzt": 1826,
  "\u0120zust": 1827,
  "pre": 1828,
  "\u0120secon": 1829,
  "\u0120city": 1830,
  "\u0120arbeits": 1831,
  "\u0120besonder": 1832,
  "\u0120amend": 1833,
  "\u0120cooperation": 1834,
  "kunft": 1835,
  "\u0120rep": 1836,
  "ife": 1837,
  "elf": 1838,
  "\u0120health": 1839,
  "\u0120proposal": 1840,
  "\u0120legisl": 1841,
  "\u0120action": 1842,
  "\u0120certain": 1843,
  "ists": 1844,
  "ahre": 1845,
  "\u0120agr": 1846,
  "\u0120erst": 1847,
  "ationen": 1848,
  "bere": 1849,
  "h\u00c3\u00a4lt": 1850,
  "\u0120pal": 1851,
  "\u0120point": 1852,
  "\u0120waren": 1853,
  "\u0120seiner": 1854,
  "\u00c3\u00a4tz": 1855,
  "iften": 1856,
  "ience": 1857,
  "\u0120each": 1858,
  "\u0120citiz": 1859,
  "\u0120cost": 1860,
  "under": 1861,
  "\u0120look": 1862,
  "\u0120du": 1863,
  "\u0120ensure": 1864,
  "cr": 1865,
  "ene": 1866,
  "wirtschaft": 1867,
  "\u0120modern": 1868,
  "\u0120establish": 1869,
  "\u0120daher": 1870,
  "press": 1871,
  "\u012018": 1872,
  "\u0120daf\u00c3\u00bcr": 1873,
  "\u012012": 1874,
  "ased": 1875,
  "\u0120\u00c3\u00a4": 1876,
  "\u0120det": 1877,
  "\u01200": 1878,
  "\u0120m\u00c3\u00b6glichkeit": 1879,
  "\u0120regard": 1880,
  "\u0120stra": 1881,
  "\u0120areas": 1882,
  "\u0120bild": 1883,
  "\u0120machen": 1884,
  "\u00c3\u00bcnd": 1885,
  "grund": 1886,
  "\u0120trade": 1887,
  "markt": 1888,
  "hing": 1889,
  "tend": 1890,
  "\u0120exp": 1891,
  "\u0120kur": 1892,
  "\u0120ref": 1893,
  "\u0120major": 1894,
  "\u0120cal": 1895,
  "\u0120second": 1896,
  "reit": 1897,
  "ness": 1898,
  "\u0120individ": 1899,
  "setzung": 1900,
  "\u0120achie": 1901,
  "reg": 1902,
  "\u0120inde": 1903,
  "\u0120rom": 1904,
  "\u0120posit": 1905,
  "\u0120including": 1906,
  "\u0120id": 1907,
  "ismus": 1908,
  "\u0120bietet": 1909,
  "\u00c3\u00b6l": 1910,
  "kr": 1911,
  "\u0120lage": 1912,
  "bed": 1913,
  "\u0120mob": 1914,
  "\u0120einfach": 1915,
  "\u0120protection": 1916,
  "\u0120instr": 1917,
  "schriften": 1918,
  "\u0120mor": 1919,
  "\u0120control": 1920,
  "akt": 1921,
  "uth": 1922,
  "ep": 1923,
  "\u0120democ": 1924,
  "ordin": 1925,
  "\u0120quality": 1926,
  "issar": 1927,
  "ziel": 1928,
  "\u0120think": 1929,
  "\u0120liegt": 1930,
  "\u0120gr\u00c3\u00b6\u00c3\u0141": 1931,
  "i\u00c3\u0141": 1932,
  "\u0120beispiel": 1933,
  "ichts": 1934,
  "\u0120pass": 1935,
  "\u0120sl": 1936,
  "\u0120text": 1937,
  "200": 1938,
  "ichten": 1939,
  "\u0120cann": 1940,
  "\u0120kosten": 1941,
  "\u0120proje": 1942,
  "annt": 1943,
  "ums": 1944,
  "\u0120weil": 1945,
  "punkt": 1946,
  "\u0120mot": 1947,
  "\u0120mult": 1948,
  "igten": 1949,
  "\u0120tele": 1950,
  "abei": 1951,
  "\u0120found": 1952,
  "\u0120zur\u00c3\u00bcck": 1953,
  "f\u00c3\u00bchrt": 1954,
  "\u0120dabei": 1955,
  "ragen": 1956,
  "ordnung": 1957,
  "come": 1958,
  "genommen": 1959,
  "earch": 1960,
  "\u0120nie": 1961,
  "\u0120said": 1962,
  "\u0120ret": 1963,
  "\u0120folgen": 1964,
  "assung": 1965,
  "ron": 1966,
  "kre": 1967,
  "\u0120necess": 1968,
  "\u0120consum": 1969,
  "\u0120jahre": 1970,
  "alk": 1971,
  "spl": 1972,
  "\u0120basis": 1973,
  "\u0120che": 1974,
  "\u0120conf": 1975,
  "urg": 1976,
  "org": 1977,
  "ains": 1978,
  "\u0120aussch": 1979,
  "\u0120research": 1980,
  "lect": 1981,
  "\u0120management": 1982,
  "\u0120elect": 1983,
  "\u0120citizens": 1984,
  "\u0120rules": 1985,
  "\u0120addition": 1986,
  "\u0120einzel": 1987,
  "\u0120while": 1988,
  "\u0120vorschlag": 1989,
  "komm": 1990,
  "po": 1991,
  "\u0120pay": 1992,
  "\u0120house": 1993,
  "derung": 1994,
  "\u0120conv": 1995,
  "\u0120hoch": 1996,
  "\u0120ann": 1997,
  "lungs": 1998,
  "\u0120government": 1999,
  "ilt": 2000,
  "\u0120weitere": 2001,
  "ica": 2002,
  "iew": 2003,
  "schaften": 2004,
  "ierungs": 2005,
  "okrat": 2006,
  "\u0120rates": 2007,
  "\u0120terr": 2008,
  "\u0120l\u00c3\u00a4nder": 2009,
  "\u0120software": 2010,
  "\u0120dank": 2011,
  "\u0120three": 2012,
  "bau": 2013,
  "\u0120question": 2014,
  "med": 2015,
  "gleich": 2016,
  "\u0120fle": 2017,
  "\u0120power": 2018,
  "\u0120wirk": 2019,
  "\u0120erkl\u00c3\u00a4r": 2020,
  "\u0120key": 2021,
  "\u0120unterst\u00c3\u00bctzung": 2022,
  "\u0120regional": 2023,
  "\u0120day": 2024,
  "aterial": 2025,
  "\u01202009": 2026,
  "\u0120w\u00c3\u00bcrde": 2027,
  "ining": 2028,
  "\u0120website": 2029,
  "stellen": 2030,
  "\u0120mal": 2031,
  "\u0120geht": 2032,
  "\u0120provide": 2033,
  "\u0120cult": 2034,
  "\u0120meine": 2035,
  "\u0120ear": 2036,
  "\u0120allow": 2037,
  "\u0120beim": 2038,
  "\u0120schon": 2039,
  "iving": 2040,
  "\u0120gl": 2041,
  "zess": 2042,
  "\u0120present": 2043,
  "\u0120reas": 2044,
  "eh": 2045,
  "immt": 2046,
  "legt": 2047,
  "\u0120notwend": 2048,
  "ellschaft": 2049,
  "\u0120course": 2050,
  "\u0120zweit": 2051,
  "\u0120dep": 2052,
  "ird": 2053,
  "f\u00c3\u00bchrung": 2054,
  "\u0120too": 2055,
  "han": 2056,
  "\u0120dar\u00c3\u00bcber": 2057,
  "ond": 2058,
  "ately": 2059,
  "\u0120systems": 2060,
  "\u0120press": 2061,
  "res": 2062,
  "\u0120discuss": 2063,
  "\u0120non": 2064,
  "\u0120energie": 2065,
  "inen": 2066,
  "\u0120dial": 2067,
  "\u0120x": 2068,
  "\u0120sing": 2069,
  "\u0120bin": 2070,
  "\u0120politik": 2071,
  "\u0120cannot": 2072,
  "icher": 2073,
  "\u0120tax": 2074,
  "lungen": 2075,
  "\u0120zie": 2076,
  "\u0120partner": 2077,
  "zahl": 2078,
  "\u0120gew\u00c3\u00a4hr": 2079,
  "\u0120fragen": 2080,
  "\u0120pop": 2081,
  "\u0120autom": 2082,
  "amer": 2083,
  "\u0120respect": 2084,
  "\u0120start": 2085,
  "ob": 2086,
  "\u0120tun": 2087,
  "gemein": 2088,
  "ross": 2089,
  "\u0120mir": 2090,
  "\u0120expl": 2091,
  "\u0120institution": 2092,
  "\u0120resol": 2093,
  "it\u00c3\u00a4ten": 2094,
  "\u0120child": 2095,
  "ged": 2096,
  "\u0120rooms": 2097,
  "\u0120believe": 2098,
  "\u0120next": 2099,
  "\u0120drei": 2100,
  "\u0120thank": 2101,
  "\u0120st\u00c3\u00a4r": 2102,
  "\u0120frame": 2103,
  "\u0120princ": 2104,
  "iben": 2105,
  "ucht": 2106,
  "\u0120lebens": 2107,
  "\u0120means": 2108,
  "ditions": 2109,
  "mb": 2110,
  "vement": 2111,
  "\u0120lassen": 2112,
  "\u0120bess": 2113,
  "ogra": 2114,
  "syste": 2115,
  "\u0120fore": 2116,
  "stellung": 2117,
  "\u0120contrib": 2118,
  "iter": 2119,
  "\u0120tro": 2120,
  "\u0120result": 2121,
  "\u0120lab": 2122,
  "\u0120taken": 2123,
  "esen": 2124,
  "\u0120rap": 2125,
  "\u0120partn": 2126,
  "ahn": 2127,
  "gangen": 2128,
  "\u0120stehen": 2129,
  "\u0120famil": 2130,
  "\u0120allem": 2131,
  "\u0120nat\u00c3\u00bcr": 2132,
  "igkeiten": 2133,
  "\u0120proced": 2134,
  "ktionen": 2135,
  "ually": 2136,
  "imes": 2137,
  "\u0120entscheid": 2138,
  "\u0120dienst": 2139,
  "red": 2140,
  "\u0120anal": 2141,
  "\u0120eur": 2142,
  "\u0120build": 2143,
  "eld": 2144,
  "iate": 2145,
  "\u0120offers": 2146,
  "ccess": 2147,
  "antwort": 2148,
  "utes": 2149,
  "\u0120interess": 2150,
  "omen": 2151,
  "\u0120rele": 2152,
  "\u0120san": 2153,
  "\u0120account": 2154,
  "wendung": 2155,
  "bereich": 2156,
  "\u0120example": 2157,
  "\u0120decision": 2158,
  "\u0120inner": 2159,
  "\u0120lim": 2160,
  "\u0120book": 2161,
  "bt": 2162,
  "ko": 2163,
  "\u0120pract": 2164,
  "\u0120park": 2165,
  "\u0120kin": 2166,
  "ivil": 2167,
  "astr": 2168,
  "\u0120tradition": 2169,
  "\u0120erfolg": 2170,
  "\u0120issue": 2171,
  "\u0120dra": 2172,
  "\u0120legal": 2173,
  "etzen": 2174,
  "\u0120demokrat": 2175,
  "\u0120accord": 2176,
  "gaben": 2177,
  "ren": 2178,
  "kungen": 2179,
  "\u0120enter": 2180,
  "\u0120stadt": 2181,
  "zieh": 2182,
  "\u0120ask": 2183,
  "undheit": 2184,
  "\u0120necessary": 2185,
  "\u012011": 2186,
  "\u0120tag": 2187,
  "\u0120def": 2188,
  "\u0120given": 2189,
  "\u0120kult": 2190,
  "\u0120aim": 2191,
  "\u0120rece": 2192,
  "ec": 2193,
  "hof": 2194,
  "\u0120lis": 2195,
  "falls": 2196,
  "\u0120problems": 2197,
  "\u0120univers": 2198,
  "\u0120let": 2199,
  "\u0120besch\u00c3\u00a4ft": 2200,
  "\u0120&": 2201,
  "clus": 2202,
  "\u0120gre": 2203,
  "\u0120defin": 2204,
  "glichen": 2205,
  "ized": 2206,
  "iod": 2207,
  "asser": 2208,
  "other": 2209,
  "\u0120vertrag": 2210,
  "portun": 2211,
  "mon": 2212,
  "\u0120richtlinie": 2213,
  "\u00c3\u00a4d": 2214,
  "\u0120dialog": 2215,
  "\u0120change": 2216,
  "\u0120kommissar": 2217,
  "\u0120sum": 2218,
  "ets": 2219,
  "\u0120sector": 2220,
  "\u0120bew": 2221,
  "\u012030": 2222,
  "\u0120sal": 2223,
  "ichter": 2224,
  "\u0120opportun": 2225,
  "\u0120company": 2226,
  "eten": 2227,
  "umen": 2228,
  "\u0120read": 2229,
  "wards": 2230,
  "allen": 2231,
  "\u0120large": 2232,
  "\u0120personal": 2233,
  "ises": 2234,
  "\u0120success": 2235,
  "\u0120schne": 2236,
  "\u0120dav": 2237,
  "\u0120wollen": 2238,
  "\u0120based": 2239,
  "\u0120deshalb": 2240,
  "iation": 2241,
  "\u0120erhalten": 2242,
  "\u0120herrn": 2243,
  "angen": 2244,
  "\u0120ersten": 2245,
  "\u0120invol": 2246,
  "\u0120stellen": 2247,
  "ways": 2248,
  "\u0120abge": 2249,
  "\u0120regel": 2250,
  "\u0120bil": 2251,
  "\u0120span": 2252,
  "cken": 2253,
  "\u0120wind": 2254,
  "\u0120ander": 2255,
  "\u0120online": 2256,
  "m\u00c3\u00b6glich": 2257,
  "\u0120why": 2258,
  "schied": 2259,
  "gehen": 2260,
  "\u0120heraus": 2261,
  "orth": 2262,
  "\u0120schutz": 2263,
  "lossen": 2264,
  "\u0120zimmer": 2265,
  "\u0120united": 2266,
  "ty": 2267,
  "\u0120wach": 2268,
  "\u012025": 2269,
  "\u0120sehen": 2270,
  "altung": 2271,
  "\u0120vertre": 2272,
  "f\u00c3\u00a4h": 2273,
  "zw": 2274,
  "\u0120framework": 2275,
  "raum": 2276,
  "\u0120life": 2277,
  "ding": 2278,
  "schutz": 2279,
  "isions": 2280,
  "leit": 2281,
  "\u0120better": 2282,
  "\u01202010": 2283,
  "\u0120following": 2284,
  "\u0120give": 2285,
  "\u0120ergeb": 2286,
  "\u00c3\u00a4ss": 2287,
  "\u0120l\u00c3\u00a4ndern": 2288,
  "ared": 2289,
  "iety": 2290,
  "\u0120food": 2291,
  "\u0120fiel": 2292,
  "\u0120unseren": 2293,
  "\u0120infr": 2294,
  "zept": 2295,
  "aren": 2296,
  "\u0120km": 2297,
  "\u0120benef": 2298,
  "\u0120stre": 2299,
  "\u0120centre": 2300,
  "\u0120l\u00c3\u00b6s": 2301,
  "\u0120represent": 2302,
  "\u0120progress": 2303,
  "\u0120verbrauch": 2304,
  "\u0120abs": 2305,
  "ting": 2306,
  "text": 2307,
  "ritte": 2308,
  "\u0120lead": 2309,
  "10": 2310,
  "halts": 2311,
  "\u0120home": 2312,
  "\u0120erforder": 2313,
  "\u0120material": 2314,
  "\u0120internationalen": 2315,
  "amm": 2316,
  "fre": 2317,
  "ively": 2318,
  "ingungen": 2319,
  "\u0120companies": 2320,
  "\u0120tar": 2321,
  "\u0120growth": 2322,
  "ference": 2323,
  "\u0120current": 2324,
  "\u0120mer": 2325,
  "\u0120histor": 2326,
  "\u0120private": 2327,
  "\u0120fahr": 2328,
  "\u0120comb": 2329,
  "\u0120parlaments": 2330,
  "ock": 2331,
  "ether": 2332,
  "gestellt": 2333,
  "\u0120partners": 2334,
  "\u0120verantwort": 2335,
  "]]": 2336,
  "\u0120nah": 2337,
  "h\u00c3\u00a4ng": 2338,
  "ungsant": 2339,
  "\u0120sport": 2340,
  "\u0120republ": 2341,
  "\u0120hotels": 2342,
  "\u0120kontro": 2343,
  "\u0120ident": 2344,
  "asch": 2345,
  "\u00c3\u00a4tze": 2346,
  "\u0120reach": 2347,
  "\u0120struct": 2348,
  "ca": 2349,
  "\u0120bring": 2350,
  "\u0120needs": 2351,
  "burg": 2352,
  "\u0120regierung": 2353,
  "\u0120effort": 2354,
  "\u0120third": 2355,
  "ache": 2356,
  "uge": 2357,
  "\u0120industry": 2358,
  "\u0120bor": 2359,
  "\u0120conditions": 2360,
  "ker": 2361,
  "\u0120wirtschafts": 2362,
  "ify": 2363,
  "\u0120pa": 2364,
  "politik": 2365,
  "ffe": 2366,
  "uchen": 2367,
  "\u0120statt": 2368,
  "\u0120facil": 2369,
  "\u0120stay": 2370,
  "\u0120pack": 2371,
  "\u01202007": 2372,
  "\u0120forsch": 2373,
  "\u0120ihrem": 2374,
  "\u0120china": 2375,
  "tain": 2376,
  "\u0120prom": 2377,
  "\u01202008": 2378,
  "ength": 2379,
  "\u0120imp": 2380,
  "\u0120glau": 2381,
  "ogen": 2382,
  "\u0120tats": 2383,
  "\u0120local": 2384,
  "dr": 2385,
  "\u0120debate": 2386,
  "\u0120welche": 2387,
  "\u0120orig": 2388,
  "\u0120bedeutung": 2389,
  "\u0120soc": 2390,
  "\u0120ec": 2391,
  "bild": 2392,
  "\u0120court": 2393,
  "\u0120[[": 2394,
  "\u0120organis": 2395,
  "\u0120interest": 2396,
  "\u0120working": 2397,
  "eder": 2398,
  "\u0120deutsch": 2399,
  "\u0120ak": 2400,
  "\u0120gesundheit": 2401,
  "\u0120water": 2402,
  "\u0120another": 2403,
  "\u0120verst": 2404,
  "\u0120few": 2405,
  "tellen": 2406,
  "\u0120etwas": 2407,
  "fon": 2408,
  "\u0120adopted": 2409,
  "\u0120lea": 2410,
  "\u0120besteht": 2411,
  "uter": 2412,
  "\u0120apart": 2413,
  "sibility": 2414,
  "hang": 2415,
  "\u0120located": 2416,
  "\u0120issues": 2417,
  "\u0120come": 2418,
  "\u0120sor": 2419,
  "gabe": 2420,
  "\u0120post": 2421,
  "\u0120kunden": 2422,
  "\u0120geben": 2423,
  "\u0120address": 2424,
  "\u0120ble": 2425,
  "unde": 2426,
  "\u0120negot": 2427,
  "ennt": 2428,
  "blick": 2429,
  "\u0120exist": 2430,
  "gew": 2431,
  "\u0120ende": 2432,
  "\u0120production": 2433,
  "\u0120period": 2434,
  "chs": 2435,
  "\u0120tur": 2436,
  "\u0120saf": 2437,
  "ikan": 2438,
  "druck": 2439,
  "\u0120whether": 2440,
  "\u0120verpf": 2441,
  "\u0120web": 2442,
  "\u0120gol": 2443,
  "\u0120vi": 2444,
  "ning": 2445,
  "\u0120toget": 2446,
  "\u0120afr": 2447,
  "ught": 2448,
  "\u0120together": 2449,
  "teilung": 2450,
  "\u0120distr": 2451,
  "\u0120arch": 2452,
  "\u0120allgemein": 2453,
  "immung": 2454,
  "\u0120single": 2455,
  "\u0120angeb": 2456,
  "duc": 2457,
  "\u0120central": 2458,
  "\u01202000": 2459,
  "\u0120anges": 2460,
  "\u0120deren": 2461,
  "\u0120role": 2462,
  "\u0120treaty": 2463,
  "\u0120/": 2464,
  "\u0120jeder": 2465,
  "\u0120did": 2466,
  "ising": 2467,
  "chan": 2468,
  "go": 2469,
  "\u0120kont": 2470,
  "\u0120gesch\u00c3\u00a4ft": 2471,
  "\u0120agricult": 2472,
  "\u0120worden": 2473,
  "\u0120steht": 2474,
  "\u0120seinen": 2475,
  "\u0120einmal": 2476,
  "\u0120geh\u00c3\u00b6r": 2477,
  "over": 2478,
  "agt": 2479,
  "indet": 2480,
  "\u0120install": 2481,
  "\u0120specific": 2482,
  "\u0120tot": 2483,
  "\u0120letzten": 2484,
  "\u012016": 2485,
  "\u0120rad": 2486,
  "ven": 2487,
  "inge": 2488,
  "spra": 2489,
  "aran": 2490,
  "\u0120visit": 2491,
  "\u0120produkt": 2492,
  "enten": 2493,
  "\u0120cho": 2494,
  "\u012014": 2495,
  "\u00e2\u0124": 2496,
  "\u00e2\u0124\u00ac": 2497,
  "ulation": 2498,
  "\u0120frei": 2499,
  "iges": 2500,
  "\u0120origin": 2501,
  "\u0120version": 2502,
  "opp": 2503,
  "\u0120less": 2504,
  "\u0120kar": 2505,
  "\u0120mag": 2506,
  "uments": 2507,
  "\u0120weg": 2508,
  "\u0120short": 2509,
  "\u00c3\u00b6t": 2510,
  "istance": 2511,
  "\u0120betre": 2512,
  "\u0120sagen": 2513,
  "uten": 2514,
  "\u0120r\u00c3\u00bcck": 2515,
  "ikel": 2516,
  "spolitik": 2517,
  "\u0120integration": 2518,
  "\u0120terms": 2519,
  "ika": 2520,
  "\u0120mad": 2521,
  "sequ": 2522,
  "\u0120terror": 2523,
  "\u0120site": 2524,
  "\u0120exce": 2525,
  "rechte": 2526,
  "\u0120mat": 2527,
  "joy": 2528,
  "ehen": 2529,
  "\u0120dom": 2530,
  "lands": 2531,
  "\u0120chang": 2532,
  "\u0120please": 2533,
  "ief": 2534,
  "\u0120beach": 2535,
  "\u0120tem": 2536,
  "\u0120educ": 2537,
  "\u0120innerhalb": 2538,
  "\u0120sowohl": 2539,
  "\u0120enjoy": 2540,
  "\u0120individual": 2541,
  "\u0120verk": 2542,
  "30": 2543,
  "\u0120particip": 2544,
  "\u0120somet": 2545,
  "r\u00c3\u00a4n": 2546,
  "iar": 2547,
  "erst": 2548,
  "iations": 2549,
  "airs": 2550,
  "\u0120disk": 2551,
  "ser": 2552,
  "\u0120standard": 2553,
  "\u0120crit": 2554,
  "\u0120appe": 2555,
  "\u0120break": 2556,
  "\u0120strategy": 2557,
  "\u012050": 2558,
  "\u0120top": 2559,
  "yn": 2560,
  "\u0120using": 2561,
  "\u0120mind": 2562,
  "\u0120around": 2563,
  "\u0120regulation": 2564,
  "\u0120team": 2565,
  "\u0120wahr": 2566,
  "\u0120nat\u00c3\u00bcrlich": 2567,
  "\u0120usa": 2568,
  "\u0120shall": 2569,
  "ek": 2570,
  "schein": 2571,
  "\u0120conne": 2572,
  "\u0120show": 2573,
  "h\u00c3\u00b6": 2574,
  "\u0120admin": 2575,
  "\u0120zukunft": 2576,
  "\u0120politischen": 2577,
  "\u0120gro\u00c3\u0141e": 2578,
  "\u0120bitte": 2579,
  "ety": 2580,
  "\u0120complete": 2581,
  "\u0120gro\u00c3\u0141en": 2582,
  "\u0120w\u00c3\u00a4re": 2583,
  "\u0120approach": 2584,
  "\u0120au\u00c3\u0141erdem": 2585,
  "ott": 2586,
  "\u0120month": 2587,
  "\u0120benutz": 2588,
  "\u00c3\u00bcnft": 2589,
  "\u0120continue": 2590,
  "\u0120fern": 2591,
  "ctions": 2592,
  "\u0120initiative": 2593,
  "\u0120resour": 2594,
  "staat": 2595,
  "\u0120particularly": 2596,
  "\u0120industr": 2597,
  "\u0120ans": 2598,
  "ars": 2599,
  "\u0120subject": 2600,
  "rech": 2601,
  "imate": 2602,
  "\u0120sever": 2603,
  "\u0120investment": 2604,
  "\u0120liber": 2605,
  "\u0120authorities": 2606,
  "kung": 2607,
  "\u0120hope": 2608,
  "porte": 2609,
  "ury": 2610,
  "\u0120wettbewerbs": 2611,
  "atives": 2612,
  "\u0120k\u00c3\u00b6nnte": 2613,
  "\u0120relations": 2614,
  "ches": 2615,
  "\u012017": 2616,
  "uppe": 2617,
  "\u0120pot": 2618,
  "\u0120n\u00c3\u00a4ch": 2619,
  "\u0120gemeinsamen": 2620,
  "\u0120doc": 2621,
  "icient": 2622,
  "ications": 2623,
  "ring": 2624,
  "stehen": 2625,
  "ller": 2626,
  "\u0120gegen\u00c3\u00bcber": 2627,
  "\u0120restaurant": 2628,
  "dien": 2629,
  "\u0120log": 2630,
  "ished": 2631,
  "\u0120s\u00c3\u00bc": 2632,
  "\u00c3\u00bcf": 2633,
  "\u0120verf\u00c3\u00bcgung": 2634,
  "\u0120offen": 2635,
  "\u0120fisch": 2636,
  "\u0120prot": 2637,
  "dert": 2638,
  "\u0120she": 2639,
  "\u0120lux": 2640,
  "\u0120profession": 2641,
  "\u0120besonders": 2642,
  "verkehr": 2643,
  "\u0120activities": 2644,
  "\u0120stabil": 2645,
  "uring": 2646,
  "\u0120uk": 2647,
  "\u0120wa": 2648,
  "racht": 2649,
  "xim": 2650,
  "stru": 2651,
  "\u0120funktion": 2652,
  "by": 2653,
  "leistungen": 2654,
  "\u0120writ": 2655,
  "\u0120neu": 2656,
  "\u0120extre": 2657,
  "auer": 2658,
  "\u0120foreign": 2659,
  "icle": 2660,
  "\u0120hervor": 2661,
  "\u0120ren": 2662,
  "pp": 2663,
  "\u0120projects": 2664,
  "\u00c3\u00bcnst": 2665,
  "\u0120d\u00c3\u00bcr": 2666,
  "bei": 2667,
  "asse": 2668,
  "\u0120flex": 2669,
  "w\u00c3\u00a4r": 2670,
  "\u0120organisation": 2671,
  "zentr": 2672,
  "\u0120davon": 2673,
  "\u0120inc": 2674,
  "....": 2675,
  "\u0120abst": 2676,
  "astru": 2677,
  "\u0120dig": 2678,
  "\u0120always": 2679,
  "\u0120care": 2680,
  "\u0120standards": 2681,
  "\u0120namen": 2682,
  "ifiz": 2683,
  "bet": 2684,
  "ands": 2685,
  "\u0120stim": 2686,
  "\u0120safety": 2687,
  "\u0120become": 2688,
  "\u0120dort": 2689,
  "oten": 2690,
  "ension": 2691,
  "\u0120difficult": 2692,
  "\u0120derzeit": 2693,
  "\u0120among": 2694,
  "\u0120milit": 2695,
  "\u0120vill": 2696,
  "igr": 2697,
  "ey": 2698,
  "\u0120rolle": 2699,
  "\u0120hilfe": 2700,
  "stan": 2701,
  "\u0120opin": 2702,
  "\u0120competition": 2703,
  "\u0120near": 2704,
  "\u0120sen": 2705,
  "fs": 2706,
  "\u0120call": 2707,
  "nehmer": 2708,
  "\u0120mu\u00c3\u0141": 2709,
  "\u0120unterst\u00c3\u00bctzen": 2710,
  "\u0120schluss": 2711,
  "\u0120100": 2712,
  "\u0120hig": 2713,
  "cle": 2714,
  "\u0120guaran": 2715,
  "reif": 2716,
  "isis": 2717,
  "\u0120erreichen": 2718,
  "\u0120spra": 2719,
  "\u0120reason": 2720,
  "\u0120staff": 2721,
  "\u0120lat": 2722,
  "\u0120fortsch": 2723,
  "\u0120wahl": 2724,
  "\u0120old": 2725,
  "ustain": 2726,
  "\u0120date": 2727,
  "\u0120perform": 2728,
  "\u0120implementation": 2729,
  "\u0120legislation": 2730,
  "\u0120wish": 2731,
  "recht": 2732,
  "\u0120bill": 2733,
  "asing": 2734,
  "oun": 2735,
  "ols": 2736,
  "\u0120frien": 2737,
  "\u0120aktiv": 2738,
  "h\u00c3\u00b6rden": 2739,
  "\u0120weise": 2740,
  "yl": 2741,
  "\u0120commissions": 2742,
  "cially": 2743,
  "\u0120bestehen": 2744,
  "ativen": 2745,
  "\u012013": 2746,
  "\u0120once": 2747,
  "\u0120typ": 2748,
  "\u0120experience": 2749,
  "\u0120review": 2750,
  "\u0120verkehr": 2751,
  "ique": 2752,
  "\u0120list": 2753,
  "\u0120direkt": 2754,
  "\u0120\u00e2\u0124\u00ac": 2755,
  "\u0120mess": 2756,
  "\u0120erweit": 2757,
  "\u0120intro": 2758,
  "ichtet": 2759,
  "ober": 2760,
  "\u0120colle": 2761,
  "\u0120il": 2762,
  "icial": 2763,
  "\u0120gr\u00c3\u00bcn": 2764,
  "\u0120south": 2765,
  "dings": 2766,
  "\u0120close": 2767,
  "\u0120erg": 2768,
  "\u0120turn": 2769,
  "less": 2770,
  "ification": 2771,
  "\u0120ca": 2772,
  "\u0120kinder": 2773,
  "\u0120institutions": 2774,
  "wach": 2775,
  "\u0120tas": 2776,
  "\u0120macht": 2777,
  "program": 2778,
  "\u0120hatte": 2779,
  "\u0120verhand": 2780,
  "\u0120emp": 2781,
  "\u0120crisis": 2782,
  "\u0120zusammenhang": 2783,
  "\u0120several": 2784,
  "\u00c3\u00a4u": 2785,
  "\u012024": 2786,
  "\u0120natur": 2787,
  "\u0120various": 2788,
  "\u0120kind": 2789,
  "\u0120run": 2790,
  "\u0120clos": 2791,
  "\u0120zwar": 2792,
  "\u0120employment": 2793,
  "\u0120alles": 2794,
  "\u0120introdu": 2795,
  "\u0120personen": 2796,
  "\u0120express": 2797,
  "50": 2798,
  "\u0120kommen": 2799,
  "\u0120frauen": 2800,
  "\u0120probleme": 2801,
  "\u0120strength": 2802,
  "\u0120staaten": 2803,
  "igent": 2804,
  "\u0120ess": 2805,
  "tion": 2806,
  "\u0120hinaus": 2807,
  "\u0120towards": 2808,
  "\u0120jan": 2809,
  "\u0120sustain": 2810,
  "ichterst": 2811,
  "\u0120beteil": 2812,
  "\u0120pap": 2813,
  "\u0120dan": 2814,
  "\u0120unt": 2815,
  "\u0120frank": 2816,
  "\u0120meiner": 2817,
  "ipl": 2818,
  "\u00c3\u0141e": 2819,
  "\u0120line": 2820,
  "\u0120\u00c3\u00a4nderungsant": 2821,
  "fehl": 2822,
  "\u0120equip": 2823,
  "\u0120kam": 2824,
  "\u00c3\u00bct": 2825,
  "ination": 2826,
  "\u0120affairs": 2827,
  "\u0120peace": 2828,
  "wa": 2829,
  "\u0120begr\u00c3\u00bc": 2830,
  "ults": 2831,
  "\u0120verschiedenen": 2832,
  "ites": 2833,
  "\u0120entfern": 2834,
  "\u0120economy": 2835,
  "\u0120kons": 2836,
  "\u0120whole": 2837,
  "\u0120vote": 2838,
  "\u0120create": 2839,
  "\u0120umsetzung": 2840,
  "\u0120deal": 2841,
  "\u0120ern": 2842,
  "pecially": 2843,
  "ban": 2844,
  "\u0120bieten": 2845,
  "\u0120four": 2846,
  "ima": 2847,
  "\u0120increase": 2848,
  "ican": 2849,
  "\u0120thema": 2850,
  "\u0120assoc": 2851,
  "\u0120event": 2852,
  "\u0120fehl": 2853,
  "\u0120zentr": 2854,
  "\u0120win": 2855,
  "\u0120nationalen": 2856,
  "ferenz": 2857,
  "\u0120kre": 2858,
  "\u0120signific": 2859,
  "isches": 2860,
  "\u0120sea": 2861,
  "\u0120beginn": 2862,
  "iple": 2863,
  "\u0120hos": 2864,
  "forderungen": 2865,
  "eu": 2866,
  "produ": 2867,
  "\u0120ausschuss": 2868,
  "ably": 2869,
  "\u0120bezug": 2870,
  "\u0120brit": 2871,
  "\u0120vielen": 2872,
  "\u0120kurz": 2873,
  "m\u00c3\u00a4\u00c3\u0141": 2874,
  "\u0120mass": 2875,
  "\u0120haupt": 2876,
  "\u0120erste": 2877,
  "\u0120k\u00c3\u00bc": 2878,
  "\u0120page": 2879,
  "\u0120occ": 2880,
  "\u0120wesent": 2881,
  "\u0120vier": 2882,
  "\u0120kap": 2883,
  "iken": 2884,
  "\u0120solid": 2885,
  "bank": 2886,
  "\u0120vide": 2887,
  "\u0120sett": 2888,
  "fassung": 2889,
  "\u0120artikel": 2890,
  "\u0120langu": 2891,
  "\u0120gent": 2892,
  "ksam": 2893,
  "\u0120especially": 2894,
  "\u0120foc": 2895,
  "\u0120wes": 2896,
  "vour": 2897,
  "\u0120germany": 2898,
  "\u01202006": 2899,
  "\u0120sollen": 2900,
  "\u0120red": 2901,
  "\u0120f\u00c3\u00bchren": 2902,
  "\u0120ja": 2903,
  "\u0120seite": 2904,
  "\u0120t\u00c3\u00a4t": 2905,
  "ierungen": 2906,
  "\u0120fis": 2907,
  "roffen": 2908,
  "\u0120competit": 2909,
  "\u0120klar": 2910,
  "\u0120name": 2911,
  "\u0120brauch": 2912,
  "\u0120:": 2913,
  "ived": 2914,
  "erstell": 2915,
  "\u0120contact": 2916,
  "haus": 2917,
  "\u0120presiden": 2918,
  "\u0120technology": 2919,
  "\u0120komp": 2920,
  "elves": 2921,
  "\u0120behand": 2922,
  "\u0120children": 2923,
  "\u0120\u00c3\u00bc": 2924,
  "\u00c3\u00bcs": 2925,
  "19": 2926,
  "liegen": 2927,
  "ma\u00c3\u0141": 2928,
  "\u0120policies": 2929,
  "\u0120beiden": 2930,
  "\u0120feat": 2931,
  "\u0120entsprechen": 2932,
  "\u0120zugang": 2933,
  "f\u00c3\u00bchren": 2934,
  "oren": 2935,
  "rang": 2936,
  "\u0120according": 2937,
  "\u0120kollegen": 2938,
  "\u0120women": 2939,
  "ategor": 2940,
  "\u0120verbraucher": 2941,
  "\u0120resources": 2942,
  "\u0120weiterhin": 2943,
  "\u0120recog": 2944,
  "ckt": 2945,
  "\u0120democrat": 2946,
  "\u0120training": 2947,
  "cher": 2948,
  "\u0120check": 2949,
  "\u0120wohl": 2950,
  "\u0120automat": 2951,
  "\u0120forward": 2952,
  "unehmen": 2953,
  "\u0120lad": 2954,
  "\u00c3\u00a4nde": 2955,
  "ides": 2956,
  "\u0120provided": 2957,
  "met": 2958,
  "ommend": 2959,
  "\u0120eigenen": 2960,
  "\u0120etwa": 2961,
  "load": 2962,
  "\u0120optim": 2963,
  "\u0120weltweit": 2964,
  "\u0120poin": 2965,
  "\u0120environmental": 2966,
  "\u0120000": 2967,
  "bereit": 2968,
  "\u0120resolution": 2969,
  "\u0120refer": 2970,
  "\u0120making": 2971,
  "\u0120due": 2972,
  "\u0120zust\u00c3\u00a4nd": 2973,
  "\u0120recommend": 2974,
  "\u0120stellt": 2975,
  "vorschriften": 2976,
  "\u0120strong": 2977,
  "\u0120allerdings": 2978,
  "\u0120phot": 2979,
  "\u0120gesetz": 2980,
  "itution": 2981,
  "\u0120lau": 2982,
  "\u0120seiten": 2983,
  "sk": 2984,
  "\u0120yet": 2985,
  "\u0120mom": 2986,
  "\u0120price": 2987,
  "\u0120wachst": 2988,
  "tt": 2989,
  "minister": 2990,
  "\u0120genau": 2991,
  "enzen": 2992,
  "mos": 2993,
  "\u0120meeting": 2994,
  "\u0120infrastru": 2995,
  "\u0120preis": 2996,
  "\u0120g\u00c3\u00a4": 2997,
  "\u00c3\u00a4gt": 2998,
  "indung": 2999,
  "uppen": 3000,
  "pfung": 3001,
  "\u0120hard": 3002,
  "tember": 3003,
  "\u0120matter": 3004,
  "ody": 3005,
  "atte": 3006,
  "\u0120proposals": 3007,
  "bour": 3008,
  "vo": 3009,
  "\u0120fast": 3010,
  "oss": 3011,
  "\u0120krit": 3012,
  "\u0120nutzen": 3013,
  "ograph": 3014,
  "\u0120auswir": 3015,
  "asst": 3016,
  "\u0120beaut": 3017,
  "\u0120\u00c3\u00b6ffentlichen": 3018,
  "\u0120education": 3019,
  "weisen": 3020,
  "\u0120him": 3021,
  "\u0120location": 3022,
  "\u0120proposed": 3023,
  "mat": 3024,
  "cel": 3025,
  "\u0120fair": 3026,
  "room": 3027,
  "\u0120town": 3028,
  "heb": 3029,
  "\u0120aufge": 3030,
  "\u0120unterschied": 3031,
  "\u0120entwicklungs": 3032,
  "\u0120mrs": 3033,
  "ames": 3034,
  "\u0120altern": 3035,
  "\u0120cover": 3036,
  "\u0120comfort": 3037,
  "ieten": 3038,
  "the": 3039,
  "\u0120schwier": 3040,
  "\u0120presidency": 3041,
  "\u0120contra": 3042,
  "\u0120society": 3043,
  "\u0120gas": 3044,
  "\u00c3\u00a4um": 3045,
  "\u0120berichterst": 3046,
  "\u0120staat": 3047,
  "\u0120test": 3048,
  "werk": 3049,
  "\u0120t\u00c3\u00bcr": 3050,
  "\u0120light": 3051,
  "ifft": 3052,
  "ization": 3053,
  "\u0120gesellschaft": 3054,
  "\u0120fr\u00c3\u00bch": 3055,
  "inden": 3056,
  "\u0120aufgrund": 3057,
  "\u0120rapporte": 3058,
  "\u0120internal": 3059,
  "wand": 3060,
  "letz": 3061,
  "\u0120doub": 3062,
  "\u0120detail": 3063,
  "\u0120total": 3064,
  "\u01202005": 3065,
  "\u0120198": 3066,
  "\u0120wert": 3067,
  "zeichnet": 3068,
  "\u0120enc": 3069,
  "\u0120field": 3070,
  "\u0120focus": 3071,
  "lie\u00c3\u0141en": 3072,
  "ots": 3073,
  "\u00c3\u00bccksicht": 3074,
  "\u0120welcome": 3075,
  "ators": 3076,
  "\u0120effective": 3077,
  "\u0120zus\u00c3\u00a4tz": 3078,
  "\u0120network": 3079,
  "\u0120mid": 3080,
  "w\u00c3\u00a4rt": 3081,
  "\u0120fully": 3082,
  "\u0120serious": 3083,
  "\u0120industrie": 3084,
  "\u0120haushalts": 3085,
  "\u0120hinter": 3086,
  "mail": 3087,
  "\u0120attra": 3088,
  "\u0120austr": 3089,
  "\u0120fundament": 3090,
  "verb": 3091,
  "\u0120done": 3092,
  "\u0120west": 3093,
  "stoff": 3094,
  "\u0120head": 3095,
  "aster": 3096,
  "\u0120bi": 3097,
  "des": 3098,
  "\u0120favour": 3099,
  "\u0120infl": 3100,
  "itor": 3101,
  "\u0120speak": 3102,
  "\u0120befindet": 3103,
  "\u0120regions": 3104,
  "\u0120sat": 3105,
  "weis": 3106,
  "ash": 3107,
  "\u0120arg": 3108,
  "\u0120isra": 3109,
  "\u0120jahres": 3110,
  "idence": 3111,
  "\u0120vereinbar": 3112,
  "\u0120north": 3113,
  "\u0120schwer": 3114,
  "\u0120subs": 3115,
  "row": 3116,
  "\u0120significant": 3117,
  "zogen": 3118,
  "\u01202004": 3119,
  "\u0120ber\u00c3\u00bccksicht": 3120,
  "\u0120gelegen": 3121,
  "\u0120mechan": 3122,
  "\u0120eg": 3123,
  "\u0120wider": 3124,
  "\u0120civil": 3125,
  "arten": 3126,
  "\u0120chr": 3127,
  "\u0120pan": 3128,
  "\u0120hy": 3129,
  "\u0120family": 3130,
  "\u0120blo": 3131,
  "bon": 3132,
  "\u0120least": 3133,
  "ival": 3134,
  "hil": 3135,
  "\u0120binnen": 3136,
  "\u0120italien": 3137,
  "\u0120entscheiden": 3138,
  "\u0120never": 3139,
  "\u0120dest": 3140,
  "seit": 3141,
  "verfahren": 3142,
  "\u0120concerned": 3143,
  "frist": 3144,
  "\u0120sep": 3145,
  "\u0120remain": 3146,
  "liches": 3147,
  "\u0120konn": 3148,
  "\u0120schnell": 3149,
  "llent": 3150,
  "\u0120bem": 3151,
  "gelegt": 3152,
  "\u0120jap": 3153,
  "\u0120function": 3154,
  "\u0120hinsicht": 3155,
  "v\u00c3\u00b6l": 3156,
  "\u0120risk": 3157,
  "erien": 3158,
  "\u0120until": 3159,
  "\u0120nov": 3160,
  "\u0120arbeiten": 3161,
  "\u0120class": 3162,
  "\u0120markets": 3163,
  "ias": 3164,
  "\u0120road": 3165,
  "\u0120administr": 3166,
  "\u0120opinion": 3167,
  "schluss": 3168,
  "\u0120gesch\u00c3\u00a4fts": 3169,
  "\u0120compl": 3170,
  "zug": 3171,
  "\u0120pur": 3172,
  "term": 3173,
  "\u0120betrie": 3174,
  "\u0120include": 3175,
  "\u0120bra": 3176,
  "amt": 3177,
  "\u0120verfahren": 3178,
  "fa": 3179,
  "\u0120joint": 3180,
  "itionen": 3181,
  "\u0120jul": 3182,
  "fast": 3183,
  "lig": 3184,
  "\u0120nachhalt": 3185,
  "vention": 3186,
  "wh": 3187,
  "\u0120neben": 3188,
  "\u0120portug": 3189,
  "\u0120application": 3190,
  "\u0120money": 3191,
  "\u0120landwirtschaft": 3192,
  "\u0120itself": 3193,
  "\u00c3\u00a4ren": 3194,
  "\u0120kultur": 3195,
  "\u0120funds": 3196,
  "\u0120wasser": 3197,
  "ove": 3198,
  "ians": 3199,
  "\u0120einges": 3200,
  "\u0120m\u00c3\u00b6chten": 3201,
  "\u0120innovation": 3202,
  "\u0120efforts": 3203,
  "most": 3204,
  "\u0120ort": 3205,
  "ending": 3206,
  "\u0120kommt": 3207,
  "\u0120projekt": 3208,
  "\u0120link": 3209,
  "abh\u00c3\u00a4ng": 3210,
  "\u0120often": 3211,
  "\u0120really": 3212,
  "\u0120unterst\u00c3\u00bctzt": 3213,
  "erk": 3214,
  "weil": 3215,
  "iesen": 3216,
  "\u0120customers": 3217,
  "\u0120harmon": 3218,
  "\u0120costs": 3219,
  "\u0120m\u00c3\u00a4r": 3220,
  "\u0120range": 3221,
  "\u00c3\u00a4cht": 3222,
  "gs": 3223,
  "\u0120deutschland": 3224,
  "ino": 3225,
  "\u0120big": 3226,
  "\u0120amb": 3227,
  "sweise": 3228,
  "\u0120leist": 3229,
  "linien": 3230,
  "\u0120positive": 3231,
  "\u0120indem": 3232,
  "ality": 3233,
  "ichen": 3234,
  "\u0120weniger": 3235,
  "\u0120wirklich": 3236,
  "arch": 3237,
  "hilfe": 3238,
  "\u0120kor": 3239,
  "thing": 3240,
  "\u0120importance": 3241,
  "itions": 3242,
  "\u0120ii": 3243,
  "\u0120reserv": 3244,
  "\u0120struktur": 3245,
  "\u0120ebene": 3246,
  "ziehungen": 3247,
  "\u0120capital": 3248,
  "ined": 3249,
  "annten": 3250,
  "\u0120suff": 3251,
  "\u0120engl": 3252,
  "\u0120ce": 3253,
  "\u0120days": 3254,
  "\u0120procedure": 3255,
  "ba": 3256,
  "\u0120vertra": 3257,
  "\u0120appropr": 3258,
  "\u0120understand": 3259,
  "\u0120value": 3260,
  "iner": 3261,
  "lemen": 3262,
  "\u0120politische": 3263,
  "genda": 3264,
  "\u0120justice": 3265,
  "\u0120f\u00c3\u00b6rderung": 3266,
  "schlie\u00c3\u0141lich": 3267,
  "\u0120excellent": 3268,
  "\u0120erziel": 3269,
  "\u0120entfernt": 3270,
  "\u0120millionen": 3271,
  "\u0120luft": 3272,
  "\u0120nehmen": 3273,
  "\u0120essential": 3274,
  "\u0120erne": 3275,
  "\u0120extrem": 3276,
  "\u0120gemeinsame": 3277,
  "\u0120parties": 3278,
  "\u0120challen": 3279,
  "\u0120h\u00c3\u00a4t": 3280,
  "\u0120taking": 3281,
  "\u0120having": 3282,
  "\u0120vorgesch": 3283,
  "\u0120technical": 3284,
  "\u0120ged": 3285,
  "\u0120bau": 3286,
  "frage": 3287,
  "\u0120moment": 3288,
  "\u0120grundlage": 3289,
  "\u0120n\u00c3\u00a4": 3290,
  "\u0120au\u00c3\u0141en": 3291,
  "\u0120led": 3292,
  "\u0120deliver": 3293,
  "\u01202003": 3294,
  "\u0120geld": 3295,
  "voll": 3296,
  "\u0120transpar": 3297,
  "\u0120consult": 3298,
  "let": 3299,
  "\u0120results": 3300,
  "\u0120creat": 3301,
  "\u0120exch": 3302,
  "\u0120nu": 3303,
  "\u0120angelegen": 3304,
  "\u0120accept": 3305,
  "iers": 3306,
  "iere": 3307,
  "\u0120ju": 3308,
  "it\u00c3\u00a4ts": 3309,
  "\u0120camp": 3310,
  "\u0120berlin": 3311,
  "r\u00c3\u00a4ge": 3312,
  "\u0120gilt": 3313,
  "\u0120continu": 3314,
  "\u0120provides": 3315,
  "\u0120instrument": 3316,
  "\u0120gew\u00c3\u00a4hrle": 3317,
  "\u0120sens": 3318,
  "\u0120\u00c3\u00a4u\u00c3\u0141": 3319,
  "--": 3320,
  "l\u00c3\u00a4ndern": 3321,
  "zeitig": 3322,
  "ided": 3323,
  "\u0120kommun": 3324,
  "aussch": 3325,
  "\u0120sug": 3326,
  "\u0120pers\u00c3\u00b6n": 3327,
  "tag": 3328,
  "\u0120freed": 3329,
  "\u0120staats": 3330,
  "reicht": 3331,
  "\u0120context": 3332,
  "aps": 3333,
  "ote": 3334,
  "\u0120assess": 3335,
  "\u0120europas": 3336,
  "\u0120schlie\u00c3\u0141": 3337,
  "\u0120deleg": 3338,
  "\u0120entscheidung": 3339,
  "\u0120bringen": 3340,
  "\u0120unters": 3341,
  "\u0120besser": 3342,
  "ured": 3343,
  "\u0120litt": 3344,
  "thers": 3345,
  "\u0120rei": 3346,
  "pekt": 3347,
  "\u0120programmes": 3348,
  "\u0120mean": 3349,
  "\u0120communication": 3350,
  "\u0120komple": 3351,
  "though": 3352,
  "\u0120elekt": 3353,
  "\u0120content": 3354,
  "\u0120ebenfalls": 3355,
  "\u0120nieder": 3356,
  "\u0120ziele": 3357,
  "\u0120zun": 3358,
  "zip": 3359,
  "\u0120absol": 3360,
  "\u0120empf": 3361,
  "na": 3362,
  "\u0120erh\u00c3\u00b6": 3363,
  "\u0120erf\u00c3\u00bc": 3364,
  "\u00c3\u00a4uf": 3365,
  "\u0120darin": 3366,
  "\u0120wissenschaft": 3367,
  "ffung": 3368,
  "\u0120gute": 3369,
  "cen": 3370,
  "baren": 3371,
  "\u0120groups": 3372,
  "atory": 3373,
  "\u0120improve": 3374,
  "haltung": 3375,
  "z\u00c3\u00bc": 3376,
  "ugen": 3377,
  "ling": 3378,
  "\u0120opportunity": 3379,
  "plan": 3380,
  "\u0120uhr": 3381,
  "\u0120digital": 3382,
  "\u0120distrib": 3383,
  "ements": 3384,
  "\u0120japan": 3385,
  "zustellen": 3386,
  "\u0120israel": 3387,
  "\u0120l\u00c3\u00b6sung": 3388,
  "cal": 3389,
  "ux": 3390,
  "\u0120article": 3391,
  "\u0120daran": 3392,
  "\u0120meisten": 3393,
  "\u0120something": 3394,
  "\u0120erfahr": 3395,
  "\u0120little": 3396,
  "\u0120young": 3397,
  "hod": 3398,
  "\u0120above": 3399,
  "\u0120vors": 3400,
  "\u0120ka": 3401,
  "\u0120step": 3402,
  "unch": 3403,
  "\u0120although": 3404,
  "\u0120strengthen": 3405,
  "\u0120share": 3406,
  "mut": 3407,
  "onger": 3408,
  "\u0120solidar": 3409,
  "\u0120walk": 3410,
  "of": 3411,
  "\u0120zug": 3412,
  "\u0120freedom": 3413,
  "\u0120mobil": 3414,
  "\u00c3\u00b6ffent": 3415,
  "\u0120september": 3416,
  "\u0120eigent": 3417,
  "reiche": 3418,
  "\u012021": 3419,
  "\u0120dok": 3420,
  "\u0120amendments": 3421,
  "\u0120f\u00c3\u00bcn": 3422,
  "\u0120minutes": 3423,
  "\u0120hor": 3424,
  "ric": 3425,
  "\u0120dist": 3426,
  "\u0120darf": 3427,
  "\u012022": 3428,
  "mitglie": 3429,
  "\u0120times": 3430,
  "\u0120force": 3431,
  "gesetzt": 3432,
  "\u0120recent": 3433,
  "ri": 3434,
  "\u0120conference": 3435,
  "\u0120anim": 3436,
  "\u0120constru": 3437,
  "\u00c3\u00a4chlich": 3438,
  "\u0120rather": 3439,
  "\u0120ideal": 3440,
  "\u0120gere": 3441,
  "arian": 3442,
  "\u00c3\u00a4mpfung": 3443,
  "\u0120away": 3444,
  "\u0120rechte": 3445,
  "l\u00c3\u00a4nder": 3446,
  "\u0120+": 3447,
  "igungs": 3448,
  "ested": 3449,
  "\u0120s\u00c3\u00bcd": 3450,
  "hnt": 3451,
  "\u0120green": 3452,
  "\u0120bzw": 3453,
  "\u0120building": 3454,
  "sh": 3455,
  "anst": 3456,
  "mark": 3457,
  "\u00c3\u00a4nger": 3458,
  "\u0120anf": 3459,
  "\u0120conclus": 3460,
  "\u0120thus": 3461,
  "\u0120going": 3462,
  "igte": 3463,
  "\u0120return": 3464,
  "\u0120feel": 3465,
  "\u0120anwendung": 3466,
  "\u0120dev": 3467,
  "\u0120vir": 3468,
  "\u0120past": 3469,
  "\u0120sour": 3470,
  "\u0120negotiations": 3471,
  "ully": 3472,
  "\u0120increasing": 3473,
  "\u00c3\u00a4chst": 3474,
  "\u0120months": 3475,
  "\u0120prop": 3476,
  "\u0120handel": 3477,
  "\u0120vergangen": 3478,
  "\u0120cir": 3479,
  "\u012040": 3480,
  "\u0120viol": 3481,
  "\u01202002": 3482,
  "side": 3483,
  "\u0120computer": 3484,
  "uellen": 3485,
  "\u0120subst": 3486,
  "\u0120unabh\u00c3\u00a4ng": 3487,
  "\u0120currently": 3488,
  "\u0120responsibility": 3489,
  "\u0120mut": 3490,
  "\u0120via": 3491,
  "wendet": 3492,
  "einander": 3493,
  "\u0120produkte": 3494,
  "iled": 3495,
  "\u0120bekannt": 3496,
  "\u0120ladies": 3497,
  "racy": 3498,
  "st\u00c3\u00bcck": 3499,
  "\u0120emission": 3500,
  "\u0120enterpr": 3501,
  "\u0120impact": 3502,
  "\u0120schaffen": 3503,
  "\u0120potential": 3504,
  "\u0120week": 3505,
  "richtung": 3506,
  "\u0120gerade": 3507,
  "\u0120schul": 3508,
  "\u0120live": 3509,
  "\u0120oppos": 3510,
  "\u0120jeden": 3511,
  "\u0120etc": 3512,
  "oting": 3513,
  "iten": 3514,
  "\u0120keep": 3515,
  "\u0120gleichzeitig": 3516,
  "istic": 3517,
  "\u0120fundamental": 3518,
  "wahl": 3519,
  "\u0120requirements": 3520,
  "bare": 3521,
  "\u0120flug": 3522,
  "alle": 3523,
  "ison": 3524,
  "\u0120strategie": 3525,
  "\u0120breakfast": 3526,
  "\u0120works": 3527,
  "\u0120oblig": 3528,
  "\u0120meinung": 3529,
  "bel": 3530,
  "\u0120agenda": 3531,
  "\u0120along": 3532,
  "\u0120airport": 3533,
  "\u0120steuer": 3534,
  "fect": 3535,
  "\u0120flo": 3536,
  "llt": 3537,
  "ativ": 3538,
  "\u0120finally": 3539,
  "\u0120indep": 3540,
  "\u0120cy": 3541,
  "techn": 3542,
  "\u0120things": 3543,
  "ying": 3544,
  "\u0120janu": 3545,
  "zimmer": 3546,
  "\u0120gentlemen": 3547,
  "\u0120solution": 3548,
  "\u0120note": 3549,
  "ufact": 3550,
  "unkte": 3551,
  "ishing": 3552,
  "\u0120int": 3553,
  "\u0120ver\u00c3\u00b6ffent": 3554,
  "\u0120scho": 3555,
  "lei": 3556,
  "\u0120might": 3557,
  "\u0120bereichen": 3558,
  "\u0120easy": 3559,
  "\u0120natural": 3560,
  "\u0120rund": 3561,
  "\u0120option": 3562,
  "\u0120extra": 3563,
  "\u0120dessen": 3564,
  "\u0120sogar": 3565,
  "\u0120qualit\u00c3\u00a4t": 3566,
  "\u0120schr": 3567,
  "\u0120media": 3568,
  "\u0120muse": 3569,
  "\u0120verbunden": 3570,
  "\u0120auswirkungen": 3571,
  "\u0120seem": 3572,
  "\u0120stock": 3573,
  "\u0120mention": 3574,
  "\u0120solche": 3575,
  "\u0120bev\u00c3\u00b6l": 3576,
  "\u0120apply": 3577,
  "\u0120manufact": 3578,
  "f\u00c3\u00a4higkeit": 3579,
  "\u0120others": 3580,
  "inst": 3581,
  "\u0120ed": 3582,
  "\u0120responsible": 3583,
  "\u0120points": 3584,
  "ception": 3585,
  "\u0120party": 3586,
  "\u0120jun": 3587,
  "\u0120night": 3588,
  "\u0120required": 3589,
  "eign": 3590,
  "\u0120method": 3591,
  "ented": 3592,
  "\u0120agree": 3593,
  "teile": 3594,
  "\u0120gemacht": 3595,
  "\u0120lear": 3596,
  "sprache": 3597,
  "mote": 3598,
  "\u0120unver": 3599,
  "\u0120vorgeschlagen": 3600,
  "fall": 3601,
  "\u0120handels": 3602,
  "\u0120imm": 3603,
  "\u0120principle": 3604,
  "\u0120berichterstatter": 3605,
  "\u0120moder": 3606,
  "\u0120unserem": 3607,
  "\u0120cross": 3608,
  "\u0120greater": 3609,
  "arte": 3610,
  "ped": 3611,
  "\u0120relev": 3612,
  "ledge": 3613,
  "12": 3614,
  "\u0120wichtige": 3615,
  "\u0120cla": 3616,
  "\u0120empfehl": 3617,
  "ported": 3618,
  "\u0120super": 3619,
  "\u0120upd": 3620,
  "\u0120cat": 3621,
  "\u0120beh\u00c3\u00b6rden": 3622,
  "\u0120station": 3623,
  "gency": 3624,
  "\u0120prakt": 3625,
  "\u0120sound": 3626,
  "istan": 3627,
  "\u0120mount": 3628,
  "\u0120final": 3629,
  "\u00c3\u00a4gen": 3630,
  "\u0120monitor": 3631,
  "\u0120beschl": 3632,
  "\u0120erk": 3633,
  "\u0120rechn": 3634,
  "\u0120office": 3635,
  "\u0120minim": 3636,
  "\u0120questions": 3637,
  "\u0120left": 3638,
  "\u00c3\u00a4hlen": 3639,
  "\u0120wirtschaftlichen": 3640,
  "\u01202001": 3641,
  "\u0120belg": 3642,
  "ada": 3643,
  "\u0120)": 3644,
  "utet": 3645,
  "\u0120download": 3646,
  "\u0120export": 3647,
  "isiert": 3648,
  "\u0120climate": 3649,
  "\u0120rapporteur": 3650,
  "andid": 3651,
  "\u0120g\u00c3\u00a4ste": 3652,
  "\u0120developing": 3653,
  "\u0120encour": 3654,
  "\u0120nord": 3655,
  "\u0120spa": 3656,
  "w\u00c3\u00bcr": 3657,
  "nete": 3658,
  "ehm": 3659,
  "\u0120safe": 3660,
  "ril": 3661,
  "\u0120|": 3662,
  "\u00c3\u00bcssel": 3663,
  "\u0120gerichts": 3664,
  "\u0120bul": 3665,
  "\u0120verbesserung": 3666,
  "\u0120kos": 3667,
  "stadt": 3668,
  "\u0120quite": 3669,
  "\u0120effiz": 3670,
  "ton": 3671,
  "bahn": 3672,
  "\u0120gehen": 3673,
  "ennen": 3674,
  "ellen": 3675,
  "leben": 3676,
  "\u0120low": 3677,
  "\u0120betrifft": 3678,
  "mitted": 3679,
  "\u0120internationale": 3680,
  "\u0120contract": 3681,
  "\u0120schritt": 3682,
  "\u0120cases": 3683,
  "\u0120n\u00c3\u00a4chsten": 3684,
  "\u0120carr": 3685,
  "\u0120gegeben": 3686,
  "\u0120regionen": 3687,
  "gegen": 3688,
  "\u0120trotz": 3689,
  "icken": 3690,
  "sehen": 3691,
  "\u00c3\u00bcfung": 3692,
  "\u0120les": 3693,
  "sa": 3694,
  "achen": 3695,
  "\u0120einigen": 3696,
  "schn": 3697,
  "\u0120rela": 3698,
  "\u0120holid": 3699,
  "\u0120called": 3700,
  "\u0120klima": 3701,
  "\u0120h\u00c3\u00b6ch": 3702,
  "ka": 3703,
  "\u0120existing": 3704,
  "\u0120bad": 3705,
  "\u0120christ": 3706,
  "uren": 3707,
  "\u0120farm": 3708,
  "gesehen": 3709,
  "\u0120handelt": 3710,
  "leicht": 3711,
  "\u0120wegen": 3712,
  "agement": 3713,
  "\u0120france": 3714,
  "organ": 3715,
  "umente": 3716,
  "\u0120bath": 3717,
  "\u0120illeg": 3718,
  "\u0120mem": 3719,
  "\u0120protect": 3720,
  "rechts": 3721,
  "\u0120garant": 3722,
  "\u0120ira": 3723,
  "\u0120umfassen": 3724,
  "\u0120entschlie\u00c3\u0141": 3725,
  "\u0120prices": 3726,
  "\u0120november": 3727,
  "\u0120attention": 3728,
  "\u0120purpos": 3729,
  "\u0120angenommen": 3730,
  "ona": 3731,
  "\u0120jud": 3732,
  "\u0120f\u00c3\u00bcnf": 3733,
  "\u0120atmos": 3734,
  "\u0120sustainable": 3735,
  "\u0120w\u00c3\u00bcrden": 3736,
  "\u0120sozialen": 3737,
  "za": 3738,
  "\u0120maxim": 3739,
  "oper": 3740,
  "\u0120makes": 3741,
  "\u0120music": 3742,
  "\u0120liberal": 3743,
  "\u0120\u00c3\u00bcberein": 3744,
  "fully": 3745,
  "\u0120seinem": 3746,
  "\u00c3\u00a4mlich": 3747,
  "ana": 3748,
  "ex": 3749,
  "\u0120fight": 3750,
  "\u0120buch": 3751,
  "hes": 3752,
  "ops": 3753,
  "\u0120card": 3754,
  "reifen": 3755,
  "\u0120verst\u00c3\u00a4r": 3756,
  "\u0120arbeitspl": 3757,
  "\u0120achieve": 3758,
  "\u0120d\u00c3\u00bcrfen": 3759,
  "\u0120concerning": 3760,
  "\u0120n\u00c3\u00a4mlich": 3761,
  "\u0120binnenmarkt": 3762,
  "\u0120intens": 3763,
  "\u0120vollst\u00c3\u00a4nd": 3764,
  "alten": 3765,
  "\u0120sei": 3766,
  "\u0120sure": 3767,
  "icherheit": 3768,
  "\u0120schwe": 3769,
  "\u0120forschung": 3770,
  "\u0120madam": 3771,
  "\u0120vorschl\u00c3\u00a4ge": 3772,
  "\u0120parte": 3773,
  "\u0120stellung": 3774,
  "kerung": 3775,
  "\u0120ihm": 3776,
  "\u0120ord": 3777,
  "\u0120meer": 3778,
  "best": 3779,
  "\u0120additional": 3780,
  "\u0120user": 3781,
  "half": 3782,
  "auss": 3783,
  "\u0120cultural": 3784,
  "\u0120reihe": 3785,
  "\u0120rate": 3786,
  "\u0120abgeord": 3787,
  "\u0120verpflicht": 3788,
  "lt": 3789,
  "\u0120film": 3790,
  "\u0120charac": 3791,
  "\u0120verordnung": 3792,
  "\u0120entire": 3793,
  "atten": 3794,
  "\u0120rein": 3795,
  "\u0120hinblick": 3796,
  "cks": 3797,
  "\u0120prevent": 3798,
  "\u0120needed": 3799,
  "\u0120lok": 3800,
  "\u0120weiteren": 3801,
  "rieben": 3802,
  "\u0120later": 3803,
  "\u0120table": 3804,
  "\u0120einzelnen": 3805,
  "weg": 3806,
  "\u0120beautif": 3807,
  "\u0120sicherheits": 3808,
  "uelle": 3809,
  "\u0120clean": 3810,
  "\u0120demand": 3811,
  "ases": 3812,
  "\u0120links": 3813,
  "\u0120erzeug": 3814,
  "ma\u00c3\u0141nahmen": 3815,
  "\u0120dim": 3816,
  "\u00c3\u0141t": 3817,
  "ones": 3818,
  "\u0120analys": 3819,
  "\u0120official": 3820,
  "bildung": 3821,
  "\u0120solutions": 3822,
  "eg": 3823,
  "stra": 3824,
  "\u0120appropriate": 3825,
  "\u0120deutlich": 3826,
  "\u0120objective": 3827,
  "\u0120bedingungen": 3828,
  "\u0120news": 3829,
  "\u0120assistance": 3830,
  "\u0120views": 3831,
  "lar": 3832,
  "ims": 3833,
  "\u0120prozess": 3834,
  "\u0120demon": 3835,
  "\u0120tv": 3836,
  "\u0120\u00c3\u00bcbern": 3837,
  "\u0120nichts": 3838,
  "\u0120besuch": 3839,
  "\u0120operation": 3840,
  "\u0120flexib": 3841,
  "\u0120nature": 3842,
  "\u0120aspect": 3843,
  "\u0120kraft": 3844,
  "system": 3845,
  "setzen": 3846,
  "\u0120miss": 3847,
  "clud": 3848,
  "\u0120windows": 3849,
  "\u00c3\u00b6ff": 3850,
  "\u0120bevor": 3851,
  "\u0120sil": 3852,
  "\u0120cop": 3853,
  "\u0120wachstum": 3854,
  "see": 3855,
  "\u0120center": 3856,
  "ients": 3857,
  "\u0120punkt": 3858,
  "\u0120behalf": 3859,
  "\u0120interesse": 3860,
  "\u0120coordin": 3861,
  "\u0120ther": 3862,
  "\u0120mic": 3863,
  "mitteln": 3864,
  "nt": 3865,
  "\u0120friend": 3866,
  "jahr": 3867,
  "\u0120clearly": 3868,
  "\u0120verhandlungen": 3869,
  "\u0120franz": 3870,
  "alit\u00c3\u00a4t": 3871,
  "\u0120code": 3872,
  "\u0120objectives": 3873,
  "\u0120pr\u00c3\u00a4sidentin": 3874,
  "\u0120eth": 3875,
  "\u0120tw": 3876,
  "ziehen": 3877,
  "\u0120target": 3878,
  "\u0120bisher": 3879,
  "cent": 3880,
  "\u0120ten": 3881,
  "\u0120vertr": 3882,
  "\u0120ebenso": 3883,
  "\u0120k\u00c3\u00b6nnten": 3884,
  "\u0120fischere": 3885,
  "iveness": 3886,
  "\u0120jeweil": 3887,
  "\u0120gemeinsam": 3888,
  "\u0120erforderlich": 3889,
  "zer": 3890,
  "fil": 3891,
  "fonds": 3892,
  "crip": 3893,
  "\u0120grenz": 3894,
  "\u0120contain": 3895,
  "ij": 3896,
  "\u0120ihn": 3897,
  "\u0120sitz": 3898,
  "hunder": 3899,
  "ira": 3900,
  "auft": 3901,
  "istet": 3902,
  "\u0120simply": 3903,
  "vere": 3904,
  "\u0120ba": 3905,
  "arbeitung": 3906,
  "\u0120events": 3907,
  "\u0120beispielsweise": 3908,
  "\u0120pf": 3909,
  "\u0120across": 3910,
  "alu": 3911,
  "\u0120\u00c3\u00bcberpr": 3912,
  "11": 3913,
  "\u0120gesagt": 3914,
  "\u0120besten": 3915,
  "hem": 3916,
  "\u0120request": 3917,
  "\u0120quick": 3918,
  "\u0120keinen": 3919,
  "\u0120ober": 3920,
  "\u0120exchange": 3921,
  "\u0120atmosph": 3922,
  "\u0120subsid": 3923,
  "\u0120sele": 3924,
  "\u0120convention": 3925,
  "telle": 3926,
  "cies": 3927,
  "\u0120gree": 3928,
  "spruch": 3929,
  "\u0120facilities": 3930,
  "\u0120erl": 3931,
  "quis": 3932,
  "\u0120dienstleistungen": 3933,
  "\u0120ansicht": 3934,
  "\u0120impos": 3935,
  "\u0120indeed": 3936,
  "\u0120recogn": 3937,
  "\u0120arr": 3938,
  "\u00c3\u00bcsse": 3939,
  "\u0120prep": 3940,
  "\u0120nam": 3941,
  "\u0120heart": 3942,
  "\u0120club": 3943,
  "\u0120wei\u00c3\u0141": 3944,
  "chter": 3945,
  "\u0120stor": 3946,
  "\u0120broad": 3947,
  "\u0120grie": 3948,
  "\u0120agreements": 3949,
  "\u0120frieden": 3950,
  "\u0120vielleicht": 3951,
  "\u0120gebiet": 3952,
  "\u0120april": 3953,
  "\u0120koordin": 3954,
  "\u0120beitrag": 3955,
  "ost": 3956,
  "formen": 3957,
  "\u0120netz": 3958,
  "\u0120besch\u00c3\u00a4ftigung": 3959,
  "\u0120erheb": 3960,
  "\u0120leit": 3961,
  "\u0120fot": 3962,
  "\u012023": 3963,
  "\u0120ukra": 3964,
  "\u0120angem": 3965,
  "\u0120amendment": 3966,
  "\u0120decisions": 3967,
  "\u0120mand": 3968,
  "ends": 3969,
  "part": 3970,
  "\u0120ihres": 3971,
  "\u0120zentral": 3972,
  "\u0120bedeutet": 3973,
  "hib": 3974,
  "\u0120erreicht": 3975,
  "achten": 3976,
  "\u0120verg": 3977,
  "\u0120drit": 3978,
  "\u0120concerns": 3979,
  "\u0120changes": 3980,
  "igration": 3981,
  "\u0120fortschritte": 3982,
  "\u0120ben\u00c3\u00b6t": 3983,
  "\u0120hil": 3984,
  "\u0120rea": 3985,
  "\u0120abkommen": 3986,
  "tended": 3987,
  "teilen": 3988,
  "ench": 3989,
  "entwick": 3990,
  "\u0120konkre": 3991,
  "\u0120wettbewerb": 3992,
  "\u0120privat": 3993,
  "\u00c3\u00a4ter": 3994,
  "kan": 3995,
  "\u0120brauchen": 3996,
  "\u0120gemeinschafts": 3997,
  "ette": 3998,
  "stellt": 3999,
  "\u0120beziehungen": 4000,
  "\u0120bur": 4001,
  "\u0120guarantee": 4002,
  "\u0120workers": 4003,
  "\u0120guest": 4004,
  "\u0120front": 4005,
  "\u0120video": 4006,
  "\u0120developed": 4007,
  "\u0120industrial": 4008,
  "teilt": 4009,
  "ielle": 4010,
  "arbeiten": 4011,
  "\u0120dre": 4012,
  "\u0120upon": 4013,
  "word": 4014,
  "gebung": 4015,
  "\u0120involved": 4016,
  "onen": 4017,
  "\u0120perfect": 4018,
  "unternehmen": 4019,
  "\u0120kat": 4020,
  "serv": 4021,
  "\u0120consequ": 4022,
  "\u0120informations": 4023,
  "\u0120democratic": 4024,
  "\u0120guests": 4025,
  "\u0120k\u00c3\u00bcnft": 4026,
  "\u0120unions": 4027,
  "\u0120wohn": 4028,
  "\u0120extern": 4029,
  "\u0120disco": 4030,
  "\u0120don": 4031,
  "\u0120agreed": 4032,
  "\u0120gelten": 4033,
  "\u0120einsatz": 4034,
  "\u0120previous": 4035,
  "eits": 4036,
  "hilfen": 4037,
  "prochen": 4038,
  "\u0120verf\u00c3\u00bcg": 4039,
  "\u0120territ": 4040,
  "\u0120alt": 4041,
  "\u0120jobs": 4042,
  "\u0120democracy": 4043,
  "\u0120record": 4044,
  "\u0120maintain": 4045,
  "\u0120kun": 4046,
  "\u0120anerk": 4047,
  "\u0120chem": 4048,
  "self": 4049,
  "\u0120gran": 4050,
  "\u0120oft": 4051,
  "\u00c3\u00a4tzen": 4052,
  "\u0120longer": 4053,
  "ikation": 4054,
  "\u0120schrift": 4055,
  "\u0120zun\u00c3\u00a4chst": 4056,
  "\u0120obwohl": 4057,
  "itzen": 4058,
  "\u0120beautiful": 4059,
  "berg": 4060,
  "hlen": 4061,
  "\u0120dut": 4062,
  "\u0120interests": 4063,
  "\u0120tit": 4064,
  "nehm": 4065,
  "gliche": 4066,
  "\u0120gesamten": 4067,
  "\u0120f\u00c3\u00a4": 4068,
  "\u0120relax": 4069,
  "\u0120travel": 4070,
  "\u0120menschenrechte": 4071,
  "\u0120known": 4072,
  "\u0120erm\u00c3\u00b6glich": 4073,
  "pected": 4074,
  "\u0120soon": 4075,
  "\u0120relig": 4076,
  "\u0120iran": 4077,
  "dr\u00c3\u00bcck": 4078,
  "ips": 4079,
  "\u0120corre": 4080,
  "\u0120divers": 4081,
  "\u0120prec": 4082,
  "\u0120landes": 4083,
  "ald": 4084,
  "\u0120normal": 4085,
  "anden": 4086,
  "\u0120slow": 4087,
  "ceed": 4088,
  "\u0120wenig": 4089,
  "\u0120aud": 4090,
  "\u0120micro": 4091,
  "\u00c3\u00a4che": 4092,
  "\u0120m\u00c3\u00b6glichkeiten": 4093,
  "\u0120fail": 4094,
  "\u0120directly": 4095,
  "\u0120guid": 4096,
  "bil": 4097,
  "\u0120language": 4098,
  "\u0120demokratie": 4099,
  "\u0120document": 4100,
  "\u0120decl": 4101,
  "\u0120consumer": 4102,
  "gesamt": 4103,
  "\u00c3\u00a4us": 4104,
  "\u0120enthalten": 4105,
  "\u0120b\u00c3\u00bc": 4106,
  "\u0120five": 4107,
  "\u0120held": 4108,
  "\u0120vereinigten": 4109,
  "\u0120dialogue": 4110,
  "\u0120thems": 4111,
  "deut": 4112,
  "\u0120capac": 4113,
  "ynam": 4114,
  "\u0120themselves": 4115,
  "\u0120ver\u00c3\u00a4nder": 4116,
  "\u0120consumers": 4117,
  "\u01201999": 4118,
  "\u0120w\u00c3\u00bcn": 4119,
  "fragen": 4120,
  "\u0120verfol": 4121,
  "cke": 4122,
  "sprogram": 4123,
  "\u0120history": 4124,
  "mals": 4125,
  "\u0120side": 4126,
  "\u0120vertrags": 4127,
  "\u0120liegen": 4128,
  "13": 4129,
  "fel": 4130,
  "\u0120early": 4131,
  "\u0120jahrhunder": 4132,
  "\u012027": 4133,
  "gesellschaft": 4134,
  "ables": 4135,
  "\u0120fisher": 4136,
  "reib": 4137,
  "\u0120ground": 4138,
  "acy": 4139,
  "esten": 4140,
  "gern": 4141,
  "\u0120stability": 4142,
  "immen": 4143,
  "\u0120status": 4144,
  "kommens": 4145,
  "iellen": 4146,
  "\u0120enlar": 4147,
  "iste": 4148,
  "ieg": 4149,
  "hend": 4150,
  "\u0120jedes": 4151,
  "jen": 4152,
  "\u0120hinzu": 4153,
  "\u0120glaube": 4154,
  "schlag": 4155,
  "\u0120benefit": 4156,
  "\u0120separ": 4157,
  "\u0120lib": 4158,
  "\u0120click": 4159,
  "\u0120jour": 4160,
  "richtungen": 4161,
  "60": 4162,
  "\u0120beruf": 4163,
  "erous": 4164,
  "endent": 4165,
  "\u0120french": 4166,
  "\u0120restaurants": 4167,
  "arf": 4168,
  "\u0120insgesamt": 4169,
  "\u0120ergebnis": 4170,
  "\u0120partnership": 4171,
  "\u00c3\u00a4fte": 4172,
  "\u0120commer": 4173,
  "\u012060": 4174,
  "\u00c3\u00bcfen": 4175,
  "\u0120knowledge": 4176,
  "\u0120space": 4177,
  "ule": 4178,
  "\u0120angesichts": 4179,
  "laub": 4180,
  "\u0120ol": 4181,
  "\u0120hostel": 4182,
  "\u0120agricultural": 4183,
  "\u0120situated": 4184,
  "\u0120findet": 4185,
  "ingt": 4186,
  "\u0120professional": 4187,
  "\u0120secre": 4188,
  "\u0120expect": 4189,
  "\u0120draft": 4190,
  "\u0120dad": 4191,
  "\u0120board": 4192,
  "\u0120lot": 4193,
  "\u0120external": 4194,
  "\u0120established": 4195,
  "\u0120republic": 4196,
  "\u0120schlie\u00c3\u0141lich": 4197,
  "zif": 4198,
  "\u0120talk": 4199,
  "vol": 4200,
  "\u0120emer": 4201,
  "\u00c3\u00a4sent": 4202,
  "\u0120notwendig": 4203,
  "\u0120verantwortung": 4204,
  "gu": 4205,
  "ionen": 4206,
  "\u0120governments": 4207,
  "\u0120mitarbeit": 4208,
  "\u0120indic": 4209,
  "\u0120culture": 4210,
  "\u0120verwendet": 4211,
  "ym": 4212,
  "\u0120scient": 4213,
  "anze": 4214,
  "lling": 4215,
  "\u0120neues": 4216,
  "\u0120paris": 4217,
  "\u0120wat": 4218,
  "\u0120sn": 4219,
  "\u0120transfer": 4220,
  "\u0120sorgen": 4221,
  "\u0120pak": 4222,
  "\u0120original": 4223,
  "ager": 4224,
  "\u0120pool": 4225,
  "m\u00c3\u00b6glichen": 4226,
  "-,": 4227,
  "iance": 4228,
  "phas": 4229,
  "\u0120darum": 4230,
  "iffen": 4231,
  "\u0120term": 4232,
  "nissen": 4233,
  "\u0120vorschriften": 4234,
  "\u0120werde": 4235,
  "\u0120server": 4236,
  "wegen": 4237,
  "\u0120jede": 4238,
  "\u0120herstell": 4239,
  "ored": 4240,
  "\u0120umfang": 4241,
  "j\u00c3\u00a4hr": 4242,
  "\u0120labour": 4243,
  "ppen": 4244,
  "\u0120chin": 4245,
  "\u0120east": 4246,
  "\u0120mann": 4247,
  "\u0120druck": 4248,
  "\u0120rail": 4249,
  "\u0120circ": 4250,
  "\u0120caus": 4251,
  "\u0120almost": 4252,
  "\u0120fraktion": 4253,
  "\u0120prim": 4254,
  "\u0120entw": 4255,
  "\u0120betra": 4256,
  "\u0120div": 4257,
  "\u0120kennt": 4258,
  "mbh": 4259,
  "\u0120richtung": 4260,
  "\u0120character": 4261,
  "\u0120kunst": 4262,
  "\u0120throughout": 4263,
  "\u0120halten": 4264,
  "\u0120verschiedene": 4265,
  "\u0120betroffen": 4266,
  "\u0120humanit": 4267,
  "fert": 4268,
  "dam": 4269,
  "\u0120aktion": 4270,
  "\u0120frankreich": 4271,
  "\u0120k\u00c3\u00b6nig": 4272,
  "\u0120treffen": 4273,
  "\u0120las": 4274,
  "play": 4275,
  "\u0120schaffung": 4276,
  "\u0120zudem": 4277,
  "va": 4278,
  "\u0120verbessern": 4279,
  "\u0120send": 4280,
  "\u0120sem": 4281,
  "verst\u00c3\u00a4nd": 4282,
  "fo": 4283,
  "\u0120betreffen": 4284,
  "ither": 4285,
  "\u0120erm\u00c3\u00b6glicht": 4286,
  "\u0120wide": 4287,
  "neten": 4288,
  "ctive": 4289,
  "\u0120seen": 4290,
  "\u0120fr\u00c3\u00bc": 4291,
  "\u0120took": 4292,
  "bedingungen": 4293,
  "\u0120musik": 4294,
  "\u0120differen": 4295,
  "bu": 4296,
  "\u0120active": 4297,
  "\u0120cut": 4298,
  "\u0120aufmer": 4299,
  "\u0120phil": 4300,
  "\u0120bla": 4301,
  "\u0120f\u00c3\u00b6rdern": 4302,
  "\u0120prem": 4303,
  "\u0120bulgar": 4304,
  "ios": 4305,
  "yle": 4306,
  "key": 4307,
  "\u0120living": 4308,
  "\u0120credit": 4309,
  "\u0120f\u00c3\u00bc": 4310,
  "\u0120197": 4311,
  "hren": 4312,
  "\u0120words": 4313,
  "\u0120geh\u00c3\u00b6rt": 4314,
  "\u0120eus": 4315,
  "\u0120decided": 4316,
  "\u0120hinsichtlich": 4317,
  "\u0120enough": 4318,
  "sc": 4319,
  "\u0120sam": 4320,
  "\u0120immed": 4321,
  "\u0120vorauss": 4322,
  "haft": 4323,
  "\u0120performance": 4324,
  "\u0120van": 4325,
  "\u0120kolleg": 4326,
  "\u0120abstimmung": 4327,
  "\u0120deter": 4328,
  "\u0120durchge": 4329,
  "platz": 4330,
  "l\u00c3\u00a4ss": 4331,
  "\u0120movement": 4332,
  "\u0120gmbh": 4333,
  "\u0120dadurch": 4334,
  "ired": 4335,
  "aring": 4336,
  "atul": 4337,
  "\u0120ip": 4338,
  "\u0120agriculture": 4339,
  "anced": 4340,
  "\u0120users": 4341,
  "aking": 4342,
  "mp": 4343,
  "\u0120gewalt": 4344,
  "\u0120ergebnisse": 4345,
  "bor": 4346,
  "\u0120analy": 4347,
  "\u0120bek\u00c3\u00a4mpfung": 4348,
  "ilar": 4349,
  "\u0120cru": 4350,
  "kom": 4351,
  "\u0120effe": 4352,
  "32": 4353,
  "\u0120sun": 4354,
  "\u0120hohen": 4355,
  "\u0120kleinen": 4356,
  "\u0120package": 4357,
  "\u0120either": 4358,
  "\u0120ban": 4359,
  "\u0120created": 4360,
  "\u0120bleiben": 4361,
  "\u0120dokument": 4362,
  "\u0120takes": 4363,
  "\u0120roman": 4364,
  "irm": 4365,
  "\u0120actions": 4366,
  "\u0120demonstr": 4367,
  "ires": 4368,
  "\u0120ill": 4369,
  "\u0120raum": 4370,
  "\u0120que": 4371,
  "\u0120chance": 4372,
  "\u0120related": 4373,
  "istischen": 4374,
  "dom": 4375,
  "\u0120goods": 4376,
  "\u0120enable": 4377,
  "atic": 4378,
  "\u0120priority": 4379,
  "\u0120dynam": 4380,
  "\u0120tod": 4381,
  "\u0120promote": 4382,
  "hung": 4383,
  "\u0120draw": 4384,
  "ging": 4385,
  "\u0120gerichtshof": 4386,
  "\u0120item": 4387,
  "\u0120regarding": 4388,
  "\u0120mobile": 4389,
  "\u0120pages": 4390,
  "\u0120*": 4391,
  "\u0120designed": 4392,
  "\u0120investitionen": 4393,
  "vert": 4394,
  "\u0120wto": 4395,
  "\u0120tal": 4396,
  "\u0120sch\u00c3\u00b6n": 4397,
  "rank": 4398,
  "\u0120outside": 4399,
  "\u0120emphas": 4400,
  "\u0120details": 4401,
  "\u0120transl": 4402,
  "\u0120pict": 4403,
  "reiben": 4404,
  "\u00c3\u00bcrz": 4405,
  "undes": 4406,
  "\u0120bev\u00c3\u00b6lkerung": 4407,
  "\u0120mitglieder": 4408,
  "\u00c3\u00bclt": 4409,
  "\u0120propert": 4410,
  "ama": 4411,
  "oid": 4412,
  "\u0120welcom": 4413,
  "uses": 4414,
  "\u0120mode": 4415,
  "\u0120levels": 4416,
  "\u0120n\u00c3\u00a4he": 4417,
  "\u0120kern": 4418,
  "\u00c3\u00a4lle": 4419,
  "spe": 4420,
  "\u0120though": 4421,
  "iting": 4422,
  "\u0120registr": 4423,
  "\u0120wichtigsten": 4424,
  "\u0120amount": 4425,
  "\u0120register": 4426,
  "\u0120aufmerksam": 4427,
  "\u0120supply": 4428,
  "\u0120included": 4429,
  "ping": 4430,
  "\u0120einheit": 4431,
  "\u0120russia": 4432,
  "\u0120basic": 4433,
  "\u0120everything": 4434,
  "mm": 4435,
  "\u0120fig": 4436,
  "\u0120plann": 4437,
  "\u0120six": 4438,
  "\u0120commitment": 4439,
  "urf": 4440,
  "\u0120err": 4441,
  "\u0120motor": 4442,
  "\u0120genehm": 4443,
  "\u0120vict": 4444,
  "\u0120kontrolle": 4445,
  "heim": 4446,
  "\u0120vorbereit": 4447,
  "\u0120lange": 4448,
  "\u0120wort": 4449,
  "\u0120ve": 4450,
  "\u0120ferner": 4451,
  "\u0120vorgesehen": 4452,
  "\u0120zeigt": 4453,
  "\u0120institutionen": 4454,
  "\u0120population": 4455,
  "\u0120profit": 4456,
  "\u0120gem\u00c3\u00a4\u00c3\u0141": 4457,
  "\u0120diskuss": 4458,
  "auen": 4459,
  "sprozess": 4460,
  "vent": 4461,
  "\u0120f\u00c3\u00bchrt": 4462,
  "\u0120tages": 4463,
  "arm": 4464,
  "\u0120century": 4465,
  "\u0120hon": 4466,
  "iples": 4467,
  "\u0120pen": 4468,
  "llig": 4469,
  "\u0120familien": 4470,
  "\u0120aug": 4471,
  "\u0120majority": 4472,
  "aging": 4473,
  "\u0120ton": 4474,
  "zeigt": 4475,
  "\u0120mensch": 4476,
  "ark": 4477,
  "\u0120\u0120": 4478,
  "\u0120lack": 4479,
  "\u0120vergleich": 4480,
  "\u0120ang": 4481,
  "\u0120krie": 4482,
  "\u0120practice": 4483,
  "\u0120file": 4484,
  "\u0120ausgest": 4485,
  "\u0120bon": 4486,
  "\u0120exclus": 4487,
  "\u0120ausdruck": 4488,
  "\u0120higher": 4489,
  "\u0120gegenw\u00c3\u00a4rt": 4490,
  "\u0120sp\u00c3\u00a4ter": 4491,
  "ausch": 4492,
  "\u0120haushalt": 4493,
  "\u0120kontakt": 4494,
  "\u0120urspr": 4495,
  "\u0120veranst": 4496,
  "\u0120republik": 4497,
  "\u0120schein": 4498,
  "barkeit": 4499,
  "\u0120akzept": 4500,
  "\u0120platz": 4501,
  "ather": 4502,
  "\u0120receive": 4503,
  "\u0120increased": 4504,
  "\u0120anti": 4505,
  "iedr": 4506,
  "hnen": 4507,
  "\u0120angelegenheiten": 4508,
  "\u0120secret": 4509,
  "\u0120confl": 4510,
  "ean": 4511,
  "\u0120grunds": 4512,
  "\u0120funding": 4513,
  "\u0120anb": 4514,
  "\u0120relevant": 4515,
  "stre": 4516,
  "bru": 4517,
  "iated": 4518,
  "agen": 4519,
  "\u0120nice": 4520,
  "\u0120mehrere": 4521,
  "\u0120prepar": 4522,
  "\u0120engine": 4523,
  "ktiv": 4524,
  "\u0120eib": 4525,
  "\u0120tats\u00c3\u00a4chlich": 4526,
  "ateral": 4527,
  "\u0120type": 4528,
  "\u0120ago": 4529,
  "\u0120gab": 4530,
  "\u0120angemessen": 4531,
  "\u0120entwickelt": 4532,
  "\u0120beha": 4533,
  "besch": 4534,
  "\u0120job": 4535,
  "\u0120structural": 4536,
  "\u0120dez": 4537,
  "\u0120comes": 4538,
  "w\u00c3\u00bcrd": 4539,
  "\u0120themen": 4540,
  "\u0120neuer": 4541,
  "\u0120debatte": 4542,
  "dienst": 4543,
  "\u0120king": 4544,
  "\u0120erweiterung": 4545,
  "ommer": 4546,
  "kei": 4547,
  "gement": 4548,
  "crib": 4549,
  "ering": 4550,
  "\u0120similar": 4551,
  "\u0120falls": 4552,
  "\u0120ut": 4553,
  "\u0120verhin": 4554,
  "\u0120interessen": 4555,
  "sterreich": 4556,
  "isieren": 4557,
  "\u0120half": 4558,
  "fu": 4559,
  "\u0120opportunities": 4560,
  "\u0120blick": 4561,
  "\u0120stress": 4562,
  "geschlossen": 4563,
  "programm": 4564,
  "\u0120ham": 4565,
  "\u0120evalu": 4566,
  "clear": 4567,
  "ktoren": 4568,
  "\u0120fach": 4569,
  "\u0120garden": 4570,
  "\u0120launch": 4571,
  "erseits": 4572,
  "\u0120capacity": 4573,
  "\u0120gef\u00c3\u00a4hr": 4574,
  "\u0120extremely": 4575,
  "\u0120hoffe": 4576,
  "\u00c3\u00a4nden": 4577,
  "\u0120nutzung": 4578,
  "\u0120features": 4579,
  "\u0120kop": 4580,
  "\u0120principles": 4581,
  "\u0120sprechen": 4582,
  "\u0120gal": 4583,
  "\u0120anw": 4584,
  "ou": 4585,
  "\u0120reports": 4586,
  "\u0120instruments": 4587,
  "\u0120verf\u00c3\u00bcgt": 4588,
  "\u0120koh": 4589,
  "icien": 4590,
  "\u0120infrastruct": 4591,
  "\u0120lond": 4592,
  "\u0120hatten": 4593,
  "\u0120los": 4594,
  "\u0120suppl": 4595,
  "ley": 4596,
  "\u0120klein": 4597,
  "15": 4598,
  "unge": 4599,
  "ommod": 4600,
  "\u0120beein": 4601,
  "ights": 4602,
  "\u0120limited": 4603,
  "ences": 4604,
  "wertung": 4605,
  "\u00c3\u00a4hlt": 4606,
  "\u0120beh": 4607,
  "\u0120equipment": 4608,
  "\u0120model": 4609,
  "\u0120somit": 4610,
  "\u0120provisions": 4611,
  "\u0120island": 4612,
  "mann": 4613,
  "\u0120gruppe": 4614,
  "\u0120verab": 4615,
  "\u0120happen": 4616,
  "\u0120spielen": 4617,
  "\u0120dro": 4618,
  "folger": 4619,
  "indust": 4620,
  "\u0120repl": 4621,
  "\u0120true": 4622,
  "\u0120face": 4623,
  "\u0120wirtschaftliche": 4624,
  "\u0120thanks": 4625,
  "\u0120extens": 4626,
  "attet": 4627,
  "ental": 4628,
  "\u012080": 4629,
  "\u0120golf": 4630,
  "\u0120wichtigen": 4631,
  "\u0120comfortable": 4632,
  "roat": 4633,
  "\u0120accommod": 4634,
  "\u0120verring": 4635,
  "uell": 4636,
  "\u0120mio": 4637,
  "\u0120wobei": 4638,
  "ologie": 4639,
  "anten": 4640,
  "\u0120efficient": 4641,
  "altungs": 4642,
  "\u0120allgemeinen": 4643,
  "\u0120sag": 4644,
  "\u0120procedures": 4645,
  "\u0120friendly": 4646,
  "\u0120below": 4647,
  "jenigen": 4648,
  "\u0120veh": 4649,
  "\u0120l\u00c3\u00b6": 4650,
  "\u0120proper": 4651,
  "hens": 4652,
  "\u0120coll": 4653,
  "di": 4654,
  "\u0120rot": 4655,
  "\u0120booking": 4656,
  "\u0120bestimmungen": 4657,
  "\u0120tim": 4658,
  "\u0120jugend": 4659,
  "aged": 4660,
  "\u0120suggest": 4661,
  "dle": 4662,
  "\u0120surround": 4663,
  "\u0120rule": 4664,
  "\u0120geschichte": 4665,
  "rupt": 4666,
  "iko": 4667,
  "\u0120helfen": 4668,
  "\u0120t\u00c3\u00bcrkei": 4669,
  "\u0120hung": 4670,
  "\u0120\u00c3\u00bcbr": 4671,
  "treten": 4672,
  "\u0120reduce": 4673,
  "iele": 4674,
  "\u0120unique": 4675,
  "old": 4676,
  "\u0120holiday": 4677,
  "\u0120oil": 4678,
  "icles": 4679,
  "eless": 4680,
  "griff": 4681,
  "\u0120herren": 4682,
  "\u0120ara": 4683,
  "\u0120satis": 4684,
  "\u0120treatment": 4685,
  "ufen": 4686,
  "\u0120verf": 4687,
  "\u0120investig": 4688,
  "\u0120includes": 4689,
  "\u0120leading": 4690,
  "\u0120st\u00c3\u00a4nd": 4691,
  "\u0120voted": 4692,
  "\u0120enth\u00c3\u00a4lt": 4693,
  "\u0120erm\u00c3\u00b6glichen": 4694,
  "folge": 4695,
  "iens": 4696,
  "iterran": 4697,
  "\u0120looking": 4698,
  "\u0120parts": 4699,
  "\u0120best\u00c3\u00a4t": 4700,
  "ourcen": 4701,
  "ennung": 4702,
  "just": 4703,
  "ww": 4704,
  "\u0120gesundheits": 4705,
  "\u0120aussprache": 4706,
  "\u0120liste": 4707,
  "\u0120gew\u00c3\u00a4hrleisten": 4708,
  "mitglied": 4709,
  "legung": 4710,
  "urop": 4711,
  "\u0120sicht": 4712,
  "\u012028": 4713,
  "\u0120search": 4714,
  "\u0120desp": 4715,
  "\u0120anz": 4716,
  "\u0120leaders": 4717,
  "\u0120fit": 4718,
  "\u0120tragen": 4719,
  "\u0120portugal": 4720,
  "\u0120generation": 4721,
  "\u0120zivil": 4722,
  "strateg": 4723,
  "\u0120volks": 4724,
  "teid": 4725,
  "\u0120stop": 4726,
  "\u0120\u00c3\u00b6ffentliche": 4727,
  "\u00c3\u00a4sst": 4728,
  "\u0120pr\u00c3\u00a4": 4729,
  "ossen": 4730,
  "\u0120paper": 4731,
  "\u0120franz\u00c3\u00b6s": 4732,
  "halte": 4733,
  "\u0120exec": 4734,
  "\u0120soziale": 4735,
  "tes": 4736,
  "\u0120emissions": 4737,
  "\u0120verwendung": 4738,
  "\u0120pet": 4739,
  "\u0120verkehrs": 4740,
  "\u0120febru": 4741,
  "mission": 4742,
  "gl": 4743,
  "\u0120konzentr": 4744,
  "cer": 4745,
  "mented": 4746,
  "atur": 4747,
  "wide": 4748,
  "\u0120alternative": 4749,
  "\u0120niederl": 4750,
  "more": 4751,
  "\u0120fu": 4752,
  "ilities": 4753,
  "kraft": 4754,
  "do": 4755,
  "\u0120military": 4756,
  "\u0120stage": 4757,
  "\u0120italy": 4758,
  "\u0120spain": 4759,
  "arbeitet": 4760,
  "\u0120antwort": 4761,
  "\u0120st\u00c3\u00a4d": 4762,
  "\u0120setzen": 4763,
  "schnitt": 4764,
  "\u0120genie": 4765,
  "ption": 4766,
  "\u0120konnte": 4767,
  "abon": 4768,
  "\u0120aufgabe": 4769,
  "ester": 4770,
  "eden": 4771,
  "\u0120bildung": 4772,
  "val": 4773,
  "\u0120game": 4774,
  "\u0120ukraine": 4775,
  "\u0120happ": 4776,
  "artet": 4777,
  "yp": 4778,
  "\u0120customer": 4779,
  "\u0120kleine": 4780,
  "\u0120asyl": 4781,
  "\u0120jedem": 4782,
  "\u0120age": 4783,
  "\u0120association": 4784,
  "\u0120h\u00c3\u00a4tte": 4785,
  "\u0120body": 4786,
  "\u0120tool": 4787,
  "\u0120applications": 4788,
  "\u0120mitt": 4789,
  "\u0120anzu": 4790,
  "\u0120vern": 4791,
  "\u0120zweiten": 4792,
  "cker": 4793,
  "\u0120innovative": 4794,
  "\u0120creation": 4795,
  "\u0120june": 4796,
  "\u0120traditional": 4797,
  "\u0120winter": 4798,
  "buch": 4799,
  "\u0120actually": 4800,
  "\u0120schle": 4801,
  "\u0120flugh": 4802,
  "uted": 4803,
  "lant": 4804,
  "\u0120hei\u00c3\u0141": 4805,
  "\u0120traff": 4806,
  "\u0120parliaments": 4807,
  "usst": 4808,
  "lang": 4809,
  "\u0120konferenz": 4810,
  "\u0120v\u00c3\u00b6": 4811,
  "gruppe": 4812,
  "\u0120lisbon": 4813,
  "\u0120rechtsvorschriften": 4814,
  "\u0120western": 4815,
  "\u0120recently": 4816,
  "\u0120leider": 4817,
  "\u0120advant": 4818,
  "\u0120achieved": 4819,
  "hotel": 4820,
  "\u0120organisations": 4821,
  "abkommen": 4822,
  "\u0120\u00c3\u00b6sterreich": 4823,
  "keiten": 4824,
  "\u0120presented": 4825,
  "spiel": 4826,
  "\u0120liss": 4827,
  "\u0120school": 4828,
  "\u0120passen": 4829,
  "\u0120einf\u00c3\u00bchrung": 4830,
  "\u0120complex": 4831,
  "\u0120providing": 4832,
  "\u0120london": 4833,
  "\u0120entsch": 4834,
  "\u0120response": 4835,
  "\u00c3\u00bchungen": 4836,
  "\u0120apartments": 4837,
  "\u0120herz": 4838,
  "\u0120kil": 4839,
  "\u0120former": 4840,
  "\u0120projekte": 4841,
  "\u0120gestellt": 4842,
  "\u0120purch": 4843,
  "\u0120krise": 4844,
  "\u0120einschlie\u00c3\u0141lich": 4845,
  "\u0120idea": 4846,
  "\u0120received": 4847,
  "\u0120american": 4848,
  "cep": 4849,
  "\u0120langfrist": 4850,
  "\u0120untersuch": 4851,
  "\u0120erw\u00c3\u00a4": 4852,
  "\u0120tatsache": 4853,
  "\u0120\u00c3\u00bcberwach": 4854,
  "stances": 4855,
  "ya": 4856,
  "affen": 4857,
  "\u0120undert": 4858,
  "fahrt": 4859,
  "\u0120image": 4860,
  "\u0120heut": 4861,
  "\u0120august": 4862,
  "\u0120kontroll": 4863,
  "\u0120bestimmte": 4864,
  "abel": 4865,
  "\u0120nahe": 4866,
  "ube": 4867,
  "\u00c3\u00a4ufig": 4868,
  "\u0120series": 4869,
  "40": 4870,
  "esh": 4871,
  "\u0120contribution": 4872,
  "\u0120bleibt": 4873,
  "\u0120medium": 4874,
  "etzung": 4875,
  "\u0120schem": 4876,
  "\u0120constitution": 4877,
  "\u0120beitragen": 4878,
  "\u0120stark": 4879,
  "\u0120sex": 4880,
  "\u0120lissabon": 4881,
  "\u0120allows": 4882,
  "\u0120carried": 4883,
  "\u0120erkl\u00c3\u00a4rung": 4884,
  "\u0120adap": 4885,
  "\u0120statist": 4886,
  "\u0120dritt": 4887,
  "rechend": 4888,
  "\u0120hohe": 4889,
  "fluss": 4890,
  "\u0120rural": 4891,
  "fordert": 4892,
  "schw": 4893,
  "\u0120h\u00c3\u00b6he": 4894,
  "zeugen": 4895,
  "\u0120neigh": 4896,
  "\u0120kir": 4897,
  "olution": 4898,
  "\u0120einger": 4899,
  "ritts": 4900,
  "bung": 4901,
  "\u0120corpor": 4902,
  "hoben": 4903,
  "ikanischen": 4904,
  "\u0120cast": 4905,
  "spr\u00c3\u00a4sident": 4906,
  "\u0120warum": 4907,
  "urt": 4908,
  "ills": 4909,
  "pfen": 4910,
  "\u0120steu": 4911,
  "\u0120verpflich": 4912,
  "\u0120tex": 4913,
  "\u0120doing": 4914,
  "frei": 4915,
  "\u0120freund": 4916,
  "\u0120deta": 4917,
  "\u0120termin": 4918,
  "\u0120minuten": 4919,
  "ano": 4920,
  "ovo": 4921,
  "\u0120hours": 4922,
  "\u0120verteid": 4923,
  "\u0120effects": 4924,
  "\u0120fr\u00c3\u00bchst\u00c3\u00bcck": 4925,
  "onom": 4926,
  "ande": 4927,
  "\u0120anfang": 4928,
  "\u0120element": 4929,
  "\u0120choice": 4930,
  "ances": 4931,
  "\u0120summit": 4932,
  "haben": 4933,
  "\u0120luxem": 4934,
  "stead": 4935,
  "\u0120rich": 4936,
  "mitt": 4937,
  "\u0120double": 4938,
  "35": 4939,
  "\u0120monitoring": 4940,
  "\u0120highl": 4941,
  "\u0120unternehmens": 4942,
  "xis": 4943,
  "\u0120gesamt": 4944,
  "\u0120turkey": 4945,
  "\u0120zweif": 4946,
  "\u0120juni": 4947,
  "\u0120gr\u00c3\u00bcnden": 4948,
  "atell": 4949,
  "iete": 4950,
  "\u0120entde": 4951,
  "\u0120move": 4952,
  "\u0120sau": 4953,
  "\u0120ship": 4954,
  "\u0120barcel": 4955,
  "\u0120befinden": 4956,
  "\u0120beschr\u00c3\u00a4n": 4957,
  "\u01201998": 4958,
  "bre": 4959,
  "oking": 4960,
  "otion": 4961,
  "\u0120cam": 4962,
  "employ": 4963,
  "\u0120enlargement": 4964,
  "\u0120haup": 4965,
  "pr\u00c3\u00a4sident": 4966,
  "\u0120speed": 4967,
  "\u0120connection": 4968,
  "\u0120damen": 4969,
  "eff": 4970,
  "\u0120billion": 4971,
  "\u0120ress": 4972,
  "\u0120improvement": 4973,
  "\u0120criter": 4974,
  "\u0120word": 4975,
  "\u0120answer": 4976,
  "\u0120commercial": 4977,
  "\u0120certainly": 4978,
  "works": 4979,
  "\u0120auffassung": 4980,
  "\u0120mission": 4981,
  "\u0120values": 4982,
  "\u0120regierungen": 4983,
  "\u0120reasons": 4984,
  "denken": 4985,
  "ws": 4986,
  "\u0120lay": 4987,
  "\u0120nuclear": 4988,
  "usion": 4989,
  "\u0120built": 4990,
  "\u0120dimension": 4991,
  "\u0120spezie": 4992,
  "\u0120sent": 4993,
  "\u0120ep": 4994,
  "soft": 4995,
  "\u0120waste": 4996,
  "\u0120ms": 4997,
  "ausschuss": 4998,
  "\u0120electron": 4999,
  "\u0120considered": 5000,
  "aufen": 5001,
  "\u0120email": 5002,
  "da": 5003,
  "\u0120balance": 5004,
  "\u0120poor": 5005,
  "haps": 5006,
  "\u0120j\u00c3\u00bcn": 5007,
  "industrie": 5008,
  "\u0120mac": 5009,
  "ico": 5010,
  "\u0120successful": 5011,
  "\u0120mitteilung": 5012,
  "organisation": 5013,
  "annte": 5014,
  "\u0120host": 5015,
  "\u0120liefer": 5016,
  "\u0120street": 5017,
  "mehr": 5018,
  "sto": 5019,
  "\u0120avoid": 5020,
  "\u0120ernst": 5021,
  "\u0120grundlegen": 5022,
  "\u0120english": 5023,
  "ological": 5024,
  "\u0120verbindung": 5025,
  "\u0120transparen": 5026,
  "worten": 5027,
  "\u0120condu": 5028,
  "\u0120instead": 5029,
  "\u0120morgen": 5030,
  "alter": 5031,
  "\u0120compre": 5032,
  "\u0120apartment": 5033,
  "\u0120setting": 5034,
  "sicherheit": 5035,
  "\u0120lic": 5036,
  "\u0120carry": 5037,
  "\u0120try": 5038,
  "\u0120wunder": 5039,
  "\u0120acht": 5040,
  "\u0120aspects": 5041,
  "\u0120self": 5042,
  "\u0120spir": 5043,
  "\u0120elektron": 5044,
  "\u0120bundes": 5045,
  "\u0120enor": 5046,
  "\u0120verd": 5047,
  "\u0120depart": 5048,
  "\u0120werk": 5049,
  "ierter": 5050,
  "\u0120zentrum": 5051,
  "\u0120regeln": 5052,
  "\u0120rene": 5053,
  "bek": 5054,
  "\u0120phys": 5055,
  "mor": 5056,
  "\u0120ganzen": 5057,
  "iciency": 5058,
  "\u0120challenges": 5059,
  "yr": 5060,
  "\u0120sinn": 5061,
  "\u0120perhaps": 5062,
  "\u0120m\u00c3\u00a4n": 5063,
  "\u0120added": 5064,
  "\u0120bestimmten": 5065,
  "\u0120lik": 5066,
  "\u0120december": 5067,
  "\u0120nothing": 5068,
  "pression": 5069,
  "ille": 5070,
  "\u00c3\u00bctzen": 5071,
  "fun": 5072,
  "inner": 5073,
  "\u0120europes": 5074,
  "ology": 5075,
  "bus": 5076,
  "\u0120annual": 5077,
  "\u0120reached": 5078,
  "\u0120bran": 5079,
  "\u0120collect": 5080,
  "\u0120thing": 5081,
  "\u012029": 5082,
  "\u0120vielf": 5083,
  "\u0120shows": 5084,
  "\u0120\u00c3\u00b6ffentlichkeit": 5085,
  "\u0120march": 5086,
  "\u0120finance": 5087,
  "\u0120submitted": 5088,
  "\u0120famous": 5089,
  "\u0120anp": 5090,
  "\u0120kampf": 5091,
  "itation": 5092,
  "\u0120nations": 5093,
  "ros": 5094,
  "orgung": 5095,
  "\u0120despite": 5096,
  "erweise": 5097,
  "ball": 5098,
  "\u0120dring": 5099,
  "\u0120gelegenheit": 5100,
  "\u0120sectors": 5101,
  "wander": 5102,
  "\u0120pc": 5103,
  "\u0120bem\u00c3\u00bchungen": 5104,
  "\u0120remains": 5105,
  "\u0120erinn": 5106,
  "\u0120500": 5107,
  "\u0120danken": 5108,
  "\u0120\u00c3\u00a4hn": 5109,
  "\u0120overall": 5110,
  "\u0120seek": 5111,
  "\u0120middle": 5112,
  "\u0120reich": 5113,
  "zuf\u00c3\u00bchren": 5114,
  "\u0120discover": 5115,
  "\u00c3\u00a4ngen": 5116,
  "face": 5117,
  "\u0120kan": 5118,
  "\u0120regular": 5119,
  "ikt": 5120,
  "\u0120fu\u00c3\u0141": 5121,
  "ari": 5122,
  "\u0120warm": 5123,
  "\u0120simple": 5124,
  "\u0120kulture": 5125,
  "ernen": 5126,
  "orf": 5127,
  "handen": 5128,
  "elines": 5129,
  "\u0120zul": 5130,
  "\u0120\u00c3\u00a4nderungsantrag": 5131,
  "\u0120conclusions": 5132,
  "\u0120slo": 5133,
  "\u0120komfort": 5134,
  "\u0120lebensmittel": 5135,
  "\u0120geh\u00c3\u00b6ren": 5136,
  "\u0120sofort": 5137,
  "\u0120technologies": 5138,
  "\u0120oct": 5139,
  "\u0120une": 5140,
  "\u0120\u00c3\u00a4nderungen": 5141,
  "\u0120auswahl": 5142,
  "\u0120infrastructure": 5143,
  "\u0120benefits": 5144,
  "erve": 5145,
  "\u0120latest": 5146,
  "\u0120ven": 5147,
  "\u0120independent": 5148,
  "\u0120ausschusses": 5149,
  "\u0120attack": 5150,
  "\u0120syn": 5151,
  "\u0120russland": 5152,
  "\u0120distribution": 5153,
  "aint": 5154,
  "jekt": 5155,
  "\u0120materials": 5156,
  "\u0120sand": 5157,
  "\u0120fix": 5158,
  "angt": 5159,
  "\u0120mehrheit": 5160,
  "ara": 5161,
  "\u0120terra": 5162,
  "\u0120spezial": 5163,
  "statt": 5164,
  "\u0120feder": 5165,
  "\u0120milit\u00c3\u00a4r": 5166,
  "\u0120erster": 5167,
  "\u0120ministers": 5168,
  "\u0120notwendigkeit": 5169,
  "\u0120colleag": 5170,
  "\u0120absolute": 5171,
  "\u0120becom": 5172,
  "finden": 5173,
  "\u0120medien": 5174,
  "\u00c3\u00b6rper": 5175,
  "\u0120ster": 5176,
  "iture": 5177,
  "die": 5178,
  "zone": 5179,
  "\u0120\u00c3\u00bcberzeug": 5180,
  "vertrag": 5181,
  "\u00c3\u00a4nge": 5182,
  "\u0120museum": 5183,
  "\u0120purs": 5184,
  "\u0120aspe": 5185,
  "\u00c3\u00b6hn": 5186,
  "\u0120zeigen": 5187,
  "\u0120mentioned": 5188,
  "\u0120white": 5189,
  "\u0120asked": 5190,
  "\u00c3\u00a4chen": 5191,
  "\u0120dezember": 5192,
  "\u0120j\u00c3\u00bcng": 5193,
  "ja": 5194,
  "\u0120fehler": 5195,
  "\u0120fisheries": 5196,
  "\u0120europ\u00c3\u00a4ischer": 5197,
  "nal": 5198,
  "\u0120sus": 5199,
  "\u0120konfl": 5200,
  "\u0120vorhanden": 5201,
  "\u0120stelle": 5202,
  "\u0120fert": 5203,
  "\u0120ganze": 5204,
  "\u0120gerne": 5205,
  "pan": 5206,
  "\u0120zeitpunkt": 5207,
  "\u0120ruh": 5208,
  "\u0120\u00c3\u00bcbrigen": 5209,
  "\u0120bemer": 5210,
  "splan": 5211,
  "\u0120aware": 5212,
  "\u0120denke": 5213,
  "\u0120ps": 5214,
  "\u0120choose": 5215,
  "\u0120measure": 5216,
  "\u0120defen": 5217,
  "\u0120legislative": 5218,
  "ini": 5219,
  "\u0120l\u00c3\u00a4nd": 5220,
  "\u0120deutschen": 5221,
  "\u0120vertreter": 5222,
  "\u0120verz": 5223,
  "\u0120kla": 5224,
  "\u0120augen": 5225,
  "estens": 5226,
  "daten": 5227,
  "\u0120unseres": 5228,
  "\u0120mediterran": 5229,
  "\u0120train": 5230,
  "mus": 5231,
  "olid": 5232,
  "\u0120reise": 5233,
  "\u0120finanzierung": 5234,
  "\u0120popular": 5235,
  "\u0120matters": 5236,
  "\u0120kolleginnen": 5237,
  "\u0120tat": 5238,
  "\u01201997": 5239,
  "\u0120fl\u00c3\u00bc": 5240,
  "vis": 5241,
  "\u0120wochen": 5242,
  "\u0120durchf\u00c3\u00bchrung": 5243,
  "\u0120fal": 5244,
  "\u0120gesamte": 5245,
  "\u0120erlau": 5246,
  "\u0120quickly": 5247,
  "\u0120aufent": 5248,
  "\u0120award": 5249,
  "\u0120completely": 5250,
  "\u0120anwend": 5251,
  "ii": 5252,
  "\u0120gerecht": 5253,
  "\u0120sch\u00c3\u00b6": 5254,
  "\u0120round": 5255,
  "\u0120banks": 5256,
  "\u0120contains": 5257,
  "\u0120erschein": 5258,
  "f\u00c3\u00a4": 5259,
  "geber": 5260,
  "\u0120nachdem": 5261,
  "inger": 5262,
  "25": 5263,
  "schlie\u00c3\u0141end": 5264,
  "ued": 5265,
  "\u0120experien": 5266,
  "\u0120standpunkt": 5267,
  "\u0120allein": 5268,
  "\u0120tick": 5269,
  "ency": 5270,
  "m\u00c3\u00a4\u00c3\u0141ig": 5271,
  "\u0120announ": 5272,
  "leitet": 5273,
  "\u0120$": 5274,
  "\u0120black": 5275,
  "\u0120perman": 5276,
  "\u0120gd": 5277,
  "kosten": 5278,
  "\u0120entwickeln": 5279,
  "\u0120abgeordneten": 5280,
  "\u0120squ": 5281,
  "\u0120task": 5282,
  "\u0120installation": 5283,
  "\u0120university": 5284,
  "\u0120resort": 5285,
  "\u0120integrated": 5286,
  "\u0120dopp": 5287,
  "\u0120vertreten": 5288,
  "frieden": 5289,
  "\u0120comprehens": 5290,
  "\u0120highly": 5291,
  "lam": 5292,
  "\u0120mitgliedstaat": 5293,
  "pres": 5294,
  "okoll": 5295,
  "\u0120bewer": 5296,
  "\u0120beginning": 5297,
  "\u0120virt": 5298,
  "\u0120hei\u00c3\u0141t": 5299,
  "\u0120phase": 5300,
  "\u0120delegation": 5301,
  "anzen": 5302,
  "\u0120marketing": 5303,
  "\u0120tor": 5304,
  "\u0120folgenden": 5305,
  "\u0120gef\u00c3\u00bchrt": 5306,
  "\u0120mai": 5307,
  "\u0120anstr": 5308,
  "ume": 5309,
  "\u0120persons": 5310,
  "\u0120audio": 5311,
  "zent": 5312,
  "tees": 5313,
  "\u0120renew": 5314,
  "ghan": 5315,
  "rict": 5316,
  "\u00c3\u00a4st": 5317,
  "\u0120substant": 5318,
  "\u0120niedr": 5319,
  "stellungen": 5320,
  "\u0120beihilfen": 5321,
  "\u0120anzahl": 5322,
  "ork": 5323,
  "\u0120verf\u00c3\u00bcgen": 5324,
  "\u0120leicht": 5325,
  "\u0120fer": 5326,
  "will": 5327,
  "\u0120l\u00c3\u00a4sst": 5328,
  "put": 5329,
  "unately": 5330,
  "\u0120ers": 5331,
  "ienz": 5332,
  "oph": 5333,
  "astrop": 5334,
  "griffen": 5335,
  "fordern": 5336,
  "\u0120\u00c3\u00a4nderungsantr\u00c3\u00a4ge": 5337,
  "ses": 5338,
  "\u0120strand": 5339,
  "\u0120steps": 5340,
  "ugs": 5341,
  "\u0120files": 5342,
  "aden": 5343,
  "\u0120correct": 5344,
  "kontro": 5345,
  "\u0120bed\u00c3\u00bcr": 5346,
  "una": 5347,
  "\u0120leisten": 5348,
  "\u0120minimum": 5349,
  "\u0120meinen": 5350,
  "l\u00c3\u00b6s": 5351,
  "\u0120kommissions": 5352,
  "\u0120study": 5353,
  "pers": 5354,
  "ierenden": 5355,
  "\u0120gr\u00c3\u00b6\u00c3\u0141ten": 5356,
  "\u0120fishing": 5357,
  "\u0120obtain": 5358,
  "\u0120restrict": 5359,
  "struktur": 5360,
  "\u0120source": 5361,
  "\u0120fire": 5362,
  "\u0120barcelona": 5363,
  "\u0120verwenden": 5364,
  "\u0120grand": 5365,
  "\u0120schiff": 5366,
  "\u0120zahlreiche": 5367,
  "\u0120block": 5368,
  "\u0120rum": 5369,
  "\u0120mitarbeiter": 5370,
  "\u0120exc": 5371,
  "kennen": 5372,
  "\u0120durchgef\u00c3\u00bchrt": 5373,
  "zi": 5374,
  "\u0120possibility": 5375,
  "\u0120zweite": 5376,
  "ziehung": 5377,
  "\u0120unfort": 5378,
  "\u0120contribute": 5379,
  "\u0120schlussel": 5380,
  "\u0120tier": 5381,
  "\u0120agrar": 5382,
  "\u0120mail": 5383,
  "\u012070": 5384,
  "\u0120regulations": 5385,
  "igur": 5386,
  "\u0120coming": 5387,
  "\u0120tools": 5388,
  "\u0120furthermore": 5389,
  "zeuge": 5390,
  "\u0120beide": 5391,
  "hab": 5392,
  "\u0120berat": 5393,
  "\u0120bio": 5394,
  "\u0120congr": 5395,
  "\u0120property": 5396,
  "\u0120africa": 5397,
  "\u0120l\u00c3\u00b6sungen": 5398,
  "\u0120satell": 5399,
  "rahmen": 5400,
  "\u0120bekommen": 5401,
  "\u0120learn": 5402,
  "ki": 5403,
  "\u0120sieht": 5404,
  "\u0120writing": 5405,
  "kn": 5406,
  "\u0120angebot": 5407,
  "\u012090": 5408,
  "\u0120italian": 5409,
  "\u0120mis": 5410,
  "\u0120produktion": 5411,
  "stein": 5412,
  "\u0120candid": 5413,
  "\u0120businesses": 5414,
  "\u0120regards": 5415,
  "\u0120afghan": 5416,
  "\u0120forschungs": 5417,
  "\u01202011": 5418,
  "\u0120cohes": 5419,
  "\u0120tel": 5420,
  "ush": 5421,
  "\u0120determin": 5422,
  "\u0120scientific": 5423,
  "icit": 5424,
  "\u0120construction": 5425,
  "\u00c3\u00bcft": 5426,
  "gef": 5427,
  "\u0120discussion": 5428,
  "\u0120assessment": 5429,
  ".,": 5430,
  "\u0120amster": 5431,
  "\u0120lag": 5432,
  "\u0120gro\u00c3\u0141er": 5433,
  "\u0120condition": 5434,
  "\u0120formul": 5435,
  "\u0120wonder": 5436,
  "\u0120rapid": 5437,
  "heben": 5438,
  "\u0120forder": 5439,
  "\u0120dang": 5440,
  "lines": 5441,
  "gener": 5442,
  "\u0120criteria": 5443,
  "bezogen": 5444,
  "\u0120arbeitnehmer": 5445,
  "\u0120regime": 5446,
  "\u0120beschlossen": 5447,
  "\u0120spanien": 5448,
  "\u0120pie": 5449,
  "\u0120anderer": 5450,
  "\u0120plat": 5451,
  "ane": 5452,
  "\u0120sites": 5453,
  "\u0120kapital": 5454,
  "\u0120purpose": 5455,
  "\u0120everyone": 5456,
  "df": 5457,
  "itive": 5458,
  "18": 5459,
  "rid": 5460,
  "\u0120accession": 5461,
  "amera": 5462,
  "iber": 5463,
  "\u0120entschlie\u00c3\u0141ung": 5464,
  "\u0120lower": 5465,
  "\u0120vorliegen": 5466,
  "zunehmen": 5467,
  "\u0120monet": 5468,
  "\u0120reduction": 5469,
  "\u0120ga": 5470,
  "folgerungen": 5471,
  "\u0120guten": 5472,
  "\u0120bereiche": 5473,
  "\u0120keyword": 5474,
  "view": 5475,
  "\u0120influen": 5476,
  "schreit": 5477,
  "uff": 5478,
  "\u0120erg\u00c3\u00a4n": 5479,
  "\u0120agency": 5480,
  "\u0120foot": 5481,
  "\u0120supported": 5482,
  "\u0120f\u00c3\u00a4h": 5483,
  "\u0120besitz": 5484,
  "\u0120equal": 5485,
  "\u0120os": 5486,
  "\u0120www": 5487,
  "lex": 5488,
  "\u0120seas": 5489,
  "\u0120sant": 5490,
  "\u0120dont": 5491,
  "urance": 5492,
  "\u0120mang": 5493,
  "\u0120monaten": 5494,
  "\u0120priorities": 5495,
  "\u0120transparency": 5496,
  "iable": 5497,
  "ystem": 5498,
  "\u0120symb": 5499,
  "ga": 5500,
  "\u0120ult": 5501,
  "\u0120einzig": 5502,
  "\u00c3\u00bctzt": 5503,
  "osen": 5504,
  "\u0120activity": 5505,
  "strategie": 5506,
  "\u0120genie\u00c3\u0141en": 5507,
  "\u0120enterprise": 5508,
  "iglich": 5509,
  "fahrens": 5510,
  "este": 5511,
  "\u0120dise": 5512,
  "owers": 5513,
  "\u0120partnerschaft": 5514,
  "\u0120gleichen": 5515,
  "\u0120proceed": 5516,
  "\u0120unemploy": 5517,
  "\u0120prepared": 5518,
  "\u0120hom": 5519,
  "\u0120moreover": 5520,
  "\u0120okt": 5521,
  "\u012026": 5522,
  "ibility": 5523,
  "\u0120guidelines": 5524,
  "\u0120interpre": 5525,
  "\u0120entscheidungen": 5526,
  "\u0120lediglich": 5527,
  "\u0120select": 5528,
  "\u0120comprehensive": 5529,
  "\u0120anspruch": 5530,
  "agn": 5531,
  "\u0120legit": 5532,
  "\u0120kenntnis": 5533,
  "\u0120spezif": 5534,
  "\u0120summer": 5535,
  "uz": 5536,
  "\u0120kosovo": 5537,
  "\u0120pleas": 5538,
  "\u0120ansatz": 5539,
  "uis": 5540,
  "\u0120handeln": 5541,
  "\u0120richtig": 5542,
  "itable": 5543,
  "\u0120plans": 5544,
  "17": 5545,
  "ques": 5546,
  "kret": 5547,
  "m\u00c3\u00b6glichkeiten": 5548,
  "\u0120comprom": 5549,
  "\u0120j\u00c3\u00a4hr": 5550,
  "\u0120whose": 5551,
  "\u0120preise": 5552,
  "\u0120laufen": 5553,
  "\u0120exhib": 5554,
  "verkehrs": 5555,
  "\u0120ski": 5556,
  "\u0120er\u00c3\u00b6ff": 5557,
  "sv": 5558,
  "sibilities": 5559,
  "\u0120creating": 5560,
  "artige": 5561,
  "\u0120efficiency": 5562,
  "\u0120sense": 5563,
  "\u0120bestand": 5564,
  "\u0120illegal": 5565,
  "\u0120brought": 5566,
  "\u0120dennoch": 5567,
  "reten": 5568,
  "\u0120stimme": 5569,
  "\u0120eindeut": 5570,
  "\u0120scre": 5571,
  "\u0120doll": 5572,
  "\u0120berg": 5573,
  "\u0120verpflichtungen": 5574,
  "\u0120meines": 5575,
  "\u0120constit": 5576,
  "\u0120woche": 5577,
  "phone": 5578,
  "\u0120zunehmen": 5579,
  "ai": 5580,
  "14": 5581,
  "\u0120stabilit\u00c3\u00a4t": 5582,
  "\u0120volk": 5583,
  "\u0120q": 5584,
  "\u0120audit": 5585,
  "\u0120cohesion": 5586,
  "\u0120simpl": 5587,
  "\u0120death": 5588,
  "verage": 5589,
  "\u0120erh\u00c3\u00a4lt": 5590,
  "\u0120schen": 5591,
  "forderung": 5592,
  "\u0120recover": 5593,
  "\u0120accom": 5594,
  "iment": 5595,
  "igungen": 5596,
  "\u0120zehn": 5597,
  "ounts": 5598,
  "\u0120reduz": 5599,
  "\u0120representatives": 5600,
  "\u0120analysis": 5601,
  "\u0120calls": 5602,
  "\u0120forum": 5603,
  "zeichnung": 5604,
  "\u0120size": 5605,
  "\u0120dipl": 5606,
  "\u0120initiatives": 5607,
  "\u0120frequ": 5608,
  "\u01202020": 5609,
  "\u0120transparenz": 5610,
  "lla": 5611,
  "\u0120applied": 5612,
  "\u0120administrative": 5613,
  "\u0120anforderungen": 5614,
  "\u0120seems": 5615,
  "\u0120geschaffen": 5616,
  "\u0120gruppen": 5617,
  "\u0120griechen": 5618,
  "\u0120dauer": 5619,
  "bericht": 5620,
  "cluded": 5621,
  "\u0120anstreng": 5622,
  "\u0120tage": 5623,
  "\u0120reforms": 5624,
  "\u0120implemented": 5625,
  "\u0120radio": 5626,
  "\u0120eigene": 5627,
  "\u0120humanitarian": 5628,
  "arily": 5629,
  "\u0120wettbewerbsf\u00c3\u00a4higkeit": 5630,
  "\u0120charge": 5631,
  "\u0120edit": 5632,
  "\u0120shown": 5633,
  "point": 5634,
  "\u0120competitiveness": 5635,
  "ery": 5636,
  "\u0120wid": 5637,
  "\u0120vergangenen": 5638,
  "\u0120herausforderungen": 5639,
  "\u0120plant": 5640,
  "\u0120erleich": 5641,
  "wertungen": 5642,
  "\u0120ost": 5643,
  "ender": 5644,
  "krimin": 5645,
  "\u0120gives": 5646,
  "\u0120erfolgreich": 5647,
  "\u0120gebracht": 5648,
  "\u0120huge": 5649,
  "\u01201996": 5650,
  "\u0120behind": 5651,
  "klus": 5652,
  "\u0120zahlen": 5653,
  "\u0120october": 5654,
  "\u0120bey": 5655,
  "zusch": 5656,
  "\u0120erreich": 5657,
  "\u0120gestimmt": 5658,
  "wise": 5659,
  "\u0120congratul": 5660,
  "\u0120k\u00c3\u00bcnst": 5661,
  "ously": 5662,
  "aschinen": 5663,
  "\u0120published": 5664,
  "ained": 5665,
  "\u0120employe": 5666,
  "\u0120init": 5667,
  "\u0120bef\u00c3\u00bcr": 5668,
  "\u0120verm": 5669,
  "\u0120base": 5670,
  "ox": 5671,
  "\u0120mountain": 5672,
  "orial": 5673,
  "\u00c3\u00b6st": 5674,
  "ope": 5675,
  "\u0120floor": 5676,
  "\u0120wichtiger": 5677,
  "\u0120forms": 5678,
  "itect": 5679,
  "\u0120reviews": 5680,
  "\u0120flugha": 5681,
  "m\u00c3\u00a4r": 5682,
  "\u0120statement": 5683,
  "\u0120nationen": 5684,
  "\u0120provision": 5685,
  "\u0120authority": 5686,
  "\u0120sagte": 5687,
  "\u0120bot": 5688,
  "\u0120direction": 5689,
  "\u0120kontin": 5690,
  "sektor": 5691,
  "\u0120entsprechend": 5692,
  "\u0120mont": 5693,
  "\u0120neighbour": 5694,
  "\u0120pil": 5695,
  "\u0120payment": 5696,
  "\u0120sechs": 5697,
  "\u0120expected": 5698,
  "\u0120jav": 5699,
  "\u0120equipped": 5700,
  "adem": 5701,
  "\u0120300": 5702,
  "\u0120auftrag": 5703,
  "\u0120stad": 5704,
  "\u0120display": 5705,
  "anken": 5706,
  "erc": 5707,
  "\u0120v\u00c3\u00b6llig": 5708,
  "scht": 5709,
  "leistung": 5710,
  "\u0120declar": 5711,
  "\u0120impl": 5712,
  "utt": 5713,
  "\u0120improving": 5714,
  "\u0120f\u00c3\u00a4llen": 5715,
  "\u00c3\u00a4te": 5716,
  "\u0120kit": 5717,
  "verty": 5718,
  "\u0120journal": 5719,
  "\u0120ehem": 5720,
  "\u0120nav": 5721,
  "\u0120pressure": 5722,
  "\u0120financing": 5723,
  "opping": 5724,
  "\u0120feed": 5725,
  "\u0120ressourcen": 5726,
  "\u0120ways": 5727,
  "sm": 5728,
  "\u0120erneut": 5729,
  "\u0120domin": 5730,
  "\u0120grenzen": 5731,
  "\u0120compon": 5732,
  "\u0120furn": 5733,
  "\u0120verwaltung": 5734,
  "\u0120m\u00c3\u00a4rz": 5735,
  "\u0120got": 5736,
  "\u0120budgetary": 5737,
  "\u0120insel": 5738,
  "feld": 5739,
  "\u0120\u00c3\u00b6ff": 5740,
  "sprechen": 5741,
  "\u0120satisf": 5742,
  "laf": 5743,
  "\u0120consist": 5744,
  "\u0120largest": 5745,
  "\u0120poverty": 5746,
  "\u0120tab": 5747,
  "dis": 5748,
  "ola": 5749,
  "\u0120player": 5750,
  "\u0120amsterdam": 5751,
  "\u00c3\u00a4ngt": 5752,
  "\u0120bir": 5753,
  "\u0120america": 5754,
  "\u0120nachbar": 5755,
  "\u0120\u00c3\u00a4nderung": 5756,
  "ellschaften": 5757,
  "lauf": 5758,
  "\u0120strategic": 5759,
  "\u0120approved": 5760,
  "\u0120mel": 5761,
  "here": 5762,
  "\u0120conflict": 5763,
  "\u0120solidarity": 5764,
  "\u0120oktober": 5765,
  "\u0120urban": 5766,
  "\u0120diskut": 5767,
  "\u0120pr\u00c3\u00a4sent": 5768,
  "\u0120schweiz": 5769,
  "fft": 5770,
  "\u0120beob": 5771,
  "\u0120elements": 5772,
  "\u0120parteien": 5773,
  "krise": 5774,
  "bert": 5775,
  "\u0120prob": 5776,
  "\u0120attem": 5777,
  "\u0120deutsche": 5778,
  "\u0120arrang": 5779,
  "\u0120games": 5780,
  "\u0120villa": 5781,
  "\u0120leave": 5782,
  "\u0120eingesetzt": 5783,
  "pa": 5784,
  "dra": 5785,
  "\u0120h\u00c3\u00b6her": 5786,
  "vious": 5787,
  "\u0120bein": 5788,
  "\u0120section": 5789,
  "\u0120relationship": 5790,
  "rad": 5791,
  "esch": 5792,
  "\u0120h\u00c3\u00a4ufig": 5793,
  "\u0120stellungnahme": 5794,
  "\u012035": 5795,
  "cement": 5796,
  "\u00c3\u00a4mt": 5797,
  "ehr": 5798,
  "\u0120limit": 5799,
  "legten": 5800,
  "\u0120komprom": 5801,
  "\u0120aktivit\u00c3\u00a4ten": 5802,
  "\u0120bessere": 5803,
  "\u0120behin": 5804,
  "wohn": 5805,
  "\u0120telefon": 5806,
  "\u01201995": 5807,
  "eite": 5808,
  "\u0120ferien": 5809,
  "\u0120beyond": 5810,
  "ature": 5811,
  "\u0120rede": 5812,
  "\u0120tell": 5813,
  "\u0120aufgenommen": 5814,
  "istische": 5815,
  "\u0120peoples": 5816,
  "bene": 5817,
  "\u0120january": 5818,
  "\u0120ire": 5819,
  "\u0120unmittel": 5820,
  "\u0120gefahr": 5821,
  "\u0120erfahrung": 5822,
  "\u0120islam": 5823,
  "\u0120sufficient": 5824,
  "scheid": 5825,
  "\u0120monetary": 5826,
  "\u0120concept": 5827,
  "\u0120solchen": 5828,
  "\u0120architect": 5829,
  "\u0120bathroom": 5830,
  "\u0120besondere": 5831,
  "\u0120!": 5832,
  "\u0120border": 5833,
  "\u0120diplom": 5834,
  "\u00c3\u00bcndet": 5835,
  "elten": 5836,
  "\u0120british": 5837,
  "\u0120nationale": 5838,
  "standen": 5839,
  "\u0120fon": 5840,
  "\u0120klicken": 5841,
  "icated": 5842,
  "\u0120documents": 5843,
  "\u0120requires": 5844,
  "\u0120gip": 5845,
  "\u0120schn": 5846,
  "gn": 5847,
  "\u0120innen": 5848,
  "date": 5849,
  "\u0120alten": 5850,
  "\u0120leistungs": 5851,
  "where": 5852,
  "........": 5853,
  "\u0120freiheit": 5854,
  "\u0120initial": 5855,
  "ante": 5856,
  "\u0120benutzer": 5857,
  "\u0120infrastruktur": 5858,
  "\u0120unterb": 5859,
  "\u0120ausf\u00c3\u00bchr": 5860,
  "\u0120beschluss": 5861,
  "\u0120eastern": 5862,
  "\u0120sach": 5863,
  "\u0120juli": 5864,
  "\u0120accommodation": 5865,
  "\u0120york": 5866,
  "akter": 5867,
  "\u0120stimmen": 5868,
  "\u0120came": 5869,
  "r\u00c3\u00bc": 5870,
  "\u0120affect": 5871,
  "\u0120finn": 5872,
  "meer": 5873,
  "ads": 5874,
  "\u0120\u00c3\u00a4u\u00c3\u0141erst": 5875,
  "\u0120arab": 5876,
  "inter": 5877,
  "\u0120spirit": 5878,
  "gment": 5879,
  "\u0120vertrauen": 5880,
  "altet": 5881,
  "\u0120verwaltungs": 5882,
  "\u0120coast": 5883,
  "\u0120k\u00c3\u00b6nigreich": 5884,
  "\u0120patent": 5885,
  "\u0120vorher": 5886,
  "oo": 5887,
  "\u0120mos": 5888,
  "\u0120easily": 5889,
  "\u0120appar": 5890,
  "\u0120cd": 5891,
  "estic": 5892,
  "\u0120sales": 5893,
  "\u0120spanish": 5894,
  "\u0120box": 5895,
  "\u0120cert": 5896,
  "\u0120electric": 5897,
  "otes": 5898,
  "\u0120anderem": 5899,
  "ivity": 5900,
  "cs": 5901,
  "\u0120armut": 5902,
  "\u0120sonst": 5903,
  "\u0120obvious": 5904,
  "\u0120erach": 5905,
  "\u0120temper": 5906,
  "\u0120bez\u00c3\u00bc": 5907,
  "\u0120accordance": 5908,
  "\u0120entsprechenden": 5909,
  "gruppen": 5910,
  "\u0120renov": 5911,
  "\u0120reference": 5912,
  "\u0120bedarf": 5913,
  "\u0120s\u00c3\u00a4mt": 5914,
  "\u0120recon": 5915,
  "\u0120grenz\u00c3\u00bcber": 5916,
  "based": 5917,
  "iately": 5918,
  "iot": 5919,
  "\u0120unfortunately": 5920,
  "\u0120multil": 5921,
  "leistungs": 5922,
  "reibung": 5923,
  "\u0120verstehen": 5924,
  "\u0120july": 5925,
  "\u0120debian": 5926,
  "\u0120georg": 5927,
  "\u0120por": 5928,
  "\u0120loss": 5929,
  "\u0120wall": 5930,
  "\u0120brand": 5931,
  "\u0120zeitraum": 5932,
  "\u0120crimin": 5933,
  "\u0120selbstverst\u00c3\u00a4nd": 5934,
  "ero": 5935,
  "\u0120hostels": 5936,
  "star": 5937,
  "\u0120urspr\u00c3\u00bcn": 5938,
  "\u0120aufbau": 5939,
  "\u0120betrieb": 5940,
  "\u0120kredit": 5941,
  "\u00c3\u00a4ger": 5942,
  "\u0120buy": 5943,
  "\u00c3\u00a4ume": 5944,
  "\u0120firm": 5945,
  "\u0120anstrengungen": 5946,
  "regel": 5947,
  "\u0120erzielt": 5948,
  "\u0120participation": 5949,
  "\u0120verbind": 5950,
  "\u0120beru": 5951,
  "ares": 5952,
  "\u0120greece": 5953,
  "richtlinie": 5954,
  "\u0120adoption": 5955,
  "haupt": 5956,
  "\u0120beitritts": 5957,
  "\u00c3\u00a4ude": 5958,
  "\u0120agent": 5959,
  "\u0120mun": 5960,
  "uk": 5961,
  "\u0120ensuring": 5962,
  "\u0120definition": 5963,
  "\u0120maximum": 5964,
  "\u0120organisationen": 5965,
  "bit": 5966,
  "\u0120gepr": 5967,
  "ielt": 5968,
  "tent": 5969,
  "chsel": 5970,
  "\u0120cause": 5971,
  "\u0120inhalt": 5972,
  "\u0120threat": 5973,
  "\u0120weder": 5974,
  "nungs": 5975,
  "zulegen": 5976,
  "\u0120pr\u00c3\u00a4sidenten": 5977,
  "\u0120release": 5978,
  "\u0120administration": 5979,
  "volle": 5980,
  "\u0120structure": 5981,
  "\u0120facilit": 5982,
  "\u0120effizient": 5983,
  "\u0120nimmt": 5984,
  "\u0120verst\u00c3\u00a4nd": 5985,
  "\u0120gross": 5986,
  "\u0120w\u00c3\u00a4hlen": 5987,
  "\u0120196": 5988,
  "\u0120\u00c3\u00a4ndern": 5989,
  "\u0120bege": 5990,
  "\u0120wirksam": 5991,
  "\u0120sprache": 5992,
  "\u0120kommissarin": 5993,
  "gere": 5994,
  "unsch": 5995,
  "\u0120uner": 5996,
  "\u0120prinzip": 5997,
  "\u0120applic": 5998,
  "\u0120anders": 5999,
  "porary": 6000,
  "iveau": 6001,
  "\u0120einzige": 6002,
  "\u0120intell": 6003,
  "\u0120verpflichtet": 6004,
  "\u0120flor": 6005,
  "\u0120festgelegt": 6006,
  "president": 6007,
  "\u0120verme": 6008,
  "\u0120mediterranean": 6009,
  "\u0120serb": 6010,
  "\u0120reflect": 6011,
  "\u0120produced": 6012,
  "\u0120style": 6013,
  "\u0120arm": 6014,
  "\u0120village": 6015,
  "\u0120counter": 6016,
  "stag": 6017,
  "\u0120cham": 6018,
  "\u0120stra\u00c3\u0141en": 6019,
  "ategories": 6020,
  "\u0120sonder": 6021,
  "\u0120allowed": 6022,
  "\u0120ful": 6023,
  "\u0120austria": 6024,
  "ffet": 6025,
  "\u0120places": 6026,
  "\u0120relation": 6027,
  "\u0120verhalten": 6028,
  "imming": 6029,
  "\u0120zweck": 6030,
  "\u0120heim": 6031,
  "\u0120wan": 6032,
  "\u0120genommen": 6033,
  "bas": 6034,
  "\u0120annahme": 6035,
  "\u0120minor": 6036,
  "\u0120signal": 6037,
  "\u0120justiz": 6038,
  "astic": 6039,
  "\u0120elections": 6040,
  "\u0120violence": 6041,
  "\u0120acquis": 6042,
  "\u0120orient": 6043,
  "\u0120substantial": 6044,
  "ierende": 6045,
  "durch": 6046,
  "\u0120bald": 6047,
  "wind": 6048,
  "\u0120gele": 6049,
  "page": 6050,
  "\u0120friends": 6051,
  "wiesen": 6052,
  "\u0120pr\u00c3\u00bcfen": 6053,
  "\u0120federal": 6054,
  "handel": 6055,
  "\u0120prime": 6056,
  "16": 6057,
  "dr\u00c3\u00bccklich": 6058,
  "freund": 6059,
  "\u0120paid": 6060,
  "\u0120fischerei": 6061,
  "\u0120na": 6062,
  "\u0120gold": 6063,
  "zy": 6064,
  "\u0120vision": 6065,
  "\u0120transparent": 6066,
  "konom": 6067,
  "\u0120technologie": 6068,
  "\u0120versuchen": 6069,
  "\u0120clar": 6070,
  "\u0120competitive": 6071,
  "\u0120bez\u00c3\u00bcglich": 6072,
  "\u0120poll": 6073,
  "\u0120meinem": 6074,
  "\u0120started": 6075,
  "\u0120ecu": 6076,
  "front": 6077,
  "\u0120path": 6078,
  "\u0120plus": 6079,
  "\u0120repe": 6080,
  "\u0120tourism": 6081,
  "euro": 6082,
  "\u0120band": 6083,
  "ita": 6084,
  "\u0120vorsitz": 6085,
  "\u0120adopt": 6086,
  "\u0120expert": 6087,
  "\u0120dv": 6088,
  "\u0120bod": 6089,
  "\u0120gewor": 6090,
  "\u0120genannten": 6091,
  "\u0120verwir": 6092,
  "\u0120geist": 6093,
  "\u0120operating": 6094,
  "199": 6095,
  "\u0120aims": 6096,
  "\u0120familie": 6097,
  "\u0120auto": 6098,
  "\u0120abend": 6099,
  "kap": 6100,
  "\u0120fr\u00c3\u00bcher": 6101,
  "\u0120ehemal": 6102,
  "\u0120wann": 6103,
  "\u0120describ": 6104,
  "\u0120wom": 6105,
  "\u0120sektor": 6106,
  "\u00c3\u00a4glich": 6107,
  "\u0120offiz": 6108,
  "onnen": 6109,
  "\u0120eleg": 6110,
  "\u0120sports": 6111,
  "\u0120hinge": 6112,
  "ritten": 6113,
  "\u0120aufgaben": 6114,
  "\u0120challenge": 6115,
  "\u0120st\u00c3\u00a4rker": 6116,
  "\u0120concentr": 6117,
  "\u0120networks": 6118,
  "\u0120wesentlichen": 6119,
  "angeb": 6120,
  "\u0120teach": 6121,
  "\u0120atmosphere": 6122,
  "\u0120message": 6123,
  "\u0120secure": 6124,
  "\u0120ber\u00c3\u00bccksichtigt": 6125,
  "\u0120konnten": 6126,
  "\u0120herzen": 6127,
  "\u0120finanziellen": 6128,
  "gebiet": 6129,
  "\u0120practical": 6130,
  "lichung": 6131,
  "osla": 6132,
  "ded": 6133,
  "\u0120crucial": 6134,
  "\u0120ausgestattet": 6135,
  "\u0120trag": 6136,
  "\u0120church": 6137,
  "\u0120pun": 6138,
  "\u0120conver": 6139,
  "oration": 6140,
  "ikations": 6141,
  "\u0120ireland": 6142,
  "resse": 6143,
  "\u0120types": 6144,
  "\u0120sommer": 6145,
  "\u0120damage": 6146,
  "entwicklung": 6147,
  "\u0120regelung": 6148,
  "nes": 6149,
  "\u01202012": 6150,
  "sie": 6151,
  "\u0120beant": 6152,
  "\u0120rent": 6153,
  "\u0120drive": 6154,
  "bourg": 6155,
  "\u0120vital": 6156,
  "\u0120lam": 6157,
  "\u0120relating": 6158,
  "\u0120representative": 6159,
  "\u0120vorgelegt": 6160,
  "\u0120scheint": 6161,
  "\u0120komb": 6162,
  "sport": 6163,
  "\u0120versuch": 6164,
  "\u0120erd": 6165,
  "\u0120produce": 6166,
  "ades": 6167,
  "\u0120keiner": 6168,
  "\u0120mart": 6169,
  "\u0120erfahren": 6170,
  "angs": 6171,
  "\u0120aufmerksamkeit": 6172,
  "zt": 6173,
  "ych": 6174,
  "\u0120suchen": 6175,
  "ml": 6176,
  "house": 6177,
  "eks": 6178,
  "izin": 6179,
  "\u0120farmers": 6180,
  "\u0120verbesser": 6181,
  "b\u00c3\u00bcr": 6182,
  "\u0120januar": 6183,
  "\u0120banken": 6184,
  "endes": 6185,
  "\u0120berichts": 6186,
  "\u0120werte": 6187,
  "\u0120improved": 6188,
  "ffee": 6189,
  "\u0120zuge": 6190,
  "kauf": 6191,
  "\u0120written": 6192,
  "\u0120aspekte": 6193,
  "nungen": 6194,
  "\u0120diejenigen": 6195,
  "\u0120technischen": 6196,
  "\u0120weak": 6197,
  "ought": 6198,
  "ney": 6199,
  "schie": 6200,
  "\u0120punkte": 6201,
  "wasser": 6202,
  "ammlung": 6203,
  "\u0120b\u00c3\u00bcrgern": 6204,
  "\u0120teilen": 6205,
  "\u0120glauben": 6206,
  "\u0120hot": 6207,
  "assungs": 6208,
  "\u0120erfahrungen": 6209,
  "\u0120umgebung": 6210,
  "\u0120praxis": 6211,
  "\u0120vorgehen": 6212,
  "\u0120giving": 6213,
  "iction": 6214,
  "zub": 6215,
  "\u0120provin": 6216,
  "\u0120pleased": 6217,
  "\u0120reformen": 6218,
  "\u0120k\u00c3\u00bcrz": 6219,
  "\u01202013": 6220,
  "\u0120fell": 6221,
  "\u0120behandlung": 6222,
  "schlossen": 6223,
  "\u0120jeweiligen": 6224,
  "\u0120folgende": 6225,
  "\u0120variety": 6226,
  "\u0120mas": 6227,
  "\u0120ehr": 6228,
  "\u0120worlds": 6229,
  "\u0120sinne": 6230,
  "\u0120getroffen": 6231,
  "\u0120operations": 6232,
  "\u0120developments": 6233,
  "systeme": 6234,
  "\u0120einrichtung": 6235,
  "\u0120diskussion": 6236,
  "head": 6237,
  "\u0120zufrieden": 6238,
  "\u0120ziehen": 6239,
  "\u0120growing": 6240,
  "\u0120print": 6241,
  "ategorien": 6242,
  "\u0120erwarten": 6243,
  "\u0120stunden": 6244,
  "\u0120pr\u00c3\u00a4sidentschaft": 6245,
  "stelle": 6246,
  "\u0120-,": 6247,
  "\u0120verabschied": 6248,
  "\u0120wine": 6249,
  "mobil": 6250,
  "\u0120reading": 6251,
  "ected": 6252,
  "\u0120late": 6253,
  "\u0120geeign": 6254,
  "akte": 6255,
  "\u0120ausl": 6256,
  "\u0120bestehenden": 6257,
  "\u0120secretary": 6258,
  "\u0120else": 6259,
  "\u0120konzept": 6260,
  "\u0120electronic": 6261,
  "\u0120ereign": 6262,
  "aign": 6263,
  "\u0120forces": 6264,
  "orge": 6265,
  "\u0120au\u00c3\u0141erhalb": 6266,
  "tert": 6267,
  "\u0120flughafen": 6268,
  "\u0120swimming": 6269,
  "\u0120conven": 6270,
  "\u0120thous": 6271,
  "\u0120daily": 6272,
  "\u0120bewusst": 6273,
  "\u0120folgt": 6274,
  "\u0120schriftlich": 6275,
  "\u0120kingdom": 6276,
  "\u0120ey": 6277,
  "\u0120verh\u00c3\u00a4lt": 6278,
  "\u0120ones": 6279,
  "\u0120metho": 6280,
  "\u0120plen": 6281,
  "\u00c3\u00a4umen": 6282,
  "\u0120thought": 6283,
  "\u0120aktual": 6284,
  "\u0120verletz": 6285,
  "\u0120verkauf": 6286,
  "\u0120erf\u00c3\u00bcllen": 6287,
  "\u0120rh": 6288,
  "ugosla": 6289,
  "son": 6290,
  "\u0120options": 6291,
  "\u0120arbeitslos": 6292,
  "24": 6293,
  "gesetz": 6294,
  "\u0120iraq": 6295,
  "\u0120ready": 6296,
  "ocol": 6297,
  "eth": 6298,
  "\u0120schritte": 6299,
  "\u00c3\u00bchm": 6300,
  "\u0120employees": 6301,
  "leb": 6302,
  "\u0120fuer": 6303,
  "\u0120valid": 6304,
  "):": 6305,
  "\u0120aimed": 6306,
  "\u0120offered": 6307,
  "\u0120campaign": 6308,
  "\u01201990": 6309,
  "\u0120governance": 6310,
  "agra": 6311,
  "\u0120exception": 6312,
  "antly": 6313,
  "\u0120ours": 6314,
  "\u0120director": 6315,
  "\u0120accep": 6316,
  "\u0120ign": 6317,
  "\u0120highest": 6318,
  "\u0120observ": 6319,
  "zech": 6320,
  "\u0120gast": 6321,
  "\u0120deg": 6322,
  "\u0120players": 6323,
  "\u0120opening": 6324,
  "\u0120selbstverst\u00c3\u00a4ndlich": 6325,
  "\u0120quiet": 6326,
  "km": 6327,
  "\u0120consequences": 6328,
  "iente": 6329,
  "\u0120quant": 6330,
  "ograf": 6331,
  "stoffe": 6332,
  "\u0120migration": 6333,
  "\u0120permanent": 6334,
  "\u0120committed": 6335,
  "imination": 6336,
  "\u0120lernen": 6337,
  "ugg": 6338,
  "altungen": 6339,
  "achtung": 6340,
  "richten": 6341,
  "\u0120bay": 6342,
  "\u0120scope": 6343,
  "\u0120vice": 6344,
  "\u0120stil": 6345,
  "\u0120shopping": 6346,
  "\u0120patient": 6347,
  "\u0120h\u00c3\u00b6r": 6348,
  "\u0120zweitens": 6349,
  "\u0120map": 6350,
  "comm": 6351,
  "\u0120bed\u00c3\u00bcrf": 6352,
  "\u0120ge\u00c3\u00a4nder": 6353,
  "\u0120schlussfolgerungen": 6354,
  "\u0120pas": 6355,
  "\u0120enterprises": 6356,
  "\u0120wahrschein": 6357,
  "dete": 6358,
  "\u0120gek": 6359,
  "\u0120aktuellen": 6360,
  "80": 6361,
  "\u0120folge": 6362,
  "\u0120intervention": 6363,
  "\u0120fine": 6364,
  "\u0120science": 6365,
  "\u0120symbol": 6366,
  "\u0120compromise": 6367,
  "\u0120starting": 6368,
  "\u0120verhindern": 6369,
  "\u0120immediately": 6370,
  "\u0120advantage": 6371,
  "\u0120superv": 6372,
  "\u0120dinge": 6373,
  "\u0120doppel": 6374,
  "ilit\u00c3\u00a4t": 6375,
  "ente": 6376,
  "\u0120wenige": 6377,
  "zehn": 6378,
  "\u0120clients": 6379,
  "\u0120borders": 6380,
  "\u0120encourage": 6381,
  "\u0120sud": 6382,
  "\u0120poten": 6383,
  "\u0120establishment": 6384,
  "\u0120erfolgt": 6385,
  "\u0120fas": 6386,
  "\u0120circum": 6387,
  "fi": 6388,
  "\u0120track": 6389,
  "\u0120exerc": 6390,
  ".)": 6391,
  "ech": 6392,
  "\u0120griechenland": 6393,
  "\u00c3\u00a4ne": 6394,
  "werte": 6395,
  "\u0120betroffenen": 6396,
  "\u0120assist": 6397,
  "g\u00c3\u00bclt": 6398,
  "\u0120jur": 6399,
  "\u0120ungar": 6400,
  "\u0120weeks": 6401,
  "\u0120privaten": 6402,
  "\u0120vul": 6403,
  "\u0120appear": 6404,
  "\u012031": 6405,
  "anlage": 6406,
  "\u0120coordination": 6407,
  "\u0120bringt": 6408,
  "utzt": 6409,
  "\u0120arbeitspl\u00c3\u00a4tze": 6410,
  "rel": 6411,
  "sekret": 6412,
  "\u0120freien": 6413,
  "\u0120technische": 6414,
  "\u0120verurs": 6415,
  "\u0120nr": 6416,
  "\u0120geworden": 6417,
  "\u0120debt": 6418,
  "cript": 6419,
  "\u0120g\u00c3\u00bcnst": 6420,
  "\u0120cities": 6421,
  "\u0120engagement": 6422,
  "cco": 6423,
  "\u0120worldwide": 6424,
  "\u0120unemployment": 6425,
  "ids": 6426,
  "\u0120provider": 6427,
  "ams": 6428,
  "\u0120zus\u00c3\u00a4tzliche": 6429,
  "\u0120jahrhundert": 6430,
  "\u0120anteil": 6431,
  "idge": 6432,
  "\u0120average": 6433,
  "\u0120languages": 6434,
  "\u0120vert": 6435,
  "\u0120gespr": 6436,
  "\u0120liebe": 6437,
  "gende": 6438,
  "\u0120regionalen": 6439,
  "klang": 6440,
  "\u0120sky": 6441,
  "\u0120river": 6442,
  "\u0120).": 6443,
  "\u0120woll": 6444,
  "\u0120processes": 6445,
  "\u0120zoll": 6446,
  "\u0120vereinfach": 6447,
  "\u0120format": 6448,
  "\u0120powers": 6449,
  "zusetzen": 6450,
  "ilen": 6451,
  "olitischen": 6452,
  "\u0120centr": 6453,
  "\u0120became": 6454,
  "no": 6455,
  "\u0120verbreit": 6456,
  "\u0120czech": 6457,
  "\u0120vorge": 6458,
  "\u0120frem": 6459,
  "\u0120sort": 6460,
  "\u0120wr": 6461,
  "\u0120infring": 6462,
  "\u0120alloc": 6463,
  "\u00c3\u00a4g": 6464,
  "\u0120zuver": 6465,
  "\u0120\u00c3\u00b6k": 6466,
  "\u0120linie": 6467,
  "ieb": 6468,
  "\u0120produz": 6469,
  "\u0120eigentlich": 6470,
  "\u0120intended": 6471,
  "\u0120investitions": 6472,
  "\u0120offering": 6473,
  "auern": 6474,
  "\u0120refuge": 6475,
  "\u0120sometimes": 6476,
  "\u0120bestell": 6477,
  "\u0120expressed": 6478,
  "\u0120ausgaben": 6479,
  "\u0120crime": 6480,
  "ral": 6481,
  "\u0120ben\u00c3\u00b6tigen": 6482,
  "\u0120implementing": 6483,
  "\u0120todays": 6484,
  "\u0120heutigen": 6485,
  "\u0120eingehen": 6486,
  "\u0120brief": 6487,
  "\u0120behandelt": 6488,
  "respon": 6489,
  "\u0120hall": 6490,
  "\u0120parking": 6491,
  "\u0120erachtens": 6492,
  "\u0120distance": 6493,
  "\u0120verbessert": 6494,
  "\u0120milliar": 6495,
  "asion": 6496,
  "\u0120worth": 6497,
  "reiber": 6498,
  "\u0120affected": 6499,
  "\u0120syr": 6500,
  "\u0120bos": 6501,
  "\u0120umgesetzt": 6502,
  "\u0120ratspr\u00c3\u00a4sident": 6503,
  "\u0120gr\u00c3\u00b6\u00c3\u0141te": 6504,
  "\u0120interesting": 6505,
  "\u0120square": 6506,
  "ischem": 6507,
  "\u0120discussions": 6508,
  "\u0120join": 6509,
  "\u0120t\u00c3\u00a4tigkeit": 6510,
  "\u0120gl\u00c3\u00bcck": 6511,
  "bewertungen": 6512,
  "\u0120wein": 6513,
  "\u0120exact": 6514,
  "\u0120advert": 6515,
  "\u0120bezahl": 6516,
  "\u0120erkl\u00c3\u00a4rt": 6517,
  "ony": 6518,
  "\u0120kore": 6519,
  "\u0120mechanis": 6520,
  "\u0120bem\u00c3\u00bc": 6521,
  "\u0120ideas": 6522,
  "\u0120numerous": 6523,
  "\u0120unterk": 6524,
  "\u0120bahn": 6525,
  "\u0120vereinbarung": 6526,
  "enze": 6527,
  "icherung": 6528,
  "ussels": 6529,
  "\u0120begrenz": 6530,
  "\u0120interested": 6531,
  "\u0120einzu": 6532,
  "lichkeiten": 6533,
  "\u0120angeboten": 6534,
  "\u0120gr\u00c3\u00bcnd": 6535,
  "\u0120palest": 6536,
  "gas": 6537,
  "prec": 6538,
  "\u0120auszu": 6539,
  "\u0120surve": 6540,
  "\u0120amt": 6541,
  "\u0120vollst\u00c3\u00a4ndig": 6542,
  "\u0120finanzielle": 6543,
  "\u0120historical": 6544,
  "\u0120opposition": 6545,
  "\u0120subsidiar": 6546,
  "ruption": 6547,
  "\u0120traffic": 6548,
  "\u0120decide": 6549,
  "\u0120wirks": 6550,
  "\u0120pal\u00c3\u00a4st": 6551,
  "\u0120unbed": 6552,
  "\u0120remov": 6553,
  "\u0120rechnung": 6554,
  "\u0120lake": 6555,
  "\u0120perfe": 6556,
  "\u0120st\u00c3\u00a4rkung": 6557,
  "\u0120norm": 6558,
  "\u0120useful": 6559,
  "\u0120defence": 6560,
  "\u0120fields": 6561,
  "\u0120abschluss": 6562,
  "pective": 6563,
  "\u0120reduced": 6564,
  "\u0120promoting": 6565,
  "\u0120terrorism": 6566,
  "\u0120vergessen": 6567,
  "\u0120tourist": 6568,
  "nern": 6569,
  "\u0120manufactur": 6570,
  "\u0120komplex": 6571,
  "pack": 6572,
  "\u0120graph": 6573,
  "\u0120unz": 6574,
  "\u0120terrorismus": 6575,
  "\u0120prozent": 6576,
  "iro": 6577,
  "\u0120mindestens": 6578,
  "\u0120risks": 6579,
  "ifizierung": 6580,
  "\u0120einigung": 6581,
  "iker": 6582,
  "\u0120gegenseit": 6583,
  "\u0120produktions": 6584,
  "\u0120v\u00c3\u00b6l": 6585,
  "\u0120planning": 6586,
  "ringen": 6587,
  "\u0120heav": 6588,
  "\u0120sicherzustellen": 6589,
  "\u0120bedro": 6590,
  "\u0120reality": 6591,
  "\u0120revolution": 6592,
  "\u0120minder": 6593,
  "\u0120animal": 6594,
  "\u0120\u00c3\u00bcbergang": 6595,
  "\u0120alter": 6596,
  "\u0120adjust": 6597,
  "\u0120pr\u00c3\u00bcfung": 6598,
  "\u0120st\u00c3\u00a4rken": 6599,
  "\u0120enhan": 6600,
  "\u0120brussels": 6601,
  "\u0120lines": 6602,
  "\u0120\u00c3\u00bcberw": 6603,
  "itzer": 6604,
  "45": 6605,
  "\u0120compos": 6606,
  "uls": 6607,
  "\u0120demokratischen": 6608,
  "\u0120einst": 6609,
  "\u0120entgegen": 6610,
  "\u0120promotion": 6611,
  "\u0120h\u00c3\u00a4tten": 6612,
  "zielle": 6613,
  "\u0120ded": 6614,
  "\u0120discr": 6615,
  "umb": 6616,
  "\u0120teile": 6617,
  "h\u00c3\u00b6rde": 6618,
  "\u0120gefunden": 6619,
  "ris": 6620,
  "f\u00c3\u00a4lle": 6621,
  "\u0120kriterien": 6622,
  "itude": 6623,
  "\u0120institutional": 6624,
  "ples": 6625,
  "\u0120sache": 6626,
  "band": 6627,
  "\u0120konstru": 6628,
  "bald": 6629,
  "\u0120ade": 6630,
  "\u0120initiativen": 6631,
  "\u0120beseit": 6632,
  "\u0120helpf": 6633,
  "\u0120konsult": 6634,
  "\u0120reag": 6635,
  "\u0120ersch": 6636,
  "\u0120priorit\u00c3\u00a4ten": 6637,
  "\u0120freiz": 6638,
  "\u0120mainly": 6639,
  "\u0120medical": 6640,
  "\u0120krank": 6641,
  "\u0120k\u00c3\u00b6rper": 6642,
  "craft": 6643,
  "\u0120students": 6644,
  "emb": 6645,
  "\u0120extent": 6646,
  "cia": 6647,
  "\u0120protokoll": 6648,
  "barer": 6649,
  "\u0120irak": 6650,
  "ktions": 6651,
  "\u0120mex": 6652,
  "----": 6653,
  "\u0120multi": 6654,
  "\u0120rum\u00c3\u00a4n": 6655,
  "quate": 6656,
  "\u0120tagesordnung": 6657,
  "\u0120genug": 6658,
  "\u0120schwierigkeiten": 6659,
  "ruct": 6660,
  "bringen": 6661,
  "\u0120platform": 6662,
  "\u0120erwartet": 6663,
  "\u00c3\u00a4nglich": 6664,
  "\u0120gebieten": 6665,
  "ifying": 6666,
  "lege": 6667,
  "\u0120detailed": 6668,
  "\u0120listen": 6669,
  "\u0120pension": 6670,
  "back": 6671,
  "\u0120nahm": 6672,
  "\u0120eher": 6673,
  "\u0120lives": 6674,
  "\u0120currency": 6675,
  "\u0120phone": 6676,
  "board": 6677,
  "stat": 6678,
  "\u0120sch\u00c3\u00bctzen": 6679,
  "mel": 6680,
  "aler": 6681,
  "\u0120poland": 6682,
  "\u0120kommunikation": 6683,
  "ta": 6684,
  "\u0120practices": 6685,
  "\u0120gn": 6686,
  "\u0120allgemeine": 6687,
  "ground": 6688,
  "lement": 6689,
  "st\u00c3\u00a4t": 6690,
  "\u0120geschlossen": 6691,
  "\u0120secondly": 6692,
  "\u0120jen": 6693,
  "\u0120anerkennung": 6694,
  "\u0120enfor": 6695,
  "\u0120vorteile": 6696,
  "\u0120sprach": 6697,
  "\u0120insp": 6698,
  "\u0120methods": 6699,
  "\u0120umst": 6700,
  "\u0120confidence": 6701,
  "\u0120update": 6702,
  "\u0120fant": 6703,
  "\u0120beitritt": 6704,
  "\u0120scr": 6705,
  "\u0120regierungs": 6706,
  "\u0120vereinten": 6707,
  "\u0120paar": 6708,
  "\u0120criminal": 6709,
  "\u0120modified": 6710,
  "\u0120negative": 6711,
  "schul": 6712,
  "\u0120ky": 6713,
  "\u0120kennen": 6714,
  "\u0120bilder": 6715,
  "\u0120earl": 6716,
  "\u0120beginnen": 6717,
  "\u0120abh\u00c3\u00a4ng": 6718,
  "hafte": 6719,
  "\u0120russian": 6720,
  "\u0120chair": 6721,
  "\u0120g\u00c3\u00a4stebewertungen": 6722,
  "punkte": 6723,
  "\u0120einklang": 6724,
  "\u0120diskrimin": 6725,
  "\u0120chann": 6726,
  "\u0120mix": 6727,
  "\u00c3\u00a4mpfen": 6728,
  "mod": 6729,
  "\u0120happy": 6730,
  "\u0120caused": 6731,
  "\u0120goal": 6732,
  "ibe": 6733,
  "\u0120genu": 6734,
  "\u0120st\u00c3\u00a4rk": 6735,
  "\u0120likely": 6736,
  "pet": 6737,
  "\u0120richtlinien": 6738,
  "ns": 6739,
  "\u0120erwer": 6740,
  "ories": 6741,
  "sprogramm": 6742,
  "\u0120b\u00c3\u00bcrgerinnen": 6743,
  "\u0120urg": 6744,
  "\u0120supporting": 6745,
  "\u0120k\u00c3\u00bcche": 6746,
  "\u0120aufenthalt": 6747,
  "\u0120wild": 6748,
  "fter": 6749,
  "\u0120schwar": 6750,
  "hood": 6751,
  "\u0120entstehen": 6752,
  "\u0120tsche": 6753,
  "\u0120gering": 6754,
  "cul": 6755,
  "\u0120gr\u00c3\u00b6\u00c3\u0141er": 6756,
  "oker": 6757,
  "\u0120seines": 6758,
  "\u0120globalen": 6759,
  "\u0120transition": 6760,
  "\u0120incor": 6761,
  "wesen": 6762,
  "morrow": 6763,
  "\u0120fl\u00c3\u00bccht": 6764,
  "\u0120erhol": 6765,
  "\u0120sobald": 6766,
  "ktors": 6767,
  "\u0120dringend": 6768,
  "\u0120tagen": 6769,
  "\u0120collection": 6770,
  "\u0120tomorrow": 6771,
  "\u0120covered": 6772,
  "\u0120ausw\u00c3\u00a4rt": 6773,
  "\u0120lob": 6774,
  "\u0120corporate": 6775,
  "\u0120linux": 6776,
  "\u0120besch\u00c3\u00a4ftigungs": 6777,
  "\u0120blog": 6778,
  "\u0120setzt": 6779,
  "\u0120analyse": 6780,
  "\u0120ver\u00c3\u00b6ffentlicht": 6781,
  "\u00c3\u00bcg": 6782,
  "\u0120erf": 6783,
  "\u0120wellness": 6784,
  "\u0120antrag": 6785,
  "\u0120kostenlos": 6786,
  "\u0120zus\u00c3\u00a4tzlich": 6787,
  "elben": 6788,
  "\u0120tack": 6789,
  "ungsverfahren": 6790,
  "\u0120strom": 6791,
  "\u0120br\u00c3\u00bcssel": 6792,
  "\u0120prag": 6793,
  "\u0120gdp": 6794,
  "\u0120gr\u00c3\u00b6\u00c3\u0141ere": 6795,
  "\u0120declaration": 6796,
  "\u0120nahr": 6797,
  "\u0120besonderen": 6798,
  "\u01201994": 6799,
  "\u0120cell": 6800,
  "\u0120ber\u00c3\u00bchm": 6801,
  "\u0120goes": 6802,
  "achsen": 6803,
  "cription": 6804,
  "\u0120conclusion": 6805,
  "\u0120afghanistan": 6806,
  "aust": 6807,
  "\u0120m\u00c3\u00bc": 6808,
  "\u0120client": 6809,
  "standing": 6810,
  "alog": 6811,
  "\u0120vorbe": 6812,
  "\u0120selection": 6813,
  "\u0120delivery": 6814,
  "ichtlich": 6815,
  "\u0120effectively": 6816,
  "\u0120quar": 6817,
  "\u0120medic": 6818,
  "\u0120erforderlichen": 6819,
  "\u0120einrichtungen": 6820,
  "\u0120bewe": 6821,
  "zeiten": 6822,
  "\u0120nachhaltige": 6823,
  "\u0120cos": 6824,
  "\u0120police": 6825,
  "\u0120opfer": 6826,
  "\u0120firma": 6827,
  "\u0120commitments": 6828,
  "\u0120erstens": 6829,
  "\u0120rob": 6830,
  "\u0120wiederhol": 6831,
  "zeichnen": 6832,
  "\u0120entspricht": 6833,
  "instr": 6834,
  "\u0120flexible": 6835,
  "utive": 6836,
  "\u0120processing": 6837,
  "\u0120ausbildung": 6838,
  "pal": 6839,
  "bra": 6840,
  "fraktion": 6841,
  "\u0120machine": 6842,
  "cers": 6843,
  "used": 6844,
  "\u0120essen": 6845,
  "\u0120anfrage": 6846,
  "\u0120fonds": 6847,
  "\u0120liter": 6848,
  "\u0120firstly": 6849,
  "finanz": 6850,
  "\u0120supports": 6851,
  "\u0120fax": 6852,
  "\u0120wunsch": 6853,
  "\u0120sources": 6854,
  "\u0120gall": 6855,
  "\u0120extend": 6856,
  "\u0120absatz": 6857,
  "\u0120asso": 6858,
  "gehend": 6859,
  "\u0120earth": 6860,
  "\u0120schaden": 6861,
  "ania": 6862,
  "\u0120rise": 6863,
  "\u0120experts": 6864,
  "\u0120ourselves": 6865,
  "\u0120\u00c3\u00b6l": 6866,
  "sam": 6867,
  "\u0120medizin": 6868,
  "\u0120halb": 6869,
  "\u0120entry": 6870,
  "\u0120t\u00c3\u00a4tig": 6871,
  "sekret\u00c3\u00a4r": 6872,
  "\u0120meaning": 6873,
  "\u012045": 6874,
  "netz": 6875,
  "izes": 6876,
  "indest": 6877,
  "\u0120separate": 6878,
  "\u0120trading": 6879,
  "\u0120otherwise": 6880,
  "\u0120begin": 6881,
  "\u0120polen": 6882,
  "\u0120euch": 6883,
  "crete": 6884,
  "beh\u00c3\u00b6rden": 6885,
  "\u0120nether": 6886,
  "\u0120helpful": 6887,
  "\u0120alb": 6888,
  "\u0120fish": 6889,
  "\u0120convin": 6890,
  "\u0120historic": 6891,
  "\u0120h\u00c3\u00b6chst": 6892,
  "lassen": 6893,
  "ato": 6894,
  "\u0120tschech": 6895,
  "konferenz": 6896,
  "\u0120chines": 6897,
  "tr\u00c3\u00a4ge": 6898,
  "\u0120marg": 6899,
  "\u00c3\u00a4uft": 6900,
  "nel": 6901,
  "\u0120einwander": 6902,
  "\u0120countrys": 6903,
  "\u0120einfluss": 6904,
  "\u0120richtige": 6905,
  "\u0120coup": 6906,
  "\u0120grant": 6907,
  "\u0120microsoft": 6908,
  "tellten": 6909,
  "\u0120disp": 6910,
  "\u0120bip": 6911,
  "\u0120getan": 6912,
  "\u0120consultation": 6913,
  "\u0120cur": 6914,
  "\u0120youth": 6915,
  "\u0120bodies": 6916,
  "\u00c3\u00bccken": 6917,
  "\u0120technologien": 6918,
  "\u0120forest": 6919,
  "\u0120formal": 6920,
  "\u0120verwirk": 6921,
  "\u0120kannst": 6922,
  "tragen": 6923,
  "onia": 6924,
  "iell": 6925,
  "\u0120bewertung": 6926,
  "\u0120conduct": 6927,
  "karte": 6928,
  "laden": 6929,
  "\u0120offens": 6930,
  "\u0120\u00c3\u00bcbernehmen": 6931,
  "\u0120betreffenden": 6932,
  "\u0120fein": 6933,
  "\u0120195": 6934,
  "\u012032": 6935,
  "\u0120entsprechende": 6936,
  "\u0120introduction": 6937,
  "\u0120programms": 6938,
  "ichert": 6939,
  "ius": 6940,
  "book": 6941,
  "\u0120letzte": 6942,
  "\u0120closely": 6943,
  "\u0120aust": 6944,
  "coming": 6945,
  "\u0120master": 6946,
  "\u0120chinese": 6947,
  "theless": 6948,
  "institution": 6949,
  "\u0120raised": 6950,
  "\u0120discussed": 6951,
  "\u0120shop": 6952,
  "\u0120laws": 6953,
  "\u0120meetings": 6954,
  "\u0120nevertheless": 6955,
  "ktive": 6956,
  "\u0120transa": 6957,
  "\u0120compens": 6958,
  "\u0120risiko": 6959,
  "\u0120sprachen": 6960,
  "\u0120fordert": 6961,
  "\u0120begr\u00c3\u00bc\u00c3\u0141e": 6962,
  "\u0120er\u00c3\u00b6r": 6963,
  "oder": 6964,
  "\u0120verantwortlich": 6965,
  "\u0120foundation": 6966,
  "\u0120wand": 6967,
  "\u0120solidarit\u00c3\u00a4t": 6968,
  "\u0120expend": 6969,
  "\u0120hold": 6970,
  "\u0120homepage": 6971,
  "\u0120pictures": 6972,
  "z\u00c3\u00bcglich": 6973,
  "\u0120colleagues": 6974,
  "iums": 6975,
  "\u0120moderne": 6976,
  "\u0120hear": 6977,
  "\u0120malt": 6978,
  "\u0120aw": 6979,
  "\u0120introduced": 6980,
  "portion": 6981,
  "\u0120domestic": 6982,
  "\u0120katastrop": 6983,
  "\u0120gew\u00c3\u00a4hrleistet": 6984,
  "ql": 6985,
  "\u0120goog": 6986,
  "\u0120haupts": 6987,
  "\u0120jem": 6988,
  "union": 6989,
  "\u0120specif": 6990,
  "\u0120lit": 6991,
  "cles": 6992,
  "\u0120\u00c3\u00bcberwachung": 6993,
  "\u0120monate": 6994,
  "\u0120obligations": 6995,
  "\u0120wege": 6996,
  "\u0120tau": 6997,
  "\u0120circumstances": 6998,
  "\u0120photo": 6999,
  "\u0120dispos": 7000,
  "\u0120fru": 7001,
  "\u0120increasingly": 7002,
  "endence": 7003,
  "lose": 7004,
  "\u0120leitlinien": 7005,
  "\u0120bilden": 7006,
  "\u0120psych": 7007,
  "\u0120touch": 7008,
  "\u0120vergangenheit": 7009,
  "\u0120lies": 7010,
  "\u00c3\u00b6rt": 7011,
  "\u0120lost": 7012,
  "\u0120aktuelle": 7013,
  "ieter": 7014,
  "\u0120animals": 7015,
  "\u0120usw": 7016,
  "\u0120zahlreichen": 7017,
  "37": 7018,
  "\u0120scheme": 7019,
  "\u0120netherlands": 7020,
  "\u0120sitzung": 7021,
  "wortern": 7022,
  "etting": 7023,
  "\u0120m\u00c3\u00b6glicherweise": 7024,
  "\u0120welches": 7025,
  "\u0120erkl\u00c3\u00a4rte": 7026,
  "\u00c3\u00a4lter": 7027,
  "\u0120recognis": 7028,
  "ls": 7029,
  "wachst": 7030,
  "\u0120granted": 7031,
  "\u0120halte": 7032,
  "erstellen": 7033,
  "verletz": 7034,
  "\u0120wahlen": 7035,
  "\u0120ability": 7036,
  "\u0120trust": 7037,
  "\u0120pain": 7038,
  "\u0120urlaub": 7039,
  "\u0120swiss": 7040,
  "\u0120interpret": 7041,
  "istry": 7042,
  "\u0120strengthening": 7043,
  "\u0120charakter": 7044,
  "\u0120empfehlungen": 7045,
  "\u0120kontext": 7046,
  "inform": 7047,
  "\u0120insurance": 7048,
  "hagen": 7049,
  "!!": 7050,
  "\u0120milliarden": 7051,
  "\u0120falle": 7052,
  "auftrag": 7053,
  "\u00c3\u00b6m": 7054,
  "\u0120fab": 7055,
  "\u0120visa": 7056,
  "\u0120korre": 7057,
  "ighted": 7058,
  "\u0120ech": 7059,
  "version": 7060,
  "\u0120unl": 7061,
  "f\u00c3\u00bchl": 7062,
  "\u0120datab": 7063,
  "\u0120paralle": 7064,
  "\u0120entschlossen": 7065,
  "europe": 7066,
  "office": 7067,
  "kle": 7068,
  "\u0120b\u00c3\u00bcro": 7069,
  "\u0120cook": 7070,
  "\u0120kal": 7071,
  "\u0120barr": 7072,
  "\u0120besuchen": 7073,
  "\u0120dead": 7074,
  "\u0120images": 7075,
  "\u0120john": 7076,
  "\u0120laut": 7077,
  "\u0120love": 7078,
  "atoren": 7079,
  "izing": 7080,
  "\u0120geb\u00c3\u00a4ude": 7081,
  "\u0120undertak": 7082,
  "\u0120arten": 7083,
  "\u0120kauf": 7084,
  "\u0120dollar": 7085,
  "\u0120vehicles": 7086,
  "\u0120\u00c3\u00a4r": 7087,
  "\u0120labor": 7088,
  "\u0120schl\u00c3\u00bcssel": 7089,
  "\u0120kenn": 7090,
  "\u0120recommendations": 7091,
  "\u0120kommenden": 7092,
  "\u0120mehreren": 7093,
  "\u0120grundsatz": 7094,
  "\u0120blue": 7095,
  "\u0120genutzt": 7096,
  "\u0120begr\u00c3\u00bc\u00c3\u0141t": 7097,
  "inary": 7098,
  "\u0120vent": 7099,
  "\u0120immobil": 7100,
  "\u0120deine": 7101,
  "border": 7102,
  "wogen": 7103,
  "\u0120bedroom": 7104,
  "\u0120prefer": 7105,
  "handels": 7106,
  "verein": 7107,
  "\u0120zerst": 7108,
  "\u0120darstellt": 7109,
  "\u0120brow": 7110,
  "\u0120advanced": 7111,
  "\u0120lesen": 7112,
  "\u0120concrete": 7113,
  "\u0120gewesen": 7114,
  "\u0120firmen": 7115,
  "\u0120walking": 7116,
  "\u0120victims": 7117,
  "\u0120ethn": 7118,
  "inens": 7119,
  "kr\u00c3\u00a4fte": 7120,
  "\u0120popul": 7121,
  "\u0120accepted": 7122,
  "acc": 7123,
  "cape": 7124,
  "\u0120associated": 7125,
  "\u0120horiz": 7126,
  "\u0120modell": 7127,
  "\u0120ausschlie\u00c3\u0141lich": 7128,
  "\u0120claim": 7129,
  "\u0120chan": 7130,
  "\u0120gebrauch": 7131,
  "nach": 7132,
  "gers": 7133,
  "\u0120ber\u00c3\u00bccksichtigen": 7134,
  "zeichen": 7135,
  "\u0120roma": 7136,
  "\u0120schlusselwortern": 7137,
  "\u0120dir": 7138,
  "\u0120sorg": 7139,
  "spr\u00c3\u00bc": 7140,
  "\u0120lokalen": 7141,
  "\u0120websites": 7142,
  "\u0120entschieden": 7143,
  "wan": 7144,
  "\u0120ausger": 7145,
  "\u0120pros": 7146,
  "\u0120dritten": 7147,
  "\u0120lehr": 7148,
  "\u0120existen": 7149,
  "\u0120connect": 7150,
  "\u0120occup": 7151,
  "\u0120probably": 7152,
  "\u0120zumindest": 7153,
  "body": 7154,
  "\u0120visitors": 7155,
  "\u0120comply": 7156,
  "\u0120konflikt": 7157,
  "spart": 7158,
  "steuer": 7159,
  "cas": 7160,
  "etzungen": 7161,
  "chtet": 7162,
  "\u0120w\u00c3\u00bcnschen": 7163,
  "\u0120haft": 7164,
  "\u0120dienen": 7165,
  "\u0120ew": 7166,
  "\u0120l\u00c3\u00a4ndlichen": 7167,
  "\u0120vielfalt": 7168,
  "\u0120instrumente": 7169,
  "reise": 7170,
  "systems": 7171,
  "how": 7172,
  "\u0120income": 7173,
  "\u0120aufnahme": 7174,
  "\u0120fresh": 7175,
  "\u0120belar": 7176,
  "\u0120payments": 7177,
  "\u0120philos": 7178,
  "ione": 7179,
  "\u0120fitness": 7180,
  "\u0120inf": 7181,
  "\u0120voting": 7182,
  "management": 7183,
  "qualit\u00c3\u00a4t": 7184,
  "\u0120boden": 7185,
  "\u0120angaben": 7186,
  "zwe": 7187,
  "\u0120hintergrund": 7188,
  "versorgung": 7189,
  "ibl": 7190,
  "\u0120deep": 7191,
  "jekte": 7192,
  "\u0120fordern": 7193,
  "\u0120fallen": 7194,
  "\u0120generally": 7195,
  "\u0120doubt": 7196,
  "oto": 7197,
  "\u0120klimawand": 7198,
  "ape": 7199,
  "mente": 7200,
  "\u0120saying": 7201,
  "\u0120song": 7202,
  "\u0120versucht": 7203,
  "itch": 7204,
  "\u0120vorrang": 7205,
  "icip": 7206,
  "\u0120argument": 7207,
  "\u0120apprec": 7208,
  "\u0120erf\u00c3\u00bcllt": 7209,
  "\u0120bedenken": 7210,
  "b\u00c3\u00bc": 7211,
  "laufen": 7212,
  "\u0120spect": 7213,
  "\u0120entwicklungen": 7214,
  "hold": 7215,
  "\u0120wood": 7216,
  "\u0120compar": 7217,
  "illa": 7218,
  "\u0120ergreifen": 7219,
  "\u0120pfl": 7220,
  ");": 7221,
  "\u0120hosp": 7222,
  "\u0120watch": 7223,
  "\u0120geograph": 7224,
  "\u0120began": 7225,
  "\u0120gott": 7226,
  "\u0120archite": 7227,
  "39": 7228,
  "ales": 7229,
  "\u0120influence": 7230,
  "\u0120save": 7231,
  "\u0120barro": 7232,
  "\u0120rock": 7233,
  "\u0120remember": 7234,
  "%.": 7235,
  "\u0120\u00c3\u00bcberhaupt": 7236,
  "\u0120klass": 7237,
  "ologischen": 7238,
  "\u0120erh\u00c3\u00b6hen": 7239,
  "\u0120stets": 7240,
  "\u0120trend": 7241,
  "inian": 7242,
  "\u0120nachfol": 7243,
  "\u0120wesentlich": 7244,
  "\u0120transform": 7245,
  "vision": 7246,
  "\u0120beteiligung": 7247,
  "\u0120bab": 7248,
  "\u0120contro": 7249,
  "\u0120screen": 7250,
  "\u0120dienste": 7251,
  "\u0120kaum": 7252,
  "02": 7253,
  "ham": 7254,
  "ils": 7255,
  "\u0120gradu": 7256,
  "\u0120komplett": 7257,
  "\u0120recovery": 7258,
  "\u0120menschenrechts": 7259,
  "wel": 7260,
  "\u0120darunter": 7261,
  "\u0120exem": 7262,
  "fl\u00c3\u00a4che": 7263,
  "\u0120studies": 7264,
  "\u0120hund": 7265,
  "ieht": 7266,
  "\u0120koordinierung": 7267,
  "\u0120google": 7268,
  "\u0120eisen": 7269,
  "\u0120freuen": 7270,
  "\u0120marit": 7271,
  "\u0120voraus": 7272,
  "\u0120atmosph\u00c3\u00a4re": 7273,
  "ampag": 7274,
  "\u0120enorm": 7275,
  "inding": 7276,
  "\u0120nato": 7277,
  "ata": 7278,
  "\u0120skills": 7279,
  "\u0120communities": 7280,
  "ensions": 7281,
  "\u0120spl": 7282,
  "\u0120terrace": 7283,
  "\u0120oben": 7284,
  "b\u00c3\u00bcrger": 7285,
  "\u0120reducing": 7286,
  "\u0120signed": 7287,
  "set": 7288,
  "\u0120unten": 7289,
  "\u0120won": 7290,
  "\u0120followed": 7291,
  "\u0120fiscal": 7292,
  "\u0120regionale": 7293,
  "\u0120agen": 7294,
  "\u0120m\u00c3\u00bcn": 7295,
  "\u0120duty": 7296,
  "\u0120candidate": 7297,
  "\u0120zustimmung": 7298,
  "\u0120anything": 7299,
  "\u0120eingerichtet": 7300,
  "\u0120hoff": 7301,
  "zentrum": 7302,
  "\u0120berichte": 7303,
  "\u0120liz": 7304,
  "\u0120placed": 7305,
  "\u0120rasch": 7306,
  "\u0120mitte": 7307,
  "\u0120comments": 7308,
  "\u0120modernen": 7309,
  "anlagen": 7310,
  "\u0120dol": 7311,
  "\u0120waffen": 7312,
  "\u0120danach": 7313,
  "\u0120purposes": 7314,
  "ora": 7315,
  "\u0120compared": 7316,
  "\u0120repres": 7317,
  "\u0120eindeutig": 7318,
  "\u0120spieler": 7319,
  "gh": 7320,
  "\u0120unbe": 7321,
  "\u0120alone": 7322,
  "\u0120congratulate": 7323,
  "\u0120kmu": 7324,
  "\u0120umfasst": 7325,
  "ev": 7326,
  "\u0120inflation": 7327,
  "\u0120understanding": 7328,
  "schrift": 7329,
  "\u0120fl\u00c3\u00bcchtl": 7330,
  "\u0120continued": 7331,
  "vollen": 7332,
  "uting": 7333,
  "\u0120mechanism": 7334,
  "\u0120verur": 7335,
  "ibr": 7336,
  "\u0120reinfor": 7337,
  "herstell": 7338,
  "\u0120represents": 7339,
  "\u0120zuk": 7340,
  "\u0120immigration": 7341,
  "\u0120core": 7342,
  "\u0120erlaubt": 7343,
  "\u0120colour": 7344,
  "\u0120n\u00c3\u00b6t": 7345,
  "\u0120klim": 7346,
  "\u0120nacht": 7347,
  "krie": 7348,
  "\u0120sole": 7349,
  "\u0120ausgang": 7350,
  "\u0120einzus": 7351,
  "\u0120verf\u00c3\u00bcgbar": 7352,
  "\u0120casino": 7353,
  "leitung": 7354,
  "\u0120season": 7355,
  "\u0120operators": 7356,
  "\u0120geh": 7357,
  "\u0120einhaltung": 7358,
  "steht": 7359,
  "\u0120tagung": 7360,
  "\u0120critic": 7361,
  "\u0120feature": 7362,
  "\u0120begriff": 7363,
  "\u0120150": 7364,
  "\u0120menu": 7365,
  "\u0120regulatory": 7366,
  "\u0120historischen": 7367,
  "\u0120unterschiedlichen": 7368,
  "\u0120selected": 7369,
  "\u0120opened": 7370,
  "\u0120morning": 7371,
  "\u0120god": 7372,
  "\u0120considerable": 7373,
  "\u0120listed": 7374,
  "\u0120gr\u00c3\u00bc": 7375,
  "\u0120gleiche": 7376,
  "\u0120konsequ": 7377,
  "\u012075": 7378,
  "\u0120glob": 7379,
  "\u0120vorsch": 7380,
  "\u0120angelegenheit": 7381,
  "\u0120mittelmeer": 7382,
  "\u0120tief": 7383,
  "\u0120manager": 7384,
  "\u0120abschlie\u00c3\u0141end": 7385,
  "\u0120frankf": 7386,
  "\u0120panor": 7387,
  "\u0120fixed": 7388,
  "preis": 7389,
  "rich": 7390,
  "raten": 7391,
  "last": 7392,
  "sec": 7393,
  "\u0120namely": 7394,
  "\u0120expand": 7395,
  "\u0120erkennen": 7396,
  "aries": 7397,
  "iant": 7398,
  "anda": 7399,
  "\u0120beteiligten": 7400,
  "\u0120investigation": 7401,
  "\u0120parad": 7402,
  "\u0120wachsen": 7403,
  "schlie\u00c3\u0141en": 7404,
  "\u0120gegr": 7405,
  "atively": 7406,
  "stechn": 7407,
  "ado": 7408,
  "\u0120establishing": 7409,
  "\u0120bestimmt": 7410,
  "\u0120vat": 7411,
  "\u0120learning": 7412,
  "cast": 7413,
  "\u0120spring": 7414,
  "\u0120northern": 7415,
  "schung": 7416,
  "mand": 7417,
  "\u0120critical": 7418,
  "pool": 7419,
  "mas": 7420,
  "\u0120concluded": 7421,
  "\u0120adapt": 7422,
  "\u0120acqu": 7423,
  "ming": 7424,
  "\u0120compat": 7425,
  "\u0120eingef\u00c3\u00bchrt": 7426,
  "\u0120families": 7427,
  "\u0120kreat": 7428,
  "\u0120heil": 7429,
  "\u0120hit": 7430,
  "isierten": 7431,
  "pft": 7432,
  "\u0120usually": 7433,
  "\u0120operational": 7434,
  "\u00c3\u00a4den": 7435,
  "\u0120endg\u00c3\u00bclt": 7436,
  "\u0120notwendigen": 7437,
  "\u0120osten": 7438,
  "uerung": 7439,
  "ret": 7440,
  "\u0120zuk\u00c3\u00bcnft": 7441,
  "\u0120honour": 7442,
  "\u0120confirm": 7443,
  "\u0120irland": 7444,
  "\u0120confir": 7445,
  "\u0120running": 7446,
  "\u0120solar": 7447,
  "ometer": 7448,
  "\u0120alban": 7449,
  "\u0120surpr": 7450,
  "\u0120konkrete": 7451,
  "\u0120color": 7452,
  "\u0120pal\u00c3\u00a4stinens": 7453,
  "\u0120safegu": 7454,
  "\u0120managed": 7455,
  "\u0120industries": 7456,
  "\u0120demands": 7457,
  "\u0120festival": 7458,
  "\u0120pers\u00c3\u00b6nlichen": 7459,
  "\u0120specifically": 7460,
  "\u0120abgeschlossen": 7461,
  "\u0120protected": 7462,
  "\u0120amerikan": 7463,
  "\u00c3\u00bcter": 7464,
  "uly": 7465,
  "\u0120ausschu\u00c3\u0141": 7466,
  "\u0120schm": 7467,
  "\u0120grenz\u00c3\u00bcberschreit": 7468,
  "\u0120manner": 7469,
  "\u0120ge\u00c3\u00a4ndert": 7470,
  "\u0120cooper": 7471,
  "gr\u00c3\u00b6": 7472,
  "\u0120hochwert": 7473,
  "\u0120leader": 7474,
  "sl": 7475,
  "\u0120vac": 7476,
  "making": 7477,
  "initi": 7478,
  "\u0120fear": 7479,
  "\u0120parliamentary": 7480,
  "\u0120expenditure": 7481,
  "\u0120herunter": 7482,
  "\u0120rub": 7483,
  "\u0120worked": 7484,
  "\u0120storage": 7485,
  "\u00c3\u00bchren": 7486,
  "\u0120kompromiss": 7487,
  "\u0120stated": 7488,
  "\u0120gef\u00c3\u00b6r": 7489,
  "inal": 7490,
  "w\u00c3\u00bcn": 7491,
  "\u0120gezeigt": 7492,
  "\u0120legitim": 7493,
  "\u0120austral": 7494,
  "\u0120anc": 7495,
  "it\u00c3\u00a4re": 7496,
  "\u00c3\u00b6sen": 7497,
  "\u0120ausreich": 7498,
  "\u0120erzielen": 7499,
  "called": 7500,
  "\u0120investments": 7501,
  "\u0120nahrungs": 7502,
  "brit": 7503,
  "rum": 7504,
  "70": 7505,
  "poin": 7506,
  "\u0120staatliche": 7507,
  "\u0120stable": 7508,
  "\u0120gesetzt": 7509,
  "\u0120linked": 7510,
  "\u0120\u00c3\u00bcberzeugt": 7511,
  "\u0120licht": 7512,
  "\u0120respekt": 7513,
  "\u0120goals": 7514,
  "wagen": 7515,
  "\u0120krieg": 7516,
  "\u0120kitchen": 7517,
  "\u0120d\u00c3\u00a4n": 7518,
  "ifik": 7519,
  "\u01201992": 7520,
  "\u0120notes": 7521,
  "\u0120speziell": 7522,
  "cd": 7523,
  "aming": 7524,
  "\u0120wanted": 7525,
  "\u0120isol": 7526,
  "\u0120abzu": 7527,
  "\u0120k\u00c3\u00bcnstler": 7528,
  "\u0120f\u00c3\u00b6rder": 7529,
  "\u0120qualit\u00c3\u00a4ts": 7530,
  "\u0120wahrscheinlich": 7531,
  "\u0120changed": 7532,
  "\u0120february": 7533,
  "aktiv": 7534,
  "dienste": 7535,
  "vorschlag": 7536,
  "\u0120vermeiden": 7537,
  "\u0120derzeitigen": 7538,
  "\u0120extensive": 7539,
  "\u0120unbedingt": 7540,
  "\u0120antworten": 7541,
  "\u0120bars": 7542,
  "uert": 7543,
  "\u0120nom": 7544,
  "\u0120fed": 7545,
  "\u0120figures": 7546,
  "\u0120excess": 7547,
  "\u0120entwurf": 7548,
  "f\u00c3\u00b6r": 7549,
  "\u0120percent": 7550,
  "\u0120protocol": 7551,
  "\u0120producers": 7552,
  "\u0120vize": 7553,
  "\u0120chinas": 7554,
  "\u0120combat": 7555,
  "\u0120verfassung": 7556,
  "\u0120participate": 7557,
  "ichern": 7558,
  "\u0120belieb": 7559,
  "rate": 7560,
  "\u0120zuverl\u00c3\u00a4ss": 7561,
  "ferences": 7562,
  "inzip": 7563,
  "\u0120leiden": 7564,
  "ores": 7565,
  "\u0120stake": 7566,
  "\u0120consumption": 7567,
  "\u0120begr\u00c3\u00bc\u00c3\u0141en": 7568,
  "yal": 7569,
  "\u0120chemical": 7570,
  "ole": 7571,
  "\u0120croat": 7572,
  "\u0120benach": 7573,
  "\u0120disap": 7574,
  "\u0120bosn": 7575,
  "\u0120recognition": 7576,
  "itter": 7577,
  "\u0120parame": 7578,
  "haften": 7579,
  "\u0120district": 7580,
  "\u0120nationaler": 7581,
  "\u0120automatisch": 7582,
  "partner": 7583,
  "\u0120trip": 7584,
  "\u0120tests": 7585,
  "mittelt": 7586,
  "\u0120untersuchung": 7587,
  "oke": 7588,
  "\u0120asia": 7589,
  "\u0120schengen": 7590,
  "sper": 7591,
  "now": 7592,
  "\u0120hause": 7593,
  "iles": 7594,
  "fl\u00c3\u00bc": 7595,
  "kommun": 7596,
  "\u0120intel": 7597,
  "\u0120depos": 7598,
  "\u0120rechnungs": 7599,
  "\u0120targets": 7600,
  "\u0120components": 7601,
  "\u0120reception": 7602,
  "\u0120denken": 7603,
  "werke": 7604,
  "\u0120sold": 7605,
  "\u0120customs": 7606,
  "\u01202014": 7607,
  "urop\u00c3\u00a4": 7608,
  "enty": 7609,
  "22": 7610,
  "\u00c3\u00a4ften": 7611,
  "\u0120organised": 7612,
  "\u0120gesehen": 7613,
  "\u0120respond": 7614,
  "\u0120accompan": 7615,
  "\u0120auss": 7616,
  "\u0120arrangements": 7617,
  "attle": 7618,
  "\u0120earlier": 7619,
  "\u0120oly": 7620,
  "govern": 7621,
  "\u0120hop": 7622,
  "\u0120erfolgen": 7623,
  "\u0120automatically": 7624,
  "\u0120suitable": 7625,
  "\u0120heard": 7626,
  "f\u00c3\u00bchrten": 7627,
  "\u0120garten": 7628,
  "\u0120unge": 7629,
  "\u0120rech": 7630,
  "\u0120explo": 7631,
  "\u0120steel": 7632,
  "\u0120vorhaben": 7633,
  "\u0120wol": 7634,
  "\u0120systeme": 7635,
  "\u0120endlich": 7636,
  "\u0120exter": 7637,
  "\u0120aqu": 7638,
  "ungsver": 7639,
  "\u0120failure": 7640,
  "\u0120pakistan": 7641,
  "\u0120v\u00c3\u00b6lker": 7642,
  "\u0120trying": 7643,
  "\u0120informed": 7644,
  "\u0120s\u00c3\u00a4mtliche": 7645,
  "\u0120bade": 7646,
  "\u0120erinnern": 7647,
  "\u0120hervorragen": 7648,
  "can": 7649,
  "f\u00c3\u00bchrer": 7650,
  "alled": 7651,
  "\u0120gebiete": 7652,
  "akes": 7653,
  "\u0120sad": 7654,
  "\u0120wrong": 7655,
  "\u0120pdf": 7656,
  "\u0120tr\u00c3\u00a4gt": 7657,
  "\u0120serve": 7658,
  "\u0120parallel": 7659,
  "uel": 7660,
  "\u0120membership": 7661,
  "\u0120expos": 7662,
  "\u0120polize": 7663,
  "\u0120geeignet": 7664,
  "afr": 7665,
  "lad": 7666,
  "\u0120spread": 7667,
  "bruch": 7668,
  "\u0120genannt": 7669,
  "\u0120ausgezeichnet": 7670,
  "\u0120referred": 7671,
  "\u0120tip": 7672,
  "\u0120zone": 7673,
  "\u0120holz": 7674,
  "lock": 7675,
  "\u0120launched": 7676,
  "\u0120aufzu": 7677,
  "\u0120monat": 7678,
  "\u0120funktionieren": 7679,
  "\u0120olymp": 7680,
  "\u0120studio": 7681,
  "\u0120suite": 7682,
  "\u01201993": 7683,
  "grenz": 7684,
  "grams": 7685,
  "\u0120southern": 7686,
  "\u0120erneuer": 7687,
  "\u0120angen": 7688,
  "\u0120w\u00c3\u00a4hrung": 7689,
  "\u0120conserv": 7690,
  "kommissar": 7691,
  "\u0120islands": 7692,
  "\u012000": 7693,
  "\u0120jeweils": 7694,
  "igem": 7695,
  "\u0120beihilfe": 7696,
  "\u0120leav": 7697,
  "\u0120entweder": 7698,
  "\u0120w\u00c3\u00a4ren": 7699,
  "ipt": 7700,
  "\u0120philosoph": 7701,
  "annen": 7702,
  "\u0120vorteil": 7703,
  "\u0120guide": 7704,
  "\u0120fulfil": 7705,
  "\u0120einver": 7706,
  "\u0120einbe": 7707,
  "\u0120burden": 7708,
  "\u0120angegeben": 7709,
  "\u0120compliance": 7710,
  "itten": 7711,
  "betrie": 7712,
  "quem": 7713,
  "\u0120inside": 7714,
  "\u0120zentrale": 7715,
  "\u0120stattfinden": 7716,
  "istics": 7717,
  "\u0120difficulties": 7718,
  "itzerland": 7719,
  "\u0120strict": 7720,
  "\u0120larger": 7721,
  "\u0120bilateral": 7722,
  "\u0120wachstums": 7723,
  "\u0120comment": 7724,
  "omet": 7725,
  "\u0120economies": 7726,
  "omb": 7727,
  "\u0120directives": 7728,
  "\u0120umfassende": 7729,
  "iat": 7730,
  "\u0120dun": 7731,
  "\u0120zeichen": 7732,
  "\u0120evidence": 7733,
  "\u0120asylum": 7734,
  "\u0120gap": 7735,
  "\u0120erstellen": 7736,
  "\u0120charter": 7737,
  "loss": 7738,
  "\u0120susp": 7739,
  "\u0120tu": 7740,
  "\u0120volle": 7741,
  "\u0120ausw\u00c3\u00a4rtige": 7742,
  "\u0120bott": 7743,
  "\u0120spac": 7744,
  "region": 7745,
  "\u0120universal": 7746,
  "\u0120meter": 7747,
  "pat": 7748,
  "\u0120functions": 7749,
  "\u0120madrid": 7750,
  "\u0120correspon": 7751,
  "\u0120m\u00c3\u00a4rkte": 7752,
  "ras": 7753,
  "\u0120absolutely": 7754,
  "year": 7755,
  "endet": 7756,
  "artigen": 7757,
  "going": 7758,
  "\u0120mur": 7759,
  "kur": 7760,
  "\u0120instance": 7761,
  "box": 7762,
  "iser": 7763,
  "\u0120attach": 7764,
  "\u0120cro": 7765,
  "\u0120darstellen": 7766,
  "\u0120herstellung": 7767,
  "\u0120wiederauf": 7768,
  "\u0120dagegen": 7769,
  "\u0120legen": 7770,
  "\u0120structures": 7771,
  "\u0120m\u00c3\u00b6glichst": 7772,
  "\u0120railway": 7773,
  "\u0120untern": 7774,
  "\u0120ausgew": 7775,
  "\u0120getting": 7776,
  "\u0120powerful": 7777,
  "\u0120buildings": 7778,
  "\u0120taus": 7779,
  "\u0120facing": 7780,
  "\u0120belarus": 7781,
  "\u0120fel": 7782,
  "\u0120andererseits": 7783,
  "\u0120bitten": 7784,
  "\u0120bew\u00c3\u00a4lt": 7785,
  "\u0120erm": 7786,
  "\u0120w\u00c3\u00a4hrungs": 7787,
  "\u0120degree": 7788,
  "\u0120rig": 7789,
  "\u0120h\u00c3\u00a4lt": 7790,
  "\u0120semin": 7791,
  "\u0120sav": 7792,
  "britann": 7793,
  "\u0120mindest": 7794,
  "\u0120cypr": 7795,
  "\u0120picture": 7796,
  "\u0120kroat": 7797,
  "\u0120l\u00c3\u00a4nger": 7798,
  "ranken": 7799,
  "fuhr": 7800,
  "meld": 7801,
  "\u0120400": 7802,
  "\u0120evaluation": 7803,
  "\u0120plants": 7804,
  "pak": 7805,
  "\u0120mobility": 7806,
  "hner": 7807,
  "ih": 7808,
  "entscheid": 7809,
  "\u0120delay": 7810,
  "park": 7811,
  "\u0120welcomes": 7812,
  "\u0120costa": 7813,
  "\u0120prevention": 7814,
  "\u0120schre": 7815,
  "etten": 7816,
  "\u0120anne": 7817,
  "\u0120j\u00c3\u00bcngsten": 7818,
  "98": 7819,
  "ilien": 7820,
  "sch\u00c3\u00a4tz": 7821,
  "\u0120closed": 7822,
  "\u0120profitieren": 7823,
  "\u0120len": 7824,
  "\u0120berichterstatterin": 7825,
  "\u0120irgend": 7826,
  "\u0120internationaler": 7827,
  "\u0120tie": 7828,
  "\u0120sets": 7829,
  "\u0120programs": 7830,
  "\u0120rand": 7831,
  "\u0120mutual": 7832,
  "\u0120afrika": 7833,
  "\u0120februar": 7834,
  "\u0120arbeitsmarkt": 7835,
  "gew\u00c3\u00b6hn": 7836,
  "\u0120lauf": 7837,
  "leiten": 7838,
  "\u0120presence": 7839,
  "\u0120poker": 7840,
  "\u0120weap": 7841,
  "\u0120voraussetzungen": 7842,
  "idents": 7843,
  "\u0120akte": 7844,
  "\u0120fla": 7845,
  "bern": 7846,
  "\u0120cars": 7847,
  "lass": 7848,
  "\u0120seven": 7849,
  "\u0120leistungen": 7850,
  "\u0120zuvor": 7851,
  "\u0120unabh\u00c3\u00a4ngig": 7852,
  "icate": 7853,
  "preise": 7854,
  "\u0120teilweise": 7855,
  "gebaut": 7856,
  "vest": 7857,
  "\u0120danke": 7858,
  "\u0120fahren": 7859,
  "\u0120bekr": 7860,
  "\u0120benutzen": 7861,
  "holders": 7862,
  "aria": 7863,
  "ae": 7864,
  "\u0120raise": 7865,
  "\u0120upgra": 7866,
  "immern": 7867,
  "\u0120african": 7868,
  "\u0120fortschritt": 7869,
  "dire": 7870,
  "ysteme": 7871,
  "ktiven": 7872,
  "\u0120agencies": 7873,
  "\u0120ras": 7874,
  "\u0120entit": 7875,
  "01": 7876,
  "zieht": 7877,
  "\u0120shared": 7878,
  "letzt": 7879,
  "nam": 7880,
  "\u0120consolid": 7881,
  "\u0120photos": 7882,
  "\u0120gegenw\u00c3\u00a4rtig": 7883,
  "\u0120mm": 7884,
  "\u0120controls": 7885,
  "isely": 7886,
  "\u0120\u00c3\u00bcberpr\u00c3\u00bcfung": 7887,
  "\u0120sauna": 7888,
  "\u0120mittl": 7889,
  "\u0120defined": 7890,
  "\u0120salz": 7891,
  "\u0120browser": 7892,
  "\u0120ries": 7893,
  "\u0120franz\u00c3\u00b6sischen": 7894,
  "pass": 7895,
  "\u0120motiv": 7896,
  "\u0120announced": 7897,
  "\u0120yourself": 7898,
  "\u0120maritime": 7899,
  "\u0120flexibility": 7900,
  "\u0120motion": 7901,
  "\u0120konzentrieren": 7902,
  "\u0120informieren": 7903,
  "\u0120plug": 7904,
  "\u0120purchase": 7905,
  "\u0120territory": 7906,
  "\u0120schwerpunkt": 7907,
  "\u0120dritte": 7908,
  "\u0120smes": 7909,
  "\u0120romania": 7910,
  "\u0120played": 7911,
  "entions": 7912,
  "ump": 7913,
  "pap": 7914,
  "\u0120bekr\u00c3\u00a4ft": 7915,
  "\u0120replac": 7916,
  "\u0120properly": 7917,
  "\u0120elegant": 7918,
  "\u0120zuletzt": 7919,
  "\u0120evening": 7920,
  "\u0120genet": 7921,
  "uche": 7922,
  "\u0120lif": 7923,
  "\u0120benutzt": 7924,
  "ingu": 7925,
  "commun": 7926,
  "erzeug": 7927,
  "\u0120talking": 7928,
  "\u0120verfolgen": 7929,
  "j\u00c3\u00a4hrigen": 7930,
  "icts": 7931,
  "\u0120ver\u00c3\u00a4nderungen": 7932,
  "\u0120exclusive": 7933,
  "\u0120sym": 7934,
  "\u0120genehmigt": 7935,
  "\u0120beur": 7936,
  "vak": 7937,
  "verw": 7938,
  "aly": 7939,
  "\u0120actual": 7940,
  "\u0120reserve": 7941,
  "\u0120residence": 7942,
  "car": 7943,
  "\u0120landwir": 7944,
  "f\u00c3\u00bcgen": 7945,
  "\u0120propose": 7946,
  "\u0120ahead": 7947,
  "\u0120trave": 7948,
  "\u0120\u00c3\u00bcb": 7949,
  "ienen": 7950,
  "ruf": 7951,
  "jo": 7952,
  "33": 7953,
  "gesellschaften": 7954,
  "\u0120willkommen": 7955,
  "\u0120india": 7956,
  "\u0120belong": 7957,
  "ault": 7958,
  "\u0120communications": 7959,
  "\u0120wik": 7960,
  "\u0120bag": 7961,
  "\u0120kindern": 7962,
  "\u0120zust\u00c3\u00a4ndigen": 7963,
  "\u0120becoming": 7964,
  "\u0120navig": 7965,
  "\u0120incorpor": 7966,
  "\u0120sale": 7967,
  "arge": 7968,
  "using": 7969,
  "\u0120willing": 7970,
  "\u0120idee": 7971,
  "gelt": 7972,
  "\u0120fly": 7973,
  "\u0120unless": 7974,
  "zeigen": 7975,
  "\u0120waters": 7976,
  "\u0120vorbereitung": 7977,
  "\u0120leute": 7978,
  "\u0120verpflichtung": 7979,
  "\u0120libr": 7980,
  "\u0120bequem": 7981,
  "isierte": 7982,
  "\u0120festge": 7983,
  "svors": 7984,
  "time": 7985,
  "entlich": 7986,
  "\u0120teilnehmen": 7987,
  "\u0120;": 7988,
  "\u0120erleben": 7989,
  "government": 7990,
  "\u0120says": 7991,
  "\u0120siehe": 7992,
  "\u0120produkten": 7993,
  "\u0120stimul": 7994,
  "spunkt": 7995,
  "\u0120submit": 7996,
  "ael": 7997,
  "oon": 7998,
  "\u0120erstellt": 7999,
  "\u0120dvd": 8000,
  "icks": 8001,
  "\u0120hersteller": 8002,
  "\u0120diss": 8003,
  "herr": 8004,
  "\u0120braucht": 8005,
  "\u0120combined": 8006,
  "iling": 8007,
  "\u0120ausgewogen": 8008,
  "\u0120koh\u00c3\u00a4s": 8009,
  "lern": 8010,
  "mode": 8011,
  "\u0120l\u00c3\u00b6sen": 8012,
  "anb": 8013,
  "\u0120lands": 8014,
  "\u0120contem": 8015,
  "clude": 8016,
  "\u0120kompon": 8017,
  "\u0120indire": 8018,
  "\u0120atlant": 8019,
  "itious": 8020,
  "\u0120gro\u00c3\u0141britann": 8021,
  "\u0120intensiv": 8022,
  "utzung": 8023,
  "\u0120tut": 8024,
  "\u0120wants": 8025,
  "leun": 8026,
  "letter": 8027,
  "ky": 8028,
  "\u0120scen": 8029,
  "\u0120thousands": 8030,
  "\u0120quot": 8031,
  "\u0120continues": 8032,
  "ctor": 8033,
  "\u0120cheap": 8034,
  "\u0120switzerland": 8035,
  "aschine": 8036,
  "\u0120translation": 8037,
  "n\u00c3\u00bc": 8038,
  "\u0120electricity": 8039,
  "\u0120partei": 8040,
  "\u0120items": 8041,
  "tete": 8042,
  "\u0120ergeben": 8043,
  "\u0120trotzdem": 8044,
  "\u0120drogen": 8045,
  "\u0120spend": 8046,
  "\u0120significantly": 8047,
  "\u0120amts": 8048,
  "effiz": 8049,
  "\u0120dramat": 8050,
  "\u0120ging": 8051,
  "ny": 8052,
  "\u01202015": 8053,
  "etze": 8054,
  "\u0120outcome": 8055,
  "\u0120gain": 8056,
  "\u0120attempt": 8057,
  "amb": 8058,
  "m\u00c3\u00b6gen": 8059,
  "free": 8060,
  "\u0120turk": 8061,
  "\u0120moral": 8062,
  "\u0120dienstleistungs": 8063,
  "\u0120schwierig": 8064,
  "\u0120playing": 8065,
  "\u0120fried": 8066,
  "\u0120positions": 8067,
  "\u0120discrimination": 8068,
  "\u0120zugleich": 8069,
  "\u0120gesche": 8070,
  "\u0120restruct": 8071,
  "\u0120easier": 8072,
  "\u0120alte": 8073,
  "\u0120erkennt": 8074,
  "\u0120gelangen": 8075,
  "\u0120weiterer": 8076,
  "\u0120collab": 8077,
  "\u0120consideration": 8078,
  "\u0120notice": 8079,
  "\u0120applies": 8080,
  "\u0120luxembourg": 8081,
  "\u0120beziehen": 8082,
  "\u0120immediate": 8083,
  "itel": 8084,
  "zwischen": 8085,
  "\u0120geplan": 8086,
  "\u0120dee": 8087,
  "agraph": 8088,
  "\u0120europeans": 8089,
  "\u0120positiv": 8090,
  "\u0120herausforderung": 8091,
  "\u0120entertain": 8092,
  "gewicht": 8093,
  "{{": 8094,
  "club": 8095,
  "num": 8096,
  "\u00c3\u00a4u\u00c3\u0141": 8097,
  "\u00c3\u00a4ndischen": 8098,
  "sch\u00c3\u00b6": 8099,
  "\u0120inhalte": 8100,
  "\u0120bol": 8101,
  "\u0120erheblich": 8102,
  "\u0120closer": 8103,
  "\u0120unit": 8104,
  "\u0120manch": 8105,
  "\u0120uses": 8106,
  "ova": 8107,
  "\u0120angel": 8108,
  "\u0120founded": 8109,
  "\u0120department": 8110,
  "\u0120sicherlich": 8111,
  "\u0120beteiligt": 8112,
  "\u0120minute": 8113,
  "\u0120perspective": 8114,
  "\u0120nar": 8115,
  "\u0120vorgeschlagenen": 8116,
  "44": 8117,
  "orient": 8118,
  "via": 8119,
  "\u0120php": 8120,
  "\u0120differences": 8121,
  "\u0120executive": 8122,
  "\u0120armen": 8123,
  "ci": 8124,
  "\u0120sorgf": 8125,
  "2000": 8126,
  "\u0120imper": 8127,
  "\u0120whom": 8128,
  "\u0120speech": 8129,
  "\u0120approxim": 8130,
  "imb": 8131,
  "\u0120impress": 8132,
  "\u0120expens": 8133,
  "\u0120best\u00c3\u00a4tigt": 8134,
  "handlung": 8135,
  "\u0120facilitate": 8136,
  "\u0120iv": 8137,
  "repr": 8138,
  "\u0120liqu": 8139,
  "\u0120gef\u00c3\u00b6rdert": 8140,
  "orgt": 8141,
  "\u0120anpassung": 8142,
  "schl\u00c3\u00a4ge": 8143,
  "\u0120veget": 8144,
  "\u0120regelungen": 8145,
  "\u0120session": 8146,
  "stimmung": 8147,
  "\u0120background": 8148,
  "\u0120telephone": 8149,
  "\u0120greek": 8150,
  "\u0120mik": 8151,
  "\u0120st\u00c3\u00a4dte": 8152,
  "\u0120hinweisen": 8153,
  "\u0120suche": 8154,
  "m\u00c3\u00a4rkte": 8155,
  "\u0120voice": 8156,
  "\u0120verh": 8157,
  "prozess": 8158,
  "\u00c3\u00a4fen": 8159,
  "hre": 8160,
  "\u0120shops": 8161,
  "mitgliedstaaten": 8162,
  "\u0120camera": 8163,
  "\u0120served": 8164,
  "l\u00c3\u00b6sung": 8165,
  "\u0120ack": 8166,
  "\u0120cards": 8167,
  "\u0120photograph": 8168,
  "arta": 8169,
  "\u0120jac": 8170,
  "75": 8171,
  "\u0120autonom": 8172,
  "36": 8173,
  "\u0120councils": 8174,
  "\u00c3\u00a4user": 8175,
  "\u0120spacious": 8176,
  "\u0120gericht": 8177,
  "\u0120konk": 8178,
  "\u0120sweden": 8179,
  "\u0120individuals": 8180,
  "\u0120wander": 8181,
  "99": 8182,
  "\u0120steigen": 8183,
  "\u0120owners": 8184,
  "pol": 8185,
  "iding": 8186,
  "\u0120\u00c3\u00bcbersch": 8187,
  "\u0120withdra": 8188,
  "\u0120exhibition": 8189,
  "\u0120paul": 8190,
  "\u0120votes": 8191,
  "\u0120klare": 8192,
  "bad": 8193,
  "\u0120\u00c3\u00bcberpr\u00c3\u00bcfen": 8194,
  "\u0120zweifel": 8195,
  "bew": 8196,
  "\u0120k\u00c3\u00bcnftigen": 8197,
  "iary": 8198,
  "\u0120sofern": 8199,
  "\u0120priorit\u00c3\u00a4t": 8200,
  "grenzen": 8201,
  "\u0120decor": 8202,
  "\u0120h\u00c3\u00bc": 8203,
  "wirken": 8204,
  "\u0120durchschnitt": 8205,
  "\u0120exactly": 8206,
  "\u0120absicht": 8207,
  "\u0120hoffen": 8208,
  "ala": 8209,
  "siehe": 8210,
  "\u0120steuern": 8211,
  "\u0120meeres": 8212,
  "zo": 8213,
  "\u0120mini": 8214,
  "\u0120grunds\u00c3\u00a4tz": 8215,
  "\u0120infringement": 8216,
  "\u0120?": 8217,
  "immungen": 8218,
  "\u0120television": 8219,
  "\u0120ow": 8220,
  "\u0120luxur": 8221,
  "\u0120fellow": 8222,
  "\u0120leb": 8223,
  "\u012036": 8224,
  "kor": 8225,
  "\u0120satellite": 8226,
  "stands": 8227,
  "\u0120allowing": 8228,
  "\u0120teilnehmer": 8229,
  "\u0120wonderful": 8230,
  "\u0120formen": 8231,
  "\u0120beschleun": 8232,
  "\u0120exercise": 8233,
  "\u0120peaceful": 8234,
  "\u0120institute": 8235,
  "\u0120cab": 8236,
  "achtet": 8237,
  "ologische": 8238,
  "\u0120erweiter": 8239,
  "\u0120hindern": 8240,
  "\u0120drink": 8241,
  "\u0120n\u00c3\u00a4chste": 8242,
  "\u0120akzeptieren": 8243,
  "\u0120unterschiedliche": 8244,
  "\u0120proportion": 8245,
  "\u0120suffer": 8246,
  "wohner": 8247,
  "\u0120besucher": 8248,
  "zep": 8249,
  "elte": 8250,
  "chem": 8251,
  "\u0120\u00c3\u00bcbertragen": 8252,
  "\u0120dealing": 8253,
  "nehmern": 8254,
  "zed": 8255,
  "\u0120numbers": 8256,
  "ittel": 8257,
  "\u0120gekommen": 8258,
  "\u0120route": 8259,
  "\u0120betrachtet": 8260,
  "k\u00c3\u00bcnd": 8261,
  "\u0120verfolgt": 8262,
  "\u0120betriebs": 8263,
  "\u0120achieving": 8264,
  "\u0120jene": 8265,
  "\u0120estate": 8266,
  "iano": 8267,
  "\u0120gem\u00c3\u00bct": 8268,
  "\u0120database": 8269,
  "\u0120precisely": 8270,
  "umin": 8271,
  "\u0120streit": 8272,
  "\u0120angesprochen": 8273,
  "\u0120risiken": 8274,
  "\u0120referend": 8275,
  "\u0120barroso": 8276,
  "sized": 8277,
  "\u0120geschm": 8278,
  "\u0120frankfurt": 8279,
  "\u0120ma\u00c3\u0141nahme": 8280,
  "las": 8281,
  "\u0120glaub": 8282,
  "\u0120anderes": 8283,
  "\u0120eingesch": 8284,
  "andidaten": 8285,
  "38": 8286,
  "\u0120freue": 8287,
  "\u0120karte": 8288,
  "\u0120bildungs": 8289,
  "\u0120eindruck": 8290,
  "r\u00c3\u00bcst": 8291,
  "\u0120besseren": 8292,
  "ausschusses": 8293,
  "\u0120engineering": 8294,
  "amente": 8295,
  "\u0120convenient": 8296,
  "\u0120organization": 8297,
  "\u0120organiz": 8298,
  "\u0120proceedings": 8299,
  "isierungs": 8300,
  "\u0120acknow": 8301,
  "\u0120angeh\u00c3\u00b6r": 8302,
  "\u0120verwe": 8303,
  "embly": 8304,
  "app": 8305,
  "either": 8306,
  "\u0120ber\u00c3\u00bccksichtigung": 8307,
  "freiheit": 8308,
  "\u0120abwe": 8309,
  "\u0120tabled": 8310,
  "\u0120iii": 8311,
  "\u0120defiz": 8312,
  "\u0120gave": 8313,
  "\u0120except": 8314,
  "\u0120estim": 8315,
  "\u0120haltung": 8316,
  "mechan": 8317,
  "greif": 8318,
  "\u0120arbeitslosigkeit": 8319,
  "\u0120laid": 8320,
  "\u0120trib": 8321,
  "**": 8322,
  "\u0120lobby": 8323,
  "ickt": 8324,
  "\u0120jung": 8325,
  "\u0120miteinander": 8326,
  "\u0120refle": 8327,
  "\u0120effizienz": 8328,
  "\u0120sle": 8329,
  "\u0120tasks": 8330,
  "\u0120appeal": 8331,
  "organisationen": 8332,
  "\u0120relativ": 8333,
  "wachstum": 8334,
  "figur": 8335,
  "\u0120menge": 8336,
  "uft": 8337,
  "\u0120zeich": 8338,
  "\u0120sides": 8339,
  "\u0120ball": 8340,
  "\u0120territorial": 8341,
  "hnung": 8342,
  "\u0120participants": 8343,
  "\u0120copyr": 8344,
  "\u0120forget": 8345,
  "\u0120imag": 8346,
  "ader": 8347,
  "\u0120gipfel": 8348,
  "\u0120pact": 8349,
  "\u0120paragraph": 8350,
  "\u0120einiger": 8351,
  "\u0120cred": 8352,
  "\u00c3\u00a4lfte": 8353,
  "\u0120(+": 8354,
  "\u0120festgestellt": 8355,
  "\u0120behav": 8356,
  "09": 8357,
  "\u0120spending": 8358,
  "\u0120spielt": 8359,
  "\u0120buffet": 8360,
  "\u0120luxemburg": 8361,
  "\u0120griech": 8362,
  "\u0120unan": 8363,
  "\u0120considers": 8364,
  "\u0120remind": 8365,
  "\u0120follows": 8366,
  "\u0120verst\u00c3\u00a4rkt": 8367,
  "\u0120irish": 8368,
  "\u0120betont": 8369,
  "\u0120hierzu": 8370,
  "\u0120intention": 8371,
  "\u0120bush": 8372,
  "\u0120equality": 8373,
  "\u0120sehens": 8374,
  "\u0120advice": 8375,
  "\u0120sorge": 8376,
  "\u0120models": 8377,
  "\u0120technological": 8378,
  "\u0120completed": 8379,
  "\u0120premier": 8380,
  "\u0120schreiben": 8381,
  "ifications": 8382,
  "iler": 8383,
  "\u0120acts": 8384,
  "\u0120paket": 8385,
  "\u0120schlie\u00c3\u0141en": 8386,
  "\u0120freie": 8387,
  "leihen": 8388,
  "road": 8389,
  "\u0120door": 8390,
  "\u0120speaking": 8391,
  "\u0120dangerous": 8392,
  "\u0120functioning": 8393,
  "karten": 8394,
  "ifiziert": 8395,
  "\u00c3\u00bcste": 8396,
  "\u0120funktionen": 8397,
  "\u0120konz": 8398,
  "\u0120balt": 8399,
  "\u0120jungen": 8400,
  "\u0120geleistet": 8401,
  "}}": 8402,
  "\u0120angriff": 8403,
  "ureau": 8404,
  "\u0120extended": 8405,
  "\u0120daraus": 8406,
  "\u0120datenschutz": 8407,
  "\u0120reisen": 8408,
  "ax": 8409,
  "\u0120umweltschutz": 8410,
  "\u0120achtung": 8411,
  "\u0120houses": 8412,
  "\u0120hardware": 8413,
  "\u00c3\u00a4ten": 8414,
  "\u0120snow": 8415,
  "\u0120anyone": 8416,
  "\u0120diesbe": 8417,
  "spar": 8418,
  "quality": 8419,
  "schiede": 8420,
  "iche": 8421,
  "idential": 8422,
  "\u0120erfordern": 8423,
  "gem\u00c3\u00a4\u00c3\u0141": 8424,
  "\u0120anlagen": 8425,
  "\u0120krisen": 8426,
  "kat": 8427,
  "\u0120wien": 8428,
  "\u0120gewinn": 8429,
  "\u0120independence": 8430,
  "\u0120erw\u00c3\u00a4hnt": 8431,
  "\u0120mov": 8432,
  "\u0120bear": 8433,
  "\u0120ausdr\u00c3\u00bccklich": 8434,
  "\u0120freiwill": 8435,
  "ervice": 8436,
  "\u0120europ\u00c3\u00a4er": 8437,
  "vertre": 8438,
  "\u0120jederzeit": 8439,
  "\u0120malta": 8440,
  "\u0120vien": 8441,
  "\u0120\u00c3\u00a4lter": 8442,
  "46": 8443,
  "\u0120guarantees": 8444,
  "\u0120maschinen": 8445,
  "\u0120welcher": 8446,
  "iegen": 8447,
  "\u0120belgium": 8448,
  "\u0120breit": 8449,
  "\u0120hilfs": 8450,
  "tv": 8451,
  "\u0120fraud": 8452,
  "\u0120politischer": 8453,
  "\u0120wire": 8454,
  "\u0120..": 8455,
  "\u0120academ": 8456,
  "\u0120vizepr\u00c3\u00a4sident": 8457,
  "\u0120advance": 8458,
  "\u0120verlassen": 8459,
  "\u0120cra": 8460,
  "\u0120wechsel": 8461,
  "handlungen": 8462,
  "\u0120yes": 8463,
  "\u0120continuing": 8464,
  "\u0120manage": 8465,
  "\u0120registered": 8466,
  "ura": 8467,
  "\u0120wil": 8468,
  "\u0120finanzen": 8469,
  "\u0120gesprochen": 8470,
  "\u0120cuis": 8471,
  "uts": 8472,
  "\u0120machines": 8473,
  "\u0120ambitious": 8474,
  "\u0120ben\u00c3\u00b6tigt": 8475,
  "\u0120disease": 8476,
  "\u0120bern": 8477,
  "\u0120hands": 8478,
  "pointed": 8479,
  "unsten": 8480,
  "etragen": 8481,
  "seite": 8482,
  "\u0120wichtigste": 8483,
  "\u0120immobilien": 8484,
  "\u0120noted": 8485,
  "\u0120sell": 8486,
  "esented": 8487,
  "\u0120tourismus": 8488,
  "gence": 8489,
  "hlt": 8490,
  "28": 8491,
  "\u0120lt": 8492,
  "wissen": 8493,
  "ema": 8494,
  "actions": 8495,
  "\u0120introduce": 8496,
  "\u0120went": 8497,
  "\u0120funktioniert": 8498,
  "icherungs": 8499,
  "\u0120grunds\u00c3\u00a4tze": 8500,
  "\u0120neither": 8501,
  "hor": 8502,
  "\u0120stra\u00c3\u0141e": 8503,
  "\u0120letter": 8504,
  "sichts": 8505,
  "ound": 8506,
  "staats": 8507,
  "\u0120destro": 8508,
  "\u0120flag": 8509,
  "\u0120adequate": 8510,
  "\u0120junge": 8511,
  "\u0120umfassenden": 8512,
  "af": 8513,
  "\u0120description": 8514,
  "abilities": 8515,
  "\u0120beds": 8516,
  "\u0120toler": 8517,
  "ishes": 8518,
  "icking": 8519,
  "\u0120profess": 8520,
  "kel": 8521,
  "\u0120factors": 8522,
  "\u0120fuel": 8523,
  "\u0120gefordert": 8524,
  "\u0120worksh": 8525,
  "\u0120possibilities": 8526,
  "\u0120behinder": 8527,
  "\u0120samm": 8528,
  "\u0120finde": 8529,
  "\u0120assembly": 8530,
  "\u0120ungleich": 8531,
  "\u0120metres": 8532,
  "\u0120revision": 8533,
  "technik": 8534,
  "\u0120berufs": 8535,
  "\u0120sieben": 8536,
  "\u0120gutes": 8537,
  "\u0120match": 8538,
  "\u0120advertising": 8539,
  "\u0120relate": 8540,
  "\u0120obviously": 8541,
  "\u0120chap": 8542,
  "\u0120si": 8543,
  "\u0120hunder": 8544,
  "\u0120refugees": 8545,
  "service": 8546,
  "eig": 8547,
  "ida": 8548,
  "\u0120austausch": 8549,
  "\u0120st\u00c3\u00a4ndig": 8550,
  "\u0120gender": 8551,
  "itu": 8552,
  "\u0120americ": 8553,
  "\u0120vulner": 8554,
  "categories": 8555,
  "\u0120schulden": 8556,
  "49": 8557,
  "\u00c3\u00bccke": 8558,
  "\u0120autor": 8559,
  "\u0120ausz": 8560,
  "\u0120difference": 8561,
  "\u0120studien": 8562,
  "\u0120prospect": 8563,
  "\u0120straf": 8564,
  "\u0120rang": 8565,
  "proble": 8566,
  "\u0120scale": 8567,
  "tele": 8568,
  "\u0120kapaz": 8569,
  "\u0120coffee": 8570,
  "\u0120dete": 8571,
  "\u0120netzwerk": 8572,
  "\u0120enth": 8573,
  "\u0120flash": 8574,
  "\u0120beauty": 8575,
  "\u0120leistung": 8576,
  "iets": 8577,
  "cin": 8578,
  "\u0120finanzierungs": 8579,
  "\u0120reicht": 8580,
  "\u0120verfahrens": 8581,
  "\u0120--": 8582,
  "\u0120species": 8583,
  "lebr": 8584,
  "\u0120elimin": 8585,
  "\u0120erh\u00c3\u00b6ht": 8586,
  "idung": 8587,
  "\u0120accounts": 8588,
  "\u0120holding": 8589,
  "ena": 8590,
  "\u0120gern": 8591,
  "\u0120hafen": 8592,
  "\u0120bulgaria": 8593,
  "european": 8594,
  "\u0120lift": 8595,
  "\u0120devices": 8596,
  "\u0120unterkategorien": 8597,
  "r\u00c3\u00a4gen": 8598,
  "bereiche": 8599,
  "\u0120titel": 8600,
  "\u0120availability": 8601,
  "\u0120bureau": 8602,
  "tzeit": 8603,
  "\u0120ped": 8604,
  "2006": 8605,
  "\u0120proc": 8606,
  "\u0120fill": 8607,
  "\u0120renewable": 8608,
  "\u0120approval": 8609,
  "\u0120assozi": 8610,
  "ieben": 8611,
  "\u0120valley": 8612,
  "\u0120pleasant": 8613,
  "\u0120contrary": 8614,
  "\u0120ausreichend": 8615,
  "\u0120planned": 8616,
  "uit": 8617,
  "\u0120gr\u00c3\u00b6\u00c3\u0141eren": 8618,
  "\u0120humanit\u00c3\u00a4re": 8619,
  "\u0120taste": 8620,
  "\u0120lesung": 8621,
  "\u0120beachten": 8622,
  "ustr": 8623,
  "\u0120gewinnen": 8624,
  "\u0120deficit": 8625,
  "\u0120fro": 8626,
  "2010": 8627,
  "\u0120occur": 8628,
  "\u0120erwart": 8629,
  "mess": 8630,
  "\u0120\u00c3\u00bcberall": 8631,
  "\u0120forth": 8632,
  "zeichnete": 8633,
  "ensus": 8634,
  "\u0120strongly": 8635,
  "gestimmt": 8636,
  "\u0120datei": 8637,
  "\u0120entirely": 8638,
  "\u0120suc": 8639,
  "\u0120taxation": 8640,
  "\u0120videos": 8641,
  "\u0120ern\u00c3\u00a4hr": 8642,
  "emission": 8643,
  "\u0120800": 8644,
  "ffend": 8645,
  "\u0120preparation": 8646,
  "\u0120rum\u00c3\u00a4nien": 8647,
  "\u0120automob": 8648,
  "\u0120genuine": 8649,
  "\u0120zeiten": 8650,
  "\u0120mitteln": 8651,
  "\u0120sou": 8652,
  "\u0120nachhaltigen": 8653,
  "\u0120vorsitzen": 8654,
  "\u0120subsequ": 8655,
  "\u0120globalisierung": 8656,
  "\u0120memory": 8657,
  "\u0120arbeitet": 8658,
  "\u0120\u00c3\u00bcbernahme": 8659,
  "\u0120failed": 8660,
  "\u0120typical": 8661,
  "\u0120mechanisms": 8662,
  "\u0120gen\u00c3\u00bc": 8663,
  "\u0120bed\u00c3\u00bcrfnisse": 8664,
  "\u0120sonnen": 8665,
  "\u0120balanced": 8666,
  "\u0120attractive": 8667,
  "\u0120cuisine": 8668,
  "\u0120gro\u00c3\u0141britannien": 8669,
  "\u0120verbundenen": 8670,
  "\u0120registration": 8671,
  "wurf": 8672,
  "\u0120migr": 8673,
  "\u0120informiert": 8674,
  "\u0120dateien": 8675,
  "ago": 8676,
  "\u0120kulturellen": 8677,
  "stattung": 8678,
  "\u00c3\u00b6der": 8679,
  "\u0120indien": 8680,
  "\u01201991": 8681,
  "95": 8682,
  "\u0120angezeigt": 8683,
  "\u0120starke": 8684,
  "hle": 8685,
  "abilit\u00c3\u00a4t": 8686,
  "\u0120requested": 8687,
  "down": 8688,
  "igerung": 8689,
  "active": 8690,
  "\u0120schweden": 8691,
  "tenance": 8692,
  "\u0120gegr\u00c3\u00bcndet": 8693,
  "\u0120g\u00c3\u00bclt": 8694,
  "\u0120spent": 8695,
  "\u0120erkl\u00c3\u00a4ren": 8696,
  "\u0120reprodu": 8697,
  "05": 8698,
  "\u0120politics": 8699,
  "onym": 8700,
  "\u0120pin": 8701,
  "\u0120einsetzen": 8702,
  "\u0120interface": 8703,
  "\u0120gew\u00c3\u00bcn": 8704,
  "ma\u00c3\u0141en": 8705,
  "oring": 8706,
  "\u0120mountains": 8707,
  "\u0120ideen": 8708,
  "len": 8709,
  "lichten": 8710,
  "\u0120aktionen": 8711,
  "\u0120solcher": 8712,
  "\u0120musl": 8713,
  "\u0120shower": 8714,
  "\u0120qualit": 8715,
  "stieg": 8716,
  "\u0120wirkung": 8717,
  "\u0120ram": 8718,
  "\u0120lizenz": 8719,
  "\u0120stoff": 8720,
  "\u0120sitting": 8721,
  "ield": 8722,
  "\u0120empfehlung": 8723,
  "\u0120verteidigung": 8724,
  "lan": 8725,
  "\u0120mold": 8726,
  "\u0120britischen": 8727,
  "atlant": 8728,
  "\u0120enables": 8729,
  "seh": 8730,
  "\u0120fruit": 8731,
  "\u0120combination": 8732,
  "\u0120sto": 8733,
  "\u0120poly": 8734,
  "\u0120ma\u00c3\u0141e": 8735,
  "opol": 8736,
  "\u0120zug\u00c3\u00a4nglich": 8737,
  "\u0120recommendation": 8738,
  "\u0120privacy": 8739,
  "\u0120ticket": 8740,
  "\u0120deswegen": 8741,
  "\u0120verringerung": 8742,
  "\u0120sauber": 8743,
  "\u0120zahlungs": 8744,
  "spartner": 8745,
  "\u0120forderung": 8746,
  "\u0120f\u00c3\u00bchrung": 8747,
  "\u0120ue": 8748,
  "\u0120binding": 8749,
  "\u0120fem": 8750,
  "\u0120haupts\u00c3\u00a4chlich": 8751,
  "\u0120m\u00c3\u00bcs": 8752,
  "\u0120born": 8753,
  "\u0120claims": 8754,
  "\u0120pr\u00c3\u00bcf": 8755,
  "igkeits": 8756,
  "\u0120privile": 8757,
  "\u0120erleichtern": 8758,
  "\u0120durchaus": 8759,
  "\u0120teilnahme": 8760,
  "48": 8761,
  "\u0120nation": 8762,
  "liegt": 8763,
  "\u0120cub": 8764,
  "qual": 8765,
  "\u0120addressed": 8766,
  "\u0120chamber": 8767,
  "\u0120limits": 8768,
  "\u0120n\u00c3\u00a4her": 8769,
  "\u0120\u00c3\u00bcbernachten": 8770,
  "\u0120glass": 8771,
  "brauch": 8772,
  "\u0120webseite": 8773,
  "\u0120dor": 8774,
  "\u0120niemand": 8775,
  "\u0120mehrwert": 8776,
  "oms": 8777,
  "iziert": 8778,
  "\u0120fen": 8779,
  "\u0120pilot": 8780,
  "\u0120romant": 8781,
  "\u0120palace": 8782,
  "\u0120decla": 8783,
  "\u0120sched": 8784,
  "olitische": 8785,
  "\u0120incom": 8786,
  "\u0120austrian": 8787,
  "\u0120od": 8788,
  "\u0120architecture": 8789,
  "\u0120remo": 8790,
  "\u0120applicable": 8791,
  "\u0120entschlie\u00c3\u0141ungsant": 8792,
  "\u0120gestalten": 8793,
  "kam": 8794,
  "ipp": 8795,
  "\u0120iso": 8796,
  "umping": 8797,
  "fle": 8798,
  "\u0120tenn": 8799,
  "ikal": 8800,
  "\u0120button": 8801,
  "\u0120succeed": 8802,
  "\u0120gew\u00c3\u00a4hrt": 8803,
  "\u0120seien": 8804,
  "\u0120occasion": 8805,
  "26": 8806,
  "\u0120thinking": 8807,
  "\u0120teams": 8808,
  "\u0120ministry": 8809,
  "\u0120newsletter": 8810,
  "\u0120kyoto": 8811,
  "\u0120alliance": 8812,
  "\u0120horizont": 8813,
  "mittlung": 8814,
  "\u0120experienced": 8815,
  "\u0120dient": 8816,
  "\u0120t\u00c3\u00a4glich": 8817,
  "ador": 8818,
  "\u0120d\u00c3\u00bcrfte": 8819,
  "\u0120amerikanischen": 8820,
  "\u0120beraten": 8821,
  "\u0120boot": 8822,
  "\u0120supple": 8823,
  "tex": 8824,
  "erei": 8825,
  "programme": 8826,
  "\u0120patienten": 8827,
  "llung": 8828,
  "\u0120celebr": 8829,
  "\u0120ausges": 8830,
  "\u0120zielen": 8831,
  "isory": 8832,
  "\u0120appears": 8833,
  "gien": 8834,
  "ypt": 8835,
  "\u0120landschaft": 8836,
  "\u0120euros": 8837,
  "\u0120bezeichnet": 8838,
  "\u0120besorg": 8839,
  "\u0120sar": 8840,
  "\u0120zut": 8841,
  "\u0120einkauf": 8842,
  "\u0120anre": 8843,
  "\u0120treten": 8844,
  "\u0120highlight": 8845,
  "\u0120seriously": 8846,
  "\u0120manchmal": 8847,
  "\u0120wenden": 8848,
  "\u0120niveau": 8849,
  "\u0120jean": 8850,
  "\u0120zivilgesellschaft": 8851,
  "\u0120globale": 8852,
  "\u0120castle": 8853,
  "\u0120sah": 8854,
  "\u0120accur": 8855,
  "\u0120laden": 8856,
  "\u0120becomes": 8857,
  "era": 8858,
  "ries": 8859,
  "\u0120aufgefordert": 8860,
  "kop": 8861,
  "\u0120arrival": 8862,
  "\u0120connected": 8863,
  "\u0120sogen": 8864,
  "\u0120prepare": 8865,
  "\u0120gaz": 8866,
  "\u0120vorliegenden": 8867,
  "\u0120schlaf": 8868,
  "attform": 8869,
  "\u0120requests": 8870,
  "ingesch": 8871,
  "jected": 8872,
  "ypern": 8873,
  "wal": 8874,
  "\u0120parlamentar": 8875,
  "\u0120gegenw\u00c3\u00a4rtigen": 8876,
  "\u00c3\u00a4ufer": 8877,
  "station": 8878,
  "dex": 8879,
  "\u0120j\u00c3\u00a4hrlich": 8880,
  "\u0120langen": 8881,
  "\u0120command": 8882,
  "\u0120wenigen": 8883,
  "\u0120alex": 8884,
  "\u0120mrd": 8885,
  "\u0120contracts": 8886,
  "ua": 8887,
  "\u0120ib": 8888,
  "dep": 8889,
  "\u0120urgent": 8890,
  "\u0120friedens": 8891,
  "wenden": 8892,
  "\u0120gewiss": 8893,
  "\u0120voc": 8894,
  "\u0120hungary": 8895,
  "\u0120michael": 8896,
  "\u0120hingewiesen": 8897,
  "\u0120stein": 8898,
  "\u0120represented": 8899,
  "\u0120courses": 8900,
  "\u0120hospital": 8901,
  "\u0120experten": 8902,
  "\u0120iron": 8903,
  "\u0120inzwischen": 8904,
  "\u0120edition": 8905,
  "\u0120problemen": 8906,
  "\u0120gesp": 8907,
  "\u0120identified": 8908,
  "\u0120unabh\u00c3\u00a4ngigkeit": 8909,
  "\u0120banking": 8910,
  "\u0120unternommen": 8911,
  "tr\u00c3\u00a4cht": 8912,
  "\u0120cyprus": 8913,
  "90": 8914,
  "\u0120betonen": 8915,
  "\u0120lounge": 8916,
  "\u0120terrasse": 8917,
  "\u0120aspekt": 8918,
  "\u0120constitutional": 8919,
  "\u0120carefully": 8920,
  "pl\u00c3\u00a4tze": 8921,
  "\u0120anwendungen": 8922,
  "card": 8923,
  "\u0120verloren": 8924,
  "\u0120length": 8925,
  "\u0120election": 8926,
  "\u0120maintenance": 8927,
  "\u0120vehicle": 8928,
  "\u0120statements": 8929,
  "ategory": 8930,
  "\u0120hour": 8931,
  "\u0120vielzahl": 8932,
  "\u0120names": 8933,
  "\u0120emergency": 8934,
  "\u0120ausland": 8935,
  "\u0120nearly": 8936,
  "\u0120pred": 8937,
  "\u0120airlines": 8938,
  "\u0120strategien": 8939,
  "\u0120strategies": 8940,
  "\u0120bringing": 8941,
  "\u0120zust\u00c3\u00a4ndige": 8942,
  "\u0120improvements": 8943,
  "21": 8944,
  "\u0120datenbank": 8945,
  "raums": 8946,
  "bur": 8947,
  "\u0120t\u00c3\u00a4tigkeiten": 8948,
  "icians": 8949,
  "\u0120spezielle": 8950,
  "\u0120\u00c3\u00a4u\u00c3\u0141er": 8951,
  "\u0120entitled": 8952,
  "\u0120desk": 8953,
  "schr\u00c3\u00a4n": 8954,
  "\u0120slovak": 8955,
  "\u0120store": 8956,
  "\u0120articles": 8957,
  "\u0120outstanding": 8958,
  "\u0120covers": 8959,
  "nor": 8960,
  "\u0120konkurr": 8961,
  "\u0120nennen": 8962,
  "\u0120moving": 8963,
  "iques": 8964,
  "\u0120inten": 8965,
  "west": 8966,
  "imed": 8967,
  "\u0120wollte": 8968,
  "\u0120manufacturing": 8969,
  "\u0120unf": 8970,
  "\u0120ausbau": 8971,
  "\u0120oste": 8972,
  "\u0120courts": 8973,
  "\u0120h\u00c3\u00a4lfte": 8974,
  "\u0120n\u00c3\u00bctz": 8975,
  "\u0120condem": 8976,
  "beh\u00c3\u00b6rde": 8977,
  "\u0120welcomed": 8978,
  "\u0120safeguard": 8979,
  "\u0120cer": 8980,
  "econom": 8981,
  "schlu\u00c3\u0141": 8982,
  "\u0120bestandteil": 8983,
  "\u0120saint": 8984,
  "\u0120pill": 8985,
  "\u0120liberalisierung": 8986,
  "\u0120yester": 8987,
  "tte": 8988,
  "sph": 8989,
  "\u0120album": 8990,
  "\u0120nachfolgend": 8991,
  "flug": 8992,
  "dule": 8993,
  "\u0120gir": 8994,
  "\u0120magaz": 8995,
  "\u0120todes": 8996,
  "\u0120roh": 8997,
  "\u0120drittl\u00c3\u00a4ndern": 8998,
  "\u0120drawn": 8999,
  "\u0120washing": 9000,
  "\u0120testing": 9001,
[...]
